{
  "version": "1.0",
  "truncation": null,
  "padding": null,
  "added_tokens": [
    {
      "id": 0,
      "content": "[UNK]",
      "single_word": false,
      "lstrip": false,
      "rstrip": false,
      "normalized": false,
      "special": true
    },
    {
      "id": 1,
      "content": "[SOS]",
      "single_word": false,
      "lstrip": false,
      "rstrip": false,
      "normalized": false,
      "special": true
    },
    {
      "id": 2,
      "content": "[EOS]",
      "single_word": false,
      "lstrip": false,
      "rstrip": false,
      "normalized": false,
      "special": true
    },
    {
      "id": 3,
      "content": "[PAD]",
      "single_word": false,
      "lstrip": false,
      "rstrip": false,
      "normalized": false,
      "special": true
    }
  ],
  "normalizer": null,
  "pre_tokenizer": {
    "type": "ByteLevel",
    "add_prefix_space": true,
    "trim_offsets": true,
    "use_regex": true
  },
  "post_processor": null,
  "decoder": null,
  "model": {
    "type": "BPE",
    "dropout": null,
    "unk_token": "[UNK]",
    "continuing_subword_prefix": null,
    "end_of_word_suffix": null,
    "fuse_unk": false,
    "byte_fallback": false,
    "vocab": {
      "[UNK]": 0,
      "[SOS]": 1,
      "[EOS]": 2,
      "[PAD]": 3,
      "a": 4,
      "b": 5,
      "c": 6,
      "d": 7,
      "e": 8,
      "f": 9,
      "g": 10,
      "h": 11,
      "i": 12,
      "j": 13,
      "k": 14,
      "l": 15,
      "m": 16,
      "n": 17,
      "o": 18,
      "p": 19,
      "q": 20,
      "r": 21,
      "s": 22,
      "t": 23,
      "u": 24,
      "v": 25,
      "w": 26,
      "x": 27,
      "y": 28,
      "z": 29,
      "Ġ": 30,
      "in": 31,
      "Ġs": 32,
      "er": 33,
      "Ġc": 34,
      "on": 35,
      "re": 36,
      "Ġp": 37,
      "en": 38,
      "ing": 39,
      "Ġa": 40,
      "ti": 41,
      "ed": 42,
      "Ġm": 43,
      "an": 44,
      "al": 45,
      "Ġt": 46,
      "or": 47,
      "Ġf": 48,
      "ar": 49,
      "Ġl": 50,
      "Ġb": 51,
      "Ġd": 52,
      "Ġw": 53,
      "st": 54,
      "le": 55,
      "at": 56,
      "ou": 57,
      "Ġg": 58,
      "it": 59,
      "Ġe": 60,
      "Ġh": 61,
      "Ġre": 62,
      "ce": 63,
      "om": 64,
      "tion": 65,
      "ro": 66,
      "ent": 67,
      "el": 68,
      "Ġn": 69,
      "et": 70,
      "ss": 71,
      "ic": 72,
      "ay": 73,
      "ly": 74,
      "Ġin": 75,
      "id": 76,
      "Ġst": 77,
      "il": 78,
      "se": 79,
      "ol": 80,
      "Ġu": 81,
      "ve": 82,
      "ec": 83,
      "ra": 84,
      "ig": 85,
      "is": 86,
      "ch": 87,
      "ow": 88,
      "op": 89,
      "ation": 90,
      "ver": 91,
      "ke": 92,
      "ot": 93,
      "Ġpro": 94,
      "ge": 95,
      "Ġcom": 96,
      "ad": 97,
      "ri": 98,
      "Ġth": 99,
      "Ġcon": 100,
      "am": 101,
      "oo": 102,
      "Ġch": 103,
      "Ġne": 104,
      "ul": 105,
      "one": 106,
      "ur": 107,
      "ate": 108,
      "ac": 109,
      "Ġde": 110,
      "Ġli": 111,
      "as": 112,
      "ment": 113,
      "Ġex": 114,
      "Ġv": 115,
      "ter": 116,
      "ir": 117,
      "Ġal": 118,
      "th": 119,
      "un": 120,
      "ity": 121,
      "im": 122,
      "igh": 123,
      "Ġr": 124,
      "ble": 125,
      "Ġse": 126,
      "ff": 127,
      "oun": 128,
      "qu": 129,
      "pp": 130,
      "ear": 131,
      "Ġk": 132,
      "Ġsu": 133,
      "Ġo": 134,
      "Ġma": 135,
      "me": 136,
      "Ġy": 137,
      "Ġwor": 138,
      "ant": 139,
      "Ġen": 140,
      "Ġsh": 141,
      "ine": 142,
      "us": 143,
      "and": 144,
      "ort": 145,
      "Ġac": 146,
      "ion": 147,
      "Ġti": 148,
      "ld": 149,
      "Ġsp": 150,
      "oc": 151,
      "ure": 152,
      "ut": 153,
      "Ġj": 154,
      "Ġpl": 155,
      "em": 156,
      "um": 157,
      "ight": 158,
      "ally": 159,
      "ea": 160,
      "est": 161,
      "king": 162,
      "her": 163,
      "Ġan": 164,
      "all": 165,
      "od": 166,
      "Ġad": 167,
      "end": 168,
      "age": 169,
      "es": 170,
      "art": 171,
      "Ġone": 172,
      "ect": 173,
      "Ġdi": 174,
      "uc": 175,
      "ud": 176,
      "tic": 177,
      "ard": 178,
      "ell": 179,
      "Ġper": 180,
      "vi": 181,
      "Ġcomp": 182,
      "Ġcl": 183,
      "Ġun": 184,
      "are": 185,
      "ould": 186,
      "our": 187,
      "Ġtime": 188,
      "Ġpo": 189,
      "ry": 190,
      "Ġpre": 191,
      "orm": 192,
      "Ġta": 193,
      "ide": 194,
      "ome": 195,
      "per": 196,
      "og": 197,
      "ind": 198,
      "ook": 199,
      "Ġar": 200,
      "Ġgo": 201,
      "Ġman": 202,
      "ain": 203,
      "gh": 204,
      "ite": 205,
      "ist": 206,
      "ood": 207,
      "Ġyear": 208,
      "ast": 209,
      "Ġsa": 210,
      "Ġim": 211,
      "ust": 212,
      "Ġle": 213,
      "Ġget": 214,
      "ack": 215,
      "ence": 216,
      "Ġcont": 217,
      "Ġnew": 218,
      "sp": 219,
      "ound": 220,
      "Ġqu": 221,
      "ill": 222,
      "Ġwe": 223,
      "able": 224,
      "ance": 225,
      "ber": 226,
      "ue": 227,
      "ase": 228,
      "ong": 229,
      "ven": 230,
      "tive": 231,
      "der": 232,
      "reat": 233,
      "Ġlo": 234,
      "ous": 235,
      "Ġlike": 236,
      "ab": 237,
      "Ġop": 238,
      "Ġus": 239,
      "Ġkn": 240,
      "ip": 241,
      "fe": 242,
      "Ġapp": 243,
      "ough": 244,
      "ie": 245,
      "ace": 246,
      "vel": 247,
      "ree": 248,
      "ial": 249,
      "Ġwork": 250,
      "ct": 251,
      "Ġco": 252,
      "Ġinc": 253,
      "Ġme": 254,
      "Ġser": 255,
      "Ġever": 256,
      "Ġro": 257,
      "ive": 258,
      "Ġpe": 259,
      "so": 260,
      "Ġmake": 261,
      "ail": 262,
      "out": 263,
      "Ġneed": 264,
      "Ġknow": 265,
      "Ġwould": 266,
      "Ġday": 267,
      "pl": 268,
      "ign": 269,
      "ated": 270,
      "Ġtra": 271,
      "Ġalso": 272,
      "ap": 273,
      "iz": 274,
      "di": 275,
      "Ġor": 276,
      "Ġhel": 277,
      "Ġinter": 278,
      "form": 279,
      "ep": 280,
      "Ġdis": 281,
      "cess": 282,
      "Ġfe": 283,
      "Ġtr": 284,
      "ary": 285,
      "ting": 286,
      "ople": 287,
      "Ġpeople": 288,
      "ffer": 289,
      "Ġmay": 290,
      "port": 291,
      "low": 292,
      "old": 293,
      "ful": 294,
      "ame": 295,
      "Ġrec": 296,
      "Ġhe": 297,
      "Ġcomm": 298,
      "ft": 299,
      "ink": 300,
      "ore": 301,
      "Ġmar": 302,
      "Ġsc": 303,
      "ish": 304,
      "act": 305,
      "Ġevery": 306,
      "ire": 307,
      "ely": 308,
      "ount": 309,
      "tt": 310,
      "ild": 311,
      "sh": 312,
      "ag": 313,
      "Ġfir": 314,
      "Ġhelp": 315,
      "vice": 316,
      "Ġam": 317,
      "Ġem": 318,
      "Ġbl": 319,
      "ll": 320,
      "ice": 321,
      "ory": 322,
      "Ġtw": 323,
      "oy": 324,
      "Ġres": 325,
      "Ġsee": 326,
      "duc": 327,
      "os": 328,
      "ick": 329,
      "Ġwh": 330,
      "way": 331,
      "ult": 332,
      "Ġph": 333,
      "Ġwant": 334,
      "int": 335,
      "Ġgood": 336,
      "ning": 337,
      "Ġwell": 338,
      "Ġway": 339,
      "Ġmo": 340,
      "ank": 341,
      "ub": 342,
      "Ġfirst": 343,
      "ving": 344,
      "ssion": 345,
      "ved": 346,
      "Ġread": 347,
      "Ġbe": 348,
      "Ġdes": 349,
      "Ġuse": 350,
      "Ġpa": 351,
      "ple": 352,
      "Ġbu": 353,
      "Ġcol": 354,
      "Ġpart": 355,
      "Ġmany": 356,
      "ily": 357,
      "Ġmu": 358,
      "rea": 359,
      "other": 360,
      "Ġra": 361,
      "Ġha": 362,
      "Ġtake": 363,
      "Ġcons": 364,
      "Ġgreat": 365,
      "itt": 366,
      "pt": 367,
      "ne": 368,
      "Ġbus": 369,
      "ith": 370,
      "Ġbr": 371,
      "vid": 372,
      "Ġback": 373,
      "Ġsaid": 374,
      "ord": 375,
      "Ġke": 376,
      "Ġpr": 377,
      "Ġpri": 378,
      "Ġte": 379,
      "Ġeven": 380,
      "Ġlife": 381,
      "if": 382,
      "ater": 383,
      "Ġacc": 384,
      "son": 385,
      "hing": 386,
      "own": 387,
      "ange": 388,
      "Ġag": 389,
      "ek": 390,
      "Ġhome": 391,
      "Ġgr": 392,
      "Ġpar": 393,
      "Ġmon": 394,
      "Ġsm": 395,
      "ical": 396,
      "Ġsec": 397,
      "Ġhigh": 398,
      "Ġmuch": 399,
      "ress": 400,
      "Ġservice": 401,
      "Ġtwo": 402,
      "Ġfind": 403,
      "row": 404,
      "ket": 405,
      "ade": 406,
      "lud": 407,
      "Ġexper": 408,
      "Ġthing": 409,
      "iness": 410,
      "Ġstud": 411,
      "Ġjo": 412,
      "ia": 413,
      "ual": 414,
      "Ġlook": 415,
      "nt": 416,
      "ience": 417,
      "Ġreg": 418,
      "Ġstart": 419,
      "Ġrel": 420,
      "Ġweek": 421,
      "lic": 422,
      "Ġinform": 423,
      "Ġcar": 424,
      "ool": 425,
      "Ġbest": 426,
      "Ġcould": 427,
      "Ġass": 428,
      "Ġinclud": 429,
      "Ġsupp": 430,
      "Ġla": 431,
      "Ġsch": 432,
      "ating": 433,
      "bs": 434,
      "Ġdec": 435,
      "ile": 436,
      "any": 437,
      "Ġproduc": 438,
      "Ġsy": 439,
      "Ġlove": 440,
      "Ġexp": 441,
      "Ġfun": 442,
      "Ġwith": 443,
      "ens": 444,
      "Ġbusiness": 445,
      "Ġfl": 446,
      "Ġgu": 447,
      "Ġright": 448,
      "Ġsay": 449,
      "Ġwr": 450,
      "ond": 451,
      "enti": 452,
      "Ġthink": 453,
      "xt": 454,
      "Ġple": 455,
      "Ġloc": 456,
      "ang": 457,
      "Ġlong": 458,
      "Ġmin": 459,
      "Ġworld": 460,
      "Ġadd": 461,
      "Ġatt": 462,
      "ility": 463,
      "iss": 464,
      "Ġstr": 465,
      "vent": 466,
      "Ġfin": 467,
      "te": 468,
      "Ġinformation": 469,
      "ject": 470,
      "Ġfam": 471,
      "Ġsti": 472,
      "Ġind": 473,
      "ction": 474,
      "Ġplay": 475,
      "Ġreally": 476,
      "pe": 477,
      "Ġlea": 478,
      "Ġcome": 479,
      "Ġspec": 480,
      "Ġperson": 481,
      "Ġfol": 482,
      "Ġcompany": 483,
      "Ġlast": 484,
      "erm": 485,
      "day": 486,
      "anc": 487,
      "Ġthank": 488,
      "vers": 489,
      "dition": 490,
      "Ġpol": 491,
      "Ġplace": 492,
      "ach": 493,
      "Ġset": 494,
      "ram": 495,
      "urn": 496,
      "Ġpost": 497,
      "unity": 498,
      "Ġcall": 499,
      "Ġas": 500,
      "Ġbas": 501,
      "Ġshow": 502,
      "Ġsim": 503,
      "Ġmed": 504,
      "Ġeff": 505,
      "Ġstate": 506,
      "Ġplan": 507,
      "ass": 508,
      "Ġav": 509,
      "Ġins": 510,
      "Ġcre": 511,
      "Ġfor": 512,
      "ew": 513,
      "Ġinst": 514,
      "ph": 515,
      "Ġany": 516,
      "Ġhapp": 517,
      "Ġvis": 518,
      "Ġrequ": 519,
      "Ġchild": 520,
      "Ġpres": 521,
      "ner": 522,
      "Ġfree": 523,
      "Ġimp": 524,
      "lect": 525,
      "ible": 526,
      "ason": 527,
      "ech": 528,
      "Ġend": 529,
      "Ġed": 530,
      "Ġmade": 531,
      "Ġdisc": 532,
      "Ġid": 533,
      "Ġbook": 534,
      "ty": 535,
      "atch": 536,
      "ian": 537,
      "alth": 538,
      "Ġthough": 539,
      "Ġdiffer": 540,
      "Ġstill": 541,
      "ute": 542,
      "ually": 543,
      "riend": 544,
      "Ġfr": 545,
      "Ġgen": 546,
      "ious": 547,
      "etter": 548,
      "Ġplease": 549,
      "velop": 550,
      "Ġgoing": 551,
      "Ġfamily": 552,
      "Ġfeel": 553,
      "Ġfollow": 554,
      "Ġlot": 555,
      "Ġfa": 556,
      "Ġso": 557,
      "Ġdevelop": 558,
      "Ġprog": 559,
      "Ġoffer": 560,
      "Ġcare": 561,
      "Ġbo": 562,
      "ution": 563,
      "ether": 564,
      "Ġrem": 565,
      "Ġoff": 566,
      "Ġform": 567,
      "Ġsur": 568,
      "Ġcount": 569,
      "ale": 570,
      "Ġeas": 571,
      "arch": 572,
      "Ġreal": 573,
      "ric": 574,
      "Ġmarket": 575,
      "Ġdesign": 576,
      "Ġout": 577,
      "Ġaround": 578,
      "ath": 579,
      "Ġmonth": 580,
      "Ġsome": 581,
      "ose": 582,
      "gan": 583,
      "Ġkeep": 584,
      "Ġfriend": 585,
      "ee": 586,
      "stem": 587,
      "Ġgl": 588,
      "Ġused": 589,
      "ise": 590,
      "ular": 591,
      "Ġca": 592,
      "Ġhealth": 593,
      "Ġear": 594,
      "line": 595,
      "fer": 596,
      "Ġcust": 597,
      "ways": 598,
      "Ġmem": 599,
      "ient": 600,
      "ative": 601,
      "Ġlist": 602,
      "Ġlear": 603,
      "Ġschool": 604,
      "ature": 605,
      "ouse": 606,
      "ooking": 607,
      "enc": 608,
      "ower": 609,
      "Ġsystem": 610,
      "omet": 611,
      "Ġgive": 612,
      "Ġsoc": 613,
      "tiv": 614,
      "Ġgame": 615,
      "Ġdet": 616,
      "Ġalways": 617,
      "Ġup": 618,
      "ug": 619,
      "ational": 620,
      "Ġcustom": 621,
      "Ġact": 622,
      "Ġexperience": 623,
      "Ġpub": 624,
      "Ġtry": 625,
      "Ġhear": 626,
      "Ġsin": 627,
      "Ġchar": 628,
      "Ġresp": 629,
      "ittle": 630,
      "ited": 631,
      "Ġnum": 632,
      "Ġcle": 633,
      "Ġlittle": 634,
      "Ġhand": 635,
      "Ġnot": 636,
      "rac": 637,
      "ib": 638,
      "iting": 639,
      "Ġext": 640,
      "ship": 641,
      "Ġproduct": 642,
      "ull": 643,
      "Ġsk": 644,
      "Ġcent": 645,
      "thing": 646,
      "Ġno": 647,
      "Ġcour": 648,
      "Ġarea": 649,
      "Ġgi": 650,
      "Ġmod": 651,
      "ked": 652,
      "Ġchange": 653,
      "Ġfound": 654,
      "ert": 655,
      "Ġtran": 656,
      "Ġsure": 657,
      "Ġrep": 658,
      "Ġdep": 659,
      "Ġunder": 660,
      "Ġprovid": 661,
      "Ġcomple": 662,
      "Ġimport": 663,
      "rect": 664,
      "ality": 665,
      "li": 666,
      "Ġnext": 667,
      "Ġsomet": 668,
      "Ġmet": 669,
      "Ġsomething": 670,
      "ger": 671,
      "Ġint": 672,
      "Ġon": 673,
      "Ġcur": 674,
      "olog": 675,
      "Ġopen": 676,
      "Ġdef": 677,
      "Ġmean": 678,
      "ition": 679,
      "Ġbetter": 680,
      "Ġavail": 681,
      "Ġdel": 682,
      "rib": 683,
      "Ġtod": 684,
      "ever": 685,
      "oot": 686,
      "Ġsupport": 687,
      "read": 688,
      "Ġbig": 689,
      "Ġtech": 690,
      "Ġbec": 691,
      "Ġprogram": 692,
      "ern": 693,
      "ness": 694,
      "Ġcor": 695,
      "Ġeng": 696,
      "Ġevent": 697,
      "ider": 698,
      "Ġsince": 699,
      "Ġtop": 700,
      "Ġteam": 701,
      "Ġent": 702,
      "Ġlead": 703,
      "Ġsol": 704,
      "Ġgra": 705,
      "Ġproject": 706,
      "Ġtoday": 707,
      "ium": 708,
      "led": 709,
      "Ġsw": 710,
      "estion": 711,
      "oup": 712,
      "Ġhop": 713,
      "ize": 714,
      "less": 715,
      "Ġdifferent": 716,
      "ather": 717,
      "Ġpay": 718,
      "ef": 719,
      "Ġgener": 720,
      "ward": 721,
      "Ġold": 722,
      "Ġinterest": 723,
      "Ġorder": 724,
      "Ġlet": 725,
      "Ġquestion": 726,
      "Ġsub": 727,
      "Ġpur": 728,
      "Ġstudent": 729,
      "ific": 730,
      "Ġposs": 731,
      "Ġob": 732,
      "Ġsite": 733,
      "Ġbel": 734,
      "Ġdri": 735,
      "Ġrequire": 736,
      "Ġty": 737,
      "Ġavailable": 738,
      "Ġret": 739,
      "Ġnumber": 740,
      "ost": 741,
      "Ġbea": 742,
      "Ġgot": 743,
      "Ġanother": 744,
      "Ġnever": 745,
      "Ġsign": 746,
      "Ġprocess": 747,
      "Ġval": 748,
      "Ġhouse": 749,
      "ork": 750,
      "ict": 751,
      "ix": 752,
      "joy": 753,
      "up": 754,
      "Ġrun": 755,
      "Ġthree": 756,
      "Ġenjoy": 757,
      "Ġlooking": 758,
      "oman": 759,
      "Ġprov": 760,
      "Ġinf": 761,
      "blem": 762,
      "Ġdr": 763,
      "Ġlar": 764,
      "ration": 765,
      "Ġpoint": 766,
      "Ġintern": 767,
      "Ġhour": 768,
      "Ġproblem": 769,
      "ital": 770,
      "eck": 771,
      "red": 772,
      "ety": 773,
      "Ġmust": 774,
      "gy": 775,
      "Ġput": 776,
      "Ġhard": 777,
      "Ġmight": 778,
      "Ġtechn": 779,
      "az": 780,
      "amp": 781,
      "Ġwar": 782,
      "Ġusing": 783,
      "Ġiss": 784,
      "Ġimportant": 785,
      "Ġcontin": 786,
      "view": 787,
      "Ġrest": 788,
      "Ġwebs": 789,
      "Ġbuild": 790,
      "Ġmeet": 791,
      "Ġwithout": 792,
      "Ġab": 793,
      "Ġwebsite": 794,
      "Ġrece": 795,
      "ash": 796,
      "Ġfre": 797,
      "Ġwin": 798,
      "Ġorgan": 799,
      "Ġshare": 800,
      "lish": 801,
      "ident": 802,
      "Ġfar": 803,
      "oor": 804,
      "illion": 805,
      "Ġhow": 806,
      "Ġcountry": 807,
      "Ġgroup": 808,
      "Ġdat": 809,
      "Ġincre": 810,
      "ody": 811,
      "Ġmember": 812,
      "mber": 813,
      "Ġcustomer": 814,
      "Ġtal": 815,
      "Ġfact": 816,
      "Ġappro": 817,
      "Ġsmall": 818,
      "Ġgrow": 819,
      "Ġclass": 820,
      "Ġpage": 821,
      "Ġcost": 822,
      "Ġtri": 823,
      "Ġstory": 824,
      "Ġfood": 825,
      "vern": 826,
      "br": 827,
      "oney": 828,
      "Ġworking": 829,
      "Ġel": 830,
      "Ġhowever": 831,
      "Ġda": 832,
      "Ġroom": 833,
      "Ġuni": 834,
      "Ġcity": 835,
      "Ġhope": 836,
      "Ġap": 837,
      "tice": 838,
      "atter": 839,
      "Ġissue": 840,
      "Ġwoman": 841,
      "Ġindi": 842,
      "tim": 843,
      "ision": 844,
      "Ġcurre": 845,
      "get": 846,
      "uth": 847,
      "Ġwa": 848,
      "Ġidea": 849,
      "Ġcommunity": 850,
      "Ġcap": 851,
      "Ġconsider": 852,
      "Ġvisit": 853,
      "Ġconf": 854,
      "Ġjob": 855,
      "Ġmaking": 856,
      "ense": 857,
      "Ġlaw": 858,
      "Ġstand": 859,
      "Ġphot": 860,
      "Ġsuc": 861,
      "Ġconc": 862,
      "ied": 863,
      "Ġspecial": 864,
      "Ġable": 865,
      "ock": 866,
      "Ġwater": 867,
      "Ġmus": 868,
      "Ġallow": 869,
      "io": 870,
      "Ġfull": 871,
      "Ġinv": 872,
      "Ġsocial": 873,
      "Ġproper": 874,
      "Ġmen": 875,
      "land": 876,
      "Ġpartic": 877,
      "Ġreport": 878,
      "Ġtrans": 879,
      "Ġcheck": 880,
      "stand": 881,
      "Ġseem": 882,
      "Ġprovide": 883,
      "ploy": 884,
      "Ġresult": 885,
      "Ġcase": 886,
      "Ġvide": 887,
      "ross": 888,
      "ware": 889,
      "Ġinve": 890,
      "ump": 891,
      "Ġdirect": 892,
      "Ġadv": 893,
      "Ġpower": 894,
      "ining": 895,
      "Ġincluding": 896,
      "Ġvideo": 897,
      "Ġgovern": 898,
      "Ġlevel": 899,
      "Ġcontact": 900,
      "Ġexam": 901,
      "ately": 902,
      "Ġexpl": 903,
      "omm": 904,
      "Ġdist": 905,
      "Ġmoney": 906,
      "Ġvar": 907,
      "Ġstre": 908,
      "Ġcurrent": 909,
      "Ġcourse": 910,
      "Ġpublic": 911,
      "Ġonline": 912,
      "Ġbro": 913,
      "Ġhead": 914,
      "con": 915,
      "Ġhot": 916,
      "uck": 917,
      "ertain": 918,
      "ob": 919,
      "eric": 920,
      "atur": 921,
      "Ġlearn": 922,
      "ys": 923,
      "Ġthanks": 924,
      "ology": 925,
      "Ġover": 926,
      "iew": 927,
      "Ġface": 928,
      "Ġterm": 929,
      "ource": 930,
      "Ġview": 931,
      "Ġbased": 932,
      "Ġdata": 933,
      "Ġprofe": 934,
      "Ġcolle": 935,
      "ster": 936,
      "Ġgre": 937,
      "Ġair": 938,
      "Ġblog": 939,
      "Ġaccess": 940,
      "Ġprice": 941,
      "tivity": 942,
      "Ġtea": 943,
      "Ġreason": 944,
      "ker": 945,
      "Ġbuy": 946,
      "tis": 947,
      "use": 948,
      "Ġother": 949,
      "Ġrese": 950,
      "Ġsecond": 951,
      "tical": 952,
      "ency": 953,
      "Ġname": 954,
      "Ġann": 955,
      "mer": 956,
      "ected": 957,
      "ieve": 958,
      "ruc": 959,
      "ted": 960,
      "ized": 961,
      "Ġwithin": 962,
      "ential": 963,
      "du": 964,
      "ator": 965,
      "Ġprot": 966,
      "Ġpop": 967,
      "Ġhum": 968,
      "Ġresearch": 969,
      "Ġben": 970,
      "Ġquality": 971,
      "tit": 972,
      "Ġtype": 973,
      "Ġkind": 974,
      "Ġminute": 975,
      "Ġthought": 976,
      "Ġline": 977,
      "Ġgetting": 978,
      "Ġlarge": 979,
      "ling": 980,
      "Ġlocal": 981,
      "Ġfil": 982,
      "Ġz": 983,
      "spec": 984,
      "Ġleg": 985,
      "time": 986,
      "Ġameric": 987,
      "ead": 988,
      "Ġtreat": 989,
      "ole": 990,
      "Ġeasy": 991,
      "Ġpos": 992,
      "gin": 993,
      "Ġve": 994,
      "Ġemploy": 995,
      "Ġindust": 996,
      "Ġnight": 997,
      "Ġsta": 998,
      "Ġref": 999,
      "Ġaddition": 1000,
      "Ġunderstand": 1001,
      "Ġprom": 1002,
      "Ġfollowing": 1003,
      "Ġemail": 1004,
      "Ġequ": 1005,
      "ably": 1006,
      "Ġsit": 1007,
      "iron": 1008,
      "over": 1009,
      "Ġaway": 1010,
      "ont": 1011,
      "outh": 1012,
      "Ġaff": 1013,
      "Ġdoc": 1014,
      "Ġwal": 1015,
      "que": 1016,
      "Ġgovernment": 1017,
      "Ġtell": 1018,
      "ined": 1019,
      "Ġdem": 1020,
      "Ġpossible": 1021,
      "ften": 1022,
      "Ġrele": 1023,
      "ogether": 1024,
      "Ġsuccess": 1025,
      "ently": 1026,
      "tle": 1027,
      "Ġstudy": 1028,
      "Ġprac": 1029,
      "here": 1030,
      "ris": 1031,
      "Ġsing": 1032,
      "Ġperform": 1033,
      "vely": 1034,
      "Ġprofession": 1035,
      "Ġstep": 1036,
      "Ġcontro": 1037,
      "Ġbit": 1038,
      "Ġeduc": 1039,
      "ffic": 1040,
      "Ġdeal": 1041,
      "Ġword": 1042,
      "Ġoften": 1043,
      "Ġcover": 1044,
      "ule": 1045,
      "ton": 1046,
      "Ġuser": 1047,
      "Ġtogether": 1048,
      "ken": 1049,
      "Ġdone": 1050,
      "Ġexce": 1051,
      "Ġrespon": 1052,
      "Ġperf": 1053,
      "Ġwatch": 1054,
      "iel": 1055,
      "Ġexc": 1056,
      "Ġsever": 1057,
      "Ġoper": 1058,
      "uti": 1059,
      "vor": 1060,
      "Ġbar": 1061,
      "Ġcreate": 1062,
      "Ġstay": 1063,
      "ection": 1064,
      "Ġlive": 1065,
      "man": 1066,
      "val": 1067,
      "ission": 1068,
      "Ġcreat": 1069,
      "ding": 1070,
      "Ġsun": 1071,
      "Ġpast": 1072,
      "Ġopport": 1073,
      "Ġenough": 1074,
      "ck": 1075,
      "oice": 1076,
      "ote": 1077,
      "Ġmedium": 1078,
      "ury": 1079,
      "Ġpresent": 1080,
      "Ġsl": 1081,
      "Ġside": 1082,
      "ugh": 1083,
      "Ġturn": 1084,
      "Ġopportunity": 1085,
      "Ġmillion": 1086,
      "Ġmanage": 1087,
      "ization": 1088,
      "Ġbring": 1089,
      "onder": 1090,
      "Ġartic": 1091,
      "Ġleast": 1092,
      "work": 1093,
      "Ġclient": 1094,
      "ially": 1095,
      "Ġenv": 1096,
      "Ġperfect": 1097,
      "arent": 1098,
      "Ġimpro": 1099,
      "Ġelect": 1100,
      "Ġhist": 1101,
      "ha": 1102,
      "Ġpain": 1103,
      "ending": 1104,
      "Ġlight": 1105,
      "Ġarticle": 1106,
      "Ġfour": 1107,
      "ier": 1108,
      "Ġfeature": 1109,
      "Ġwonder": 1110,
      "Ġmove": 1111,
      "ording": 1112,
      "ready": 1113,
      "Ġmind": 1114,
      "Ġcamp": 1115,
      "Ġoption": 1116,
      "Ġdetail": 1117,
      "Ġalready": 1118,
      "Ġbrea": 1119,
      "Ġdra": 1120,
      "Ġsomeone": 1121,
      "cc": 1122,
      "de": 1123,
      "iety": 1124,
      "room": 1125,
      "ode": 1126,
      "Ġbeauti": 1127,
      "Ġcomment": 1128,
      "iver": 1129,
      "Ġbody": 1130,
      "Ġart": 1131,
      "Ġpersonal": 1132,
      "ased": 1133,
      "Ġtest": 1134,
      "Ġstop": 1135,
      "be": 1136,
      "iti": 1137,
      "Ġcri": 1138,
      "Ġlink": 1139,
      "Ġprofessional": 1140,
      "Ġdevelopment": 1141,
      "Ġbeautiful": 1142,
      "Ġeverything": 1143,
      "Ġcal": 1144,
      "ication": 1145,
      "Ġreview": 1146,
      "Ġalong": 1147,
      "Ġmom": 1148,
      "ination": 1149,
      "Ġteach": 1150,
      "Ġkid": 1151,
      "Ġapplic": 1152,
      "icy": 1153,
      "Ġothers": 1154,
      "Ġnet": 1155,
      "Ġwhether": 1156,
      "Ġest": 1157,
      "Ġsum": 1158,
      "Ġshort": 1159,
      "Ġauth": 1160,
      "Ġseason": 1161,
      "Ġfore": 1162,
      "Ġele": 1163,
      "Ġconn": 1164,
      "Ġclick": 1165,
      "Ġnon": 1166,
      "iday": 1167,
      "Ġago": 1168,
      "Ġbecome": 1169,
      "Ġenviron": 1170,
      "Ġhappy": 1171,
      "Ġindustry": 1172,
      "Ġenvironment": 1173,
      "Ġweb": 1174,
      "wer": 1175,
      "Ġfac": 1176,
      "Ġdown": 1177,
      "Ġeveryone": 1178,
      "iter": 1179,
      "itch": 1180,
      "ield": 1181,
      "Ġcou": 1182,
      "Ġfoot": 1183,
      "Ġshop": 1184,
      "Ġaccount": 1185,
      "Ġparty": 1186,
      "Ġri": 1187,
      "Ġhappen": 1188,
      "Ġx": 1189,
      "Ġcard": 1190,
      "Ġproperty": 1191,
      "fort": 1192,
      "Ġfoc": 1193,
      "gr": 1194,
      "Ġwind": 1195,
      "Ġinvest": 1196,
      "ged": 1197,
      "ption": 1198,
      "ument": 1199,
      "Ġoffice": 1200,
      "ced": 1201,
      "Ġyoun": 1202,
      "Ġnews": 1203,
      "Ġtravel": 1204,
      "Ġnear": 1205,
      "Ġis": 1206,
      "rist": 1207,
      "Ġactually": 1208,
      "air": 1209,
      "Ġexample": 1210,
      "Ġbenef": 1211,
      "Ġquick": 1212,
      "Ġfut": 1213,
      "elf": 1214,
      "Ġspace": 1215,
      "inal": 1216,
      "Ġclean": 1217,
      "Ġfocus": 1218,
      "Ġsug": 1219,
      "Ġseveral": 1220,
      "Ġvalue": 1221,
      "med": 1222,
      "Ġcertain": 1223,
      "Ġpot": 1224,
      "Ġfuture": 1225,
      "Ġecon": 1226,
      "ister": 1227,
      "Ġsale": 1228,
      "Ġyet": 1229,
      "Ġeconom": 1230,
      "Ġhuman": 1231,
      "mit": 1232,
      "Ġmor": 1233,
      "Ġactivity": 1234,
      "ies": 1235,
      "artment": 1236,
      "Ġkey": 1237,
      "Ġindivid": 1238,
      "Ġphoto": 1239,
      "Ġstore": 1240,
      "Ġbegin": 1241,
      "orn": 1242,
      "Ġcontent": 1243,
      "ought": 1244,
      "Ġanything": 1245,
      "ulation": 1246,
      "Ġmusic": 1247,
      "Ġsuper": 1248,
      "unch": 1249,
      "ergy": 1250,
      "Ġpass": 1251,
      "Ġce": 1252,
      "Ġage": 1253,
      "oad": 1254,
      "ark": 1255,
      "osed": 1256,
      "Ġpict": 1257,
      "ism": 1258,
      "Ġbed": 1259,
      "ird": 1260,
      "ability": 1261,
      "erc": 1262,
      "Ġstarted": 1263,
      "Ġclear": 1264,
      "Ġlate": 1265,
      "Ġpurch": 1266,
      "Ġit": 1267,
      "Ġask": 1268,
      "Ġaf": 1269,
      "irl": 1270,
      "Ġinclude": 1271,
      "Ġamaz": 1272,
      "Ġpolicy": 1273,
      "Ġpicture": 1274,
      "yle": 1275,
      "cept": 1276,
      "ended": 1277,
      "Ġthe": 1278,
      "Ġmaj": 1279,
      "Ġhol": 1280,
      "sc": 1281,
      "Ġenc": 1282,
      "Ġens": 1283,
      "Ġaccording": 1284,
      "Ġaut": 1285,
      "Ġmain": 1286,
      "side": 1287,
      "ective": 1288,
      "Ġbuilding": 1289,
      "Ġauthor": 1290,
      "Ġgod": 1291,
      "Ġhar": 1292,
      "Ġreading": 1293,
      "Ġleft": 1294,
      "Ġchoo": 1295,
      "Ġrate": 1296,
      "Ġindividual": 1297,
      "por": 1298,
      "Ġcondition": 1299,
      "ral": 1300,
      "urance": 1301,
      "Ġgoal": 1302,
      "Ġrecomm": 1303,
      "Ġvol": 1304,
      "Ġris": 1305,
      "allen": 1306,
      "ract": 1307,
      "Ġprob": 1308,
      "Ġdeliver": 1309,
      "Ġcontrol": 1310,
      "gest": 1311,
      "Ġoffic": 1312,
      "Ġsn": 1313,
      "ery": 1314,
      "Ġland": 1315,
      "Ġaction": 1316,
      "Ġpati": 1317,
      "Ġmajor": 1318,
      "acter": 1319,
      "Ġtechnology": 1320,
      "Ġrelation": 1321,
      "Ġeu": 1322,
      "Ġenergy": 1323,
      "alf": 1324,
      "Ġapplication": 1325,
      "aim": 1326,
      "ically": 1327,
      "Ġacross": 1328,
      "Ġimage": 1329,
      "tc": 1330,
      "Ġreturn": 1331,
      "book": 1332,
      "Ġseen": 1333,
      "Ġskill": 1334,
      "Ġnational": 1335,
      "tty": 1336,
      "Ġfile": 1337,
      "Ġpretty": 1338,
      "Ġcolor": 1339,
      "Ġpriv": 1340,
      "ich": 1341,
      "Ġconst": 1342,
      "Ġocc": 1343,
      "vious": 1344,
      "Ġgirl": 1345,
      "Ġalm": 1346,
      "Ġsearch": 1347,
      "duce": 1348,
      "Ġho": 1349,
      "Ġsimple": 1350,
      "Ġdate": 1351,
      "Ġheart": 1352,
      "ference": 1353,
      "Ġbenefit": 1354,
      "Ġnote": 1355,
      "Ġmater": 1356,
      "ake": 1357,
      "Ġcra": 1358,
      "Ġbreak": 1359,
      "Ġcan": 1360,
      "Ġmid": 1361,
      "Ġespec": 1362,
      "Ġespecially": 1363,
      "Ġvers": 1364,
      "und": 1365,
      "Ġnice": 1366,
      "ye": 1367,
      "Ġtaking": 1368,
      "Ġbad": 1369,
      "Ġspecific": 1370,
      "Ġsoon": 1371,
      "ging": 1372,
      "Ġmul": 1373,
      "Ġprof": 1374,
      "Ġmess": 1375,
      "ring": 1376,
      "Ġamerican": 1377,
      "Ġsal": 1378,
      "ogra": 1379,
      "Ġquite": 1380,
      "Ġbra": 1381,
      "Ġbelieve": 1382,
      "Ġcut": 1383,
      "Ġsoft": 1384,
      "Ġmanagement": 1385,
      "Ġtable": 1386,
      "Ġpack": 1387,
      "Ġwhole": 1388,
      "ised": 1389,
      "Ġsolution": 1390,
      "ention": 1391,
      "swer": 1392,
      "Ġtax": 1393,
      "Ġcontinue": 1394,
      "Ġsound": 1395,
      "Ġfit": 1396,
      "Ġaddress": 1397,
      "ney": 1398,
      "Ġliving": 1399,
      "Ġblack": 1400,
      "Ġgiven": 1401,
      "iece": 1402,
      "Ġanyone": 1403,
      "Ġlow": 1404,
      "Ġyoung": 1405,
      "tif": 1406,
      "Ġphone": 1407,
      "Ġadm": 1408,
      "Ġcouple": 1409,
      "eet": 1410,
      "Ġorig": 1411,
      "Ġmeeting": 1412,
      "Ġitem": 1413,
      "ensive": 1414,
      "versity": 1415,
      "Ġcalled": 1416,
      "Ġphys": 1417,
      "Ġprep": 1418,
      "Ġanswer": 1419,
      "Ġearly": 1420,
      "Ġwriting": 1421,
      "ply": 1422,
      "Ġparent": 1423,
      "Ġmiss": 1424,
      "rop": 1425,
      "Ġmanag": 1426,
      "Ġinsurance": 1427,
      "ture": 1428,
      "une": 1429,
      "ming": 1430,
      "Ġcame": 1431,
      "Ġchallen": 1432,
      "Ġspea": 1433,
      "Ġfinanc": 1434,
      "ipp": 1435,
      "Ġnatur": 1436,
      "Ġagree": 1437,
      "Ġmaterial": 1438,
      "Ġself": 1439,
      "Ġnothing": 1440,
      "cent": 1441,
      "Ġsouth": 1442,
      "Ġreme": 1443,
      "Ġown": 1444,
      "Ġmeth": 1445,
      "Ġcop": 1446,
      "Ġpm": 1447,
      "Ġtot": 1448,
      "Ġther": 1449,
      "tire": 1450,
      "Ġfavor": 1451,
      "Ġupd": 1452,
      "Ġtool": 1453,
      "Ġmag": 1454,
      "uter": 1455,
      "Ġlater": 1456,
      "Ġinvol": 1457,
      "Ġprobably": 1458,
      "Ġremember": 1459,
      "Ġtou": 1460,
      "Ġsize": 1461,
      "ane": 1462,
      "Ġgeneral": 1463,
      "Ġsingle": 1464,
      "Ġimprove": 1465,
      "Ġalmost": 1466,
      "Ġdesc": 1467,
      "Ġfig": 1468,
      "Ġess": 1469,
      "Ġtraining": 1470,
      "ibility": 1471,
      "ren": 1472,
      "Ġleader": 1473,
      "Ġyes": 1474,
      "Ġwent": 1475,
      "Ġsimply": 1476,
      "Ġdefin": 1477,
      "Ġcoun": 1478,
      "tern": 1479,
      "Ġer": 1480,
      "Ġthr": 1481,
      "Ġfive": 1482,
      "Ġdevice": 1483,
      "Ġcenter": 1484,
      "Ġready": 1485,
      "Ġrange": 1486,
      "Ġtem": 1487,
      "Ġtook": 1488,
      "Ġstaff": 1489,
      "Ġanal": 1490,
      "entif": 1491,
      "Ġpractice": 1492,
      "pri": 1493,
      "ither": 1494,
      "Ġcommon": 1495,
      "Ġensure": 1496,
      "Ġhold": 1497,
      "ared": 1498,
      "Ġmatter": 1499,
      "uary": 1500,
      "orth": 1501,
      "Ġsecur": 1502,
      "uation": 1503,
      "Ġdig": 1504,
      "Ġred": 1505,
      "Ġstar": 1506,
      "Ġstrong": 1507,
      "Ġhotel": 1508,
      "Ġcr": 1509,
      "Ġfast": 1510,
      "Ġhalf": 1511,
      "ttp": 1512,
      "ledge": 1513,
      "Ġeffect": 1514,
      "Ġinstall": 1515,
      "gle": 1516,
      "ww": 1517,
      "Ġknown": 1518,
      "Ġeducation": 1519,
      "Ġhttp": 1520,
      "Ġfilm": 1521,
      "ior": 1522,
      "Ġtrying": 1523,
      "come": 1524,
      "Ġtalk": 1525,
      "load": 1526,
      "Ġpick": 1527,
      "Ġpatient": 1528,
      "Ġfall": 1529,
      "Ġcharacter": 1530,
      "inking": 1531,
      "Ġincrease": 1532,
      "asure": 1533,
      "Ġglob": 1534,
      "Ġhistory": 1535,
      "uly": 1536,
      "Ġaud": 1537,
      "Ġchance": 1538,
      "Ġmulti": 1539,
      "uff": 1540,
      "Ġclose": 1541,
      "Ġfire": 1542,
      "ained": 1543,
      "Ġwhite": 1544,
      "Ġwanted": 1545,
      "Ġmethod": 1546,
      "Ġreach": 1547,
      "Ġcoming": 1548,
      "Ġmaint": 1549,
      "Ġrecord": 1550,
      "Ġbrand": 1551,
      "Ġchoose": 1552,
      "bo": 1553,
      "Ġsex": 1554,
      "Ġpercent": 1555,
      "Ġorganization": 1556,
      "Ġsell": 1557,
      "Ġpoli": 1558,
      "Ġcause": 1559,
      "Ġcomplete": 1560,
      "iod": 1561,
      "Ġrisk": 1562,
      "ream": 1563,
      "Ġchoice": 1564,
      "Ġelse": 1565,
      "Ġdue": 1566,
      "Ġbank": 1567,
      "Ġlocation": 1568,
      "Ġpiece": 1569,
      "Ġclaim": 1570,
      "Ġpaper": 1571,
      "ina": 1572,
      "Ġeye": 1573,
      "Ġassist": 1574,
      "Ġstrate": 1575,
      "kely": 1576,
      "ott": 1577,
      "Ġamount": 1578,
      "Ġamazing": 1579,
      "Ġcomputer": 1580,
      "cle": 1581,
      "Ġbut": 1582,
      "Ġsecurity": 1583,
      "Ġdog": 1584,
      "Ġwww": 1585,
      "Ġguy": 1586,
      "Ġenter": 1587,
      "Ġinternational": 1588,
      "Ġsummer": 1589,
      "Ġpress": 1590,
      "Ġparticular": 1591,
      "Ġsle": 1592,
      "fully": 1593,
      "Ġexpect": 1594,
      "Ġboard": 1595,
      "itive": 1596,
      "Ġversion": 1597,
      "Ġroad": 1598,
      "Ġfund": 1599,
      "ov": 1600,
      "irt": 1601,
      "Ġmodel": 1602,
      "ron": 1603,
      "Ġdrive": 1604,
      "Ġeuro": 1605,
      "Ġwish": 1606,
      "Ġinsp": 1607,
      "Ġforward": 1608,
      "Ġstandard": 1609,
      "Ġseems": 1610,
      "ror": 1611,
      "Ġste": 1612,
      "Ġmoment": 1613,
      "eed": 1614,
      "Ġvi": 1615,
      "Ġengine": 1616,
      "res": 1617,
      "Ġalth": 1618,
      "ief": 1619,
      "Ġdecision": 1620,
      "Ġchang": 1621,
      "Ġfunction": 1622,
      "Ġcred": 1623,
      "Ġalthough": 1624,
      "Ġmaybe": 1625,
      "Ġstyle": 1626,
      "Ġsource": 1627,
      "Ġusually": 1628,
      "Ġposition": 1629,
      "Ġperiod": 1630,
      "Ġsaf": 1631,
      "ruction": 1632,
      "Ġport": 1633,
      "Ġcommun": 1634,
      "Ġsometime": 1635,
      "ush": 1636,
      "Ġknowledge": 1637,
      "Ġmil": 1638,
      "ided": 1639,
      "Ġwrite": 1640,
      "co": 1641,
      "Ġdou": 1642,
      "Ġlearning": 1643,
      "ann": 1644,
      "Ġrequest": 1645,
      "Ġcook": 1646,
      "Ġbir": 1647,
      "Ġoil": 1648,
      "Ġregard": 1649,
      "Ġreceive": 1650,
      "Ġfavorite": 1651,
      "ume": 1652,
      "Ġcult": 1653,
      "Ġtold": 1654,
      "Ġfield": 1655,
      "Ġchrist": 1656,
      "Ġuniversity": 1657,
      "Ġnatural": 1658,
      "Ġdiffic": 1659,
      "Ġdifficult": 1660,
      "atic": 1661,
      "oud": 1662,
      "Ġsend": 1663,
      "Ġlab": 1664,
      "Ġetc": 1665,
      "Ġrespons": 1666,
      "Ġach": 1667,
      "Ġworth": 1668,
      "Ġbeh": 1669,
      "Ġcomb": 1670,
      "ograph": 1671,
      "Ġfinancial": 1672,
      "Ġlang": 1673,
      "Ġrather": 1674,
      "Ġwindow": 1675,
      "Ġdeb": 1676,
      "Ġpartner": 1677,
      "iate": 1678,
      "Ġaw": 1679,
      "Ġwed": 1680,
      "Ġcontinu": 1681,
      "Ġbab": 1682,
      "Ġna": 1683,
      "Ġdownload": 1684,
      "Ġpark": 1685,
      "Ġrequired": 1686,
      "Ġmorning": 1687,
      "where": 1688,
      "ired": 1689,
      "Ġrecei": 1690,
      "Ġgreen": 1691,
      "Ġrelationship": 1692,
      "Ġten": 1693,
      "Ġresource": 1694,
      "Ġexist": 1695,
      "Ġleave": 1696,
      "Ġfill": 1697,
      "Ġtow": 1698,
      "Ġinstead": 1699,
      "Ġeither": 1700,
      "Ġplayer": 1701,
      "Ġlangu": 1702,
      "Ġlikely": 1703,
      "Ġtaken": 1704,
      "Ġscre": 1705,
      "Ġter": 1706,
      "astic": 1707,
      "Ġnorth": 1708,
      "asing": 1709,
      "Ġassoc": 1710,
      "lished": 1711,
      "Ġtrue": 1712,
      "Ġprin": 1713,
      "Ġremo": 1714,
      "Ġat": 1715,
      "Ġcomfort": 1716,
      "Ġentire": 1717,
      "tor": 1718,
      "Ġabs": 1719,
      "Ġneeded": 1720,
      "Ġinternet": 1721,
      "Ġparticip": 1722,
      "vil": 1723,
      "Ġtour": 1724,
      "Ġamong": 1725,
      "Ġadded": 1726,
      "Ġdam": 1727,
      "Ġnecess": 1728,
      "Ġcurrently": 1729,
      "Ġcele": 1730,
      "ilar": 1731,
      "Ġmob": 1732,
      "Ġmarketing": 1733,
      "Ġconcern": 1734,
      "ati": 1735,
      "gth": 1736,
      "Ġtip": 1737,
      "Ġtrip": 1738,
      "Ġlog": 1739,
      "verage": 1740,
      "Ġlanguage": 1741,
      "Ġseries": 1742,
      "oid": 1743,
      "Ġhit": 1744,
      "Ġi": 1745,
      "Ġtown": 1746,
      "Ġfront": 1747,
      "Ġsometimes": 1748,
      "Ġcode": 1749,
      "Ġextra": 1750,
      "Ġwi": 1751,
      "Ġapproach": 1752,
      "Ġperformance": 1753,
      "vie": 1754,
      "Ġtreatment": 1755,
      "resent": 1756,
      "ess": 1757,
      "Ġmail": 1758,
      "place": 1759,
      "Ġasked": 1760,
      "Ġbirth": 1761,
      "Ġdoor": 1762,
      "ape": 1763,
      "oming": 1764,
      "Ġdocument": 1765,
      "uss": 1766,
      "Ġwel": 1767,
      "Ġjour": 1768,
      "Ġexperi": 1769,
      "Ġemployee": 1770,
      "ping": 1771,
      "Ġbrow": 1772,
      "Ġwest": 1773,
      "Ġnetwork": 1774,
      "Ġmedical": 1775,
      "ilt": 1776,
      "pose": 1777,
      "Ġappear": 1778,
      "ental": 1779,
      "pos": 1780,
      "Ġunited": 1781,
      "Ġcredit": 1782,
      "Ġfail": 1783,
      "itely": 1784,
      "Ġrepresent": 1785,
      "Ġrecommend": 1786,
      "Ġpresident": 1787,
      "aring": 1788,
      "Ġdon": 1789,
      "Ġher": 1790,
      "Ġanim": 1791,
      "itted": 1792,
      "Ġoutside": 1793,
      "Ġremain": 1794,
      "Ġmessage": 1795,
      "Ġeurope": 1796,
      "Ġoh": 1797,
      "Ġmovie": 1798,
      "Ġprovided": 1799,
      "Ġcompe": 1800,
      "Ġaccept": 1801,
      "Ġhair": 1802,
      "Ġglobal": 1803,
      "Ġtext": 1804,
      "Ġbaby": 1805,
      "uge": 1806,
      "Ġscience": 1807,
      "spect": 1808,
      "Ġwalk": 1809,
      "Ġchallenge": 1810,
      "Ġsave": 1811,
      "Ġpet": 1812,
      "Ġeffort": 1813,
      "Ġhost": 1814,
      "Ġweekend": 1815,
      "oura": 1816,
      "icle": 1817,
      "Ġstra": 1818,
      "Ġexcell": 1819,
      "Ġmic": 1820,
      "Ġsafe": 1821,
      "Ġrecently": 1822,
      "Ġprivate": 1823,
      "by": 1824,
      "erv": 1825,
      "Ġboy": 1826,
      "Ġselect": 1827,
      "Ġcontain": 1828,
      "Ġfinish": 1829,
      "ah": 1830,
      "ogn": 1831,
      "Ġsent": 1832,
      "ates": 1833,
      "Ġpurchase": 1834,
      "Ġbal": 1835,
      "ension": 1836,
      "Ġinteresting": 1837,
      "Ġcollege": 1838,
      "itor": 1839,
      "Ġinj": 1840,
      "Ġowner": 1841,
      "oint": 1842,
      "Ġbud": 1843,
      "Ġtouch": 1844,
      "Ġbi": 1845,
      "play": 1846,
      "Ġcam": 1847,
      "Ġto": 1848,
      "Ġsimilar": 1849,
      "Ġsqu": 1850,
      "Ġsection": 1851,
      "Ġregion": 1852,
      "Ġdeterm": 1853,
      "Ġgift": 1854,
      "Ġstreet": 1855,
      "Ġdefinitely": 1856,
      "Ġrecent": 1857,
      "Ġkill": 1858,
      "Ġdepartment": 1859,
      "Ġsleep": 1860,
      "ball": 1861,
      "uit": 1862,
      "Ġfeed": 1863,
      "Ġcourt": 1864,
      "rec": 1865,
      "Ġbill": 1866,
      "action": 1867,
      "Ġspend": 1868,
      "Ġful": 1869,
      "Ġbri": 1870,
      "Ġep": 1871,
      "Ġmarch": 1872,
      "Ġdeath": 1873,
      "ured": 1874,
      "Ġprior": 1875,
      "ret": 1876,
      "Ġfra": 1877,
      "Ġpopular": 1878,
      "Ġhy": 1879,
      "Ġrent": 1880,
      "Ġiniti": 1881,
      "Ġunique": 1882,
      "ipe": 1883,
      "itten": 1884,
      "Ġsched": 1885,
      "Ġcrea": 1886,
      "Ġscreen": 1887,
      "Ġsoftware": 1888,
      "app": 1889,
      "Ġflow": 1890,
      "Ġrole": 1891,
      "Ġsafety": 1892,
      "Ġmass": 1893,
      "Ġsil": 1894,
      "Ġtar": 1895,
      "Ġfinal": 1896,
      "Ġfacebook": 1897,
      "Ġadditional": 1898,
      "Ġclim": 1899,
      "Ġholiday": 1900,
      "go": 1901,
      "let": 1902,
      "Ġintro": 1903,
      "Ġrelated": 1904,
      "Ġfinally": 1905,
      "Ġill": 1906,
      "Ġability": 1907,
      "Ġinn": 1908,
      "Ġserious": 1909,
      "Ġveh": 1910,
      "otion": 1911,
      "Ġcat": 1912,
      "Ġcopy": 1913,
      "Ġwall": 1914,
      "Ġarch": 1915,
      "Ġunit": 1916,
      "Ġsubject": 1917,
      "Ġsituation": 1918,
      "Ġtoward": 1919,
      "Ġmother": 1920,
      "urs": 1921,
      "Ġjan": 1922,
      "Ġcareer": 1923,
      "ene": 1924,
      "Ġuk": 1925,
      "Ġvarious": 1926,
      "Ġthrough": 1927,
      "Ġsense": 1928,
      "Ġplanning": 1929,
      "Ġidentif": 1930,
      "ored": 1931,
      "Ġbox": 1932,
      "Ġvehicle": 1933,
      "erve": 1934,
      "Ġsetting": 1935,
      "Ġdiscover": 1936,
      "cket": 1937,
      "dle": 1938,
      "oke": 1939,
      "Ġdom": 1940,
      "Ġwide": 1941,
      "ried": 1942,
      "Ġlonger": 1943,
      "Ġprovides": 1944,
      "Ġteacher": 1945,
      "Ġoriginal": 1946,
      "Ġbehind": 1947,
      "ave": 1948,
      "Ġsix": 1949,
      "Ġthroughout": 1950,
      "tig": 1951,
      "Ġexact": 1952,
      "Ġdream": 1953,
      "Ġstuff": 1954,
      "Ġclub": 1955,
      "Ġfeeling": 1956,
      "Ġcampa": 1957,
      "ze": 1958,
      "Ġcir": 1959,
      "Ġfle": 1960,
      "uring": 1961,
      "aps": 1962,
      "Ġeasily": 1963,
      "Ġcampaign": 1964,
      "ma": 1965,
      "Ġprevious": 1966,
      "Ġhi": 1967,
      "Ġeffective": 1968,
      "Ġupdate": 1969,
      "elt": 1970,
      "Ġthird": 1971,
      "Ġnorm": 1972,
      "Ġrule": 1973,
      "ancer": 1974,
      "Ġsignific": 1975,
      "aur": 1976,
      "Ġweight": 1977,
      "Ġregular": 1978,
      "Ġguide": 1979,
      "Ġupon": 1980,
      "Ġsong": 1981,
      "oll": 1982,
      "Ġthinking": 1983,
      "Ġdeg": 1984,
      "Ġtrack": 1985,
      "Ġexpert": 1986,
      "Ġadmin": 1987,
      "Ġplant": 1988,
      "Ġdest": 1989,
      "Ġjoin": 1990,
      "Ġimpact": 1991,
      "Ġrunning": 1992,
      "Ġassoci": 1993,
      "Ġtransp": 1994,
      "Ġencoura": 1995,
      "Ġaward": 1996,
      "Ġge": 1997,
      "Ġworked": 1998,
      "Ġdesigned": 1999,
      "Ġstrategy": 2000,
      "Ġpan": 2001,
      "Ġfan": 2002,
      "ax": 2003,
      "Ġfair": 2004,
      "Ġpayment": 2005,
      "Ġok": 2006,
      "Ġprint": 2007,
      "Ġyork": 2008,
      "Ġcharge": 2009,
      "ural": 2010,
      "Ġfirm": 2011,
      "Ġfloor": 2012,
      "Ġvariety": 2013,
      "lus": 2014,
      "xim": 2015,
      "Ġaverage": 2016,
      "Ġmatch": 2017,
      "ley": 2018,
      "Ġsession": 2019,
      "Ġapply": 2020,
      "Ġcool": 2021,
      "Ġestab": 2022,
      "Ġur": 2023,
      "Ġpolice": 2024,
      "fact": 2025,
      "ny": 2026,
      "ony": 2027,
      "uty": 2028,
      "Ġtele": 2029,
      "Ġwait": 2030,
      "Ġexcellent": 2031,
      "ned": 2032,
      "Ġeast": 2033,
      "Ġgrowth": 2034,
      "Ġcreated": 2035,
      "Ġdigital": 2036,
      "Ġsept": 2037,
      "enced": 2038,
      "Ġinfl": 2039,
      "Ġeat": 2040,
      "Ġir": 2041,
      "Ġhor": 2042,
      "iction": 2043,
      "Ġstri": 2044,
      "Ġextre": 2045,
      "Ġpurpose": 2046,
      "Ġjune": 2047,
      "Ġwrong": 2048,
      "for": 2049,
      "acy": 2050,
      "Ġarm": 2051,
      "Ġtradition": 2052,
      "Ġfed": 2053,
      "Ġattention": 2054,
      "Ġpea": 2055,
      "Ġsport": 2056,
      "Ġarri": 2057,
      "Ġmobile": 2058,
      "Ġhea": 2059,
      "Ġspot": 2060,
      "Ġmention": 2061,
      "ak": 2062,
      "vision": 2063,
      "Ġaware": 2064,
      "Ġconven": 2065,
      "ender": 2066,
      "ude": 2067,
      "Ġrecogn": 2068,
      "Ġdecided": 2069,
      "Ġdaily": 2070,
      "Ġhosp": 2071,
      "Ġhuge": 2072,
      "Ġautom": 2073,
      "att": 2074,
      "Ġground": 2075,
      "Ġwritten": 2076,
      "Ġsignificant": 2077,
      "Ġol": 2078,
      "eral": 2079,
      "Ġgold": 2080,
      "Ġinterested": 2081,
      "Ġpen": 2082,
      "Ġwear": 2083,
      "Ġmach": 2084,
      "Ġtrust": 2085,
      "Ġconsum": 2086,
      "Ġquickly": 2087,
      "Ġreceived": 2088,
      "Ġcy": 2089,
      "Ġmr": 2090,
      "Ġfee": 2091,
      "Ġeconomic": 2092,
      "Ġcompeti": 2093,
      "istic": 2094,
      "Ġsmart": 2095,
      "sy": 2096,
      "ression": 2097,
      "Ġcoll": 2098,
      "Ġplaying": 2099,
      "ask": 2100,
      "ipment": 2101,
      "Ġheld": 2102,
      "Ġlisten": 2103,
      "oon": 2104,
      "vol": 2105,
      "Ġlim": 2106,
      "Ġguest": 2107,
      "Ġinside": 2108,
      "Ġrelease": 2109,
      "aurant": 2110,
      "Ġstock": 2111,
      "oth": 2112,
      "Ġadult": 2113,
      "ughter": 2114,
      "Ġgar": 2115,
      "Ġavoid": 2116,
      "Ġdifference": 2117,
      "Ġmile": 2118,
      "Ġbath": 2119,
      "Ġaug": 2120,
      "Ġimmed": 2121,
      "Ġlocated": 2122,
      "Ġrestaurant": 2123,
      "Ġcer": 2124,
      "Ġrequirement": 2125,
      "Ġsuggest": 2126,
      "Ġpotential": 2127,
      "Ġnation": 2128,
      "Ġskin": 2129,
      "Ġannoun": 2130,
      "Ġtotal": 2131,
      "ying": 2132,
      "umb": 2133,
      "Ġwonderful": 2134,
      "Ġcelebr": 2135,
      "den": 2136,
      "Ġwill": 2137,
      "Ġoct": 2138,
      "lier": 2139,
      "Ġtast": 2140,
      "Ġcollection": 2141,
      "Ġdraw": 2142,
      "Ġlatest": 2143,
      "Ġofficial": 2144,
      "Ġloved": 2145,
      "Ġmeasure": 2146,
      "Ġhealthy": 2147,
      "Ġdoctor": 2148,
      "Ġcand": 2149,
      "used": 2150,
      "Ġnecessary": 2151,
      "par": 2152,
      "Ġimag": 2153,
      "Ġdegree": 2154,
      "Ġplus": 2155,
      "esday": 2156,
      "Ġinvestment": 2157,
      "Ġfine": 2158,
      "ther": 2159,
      "Ġround": 2160,
      "Ġhigher": 2161,
      "Ġfriday": 2162,
      "back": 2163,
      "Ġluck": 2164,
      "Ġbase": 2165,
      "Ġloss": 2166,
      "Ġproduction": 2167,
      "cl": 2168,
      "Ġrefer": 2169,
      "ember": 2170,
      "haps": 2171,
      "of": 2172,
      "arter": 2173,
      "enty": 2174,
      "Ġelectric": 2175,
      "Ġinvolved": 2176,
      "Ġanimal": 2177,
      "mas": 2178,
      "istration": 2179,
      "Ġsaw": 2180,
      "Ġdrug": 2181,
      "Ġseptember": 2182,
      "bor": 2183,
      "Ġperhaps": 2184,
      "Ġbuilt": 2185,
      "Ġstarting": 2186,
      "Ġresponse": 2187,
      "Ġtom": 2188,
      "Ġkitch": 2189,
      "Ġsam": 2190,
      "Ġaust": 2191,
      "Ġletter": 2192,
      "Ġren": 2193,
      "Ġeffic": 2194,
      "Ġcreating": 2195,
      "Ġfacility": 2196,
      "Ġtree": 2197,
      "Ġdescrib": 2198,
      "ison": 2199,
      "Ġdead": 2200,
      "Ġlost": 2201,
      "Ġkitchen": 2202,
      "Ġsort": 2203,
      "Ġfigure": 2204,
      "Ġgard": 2205,
      "Ġdisplay": 2206,
      "Ġadvice": 2207,
      "ering": 2208,
      "Ġvia": 2209,
      "Ġdriver": 2210,
      "Ġfresh": 2211,
      "Ġgoo": 2212,
      "Ġroll": 2213,
      "Ġconsist": 2214,
      "Ġmodern": 2215,
      "Ġbag": 2216,
      "ector": 2217,
      "Ġapprec": 2218,
      "Ġgiving": 2219,
      "uel": 2220,
      "Ġsan": 2221,
      "Ġmix": 2222,
      "Ġclos": 2223,
      "anger": 2224,
      "Ġhun": 2225,
      "ified": 2226,
      "Ġlay": 2227,
      "Ġheard": 2228,
      "Ġproviding": 2229,
      "Ġpolitical": 2230,
      "Ġchristmas": 2231,
      "ril": 2232,
      "Ġplat": 2233,
      "Ġanti": 2234,
      "Ġincludes": 2235,
      "Ġforce": 2236,
      "Ġculture": 2237,
      "Ġwood": 2238,
      "Ġemb": 2239,
      "Ġemer": 2240,
      "ufact": 2241,
      "Ġmer": 2242,
      "Ġtv": 2243,
      "Ġcontrib": 2244,
      "Ġhighly": 2245,
      "Ġsupply": 2246,
      "Ġexec": 2247,
      "Ġstatement": 2248,
      "Ġson": 2249,
      "Ġmanufact": 2250,
      "Ġlegal": 2251,
      "Ġtarget": 2252,
      "Ġfight": 2253,
      "Ġband": 2254,
      "icate": 2255,
      "Ġimple": 2256,
      "tist": 2257,
      "Ġpositive": 2258,
      "Ġwelcome": 2259,
      "Ġimplement": 2260,
      "Ġah": 2261,
      "Ġconference": 2262,
      "urch": 2263,
      "Ġspent": 2264,
      "Ġjoh": 2265,
      "Ġcanad": 2266,
      "Ġconvers": 2267,
      "Ġdece": 2268,
      "elling": 2269,
      "zen": 2270,
      "Ġabsol": 2271,
      "Ġded": 2272,
      "Ġcomplet": 2273,
      "Ġsen": 2274,
      "Ġtur": 2275,
      "Ġlower": 2276,
      "ription": 2277,
      "Ġcross": 2278,
      "Ġdise": 2279,
      "Ġstruc": 2280,
      "Ġinstit": 2281,
      "Ġmanager": 2282,
      "Ġver": 2283,
      "Ġmi": 2284,
      "Ġfix": 2285,
      "Ġsubs": 2286,
      "light": 2287,
      "Ġdeep": 2288,
      "Ġspir": 2289,
      "Ġrock": 2290,
      "Ġsaying": 2291,
      "Ġphysical": 2292,
      "Ġagency": 2293,
      "Ġcarry": 2294,
      "Ġapril": 2295,
      "Ġgarden": 2296,
      "Ġstage": 2297,
      "Ġticket": 2298,
      "Ġspring": 2299,
      "ux": 2300,
      "Ġdemand": 2301,
      "Ġip": 2302,
      "ground": 2303,
      "Ġcancer": 2304,
      "aced": 2305,
      "antage": 2306,
      "Ġfinding": 2307,
      "Ġsociety": 2308,
      "Ġequipment": 2309,
      "Ġdisease": 2310,
      "ex": 2311,
      "Ġbur": 2312,
      "Ġadver": 2313,
      "timate": 2314,
      "Ġsuccessful": 2315,
      "ising": 2316,
      "Ġsci": 2317,
      "Ġviol": 2318,
      "zy": 2319,
      "Ġtopic": 2320,
      "Ġfriendly": 2321,
      "Ġide": 2322,
      "Ġprem": 2323,
      "Ġcompletely": 2324,
      "nam": 2325,
      "Ġinte": 2326,
      "Ġgrowing": 2327,
      "Ġmachine": 2328,
      "Ġvac": 2329,
      "Ġimm": 2330,
      "izing": 2331,
      "Ġcommerc": 2332,
      "Ġcounty": 2333,
      "Ġdirector": 2334,
      "Ġjanuary": 2335,
      "Ġking": 2336,
      "Ġregister": 2337,
      "Ġcorrect": 2338,
      "ler": 2339,
      "Ġsweet": 2340,
      "Ġdirectly": 2341,
      "Ġcreative": 2342,
      "band": 2343,
      "Ġchurch": 2344,
      "Ġcontract": 2345,
      "Ġoperation": 2346,
      "Ġwedding": 2347,
      "Ġjohn": 2348,
      "face": 2349,
      "wh": 2350,
      "lection": 2351,
      "Ġlibr": 2352,
      "Ġshot": 2353,
      "Ġhospital": 2354,
      "Ġcell": 2355,
      "Ġstress": 2356,
      "idence": 2357,
      "Ġminim": 2358,
      "Ġmaintain": 2359,
      "Ġachieve": 2360,
      "Ġmount": 2361,
      "Ġfelt": 2362,
      "Ġnature": 2363,
      "Ġgrand": 2364,
      "Ġtried": 2365,
      "aw": 2366,
      "Ġes": 2367,
      "Ġrich": 2368,
      "Ġspeed": 2369,
      "Ġenglish": 2370,
      "sing": 2371,
      "Ġslow": 2372,
      "era": 2373,
      "Ġsym": 2374,
      "Ġexplain": 2375,
      "Ġunderstanding": 2376,
      "Ġprofit": 2377,
      "Ġwea": 2378,
      "Ġshall": 2379,
      "Ġcold": 2380,
      "Ġbor": 2381,
      "ester": 2382,
      "Ġprevent": 2383,
      "Ġweather": 2384,
      "Ġbeha": 2385,
      "Ġplatform": 2386,
      "av": 2387,
      "ift": 2388,
      "Ġjud": 2389,
      "Ġcollect": 2390,
      "Ġamerica": 2391,
      "mely": 2392,
      "anced": 2393,
      "Ġdaughter": 2394,
      "eter": 2395,
      "Ġarg": 2396,
      "Ġallows": 2397,
      "Ġprotect": 2398,
      "hood": 2399,
      "ana": 2400,
      "Ġconduc": 2401,
      "Ġeasier": 2402,
      "cy": 2403,
      "stig": 2404,
      "Ġbre": 2405,
      "itter": 2406,
      "Ġarr": 2407,
      "Ġfactor": 2408,
      "Ġbirthday": 2409,
      "Ġcirc": 2410,
      "Ġwinter": 2411,
      "Ġinvestig": 2412,
      "Ġelement": 2413,
      "Ġlic": 2414,
      "Ġbillion": 2415,
      "Ġcorpor": 2416,
      "Ġisland": 2417,
      "Ġcertainly": 2418,
      "onent": 2419,
      "eth": 2420,
      "Ġstat": 2421,
      "Ġconsidered": 2422,
      "Ġcommercial": 2423,
      "Ġfant": 2424,
      "Ġshoot": 2425,
      "Ġtrade": 2426,
      "Ġhelping": 2427,
      "Ġaugust": 2428,
      "Ġspirit": 2429,
      "Ġincluded": 2430,
      "Ġexpected": 2431,
      "Ġmiddle": 2432,
      "Ġgoogle": 2433,
      "idge": 2434,
      "Ġthous": 2435,
      "Ġthousand": 2436,
      "body": 2437,
      "Ġlad": 2438,
      "Ġdin": 2439,
      "Ġmark": 2440,
      "Ġearth": 2441,
      "Ġannual": 2442,
      "Ġmultiple": 2443,
      "icated": 2444,
      "Ġreader": 2445,
      "Ġfully": 2446,
      "Ġintroduc": 2447,
      "vy": 2448,
      "Ġcommunication": 2449,
      "Ġinterview": 2450,
      "Ġattem": 2451,
      "Ġposted": 2452,
      "Ġbasic": 2453,
      "Ġlimited": 2454,
      "ped": 2455,
      "Ġnut": 2456,
      "Ġsecret": 2457,
      "Ġessential": 2458,
      "vey": 2459,
      "Ġmoving": 2460,
      "ashion": 2461,
      "Ġinnov": 2462,
      "Ġdoll": 2463,
      "Ġgas": 2464,
      "Ġevid": 2465,
      "ashing": 2466,
      "Ġblue": 2467,
      "Ġprim": 2468,
      "ober": 2469,
      "Ġrecipe": 2470,
      "Ġadvantage": 2471,
      "Ġreduc": 2472,
      "Ġexerc": 2473,
      "pper": 2474,
      "Ġprogress": 2475,
      "til": 2476,
      "Ġcentury": 2477,
      "Ġbroad": 2478,
      "Ġagreement": 2479,
      "Ġexactly": 2480,
      "Ġconsumer": 2481,
      "Ġfashion": 2482,
      "Ġul": 2483,
      "Ġsharing": 2484,
      "Ġartist": 2485,
      "onest": 2486,
      "Ġless": 2487,
      "Ġattack": 2488,
      "Ġprovider": 2489,
      "eal": 2490,
      "Ġsepar": 2491,
      "Ġsuit": 2492,
      "epend": 2493,
      "Ġpublished": 2494,
      "Ġbudget": 2495,
      "Ġrespond": 2496,
      "Ġnotice": 2497,
      "Ġoctober": 2498,
      "Ġstructure": 2499,
      "Ġafford": 2500,
      "Ġcash": 2501,
      "Ġneigh": 2502,
      "Ġstren": 2503,
      "Ġbedroom": 2504,
      "gra": 2505,
      "Ġpool": 2506,
      "Ġdecember": 2507,
      "Ġpath": 2508,
      "Ġton": 2509,
      "Ġadj": 2510,
      "Ġindepend": 2511,
      "Ġdrink": 2512,
      "Ġlibrary": 2513,
      "tain": 2514,
      "Ġfish": 2515,
      "Ġdu": 2516,
      "Ġnove": 2517,
      "Ġsunday": 2518,
      "Ġhon": 2519,
      "Ġentry": 2520,
      "Ġci": 2521,
      "Ġsatis": 2522,
      "Ġpal": 2523,
      "Ġsens": 2524,
      "Ġball": 2525,
      "Ġdesp": 2526,
      "Ġmaster": 2527,
      "Ġlaunch": 2528,
      "Ġwife": 2529,
      "Ġschedule": 2530,
      "Ġstrength": 2531,
      "Ġchap": 2532,
      "Ġaltern": 2533,
      "Ġspeak": 2534,
      "Ġnovember": 2535,
      "adem": 2536,
      "Ġlimit": 2537,
      "iring": 2538,
      "Ġcoff": 2539,
      "Ġcapital": 2540,
      "Ġhappened": 2541,
      "cast": 2542,
      "Ġba": 2543,
      "pped": 2544,
      "Ġbrother": 2545,
      "Ġeconomy": 2546,
      "Ġbeginning": 2547,
      "prise": 2548,
      "ronic": 2549,
      "dy": 2550,
      "Ġsatur": 2551,
      "Ġtu": 2552,
      "atory": 2553,
      "ama": 2554,
      "Ġrout": 2555,
      "Ġdrop": 2556,
      "Ġgerm": 2557,
      "Ġhonest": 2558,
      "Ġvir": 2559,
      "Ġcomfortable": 2560,
      "Ġclimate": 2561,
      "Ġacadem": 2562,
      "Ġclin": 2563,
      "Ġtruly": 2564,
      "Ġapartment": 2565,
      "Ġestate": 2566,
      "Ġdelivery": 2567,
      "ussion": 2568,
      "Ġvill": 2569,
      "ancy": 2570,
      "Ġbehavi": 2571,
      "Ġtask": 2572,
      "Ġled": 2573,
      "Ġworker": 2574,
      "Ġseeing": 2575,
      "Ġphil": 2576,
      "nal": 2577,
      "ued": 2578,
      "Ġproduce": 2579,
      "Ġchem": 2580,
      "Ġchris": 2581,
      "Ġbeach": 2582,
      "Ġcoffee": 2583,
      "Ġstic": 2584,
      "rection": 2585,
      "Ġgue": 2586,
      "Ġbegan": 2587,
      "Ġreleased": 2588,
      "Ġconnection": 2589,
      "to": 2590,
      "inary": 2591,
      "Ġsea": 2592,
      "Ġjuly": 2593,
      "Ġload": 2594,
      "ify": 2595,
      "Ġguess": 2596,
      "Ġban": 2597,
      "Ġcoach": 2598,
      "Ġtyp": 2599,
      "Ġexperienced": 2600,
      "Ġsor": 2601,
      "Ġaim": 2602,
      "Ġreduce": 2603,
      "Ġwriter": 2604,
      "Ġanalys": 2605,
      "oe": 2606,
      "Ġcup": 2607,
      "Ġtre": 2608,
      "Ġgave": 2609,
      "Ġheat": 2610,
      "Ġappropri": 2611,
      "Ġaudience": 2612,
      "Ġfear": 2613,
      "Ġalone": 2614,
      "ooth": 2615,
      "Ġdamage": 2616,
      "Ġpeace": 2617,
      "Ġsaturday": 2618,
      "Ġdress": 2619,
      "Ġhus": 2620,
      "Ġenjoyed": 2621,
      "hol": 2622,
      "Ġpat": 2623,
      "tively": 2624,
      "Ġmis": 2625,
      "asc": 2626,
      "Ġactive": 2627,
      "Ġpaid": 2628,
      "Ġtransport": 2629,
      "cil": 2630,
      "Ġbought": 2631,
      "Ġgone": 2632,
      "Ġsuffer": 2633,
      "Ġinfo": 2634,
      "Ġprotection": 2635,
      "vant": 2636,
      "Ġing": 2637,
      "Ġaccom": 2638,
      "Ġinjury": 2639,
      "Ġcast": 2640,
      "Ġhell": 2641,
      "Ġmonday": 2642,
      "Ġbasis": 2643,
      "phone": 2644,
      "Ġoffering": 2645,
      "Ġtalking": 2646,
      "Ġdollar": 2647,
      "ik": 2648,
      "Ġbat": 2649,
      "Ġscene": 2650,
      "Ġresol": 2651,
      "Ġwaiting": 2652,
      "Ġpull": 2653,
      "Ġden": 2654,
      "Ġalb": 2655,
      "Ġprefer": 2656,
      "Ġrelig": 2657,
      "Ġleading": 2658,
      "Ġwarm": 2659,
      "Ġaustral": 2660,
      "Ġanalysis": 2661,
      "Ġsector": 2662,
      "Ġfab": 2663,
      "Ġchina": 2664,
      "Ġformer": 2665,
      "Ġoverall": 2666,
      "Ġgain": 2667,
      "Ġmeal": 2668,
      "pre": 2669,
      "Ġmy": 2670,
      "Ġtren": 2671,
      "Ġhund": 2672,
      "Ġneg": 2673,
      "ateg": 2674,
      "Ġqual": 2675,
      "Ġrob": 2676,
      "Ġvoice": 2677,
      "Ġang": 2678,
      "Ġblood": 2679,
      "Ġglass": 2680,
      "Ġmemory": 2681,
      "Ġconstruction": 2682,
      "Ġpackage": 2683,
      "Ġhusband": 2684,
      "een": 2685,
      "word": 2686,
      "Ġquarter": 2687,
      "Ġserve": 2688,
      "Ġevening": 2689,
      "ondon": 2690,
      "Ġdiscus": 2691,
      "Ġglad": 2692,
      "Ġhistor": 2693,
      "Ġdry": 2694,
      "itation": 2695,
      "idate": 2696,
      "Ġtowards": 2697,
      "Ġexercise": 2698,
      "Ġhundred": 2699,
      "ham": 2700,
      "Ġcatch": 2701,
      "Ġaspect": 2702,
      "Ġfly": 2703,
      "Ġlack": 2704,
      "Ġlondon": 2705,
      "asion": 2706,
      "Ġwhate": 2707,
      "Ġdouble": 2708,
      "Ġcamera": 2709,
      "ox": 2710,
      "ocol": 2711,
      "Ġideal": 2712,
      "Ġuseful": 2713,
      "Ġrace": 2714,
      "Ġconsult": 2715,
      "Ġrepair": 2716,
      "Ġbrain": 2717,
      "Ġsatisf": 2718,
      "Ġwhatever": 2719,
      "rant": 2720,
      "itary": 2721,
      "utely": 2722,
      "ught": 2723,
      "Ġstraight": 2724,
      "ique": 2725,
      "ceed": 2726,
      "icious": 2727,
      "Ġmedic": 2728,
      "Ġfrequ": 2729,
      "Ġshopping": 2730,
      "Ġlesson": 2731,
      "Ġmot": 2732,
      "Ġrecover": 2733,
      "Ġbey": 2734,
      "Ġdiscussion": 2735,
      "Ġoutd": 2736,
      "Ġchanged": 2737,
      "leg": 2738,
      "Ġmap": 2739,
      "Ġlovely": 2740,
      "rict": 2741,
      "Ġdepend": 2742,
      "Ġbecame": 2743,
      "Ġafric": 2744,
      "ru": 2745,
      "Ġliter": 2746,
      "Ġtrain": 2747,
      "Ġdecade": 2748,
      "Ġabsolutely": 2749,
      "Ġsad": 2750,
      "Ġwild": 2751,
      "Ġju": 2752,
      "Ġhelped": 2753,
      "Ġexpress": 2754,
      "Ġcentral": 2755,
      "Ġphotograph": 2756,
      "Ġnearly": 2757,
      "Ġjournal": 2758,
      "Ġdespite": 2759,
      "iately": 2760,
      "Ġcateg": 2761,
      "Ġdark": 2762,
      "oph": 2763,
      "Ġjack": 2764,
      "Ġtraffic": 2765,
      "Ġrain": 2766,
      "inion": 2767,
      "ers": 2768,
      "Ġfurn": 2769,
      "verse": 2770,
      "esome": 2771,
      "tics": 2772,
      "Ġradi": 2773,
      "Ġimmediately": 2774,
      "Ġdinner": 2775,
      "Ġcd": 2776,
      "Ġwashing": 2777,
      "Ġappli": 2778,
      "Ġreported": 2779,
      "Ġadvance": 2780,
      "Ġcouncil": 2781,
      "orge": 2782,
      "Ġfather": 2783,
      "arant": 2784,
      "iding": 2785,
      "Ġthreat": 2786,
      "Ġseat": 2787,
      "Ġblock": 2788,
      "Ġcomplex": 2789,
      "Ġturned": 2790,
      "Ġanaly": 2791,
      "Ġchanging": 2792,
      "Ġinflu": 2793,
      "wise": 2794,
      "Ġsand": 2795,
      "Ġlooked": 2796,
      "Ġextremely": 2797,
      "Ġevidence": 2798,
      "arm": 2799,
      "Ġselection": 2800,
      "Ġsust": 2801,
      "antly": 2802,
      "Ġincome": 2803,
      "Ġresident": 2804,
      "Ġattend": 2805,
      "Ġvolun": 2806,
      "Ġattempt": 2807,
      "na": 2808,
      "Ġcommit": 2809,
      "Ġearlier": 2810,
      "Ġdriving": 2811,
      "Ġtraditional": 2812,
      "ript": 2813,
      "Ġchea": 2814,
      "Ġframe": 2815,
      "cip": 2816,
      "Ġbow": 2817,
      "Ġeth": 2818,
      "Ġvote": 2819,
      "unk": 2820,
      "Ġseven": 2821,
      "Ġquote": 2822,
      "Ġfederal": 2823,
      "Ġintegr": 2824,
      "Ġbeyond": 2825,
      "Ġhall": 2826,
      "Ġstation": 2827,
      "Ġtitle": 2828,
      "Ġrelax": 2829,
      "annel": 2830,
      "Ġmission": 2831,
      "Ġfort": 2832,
      "Ġfell": 2833,
      "Ġlen": 2834,
      "Ġobs": 2835,
      "Ġadvent": 2836,
      "Ġdiet": 2837,
      "Ġopinion": 2838,
      "Ġplayed": 2839,
      "Ġsurvi": 2840,
      "Ġtemper": 2841,
      "Ġsorry": 2842,
      "Ġpoor": 2843,
      "Ġknew": 2844,
      "Ġguarant": 2845,
      "Ġengage": 2846,
      "set": 2847,
      "ino": 2848,
      "Ġemotion": 2849,
      "Ġbutter": 2850,
      "ervation": 2851,
      "Ġbrought": 2852,
      "Ġpray": 2853,
      "Ġrespect": 2854,
      "Ġenvironmental": 2855,
      "Ġahead": 2856,
      "Ġconversation": 2857,
      "ans": 2858,
      "ges": 2859,
      "Ġruss": 2860,
      "Ġtaste": 2861,
      "Ġfuel": 2862,
      "Ġshown": 2863,
      "Ġhappens": 2864,
      "Ġopening": 2865,
      "Ġentertain": 2866,
      "Ġsnow": 2867,
      "oss": 2868,
      "Ġhur": 2869,
      "Ġche": 2870,
      "Ġworry": 2871,
      "Ġjus": 2872,
      "Ġappoint": 2873,
      "Ġforum": 2874,
      "Ġairport": 2875,
      "Ġwatching": 2876,
      "Ġawesome": 2877,
      "Ġeuropean": 2878,
      "Ġoutdoor": 2879,
      "Ġpas": 2880,
      "Ġlif": 2881,
      "Ġtrou": 2882,
      "Ġsecure": 2883,
      "Ġfoundation": 2884,
      "Ġvisitor": 2885,
      "Ġtheme": 2886,
      "Ġofficer": 2887,
      "utive": 2888,
      "Ġwast": 2889,
      "Ġall": 2890,
      "aged": 2891,
      "Ġchapter": 2892,
      "Ġappropriate": 2893,
      "hib": 2894,
      "uri": 2895,
      "Ġbul": 2896,
      "venue": 2897,
      "Ġgradu": 2898,
      "Ġbutton": 2899,
      "Ġflex": 2900,
      "eline": 2901,
      "Ġspread": 2902,
      "vention": 2903,
      "apy": 2904,
      "ished": 2905,
      "Ġretail": 2906,
      "Ġconnect": 2907,
      "Ġcandidate": 2908,
      "ai": 2909,
      "Ġdy": 2910,
      "Ġexch": 2911,
      "Ġcomponent": 2912,
      "Ġtwitter": 2913,
      "Ġincredi": 2914,
      "Ġlearned": 2915,
      "Ġpopulation": 2916,
      "Ġpressure": 2917,
      "ili": 2918,
      "Ġorg": 2919,
      "Ġdeveloped": 2920,
      "Ġparticularly": 2921,
      "Ġnormal": 2922,
      "Ġadvertis": 2923,
      "Ġlady": 2924,
      "Ġq": 2925,
      "Ġcommission": 2926,
      "Ġaccident": 2927,
      "Ġstrug": 2928,
      "efore": 2929,
      "Ġobvious": 2930,
      "Ġtechnique": 2931,
      "Ġsquare": 2932,
      "Ġneighbor": 2933,
      "Ġenh": 2934,
      "aster": 2935,
      "Ġtalent": 2936,
      "Ġmilitary": 2937,
      "bt": 2938,
      "Ġpic": 2939,
      "Ġwine": 2940,
      "rote": 2941,
      "Ġvirt": 2942,
      "osure": 2943,
      "Ġforget": 2944,
      "ological": 2945,
      "Ġincreasing": 2946,
      "Ġregarding": 2947,
      "Ġreplace": 2948,
      "Ġplenty": 2949,
      "Ġserver": 2950,
      "Ġsurp": 2951,
      "Ġkeeping": 2952,
      "Ġallowed": 2953,
      "Ġexcited": 2954,
      "Ġtherefore": 2955,
      "Ġmicro": 2956,
      "Ġcategory": 2957,
      "oring": 2958,
      "Ġfes": 2959,
      "les": 2960,
      "Ġdirection": 2961,
      "istry": 2962,
      "Ġlose": 2963,
      "Ġalbum": 2964,
      "he": 2965,
      "Ġsaving": 2966,
      "Ġscore": 2967,
      "entist": 2968,
      "Ġtransfer": 2969,
      "Ġcanada": 2970,
      "tian": 2971,
      "Ġwrote": 2972,
      "Ġutil": 2973,
      "aging": 2974,
      "Ġdistrict": 2975,
      "iration": 2976,
      "wood": 2977,
      "Ġchannel": 2978,
      "Ġspending": 2979,
      "Ġjam": 2980,
      "Ġresponsible": 2981,
      "Ġadjust": 2982,
      "unately": 2983,
      "abor": 2984,
      "Ġbathroom": 2985,
      "Ġfem": 2986,
      "Ġprec": 2987,
      "Ġloan": 2988,
      "Ġapple": 2989,
      "Ġmoved": 2990,
      "Ġbackground": 2991,
      "Ġbiggest": 2992,
      "Ġvolume": 2993,
      "Ġrental": 2994,
      "anch": 2995,
      "Ġdump": 2996,
      "Ġjes": 2997,
      "Ġadop": 2998,
      "Ġagent": 2999,
      "Ġremind": 3000,
      "Ġmeaning": 3001,
      "ification": 3002,
      "Ġelection": 3003,
      "Ġauthority": 3004,
      "Ġprincip": 3005,
      "force": 3006,
      "Ġmountain": 3007,
      "Ġcivil": 3008,
      "rast": 3009,
      "Ġgrant": 3010,
      "Ġsurvey": 3011,
      "Ġbuying": 3012,
      "Ġcompetition": 3013,
      "nch": 3014,
      "ons": 3015,
      "Ġpatter": 3016,
      "Ġborn": 3017,
      "Ġacqu": 3018,
      "Ġgeneration": 3019,
      "board": 3020,
      "Ġexisting": 3021,
      "Ġfantastic": 3022,
      "tish": 3023,
      "roll": 3024,
      "Ġtruth": 3025,
      "Ġhelpful": 3026,
      "ube": 3027,
      "Ġbusy": 3028,
      "Ġfav": 3029,
      "Ġlisted": 3030,
      "Ġjesus": 3031,
      "iable": 3032,
      "Ġbott": 3033,
      "Ġwid": 3034,
      "Ġexpensive": 3035,
      "Ġcake": 3036,
      "Ġoccasion": 3037,
      "Ġresponsibility": 3038,
      "bly": 3039,
      "Ġice": 3040,
      "inate": 3041,
      "Ġgam": 3042,
      "Ġvic": 3043,
      "Ġgenerally": 3044,
      "Ġconfir": 3045,
      "Ġaffect": 3046,
      "Ġtemperature": 3047,
      "Ġreve": 3048,
      "idential": 3049,
      "Ġdied": 3050,
      "Ġdisapp": 3051,
      "Ġguid": 3052,
      "Ġbrown": 3053,
      "aper": 3054,
      "Ġmist": 3055,
      "Ġreb": 3056,
      "Ġfebr": 3057,
      "Ġpassion": 3058,
      "Ġflight": 3059,
      "Ġdistrib": 3060,
      "Ġreveal": 3061,
      "put": 3062,
      "Ġdanger": 3063,
      "spective": 3064,
      "Ġremove": 3065,
      "Ġsurpris": 3066,
      "Ġfebruary": 3067,
      "Ġcab": 3068,
      "Ġeating": 3069,
      "Ġcentre": 3070,
      "ipping": 3071,
      "Ġdetermine": 3072,
      "coming": 3073,
      "ta": 3074,
      "Ġsold": 3075,
      "Ġconcept": 3076,
      "ittee": 3077,
      "Ġexplore": 3078,
      "Ġdistance": 3079,
      "Ġmovement": 3080,
      "Ġcrime": 3081,
      "Ġcleaning": 3082,
      "Ġcertif": 3083,
      "Ġdeveloping": 3084,
      "Ġnumer": 3085,
      "Ġrepe": 3086,
      "Ġassign": 3087,
      "Ġdecide": 3088,
      "Ġdepending": 3089,
      "Ġobject": 3090,
      "Ġprepared": 3091,
      "Ġsustain": 3092,
      "isation": 3093,
      "Ġcloud": 3094,
      "Ġwhe": 3095,
      "Ġgreater": 3096,
      "Ġbright": 3097,
      "Ġdemon": 3098,
      "Ġjourney": 3099,
      "Ġtotally": 3100,
      "Ġtrend": 3101,
      "round": 3102,
      "Ġtend": 3103,
      "Ġproced": 3104,
      "urer": 3105,
      "Ġjap": 3106,
      "Ġcalif": 3107,
      "ault": 3108,
      "mission": 3109,
      "rest": 3110,
      "Ġthrow": 3111,
      "Ġcommittee": 3112,
      "Ġoffered": 3113,
      "Ġoccur": 3114,
      "Ġassociation": 3115,
      "Ġbottom": 3116,
      "Ġmal": 3117,
      "iture": 3118,
      "Ġmaxim": 3119,
      "Ġhighest": 3120,
      "Ġgraph": 3121,
      "Ġwinning": 3122,
      "Ġpowerful": 3123,
      "Ġotherwise": 3124,
      "titude": 3125,
      "Ġwalking": 3126,
      "Ġsenior": 3127,
      "Ġtrouble": 3128,
      "tch": 3129,
      "uce": 3130,
      "xic": 3131,
      "arily": 3132,
      "Ġgall": 3133,
      "Ġriver": 3134,
      "Ġencourage": 3135,
      "volution": 3136,
      "Ġvolunte": 3137,
      "dom": 3138,
      "ky": 3139,
      "zz": 3140,
      "Ġchocol": 3141,
      "Ġaccomm": 3142,
      "Ġsurround": 3143,
      "Ġcompleted": 3144,
      "scape": 3145,
      "Ġbehavior": 3146,
      "Ġaccommod": 3147,
      "iet": 3148,
      "Ġsister": 3149,
      "oul": 3150,
      "Ġprop": 3151,
      "amed": 3152,
      "acity": 3153,
      "Ġshared": 3154,
      "Ġprofile": 3155,
      "Ġefficient": 3156,
      "Ġinstitution": 3157,
      "Ġchocolate": 3158,
      "Ġmine": 3159,
      "ato": 3160,
      "Ġinch": 3161,
      "riage": 3162,
      "Ġdiscount": 3163,
      "ibly": 3164,
      "Ġmentioned": 3165,
      "Ġolder": 3166,
      "Ġexecutive": 3167,
      "Ġpattern": 3168,
      "inger": 3169,
      "Ġcompli": 3170,
      "Ġoptim": 3171,
      "Ġtransform": 3172,
      "Ġarchit": 3173,
      "Ġmotor": 3174,
      "fast": 3175,
      "inated": 3176,
      "iling": 3177,
      "Ġunless": 3178,
      "Ġdesk": 3179,
      "Ġasking": 3180,
      "ipped": 3181,
      "Ġpin": 3182,
      "Ġpropos": 3183,
      "Ġand": 3184,
      "Ġmotiv": 3185,
      "sych": 3186,
      "Ġdedicated": 3187,
      "Ġalternative": 3188,
      "Ġprocedure": 3189,
      "cing": 3190,
      "Ġmort": 3191,
      "Ġlunch": 3192,
      "Ġshape": 3193,
      "Ġcolour": 3194,
      "Ġprogramme": 3195,
      "Ġbeauty": 3196,
      "Ġcaliforn": 3197,
      "iny": 3198,
      "Ġvot": 3199,
      "Ġjew": 3200,
      "Ġunion": 3201,
      "Ġlake": 3202,
      "Ġtechnical": 3203,
      "Ġpsych": 3204,
      "omb": 3205,
      "Ġtrump": 3206,
      "Ġbelief": 3207,
      "Ġlarger": 3208,
      "Ġlargest": 3209,
      "Ġessay": 3210,
      "kin": 3211,
      "top": 3212,
      "Ġeight": 3213,
      "utor": 3214,
      "Ġunfort": 3215,
      "Ġteaching": 3216,
      "Ġannounced": 3217,
      "Ġexchange": 3218,
      "Ġpush": 3219,
      "Ġdo": 3220,
      "str": 3221,
      "Ġreference": 3222,
      "Ġtag": 3223,
      "Ġdish": 3224,
      "Ġcritical": 3225,
      "Ġpassed": 3226,
      "Ġsalt": 3227,
      "Ġepis": 3228,
      "Ġemerg": 3229,
      "Ġsubsc": 3230,
      "pro": 3231,
      "dient": 3232,
      "Ġdecor": 3233,
      "Ġfrench": 3234,
      "Ġcovered": 3235,
      "Ġerror": 3236,
      "Ġselling": 3237,
      "Ġnumerous": 3238,
      "Ġarchitect": 3239,
      "Ġdro": 3240,
      "Ġdim": 3241,
      "aint": 3242,
      "Ġflor": 3243,
      "Ġreality": 3244,
      "Ġhandle": 3245,
      "Ġfarm": 3246,
      "Ġimagine": 3247,
      "reh": 3248,
      "anti": 3249,
      "pping": 3250,
      "Ġstudio": 3251,
      "Ġexpand": 3252,
      "Ġrelevant": 3253,
      "Ġadventure": 3254,
      "gn": 3255,
      "Ġgun": 3256,
      "ously": 3257,
      "Ġasset": 3258,
      "Ġelectronic": 3259,
      "Ġestablish": 3260,
      "Ġappreciate": 3261,
      "Ġcalifornia": 3262,
      "Ġchair": 3263,
      "Ġcoast": 3264,
      "Ġputting": 3265,
      "Ġexciting": 3266,
      "Ġtuesday": 3267,
      "Ġlength": 3268,
      "Ġmel": 3269,
      "Ġbear": 3270,
      "ament": 3271,
      "Ġbeat": 3272,
      "Ġsurface": 3273,
      "Ġcapacity": 3274,
      "Ġsugar": 3275,
      "Ġvictim": 3276,
      "orter": 3277,
      "orney": 3278,
      "Ġchat": 3279,
      "Ġring": 3280,
      "Ġassess": 3281,
      "Ġattorney": 3282,
      "Ġinstruction": 3283,
      "Ġcalc": 3284,
      "Ġharm": 3285,
      "Ġrecommended": 3286,
      "Ġdebt": 3287,
      "Ġstatus": 3288,
      "Ġbattle": 3289,
      "sequ": 3290,
      "Ġseek": 3291,
      "Ġrare": 3292,
      "Ġsmo": 3293,
      "Ġregulation": 3294,
      "Ġdesigner": 3295,
      "Ġmetal": 3296,
      "Ġclassic": 3297,
      "Ġfinished": 3298,
      "Ġcollabor": 3299,
      "Ġcorporate": 3300,
      "Ġepisode": 3301,
      "Ġplastic": 3302,
      "Ġdiag": 3303,
      "azine": 3304,
      "Ġestablished": 3305,
      "Ġminimum": 3306,
      "Ġwashington": 3307,
      "Ġappointment": 3308,
      "tise": 3309,
      "Ġunc": 3310,
      "Ġamb": 3311,
      "Ġindia": 3312,
      "Ġfootball": 3313,
      "Ġdoubt": 3314,
      "Ġdestination": 3315,
      "Ġlux": 3316,
      "Ġyester": 3317,
      "Ġproud": 3318,
      "Ġadding": 3319,
      "Ġdelicious": 3320,
      "Ġbecoming": 3321,
      "Ġbalance": 3322,
      "Ġprimary": 3323,
      "Ġingre": 3324,
      "Ġyesterday": 3325,
      "Ġmac": 3326,
      "Ġmental": 3327,
      "Ġfat": 3328,
      "stance": 3329,
      "Ġhill": 3330,
      "Ġstor": 3331,
      "Ġlie": 3332,
      "Ġtrail": 3333,
      "Ġraise": 3334,
      "tival": 3335,
      "Ġwinner": 3336,
      "Ġingredient": 3337,
      "Ġthus": 3338,
      "Ġthurs": 3339,
      "Ġcong": 3340,
      "abit": 3341,
      "shop": 3342,
      "Ġactual": 3343,
      "Ġmagazine": 3344,
      "Ġthursday": 3345,
      "Ġcrow": 3346,
      "Ġfi": 3347,
      "Ġbatter": 3348,
      "rier": 3349,
      "uted": 3350,
      "Ġimpl": 3351,
      "Ġimpress": 3352,
      "Ġorigin": 3353,
      "gg": 3354,
      "gue": 3355,
      "Ġath": 3356,
      "Ġdad": 3357,
      "Ġcompreh": 3358,
      "ieved": 3359,
      "Ġmonitor": 3360,
      "Ġregistration": 3361,
      "Ġvacation": 3362,
      "Ġfestival": 3363,
      "fit": 3364,
      "Ġsat": 3365,
      "Ġnar": 3366,
      "Ġship": 3367,
      "Ġcompared": 3368,
      "Ġleaf": 3369,
      "Ġforg": 3370,
      "Ġdescription": 3371,
      "Ġidentify": 3372,
      "Ġchemical": 3373,
      "yal": 3374,
      "Ġaid": 3375,
      "Ġbreat": 3376,
      "Ġpred": 3377,
      "Ġdesire": 3378,
      "Ġcorner": 3379,
      "Ġdemoc": 3380,
      "Ġforeign": 3381,
      "Ġfeedback": 3382,
      "Ġfavour": 3383,
      "Ġvolunteer": 3384,
      "mo": 3385,
      "Ġbet": 3386,
      "Ġmarriage": 3387,
      "Ġanywhere": 3388,
      "Ġvisual": 3389,
      "Ġimprovement": 3390,
      "Ġpanel": 3391,
      "Ġdumpster": 3392,
      "Ġmur": 3393,
      "Ġyea": 3394,
      "Ġcloth": 3395,
      "Ġcommand": 3396,
      "Ġmuse": 3397,
      "Ġnutri": 3398,
      "Ġchristian": 3399,
      "lation": 3400,
      "mitted": 3401,
      "ston": 3402,
      "Ġcompl": 3403,
      "Ġrequires": 3404,
      "Ġassociated": 3405,
      "Ġaustralia": 3406,
      "cer": 3407,
      "Ġgather": 3408,
      "Ġhom": 3409,
      "estic": 3410,
      "Ġemp": 3411,
      "Ġfaith": 3412,
      "Ġmilk": 3413,
      "gic": 3414,
      "Ġcris": 3415,
      "Ġshirt": 3416,
      "Ġjoy": 3417,
      "Ġmenu": 3418,
      "lusion": 3419,
      "gestion": 3420,
      "Ġemergency": 3421,
      "Ġstorage": 3422,
      "arian": 3423,
      "Ġbot": 3424,
      "Ġpregn": 3425,
      "Ġleaving": 3426,
      "Ġfolk": 3427,
      "Ġinstance": 3428,
      "Ġeventually": 3429,
      "Ġassistance": 3430,
      "atively": 3431,
      "Ġaffordable": 3432,
      "Ġpump": 3433,
      "Ġmech": 3434,
      "Ġtor": 3435,
      "orrow": 3436,
      "Ġbird": 3437,
      "using": 3438,
      "Ġdie": 3439,
      "Ġsmile": 3440,
      "Ġfreed": 3441,
      "Ġclearly": 3442,
      "Ġbreakfast": 3443,
      "Ġspeaking": 3444,
      "Ġtomorrow": 3445,
      "ctive": 3446,
      "Ġdating": 3447,
      "key": 3448,
      "Ġjump": 3449,
      "Ġgene": 3450,
      "Ġinvestor": 3451,
      "Ġsexual": 3452,
      "Ġcas": 3453,
      "Ġwire": 3454,
      "Ġdev": 3455,
      "Ġpair": 3456,
      "Ġcream": 3457,
      "Ġsky": 3458,
      "Ġnovel": 3459,
      "Ġacademic": 3460,
      "Ġvillage": 3461,
      "Ġunfortunately": 3462,
      "bon": 3463,
      "Ġic": 3464,
      "rial": 3465,
      "Ġyog": 3466,
      "tically": 3467,
      "gery": 3468,
      "Ġcoverage": 3469,
      "Ġindependent": 3470,
      "Ġadvertising": 3471,
      "Ġmechan": 3472,
      "care": 3473,
      "Ġeffec": 3474,
      "Ġswitch": 3475,
      "Ġpossibly": 3476,
      "Ġmuseum": 3477,
      "enance": 3478,
      "sec": 3479,
      "Ġmost": 3480,
      "Ġhighlight": 3481,
      "Ġfamous": 3482,
      "Ġvision": 3483,
      "Ġended": 3484,
      "Ġsurgery": 3485,
      "racy": 3486,
      "Ġtrial": 3487,
      "Ġstream": 3488,
      "Ġfocused": 3489,
      "Ġign": 3490,
      "Ġwhere": 3491,
      "Ġeval": 3492,
      "omes": 3493,
      "Ġvict": 3494,
      "Ġanyway": 3495,
      "Ġopened": 3496,
      "Ġcrim": 3497,
      "Ġtherapy": 3498,
      "Ġparticipant": 3499,
      "Ġflower": 3500,
      "Ġheavy": 3501,
      "we": 3502,
      "lete": 3503,
      "ung": 3504,
      "Ġran": 3505,
      "Ġride": 3506,
      "Ġserved": 3507,
      "Ġwhose": 3508,
      "Ġlaugh": 3509,
      "Ġedge": 3510,
      "Ġreflect": 3511,
      "Ġwheel": 3512,
      "iency": 3513,
      "Ġcry": 3514,
      "Ġhang": 3515,
      "ician": 3516,
      "Ġchain": 3517,
      "Ġexpense": 3518,
      "Ġobtain": 3519,
      "Ġrise": 3520,
      "Ġfilled": 3521,
      "Ġtelevision": 3522,
      "Ġmedicine": 3523,
      "Ġwaste": 3524,
      "Ġfreedom": 3525,
      "ban": 3526,
      "mar": 3527,
      "ves": 3528,
      "Ġchick": 3529,
      "ulated": 3530,
      "ellig": 3531,
      "Ġconfidence": 3532,
      "porary": 3533,
      "Ġcheap": 3534,
      "Ġguarantee": 3535,
      "Ġmostly": 3536,
      "ser": 3537,
      "uable": 3538,
      "vin": 3539,
      "Ġpor": 3540,
      "Ġchief": 3541,
      "Ġenable": 3542,
      "eared": 3543,
      "Ġleadership": 3544,
      "Ġbritish": 3545,
      "Ġstick": 3546,
      "ga": 3547,
      "kn": 3548,
      "Ġtough": 3549,
      "Ġrevenue": 3550,
      "Ġkept": 3551,
      "Ġparking": 3552,
      "Ġlegis": 3553,
      "Ġmaintenance": 3554,
      "Ġcontinued": 3555,
      "Ġwilling": 3556,
      "Ġfurniture": 3557,
      "reg": 3558,
      "Ġboo": 3559,
      "Ġhous": 3560,
      "ula": 3561,
      "Ġje": 3562,
      "Ġplaced": 3563,
      "Ġcore": 3564,
      "Ġfinance": 3565,
      "Ġfollowed": 3566,
      "Ġswim": 3567,
      "Ġeducational": 3568,
      "Ġprivacy": 3569,
      "Ġinspiration": 3570,
      "sa": 3571,
      "Ġkick": 3572,
      "Ġsusp": 3573,
      "ublic": 3574,
      "Ġrepl": 3575,
      "Ġknowing": 3576,
      "Ġresist": 3577,
      "Ġsyn": 3578,
      "Ġshowing": 3579,
      "Ġdeveloper": 3580,
      "Ġpresentation": 3581,
      "Ġtesting": 3582,
      "Ġproposal": 3583,
      "Ġmad": 3584,
      "Ġbon": 3585,
      "Ġbless": 3586,
      "Ġgay": 3587,
      "Ġrene": 3588,
      "Ġagre": 3589,
      "Ġintellig": 3590,
      "Ġpainting": 3591,
      "Ġsuggestion": 3592,
      "Ġlabor": 3593,
      "Ġcommitment": 3594,
      "Ġbattery": 3595,
      "ustr": 3596,
      "Ġpossibility": 3597,
      "Ġadvanced": 3598,
      "Ġgraphic": 3599,
      "iation": 3600,
      "aling": 3601,
      "Ġstone": 3602,
      "Ġquiet": 3603,
      "Ġsolid": 3604,
      "Ġfilter": 3605,
      "Ġcombination": 3606,
      "rupt": 3607,
      "ded": 3608,
      "lim": 3609,
      "vis": 3610,
      "Ġpun": 3611,
      "Ġlin": 3612,
      "Ġhabit": 3613,
      "Ġtruck": 3614,
      "Ġpurs": 3615,
      "Ġpromote": 3616,
      "Ġsitting": 3617,
      "Ġauto": 3618,
      "Ġfemale": 3619,
      "Ġtoy": 3620,
      "ulate": 3621,
      "Ġshut": 3622,
      "Ġadap": 3623,
      "Ġteen": 3624,
      "Ġguard": 3625,
      "Ġminor": 3626,
      "Ġhearing": 3627,
      "Ġemployment": 3628,
      "Ġrecovery": 3629,
      "Ġcance": 3630,
      "Ġpu": 3631,
      "Ġshoe": 3632,
      "bert": 3633,
      "Ġoutcome": 3634,
      "Ġbecomes": 3635,
      "Ġconnected": 3636,
      "Ġcounter": 3637,
      "Ġinstallation": 3638,
      "Ġinitiative": 3639,
      "Ġadministration": 3640,
      "Ġjustice": 3641,
      "inese": 3642,
      "Ġclosed": 3643,
      "Ġplanet": 3644,
      "Ġrepublic": 3645,
      "Ġveget": 3646,
      "Ġdrag": 3647,
      "Ġmajority": 3648,
      "Ġautomatic": 3649,
      "gage": 3650,
      "rig": 3651,
      "wide": 3652,
      "yer": 3653,
      "eration": 3654,
      "Ġciti": 3655,
      "Ġec": 3656,
      "rael": 3657,
      "acking": 3658,
      "iry": 3659,
      "Ġtim": 3660,
      "Ġprepare": 3661,
      "Ġinspired": 3662,
      "Ġlicense": 3663,
      "Ġshooting": 3664,
      "ten": 3665,
      "Ġonto": 3666,
      "Ġhappening": 3667,
      "Ġviolence": 3668,
      "nel": 3669,
      "Ġchee": 3670,
      "Ġlived": 3671,
      "Ġincor": 3672,
      "Ġinsight": 3673,
      "Ġsurprise": 3674,
      "Ġincreased": 3675,
      "Ġbuyer": 3676,
      "Ġoperating": 3677,
      "Ġslight": 3678,
      "Ġmanaged": 3679,
      "Ġsilver": 3680,
      "Ġjudge": 3681,
      "Ġarrange": 3682,
      "Ġnegative": 3683,
      "Ġbooking": 3684,
      "Ġchinese": 3685,
      "Ġven": 3686,
      "Ġspe": 3687,
      "Ġcompet": 3688,
      "Ġapparent": 3689,
      "Ġcommitted": 3690,
      "Ġrap": 3691,
      "Ġfunding": 3692,
      "Ġselected": 3693,
      "Ġsample": 3694,
      "Ġmistake": 3695,
      "lin": 3696,
      "Ġsoul": 3697,
      "Ġexhib": 3698,
      "Ġworkshop": 3699,
      "Ġcraft": 3700,
      "Ġholding": 3701,
      "Ġseriously": 3702,
      "gment": 3703,
      "Ġsem": 3704,
      "Ġsud": 3705,
      "ague": 3706,
      "Ġgrade": 3707,
      "Ġpromotion": 3708,
      "Ġisrael": 3709,
      "Ġfailure": 3710,
      "Ġfavourite": 3711,
      "Ġcitizen": 3712,
      "hone": 3713,
      "Ġcm": 3714,
      "Ġpound": 3715,
      "Ġchec": 3716,
      "Ġyard": 3717,
      "Ġscale": 3718,
      "Ġtex": 3719,
      "Ġsmooth": 3720,
      "Ġleague": 3721,
      "Ġfruit": 3722,
      "Ġpaying": 3723,
      "Ġseemed": 3724,
      "Ġwedn": 3725,
      "Ġterror": 3726,
      "Ġprinciple": 3727,
      "Ġital": 3728,
      "Ġperspective": 3729,
      "Ġmonthly": 3730,
      "Ġsigned": 3731,
      "Ġaccompl": 3732,
      "Ġinfluence": 3733,
      "Ġhousing": 3734,
      "Ġpc": 3735,
      "Ġdental": 3736,
      "Ġnative": 3737,
      "Ġdecl": 3738,
      "Ġministry": 3739,
      "ribe": 3740,
      "Ġconsidering": 3741,
      "tistic": 3742,
      "Ġappears": 3743,
      "Ġhorse": 3744,
      "Ġwednesday": 3745,
      "house": 3746,
      "Ġspoke": 3747,
      "Ġhopefully": 3748,
      "Ġmissing": 3749,
      "Ġlabel": 3750,
      "Ġcute": 3751,
      "Ġmale": 3752,
      "Ġly": 3753,
      "Ġbes": 3754,
      "Ġham": 3755,
      "Ġreward": 3756,
      "uled": 3757,
      "Ġsheet": 3758,
      "Ġtigh": 3759,
      "Ġspect": 3760,
      "Ġmeat": 3761,
      "Ġmeant": 3762,
      "Ġattach": 3763,
      "Ġpromise": 3764,
      "Ġii": 3765,
      "Ġcelebrate": 3766,
      "Ġiphone": 3767,
      "Ġscientif": 3768,
      "Ġseparate": 3769,
      "ray": 3770,
      "Ġnd": 3771,
      "ida": 3772,
      "aren": 3773,
      "Ġcontroll": 3774,
      "Ġremains": 3775,
      "Ġspeech": 3776,
      "ides": 3777,
      "rative": 3778,
      "active": 3779,
      "Ġunli": 3780,
      "Ġopp": 3781,
      "Ġeditor": 3782,
      "Ġrealize": 3783,
      "Ġemployer": 3784,
      "Ġexcept": 3785,
      "Ġtheory": 3786,
      "lusive": 3787,
      "Ġafrica": 3788,
      "Ġassessment": 3789,
      "Ġyeah": 3790,
      "ened": 3791,
      "Ġmm": 3792,
      "Ġnur": 3793,
      "Ġkit": 3794,
      "Ġod": 3795,
      "Ġsubmit": 3796,
      "Ġcapture": 3797,
      "Ġstanding": 3798,
      "Ġreasonable": 3799,
      "Ġpassword": 3800,
      "Ġdomestic": 3801,
      "Ġrenew": 3802,
      "oma": 3803,
      "Ġupl": 3804,
      "Ġyouth": 3805,
      "Ġpublish": 3806,
      "Ġsmaller": 3807,
      "Ġengineering": 3808,
      "Ġdescribed": 3809,
      "Ġcriminal": 3810,
      "Ġmc": 3811,
      "Ġboat": 3812,
      "Ġobj": 3813,
      "Ġindustrial": 3814,
      "Ġhonor": 3815,
      "Ġcomprehensive": 3816,
      "hold": 3817,
      "ove": 3818,
      "ero": 3819,
      "Ġmath": 3820,
      "ulous": 3821,
      "Ġdefense": 3822,
      "Ġhero": 3823,
      "Ġbrief": 3824,
      "Ġconvenient": 3825,
      "Ġmanufacturer": 3826,
      "right": 3827,
      "Ġdance": 3828,
      "Ġyout": 3829,
      "Ġshipping": 3830,
      "Ġaccur": 3831,
      "Ġreturned": 3832,
      "Ġconcerned": 3833,
      "Ġdonation": 3834,
      "Ġcontains": 3835,
      "Ġreligious": 3836,
      "iliar": 3837,
      "Ġchicken": 3838,
      "Ġil": 3839,
      "rew": 3840,
      "Ġapps": 3841,
      "Ġtrick": 3842,
      "Ġraised": 3843,
      "Ġvaluable": 3844,
      "Ġapproved": 3845,
      "Ġapproxim": 3846,
      "Ġexception": 3847,
      "Ġbrings": 3848,
      "Ġoccup": 3849,
      "Ġcrazy": 3850,
      "Ġwestern": 3851,
      "ok": 3852,
      "ps": 3853,
      "rup": 3854,
      "alog": 3855,
      "Ġgro": 3856,
      "Ġconver": 3857,
      "Ġali": 3858,
      "Ġconstantly": 3859,
      "Ġkilled": 3860,
      "bed": 3861,
      "icial": 3862,
      "Ġjer": 3863,
      "Ġserving": 3864,
      "entially": 3865,
      "Ġattract": 3866,
      "Ġcalling": 3867,
      "Ġgrown": 3868,
      "Ġproperly": 3869,
      "Ġdetailed": 3870,
      "Ġcontinues": 3871,
      "Ġhello": 3872,
      "Ġradio": 3873,
      "Ġenhance": 3874,
      "Ġbay": 3875,
      "rim": 3876,
      "Ġrid": 3877,
      "Ġshift": 3878,
      "Ġroot": 3879,
      "Ġpaul": 3880,
      "Ġintention": 3881,
      "Ġforest": 3882,
      "Ġinitial": 3883,
      "Ġluxury": 3884,
      "Ġyoga": 3885,
      "au": 3886,
      "edia": 3887,
      "Ġmatt": 3888,
      "umn": 3889,
      "Ġoppos": 3890,
      "Ġappeal": 3891,
      "Ġrose": 3892,
      "Ġhey": 3893,
      "Ġproduced": 3894,
      "ancing": 3895,
      "Ġimportance": 3896,
      "Ġspeaker": 3897,
      "Ġbowl": 3898,
      "Ġmaximum": 3899,
      "Ġgallery": 3900,
      "rog": 3901,
      "Ġkm": 3902,
      "Ġseeking": 3903,
      "Ġpersonally": 3904,
      "Ġbasically": 3905,
      "Ġbigger": 3906,
      "Ġforever": 3907,
      "Ġupdated": 3908,
      "Ġcircum": 3909,
      "Ġscientific": 3910,
      "erved": 3911,
      "Ġproceed": 3912,
      "uting": 3913,
      "Ġorganisation": 3914,
      "Ġmassive": 3915,
      "Ġagreed": 3916,
      "aration": 3917,
      "Ġburn": 3918,
      "Ġhate": 3919,
      "Ġnone": 3920,
      "ope": 3921,
      "atest": 3922,
      "ticed": 3923,
      "Ġtrading": 3924,
      "Ġvisiting": 3925,
      "Ġlawyer": 3926,
      "Ġgreatest": 3927,
      "Ġstopped": 3928,
      "Ġawareness": 3929,
      "Ġscientist": 3930,
      "Ġvirtual": 3931,
      "gi": 3932,
      "Ġegg": 3933,
      "iled": 3934,
      "Ġchamp": 3935,
      "Ġalco": 3936,
      "Ġrand": 3937,
      "Ġbeer": 3938,
      "goti": 3939,
      "Ġlucky": 3940,
      "Ġgermany": 3941,
      "bur": 3942,
      "ivers": 3943,
      "rom": 3944,
      "Ġmouth": 3945,
      "lear": 3946,
      "Ġgorge": 3947,
      "itate": 3948,
      "Ġpaint": 3949,
      "Ġspecifically": 3950,
      "Ġinstalled": 3951,
      "Ġpriority": 3952,
      "Ġfrequently": 3953,
      "Ġassignment": 3954,
      "Ġcheese": 3955,
      "icing": 3956,
      "Ġliber": 3957,
      "Ġsupposed": 3958,
      "Ġflat": 3959,
      "Ġpoll": 3960,
      "Ġshower": 3961,
      "Ġcaught": 3962,
      "encing": 3963,
      "Ġspecialist": 3964,
      "Ġpresented": 3965,
      "Ġreached": 3966,
      "Ġregardless": 3967,
      "Ġlayer": 3968,
      "Ġpremium": 3969,
      "Ġcabin": 3970,
      "Ġalcohol": 3971,
      "inating": 3972,
      "ald": 3973,
      "Ġfal": 3974,
      "ara": 3975,
      "Ġhire": 3976,
      "ette": 3977,
      "olf": 3978,
      "Ġspl": 3979,
      "Ġheight": 3980,
      "Ġbridge": 3981,
      "Ġelim": 3982,
      "Ġcultural": 3983,
      "Ġrepresentative": 3984,
      "Ġmicha": 3985,
      "Ġresolution": 3986,
      "Ġdemonstr": 3987,
      "equ": 3988,
      "friend": 3989,
      "rap": 3990,
      "Ġspan": 3991,
      "Ġplug": 3992,
      "Ġaside": 3993,
      "Ġdelay": 3994,
      "Ġyoutube": 3995,
      "Ġchic": 3996,
      "Ġnegoti": 3997,
      "Ġveter": 3998,
      "Ġmanner": 3999,
      "Ġbug": 4000,
      "Ġupgra": 4001,
      "Ġdepth": 4002,
      "Ġdatab": 4003,
      "Ġdavid": 4004,
      "Ġfitness": 4005,
      "Ġadminist": 4006,
      "Ġestimate": 4007,
      "Ġinvestigation": 4008,
      "Ġjames": 4009,
      "Ġbottle": 4010,
      "bi": 4011,
      "Ġmill": 4012,
      "Ġrub": 4013,
      "Ġworse": 4014,
      "estyle": 4015,
      "Ġcoord": 4016,
      "Ġpepper": 4017,
      "Ġpleased": 4018,
      "Ġparticipate": 4019,
      "Ġokay": 4020,
      "Ġtypically": 4021,
      "Ġgraduate": 4022,
      "Ġmichael": 4023,
      "pet": 4024,
      "wor": 4025,
      "ins": 4026,
      "Ġtun": 4027,
      "Ġduty": 4028,
      "Ġjun": 4029,
      "Ġprize": 4030,
      "Ġcaused": 4031,
      "Ġdelight": 4032,
      "Ġgrab": 4033,
      "Ġorganic": 4034,
      "Ġconflic": 4035,
      "Ġannounce": 4036,
      "Ġflexible": 4037,
      "Ġneighborhood": 4038,
      "Ġrapid": 4039,
      "ym": 4040,
      "za": 4041,
      "Ġmat": 4042,
      "Ġwit": 4043,
      "Ġscen": 4044,
      "Ġresort": 4045,
      "Ġjoint": 4046,
      "Ġcreation": 4047,
      "Ġearn": 4048,
      "Ġhousehold": 4049,
      "umption": 4050,
      "Ġresearcher": 4051,
      "Ġpromot": 4052,
      "Ġtelling": 4053,
      "Ġpractical": 4054,
      "Ġcooky": 4055,
      "Ġintroduced": 4056,
      "Ġfabric": 4057,
      "tm": 4058,
      "ening": 4059,
      "Ġscr": 4060,
      "ager": 4061,
      "Ġram": 4062,
      "ptom": 4063,
      "Ġformat": 4064,
      "Ġindian": 4065,
      "Ġmuscle": 4066,
      "Ġaftern": 4067,
      "Ġclinical": 4068,
      "Ġhurt": 4069,
      "Ġafternoon": 4070,
      "iff": 4071,
      "Ġcoc": 4072,
      "Ġcooking": 4073,
      "Ġfinger": 4074,
      "Ġdram": 4075,
      "Ġev": 4076,
      "Ġny": 4077,
      "Ġnamed": 4078,
      "ighter": 4079,
      "Ġoce": 4080,
      "ructure": 4081,
      "box": 4082,
      "Ġexpectation": 4083,
      "Ġclothes": 4084,
      "Ġsudden": 4085,
      "Ġgorgeous": 4086,
      "da": 4087,
      "enger": 4088,
      "Ġlol": 4089,
      "rif": 4090,
      "Ġincident": 4091,
      "Ġfunny": 4092,
      "Ġdiscl": 4093,
      "Ġfrance": 4094,
      "Ġmemor": 4095,
      "Ġintended": 4096,
      "Ġcompetitive": 4097,
      "Ġentertainment": 4098,
      "Ġapproximately": 4099,
      "Ġocean": 4100,
      "Ġdar": 4101,
      "Ġwow": 4102,
      "Ġsomewhere": 4103,
      "Ġapart": 4104,
      "Ġbroken": 4105,
      "Ġprotected": 4106,
      "Ġdelivered": 4107,
      "Ġsymptom": 4108,
      "Ġinnovative": 4109,
      "ford": 4110,
      "lig": 4111,
      "lement": 4112,
      "ica": 4113,
      "Ġstun": 4114,
      "Ġthread": 4115,
      "Ġrd": 4116,
      "Ġsauce": 4117,
      "Ġcoop": 4118,
      "osit": 4119,
      "Ġfamiliar": 4120,
      "Ġadvis": 4121,
      "Ġaudio": 4122,
      "Ġconvention": 4123,
      "Ġjuice": 4124,
      "Ġlifestyle": 4125,
      "Ġcrisis": 4126,
      "pan": 4127,
      "Ġlord": 4128,
      "Ġdining": 4129,
      "Ġnuc": 4130,
      "anta": 4131,
      "Ġrail": 4132,
      "Ġconsc": 4133,
      "owner": 4134,
      "Ġpleasure": 4135,
      "Ġshowed": 4136,
      "Ġinfrast": 4137,
      "Ġstretch": 4138,
      "Ġcritic": 4139,
      "Ġmissed": 4140,
      "Ġaccepted": 4141,
      "Ġefficiency": 4142,
      "Ġregistered": 4143,
      "Ġtransportation": 4144,
      "uk": 4145,
      "Ġfer": 4146,
      "roid": 4147,
      "raction": 4148,
      "Ġshar": 4149,
      "Ġlock": 4150,
      "Ġplanned": 4151,
      "Ġallowing": 4152,
      "Ġwondering": 4153,
      "Ġrecommendation": 4154,
      "Ġarmy": 4155,
      "Ġbreast": 4156,
      "Ġinnovation": 4157,
      "Ġsuitable": 4158,
      "Ġconfirm": 4159,
      "Ġsurrounding": 4160,
      "Ġcircumstance": 4161,
      "bing": 4162,
      "la": 4163,
      "pon": 4164,
      "order": 4165,
      "ats": 4166,
      "othing": 4167,
      "Ġchart": 4168,
      "Ġminister": 4169,
      "Ġedition": 4170,
      "Ġinternal": 4171,
      "Ġclassroom": 4172,
      "Ġrefund": 4173,
      "Ġroute": 4174,
      "Ġinfrastructure": 4175,
      "ba": 4176,
      "rical": 4177,
      "Ġast": 4178,
      "Ġinvent": 4179,
      "isc": 4180,
      "Ġrating": 4181,
      "Ġworst": 4182,
      "ocking": 4183,
      "Ġcompar": 4184,
      "abled": 4185,
      "Ġassem": 4186,
      "Ġfrank": 4187,
      "Ġupcoming": 4188,
      "Ġengland": 4189,
      "Ġtexas": 4190,
      "Ġdatabase": 4191,
      "eper": 4192,
      "iam": 4193,
      "my": 4194,
      "Ġlap": 4195,
      "Ġroman": 4196,
      "Ġuns": 4197,
      "Ġinterior": 4198,
      "Ġreliable": 4199,
      "Ġindeed": 4200,
      "Ġdiscuss": 4201,
      "Ġcharged": 4202,
      "Ġvalid": 4203,
      "Ġpurchased": 4204,
      "Ġwearing": 4205,
      "Ġargument": 4206,
      "Ġincredible": 4207,
      "Ġber": 4208,
      "Ġstorm": 4209,
      "olar": 4210,
      "Ġconsequ": 4211,
      "Ġvit": 4212,
      "Ġcomplic": 4213,
      "Ġusa": 4214,
      "Ġdisp": 4215,
      "Ġprofess": 4216,
      "Ġlinked": 4217,
      "Ġmagn": 4218,
      "Ġdrawing": 4219,
      "Ġphotography": 4220,
      "Ġjapan": 4221,
      "Ġdimension": 4222,
      "Ġflorida": 4223,
      "bol": 4224,
      "more": 4225,
      "pr": 4226,
      "rol": 4227,
      "ulting": 4228,
      "aser": 4229,
      "Ġseed": 4230,
      "Ġloving": 4231,
      "Ġroof": 4232,
      "Ġtwice": 4233,
      "Ġprison": 4234,
      "Ġmodule": 4235,
      "Ġchoosing": 4236,
      "Ġowned": 4237,
      "Ġfixed": 4238,
      "Ġtonight": 4239,
      "Ġdiagn": 4240,
      "Ġcrowd": 4241,
      "down": 4242,
      "Ġsick": 4243,
      "Ġcart": 4244,
      "Ġpi": 4245,
      "Ġnine": 4246,
      "Ġdivision": 4247,
      "Ġbasket": 4248,
      "Ġreput": 4249,
      "Ġfaster": 4250,
      "Ġroutine": 4251,
      "Ġdynam": 4252,
      "Ġsurprised": 4253,
      "Ġupload": 4254,
      "ext": 4255,
      "Ġsight": 4256,
      "Ġhole": 4257,
      "Ġrevolution": 4258,
      "Ġvib": 4259,
      "usion": 4260,
      "Ġresidential": 4261,
      "Ġconstit": 4262,
      "Ġfollows": 4263,
      "Ġextended": 4264,
      "Ġextensive": 4265,
      "Ġsupporting": 4266,
      "Ġsolar": 4267,
      "Ġconfig": 4268,
      "Ġcampus": 4269,
      "Ġexperiment": 4270,
      "Ġmyster": 4271,
      "Ġapplied": 4272,
      "Ġaccommodation": 4273,
      "Ġobjective": 4274,
      "bling": 4275,
      "list": 4276,
      "pting": 4277,
      "Ġment": 4278,
      "Ġund": 4279,
      "Ġrecording": 4280,
      "Ġdefault": 4281,
      "Ġenjoying": 4282,
      "Ġabuse": 4283,
      "Ġadvoc": 4284,
      "Ġpublication": 4285,
      "Ġdealing": 4286,
      "Ġbringing": 4287,
      "Ġperfectly": 4288,
      "ograp": 4289,
      "Ġdiscovered": 4290,
      "Ġurban": 4291,
      "Ġarrived": 4292,
      "Ġcontribution": 4293,
      "Ġslightly": 4294,
      "Ġfasc": 4295,
      "Ġoven": 4296,
      "Ġperman": 4297,
      "Ġtail": 4298,
      "Ġtwenty": 4299,
      "Ġparis": 4300,
      "Ġindic": 4301,
      "Ġposting": 4302,
      "Ġnoted": 4303,
      "Ġmode": 4304,
      "Ġelig": 4305,
      "Ġtourist": 4306,
      "Ġreceiving": 4307,
      "Ġsleeping": 4308,
      "Ġboost": 4309,
      "away": 4310,
      "fol": 4311,
      "Ġtank": 4312,
      "the": 4313,
      "Ġrough": 4314,
      "Ġcontem": 4315,
      "Ġswe": 4316,
      "Ġaffected": 4317,
      "ternal": 4318,
      "Ġcontainer": 4319,
      "Ġobviously": 4320,
      "Ġnuclear": 4321,
      "Ġprofessor": 4322,
      "Ġcontext": 4323,
      "Ġrow": 4324,
      "Ġspecie": 4325,
      "Ġcorn": 4326,
      "Ġhoping": 4327,
      "Ġconfident": 4328,
      "Ġprompt": 4329,
      "Ġcouns": 4330,
      "Ġsentence": 4331,
      "Ġregularly": 4332,
      "Ġweak": 4333,
      "ein": 4334,
      "Ġiron": 4335,
      "Ġari": 4336,
      "edy": 4337,
      "Ġdan": 4338,
      "Ġthor": 4339,
      "ounter": 4340,
      "vise": 4341,
      "Ġdisability": 4342,
      "Ġinstag": 4343,
      "Ġnotif": 4344,
      "Ġencounter": 4345,
      "Ġpicked": 4346,
      "Ġstrategic": 4347,
      "Ġremoved": 4348,
      "ville": 4349,
      "Ġweapon": 4350,
      "Ġmurder": 4351,
      "Ġconflict": 4352,
      "bit": 4353,
      "iest": 4354,
      "ts": 4355,
      "resh": 4356,
      "ario": 4357,
      "Ġnom": 4358,
      "sey": 4359,
      "Ġscript": 4360,
      "Ġcarefully": 4361,
      "Ġwilliam": 4362,
      "Ġemotional": 4363,
      "Ġcongress": 4364,
      "Ġeffectively": 4365,
      "com": 4366,
      "ively": 4367,
      "Ġbound": 4368,
      "Ġgender": 4369,
      "Ġanx": 4370,
      "Ġunf": 4371,
      "Ġqueen": 4372,
      "Ġmexic": 4373,
      "Ġinteraction": 4374,
      "Ġdraft": 4375,
      "Ġdownt": 4376,
      "Ġengineer": 4377,
      "Ġregional": 4378,
      "Ġimmig": 4379,
      "Ġvirgin": 4380,
      "Ġfellow": 4381,
      "bour": 4382,
      "Ġped": 4383,
      "Ġpow": 4384,
      "rab": 4385,
      "rase": 4386,
      "ado": 4387,
      "acing": 4388,
      "Ġexcess": 4389,
      "Ġyell": 4390,
      "Ġtrac": 4391,
      "Ġmarried": 4392,
      "Ġgenerate": 4393,
      "Ġrestric": 4394,
      "Ġcru": 4395,
      "Ġnav": 4396,
      "Ġfailed": 4397,
      "Ġlistening": 4398,
      "Ġhung": 4399,
      "Ġgerman": 4400,
      "Ġhistorical": 4401,
      "Ġwherein": 4402,
      "zer": 4403,
      "Ġsty": 4404,
      "Ġproof": 4405,
      "Ġsuite": 4406,
      "Ġplate": 4407,
      "Ġarrest": 4408,
      "Ġscot": 4409,
      "Ġeveryday": 4410,
      "ago": 4411,
      "Ġreserve": 4412,
      "Ġsmith": 4413,
      "Ġindex": 4414,
      "Ġsolve": 4415,
      "Ġwave": 4416,
      "Ġmanaging": 4417,
      "Ġpartnership": 4418,
      "Ġceleb": 4419,
      "Ġbike": 4420,
      "Ġinstitute": 4421,
      "Ġengagement": 4422,
      "Ġwitness": 4423,
      "Ġinstagram": 4424,
      "iant": 4425,
      "erce": 4426,
      "Ġpill": 4427,
      "Ġlou": 4428,
      "Ġblow": 4429,
      "Ġwash": 4430,
      "Ġhub": 4431,
      "Ġnurs": 4432,
      "Ġvan": 4433,
      "Ġacid": 4434,
      "Ġscan": 4435,
      "Ġhomeowner": 4436,
      "Ġstring": 4437,
      "phas": 4438,
      "Ġpresence": 4439,
      "timately": 4440,
      "Ġcolleague": 4441,
      "Ġsearching": 4442,
      "Ġcutting": 4443,
      "Ġpolitics": 4444,
      "Ġsteel": 4445,
      "Ġdebate": 4446,
      "Ġconduct": 4447,
      "Ġclinic": 4448,
      "Ġangel": 4449,
      "Ġrussian": 4450,
      "Ġstruggle": 4451,
      "Ġodd": 4452,
      "Ġsending": 4453,
      "ception": 4454,
      "Ġox": 4455,
      "ushing": 4456,
      "ander": 4457,
      "Ġclothing": 4458,
      "oulder": 4459,
      "Ġwealth": 4460,
      "Ġphase": 4461,
      "Ġrelative": 4462,
      "Ġweekly": 4463,
      "Ġreply": 4464,
      "Ġprovision": 4465,
      "Ġdrinking": 4466,
      "standing": 4467,
      "Ġequal": 4468,
      "Ġenterprise": 4469,
      "Ġpreviously": 4470,
      "Ġstrike": 4471,
      "Ġborder": 4472,
      "Ġincorpor": 4473,
      "Ġaccurate": 4474,
      "fr": 4475,
      "uing": 4476,
      "Ġire": 4477,
      "Ġbread": 4478,
      "Ġgri": 4479,
      "Ġrh": 4480,
      "istan": 4481,
      "veness": 4482,
      "Ġeverywhere": 4483,
      "Ġimposs": 4484,
      "Ġsupported": 4485,
      "Ġbelong": 4486,
      "Ġwarning": 4487,
      "Ġcombined": 4488,
      "Ġattitude": 4489,
      "Ġintroduction": 4490,
      "Ġstrugg": 4491,
      "Ġarchitecture": 4492,
      "Ġnutrition": 4493,
      "Ġintelligence": 4494,
      "Ġvegetable": 4495,
      "Ġapparently": 4496,
      "Ġtight": 4497,
      "off": 4498,
      "Ġgal": 4499,
      "Ġchip": 4500,
      "Ġliqu": 4501,
      "Ġspo": 4502,
      "Ġclar": 4503,
      "Ġflood": 4504,
      "Ġhealthcare": 4505,
      "Ġnoticed": 4506,
      "Ġdriven": 4507,
      "Ġyounger": 4508,
      "Ġdifficulty": 4509,
      "Ġappearance": 4510,
      "Ġscheduled": 4511,
      "Ġturning": 4512,
      "exp": 4513,
      "Ġrandom": 4514,
      "Ġcelebration": 4515,
      "Ġpure": 4516,
      "enever": 4517,
      "ingly": 4518,
      "Ġmir": 4519,
      "Ġtiny": 4520,
      "Ġnail": 4521,
      "adow": 4522,
      "Ġliked": 4523,
      "Ġvary": 4524,
      "unt": 4525,
      "Ġspons": 4526,
      "Ġorient": 4527,
      "Ġwhenever": 4528,
      "Ġboot": 4529,
      "Ġremote": 4530,
      "Ġactor": 4531,
      "Ġobama": 4532,
      "Ġfacing": 4533,
      "Ġcrash": 4534,
      "Ġbrowser": 4535,
      "Ġhyd": 4536,
      "Ġcycle": 4537,
      "Ġestim": 4538,
      "Ġdangerous": 4539,
      "Ġilleg": 4540,
      "ographer": 4541,
      "Ġow": 4542,
      "Ġrank": 4543,
      "illed": 4544,
      "Ġmotion": 4545,
      "Ġagg": 4546,
      "Ġagric": 4547,
      "Ġexpertise": 4548,
      "entity": 4549,
      "Ġcharity": 4550,
      "Ġentre": 4551,
      "Ġvalley": 4552,
      "Ġmembership": 4553,
      "Ġgrew": 4554,
      "Ġimproved": 4555,
      "Ġdetermined": 4556,
      "Ġimmediate": 4557,
      "holder": 4558,
      "Ġreligion": 4559,
      "prene": 4560,
      "Ġmortgage": 4561,
      "Ġchampion": 4562,
      "wr": 4563,
      "Ġcable": 4564,
      "Ġpoc": 4565,
      "Ġpink": 4566,
      "tition": 4567,
      "Ġgear": 4568,
      "Ġforced": 4569,
      "Ġvisited": 4570,
      "Ġprocessing": 4571,
      "Ġhardware": 4572,
      "Ġconsideration": 4573,
      "Ġcombine": 4574,
      "Ġextreme": 4575,
      "Ġguidance": 4576,
      "Ġsustainable": 4577,
      "Ġentreprene": 4578,
      "ca": 4579,
      "ij": 4580,
      "sm": 4581,
      "Ġmich": 4582,
      "Ġbond": 4583,
      "icking": 4584,
      "ones": 4585,
      "sphere": 4586,
      "Ġtrained": 4587,
      "Ġphrase": 4588,
      "Ġscholar": 4589,
      "Ġdecre": 4590,
      "Ġworldwide": 4591,
      "Ġidentity": 4592,
      "Ġformula": 4593,
      "Ġcorre": 4594,
      "Ġtransl": 4595,
      "Ġpreparation": 4596,
      "Ġidentified": 4597,
      "Ġdestro": 4598,
      "Ġdescribe": 4599,
      "Ġprayer": 4600,
      "Ġdozen": 4601,
      "Ġoriginally": 4602,
      "Ġportion": 4603,
      "Ġagricult": 4604,
      "lam": 4605,
      "mark": 4606,
      "Ġmood": 4607,
      "Ġwis": 4608,
      "Ġhip": 4609,
      "Ġreh": 4610,
      "Ġneck": 4611,
      "lying": 4612,
      "ota": 4613,
      "Ġdear": 4614,
      "irty": 4615,
      "Ġenforce": 4616,
      "Ġworkout": 4617,
      "Ġtrav": 4618,
      "Ġemphas": 4619,
      "Ġregul": 4620,
      "Ġsupplement": 4621,
      "Ġtreated": 4622,
      "Ġtraveling": 4623,
      "Ġbonus": 4624,
      "Ġimpossible": 4625,
      "ka": 4626,
      "erate": 4627,
      "Ġtack": 4628,
      "race": 4629,
      "amin": 4630,
      "Ġrom": 4631,
      "quiry": 4632,
      "Ġmaker": 4633,
      "Ġspin": 4634,
      "ocked": 4635,
      "Ġmanual": 4636,
      "Ġnewsp": 4637,
      "Ġlos": 4638,
      "soft": 4639,
      "Ġrelatively": 4640,
      "Ġbob": 4641,
      "Ġextension": 4642,
      "Ġchallenging": 4643,
      "Ġpeter": 4644,
      "Ġsignificantly": 4645,
      "Ġvirus": 4646,
      "Ġreplacement": 4647,
      "Ġstunning": 4648,
      "field": 4649,
      "press": 4650,
      "rator": 4651,
      "Ġpd": 4652,
      "enn": 4653,
      "Ġmary": 4654,
      "Ġfiction": 4655,
      "Ġcond": 4656,
      "Ġfla": 4657,
      "Ġmedication": 4658,
      "Ġsucceed": 4659,
      "Ġconclusion": 4660,
      "Ġpurchasing": 4661,
      "Ġwik": 4662,
      "Ġfulf": 4663,
      "Ġfairly": 4664,
      "Ġcollected": 4665,
      "Ġreduced": 4666,
      "folio": 4667,
      "Ġireland": 4668,
      "ived": 4669,
      "rument": 4670,
      "Ġmart": 4671,
      "Ġgym": 4672,
      "ilst": 4673,
      "Ġvent": 4674,
      "Ġreservation": 4675,
      "osen": 4676,
      "Ġwhilst": 4677,
      "Ġcarried": 4678,
      "Ġflash": 4679,
      "Ġattrib": 4680,
      "Ġinstrument": 4681,
      "Ġaccessible": 4682,
      "Ġsouthern": 4683,
      "Ġnormally": 4684,
      "Ġsmartphone": 4685,
      "Ġconsistent": 4686,
      "Ġmanufacturing": 4687,
      "Ġspiritual": 4688,
      "Ġdynamic": 4689,
      "nis": 4690,
      "Ġsac": 4691,
      "Ġcro": 4692,
      "Ġtac": 4693,
      "Ġevol": 4694,
      "isher": 4695,
      "Ġcongr": 4696,
      "Ġdivid": 4697,
      "Ġtaught": 4698,
      "Ġdisorder": 4699,
      "shire": 4700,
      "Ġcolumb": 4701,
      "Ġrad": 4702,
      "Ġmini": 4703,
      "Ġaccessory": 4704,
      "Ġlandscape": 4705,
      "Ġdistribution": 4706,
      "Ġproposed": 4707,
      "Ġdowntown": 4708,
      "Ġcock": 4709,
      "Ġder": 4710,
      "lex": 4711,
      "Ġet": 4712,
      "Ġstated": 4713,
      "Ġchosen": 4714,
      "Ġshel": 4715,
      "Ġcompare": 4716,
      "Ġlosing": 4717,
      "Ġblind": 4718,
      "Ġexposure": 4719,
      "Ġsimpl": 4720,
      "Ġdiscip": 4721,
      "Ġfranc": 4722,
      "Ġoblig": 4723,
      "Ġconcent": 4724,
      "Ġtransition": 4725,
      "Ġaffair": 4726,
      "Ġamazon": 4727,
      "Ġportfolio": 4728,
      "Ġheaven": 4729,
      "Ġgarlic": 4730,
      "Ġimplementation": 4731,
      "Ġcorporation": 4732,
      "Ġtypical": 4733,
      "Ġsmoking": 4734,
      "Ġnavig": 4735,
      "Ġnewspaper": 4736,
      "inc": 4737,
      "Ġtro": 4738,
      "Ġhr": 4739,
      "Ġutc": 4740,
      "Ġhealing": 4741,
      "agra": 4742,
      "Ġbranch": 4743,
      "Ġfourth": 4744,
      "Ġiran": 4745,
      "Ġrecognize": 4746,
      "Ġcontractor": 4747,
      "Ġguideline": 4748,
      "bc": 4749,
      "rate": 4750,
      "uated": 4751,
      "va": 4752,
      "Ġdw": 4753,
      "Ġgap": 4754,
      "Ġadmit": 4755,
      "Ġdiam": 4756,
      "Ġprime": 4757,
      "aturing": 4758,
      "Ġfiled": 4759,
      "Ġequipped": 4760,
      "Ġfeatured": 4761,
      "Ġincredibly": 4762,
      "Ġaccomplish": 4763,
      "Ġthorough": 4764,
      "Ġtutor": 4765,
      "Ġhid": 4766,
      "Ġchop": 4767,
      "Ġray": 4768,
      "Ġdiverse": 4769,
      "Ġcompens": 4770,
      "inder": 4771,
      "ongo": 4772,
      "Ġinterface": 4773,
      "Ġfeaturing": 4774,
      "Ġdeposit": 4775,
      "Ġstatistic": 4776,
      "Ġmagic": 4777,
      "ography": 4778,
      "Ġhosting": 4779,
      "Ġultimately": 4780,
      "Ġqualified": 4781,
      "Ġvoter": 4782,
      "Ġcancell": 4783,
      "Ġsponsor": 4784,
      "Ġft": 4785,
      "Ġlem": 4786,
      "rable": 4787,
      "Ġtire": 4788,
      "Ġspa": 4789,
      "Ġantic": 4790,
      "endar": 4791,
      "Ġdiab": 4792,
      "Ġrot": 4793,
      "Ġdeserve": 4794,
      "Ġaccord": 4795,
      "Ġstrange": 4796,
      "Ġpresc": 4797,
      "Ġedit": 4798,
      "Ġdefined": 4799,
      "Ġinfection": 4800,
      "Ġtransaction": 4801,
      "Ġheading": 4802,
      "fficient": 4803,
      "Ġoperator": 4804,
      "Ġatmo": 4805,
      "Ġdomain": 4806,
      "Ġfighting": 4807,
      "Ġcanadian": 4808,
      "tled": 4809,
      "Ġfur": 4810,
      "ari": 4811,
      "Ġbare": 4812,
      "Ġgate": 4813,
      "Ġstuck": 4814,
      "rible": 4815,
      "asant": 4816,
      "Ġcontest": 4817,
      "berry": 4818,
      "Ġappeared": 4819,
      "osis": 4820,
      "Ġattrac": 4821,
      "Ġwarrant": 4822,
      "Ġexplained": 4823,
      "Ġsuccessfully": 4824,
      "Ġdealer": 4825,
      "Ġstaying": 4826,
      "Ġelectrical": 4827,
      "Ġcalendar": 4828,
      "Ġpassenger": 4829,
      "Ġpacked": 4830,
      "Ġtelephone": 4831,
      "Ġpenal": 4832,
      "Ġsymbol": 4833,
      "Ġphilos": 4834,
      "Ġmicrosoft": 4835,
      "Ġunlike": 4836,
      "Ġyellow": 4837,
      "af": 4838,
      "Ġcrac": 4839,
      "Ġpra": 4840,
      "Ġbunch": 4841,
      "Ġdub": 4842,
      "Ġesc": 4843,
      "Ġreaction": 4844,
      "raft": 4845,
      "Ġthick": 4846,
      "Ġvital": 4847,
      "ppy": 4848,
      "Ġlifetime": 4849,
      "Ġjoined": 4850,
      "Ġsupplier": 4851,
      "Ġforth": 4852,
      "Ġearning": 4853,
      "Ġorganized": 4854,
      "Ġrice": 4855,
      "Ġdefinition": 4856,
      "Ġentirely": 4857,
      "letter": 4858,
      "Ġlaunched": 4859,
      "urious": 4860,
      "Ġadapt": 4861,
      "Ġconscious": 4862,
      "gu": 4863,
      "Ġbone": 4864,
      "Ġamend": 4865,
      "Ġinformed": 4866,
      "Ġending": 4867,
      "Ġdefine": 4868,
      "Ġsubmitted": 4869,
      "Ġinfant": 4870,
      "Ġexplan": 4871,
      "Ġinvolve": 4872,
      "Ġgeorge": 4873,
      "Ġrecognized": 4874,
      "Ġdeadline": 4875,
      "Ġcloser": 4876,
      "Ġrepublican": 4877,
      "Ġpocket": 4878,
      "fl": 4879,
      "nic": 4880,
      "oom": 4881,
      "Ġpod": 4882,
      "Ġmig": 4883,
      "ics": 4884,
      "Ġinput": 4885,
      "amm": 4886,
      "asy": 4887,
      "Ġange": 4888,
      "Ġusual": 4889,
      "izes": 4890,
      "Ġorange": 4891,
      "Ġbush": 4892,
      "Ġordered": 4893,
      "icted": 4894,
      "Ġconcert": 4895,
      "Ġdistin": 4896,
      "Ġzero": 4897,
      "Ġnewsletter": 4898,
      "Ġarrive": 4899,
      "Ġslowly": 4900,
      "Ġnurse": 4901,
      "Ġflavor": 4902,
      "Ġpitch": 4903,
      "Ġprote": 4904,
      "Ġalter": 4905,
      "Ġactiv": 4906,
      "emy": 4907,
      "Ġinteractive": 4908,
      "Ġheating": 4909,
      "Ġbeg": 4910,
      "Ġteeth": 4911,
      "Ġgrate": 4912,
      "Ġcarbon": 4913,
      "Ġperforming": 4914,
      "Ġgolden": 4915,
      "Ġgarage": 4916,
      "Ġhonestly": 4917,
      "Ġconsultation": 4918,
      "Ġcabinet": 4919,
      "Ġattractive": 4920,
      "Ġangeles": 4921,
      "point": 4922,
      "Ġcul": 4923,
      "Ġpil": 4924,
      "Ġboun": 4925,
      "Ġhoney": 4926,
      "Ġpers": 4927,
      "Ġbrit": 4928,
      "Ġflu": 4929,
      "Ġoutput": 4930,
      "Ġsubst": 4931,
      "Ġsignal": 4932,
      "Ġremaining": 4933,
      "Ġcreativity": 4934,
      "Ġprinted": 4935,
      "Ġafrican": 4936,
      "Ġautomatically": 4937,
      "Ġvenue": 4938,
      "Ġupgrade": 4939,
      "Ġreputation": 4940,
      "Ġliquid": 4941,
      "eme": 4942,
      "how": 4943,
      "Ġsi": 4944,
      "Ġasp": 4945,
      "Ġfif": 4946,
      "Ġhes": 4947,
      "Ġexternal": 4948,
      "ologist": 4949,
      "Ġfarmer": 4950,
      "Ġzone": 4951,
      "nament": 4952,
      "Ġsuffering": 4953,
      "Ġbreath": 4954,
      "working": 4955,
      "Ġconsequence": 4956,
      "Ġprotein": 4957,
      "ev": 4958,
      "mon": 4959,
      "rit": 4960,
      "Ġsar": 4961,
      "eding": 4962,
      "Ġlat": 4963,
      "Ġwil": 4964,
      "Ġga": 4965,
      "Ġcomic": 4966,
      "Ġexport": 4967,
      "Ġunable": 4968,
      "Ġeverybody": 4969,
      "Ġempt": 4970,
      "Ġassume": 4971,
      "anging": 4972,
      "anged": 4973,
      "Ġoutl": 4974,
      "Ġannivers": 4975,
      "Ġfacil": 4976,
      "Ġconstruc": 4977,
      "Ġlogo": 4978,
      "whel": 4979,
      "Ġrobot": 4980,
      "Ġestimated": 4981,
      "Ġentrepreneur": 4982,
      "Ġpenalty": 4983,
      "Ġanniversary": 4984,
      "nes": 4985,
      "Ġongo": 4986,
      "Ġfro": 4987,
      "Ġbell": 4988,
      "Ġinvention": 4989,
      "Ġlift": 4990,
      "Ġkim": 4991,
      "Ġjul": 4992,
      "Ġrelief": 4993,
      "Ġproducing": 4994,
      "Ġsettle": 4995,
      "Ġups": 4996,
      "Ġtalked": 4997,
      "Ġcapable": 4998,
      "Ġblogger": 4999,
      "Ġprotest": 5000,
      "Ġoperate": 5001,
      "Ġcommunicate": 5002,
      "Ġcompliment": 5003,
      "Ġchicago": 5004,
      "Ġcounsel": 5005,
      "Ġpowder": 5006,
      "ival": 5007,
      "Ġtall": 5008,
      "Ġhat": 5009,
      "icit": 5010,
      "Ġvoc": 5011,
      "Ġseal": 5012,
      "Ġresidence": 5013,
      "Ġbean": 5014,
      "Ġrac": 5015,
      "Ġpride": 5016,
      "Ġcarol": 5017,
      "Ġcrew": 5018,
      "Ġlisting": 5019,
      "Ġengaged": 5020,
      "Ġenth": 5021,
      "Ġreception": 5022,
      "Ġwake": 5023,
      "Ġwatched": 5024,
      "Ġachieved": 5025,
      "Ġflying": 5026,
      "Ġdepends": 5027,
      "Ġcertificate": 5028,
      "Ġpregnant": 5029,
      "Ġanticip": 5030,
      "Ġgrateful": 5031,
      "Ġongoing": 5032,
      "iated": 5033,
      "inting": 5034,
      "Ġmut": 5035,
      "Ġhd": 5036,
      "Ġrev": 5037,
      "ime": 5038,
      "Ġken": 5039,
      "Ġpersonality": 5040,
      "Ġcareful": 5041,
      "Ġgrace": 5042,
      "Ġposse": 5043,
      "Ġfactory": 5044,
      "Ġoverwhel": 5045,
      "Ġexclusive": 5046,
      "Ġnearby": 5047,
      "Ġhoist": 5048,
      "Ġpercentage": 5049,
      "Ġelectricity": 5050,
      "Ġswimming": 5051,
      "Ġveteran": 5052,
      "Ġatmosphere": 5053,
      "Ġphilosoph": 5054,
      "Ġempty": 5055,
      "zed": 5056,
      "Ġmos": 5057,
      "Ġbos": 5058,
      "Ġbio": 5059,
      "Ġrein": 5060,
      "Ġreform": 5061,
      "Ġprospect": 5062,
      "Ġkore": 5063,
      "Ġrobert": 5064,
      "Ġformed": 5065,
      "Ġphysician": 5066,
      "anese": 5067,
      "Ġencouraged": 5068,
      "Ġreducing": 5069,
      "Ġultimate": 5070,
      "Ġfishing": 5071,
      "Ġicon": 5072,
      "know": 5073,
      "Ġcoup": 5074,
      "Ġpant": 5075,
      "enity": 5076,
      "Ġtale": 5077,
      "Ġlately": 5078,
      "stood": 5079,
      "Ġgent": 5080,
      "Ġhtm": 5081,
      "Ġupper": 5082,
      "Ġproven": 5083,
      "Ġvast": 5084,
      "Ġshoulder": 5085,
      "Ġanc": 5086,
      "Ġpermit": 5087,
      "Ġquit": 5088,
      "Ġcoat": 5089,
      "Ġblank": 5090,
      "Ġresc": 5091,
      "ilet": 5092,
      "Ġplane": 5093,
      "Ġfounder": 5094,
      "Ġphotographer": 5095,
      "Ġreporting": 5096,
      "Ġlighting": 5097,
      "Ġtheat": 5098,
      "ographic": 5099,
      "Ġprinting": 5100,
      "Ġtoilet": 5101,
      "Ġdisappoint": 5102,
      "Ġrevealed": 5103,
      "Ġcompliance": 5104,
      "Ġarrangement": 5105,
      "Ġmattress": 5106,
      "Ġpermanent": 5107,
      "case": 5108,
      "Ġcow": 5109,
      "Ġwage": 5110,
      "Ġretire": 5111,
      "Ġvul": 5112,
      "anda": 5113,
      "Ġtill": 5114,
      "enda": 5115,
      "Ġclip": 5116,
      "Ġpoly": 5117,
      "ustration": 5118,
      "Ġexpression": 5119,
      "Ġissued": 5120,
      "Ġoverl": 5121,
      "Ġrising": 5122,
      "Ġnaturally": 5123,
      "Ġera": 5124,
      "Ġpremier": 5125,
      "Ġhistoric": 5126,
      "Ġsatisfied": 5127,
      "Ġintegrated": 5128,
      "Ġcomplaint": 5129,
      "Ġempower": 5130,
      "Ġbesides": 5131,
      "Ġmirror": 5132,
      "Ġillegal": 5133,
      "Ġancient": 5134,
      "mate": 5135,
      "van": 5136,
      "Ġsized": 5137,
      "Ġgm": 5138,
      "Ġconvin": 5139,
      "Ġalive": 5140,
      "Ġalert": 5141,
      "Ġacknow": 5142,
      "Ġplot": 5143,
      "Ġroyal": 5144,
      "Ġbrill": 5145,
      "ache": 5146,
      "Ġrealized": 5147,
      "Ġnobody": 5148,
      "Ġonion": 5149,
      "Ġislam": 5150,
      "Ġpotato": 5151,
      "Ġpotentially": 5152,
      "Ġholly": 5153,
      "Ġensuring": 5154,
      "Ġmainly": 5155,
      "Ġillness": 5156,
      "Ġillustr": 5157,
      "while": 5158,
      "Ġcastle": 5159,
      "Ġrussia": 5160,
      "Ġanxiety": 5161,
      "Ġom": 5162,
      "itar": 5163,
      "Ġease": 5164,
      "Ġut": 5165,
      "raid": 5166,
      "Ġmax": 5167,
      "Ġshe": 5168,
      "Ġsaved": 5169,
      "Ġoutfit": 5170,
      "Ġsurely": 5171,
      "wards": 5172,
      "Ġimproving": 5173,
      "Ġbreaking": 5174,
      "Ġnorthern": 5175,
      "Ġassociate": 5176,
      "Ġarrival": 5177,
      "Ġconducted": 5178,
      "Ġreduction": 5179,
      "Ġbaking": 5180,
      "Ġpulled": 5181,
      "Ġliterally": 5182,
      "Ġfalse": 5183,
      "Ġeligible": 5184,
      "Ġaccordance": 5185,
      "mary": 5186,
      "Ġpad": 5187,
      "Ġalex": 5188,
      "Ġbid": 5189,
      "rage": 5190,
      "isco": 5191,
      "elled": 5192,
      "life": 5193,
      "Ġsnack": 5194,
      "Ġtournament": 5195,
      "Ġstrive": 5196,
      "Ġsuggested": 5197,
      "Ġcontribute": 5198,
      "Ġsatisfaction": 5199,
      "Ġwidely": 5200,
      "Ġlegisl": 5201,
      "Ġassembly": 5202,
      "agraph": 5203,
      "Ġsubstanti": 5204,
      "Ġcruc": 5205,
      "ona": 5206,
      "Ġdust": 5207,
      "itable": 5208,
      "acious": 5209,
      "eak": 5210,
      "Ġimper": 5211,
      "ulty": 5212,
      "Ġsmoke": 5213,
      "Ġscheme": 5214,
      "Ġasia": 5215,
      "Ġcapability": 5216,
      "Ġconstant": 5217,
      "Ġtablet": 5218,
      "Ġassistant": 5219,
      "Ġcookie": 5220,
      "Ġcircle": 5221,
      "Ġrenov": 5222,
      "Ġlicens": 5223,
      "Ġretailer": 5224,
      "Ġwireless": 5225,
      "Ġdiscussed": 5226,
      "Ġexplanation": 5227,
      "bl": 5228,
      "bel": 5229,
      "craft": 5230,
      "Ġsanta": 5231,
      "Ġbomb": 5232,
      "Ġnig": 5233,
      "Ġru": 5234,
      "Ġacce": 5235,
      "Ġdiss": 5236,
      "Ġquanti": 5237,
      "Ġmoon": 5238,
      "Ġconsumption": 5239,
      "Ġguitar": 5240,
      "Ġediting": 5241,
      "Ġfounded": 5242,
      "Ġinvite": 5243,
      "Ġgovernor": 5244,
      "Ġelev": 5245,
      "iterion": 5246,
      "Ġcriterion": 5247,
      "Ġremoval": 5248,
      "Ġandroid": 5249,
      "Ġjewel": 5250,
      "Ġvictor": 5251,
      "Ġchecking": 5252,
      "Ġenforcement": 5253,
      "fly": 5254,
      "fall": 5255,
      "lor": 5256,
      "rel": 5257,
      "stein": 5258,
      "Ġevil": 5259,
      "ria": 5260,
      "Ġalle": 5261,
      "under": 5262,
      "usi": 5263,
      "Ġdiv": 5264,
      "Ġdiversity": 5265,
      "abil": 5266,
      "Ġinvited": 5267,
      "Ġwalked": 5268,
      "Ġafraid": 5269,
      "Ġolive": 5270,
      "Ġmixed": 5271,
      "Ġfabulous": 5272,
      "Ġsubscription": 5273,
      "giving": 5274,
      "Ġvitamin": 5275,
      "Ġcontemporary": 5276,
      "Ġquantity": 5277,
      "Ġarab": 5278,
      "Ġfont": 5279,
      "Ġdeploy": 5280,
      "Ġkil": 5281,
      "Ġentit": 5282,
      "Ġtired": 5283,
      "ieving": 5284,
      "Ġdisaster": 5285,
      "Ġrecall": 5286,
      "Ġhaw": 5287,
      "Ġstim": 5288,
      "Ġsole": 5289,
      "Ġletting": 5290,
      "Ġstake": 5291,
      "Ġrefresh": 5292,
      "Ġauthen": 5293,
      "Ġatl": 5294,
      "Ġintroduce": 5295,
      "Ġurl": 5296,
      "Ġimpressive": 5297,
      "Ġpregnancy": 5298,
      "Ġvictory": 5299,
      "Ġpromoting": 5300,
      "Ġhidden": 5301,
      "lo": 5302,
      "Ġfo": 5303,
      "Ġfift": 5304,
      "Ġble": 5305,
      "Ġbacter": 5306,
      "Ġster": 5307,
      "acle": 5308,
      "Ġacre": 5309,
      "east": 5310,
      "eller": 5311,
      "dier": 5312,
      "Ġscar": 5313,
      "Ġagenda": 5314,
      "Ġparagraph": 5315,
      "Ġdecent": 5316,
      "Ġinstruc": 5317,
      "Ġchildhood": 5318,
      "Ġcausing": 5319,
      "Ġgrass": 5320,
      "Ġstudying": 5321,
      "Ġwordpress": 5322,
      "Ġtemporary": 5323,
      "Ġrecorded": 5324,
      "Ġrepeat": 5325,
      "Ġcollaboration": 5326,
      "Ġdestroy": 5327,
      "Ġenthusi": 5328,
      "Ġpace": 5329,
      "Ġtooth": 5330,
      "oration": 5331,
      "Ġgained": 5332,
      "Ġgolf": 5333,
      "char": 5334,
      "rie": 5335,
      "Ġthin": 5336,
      "Ġsegment": 5337,
      "illing": 5338,
      "berg": 5339,
      "Ġrecre": 5340,
      "Ġamenity": 5341,
      "Ġwanting": 5342,
      "Ġconserv": 5343,
      "Ġpricing": 5344,
      "luded": 5345,
      "Ġproducer": 5346,
      "Ġaddiction": 5347,
      "Ġanymore": 5348,
      "Ġsomewh": 5349,
      "Ġgiant": 5350,
      "Ġsevere": 5351,
      "Ġjapanese": 5352,
      "Ġlaptop": 5353,
      "met": 5354,
      "Ġhug": 5355,
      "Ġnick": 5356,
      "Ġprove": 5357,
      "amental": 5358,
      "Ġdelete": 5359,
      "Ġsequ": 5360,
      "Ġjav": 5361,
      "Ġserf": 5362,
      "Ġpeer": 5363,
      "Ġdisabled": 5364,
      "Ġtrig": 5365,
      "Ġcarrier": 5366,
      "Ġindoor": 5367,
      "Ġextend": 5368,
      "Ġprogramming": 5369,
      "Ġsoldier": 5370,
      "Ġuniverse": 5371,
      "Ġheaded": 5372,
      "Ġstayed": 5373,
      "Ġadmission": 5374,
      "Ġfundamental": 5375,
      "Ġincreasingly": 5376,
      "Ġutility": 5377,
      "Ġconfirmed": 5378,
      "Ġathlete": 5379,
      "Ġsharp": 5380,
      "Ġmystery": 5381,
      "Ġtracking": 5382,
      "Ġsomewhat": 5383,
      "mm": 5384,
      "mp": 5385,
      "uration": 5386,
      "Ġcater": 5387,
      "stone": 5388,
      "Ġgon": 5389,
      "ratic": 5390,
      "Ġcha": 5391,
      "Ġclicking": 5392,
      "Ġpreference": 5393,
      "Ġworkplace": 5394,
      "Ġpean": 5395,
      "Ġord": 5396,
      "ishing": 5397,
      "Ġcolumn": 5398,
      "oster": 5399,
      "Ġbarrier": 5400,
      "Ġfilling": 5401,
      "Ġsecretary": 5402,
      "Ġpublishing": 5403,
      "Ġhtml": 5404,
      "Ġvulner": 5405,
      "Ġauthentic": 5406,
      "head": 5407,
      "ncy": 5408,
      "tra": 5409,
      "well": 5410,
      "Ġtrib": 5411,
      "Ġdentist": 5412,
      "Ġeld": 5413,
      "Ġescape": 5414,
      "Ġhack": 5415,
      "iced": 5416,
      "Ġstable": 5417,
      "igan": 5418,
      "ador": 5419,
      "Ġsha": 5420,
      "Ġshade": 5421,
      "Ġunus": 5422,
      "Ġunexp": 5423,
      "Ġloyal": 5424,
      "aped": 5425,
      "Ġpak": 5426,
      "Ġcarpet": 5427,
      "Ġflour": 5428,
      "Ġimpression": 5429,
      "Ġremark": 5430,
      "Ġapproval": 5431,
      "Ġexamine": 5432,
      "Ġcreates": 5433,
      "Ġforecast": 5434,
      "Ġpassing": 5435,
      "Ġafter": 5436,
      "Ġmike": 5437,
      "Ġarray": 5438,
      "Ġmonitoring": 5439,
      "Ġlegislation": 5440,
      "Ġannouncement": 5441,
      "Ġtheatre": 5442,
      "Ġpeanut": 5443,
      "Ġau": 5444,
      "Ġtent": 5445,
      "Ġwing": 5446,
      "Ġrear": 5447,
      "roke": 5448,
      "Ġnow": 5449,
      "oted": 5450,
      "urb": 5451,
      "Ġenemy": 5452,
      "Ġplain": 5453,
      "Ġsav": 5454,
      "xture": 5455,
      "Ġintel": 5456,
      "Ġharder": 5457,
      "Ġcurrency": 5458,
      "Ġmuslim": 5459,
      "Ġairline": 5460,
      "Ġperformed": 5461,
      "Ġslot": 5462,
      "Ġstrongly": 5463,
      "Ġappreciated": 5464,
      "Ġflexibility": 5465,
      "Ġdragon": 5466,
      "Ġpdf": 5467,
      "Ġamendment": 5468,
      "tity": 5469,
      "Ġgh": 5470,
      "Ġrig": 5471,
      "Ġcontrast": 5472,
      "Ġtraum": 5473,
      "Ġtweet": 5474,
      "Ġrepro": 5475,
      "Ġunderstood": 5476,
      "Ġbelieved": 5477,
      "Ġceo": 5478,
      "Ġtoxic": 5479,
      "maker": 5480,
      "Ġclosely": 5481,
      "Ġturkey": 5482,
      "Ġexpressed": 5483,
      "Ġmechanism": 5484,
      "Ġevaluation": 5485,
      "Ġattached": 5486,
      "Ġobligation": 5487,
      "Ġphilosophy": 5488,
      "Ġtrigger": 5489,
      "bal": 5490,
      "gar": 5491,
      "iner": 5492,
      "tible": 5493,
      "Ġmand": 5494,
      "Ġtear": 5495,
      "Ġtower": 5496,
      "Ġles": 5497,
      "Ġevolution": 5498,
      "Ġhook": 5499,
      "Ġconv": 5500,
      "Ġrush": 5501,
      "Ġsuspect": 5502,
      "Ġtie": 5503,
      "Ġspacious": 5504,
      "umin": 5505,
      "Ġpermission": 5506,
      "reek": 5507,
      "Ġpharm": 5508,
      "Ġflag": 5509,
      "Ġfolder": 5510,
      "Ġlasting": 5511,
      "Ġfax": 5512,
      "Ġsinger": 5513,
      "Ġcann": 5514,
      "Ġcontinuing": 5515,
      "Ġconvenience": 5516,
      "Ġsuddenly": 5517,
      "Ġstruggling": 5518,
      "Ġpilot": 5519,
      "Ġfifth": 5520,
      "Ġcrucial": 5521,
      "wich": 5522,
      "Ġpension": 5523,
      "Ġash": 5524,
      "tiveness": 5525,
      "Ġtes": 5526,
      "Ġbure": 5527,
      "Ġwet": 5528,
      "Ġhal": 5529,
      "Ġdeleg": 5530,
      "Ġry": 5531,
      "Ġartif": 5532,
      "Ġdesired": 5533,
      "Ġexposed": 5534,
      "Ġoutstanding": 5535,
      "Ġextent": 5536,
      "Ġski": 5537,
      "Ġdepression": 5538,
      "Ġavailability": 5539,
      "Ġgotten": 5540,
      "Ġthanksgiving": 5541,
      "titor": 5542,
      "spection": 5543,
      "Ġentering": 5544,
      "Ġcompetitor": 5545,
      "Ġkilling": 5546,
      "Ġdeeply": 5547,
      "Ġcheer": 5548,
      "Ġmotivation": 5549,
      "Ġsemi": 5550,
      "Ġcomplicated": 5551,
      "Ġlouis": 5552,
      "Ġcoupon": 5553,
      "Ġunexpected": 5554,
      "rance": 5555,
      "sk": 5556,
      "tail": 5557,
      "zing": 5558,
      "onut": 5559,
      "Ġmore": 5560,
      "Ġlaser": 5561,
      "stream": 5562,
      "elly": 5563,
      "Ġthom": 5564,
      "acting": 5565,
      "Ġacting": 5566,
      "Ġspr": 5567,
      "umber": 5568,
      "Ġcommerce": 5569,
      "Ġparli": 5570,
      "Ġstir": 5571,
      "Ġviewing": 5572,
      "Ġtested": 5573,
      "Ġtraveler": 5574,
      "Ġfraud": 5575,
      "Ġcyber": 5576,
      "Ġreferred": 5577,
      "Ġrender": 5578,
      "Ġconversion": 5579,
      "Ġexplains": 5580,
      "Ġacademy": 5581,
      "Ġsuffered": 5582,
      "Ġframework": 5583,
      "Ġsurvival": 5584,
      "Ġscenario": 5585,
      "Ġcoconut": 5586,
      "Ġcomparison": 5587,
      "Ġparliament": 5588,
      "bled": 5589,
      "sw": 5590,
      "Ġmum": 5591,
      "Ġtol": 5592,
      "Ġbun": 5593,
      "Ġhen": 5594,
      "Ġhob": 5595,
      "unction": 5596,
      "ounting": 5597,
      "Ġenroll": 5598,
      "Ġentity": 5599,
      "plate": 5600,
      "Ġraw": 5601,
      "Ġgreatly": 5602,
      "Ġretain": 5603,
      "Ġmusical": 5604,
      "Ġbroke": 5605,
      "Ġholy": 5606,
      "Ġbankrupt": 5607,
      "Ġfunctional": 5608,
      "Ġcopyright": 5609,
      "Ġimplemented": 5610,
      "Ġkingdom": 5611,
      "Ġsensitive": 5612,
      "Ġgranted": 5613,
      "Ġexhibition": 5614,
      "Ġmexico": 5615,
      "front": 5616,
      "Ġbrilliant": 5617,
      "pal": 5618,
      "erning": 5619,
      "Ġdv": 5620,
      "oured": 5621,
      "Ġhide": 5622,
      "etes": 5623,
      "ays": 5624,
      "Ġthri": 5625,
      "Ġchose": 5626,
      "Ġrum": 5627,
      "Ġweird": 5628,
      "Ġpersonnel": 5629,
      "Ġgenu": 5630,
      "Ġdepart": 5631,
      "upid": 5632,
      "azz": 5633,
      "Ġexamination": 5634,
      "Ġrequested": 5635,
      "Ġnecessarily": 5636,
      "Ġrichard": 5637,
      "alogue": 5638,
      "Ġjersey": 5639,
      "Ġspanish": 5640,
      "Ġpakistan": 5641,
      "cling": 5642,
      "ey": 5643,
      "fa": 5644,
      "Ġcott": 5645,
      "Ġpipe": 5646,
      "Ġdc": 5647,
      "Ġwher": 5648,
      "ouch": 5649,
      "Ġstom": 5650,
      "Ġstamp": 5651,
      "Ġstupid": 5652,
      "Ġexha": 5653,
      "Ġworried": 5654,
      "Ġspark": 5655,
      "Ġprevention": 5656,
      "Ġblend": 5657,
      "Ġraising": 5658,
      "Ġjoining": 5659,
      "Ġexpans": 5660,
      "Ġattraction": 5661,
      "Ġformal": 5662,
      "Ġmeter": 5663,
      "Ġengaging": 5664,
      "Ġeleg": 5665,
      "Ġinvesting": 5666,
      "Ġtennis": 5667,
      "Ġira": 5668,
      "Ġinjured": 5669,
      "Ġarchive": 5670,
      "Ġeastern": 5671,
      "Ġheavi": 5672,
      "Ġcorrectly": 5673,
      "Ġpreferred": 5674,
      "Ġdesktop": 5675,
      "Ġitalian": 5676,
      "Ġinventory": 5677,
      "Ġbritain": 5678,
      "don": 5679,
      "gl": 5680,
      "ife": 5681,
      "rete": 5682,
      "Ġmall": 5683,
      "Ġmcc": 5684,
      "Ġloo": 5685,
      "Ġlect": 5686,
      "Ġward": 5687,
      "road": 5688,
      "Ġinner": 5689,
      "Ġcher": 5690,
      "Ġlip": 5691,
      "Ġoak": 5692,
      "utch": 5693,
      "Ġjim": 5694,
      "Ġadvise": 5695,
      "endor": 5696,
      "Ġdism": 5697,
      "Ġconsent": 5698,
      "Ġdeck": 5699,
      "Ġsoil": 5700,
      "athy": 5701,
      "Ġlarg": 5702,
      "Ġbroker": 5703,
      "Ġlegend": 5704,
      "Ġfaced": 5705,
      "Ġfaculty": 5706,
      "Ġdiscovery": 5707,
      "Ġbroadcast": 5708,
      "Ġcoaching": 5709,
      "Ġaustralian": 5710,
      "Ġconsultant": 5711,
      "Ġgaming": 5712,
      "Ġimpressed": 5713,
      "Ġhanging": 5714,
      "known": 5715,
      "ruption": 5716,
      "Ġbasketball": 5717,
      "Ġventure": 5718,
      "Ġshelter": 5719,
      "Ġfrancisco": 5720,
      "Ġdiabetes": 5721,
      "Ġgentle": 5722,
      "flow": 5723,
      "otic": 5724,
      "paper": 5725,
      "Ġcu": 5726,
      "Ġlu": 5727,
      "Ġbol": 5728,
      "Ġhorm": 5729,
      "Ġrely": 5730,
      "Ġstead": 5731,
      "Ġalign": 5732,
      "Ġseo": 5733,
      "emed": 5734,
      "Ġcompos": 5735,
      "Ġunknown": 5736,
      "Ġque": 5737,
      "Ġlover": 5738,
      "Ġemission": 5739,
      "Ġinstant": 5740,
      "Ġbelt": 5741,
      "Ġenjoyable": 5742,
      "Ġzeal": 5743,
      "Ġhosted": 5744,
      "Ġboyfriend": 5745,
      "Ġcerem": 5746,
      "Ġabsolute": 5747,
      "Ġtalented": 5748,
      "Ġpicking": 5749,
      "Ġadopted": 5750,
      "Ġcasino": 5751,
      "Ġvirginia": 5752,
      "rat": 5753,
      "Ġsod": 5754,
      "erg": 5755,
      "Ġpig": 5756,
      "Ġluc": 5757,
      "Ġbible": 5758,
      "Ġbuck": 5759,
      "Ġgram": 5760,
      "Ġinspection": 5761,
      "ilder": 5762,
      "raw": 5763,
      "amb": 5764,
      "Ġalli": 5765,
      "Ġrural": 5766,
      "Ġjet": 5767,
      "uction": 5768,
      "Ġpleasant": 5769,
      "Ġasian": 5770,
      "Ġhandy": 5771,
      "Ġfreel": 5772,
      "Ġadditionally": 5773,
      "Ġsuperior": 5774,
      "Ġsalary": 5775,
      "Ġphysic": 5776,
      "Ġphysically": 5777,
      "Ġcharacteristic": 5778,
      "Ġimmune": 5779,
      "zzle": 5780,
      "Ġimplant": 5781,
      "Ġnarrow": 5782,
      "Ġevalu": 5783,
      "Ġterrorist": 5784,
      "Ġconstitution": 5785,
      "Ġdivided": 5786,
      "aid": 5787,
      "cery": 5788,
      "Ġske": 5789,
      "Ġpix": 5790,
      "Ġlon": 5791,
      "Ġbother": 5792,
      "lective": 5793,
      "Ġhiring": 5794,
      "Ġnor": 5795,
      "Ġum": 5796,
      "Ġshadow": 5797,
      "Ġadequ": 5798,
      "tician": 5799,
      "Ġunw": 5800,
      "Ġusage": 5801,
      "Ġdisag": 5802,
      "tte": 5803,
      "Ġfrustr": 5804,
      "Ġconcerning": 5805,
      "Ġequival": 5806,
      "Ġseller": 5807,
      "Ġexistence": 5808,
      "Ġfantasy": 5809,
      "Ġindependence": 5810,
      "Ġsurvive": 5811,
      "Ġcontrolled": 5812,
      "Ġdramatic": 5813,
      "Ġdimensional": 5814,
      "Ġtackle": 5815,
      "Ġcongrat": 5816,
      "Ġlargely": 5817,
      "water": 5818,
      "ini": 5819,
      "Ġcot": 5820,
      "Ġgig": 5821,
      "ites": 5822,
      "Ġstroke": 5823,
      "Ġchronic": 5824,
      "uling": 5825,
      "Ġtab": 5826,
      "spond": 5827,
      "Ġquery": 5828,
      "Ġdispos": 5829,
      "Ġbrush": 5830,
      "ifi": 5831,
      "Ġmont": 5832,
      "Ġjose": 5833,
      "Ġdecline": 5834,
      "Ġflo": 5835,
      "Ġwarming": 5836,
      "Ġimportantly": 5837,
      "Ġapos": 5838,
      "Ġhumor": 5839,
      "Ġvegan": 5840,
      "Ġequally": 5841,
      "Ġcalm": 5842,
      "Ġkeyword": 5843,
      "Ġdelivering": 5844,
      "Ġlanding": 5845,
      "otten": 5846,
      "Ġinspire": 5847,
      "Ġbehalf": 5848,
      "Ġhunting": 5849,
      "Ġachievement": 5850,
      "Ġprecious": 5851,
      "Ġreplaced": 5852,
      "Ġitaly": 5853,
      "Ġrapidly": 5854,
      "Ġcorrespond": 5855,
      "Ġlemon": 5856,
      "Ġpodcast": 5857,
      "Ġhollywood": 5858,
      "Ġniger": 5859,
      "ingu": 5860,
      "tio": 5861,
      "Ġml": 5862,
      "Ġby": 5863,
      "Ġdough": 5864,
      "Ġwrap": 5865,
      "itage": 5866,
      "Ġstain": 5867,
      "verty": 5868,
      "ami": 5869,
      "Ġkiss": 5870,
      "esis": 5871,
      "Ġdivor": 5872,
      "Ġpoverty": 5873,
      "Ġtap": 5874,
      "Ġlee": 5875,
      "Ġcontained": 5876,
      "shot": 5877,
      "Ġphen": 5878,
      "Ġparti": 5879,
      "Ġparam": 5880,
      "Ġjoke": 5881,
      "Ġstartup": 5882,
      "Ġsupporter": 5883,
      "Ġlease": 5884,
      "Ġentrance": 5885,
      "Ġobt": 5886,
      "Ġconcrete": 5887,
      "Ġalongside": 5888,
      "Ġnetworking": 5889,
      "Ġnonpro": 5890,
      "Ġtheater": 5891,
      "Ġinvolves": 5892,
      "Ġfalling": 5893,
      "Ġreaching": 5894,
      "Ġentered": 5895,
      "Ġinitially": 5896,
      "Ġprimarily": 5897,
      "Ġadopt": 5898,
      "Ġgrocery": 5899,
      "Ġadministrative": 5900,
      "Ġfascinating": 5901,
      "Ġimmigration": 5902,
      "Ġunusual": 5903,
      "Ġiraq": 5904,
      "sed": 5905,
      "Ġpiz": 5906,
      "orie": 5907,
      "Ġwifi": 5908,
      "Ġreti": 5909,
      "Ġneither": 5910,
      "Ġangle": 5911,
      "uct": 5912,
      "Ġclock": 5913,
      "Ġcoal": 5914,
      "Ġtrad": 5915,
      "Ġhomeless": 5916,
      "Ġsmell": 5917,
      "ensity": 5918,
      "Ġmining": 5919,
      "Ġindig": 5920,
      "Ġgenre": 5921,
      "Ġbarb": 5922,
      "Ġsummary": 5923,
      "Ġskilled": 5924,
      "Ġcommonly": 5925,
      "Ġfunctionality": 5926,
      "Ġtourism": 5927,
      "Ġhorror": 5928,
      "Ġpeak": 5929,
      "Ġrolling": 5930,
      "Ġjustif": 5931,
      "Ġvirtually": 5932,
      "Ġresistance": 5933,
      "Ġchecked": 5934,
      "rogen": 5935,
      "Ġeliminate": 5936,
      "Ġadvocate": 5937,
      "Ġelder": 5938,
      "Ġintellect": 5939,
      "aire": 5940,
      "some": 5941,
      "wing": 5942,
      "inar": 5943,
      "Ġsoph": 5944,
      "till": 5945,
      "Ġtone": 5946,
      "Ġfold": 5947,
      "rise": 5948,
      "urning": 5949,
      "Ġvice": 5950,
      "Ġvendor": 5951,
      "Ġranging": 5952,
      "Ġsher": 5953,
      "Ġuncle": 5954,
      "apist": 5955,
      "Ġrecy": 5956,
      "agon": 5957,
      "Ġtwist": 5958,
      "Ġratio": 5959,
      "Ġgrid": 5960,
      "Ġhappiness": 5961,
      "Ġsomehow": 5962,
      "Ġnov": 5963,
      "Ġcompletion": 5964,
      "Ġblogging": 5965,
      "Ġemployed": 5966,
      "Ġcovering": 5967,
      "Ġsalad": 5968,
      "Ġinspiring": 5969,
      "Ġownership": 5970,
      "Ġdisplayed": 5971,
      "Ġforgotten": 5972,
      "Ġcasual": 5973,
      "Ġliberal": 5974,
      "Ġcruise": 5975,
      "Ġnursing": 5976,
      "Ġattribute": 5977,
      "Ġstomach": 5978,
      "Ġceremony": 5979,
      "Ġcine": 5980,
      "Ġlens": 5981,
      "Ġbold": 5982,
      "Ġbake": 5983,
      "omed": 5984,
      "elle": 5985,
      "Ġnh": 5986,
      "Ġanth": 5987,
      "ifying": 5988,
      "Ġcaring": 5989,
      "Ġnoise": 5990,
      "lessly": 5991,
      "Ġtransmission": 5992,
      "Ġzip": 5993,
      "Ġstopping": 5994,
      "Ġsnap": 5995,
      "Ġstronger": 5996,
      "Ġglobe": 5997,
      "Ġexists": 5998,
      "Ġparticipating": 5999,
      "Ġbrowse": 6000,
      "Ġmassage": 6001,
      "Ġmeasurement": 6002,
      "Ġlayout": 6003,
      "Ġvacc": 6004,
      "Ġmaintaining": 6005,
      "Ġborrow": 6006,
      "Ġtrem": 6007,
      "Ġgathering": 6008,
      "Ġdecrease": 6009,
      "Ġtutorial": 6010,
      "Ġretirement": 6011,
      "Ġwherever": 6012,
      "Ġequivalent": 6013,
      "Ġobtained": 6014,
      "iment": 6015,
      "py": 6016,
      "rome": 6017,
      "suit": 6018,
      "td": 6019,
      "Ġpour": 6020,
      "alle": 6021,
      "Ġtong": 6022,
      "rass": 6023,
      "isition": 6024,
      "asm": 6025,
      "Ġsupre": 6026,
      "Ġknee": 6027,
      "itty": 6028,
      "Ġattending": 6029,
      "Ġrealistic": 6030,
      "Ġearned": 6031,
      "Ġhandling": 6032,
      "Ġreturning": 6033,
      "Ġpreparing": 6034,
      "Ġmaintained": 6035,
      "Ġpolitician": 6036,
      "Ġlogin": 6037,
      "Ġheritage": 6038,
      "Ġfeeding": 6039,
      "Ġapplying": 6040,
      "Ġemerging": 6041,
      "Ġalloc": 6042,
      "Ġreminder": 6043,
      "Ġdropped": 6044,
      "Ġpumpkin": 6045,
      "Ġblessing": 6046,
      "Ġsplit": 6047,
      "Ġjunior": 6048,
      "Ġagriculture": 6049,
      "Ġromance": 6050,
      "Ġcolumbia": 6051,
      "Ġbankruptcy": 6052,
      "Ġpizza": 6053,
      "gen": 6054,
      "hen": 6055,
      "yard": 6056,
      "Ġought": 6057,
      "onom": 6058,
      "Ġpul": 6059,
      "icide": 6060,
      "Ġchi": 6061,
      "Ġdeeper": 6062,
      "Ġtape": 6063,
      "Ġtrash": 6064,
      "Ġscott": 6065,
      "Ġresume": 6066,
      "Ġdiscrim": 6067,
      "Ġlawn": 6068,
      "Ġbreach": 6069,
      "Ġsummit": 6070,
      "Ġmoral": 6071,
      "Ġstored": 6072,
      "Ġdocumentation": 6073,
      "Ġdomin": 6074,
      "Ġcelebrating": 6075,
      "Ġbaseball": 6076,
      "Ġtomato": 6077,
      "Ġclosing": 6078,
      "Ġbehaviour": 6079,
      "Ġliterature": 6080,
      "Ġwildlife": 6081,
      "Ġguaranteed": 6082,
      "Ġrepeated": 6083,
      "weight": 6084,
      "Ġconfiguration": 6085,
      "Ġdiamond": 6086,
      "Ġentitled": 6087,
      "Ġcottage": 6088,
      "Ġhormone": 6089,
      "ya": 6090,
      "Ġsq": 6091,
      "Ġcath": 6092,
      "oned": 6093,
      "entive": 6094,
      "tile": 6095,
      "Ġmerc": 6096,
      "omen": 6097,
      "Ġnap": 6098,
      "Ġstem": 6099,
      "Ġdele": 6100,
      "Ġsufficient": 6101,
      "Ġovern": 6102,
      "Ġshame": 6103,
      "Ġspare": 6104,
      "ucking": 6105,
      "ishment": 6106,
      "reak": 6107,
      "Ġlaid": 6108,
      "Ġwithd": 6109,
      "Ġcompanyuk": 6110,
      "Ġsetup": 6111,
      "Ġdiscre": 6112,
      "Ġfridge": 6113,
      "Ġboil": 6114,
      "Ġparticle": 6115,
      "Ġoverse": 6116,
      "Ġtreaty": 6117,
      "Ġsituated": 6118,
      "Ġfocusing": 6119,
      "Ġofficially": 6120,
      "Ġinvolving": 6121,
      "Ġrepresents": 6122,
      "Ġstraw": 6123,
      "Ġwallpaper": 6124,
      "Ġdrawn": 6125,
      "Ġcheaper": 6126,
      "Ġoutdoors": 6127,
      "Ġacquire": 6128,
      "Ġpredict": 6129,
      "Ġconvert": 6130,
      "Ġscratch": 6131,
      "Ġrestriction": 6132,
      "Ġhesitate": 6133,
      "Ġkorea": 6134,
      "jection": 6135,
      "sen": 6136,
      "west": 6137,
      "Ġsaint": 6138,
      "Ġcn": 6139,
      "Ġpy": 6140,
      "alk": 6141,
      "Ġlane": 6142,
      "Ġloud": 6143,
      "Ġbach": 6144,
      "Ġeb": 6145,
      "omfort": 6146,
      "ilty": 6147,
      "olic": 6148,
      "oty": 6149,
      "Ġcham": 6150,
      "Ġliability": 6151,
      "Ġkar": 6152,
      "Ġtiss": 6153,
      "esh": 6154,
      "Ġcoin": 6155,
      "Ġmarine": 6156,
      "Ġmargin": 6157,
      "Ġdesper": 6158,
      "Ġassum": 6159,
      "Ġpresidential": 6160,
      "Ġextract": 6161,
      "Ġgreet": 6162,
      "tism": 6163,
      "Ġcalorie": 6164,
      "Ġtemplate": 6165,
      "Ġprince": 6166,
      "Ġprinter": 6167,
      "Ġabsor": 6168,
      "Ġdonald": 6169,
      "Ġhyper": 6170,
      "Ġcelebrity": 6171,
      "Ġembar": 6172,
      "Ġcarrying": 6173,
      "Ġjournalist": 6174,
      "Ġsubscribe": 6175,
      "Ġignore": 6176,
      "Ġopposite": 6177,
      "Ġadministrator": 6178,
      "Ġcompensation": 6179,
      "Ġwarranty": 6180,
      "Ġbegun": 6181,
      "Ġcarolina": 6182,
      "Ġnonprofit": 6183,
      "Ġou": 6184,
      "rey": 6185,
      "Ġpac": 6186,
      "Ġpie": 6187,
      "Ġlung": 6188,
      "Ġbin": 6189,
      "Ġdot": 6190,
      "Ġegy": 6191,
      "Ġriding": 6192,
      "Ġspain": 6193,
      "aping": 6194,
      "Ġparad": 6195,
      "Ġindicate": 6196,
      "Ġfault": 6197,
      "Ġboston": 6198,
      "Ġcharter": 6199,
      "Ġgrad": 6200,
      "Ġswing": 6201,
      "Ġsubsequ": 6202,
      "Ġcreature": 6203,
      "Ġslip": 6204,
      "Ġforecl": 6205,
      "Ġlowest": 6206,
      "Ġelsewhere": 6207,
      "Ġknowledgeable": 6208,
      "Ġdownloaded": 6209,
      "Ġencouraging": 6210,
      "Ġconsists": 6211,
      "Ġvilla": 6212,
      "Ġresolve": 6213,
      "Ġappliance": 6214,
      "Ġcertified": 6215,
      "Ġdrove": 6216,
      "Ġexpansion": 6217,
      "Ġovernight": 6218,
      "Ġtissue": 6219,
      "pay": 6220,
      "sman": 6221,
      "zard": 6222,
      "rent": 6223,
      "Ġmouse": 6224,
      "Ġbind": 6225,
      "Ġbite": 6226,
      "Ġbull": 6227,
      "Ġreject": 6228,
      "iser": 6229,
      "Ġprohib": 6230,
      "Ġyield": 6231,
      "Ġshelf": 6232,
      "Ġpermitted": 6233,
      "vist": 6234,
      "Ġhomework": 6235,
      "Ġreli": 6236,
      "Ġposter": 6237,
      "Ġvariation": 6238,
      "Ġequation": 6239,
      "Ġcontrovers": 6240,
      "Ġpainful": 6241,
      "anned": 6242,
      "Ġawa": 6243,
      "Ġterrible": 6244,
      "Ġrepresentation": 6245,
      "onym": 6246,
      "Ġcloset": 6247,
      "Ġaimed": 6248,
      "Ġsandwich": 6249,
      "Ġacquisition": 6250,
      "Ġpassionate": 6251,
      "Ġtrailer": 6252,
      "Ġopposed": 6253,
      "Ġdiscipline": 6254,
      "Ġzealand": 6255,
      "col": 6256,
      "rated": 6257,
      "Ġcod": 6258,
      "Ġcrop": 6259,
      "Ġporn": 6260,
      "Ġavenue": 6261,
      "ano": 6262,
      "Ġwise": 6263,
      "Ġinquiry": 6264,
      "child": 6265,
      "Ġprosec": 6266,
      "ulum": 6267,
      "Ġalarm": 6268,
      "Ġkh": 6269,
      "Ġshr": 6270,
      "Ġshock": 6271,
      "utter": 6272,
      "Ġjones": 6273,
      "Ġplacing": 6274,
      "Ġanger": 6275,
      "vile": 6276,
      "Ġuncon": 6277,
      "Ġlean": 6278,
      "ctor": 6279,
      "Ġfewer": 6280,
      "Ġdesert": 6281,
      "Ġguilty": 6282,
      "Ġmeanwhile": 6283,
      "Ġprocessed": 6284,
      "Ġdirected": 6285,
      "Ġbench": 6286,
      "Ġbeneficial": 6287,
      "Ġmusician": 6288,
      "Ġdocumentary": 6289,
      "Ġohio": 6290,
      "Ġbalanced": 6291,
      "Ġipad": 6292,
      "Ġviolation": 6293,
      "Ġcircuit": 6294,
      "Ġsadly": 6295,
      "Ġrelaxing": 6296,
      "Ġoccurred": 6297,
      "Ġestablishment": 6298,
      "Ġnegotiation": 6299,
      "Ġarrested": 6300,
      "Ġscotland": 6301,
      "Ġthoroughly": 6302,
      "Ġdvd": 6303,
      "Ġheavily": 6304,
      "Ġcongratulation": 6305,
      "ae": 6306,
      "gia": 6307,
      "iv": 6308,
      "rum": 6309,
      "uan": 6310,
      "Ġpip": 6311,
      "Ġpatch": 6312,
      "Ġpup": 6313,
      "inge": 6314,
      "Ġmun": 6315,
      "Ġmature": 6316,
      "Ġtob": 6317,
      "Ġfisc": 6318,
      "Ġbac": 6319,
      "Ġbang": 6320,
      "Ġwra": 6321,
      "Ġhem": 6322,
      "Ġnam": 6323,
      "Ġnerv": 6324,
      "ssert": 6325,
      "ading": 6326,
      "Ġdessert": 6327,
      "Ġrated": 6328,
      "Ġtile": 6329,
      "Ġjac": 6330,
      "Ġweigh": 6331,
      "Ġroast": 6332,
      "Ġtrader": 6333,
      "Ġinteract": 6334,
      "Ġresulting": 6335,
      "Ġwhis": 6336,
      "Ġpho": 6337,
      "Ġbuff": 6338,
      "Ġhighway": 6339,
      "Ġattended": 6340,
      "Ġpreserve": 6341,
      "Ġoutlet": 6342,
      "Ġsolving": 6343,
      "Ġswed": 6344,
      "Ġaband": 6345,
      "Ġoverview": 6346,
      "Ġaircraft": 6347,
      "Ġpaste": 6348,
      "Ġapplicant": 6349,
      "Ġceiling": 6350,
      "Ġdebut": 6351,
      "Ġremoving": 6352,
      "Ġparticipation": 6353,
      "Ġexperiencing": 6354,
      "Ġacceptable": 6355,
      "Ġirre": 6356,
      "Ġeconomics": 6357,
      "Ġadvertise": 6358,
      "Ġduration": 6359,
      "Ġtreasure": 6360,
      "Ġaccompan": 6361,
      "Ġjackson": 6362,
      "Ġanalyst": 6363,
      "Ġanalytics": 6364,
      "Ġmeaningful": 6365,
      "Ġpsychology": 6366,
      "Ġrarely": 6367,
      "Ġdemocracy": 6368,
      "Ġguardian": 6369,
      "Ġopposition": 6370,
      "Ġproceeding": 6371,
      "Ġscholarship": 6372,
      "Ġcocktail": 6373,
      "Ġrescue": 6374,
      "Ġinstructor": 6375,
      "Ġvulnerable": 6376,
      "Ġintellectual": 6377,
      "sper": 6378,
      "Ġsket": 6379,
      "Ġgross": 6380,
      "Ġchest": 6381,
      "Ġvine": 6382,
      "Ġvint": 6383,
      "Ġshore": 6384,
      "Ġspon": 6385,
      "Ġcomprom": 6386,
      "ogy": 6387,
      "Ġarth": 6388,
      "apore": 6389,
      "Ġkeen": 6390,
      "Ġaged": 6391,
      "Ġproductive": 6392,
      "Ġstrict": 6393,
      "Ġmeditation": 6394,
      "assador": 6395,
      "Ġfriendship": 6396,
      "Ġreporter": 6397,
      "brid": 6398,
      "Ġexploring": 6399,
      "Ġrefrig": 6400,
      "Ġreflective": 6401,
      "Ġsingapore": 6402,
      "Ġcleaner": 6403,
      "Ġkiller": 6404,
      "Ġstrip": 6405,
      "Ġhunt": 6406,
      "Ġpatent": 6407,
      "Ġrebu": 6408,
      "Ġambassador": 6409,
      "Ġgenetic": 6410,
      "Ġjean": 6411,
      "Ġblessed": 6412,
      "Ġjewelry": 6413,
      "Ġtongue": 6414,
      "Ġwithdraw": 6415,
      "Ġsketch": 6416,
      "hy": 6417,
      "iat": 6418,
      "aly": 6419,
      "Ġfancy": 6420,
      "Ġloun": 6421,
      "Ġwound": 6422,
      "stal": 6423,
      "chester": 6424,
      "Ġtherm": 6425,
      "ulating": 6426,
      "Ġron": 6427,
      "Ġenorm": 6428,
      "Ġspray": 6429,
      "tick": 6430,
      "Ġunre": 6431,
      "Ġarc": 6432,
      "Ġmakeup": 6433,
      "Ġbuilder": 6434,
      "Ġrab": 6435,
      "Ġprivile": 6436,
      "Ġgray": 6437,
      "Ġregime": 6438,
      "Ġlaund": 6439,
      "Ġlocally": 6440,
      "Ġfollower": 6441,
      "Ġfake": 6442,
      "iotic": 6443,
      "Ġdirectory": 6444,
      "Ġstair": 6445,
      "Ġexceed": 6446,
      "Ġapplicable": 6447,
      "Ġshortly": 6448,
      "Ġfitting": 6449,
      "Ġpickup": 6450,
      "Ġamongst": 6451,
      "Ġhyp": 6452,
      "Ġhybrid": 6453,
      "Ġfleet": 6454,
      "Ġsurrounded": 6455,
      "Ġdiagram": 6456,
      "Ġdemocratic": 6457,
      "Ġenables": 6458,
      "visor": 6459,
      "Ġexceptional": 6460,
      "Ġdrama": 6461,
      "Ġweakness": 6462,
      "Ġtravelling": 6463,
      "Ġearnings": 6464,
      "Ġcomplimentary": 6465,
      "Ġlaundry": 6466,
      "lc": 6467,
      "sal": 6468,
      "vas": 6469,
      "Ġparen": 6470,
      "Ġai": 6471,
      "Ġmate": 6472,
      "Ġmold": 6473,
      "Ġlit": 6474,
      "Ġbub": 6475,
      "els": 6476,
      "Ġnin": 6477,
      "ssel": 6478,
      "Ġinher": 6479,
      "ilton": 6480,
      "chel": 6481,
      "acular": 6482,
      "Ġos": 6483,
      "Ġworship": 6484,
      "usc": 6485,
      "Ġtimely": 6486,
      "Ġjail": 6487,
      "odge": 6488,
      "Ġadam": 6489,
      "Ġunp": 6490,
      "Ġpose": 6491,
      "Ġlob": 6492,
      "Ġopt": 6493,
      "Ġrocket": 6494,
      "Ġjoe": 6495,
      "Ġassured": 6496,
      "ensus": 6497,
      "Ġdefend": 6498,
      "Ġsignature": 6499,
      "Ġviewer": 6500,
      "Ġcollective": 6501,
      "Ġrefuse": 6502,
      "Ġreviewed": 6503,
      "Ġasks": 6504,
      "Ġextraord": 6505,
      "Ġrecognition": 6506,
      "Ġautomated": 6507,
      "Ġsuggests": 6508,
      "Ġconsistently": 6509,
      "Ġburning": 6510,
      "Ġsensor": 6511,
      "Ġbanking": 6512,
      "Ġfrequency": 6513,
      "Ġtrainer": 6514,
      "Ġaccommodate": 6515,
      "Ġranking": 6516,
      "Ġnotification": 6517,
      "Ġalliance": 6518,
      "Ġphenomen": 6519,
      "Ġfiscal": 6520,
      "Ġnervous": 6521,
      "Ġvintage": 6522,
      "ja": 6523,
      "otive": 6524,
      "Ġio": 6525,
      "Ġcad": 6526,
      "Ġpp": 6527,
      "enous": 6528,
      "Ġmp": 6529,
      "Ġted": 6530,
      "Ġfallen": 6531,
      "Ġlb": 6532,
      "Ġlis": 6533,
      "Ġdol": 6534,
      "Ġell": 6535,
      "Ġhint": 6536,
      "Ġnc": 6537,
      "ola": 6538,
      "isure": 6539,
      "rian": 6540,
      "Ġneu": 6541,
      "Ġalph": 6542,
      "Ġrug": 6543,
      "Ġdipl": 6544,
      "Ġpret": 6545,
      "Ġrecon": 6546,
      "Ġwellness": 6547,
      "Ġhaha": 6548,
      "Ġbrick": 6549,
      "ifting": 6550,
      "Ġsubstance": 6551,
      "Ġdrum": 6552,
      "Ġsinging": 6553,
      "Ġoccurs": 6554,
      "Ġfinancing": 6555,
      "Ġlabour": 6556,
      "Ġtexture": 6557,
      "clop": 6558,
      "Ġantib": 6559,
      "Ġpremise": 6560,
      "Ġlimitation": 6561,
      "Ġentertaining": 6562,
      "Ġmotivated": 6563,
      "Ġdemocrat": 6564,
      "Ġspectacular": 6565,
      "Ġdelighted": 6566,
      "Ġcooperation": 6567,
      "Ġmartin": 6568,
      "Ġbarely": 6569,
      "Ġbacteria": 6570,
      "Ġgenuine": 6571,
      "Ġdisagree": 6572,
      "Ġforeclosure": 6573,
      "page": 6574,
      "rick": 6575,
      "Ġpit": 6576,
      "Ġlag": 6577,
      "Ġdose": 6578,
      "Ġeager": 6579,
      "rad": 6580,
      "Ġchef": 6581,
      "Ġneut": 6582,
      "Ġspice": 6583,
      "employ": 6584,
      "esthe": 6585,
      "Ġcompris": 6586,
      "Ġpoet": 6587,
      "Ġgov": 6588,
      "ipt": 6589,
      "Ġmonster": 6590,
      "ressed": 6591,
      "ressive": 6592,
      "Ġflav": 6593,
      "Ġfranch": 6594,
      "Ġformation": 6595,
      "Ġsurf": 6596,
      "Ġhandled": 6597,
      "Ġcurric": 6598,
      "Ġsubmission": 6599,
      "Ġretreat": 6600,
      "Ġrunner": 6601,
      "Ġspecialized": 6602,
      "Ġtranslation": 6603,
      "Ġadvised": 6604,
      "Ġheadline": 6605,
      "Ġpainted": 6606,
      "Ġmainstream": 6607,
      "Ġcolorado": 6608,
      "Ġterrif": 6609,
      "Ġcontaining": 6610,
      "Ġmixture": 6611,
      "Ġboring": 6612,
      "Ġobserved": 6613,
      "Ġbreathing": 6614,
      "Ġexhibit": 6615,
      "burg": 6616,
      "Ġadvisor": 6617,
      "Ġcancellation": 6618,
      "Ġoverwhelming": 6619,
      "Ġsubstantial": 6620,
      "Ġhobby": 6621,
      "bow": 6622,
      "gration": 6623,
      "ius": 6624,
      "yclop": 6625,
      "Ġpier": 6626,
      "Ġaqu": 6627,
      "Ġauction": 6628,
      "edge": 6629,
      "Ġnich": 6630,
      "Ġprol": 6631,
      "Ġproved": 6632,
      "Ġthirty": 6633,
      "Ġneat": 6634,
      "Ġyum": 6635,
      "Ġshell": 6636,
      "Ġactively": 6637,
      "Ġdialogue": 6638,
      "Ġnewly": 6639,
      "Ġcos": 6640,
      "Ġorch": 6641,
      "Ġscout": 6642,
      "Ġmoist": 6643,
      "Ġgenerated": 6644,
      "Ġobse": 6645,
      "Ġretro": 6646,
      "Ġreceipt": 6647,
      "Ġovercome": 6648,
      "Ġexcuse": 6649,
      "Ġencyclop": 6650,
      "Ġharry": 6651,
      "Ġthere": 6652,
      "Ġfireplace": 6653,
      "Ġfundra": 6654,
      "Ġsteam": 6655,
      "Ġportra": 6656,
      "Ġcooked": 6657,
      "Ġtowel": 6658,
      "Ġmerch": 6659,
      "Ġpalm": 6660,
      "Ġloaded": 6661,
      "Ġbanana": 6662,
      "Ġadjustment": 6663,
      "Ġprincipal": 6664,
      "Ġeffectiveness": 6665,
      "Ġpursue": 6666,
      "Ġdemonstrate": 6667,
      "Ġmemorable": 6668,
      "Ġregulatory": 6669,
      "Ġalleged": 6670,
      "Ġcannab": 6671,
      "oved": 6672,
      "ura": 6673,
      "inent": 6674,
      "inator": 6675,
      "Ġax": 6676,
      "Ġaer": 6677,
      "tivist": 6678,
      "Ġtay": 6679,
      "Ġfry": 6680,
      "Ġfool": 6681,
      "Ġbou": 6682,
      "Ġey": 6683,
      "Ġnerve": 6684,
      "Ġstood": 6685,
      "Ġcomedy": 6686,
      "Ġvet": 6687,
      "tery": 6688,
      "terest": 6689,
      "Ġric": 6690,
      "illa": 6691,
      "Ġmeas": 6692,
      "Ġneedle": 6693,
      "Ġbeef": 6694,
      "Ġproductivity": 6695,
      "Ġanytime": 6696,
      "Ġremedy": 6697,
      "Ġactress": 6698,
      "Ġmodification": 6699,
      "Ġisol": 6700,
      "Ġspecification": 6701,
      "Ġsooner": 6702,
      "Ġbrake": 6703,
      "Ġsexy": 6704,
      "Ġsteve": 6705,
      "Ġdamaged": 6706,
      "Ġcandy": 6707,
      "Ġminimal": 6708,
      "Ġapplies": 6709,
      "Ġgambling": 6710,
      "Ġnarrative": 6711,
      "Ġcomplain": 6712,
      "Ġroughly": 6713,
      "Ġemphasis": 6714,
      "Ġnavigate": 6715,
      "Ġdisappointed": 6716,
      "Ġexhaust": 6717,
      "Ġindigenous": 6718,
      "bre": 6719,
      "ii": 6720,
      "iber": 6721,
      "ruit": 6722,
      "wn": 6723,
      "Ġcig": 6724,
      "Ġcurious": 6725,
      "atal": 6726,
      "entine": 6727,
      "ila": 6728,
      "adium": 6729,
      "Ġconj": 6730,
      "Ġkg": 6731,
      "Ġshaped": 6732,
      "Ġleisure": 6733,
      "Ġrod": 6734,
      "Ġrecruit": 6735,
      "Ġmarked": 6736,
      "Ġscam": 6737,
      "Ġgoodness": 6738,
      "Ġconservation": 6739,
      "Ġaccounting": 6740,
      "Ġindicated": 6741,
      "Ġsettled": 6742,
      "Ġbooked": 6743,
      "Ġsurge": 6744,
      "Ġtechnician": 6745,
      "Ġterminal": 6746,
      "Ġviewed": 6747,
      "Ġannoy": 6748,
      "Ġelected": 6749,
      "Ġpersonalized": 6750,
      "Ġanswered": 6751,
      "Ġfigured": 6752,
      "Ġclaimed": 6753,
      "Ġacceptance": 6754,
      "Ġgeor": 6755,
      "Ġembrace": 6756,
      "Ġimplementing": 6757,
      "Ġneighbour": 6758,
      "Ġangry": 6759,
      "Ġethical": 6760,
      "Ġforgot": 6761,
      "Ġopponent": 6762,
      "Ġoriented": 6763,
      "writer": 6764,
      "Ġelegant": 6765,
      "Ġpixel": 6766,
      "Ġbachel": 6767,
      "Ġportrait": 6768,
      "pret": 6769,
      "vity": 6770,
      "instein": 6771,
      "Ġsoup": 6772,
      "reen": 6773,
      "Ġavi": 6774,
      "ortion": 6775,
      "Ġgaz": 6776,
      "lymp": 6777,
      "vest": 6778,
      "Ġdefe": 6779,
      "Ġalumin": 6780,
      "una": 6781,
      "Ġactivist": 6782,
      "Ġjay": 6783,
      "Ġjunk": 6784,
      "Ġcompati": 6785,
      "Ġunemploy": 6786,
      "izer": 6787,
      "eping": 6788,
      "Ġmayor": 6789,
      "Ġscope": 6790,
      "Ġbloom": 6791,
      "Ġcave": 6792,
      "Ġcustomized": 6793,
      "Ġcharl": 6794,
      "Ġintrig": 6795,
      "Ġobst": 6796,
      "Ġpowered": 6797,
      "Ġconnec": 6798,
      "rence": 6799,
      "Ġportable": 6800,
      "Ġhitting": 6801,
      "Ġexcellence": 6802,
      "Ġawarded": 6803,
      "Ġintegration": 6804,
      "Ġultra": 6805,
      "Ġpeaceful": 6806,
      "Ġqualification": 6807,
      "Ġjacket": 6808,
      "Ġuncertain": 6809,
      "Ġimplication": 6810,
      "Ġsynd": 6811,
      "Ġfulfill": 6812,
      "Ġtactic": 6813,
      "Ġtremend": 6814,
      "Ġlounge": 6815,
      "Ġencyclopedia": 6816,
      "lisher": 6817,
      "inity": 6818,
      "Ġsought": 6819,
      "erving": 6820,
      "Ġcure": 6821,
      "Ġtan": 6822,
      "orable": 6823,
      "ata": 6824,
      "iliate": 6825,
      "Ġunl": 6826,
      "uster": 6827,
      "Ġdisney": 6828,
      "Ġsuppose": 6829,
      "Ġleak": 6830,
      "Ġshowcase": 6831,
      "Ġinsist": 6832,
      "Ġmarketplace": 6833,
      "Ġpublisher": 6834,
      "Ġunderta": 6835,
      "Ġdefence": 6836,
      "Ġsolo": 6837,
      "Ġordering": 6838,
      "Ġgirlfriend": 6839,
      "Ġachieving": 6840,
      "Ġdamn": 6841,
      "atile": 6842,
      "Ġinjection": 6843,
      "Ġtoast": 6844,
      "Ġdetermination": 6845,
      "Ġreferral": 6846,
      "ascript": 6847,
      "Ġethnic": 6848,
      "Ġintegrity": 6849,
      "Ġfortune": 6850,
      "Ġbullet": 6851,
      "Ġassigned": 6852,
      "Ġcrypt": 6853,
      "Ġridic": 6854,
      "Ġromantic": 6855,
      "Ġdispute": 6856,
      "Ġdiagnosis": 6857,
      "Ġwilliams": 6858,
      "Ġstylish": 6859,
      "Ġlicensed": 6860,
      "Ġconservative": 6861,
      "Ġjavascript": 6862,
      "Ġreproduc": 6863,
      "Ġthomas": 6864,
      "Ġdivorce": 6865,
      "Ġparameter": 6866,
      "Ġenormous": 6867,
      "bian": 6868,
      "hh": 6869,
      "sl": 6870,
      "yl": 6871,
      "Ġpine": 6872,
      "Ġpunch": 6873,
      "Ġtune": 6874,
      "Ġdual": 6875,
      "Ġdancing": 6876,
      "Ġwan": 6877,
      "Ġgang": 6878,
      "ulator": 6879,
      "unate": 6880,
      "Ġseam": 6881,
      "Ġolymp": 6882,
      "Ġshake": 6883,
      "Ġjen": 6884,
      "Ġdiy": 6885,
      "abeth": 6886,
      "Ġincentive": 6887,
      "Ġphp": 6888,
      "Ġracing": 6889,
      "Ġaccused": 6890,
      "Ġrelating": 6891,
      "Ġinformative": 6892,
      "Ġassault": 6893,
      "Ġendless": 6894,
      "Ġsomebody": 6895,
      "ometer": 6896,
      "Ġmeta": 6897,
      "ribed": 6898,
      "Ġneverthe": 6899,
      "Ġrestore": 6900,
      "Ġequity": 6901,
      "Ġpractition": 6902,
      "Ġpastor": 6903,
      "Ġhumanity": 6904,
      "Ġtherapist": 6905,
      "Ġsafely": 6906,
      "Ġterrit": 6907,
      "Ġirish": 6908,
      "Ġappreciation": 6909,
      "Ġmirac": 6910,
      "Ġargue": 6911,
      "Ġconnecting": 6912,
      "Ġtransformation": 6913,
      "Ġjeff": 6914,
      "Ġminority": 6915,
      "Ġalike": 6916,
      "Ġpollution": 6917,
      "Ġconfirmation": 6918,
      "Ġryan": 6919,
      "Ġadequate": 6920,
      "Ġcotton": 6921,
      "Ġchamber": 6922,
      "Ġnevertheless": 6923,
      "Ġpractitioner": 6924,
      "Ġterritory": 6925,
      "fting": 6926,
      "hes": 6927,
      "ns": 6928,
      "rary": 6929,
      "ua": 6930,
      "Ġie": 6931,
      "Ġsed": 6932,
      "Ġpest": 6933,
      "Ġmg": 6934,
      "Ġmelt": 6935,
      "Ġtension": 6936,
      "Ġtender": 6937,
      "Ġlatter": 6938,
      "Ġdash": 6939,
      "Ġdont": 6940,
      "Ġhired": 6941,
      "ceived": 6942,
      "Ġni": 6943,
      "etary": 6944,
      "illy": 6945,
      "Ġnest": 6946,
      "Ġshed": 6947,
      "Ġjazz": 6948,
      "odel": 6949,
      "Ġoral": 6950,
      "Ġintervention": 6951,
      "Ġdisarm": 6952,
      "Ġscroll": 6953,
      "osity": 6954,
      "Ġbeverage": 6955,
      "Ġcolon": 6956,
      "Ġwrites": 6957,
      "Ġmineral": 6958,
      "Ġcompleting": 6959,
      "Ġvalentine": 6960,
      "Ġdistract": 6961,
      "Ġbrook": 6962,
      "onto": 6963,
      "Ġaffiliate": 6964,
      "Ġartwork": 6965,
      "portion": 6966,
      "Ġensures": 6967,
      "Ġnaked": 6968,
      "Ġtenant": 6969,
      "Ġrepresented": 6970,
      "apped": 6971,
      "Ġeaster": 6972,
      "Ġinflation": 6973,
      "Ġinflamm": 6974,
      "Ġhoriz": 6975,
      "Ġconsuming": 6976,
      "Ġmerely": 6977,
      "Ġtargeted": 6978,
      "Ġsenate": 6979,
      "Ġprotecting": 6980,
      "Ġfrequent": 6981,
      "Ġdependent": 6982,
      "Ġdisappear": 6983,
      "Ġvoting": 6984,
      "Ġexpanding": 6985,
      "Ġchairman": 6986,
      "Ġnutrient": 6987,
      "Ġmechanic": 6988,
      "Ġlaboratory": 6989,
      "Ġrenewable": 6990,
      "Ġwisdom": 6991,
      "Ġtroop": 6992,
      "Ġbouncer": 6993,
      "Ġrenovation": 6994,
      "Ġjoseph": 6995,
      "Ġdiscretion": 6996,
      "Ġparenting": 6997,
      "Ġfranchise": 6998,
      "Ġbachelor": 6999,
      "sion": 7000,
      "Ġrib": 7001,
      "Ġpap": 7002,
      "Ġmas": 7003,
      "antic": 7004,
      "Ġtort": 7005,
      "Ġtube": 7006,
      "Ġdun": 7007,
      "Ġdying": 7008,
      "Ġreact": 7009,
      "Ġnic": 7010,
      "Ġinev": 7011,
      "Ġthy": 7012,
      "Ġthail": 7013,
      "Ġrider": 7014,
      "Ġsevent": 7015,
      "Ġsuicide": 7016,
      "Ġtit": 7017,
      "Ġadorable": 7018,
      "ticing": 7019,
      "Ġperception": 7020,
      "Ġcompound": 7021,
      "Ġunne": 7022,
      "Ġinterpret": 7023,
      "Ġwho": 7024,
      "Ġspecified": 7025,
      "Ġvisible": 7026,
      "Ġendor": 7027,
      "Ġintense": 7028,
      "Ġgrain": 7029,
      "Ġabroad": 7030,
      "Ġdave": 7031,
      "Ġvariable": 7032,
      "Ġgrey": 7033,
      "Ġvega": 7034,
      "Ġreflection": 7035,
      "Ġexcite": 7036,
      "Ġcreator": 7037,
      "Ġholder": 7038,
      "Ġbraz": 7039,
      "anny": 7040,
      "Ġresponsive": 7041,
      "Ġmobility": 7042,
      "Ġbuddy": 7043,
      "Ġsilence": 7044,
      "going": 7045,
      "Ġsubsid": 7046,
      "Ġbreed": 7047,
      "Ġstrengthen": 7048,
      "Ġbaked": 7049,
      "Ġphilipp": 7050,
      "Ġobservation": 7051,
      "Ġandrew": 7052,
      "Ġathle": 7053,
      "Ġpersist": 7054,
      "Ġvocal": 7055,
      "Ġacknowledge": 7056,
      "Ġhawai": 7057,
      "Ġthailand": 7058,
      "turing": 7059,
      "xx": 7060,
      "Ġsink": 7061,
      "Ġpushing": 7062,
      "Ġtang": 7063,
      "ora": 7064,
      "Ġfoster": 7065,
      "ars": 7066,
      "Ġlender": 7067,
      "state": 7068,
      "Ġhence": 7069,
      "omy": 7070,
      "Ġink": 7071,
      "oli": 7072,
      "che": 7073,
      "Ġthro": 7074,
      "Ġexem": 7075,
      "ffe": 7076,
      "Ġjar": 7077,
      "Ġanne": 7078,
      "Ġuna": 7079,
      "Ġheal": 7080,
      "Ġscul": 7081,
      "Ġblame": 7082,
      "Ġhass": 7083,
      "Ġconsulting": 7084,
      "Ġbackup": 7085,
      "Ġcredi": 7086,
      "Ġendea": 7087,
      "Ġcafe": 7088,
      "Ġupset": 7089,
      "Ġunivers": 7090,
      "obe": 7091,
      "Ġaddressed": 7092,
      "Ġstarter": 7093,
      "Ġscrew": 7094,
      "Ġwelcoming": 7095,
      "Ġautomotive": 7096,
      "Ġembod": 7097,
      "Ġsubstit": 7098,
      "Ġcollecting": 7099,
      "Ġqualify": 7100,
      "Ġsurprising": 7101,
      "Ġjewish": 7102,
      "Ġtoronto": 7103,
      "Ġcompete": 7104,
      "Ġunlikely": 7105,
      "Ġmathem": 7106,
      "Ġmemorial": 7107,
      "Ġindicator": 7108,
      "Ġconcentration": 7109,
      "Ġartificial": 7110,
      "Ġlecture": 7111,
      "Ġcurriculum": 7112,
      "bell": 7113,
      "bility": 7114,
      "comm": 7115,
      "night": 7116,
      "vet": 7117,
      "yn": 7118,
      "ystem": 7119,
      "Ġcogn": 7120,
      "Ġpir": 7121,
      "Ġfried": 7122,
      "Ġbatch": 7123,
      "Ġdirty": 7124,
      "Ġware": 7125,
      "Ġhp": 7126,
      "robe": 7127,
      "Ġstall": 7128,
      "Ġvel": 7129,
      "Ġalt": 7130,
      "quarter": 7131,
      "via": 7132,
      "Ġloop": 7133,
      "Ġserv": 7134,
      "Ġtwin": 7135,
      "Ġbeij": 7136,
      "Ġdeciding": 7137,
      "Ġlocate": 7138,
      "Ġdesigning": 7139,
      "Ġdifferently": 7140,
      "Ġabst": 7141,
      "Ġlegi": 7142,
      "Ġpromised": 7143,
      "Ġoperational": 7144,
      "Ġdrain": 7145,
      "Ġbeautifully": 7146,
      "Ġcourage": 7147,
      "Ġsuperb": 7148,
      "Ġharass": 7149,
      "Ġportug": 7150,
      "Ġcombat": 7151,
      "Ġabsence": 7152,
      "Ġfailing": 7153,
      "Ġherb": 7154,
      "Ġbiology": 7155,
      "Ġhike": 7156,
      "Ġtasting": 7157,
      "Ġdescribes": 7158,
      "Ġattempting": 7159,
      "Ġrelaxed": 7160,
      "Ġbulk": 7161,
      "Ġpinterest": 7162,
      "Ġaccomplished": 7163,
      "Ġspectrum": 7164,
      "Ġalien": 7165,
      "Ġchampionship": 7166,
      "Ġfacilitate": 7167,
      "Ġsettlement": 7168,
      "charge": 7169,
      "Ġtrauma": 7170,
      "Ġtoler": 7171,
      "Ġretired": 7172,
      "otype": 7173,
      "payer": 7174,
      "Ġaccompanied": 7175,
      "Ġbrazil": 7176,
      "Ġbeijing": 7177,
      "pse": 7178,
      "piece": 7179,
      "worth": 7180,
      "Ġsir": 7181,
      "Ġsore": 7182,
      "Ġaesthe": 7183,
      "ala": 7184,
      "Ġbuc": 7185,
      "Ġgem": 7186,
      "Ġhou": 7187,
      "rot": 7188,
      "Ġnose": 7189,
      "ada": 7190,
      "asher": 7191,
      "Ġalleg": 7192,
      "Ġshine": 7193,
      "Ġshout": 7194,
      "Ġspouse": 7195,
      "Ġcompan": 7196,
      "Ġnewb": 7197,
      "Ġtray": 7198,
      "Ġassure": 7199,
      "Ġinstantly": 7200,
      "Ġlearner": 7201,
      "lied": 7202,
      "Ġprocessor": 7203,
      "Ġpointed": 7204,
      "ashed": 7205,
      "Ġelite": 7206,
      "Ġheadquarter": 7207,
      "Ġstatis": 7208,
      "Ġrefuge": 7209,
      "Ġsunny": 7210,
      "Ġoptional": 7211,
      "Ġeste": 7212,
      "Ġcardio": 7213,
      "Ġconditioning": 7214,
      "Ġpackaging": 7215,
      "Ġtaxi": 7216,
      "Ġadmitted": 7217,
      "Ġmagical": 7218,
      "Ġexpecting": 7219,
      "Ġsteal": 7220,
      "Ġviet": 7221,
      "coin": 7222,
      "Ġrepresenting": 7223,
      "Ġfinishing": 7224,
      "Ġtoe": 7225,
      "Ġillustration": 7226,
      "Ġfinest": 7227,
      "Ġconductive": 7228,
      "Ġethic": 7229,
      "Ġcivilian": 7230,
      "Ġelectronics": 7231,
      "Ġharmful": 7232,
      "Ġpuppy": 7233,
      "Ġtunnel": 7234,
      "Ġcrack": 7235,
      "Ġdistinct": 7236,
      "Ġstainless": 7237,
      "Ġdisarmament": 7238,
      "mond": 7239,
      "ince": 7240,
      "Ġpile": 7241,
      "tier": 7242,
      "Ġmild": 7243,
      "ali": 7244,
      "Ġbass": 7245,
      "Ġbored": 7246,
      "Ġdna": 7247,
      "Ġeinstein": 7248,
      "Ġhong": 7249,
      "rain": 7250,
      "Ġliver": 7251,
      "Ġoz": 7252,
      "Ġshipped": 7253,
      "Ġcomputing": 7254,
      "Ġimmer": 7255,
      "Ġinclusive": 7256,
      "inkle": 7257,
      "Ġscary": 7258,
      "Ġscream": 7259,
      "Ġration": 7260,
      "Ġrachel": 7261,
      "Ġpron": 7262,
      "Ġsupplied": 7263,
      "Ġbooth": 7264,
      "Ġgiveaway": 7265,
      "Ġrespective": 7266,
      "Ġintu": 7267,
      "Ġbeloved": 7268,
      "Ġenjoys": 7269,
      "Ġhardly": 7270,
      "Ġcostume": 7271,
      "Ġeliz": 7272,
      "Ġdairy": 7273,
      "Ġlawsuit": 7274,
      "Ġsecondary": 7275,
      "Ġvessel": 7276,
      "Ġbarg": 7277,
      "Ġslide": 7278,
      "Ġaudit": 7279,
      "Ġmailing": 7280,
      "Ġselecting": 7281,
      "Ġinnoc": 7282,
      "Ġcelebrated": 7283,
      "Ġtasty": 7284,
      "Ġrenown": 7285,
      "Ġburden": 7286,
      "Ġmotorcy": 7287,
      "Ġdecoration": 7288,
      "Ġbearing": 7289,
      "Ġteenager": 7290,
      "Ġariz": 7291,
      "Ġboundary": 7292,
      "Ġexcessive": 7293,
      "Ġcherry": 7294,
      "Ġsupreme": 7295,
      "Ġunnecess": 7296,
      "assion": 7297,
      "card": 7298,
      "hi": 7299,
      "lined": 7300,
      "rid": 7301,
      "Ġcub": 7302,
      "tie": 7303,
      "Ġtum": 7304,
      "Ġtrop": 7305,
      "Ġfox": 7306,
      "Ġltd": 7307,
      "Ġdil": 7308,
      "Ġwelf": 7309,
      "Ġgel": 7310,
      "itting": 7311,
      "Ġhorn": 7312,
      "idency": 7313,
      "Ġkong": 7314,
      "Ġarmed": 7315,
      "Ġmanif": 7316,
      "Ġleather": 7317,
      "Ġusb": 7318,
      "iever": 7319,
      "aph": 7320,
      "Ġrecip": 7321,
      "shine": 7322,
      "Ġblast": 7323,
      "inton": 7324,
      "Ġgran": 7325,
      "Ġrelate": 7326,
      "Ġfuneral": 7327,
      "Ġstruck": 7328,
      "rich": 7329,
      "Ġcaution": 7330,
      "Ġhanded": 7331,
      "Ġmoderate": 7332,
      "Ġcurve": 7333,
      "Ġcontinually": 7334,
      "Ġcaptain": 7335,
      "Ġtransit": 7336,
      "Ġcamping": 7337,
      "Ġindividually": 7338,
      "Ġsnake": 7339,
      "Ġpreventing": 7340,
      "Ġseparately": 7341,
      "Ġcertification": 7342,
      "Ġhabitat": 7343,
      "Ġcancel": 7344,
      "Ġcontroller": 7345,
      "Ġhungry": 7346,
      "Ġranked": 7347,
      "Ġoutlook": 7348,
      "Ġgmail": 7349,
      "Ġacceler": 7350,
      "Ġfifty": 7351,
      "Ġlesbian": 7352,
      "Ġloose": 7353,
      "Ġdismiss": 7354,
      "Ġsophistic": 7355,
      "Ġoverseas": 7356,
      "Ġpacific": 7357,
      "Ġextraordinary": 7358,
      "Ġcannabis": 7359,
      "Ġcompanion": 7360,
      "Ġwelfare": 7361,
      "aa": 7362,
      "gical": 7363,
      "pack": 7364,
      "su": 7365,
      "Ġtoll": 7366,
      "Ġduck": 7367,
      "leep": 7368,
      "Ġeve": 7369,
      "ssed": 7370,
      "aded": 7371,
      "amic": 7372,
      "Ġlion": 7373,
      "metic": 7374,
      "Ġshit": 7375,
      "Ġspam": 7376,
      "esp": 7377,
      "Ġcomply": 7378,
      "arest": 7379,
      "Ġknife": 7380,
      "Ġroc": 7381,
      "Ġstudied": 7382,
      "Ġstranger": 7383,
      "erman": 7384,
      "Ġpolish": 7385,
      "ached": 7386,
      "phy": 7387,
      "Ġanybody": 7388,
      "Ġboom": 7389,
      "Ġremained": 7390,
      "Ġremodel": 7391,
      "Ġeasiest": 7392,
      "Ġhealthier": 7393,
      "Ġmetro": 7394,
      "Ġapolog": 7395,
      "Ġexplo": 7396,
      "Ġexplos": 7397,
      "Ġsupervisor": 7398,
      "Ġpatience": 7399,
      "Ġcommunic": 7400,
      "Ġsquad": 7401,
      "Ġcooling": 7402,
      "Ġtrusted": 7403,
      "Ġembed": 7404,
      "Ġdedication": 7405,
      "Ġjohnson": 7406,
      "Ġinvestigate": 7407,
      "Ġhallow": 7408,
      "Ġobserve": 7409,
      "Ġbutterfly": 7410,
      "Ġfemin": 7411,
      "Ġadoption": 7412,
      "Ġthrowing": 7413,
      "ombie": 7414,
      "Ġwhereas": 7415,
      "market": 7416,
      "Ġdisclosure": 7417,
      "Ġmichigan": 7418,
      "Ġfurth": 7419,
      "Ġsarah": 7420,
      "Ġfrozen": 7421,
      "Ġbureau": 7422,
      "Ġpupil": 7423,
      "Ġaluminum": 7424,
      "Ġhouston": 7425,
      "Ġbargain": 7426,
      "etic": 7427,
      "gent": 7428,
      "har": 7429,
      "pa": 7430,
      "Ġsour": 7431,
      "Ġmud": 7432,
      "Ġtub": 7433,
      "Ġfence": 7434,
      "Ġwider": 7435,
      "Ġnas": 7436,
      "Ġinh": 7437,
      "Ġstew": 7438,
      "Ġstability": 7439,
      "Ġstadium": 7440,
      "Ġproportion": 7441,
      "ulf": 7442,
      "mester": 7443,
      "Ġenquiry": 7444,
      "Ġant": 7445,
      "esy": 7446,
      "Ġcompelling": 7447,
      "Ġcompassion": 7448,
      "Ġclue": 7449,
      "Ġpoison": 7450,
      "Ġsap": 7451,
      "iev": 7452,
      "Ġinclusion": 7453,
      "Ġorth": 7454,
      "Ġwhat": 7455,
      "Ġsyria": 7456,
      "Ġflaw": 7457,
      "Ġstitch": 7458,
      "Ġplacement": 7459,
      "Ġasleep": 7460,
      "Ġrequiring": 7461,
      "Ġoffense": 7462,
      "Ġdetect": 7463,
      "Ġcharles": 7464,
      "Ġhandful": 7465,
      "Ġgenerous": 7466,
      "Ġsigning": 7467,
      "Ġabund": 7468,
      "Ġprotocol": 7469,
      "Ġkinda": 7470,
      "Ġtreating": 7471,
      "Ġbitter": 7472,
      "aimed": 7473,
      "Ġinstalling": 7474,
      "Ġdonor": 7475,
      "Ġtouched": 7476,
      "Ġbrian": 7477,
      "Ġidentification": 7478,
      "Ġreferring": 7479,
      "Ġexecution": 7480,
      "Ġarranged": 7481,
      "Ġprogressive": 7482,
      "Ġrespondent": 7483,
      "Ġhonored": 7484,
      "Ġpalace": 7485,
      "Ġloading": 7486,
      "Ġcatching": 7487,
      "Ġfortunately": 7488,
      "Ġutilize": 7489,
      "Ġadjusted": 7490,
      "Ġintelligent": 7491,
      "Ġpuzzle": 7492,
      "Ġseminar": 7493,
      "Ġiii": 7494,
      "Ġpillow": 7495,
      "Ġsixt": 7496,
      "Ġblanket": 7497,
      "Ġordinary": 7498,
      "Ġremarkable": 7499,
      "Ġtestim": 7500,
      "Ġantibiotic": 7501,
      "Ġtaylor": 7502,
      "Ġexcitement": 7503,
      "Ġhassle": 7504,
      "Ġelizabeth": 7505,
      "Ġmanifest": 7506,
      "gate": 7507,
      "ji": 7508,
      "jo": 7509,
      "och": 7510,
      "oir": 7511,
      "Ġcc": 7512,
      "ena": 7513,
      "enary": 7514,
      "ortive": 7515,
      "Ġford": 7516,
      "Ġfib": 7517,
      "Ġlith": 7518,
      "Ġbb": 7519,
      "Ġbinary": 7520,
      "Ġdick": 7521,
      "itude": 7522,
      "Ġreverse": 7523,
      "cest": 7524,
      "Ġnit": 7525,
      "Ġstove": 7526,
      "Ġshipment": 7527,
      "Ġjon": 7528,
      "Ġjane": 7529,
      "Ġpole": 7530,
      "Ġmeg": 7531,
      "Ġheel": 7532,
      "Ġscored": 7533,
      "Ġscrap": 7534,
      "Ġbuzz": 7535,
      "Ġhazard": 7536,
      "Ġsupportive": 7537,
      "Ġsyd": 7538,
      "Ġthankful": 7539,
      "Ġasc": 7540,
      "Ġsincer": 7541,
      "Ġnotion": 7542,
      "Ġmodified": 7543,
      "Ġdeputy": 7544,
      "Ġcomplement": 7545,
      "Ġswift": 7546,
      "Ġinvitation": 7547,
      "Ġbitcoin": 7548,
      "Ġoperated": 7549,
      "Ġforex": 7550,
      "Ġaccordingly": 7551,
      "Ġautumn": 7552,
      "Ġpatio": 7553,
      "Ġawful": 7554,
      "Ġpopularity": 7555,
      "Ġsilent": 7556,
      "Ġpenny": 7557,
      "Ġaustin": 7558,
      "Ġcrossing": 7559,
      "Ġgrandm": 7560,
      "Ġprofitable": 7561,
      "Ġjudgment": 7562,
      "ethe": 7563,
      "Ġresponded": 7564,
      "Ġenhanced": 7565,
      "Ġsustainability": 7566,
      "Ġfiber": 7567,
      "Ġgathered": 7568,
      "Ġshuttle": 7569,
      "Ġincorrect": 7570,
      "Ġliberty": 7571,
      "Ġtuned": 7572,
      "Ġcooper": 7573,
      "Ġarise": 7574,
      "Ġspoken": 7575,
      "Ġradical": 7576,
      "Ġdwelling": 7577,
      "Ġlegislative": 7578,
      "Ġhacker": 7579,
      "Ġembarrass": 7580,
      "Ġmunic": 7581,
      "Ġrefriger": 7582,
      "Ġbubble": 7583,
      "Ġlobby": 7584,
      "Ġphilippine": 7585,
      "Ġrenowned": 7586,
      "Ġmotorcycle": 7587,
      "Ġarizona": 7588,
      "bra": 7589,
      "iary": 7590,
      "xy": 7591,
      "Ġsli": 7592,
      "Ġcb": 7593,
      "Ġcoo": 7594,
      "Ġaunt": 7595,
      "Ġfare": 7596,
      "Ġfame": 7597,
      "Ġfucking": 7598,
      "Ġbap": 7599,
      "store": 7600,
      "Ġgum": 7601,
      "Ġebook": 7602,
      "elve": 7603,
      "Ġinse": 7604,
      "raine": 7605,
      "opter": 7606,
      "Ġrou": 7607,
      "ounce": 7608,
      "Ġkay": 7609,
      "Ġworn": 7610,
      "uten": 7611,
      "Ġanch": 7612,
      "Ġcomprise": 7613,
      "Ġsail": 7614,
      "spot": 7615,
      "pled": 7616,
      "Ġdisk": 7617,
      "Ġfeb": 7618,
      "Ġmarsh": 7619,
      "Ġblu": 7620,
      "Ġtwelve": 7621,
      "Ġcolored": 7622,
      "pton": 7623,
      "Ġbacked": 7624,
      "Ġkevin": 7625,
      "Ġreloc": 7626,
      "angle": 7627,
      "Ġboast": 7628,
      "Ġskirt": 7629,
      "Ġintend": 7630,
      "Ġorganize": 7631,
      "Ġuniform": 7632,
      "Ġconfusion": 7633,
      "Ġlegacy": 7634,
      "Ġsunshine": 7635,
      "Ġcouch": 7636,
      "Ġtraveled": 7637,
      "Ġcement": 7638,
      "Ġtaxpayer": 7639,
      "Ġcopper": 7640,
      "Ġthrilled": 7641,
      "Ġnavy": 7642,
      "Ġiv": 7643,
      "Ġdonate": 7644,
      "Ġclimb": 7645,
      "Ġurge": 7646,
      "ictionary": 7647,
      "Ġwooden": 7648,
      "Ġsticker": 7649,
      "Ġtreas": 7650,
      "Ġrobust": 7651,
      "Ġcommissioner": 7652,
      "heim": 7653,
      "Ġdistributed": 7654,
      "Ġthrown": 7655,
      "Ġefficiently": 7656,
      "Ġoptimal": 7657,
      "Ġvoted": 7658,
      "Ġlaughing": 7659,
      "Ġmentor": 7660,
      "Ġprescription": 7661,
      "Ġstakeholder": 7662,
      "Ġdeparture": 7663,
      "Ġdiscrimination": 7664,
      "Ġsubsequent": 7665,
      "Ġsculpt": 7666,
      "etheless": 7667,
      "bid": 7668,
      "bage": 7669,
      "gor": 7670,
      "min": 7671,
      "sd": 7672,
      "sin": 7673,
      "uracy": 7674,
      "Ġcord": 7675,
      "Ġcass": 7676,
      "Ġpear": 7677,
      "Ġpork": 7678,
      "tique": 7679,
      "Ġlying": 7680,
      "Ġbust": 7681,
      "Ġbib": 7682,
      "Ġbanned": 7683,
      "Ġdutch": 7684,
      "Ġwolf": 7685,
      "Ġgd": 7686,
      "Ġesp": 7687,
      "Ġhood": 7688,
      "cel": 7689,
      "section": 7690,
      "ationally": 7691,
      "vert": 7692,
      "Ġthumb": 7693,
      "ffin": 7694,
      "Ġya": 7695,
      "udi": 7696,
      "Ġlew": 7697,
      "abling": 7698,
      "Ġcozy": 7699,
      "sored": 7700,
      "Ġheater": 7701,
      "Ġsco": 7702,
      "otherapy": 7703,
      "Ġrape": 7704,
      "Ġcaffe": 7705,
      "Ġrespected": 7706,
      "Ġtodd": 7707,
      "Ġinternationally": 7708,
      "Ġzombie": 7709,
      "Ġrefused": 7710,
      "Ġnonetheless": 7711,
      "Ġshopper": 7712,
      "Ġharvest": 7713,
      "Ġcanvas": 7714,
      "Ġtemple": 7715,
      "Ġfastest": 7716,
      "Ġfunded": 7717,
      "Ġcatalog": 7718,
      "making": 7719,
      "Ġmeasured": 7720,
      "Ġmiami": 7721,
      "Ġstressful": 7722,
      "Ġseparated": 7723,
      "Ġspeaks": 7724,
      "ascular": 7725,
      "Ġneglect": 7726,
      "Ġacquired": 7727,
      "Ġoccasionally": 7728,
      "Ġempire": 7729,
      "Ġisraeli": 7730,
      "Ġterrorism": 7731,
      "Ġindicates": 7732,
      "Ġsweat": 7733,
      "Ġodds": 7734,
      "Ġoxy": 7735,
      "Ġrehabil": 7736,
      "Ġsmartphones": 7737,
      "Ġfoam": 7738,
      "Ġevaluate": 7739,
      "Ġouter": 7740,
      "Ġwrapped": 7741,
      "Ġbucket": 7742,
      "Ġhalloween": 7743,
      "aired": 7744,
      "bu": 7745,
      "giver": 7746,
      "hear": 7747,
      "hand": 7748,
      "oa": 7749,
      "uana": 7750,
      "Ġsoy": 7751,
      "Ġcant": 7752,
      "Ġpam": 7753,
      "Ġmd": 7754,
      "Ġfighter": 7755,
      "Ġbail": 7756,
      "Ġbump": 7757,
      "Ġwrest": 7758,
      "Ġreun": 7759,
      "Ġinduc": 7760,
      "Ġinequ": 7761,
      "Ġstan": 7762,
      "Ġstag": 7763,
      "olen": 7764,
      "olis": 7765,
      "Ġchew": 7766,
      "Ġspy": 7767,
      "Ġanonym": 7768,
      "Ġunt": 7769,
      "Ġpreview": 7770,
      "Ġartistic": 7771,
      "asty": 7772,
      "Ġnewest": 7773,
      "space": 7774,
      "Ġrope": 7775,
      "Ġscal": 7776,
      "rowave": 7777,
      "Ġsyrup": 7778,
      "Ġflame": 7779,
      "ermore": 7780,
      "Ġinsert": 7781,
      "phin": 7782,
      "Ġcaregiver": 7783,
      "Ġsurgical": 7784,
      "Ġcharm": 7785,
      "Ġmeantime": 7786,
      "Ġretrie": 7787,
      "Ġconfusing": 7788,
      "Ġspecialty": 7789,
      "Ġheadache": 7790,
      "duate": 7791,
      "Ġequality": 7792,
      "Ġpractically": 7793,
      "Ġexclus": 7794,
      "Ġbarn": 7795,
      "Ġsunset": 7796,
      "Ġeconomist": 7797,
      "Ġsales": 7798,
      "Ġupdating": 7799,
      "Ġremembered": 7800,
      "Ġmicrowave": 7801,
      "Ġepid": 7802,
      "Ġtransparen": 7803,
      "Ġpanic": 7804,
      "forward": 7805,
      "Ġcycling": 7806,
      "Ġviolent": 7807,
      "graduate": 7808,
      "Ġdurable": 7809,
      "Ġpatri": 7810,
      "Ġresolved": 7811,
      "Ġcalculated": 7812,
      "Ġlyric": 7813,
      "Ġcriticism": 7814,
      "print": 7815,
      "Ġnursery": 7816,
      "Ġwikip": 7817,
      "guard": 7818,
      "Ġanticipated": 7819,
      "Ġmutual": 7820,
      "Ġsolely": 7821,
      "Ġkeywords": 7822,
      "Ġelderly": 7823,
      "Ġvaccine": 7824,
      "iatric": 7825,
      "Ġcosmetic": 7826,
      "Ġembodiment": 7827,
      "Ġunnecessary": 7828,
      "Ġsophisticated": 7829,
      "Ġfurthermore": 7830,
      "Ġtransparency": 7831,
      "bted": 7832,
      "nut": 7833,
      "uous": 7834,
      "wear": 7835,
      "Ġeric": 7836,
      "Ġpunk": 7837,
      "Ġaz": 7838,
      "Ġaren": 7839,
      "Ġtribe": 7840,
      "ors": 7841,
      "Ġdare": 7842,
      "Ġdos": 7843,
      "Ġdictionary": 7844,
      "ito": 7845,
      "Ġhoc": 7846,
      "Ġnfl": 7847,
      "Ġug": 7848,
      "Ġuph": 7849,
      "isp": 7850,
      "Ġconsp": 7851,
      "Ġruling": 7852,
      "mes": 7853,
      "Ġenabled": 7854,
      "Ġancest": 7855,
      "Ġpointing": 7856,
      "Ġquest": 7857,
      "Ġworkforce": 7858,
      "reaking": 7859,
      "netic": 7860,
      "Ġpriced": 7861,
      "Ġaccuracy": 7862,
      "Ġassumption": 7863,
      "Ġvisa": 7864,
      "iano": 7865,
      "athon": 7866,
      "Ġintensity": 7867,
      "Ġconfused": 7868,
      "Ġdistingu": 7869,
      "Ġoverd": 7870,
      "tisan": 7871,
      "Ġsits": 7872,
      "Ġstephen": 7873,
      "Ġexcel": 7874,
      "Ġtheft": 7875,
      "Ġharsh": 7876,
      "Ġclosest": 7877,
      "Ġfired": 7878,
      "Ġfails": 7879,
      "Ġimagination": 7880,
      "Ġconsistency": 7881,
      "Ġhunter": 7882,
      "Ġmere": 7883,
      "Ġresponding": 7884,
      "Ġciv": 7885,
      "Ġgaining": 7886,
      "Ġstraightforward": 7887,
      "Ġradiation": 7888,
      "Ġseattle": 7889,
      "inois": 7890,
      "Ġdropping": 7891,
      "Ġcoastal": 7892,
      "Ġuncomfort": 7893,
      "Ġignored": 7894,
      "Ġconventional": 7895,
      "Ġorientation": 7896,
      "Ġagricultural": 7897,
      "Ġinvolvement": 7898,
      "Ġfluid": 7899,
      "Ġrecreation": 7900,
      "Ġnowhere": 7901,
      "Ġmoreover": 7902,
      "Ġebay": 7903,
      "Ġjacob": 7904,
      "Ġsweden": 7905,
      "Ġsponsored": 7906,
      "Ġprivilege": 7907,
      "Ġuniversal": 7908,
      "Ġcognitive": 7909,
      "Ġaesthetic": 7910,
      "Ġtropical": 7911,
      "no": 7912,
      "ptive": 7913,
      "tv": 7914,
      "utical": 7915,
      "inery": 7916,
      "Ġfought": 7917,
      "arn": 7918,
      "Ġlam": 7919,
      "Ġlind": 7920,
      "Ġintimate": 7921,
      "ids": 7922,
      "raint": 7923,
      "Ġchunk": 7924,
      "terior": 7925,
      "Ġsus": 7926,
      "anted": 7927,
      "uset": 7928,
      "Ġtiming": 7929,
      "allow": 7930,
      "Ġadobe": 7931,
      "Ġclinton": 7932,
      "Ġpreced": 7933,
      "Ġhelic": 7934,
      "Ġmarij": 7935,
      "Ġbee": 7936,
      "ithm": 7937,
      "Ġbride": 7938,
      "Ġaging": 7939,
      "Ġmonument": 7940,
      "Ġregret": 7941,
      "Ġspecify": 7942,
      "Ġfrustration": 7943,
      "Ġglory": 7944,
      "Ġunderlying": 7945,
      "Ġont": 7946,
      "Ġpaypal": 7947,
      "Ġobes": 7948,
      "Ġdried": 7949,
      "Ġconsiderable": 7950,
      "Ġcontacted": 7951,
      "Ġoperates": 7952,
      "Ġminded": 7953,
      "Ġseasonal": 7954,
      "Ġkeyboard": 7955,
      "Ġsupervision": 7956,
      "Ġpassport": 7957,
      "Ġmidnight": 7958,
      "Ġversatile": 7959,
      "Ġworthy": 7960,
      "Ġterrace": 7961,
      "Ġnecessity": 7962,
      "Ġanimation": 7963,
      "Ġepic": 7964,
      "Ġmixing": 7965,
      "Ġexplaining": 7966,
      "Ġchemistry": 7967,
      "Ġwidth": 7968,
      "Ġexpanded": 7969,
      "Ġcollaborative": 7970,
      "Ġhomem": 7971,
      "Ġdiego": 7972,
      "Ġobtaining": 7973,
      "Ġsuspension": 7974,
      "Ġpunishment": 7975,
      "Ġpursuit": 7976,
      "Ġcaptured": 7977,
      "Ġattracted": 7978,
      "Ġplugin": 7979,
      "Ġrailway": 7980,
      "Ġimmigrant": 7981,
      "Ġsacrif": 7982,
      "Ġpossession": 7983,
      "Ġoverlook": 7984,
      "Ġdestroyed": 7985,
      "Ġwardrobe": 7986,
      "Ġsteady": 7987,
      "Ġreliability": 7988,
      "Ġphenomenon": 7989,
      "Ġpoetry": 7990,
      "Ġflavour": 7991,
      "Ġsydney": 7992,
      "Ġarena": 7993,
      "iance": 7994,
      "pm": 7995,
      "Ġsib": 7996,
      "anth": 7997,
      "orious": 7998,
      "Ġfel": 7999,
      "Ġbatt": 8000,
      "Ġdrow": 8001,
      "Ġdude": 8002,
      "Ġwale": 8003,
      "lest": 8004,
      "Ġgreek": 8005,
      "ita": 8006,
      "itzer": 8007,
      "Ġnu": 8008,
      "acco": 8009,
      "Ġsemester": 8010,
      "Ġshy": 8011,
      "Ġshield": 8012,
      "Ġtitled": 8013,
      "occ": 8014,
      "Ġjur": 8015,
      "emark": 8016,
      "ella": 8017,
      "Ġperpet": 8018,
      "Ġunlim": 8019,
      "Ġpoem": 8020,
      "ogen": 8021,
      "Ġarrow": 8022,
      "Ġincom": 8023,
      "soever": 8024,
      "Ġburied": 8025,
      "reach": 8026,
      "ifer": 8027,
      "Ġguided": 8028,
      "Ġminnes": 8029,
      "achuset": 8030,
      "Ġmetric": 8031,
      "Ġdelivers": 8032,
      "Ġorganizing": 8033,
      "Ġfarming": 8034,
      "Ġconcluded": 8035,
      "lands": 8036,
      "Ġresulted": 8037,
      "Ġvaried": 8038,
      "Ġannually": 8039,
      "Ġlegally": 8040,
      "Ġpassage": 8041,
      "scent": 8042,
      "Ġharris": 8043,
      "Ġcraw": 8044,
      "Ġessentially": 8045,
      "Ġtempt": 8046,
      "Ġlogic": 8047,
      "Ġmassachuset": 8048,
      "Ġhiking": 8049,
      "Ġfederation": 8050,
      "Ġpenn": 8051,
      "Ġluckily": 8052,
      "Ġrenting": 8053,
      "Ġsanction": 8054,
      "Ġmanufactured": 8055,
      "Ġdemanding": 8056,
      "Ġbaker": 8057,
      "Ġmyth": 8058,
      "Ġattempted": 8059,
      "Ġgraduated": 8060,
      "Ġreminded": 8061,
      "Ġsurprisingly": 8062,
      "Ġpushed": 8063,
      "Ġdevast": 8064,
      "Ġmechanical": 8065,
      "Ġignor": 8066,
      "Ġpromotional": 8067,
      "Ġincorporated": 8068,
      "Ġrhy": 8069,
      "Ġwiki": 8070,
      "Ġevolved": 8071,
      "Ġdivine": 8072,
      "Ġsequence": 8073,
      "Ġcatering": 8074,
      "Ġnigeria": 8075,
      "Ġrejected": 8076,
      "Ġadvertisement": 8077,
      "Ġtremendous": 8078,
      "Ġmiracle": 8079,
      "Ġstatistical": 8080,
      "Ġgrandmother": 8081,
      "Ġexclusively": 8082,
      "Ġwikipedia": 8083,
      "Ġobesity": 8084,
      "Ġhomemade": 8085,
      "Ġunlimited": 8086,
      "fc": 8087,
      "fy": 8088,
      "han": 8089,
      "ira": 8090,
      "ko": 8091,
      "net": 8092,
      "part": 8093,
      "site": 8094,
      "xual": 8095,
      "Ġcree": 8096,
      "tious": 8097,
      "Ġmama": 8098,
      "Ġfate": 8099,
      "Ġlg": 8100,
      "Ġbm": 8101,
      "itan": 8102,
      "Ġhilton": 8103,
      "Ġproc": 8104,
      "Ġprocl": 8105,
      "Ġchill": 8106,
      "urt": 8107,
      "Ġoc": 8108,
      "Ġoreg": 8109,
      "Ġtied": 8110,
      "Ġdive": 8111,
      "Ġmanip": 8112,
      "sole": 8113,
      "Ġinterpre": 8114,
      "Ġrecru": 8115,
      "Ġmari": 8116,
      "Ġscared": 8117,
      "Ġwhit": 8118,
      "Ġbeing": 8119,
      "Ġconsume": 8120,
      "Ġbron": 8121,
      "Ġgrill": 8122,
      "Ġleap": 8123,
      "Ġsoap": 8124,
      "Ġmodify": 8125,
      "Ġcurtain": 8126,
      "Ġdeliber": 8127,
      "Ġsubtle": 8128,
      "Ġdavis": 8129,
      "attered": 8130,
      "Ġtransc": 8131,
      "Ġseemingly": 8132,
      "Ġgreg": 8133,
      "Ġaffir": 8134,
      "Ġdemo": 8135,
      "Ġeducate": 8136,
      "Ġsla": 8137,
      "Ġwondered": 8138,
      "screen": 8139,
      "Ġencl": 8140,
      "Ġautonom": 8141,
      "Ġfunctioning": 8142,
      "Ġcontinuous": 8143,
      "Ġapproaching": 8144,
      "Ġsquee": 8145,
      "Ġadminister": 8146,
      "Ġdestruction": 8147,
      "Ġrefers": 8148,
      "Ġcontributing": 8149,
      "Ġbanner": 8150,
      "Ġcomplexity": 8151,
      "Ġallergy": 8152,
      "kins": 8153,
      "Ġestablishing": 8154,
      "Ġresistant": 8155,
      "Ġcomplication": 8156,
      "Ġvibrant": 8157,
      "Ġmysterious": 8158,
      "Ġmexican": 8159,
      "Ġaggressive": 8160,
      "Ġvictoria": 8161,
      "Ġghost": 8162,
      "Ġpharmace": 8163,
      "Ġfrustrated": 8164,
      "Ġfloating": 8165,
      "Ġtrademark": 8166,
      "Ġassuming": 8167,
      "Ġegypt": 8168,
      "Ġneutral": 8169,
      "Ġmeasuring": 8170,
      "Ġconjunction": 8171,
      "Ġannoying": 8172,
      "Ġuncertainty": 8173,
      "Ġsyndrome": 8174,
      "Ġinnocent": 8175,
      "Ġrecipient": 8176,
      "Ġuncomfortable": 8177,
      "Ġhelicopter": 8178,
      "Ġmarijuana": 8179,
      "Ġmassachusetts": 8180,
      "Ġoregon": 8181,
      "cut": 8182,
      "name": 8183,
      "Ġcuri": 8184,
      "Ġpitt": 8185,
      "Ġpacking": 8186,
      "tial": 8187,
      "Ġmb": 8188,
      "Ġmask": 8189,
      "Ġfisher": 8190,
      "Ġgly": 8191,
      "Ġeag": 8192,
      "Ġhart": 8193,
      "icity": 8194,
      "Ġstroll": 8195,
      "cho": 8196,
      "ched": 8197,
      "Ġthemed": 8198,
      "Ġchron": 8199,
      "Ġvanc": 8200,
      "Ġrome": 8201,
      "Ġyr": 8202,
      "Ġspar": 8203,
      "Ġjr": 8204,
      "Ġcla": 8205,
      "Ġarbit": 8206,
      "Ġquot": 8207,
      "Ġknock": 8208,
      "Ġtrait": 8209,
      "sheet": 8210,
      "osystem": 8211,
      "ateral": 8212,
      "Ġflip": 8213,
      "Ġfork": 8214,
      "Ġhappier": 8215,
      "Ġfreeze": 8216,
      "Ġoffset": 8217,
      "Ġcharming": 8218,
      "Ġmetre": 8219,
      "Ġintake": 8220,
      "Ġprojected": 8221,
      "Ġtrim": 8222,
      "Ġsuck": 8223,
      "Ġwaterfall": 8224,
      "Ġmush": 8225,
      "Ġexplicit": 8226,
      "Ġexploration": 8227,
      "Ġdistur": 8228,
      "obile": 8229,
      "Ġperformer": 8230,
      "Ġeducated": 8231,
      "Ġeducator": 8232,
      "beat": 8233,
      "Ġshortage": 8234,
      "Ġbreakdown": 8235,
      "Ġnicely": 8236,
      "Ġsalon": 8237,
      "Ġtemp": 8238,
      "Ġstepped": 8239,
      "Ġscreening": 8240,
      "Ġillinois": 8241,
      "Ġmatching": 8242,
      "istics": 8243,
      "umbing": 8244,
      "Ġsenator": 8245,
      "Ġargu": 8246,
      "Ġelementary": 8247,
      "Ġtransferred": 8248,
      "Ġpsychological": 8249,
      "Ġcongreg": 8250,
      "Ġrenewal": 8251,
      "Ġcoordinator": 8252,
      "Ġtailored": 8253,
      "Ġincorporate": 8254,
      "Ġregulator": 8255,
      "Ġcancelled": 8256,
      "Ġfacilit": 8257,
      "Ġacknowled": 8258,
      "Ġdelegate": 8259,
      "Ġtobacco": 8260,
      "Ġcompatible": 8261,
      "Ġridiculous": 8262,
      "Ġpirate": 8263,
      "Ġesteem": 8264,
      "Ġontario": 8265,
      "Ġminnesota": 8266,
      "Ġpharmaceutical": 8267,
      "eve": 8268,
      "iac": 8269,
      "rh": 8270,
      "vascular": 8271,
      "win": 8272,
      "Ġcin": 8273,
      "enix": 8274,
      "Ġbn": 8275,
      "Ġnether": 8276,
      "Ġnode": 8277,
      "Ġinqu": 8278,
      "isy": 8279,
      "isely": 8280,
      "Ġprosper": 8281,
      "adel": 8282,
      "Ġthrew": 8283,
      "Ġchase": 8284,
      "acc": 8285,
      "Ġexterior": 8286,
      "Ġalgor": 8287,
      "Ġrf": 8288,
      "Ġrally": 8289,
      "quer": 8290,
      "Ġkelly": 8291,
      "Ġovers": 8292,
      "Ġyah": 8293,
      "andal": 8294,
      "Ġspell": 8295,
      "Ġspider": 8296,
      "ticut": 8297,
      "Ġcompiled": 8298,
      "Ġclay": 8299,
      "person": 8300,
      "Ġsafer": 8301,
      "Ġserial": 8302,
      "Ġmarry": 8303,
      "Ġamp": 8304,
      "lla": 8305,
      "Ġwhale": 8306,
      "Ġconsol": 8307,
      "Ġbackpack": 8308,
      "Ġexped": 8309,
      "Ġindication": 8310,
      "Ġspecially": 8311,
      "Ġouts": 8312,
      "Ġoutline": 8313,
      "Ġsock": 8314,
      "Ġnoon": 8315,
      "Ġcorp": 8316,
      "Ġcorruption": 8317,
      "Ġprovince": 8318,
      "Ġtechnically": 8319,
      "Ġtechnological": 8320,
      "Ġwarned": 8321,
      "Ġclassical": 8322,
      "ommy": 8323,
      "icycle": 8324,
      "Ġbrave": 8325,
      "Ġcentered": 8326,
      "Ġbranding": 8327,
      "Ġprincess": 8328,
      "Ġrolled": 8329,
      "Ġinvestigator": 8330,
      "Ġlicence": 8331,
      "Ġviral": 8332,
      "Ġpulling": 8333,
      "Ġthreatened": 8334,
      "Ġattendee": 8335,
      "Ġprecise": 8336,
      "Ġrebel": 8337,
      "Ġmelan": 8338,
      "Ġathe": 8339,
      "Ġecosystem": 8340,
      "Ġdeclared": 8341,
      "Ġattachment": 8342,
      "Ġtricky": 8343,
      "Ġdemonstrated": 8344,
      "Ġmatth": 8345,
      "Ġdiscussing": 8346,
      "Ġadvocacy": 8347,
      "Ġconvinced": 8348,
      "Ġdeployment": 8349,
      "Ġatlanta": 8350,
      "Ġthrive": 8351,
      "donald": 8352,
      "Ġfreelance": 8353,
      "Ġcinema": 8354,
      "Ġabandoned": 8355,
      "Ġorchest": 8356,
      "Ġfundraising": 8357,
      "Ġgeorgia": 8358,
      "Ġthroat": 8359,
      "Ġwhatsoever": 8360,
      "Ġanchor": 8361,
      "Ġcaffeine": 8362,
      "Ġeagle": 8363,
      "bar": 8364,
      "bag": 8365,
      "fter": 8366,
      "iro": 8367,
      "pany": 8368,
      "stick": 8369,
      "Ġsd": 8370,
      "Ġsip": 8371,
      "Ġcp": 8372,
      "Ġcited": 8373,
      "Ġay": 8374,
      "orer": 8375,
      "Ġfm": 8376,
      "Ġlodge": 8377,
      "Ġdirt": 8378,
      "lec": 8379,
      "ouver": 8380,
      "Ġgut": 8381,
      "Ġstolen": 8382,
      "Ġconsole": 8383,
      "Ġlitig": 8384,
      "Ġrat": 8385,
      "Ġranch": 8386,
      "Ġseating": 8387,
      "Ġseger": 8388,
      "Ġkent": 8389,
      "Ġkaren": 8390,
      "Ġsuited": 8391,
      "Ġshorter": 8392,
      "Ġspoon": 8393,
      "Ġdial": 8394,
      "Ġpoker": 8395,
      "Ġmanually": 8396,
      "Ġcole": 8397,
      "cession": 8398,
      "Ġmarvel": 8399,
      "Ġmarathon": 8400,
      "Ġbackyard": 8401,
      "Ġmonetary": 8402,
      "Ġpresidency": 8403,
      "Ġedu": 8404,
      "Ġrespir": 8405,
      "Ġintent": 8406,
      "nessee": 8407,
      "Ġdrought": 8408,
      "Ġfreely": 8409,
      "Ġconfid": 8410,
      "Ġinvoice": 8411,
      "Ġpublicly": 8412,
      "Ġvest": 8413,
      "Ġrival": 8414,
      "Ġmorgan": 8415,
      "Ġclearing": 8416,
      "Ġsalv": 8417,
      "Ġaddressing": 8418,
      "Ġthrill": 8419,
      "Ġtennessee": 8420,
      "Ġprioriti": 8421,
      "Ġtransparent": 8422,
      "Ġhorrible": 8423,
      "Ġbasement": 8424,
      "Ġmanufacture": 8425,
      "Ġdeduc": 8426,
      "Ġburst": 8427,
      "Ġburger": 8428,
      "Ġpalest": 8429,
      "Ġdressing": 8430,
      "Ġsatisfy": 8431,
      "Ġreminds": 8432,
      "Ġdemonst": 8433,
      "Ġgallon": 8434,
      "Ġastron": 8435,
      "Ġdiagnosed": 8436,
      "Ġpione": 8437,
      "Ġvibe": 8438,
      "Ġdaniel": 8439,
      "Ġencountered": 8440,
      "Ġclarity": 8441,
      "Ġhydro": 8442,
      "Ġrehab": 8443,
      "Ġlatin": 8444,
      "Ġutter": 8445,
      "Ġaccepting": 8446,
      "Ġbunny": 8447,
      "Ġdeleted": 8448,
      "Ġstrawberry": 8449,
      "Ġphoenix": 8450,
      "Ġrebuild": 8451,
      "hyd": 8452,
      "Ġdolphin": 8453,
      "Ġcomprising": 8454,
      "Ġobstacle": 8455,
      "Ġconnecticut": 8456,
      "Ġathletic": 8457,
      "Ġabstract": 8458,
      "Ġharassment": 8459,
      "Ġrefugee": 8460,
      "Ġcardiovascular": 8461,
      "Ġrefrigerator": 8462,
      "Ġoxygen": 8463,
      "Ġvancouver": 8464,
      "Ġalgorithm": 8465,
      "aking": 8466,
      "boy": 8467,
      "cs": 8468,
      "car": 8469,
      "eing": 8470,
      "gie": 8471,
      "itivity": 8472,
      "mont": 8473,
      "ointing": 8474,
      "rus": 8475,
      "uer": 8476,
      "Ġib": 8477,
      "Ġace": 8478,
      "tip": 8479,
      "Ġtin": 8480,
      "orous": 8481,
      "Ġfuck": 8482,
      "Ġlug": 8483,
      "Ġbree": 8484,
      "Ġdict": 8485,
      "Ġwoke": 8486,
      "itality": 8487,
      "Ġhash": 8488,
      "lyn": 8489,
      "Ġprospective": 8490,
      "Ġthief": 8491,
      "Ġconvey": 8492,
      "Ġdeer": 8493,
      "Ġrit": 8494,
      "Ġsewing": 8495,
      "Ġkat": 8496,
      "Ġjess": 8497,
      "Ġplumbing": 8498,
      "Ġclark": 8499,
      "arette": 8500,
      "Ġleverage": 8501,
      "Ġappren": 8502,
      "Ġpeel": 8503,
      "Ġpetition": 8504,
      "Ġtrillion": 8505,
      "Ġjosh": 8506,
      "Ġlocked": 8507,
      "Ġplayground": 8508,
      "aching": 8509,
      "Ġsofa": 8510,
      "Ġcountless": 8511,
      "Ġdesignated": 8512,
      "Ġclever": 8513,
      "Ġskip": 8514,
      "Ġmodest": 8515,
      "Ġgratitude": 8516,
      "Ġorganised": 8517,
      "Ġchecklist": 8518,
      "Ġhumid": 8519,
      "Ġpromising": 8520,
      "Ġreleasing": 8521,
      "Ġexclud": 8522,
      "Ġslice": 8523,
      "Ġmindful": 8524,
      "bean": 8525,
      "itious": 8526,
      "Ġinvested": 8527,
      "Ġamazed": 8528,
      "Ġprofound": 8529,
      "Ġbrad": 8530,
      "Ġbrowsing": 8531,
      "Ġsimilarly": 8532,
      "Ġhospitality": 8533,
      "Ġcandle": 8534,
      "Ġemerged": 8535,
      "Ġargued": 8536,
      "Ġfashioned": 8537,
      "Ġhonour": 8538,
      "Ġaccompany": 8539,
      "iki": 8540,
      "Ġanalyze": 8541,
      "Ġinfluenced": 8542,
      "Ġvolunt": 8543,
      "Ġgraduation": 8544,
      "Ġprecisely": 8545,
      "Ġwidesp": 8546,
      "Ġencouragement": 8547,
      "Ġtagged": 8548,
      "Ġcalcium": 8549,
      "Ġdevoted": 8550,
      "Ġlinux": 8551,
      "Ġdelayed": 8552,
      "Ġscottish": 8553,
      "Ġhydrogen": 8554,
      "Ġmichelle": 8555,
      "Ġislamic": 8556,
      "Ġruin": 8557,
      "Ġdivide": 8558,
      "Ġatlantic": 8559,
      "Ġloyalty": 8560,
      "Ġafterwards": 8561,
      "Ġdelegation": 8562,
      "Ġbinding": 8563,
      "Ġcigarette": 8564,
      "Ġsubstitute": 8565,
      "Ġrehabilitation": 8566,
      "Ġmatthew": 8567,
      "Ġwidespread": 8568,
      "auc": 8569,
      "cow": 8570,
      "gal": 8571,
      "link": 8572,
      "ptic": 8573,
      "power": 8574,
      "Ġpel": 8575,
      "ington": 8576,
      "Ġfu": 8577,
      "Ġbund": 8578,
      "Ġdj": 8579,
      "Ġdod": 8580,
      "Ġdancer": 8581,
      "Ġwipe": 8582,
      "Ġhilar": 8583,
      "Ġhiding": 8584,
      "Ġrevel": 8585,
      "Ġstack": 8586,
      "Ġchuck": 8587,
      "Ġlily": 8588,
      "Ġket": 8589,
      "Ġosc": 8590,
      "Ġenabling": 8591,
      "usal": 8592,
      "Ġtier": 8593,
      "ease": 8594,
      "Ġgosp": 8595,
      "ghan": 8596,
      "Ġsaudi": 8597,
      "Ġcoating": 8598,
      "Ġinterval": 8599,
      "Ġfeas": 8600,
      "Ġcommod": 8601,
      "Ġhaul": 8602,
      "Ġaccum": 8603,
      "Ġoffensive": 8604,
      "ricane": 8605,
      "Ġmarketer": 8606,
      "Ġmetab": 8607,
      "Ġoldest": 8608,
      "Ġinfected": 8609,
      "Ġrestoration": 8610,
      "Ġclassified": 8611,
      "consin": 8612,
      "Ġkindness": 8613,
      "Ġfiling": 8614,
      "Ġlightweight": 8615,
      "Ġdrawer": 8616,
      "Ġbeginner": 8617,
      "Ġversus": 8618,
      "Ġbadly": 8619,
      "tified": 8620,
      "Ġchallenged": 8621,
      "ipper": 8622,
      "Ġreceives": 8623,
      "Ġstrap": 8624,
      "apping": 8625,
      "Ġsilly": 8626,
      "Ġclimbing": 8627,
      "Ġsporting": 8628,
      "Ġdescribing": 8629,
      "Ġhunger": 8630,
      "Ġintroducing": 8631,
      "Ġstructured": 8632,
      "Ġsurvivor": 8633,
      "Ġhurricane": 8634,
      "Ġappointed": 8635,
      "Ġbrownie": 8636,
      "Ġreveals": 8637,
      "Ġsmoker": 8638,
      "Ġstreaming": 8639,
      "Ġoccupation": 8640,
      "Ġappealing": 8641,
      "Ġrubber": 8642,
      "Ġcoordinate": 8643,
      "Ġwisconsin": 8644,
      "Ġracial": 8645,
      "Ġpantry": 8646,
      "Ġchaos": 8647,
      "Ġcomposition": 8648,
      "Ġprosecutor": 8649,
      "Ġcompromise": 8650,
      "Ġsurgeon": 8651,
      "Ġintriguing": 8652,
      "Ġdashboard": 8653,
      "Ġheadquarters": 8654,
      "Ġinequality": 8655,
      "Ġnetherlands": 8656,
      "Ġapprentice": 8657,
      "Ġgospel": 8658,
      "burn": 8659,
      "mare": 8660,
      "matic": 8661,
      "nity": 8662,
      "pass": 8663,
      "table": 8664,
      "vard": 8665,
      "wa": 8666,
      "wall": 8667,
      "onia": 8668,
      "Ġpud": 8669,
      "Ġtony": 8670,
      "oral": 8671,
      "station": 8672,
      "Ġgad": 8673,
      "Ġgroom": 8674,
      "Ġhay": 8675,
      "Ġhud": 8676,
      "Ġnan": 8677,
      "Ġstating": 8678,
      "oline": 8679,
      "cher": 8680,
      "Ġprojection": 8681,
      "Ġthats": 8682,
      "Ġlime": 8683,
      "Ġva": 8684,
      "Ġally": 8685,
      "utes": 8686,
      "Ġjenn": 8687,
      "Ġandy": 8688,
      "Ġcluster": 8689,
      "Ġprelim": 8690,
      "Ġmanchester": 8691,
      "Ġleon": 8692,
      "Ġquan": 8693,
      "Ġquoted": 8694,
      "Ġusd": 8695,
      "Ġcoinc": 8696,
      "Ġincon": 8697,
      "Ġheated": 8698,
      "Ġparalle": 8699,
      "Ġcarp": 8700,
      "Ġlazy": 8701,
      "Ġexpend": 8702,
      "angel": 8703,
      "Ġvisibility": 8704,
      "Ġedited": 8705,
      "encil": 8706,
      "Ġcustomize": 8707,
      "Ġcharging": 8708,
      "Ġundergraduate": 8709,
      "Ġcorrection": 8710,
      "Ġhoped": 8711,
      "Ġbeliever": 8712,
      "Ġinternship": 8713,
      "Ġshareholder": 8714,
      "Ġdawn": 8715,
      "Ġinval": 8716,
      "Ġinvis": 8717,
      "Ġkinderg": 8718,
      "Ġprofessionally": 8719,
      "Ġtheore": 8720,
      "Ġlandmark": 8721,
      "Ġcrap": 8722,
      "Ġbrace": 8723,
      "Ġcope": 8724,
      "Ġessence": 8725,
      "Ġdigit": 8726,
      "Ġassisted": 8727,
      "Ġrented": 8728,
      "Ġtranspl": 8729,
      "Ġmachinery": 8730,
      "Ġsuggesting": 8731,
      "Ġconsisting": 8732,
      "Ġcontributed": 8733,
      "Ġstruct": 8734,
      "Ġshooter": 8735,
      "Ġtuition": 8736,
      "Ġquarterly": 8737,
      "Ġadvertiser": 8738,
      "Ġenhancing": 8739,
      "Ġdisappeared": 8740,
      "Ġwheat": 8741,
      "Ġmalays": 8742,
      "Ġsuspended": 8743,
      "Ġlinen": 8744,
      "Ġlincol": 8745,
      "Ġvegetarian": 8746,
      "Ġoccupied": 8747,
      "Ġuploaded": 8748,
      "Ġundou": 8749,
      "comed": 8750,
      "Ġstruggled": 8751,
      "Ġadaptation": 8752,
      "Ġiconic": 8753,
      "Ġstere": 8754,
      "Ġnowad": 8755,
      "oucher": 8756,
      "Ġcoalition": 8757,
      "Ġdesperate": 8758,
      "Ġaviation": 8759,
      "Ġhawaii": 8760,
      "Ġlegitimate": 8761,
      "Ġembedded": 8762,
      "Ġtoddler": 8763,
      "bet": 8764,
      "ihood": 8765,
      "irable": 8766,
      "lord": 8767,
      "oh": 8768,
      "si": 8769,
      "inct": 8770,
      "Ġcous": 8771,
      "Ġtam": 8772,
      "Ġfitted": 8773,
      "Ġlc": 8774,
      "Ġlid": 8775,
      "Ġlamp": 8776,
      "Ġlighter": 8777,
      "Ġdent": 8778,
      "Ġdated": 8779,
      "Ġwore": 8780,
      "Ġglow": 8781,
      "Ġintim": 8782,
      "idal": 8783,
      "olly": 8784,
      "ops": 8785,
      "very": 8786,
      "ateur": 8787,
      "Ġexit": 8788,
      "Ġvig": 8789,
      "thm": 8790,
      "Ġsho": 8791,
      "Ġshocked": 8792,
      "ines": 8793,
      "Ġjord": 8794,
      "Ġjury": 8795,
      "Ġplenary": 8796,
      "umble": 8797,
      "Ġander": 8798,
      "ellite": 8799,
      "Ġunfor": 8800,
      "astro": 8801,
      "Ġneeding": 8802,
      "Ġtrap": 8803,
      "Ġdisad": 8804,
      "Ġreset": 8805,
      "osing": 8806,
      "Ġinformal": 8807,
      "Ġcarl": 8808,
      "Ġlaure": 8809,
      "Ġstron": 8810,
      "Ġinsured": 8811,
      "Ġidi": 8812,
      "athan": 8813,
      "Ġglove": 8814,
      "Ġsolved": 8815,
      "Ġbelg": 8816,
      "Ġvalued": 8817,
      "Ġdrill": 8818,
      "Ġhardest": 8819,
      "Ġgrows": 8820,
      "cony": 8821,
      "Ġaccessed": 8822,
      "Ġhumble": 8823,
      "Ġpracticing": 8824,
      "mann": 8825,
      "Ġvolt": 8826,
      "Ġwholes": 8827,
      "Ġadmire": 8828,
      "Ġphysi": 8829,
      "Ġcounting": 8830,
      "Ġpositioned": 8831,
      "Ġportal": 8832,
      "Ġwelcomed": 8833,
      "Ġbudd": 8834,
      "Ġdetermining": 8835,
      "Ġsilic": 8836,
      "Ġukraine": 8837,
      "Ġcollision": 8838,
      "Ġmilestone": 8839,
      "Ġdeadly": 8840,
      "Ġexecute": 8841,
      "Ġcrossed": 8842,
      "Ġstressed": 8843,
      "Ġinvestigating": 8844,
      "Ġreportedly": 8845,
      "Ġthreatening": 8846,
      "Ġfortunate": 8847,
      "Ġutilizing": 8848,
      "Ġtendency": 8849,
      "Ġcalculate": 8850,
      "Ġambitious": 8851,
      "Ġprediction": 8852,
      "Ġbeta": 8853,
      "Ġcrystal": 8854,
      "Ġreplacing": 8855,
      "Ġcompeting": 8856,
      "Ġdeclined": 8857,
      "burgh": 8858,
      "Ġmentally": 8859,
      "Ġbelonging": 8860,
      "Ġcondo": 8861,
      "Ġcondem": 8862,
      "Ġsacred": 8863,
      "Ġaccomplishment": 8864,
      "Ġprescribed": 8865,
      "vania": 8866,
      "Ġrendering": 8867,
      "Ġpartially": 8868,
      "Ġdominant": 8869,
      "Ġparadise": 8870,
      "Ġpipeline": 8871,
      "Ġbacon": 8872,
      "Ġmoisture": 8873,
      "Ġthyroid": 8874,
      "Ġinterpretation": 8875,
      "Ġwarehouse": 8876,
      "Ġallegation": 8877,
      "Ġinsect": 8878,
      "Ġhilarious": 8879,
      "Ġpreliminary": 8880,
      "Ġundoubted": 8881,
      "Ġnowadays": 8882,
      "Ġcousin": 8883,
      "diction": 8884,
      "poke": 8885,
      "ran": 8886,
      "inian": 8887,
      "Ġsenti": 8888,
      "Ġct": 8889,
      "Ġcum": 8890,
      "eness": 8891,
      "Ġfoss": 8892,
      "Ġlined": 8893,
      "Ġbc": 8894,
      "stair": 8895,
      "Ġgps": 8896,
      "its": 8897,
      "Ġhmm": 8898,
      "Ġner": 8899,
      "iler": 8900,
      "sea": 8901,
      "chain": 8902,
      "vere": 8903,
      "getic": 8904,
      "Ġnearest": 8905,
      "acent": 8906,
      "Ġala": 8907,
      "unting": 8908,
      "Ġmaple": 8909,
      "Ġjust": 8910,
      "Ġjason": 8911,
      "Ġsailing": 8912,
      "Ġrobo": 8913,
      "apse": 8914,
      "izable": 8915,
      "Ġintersection": 8916,
      "Ġscare": 8917,
      "Ġamateur": 8918,
      "Ġresign": 8919,
      "Ġconsensus": 8920,
      "ifies": 8921,
      "Ġaccent": 8922,
      "Ġparade": 8923,
      "Ġcargo": 8924,
      "Ġstiff": 8925,
      "Ġcustody": 8926,
      "Ġdeficit": 8927,
      "Ġsword": 8928,
      "Ġdrone": 8929,
      "Ġdrunk": 8930,
      "Ġwaking": 8931,
      "Ġconsiderably": 8932,
      "Ġcheckout": 8933,
      "Ġresearching": 8934,
      "Ġbene": 8935,
      "Ġsunlight": 8936,
      "Ġpresenting": 8937,
      "Ġaccountable": 8938,
      "Ġxx": 8939,
      "Ġafghan": 8940,
      "Ġlandlord": 8941,
      "Ġsalmon": 8942,
      "Ġfinancially": 8943,
      "Ġowns": 8944,
      "aneously": 8945,
      "Ġfirework": 8946,
      "Ġwishing": 8947,
      "Ġcourtesy": 8948,
      "Ġidentifying": 8949,
      "Ġrecognise": 8950,
      "Ġautomobile": 8951,
      "Ġsams": 8952,
      "Ġbroader": 8953,
      "Ġbroadband": 8954,
[...]
