{
  "version": "1.0",
  "truncation": null,
  "padding": null,
  "added_tokens": [
    {
      "id": 0,
      "content": "[UNK]",
      "single_word": false,
      "lstrip": false,
      "rstrip": false,
      "normalized": false,
      "special": true
    },
    {
      "id": 1,
      "content": "[SOS]",
      "single_word": false,
      "lstrip": false,
      "rstrip": false,
      "normalized": false,
      "special": true
    },
    {
      "id": 2,
      "content": "[EOS]",
      "single_word": false,
      "lstrip": false,
      "rstrip": false,
      "normalized": false,
      "special": true
    },
    {
      "id": 3,
      "content": "[PAD]",
      "single_word": false,
      "lstrip": false,
      "rstrip": false,
      "normalized": false,
      "special": true
    }
  ],
  "normalizer": null,
  "pre_tokenizer": {
    "type": "ByteLevel",
    "add_prefix_space": true,
    "trim_offsets": true,
    "use_regex": false
  },
  "post_processor": {
    "type": "ByteLevel",
    "add_prefix_space": true,
    "trim_offsets": true,
    "use_regex": true
  },
  "decoder": {
    "type": "ByteLevel",
    "add_prefix_space": true,
    "trim_offsets": true,
    "use_regex": true
  },
  "model": {
    "type": "BPE",
    "dropout": null,
    "unk_token": "[UNK]",
    "continuing_subword_prefix": null,
    "end_of_word_suffix": null,
    "fuse_unk": false,
    "byte_fallback": false,
    "vocab": {
      "[UNK]": 0,
      "[SOS]": 1,
      "[EOS]": 2,
      "[PAD]": 3,
      "¡": 4,
      "¢": 5,
      "£": 6,
      "¤": 7,
      "¥": 8,
      "¦": 9,
      "§": 10,
      "¨": 11,
      "©": 12,
      "ª": 13,
      "«": 14,
      "¬": 15,
      "®": 16,
      "¯": 17,
      "°": 18,
      "±": 19,
      "²": 20,
      "³": 21,
      "´": 22,
      "µ": 23,
      "¶": 24,
      "·": 25,
      "¸": 26,
      "¹": 27,
      "º": 28,
      "»": 29,
      "¼": 30,
      "½": 31,
      "¾": 32,
      "¿": 33,
      "Â": 34,
      "á": 35,
      "Ġ": 36,
      "Ģ": 37,
      "ģ": 38,
      "Ĥ": 39,
      "ĥ": 40,
      "Ħ": 41,
      "ħ": 42,
      "Ĩ": 43,
      "ĩ": 44,
      "Ī": 45,
      "ī": 46,
      "Ĭ": 47,
      "ĭ": 48,
      "Į": 49,
      "į": 50,
      "İ": 51,
      "ı": 52,
      "Ĳ": 53,
      "ĳ": 54,
      "Ĵ": 55,
      "ĵ": 56,
      "Ķ": 57,
      "ķ": 58,
      "ĸ": 59,
      "Ĺ": 60,
      "ĺ": 61,
      "Ļ": 62,
      "ļ": 63,
      "Ľ": 64,
      "ľ": 65,
      "Ŀ": 66,
      "ŀ": 67,
      "Ł": 68,
      "ł": 69,
      "Ń": 70,
      "ሀ": 71,
      "ሁ": 72,
      "ሂ": 73,
      "ሃ": 74,
      "ሄ": 75,
      "ህ": 76,
      "ሆ": 77,
      "ሇ": 78,
      "ለ": 79,
      "ሉ": 80,
      "ሊ": 81,
      "ላ": 82,
      "ሌ": 83,
      "ል": 84,
      "ሎ": 85,
      "ሏ": 86,
      "ሐ": 87,
      "ሑ": 88,
      "ሒ": 89,
      "ሓ": 90,
      "ሔ": 91,
      "ሕ": 92,
      "ሖ": 93,
      "ሗ": 94,
      "መ": 95,
      "ሙ": 96,
      "ሚ": 97,
      "ማ": 98,
      "ሜ": 99,
      "ም": 100,
      "ሞ": 101,
      "ሟ": 102,
      "ሠ": 103,
      "ሡ": 104,
      "ሢ": 105,
      "ሣ": 106,
      "ሤ": 107,
      "ሥ": 108,
      "ሦ": 109,
      "ሧ": 110,
      "ረ": 111,
      "ሩ": 112,
      "ሪ": 113,
      "ራ": 114,
      "ሬ": 115,
      "ር": 116,
      "ሮ": 117,
      "ሯ": 118,
      "ሰ": 119,
      "ሱ": 120,
      "ሲ": 121,
      "ሳ": 122,
      "ሴ": 123,
      "ስ": 124,
      "ሶ": 125,
      "ሷ": 126,
      "ሸ": 127,
      "ሹ": 128,
      "ሺ": 129,
      "ሻ": 130,
      "ሼ": 131,
      "ሽ": 132,
      "ሾ": 133,
      "ሿ": 134,
      "ቀ": 135,
      "ቁ": 136,
      "ቂ": 137,
      "ቃ": 138,
      "ቄ": 139,
      "ቅ": 140,
      "ቆ": 141,
      "ቇ": 142,
      "ቈ": 143,
      "ቊ": 144,
      "ቋ": 145,
      "ቌ": 146,
      "ቍ": 147,
      "በ": 148,
      "ቡ": 149,
      "ቢ": 150,
      "ባ": 151,
      "ቤ": 152,
      "ብ": 153,
      "ቦ": 154,
      "ቧ": 155,
      "ቨ": 156,
      "ቩ": 157,
      "ቪ": 158,
      "ቫ": 159,
      "ቬ": 160,
      "ቭ": 161,
      "ቮ": 162,
      "ቯ": 163,
      "ተ": 164,
      "ቱ": 165,
      "ቲ": 166,
      "ታ": 167,
      "ቴ": 168,
      "ት": 169,
      "ቶ": 170,
      "ቷ": 171,
      "ቸ": 172,
      "ቹ": 173,
      "ቺ": 174,
      "ቻ": 175,
      "ቼ": 176,
      "ች": 177,
      "ቾ": 178,
      "ቿ": 179,
      "ኀ": 180,
      "ኁ": 181,
      "ኂ": 182,
      "ኃ": 183,
      "ኄ": 184,
      "ኅ": 185,
      "ኆ": 186,
      "ኇ": 187,
      "ኈ": 188,
      "ኊ": 189,
      "ኋ": 190,
      "ኌ": 191,
      "ኍ": 192,
      "ነ": 193,
      "ኑ": 194,
      "ኒ": 195,
      "ና": 196,
      "ኔ": 197,
      "ን": 198,
      "ኖ": 199,
      "ኗ": 200,
      "ኘ": 201,
      "ኙ": 202,
      "ኚ": 203,
      "ኛ": 204,
      "ኜ": 205,
      "ኝ": 206,
      "ኞ": 207,
      "ኟ": 208,
      "አ": 209,
      "ኡ": 210,
      "ኢ": 211,
      "ኣ": 212,
      "ኤ": 213,
      "እ": 214,
      "ኦ": 215,
      "ኧ": 216,
      "ከ": 217,
      "ኩ": 218,
      "ኪ": 219,
      "ካ": 220,
      "ኬ": 221,
      "ክ": 222,
      "ኮ": 223,
      "ኯ": 224,
      "ኰ": 225,
      "ኲ": 226,
      "ኳ": 227,
      "ኴ": 228,
      "ኵ": 229,
      "ኸ": 230,
      "ኹ": 231,
      "ኺ": 232,
      "ኻ": 233,
      "ኼ": 234,
      "ኽ": 235,
      "ኾ": 236,
      "ወ": 237,
      "ዉ": 238,
      "ዊ": 239,
      "ዋ": 240,
      "ዌ": 241,
      "ው": 242,
      "ዎ": 243,
      "ዐ": 244,
      "ዑ": 245,
      "ዒ": 246,
      "ዓ": 247,
      "ዔ": 248,
      "ዕ": 249,
      "ዖ": 250,
      "ዘ": 251,
      "ዙ": 252,
      "ዚ": 253,
      "ዛ": 254,
      "ዜ": 255,
      "ዝ": 256,
      "ዞ": 257,
      "ዟ": 258,
      "ዠ": 259,
      "ዡ": 260,
      "ዢ": 261,
      "ዣ": 262,
      "ዤ": 263,
      "ዥ": 264,
      "ዦ": 265,
      "ዧ": 266,
      "የ": 267,
      "ዩ": 268,
      "ዪ": 269,
      "ያ": 270,
      "ዬ": 271,
      "ይ": 272,
      "ዮ": 273,
      "ደ": 274,
      "ዱ": 275,
      "ዲ": 276,
      "ዳ": 277,
      "ዴ": 278,
      "ድ": 279,
      "ዶ": 280,
      "ዷ": 281,
      "ጀ": 282,
      "ጁ": 283,
      "ጂ": 284,
      "ጃ": 285,
      "ጄ": 286,
      "ጅ": 287,
      "ጆ": 288,
      "ጇ": 289,
      "ገ": 290,
      "ጉ": 291,
      "ጊ": 292,
      "ጋ": 293,
      "ጌ": 294,
      "ግ": 295,
      "ጎ": 296,
      "ጏ": 297,
      "ጠ": 298,
      "ጡ": 299,
      "ጢ": 300,
      "ጣ": 301,
      "ጤ": 302,
      "ጥ": 303,
      "ጦ": 304,
      "ጧ": 305,
      "ጨ": 306,
      "ጩ": 307,
      "ጪ": 308,
      "ጫ": 309,
      "ጬ": 310,
      "ጭ": 311,
      "ጮ": 312,
      "ጯ": 313,
      "ጰ": 314,
      "ጱ": 315,
      "ጲ": 316,
      "ጳ": 317,
      "ጴ": 318,
      "ጵ": 319,
      "ጶ": 320,
      "ጷ": 321,
      "ጸ": 322,
      "ጹ": 323,
      "ጺ": 324,
      "ጻ": 325,
      "ጼ": 326,
      "ጽ": 327,
      "ጾ": 328,
      "ጿ": 329,
      "ፀ": 330,
      "ፁ": 331,
      "ፂ": 332,
      "ፃ": 333,
      "ፄ": 334,
      "ፅ": 335,
      "ፆ": 336,
      "ፇ": 337,
      "ፈ": 338,
      "ፉ": 339,
      "ፊ": 340,
      "ፋ": 341,
      "ፌ": 342,
      "ፍ": 343,
      "ፎ": 344,
      "ፏ": 345,
      "ፐ": 346,
      "ፑ": 347,
      "ፒ": 348,
      "ፓ": 349,
      "ፔ": 350,
      "ፕ": 351,
      "ፖ": 352,
      "áĪ": 353,
      "áĬ": 354,
      "áĭ": 355,
      "áī": 356,
      "áĮ": 357,
      "ĠáĬ": 358,
      "ĠáĪ": 359,
      "Ġáĭ": 360,
      "áĬķ": 361,
      "Ġáī": 362,
      "áīµ": 363,
      "áĭį": 364,
      "áĪĿ": 365,
      "Ġáĭ¨": 366,
      "áĪŃ": 367,
      "áį": 368,
      "áĪį": 369,
      "ĠáĬ¥": 370,
      "Ġáīł": 371,
      "áĪµ": 372,
      "ĠáĬł": 373,
      "áī½": 374,
      "áĪĪ": 375,
      "áĬĵ": 376,
      "áĪĺ": 377,
      "ĠáĮ": 378,
      "áĬķáĭ": 379,
      "áĭŃ": 380,
      "áī°": 381,
      "áĭ«": 382,
      "áĪĭ": 383,
      "áĪħ": 384,
      "áĮĪ": 385,
      "ĠáĪĺ": 386,
      "áĬĲ": 387,
      "áĪ¨": 388,
      "áĮį": 389,
      "áīł": 390,
      "áĪ«": 391,
      "áĭ°": 392,
      "áī¥": 393,
      "ĠáĬ¨": 394,
      "áĪĽ": 395,
      "ĠáĭŃ": 396,
      "áī³": 397,
      "áĭµ": 398,
      "ĠáĬĲ": 399,
      "áĪļ": 400,
      "ĠáĪĪ": 401,
      "áĪ°": 402,
      "ĠáĬ¥áĬķáĭ": 403,
      "áĬŃ": 404,
      "áĮ¥": 405,
      "áī£": 406,
      "áĭİ": 407,
      "áĪī": 408,
      "Ġáĭ«": 409,
      "áįį": 410,
      "ĠáĭĪ": 411,
      "áĮł": 412,
      "áīĢ": 413,
      "áĪ³": 414,
      "áĪĨ": 415,
      "áī¸": 416,
      "áĬł": 417,
      "áĪģ": 418,
      "áīħ": 419,
      "ĠáĪµ": 420,
      "Ġáī°": 421,
      "áįĪ": 422,
      "áĬ¨": 423,
      "áī¸áĭį": 424,
      "áĬ¥": 425,
      "ĠáĬ¥áĬĵ": 426,
      "áĭİáī½": 427,
      "áĭĪ": 428,
      "áĪª": 429,
      "áĮ£": 430,
      "Ġáĭ¨áĪļ": 431,
      "ĠáĪĿ": 432,
      "ĠáĪĽ": 433,
      "áĮĭ": 434,
      "áĭ³": 435,
      "áĬĽ": 436,
      "áĬ«": 437,
      "áĭļ": 438,
      "áĪįĠ": 439,
      "ĠáĪ°": 440,
      "áĭĭ": 441,
      "ĠáĪĭ": 442,
      "áī¶": 443,
      "ĠáĬĲáĭį": 444,
      "áī±": 445,
      "ĠáĬ¥áĬķáĭ°": 446,
      "ĠáĪĭáĭŃ": 447,
      "áĪ©": 448,
      "áĭ¨": 449,
      "áĪ®": 450,
      "áĪ±": 451,
      "Ġáĭį": 452,
      "Ġáī¥": 453,
      "áīĥ": 454,
      "Ġáĭ¨áī°": 455,
      "áĪİ": 456,
      "áī½áĬķ": 457,
      "ĠáĬ¥áĬķáĭ²": 458,
      "áĬķáĭµ": 459,
      "áĬĲáīµ": 460,
      "áĬĿ": 461,
      "áĬĸ": 462,
      "áįħ": 463,
      "ĠáĪģ": 464,
      "áĪĢ": 465,
      "ĠáĮį": 466,
      "áĬĳ": 467,
      "áĭĿ": 468,
      "áĭįáĬķ": 469,
      "ĠáĪį": 470,
      "Ĭáĭ": 471,
      "áĭļáĪħ": 472,
      "Ġáīµ": 473,
      "áĪŀ": 474,
      "áĭĬ": 475,
      "ĠáĮ¥": 476,
      "Ĭáĭľ": 477,
      "Ġáĭ°": 478,
      "áī»": 479,
      "áĪµáĮ¥": 480,
      "ĠáīłáĪĺ": 481,
      "ĠáĭĪáĭ°": 482,
      "Ġáī£": 483,
      "ĠáĬĲáĮĪ": 484,
      "áĪĪáĭį": 485,
      "ĠáĭįáĪµáĮ¥": 486,
      "Ġáį": 487,
      "áīłáĪŃ": 488,
      "áĭĺ": 489,
      "ĠáĮĬáĭľ": 490,
      "áīµĠáĬł": 491,
      "áĬĶ": 492,
      "áĬķáĪĿ": 493,
      "áĮħ": 494,
      "áĬķĠáīł": 495,
      "áĬķĠáĬł": 496,
      "ĠáĪĪáĪĺ": 497,
      "ĠáĭŃáĪħ": 498,
      "áĪ½": 499,
      "áĮī": 500,
      "ĠáīĢ": 501,
      "áīłáīµ": 502,
      "áįĭ": 503,
      "áĪĨáĬĲ": 504,
      "ĠáĪµáĪĪ": 505,
      "áĪĮ": 506,
      "ĠáĬĲáĭįĠ": 507,
      "áĪĻ": 508,
      "ĠáĪ²": 509,
      "ĠáĬŃ": 510,
      "áĪµáī°": 511,
      "ĠáĮĭ": 512,
      "áī¢": 513,
      "áĭĽ": 514,
      "áĬ©": 515,
      "ĠáĬ¥áĬķ": 516,
      "ĠáĪĪáĪĽ": 517,
      "áīµĠáīł": 518,
      "áĪªáĭ«": 519,
      "Ġáĭ¨áĪĺ": 520,
      "áī¡": 521,
      "áī¶áī½": 522,
      "Ġáĭµ": 523,
      "ĠáĪĢ": 524,
      "áĪĿĠáīł": 525,
      "áĭ±": 526,
      "Ġáĭ¨áĬł": 527,
      "áĪ»": 528,
      "áī¹": 529,
      "ĠáĪħ": 530,
      "áī½áĪģ": 531,
      "áįĬ": 532,
      "ĠáĬĲáīłáĪŃ": 533,
      "ĠáĮĭáĪŃ": 534,
      "ĠáĬĲáĮĪáĪŃ": 535,
      "áĪĪáĪģ": 536,
      "ĠáĬłáĭŃ": 537,
      "ĠáĪĬ": 538,
      "áĮ¨": 539,
      "áīĨ": 540,
      "ĠáĭĪáĭŃ": 541,
      "ĠáĪģáĪī": 542,
      "ĠáĪĨ": 543,
      "ĠáĮĪ": 544,
      "áĮĢ": 545,
      "áĭĻ": 546,
      "áĭ°áĪŃ": 547,
      "áĬ¤": 548,
      "Ġáĭĺ": 549,
      "áĪĿĠ": 550,
      "áĪ¬": 551,
      "áĪĿĠáĬł": 552,
      "áĪĨáĬĳ": 553,
      "Ġáī¤": 554,
      "Ġáī³": 555,
      "ĠáīłáĬł": 556,
      "áĭ²": 557,
      "áīģ": 558,
      "áīµáĬķ": 559,
      "áĪĦ": 560,
      "áĭµáĪŃ": 561,
      "áĪĨáĬķ": 562,
      "áīµĠáĭ¨": 563,
      "áĮĥ": 564,
      "áĭ©": 565,
      "Ġáĭ¨áĪļáĭ«": 566,
      "ĠáĪĺáĬķ": 567,
      "áĪĿáĪĭ": 568,
      "áī¤": 569,
      "ĠáĬ«": 570,
      "Ġáīħ": 571,
      "ĠáĬ¢": 572,
      "ĠáĮįáĬķ": 573,
      "áī½áĪĭ": 574,
      "áĪµáĪ«": 575,
      "áĭ®": 576,
      "áĭļáĭ«": 577,
      "áĭĮ": 578,
      "áī¦": 579,
      "áĬĺ": 580,
      "áĪľ": 581,
      "ĠáĬķ": 582,
      "áĮİ": 583,
      "áīĤ": 584,
      "Ġáīłáī°": 585,
      "áĮ¡": 586,
      "ĠáĪ³": 587,
      "áī´": 588,
      "áįĥ": 589,
      "áī²": 590,
      "áĪĿáĪĭáĬŃ": 591,
      "áįĢ": 592,
      "áĪµáīµ": 593,
      "Ġáįį": 594,
      "ĠáĪ°áĭİáī½": 595,
      "áĭ°áĪ¨": 596,
      "ĠĠ": 597,
      "ĠáĬ¥áĬĲ": 598,
      "áī°áĬĽ": 599,
      "ĠáĪ°áĭį": 600,
      "ĠáĮł": 601,
      "ĠáīłáĬ¥": 602,
      "áĪĿĠáĭ¨": 603,
      "ĠáĬłáĪĪ": 604,
      "áĪĪáīµ": 605,
      "áĪĬ": 606,
      "áĪ®áī½": 607,
      "áĬ®": 608,
      "áĮŃ": 609,
      "áīłáĪ¨": 610,
      "áĪħáĭĮ": 611,
      "áĮĨ": 612,
      "áĪŃáĪµ": 613,
      "ĠáĬ¥áĬķáĭ°áĪļ": 614,
      "áįĪáĪį": 615,
      "áĬĭ": 616,
      "áĬķáĭ³": 617,
      "ĠáĬłáĪµ": 618,
      "áĪīĠ": 619,
      "Ġáĭ¨áĪĿ": 620,
      "áĬķáī°": 621,
      "ĠáĬ¥áĬķáĭ³": 622,
      "áĮĪáĪį": 623,
      "áĪĭáī¸áĭį": 624,
      "Ġáī¢": 625,
      "áĭµáĪ¨": 626,
      "áĪ´": 627,
      "Ġáĭ¨áĬ¥": 628,
      "ĠáĬłáĪĺ": 629,
      "Ġáĭ«áĪĪ": 630,
      "áĮ«": 631,
      "áĬŀ": 632,
      "ĠáĪĮ": 633,
      "ĠáĭŃáī½áĪĭ": 634,
      "ĠáĮī": 635,
      "ĠáĭĪáĭŃáĪĿ": 636,
      "áīµĠáĪĺ": 637,
      "áĬķĠ": 638,
      "áĪİáī½": 639,
      "áĬķĠáĪĺ": 640,
      "áĭ¶": 641,
      "Ġáĭ¨áĪĽ": 642,
      "ĠáĬĲáīłáĪŃĠ": 643,
      "Ġáī¥áĭĻ": 644,
      "ĠáĬłáĬķáĭµ": 645,
      "ĠáīłáĮ£": 646,
      "ĠáĬ¨áī°": 647,
      "ĠáĬ¥áĪµ": 648,
      "áīĭ": 649,
      "áĬķáĭ«": 650,
      "áĮĪáĭµ": 651,
      "áĪĺáĪĪ": 652,
      "áĬĴ": 653,
      "ĠáĬ¥áĭ¨": 654,
      "ĠáīłáĪĽ": 655,
      "ĠáĪĿáĬŃ": 656,
      "áĪ¸": 657,
      "ĠáĬĵ": 658,
      "áī¸áĭįáĬķ": 659,
      "áĮĪáī£": 660,
      "ĠáĬ¨áĬ¥": 661,
      "ĠáĪĿáĬķ": 662,
      "ĠáĬ¥áĬķáĭ²áĪħ": 663,
      "áĬĭáĪĭ": 664,
      "áĬ«áĬ¨": 665,
      "áĭĭáĪįĠ": 666,
      "áĪ¶": 667,
      "ĠáįĪ": 668,
      "ĠáīłáĪļ": 669,
      "ĠáĪµáĪ«": 670,
      "áĪ²": 671,
      "áĪĭáĭŃ": 672,
      "áĬĻ": 673,
      "áĪĽáĪª": 674,
      "áĭ«áĬķ": 675,
      "ĠáĭŃáĪĨ": 676,
      "áĬĽáĭį": 677,
      "Ġáī¦": 678,
      "áĪ¨áīµ": 679,
      "áĬķáĮį": 680,
      "Ġáī£áĪĪ": 681,
      "áĪ¨áĮĥ": 682,
      "áĬ¢": 683,
      "ĠáĬ¨áĪĺ": 684,
      "ĠáĬ¥áĪŃ": 685,
      "áįī": 686,
      "áĬ¨áī°": 687,
      "áĬª": 688,
      "áįİ": 689,
      "áĪµáī³": 690,
      "ĠáĬ¨áĬł": 691,
      "ĠáĪĻ": 692,
      "áīħáĪŃ": 693,
      "áĪĿáĬķ": 694,
      "áĪ°áĪ«": 695,
      "ĠáĬ¥áĬĶ": 696,
      "ĠáĬłáĪį": 697,
      "áĪĭáĪį": 698,
      "ĠáĬ¤": 699,
      "áĮĢáĪĺ": 700,
      "áĮĪáĪŃ": 701,
      "áĪģáĬķ": 702,
      "áĪ°áī¥": 703,
      "ĠáĪļ": 704,
      "áĭµáĪ¨áĮį": 705,
      "áĭİáī½áĬķ": 706,
      "áĪŃáīµ": 707,
      "ĠáĬ¥áĬķáĭ²áĪģ": 708,
      "ĠáīłáĭļáĪħ": 709,
      "Ġáĭ«áĪħáĭĮ": 710,
      "áĬ³": 711,
      "ĠáīłáĮ£áĪĿ": 712,
      "Ġáĭ°áĮį": 713,
      "áĭĭáĪį": 714,
      "áī·": 715,
      "áīµĠ": 716,
      "áĭŃáĭĪ": 717,
      "áĮĬ": 718,
      "áĪĪáĪĿ": 719,
      "áĬķĠáĭ¨": 720,
      "ĠáĬŃáįį": 721,
      "áĭįĠáĭ¨": 722,
      "áĪ°áĪĽ": 723,
      "áįħáĪĢ": 724,
      "ĠáĪĺáĪį": 725,
      "áįķ": 726,
      "áĬĵáĪį": 727,
      "Ġáīģ": 728,
      "´áīµ": 729,
      "áĮłáīĢ": 730,
      "ĠáĪįáĮĨ": 731,
      "áĬķáĭ±": 732,
      "ĠáĭĿ": 733,
      "áĬĶáī³": 734,
      "Ġáīĥ": 735,
      "áĭ«áĭį": 736,
      "áĮĤ": 737,
      "Ġáĭ°áĮįáĪŀ": 738,
      "áī£áī¸áĭį": 739,
      "Ġáī¦áī³": 740,
      "ĠáĬ¥áĭ«": 741,
      "áĪĺáĪį": 742,
      "Ġáĭĭ": 743,
      "áīłáĪ©": 744,
      "ĠáĬłáĪĿáĪĭáĬŃ": 745,
      "ĠáĭŃáĪħáĬķ": 746,
      "ĠáĬ¨áĭļáĭ«": 747,
      "Ġáī¥áī»": 748,
      "ĠáĪģáĬĶáī³": 749,
      "áīĢáĪŃ": 750,
      "ĠáĬĵáī¸áĭį": 751,
      "áĭ«áĪµ": 752,
      "ĠáĪĿáĬŃáĬķáĭ«": 753,
      "ĠáĪ«": 754,
      "ĠáĬ¥áĪ±": 755,
      "áĪĪáĪģĠ": 756,
      "ĠáĮ¥áĪ©": 757,
      "Ġáīħáĭ±": 758,
      "áĬ¤áĪį": 759,
      "áī½áĪį": 760,
      "ĠáĪĪáĬ¥": 761,
      "áĪįáīħ": 762,
      "Ġáĭ³": 763,
      "áĮįáī£": 764,
      "áĪ¨áĭį": 765,
      "áįħáĪĢáįį": 766,
      "ĠáīłáĬĭáĪĭ": 767,
      "áĮĪáĬĺ": 768,
      "Ġáĭ«áĪĪáĭį": 769,
      "áīµĠáĭŃ": 770,
      "Ġáĭ¨áĪĨáĬĲ": 771,
      "áĪ±áĪµ": 772,
      "áĭ¨áĪ±áĪµ": 773,
      "áĮĵ": 774,
      "áĬķáĪµ": 775,
      "áī±áĬķ": 776,
      "Ġáī¤áīµ": 777,
      "áĬĵáĪįĠ": 778,
      "ĠáĪĨáĬĸ": 779,
      "ĠáĪĪáĬł": 780,
      "ĠáĪĿáĬķáĪĿ": 781,
      "áĬŀáī½": 782,
      "áĮ¦": 783,
      "áĬĸáĪŃ": 784,
      "áī¥áĪŃ": 785,
      "ĠáĪĺáĬķáĮĪáĭµ": 786,
      "áĬĲáĪ³": 787,
      "Ġáī½": 788,
      "ĠáĬ¨áįį": 789,
      "ĠáĬ¥áĬķáĭµ": 790,
      "áĮĢáĪĺáĪªáĭ«": 791,
      "Ġáīħáĭ±áĪµ": 792,
      "ĠáĪįáĮħ": 793,
      "ĠáĮīáĭ³": 794,
      "ĠáĪĽáĬķ": 795,
      "áĭ¬": 796,
      "áĬ«áĬ¨áĪį": 797,
      "áĪ¨áĪµ": 798,
      "áĪĿáĪħ": 799,
      "ĠáĬ®": 800,
      "ĠáĪĺáĪµ": 801,
      "áĪ³áĪĮ": 802,
      "áĮ¨áĪĽáĪª": 803,
      "ĠáĪĨáĬĲ": 804,
      "ĠáĬ¥áĬĵĠáĭ¨": 805,
      "áĪ«áĭĬ": 806,
      "áĮĪáĬĵ": 807,
      "áĬ¦": 808,
      "áĪ«áīµ": 809,
      "ĠáĬ¥áĬĲáĭļáĪħ": 810,
      "áĬĲáīłáĪ¨": 811,
      "áĪħáĬķ": 812,
      "ĠáĮĢ": 813,
      "ĠáĪŀ": 814,
      "ĠáĬłáĬķ": 815,
      "ĠáĪħáĭĿ": 816,
      "ĠáīĨ": 817,
      "áĭİáī¹": 818,
      "áĪĺáĪŃ": 819,
      "Ġáĭ«áĪī": 820,
      "Ġáĭ«áĪµ": 821,
      "áī¢áĭ«": 822,
      "áĪĺáĪµ": 823,
      "ĠáįĬ": 824,
      "áĮįáĬĺ": 825,
      "ĠáĬ¥áĭį": 826,
      "áīĦ": 827,
      "áĭ´": 828,
      "ĠáĪĿáĪŃ": 829,
      "áī¶áī½áĬķ": 830,
      "ĠáĬ¥áĪµáĬ¨": 831,
      "áĬĵáĮĪ": 832,
      "áĪĪáī½": 833,
      "áĪ³áĭŃ": 834,
      "áĪĪáĪħ": 835,
      "ĠáĬłáĬ«": 836,
      "áĪ°áĭį": 837,
      "áĬĵĠáīł": 838,
      "áĬĸáī½": 839,
      "ĠáĬ¥áĬķáĭ´áīµ": 840,
      "áĮįáī¥": 841,
      "áĭ¨áīµ": 842,
      "áĪħáĪį": 843,
      "áĪ¨áĭ³": 844,
      "áĭĪáĪ°": 845,
      "áī¦áī½": 846,
      "áĭ«áĪħáĭĮ": 847,
      "áĪĭáī½áĪģ": 848,
      "ĠáĬ¥áĬķáĭ°áĪĨáĬĲ": 849,
      "áĮ¤": 850,
      "ĠáĮ¨": 851,
      "ĠáĬ¢áĭ¨áĪ±áĪµ": 852,
      "áī¼": 853,
      "áįĬáīµ": 854,
      "áĪĺáĮ£": 855,
      "ĠáĬ¥áĬĵĠáīł": 856,
      "áĮĪáĪĪ": 857,
      "ĠáĬłáĬķáĭ³": 858,
      "áĪ°áĮł": 859,
      "áĮĪáĪįáĮį": 860,
      "áįĸ": 861,
      "áĬĵáīµ": 862,
      "áĬłáī¥": 863,
      "áĭįáĭ«áĬķ": 864,
      "áĪ¨áĮĭ": 865,
      "áĭĪáĮ£": 866,
      "áĬĿáĬĲáīµ": 867,
      "áī£áī¢": 868,
      "ĠáīĥáĪį": 869,
      "ĠáĪµáĪŃ": 870,
      "áĬķĠáĭŃ": 871,
      "ĠáĪįáĮĨáī½": 872,
      "Ġáįķ": 873,
      "ĠáĪĺáĮł": 874,
      "áĬķáĭ¶": 875,
      "ĠáĪĮáĪĭ": 876,
      "áĪĿáĬĵ": 877,
      "ĠáĪ³áĭŃ": 878,
      "áĪĪáĬķĠ": 879,
      "áįģ": 880,
      "ĠáĭµáĪŃ": 881,
      "áĮĪáĭį": 882,
      "ĠáĭµáĪ¨áĪµ": 883,
      "áĭ²áĪµ": 884,
      "áĪĿĠáĬ¨": 885,
      "áĪı": 886,
      "áĮĪáĬĻ": 887,
      "áī³áī¸áĭį": 888,
      "ĠáĪĺáĪ°": 889,
      "áĮĪáĪįáĮįáĪİ": 890,
      "áĮģ": 891,
      "ĠáĬłáĭµáĪŃ": 892,
      "ĠáīĢáĬķ": 893,
      "ĠáĬłáĪµáī°": 894,
      "áĮĮ": 895,
      "áĪĺáĬķ": 896,
      "áĪĪáĬķ": 897,
      "ĠáĬłáĪĭ": 898,
      "ĠáĪµáĪĪáĭļáĪħ": 899,
      "áĪļáĭ«": 900,
      "ĠáĬłáī£": 901,
      "áĪ¯": 902,
      "áīłáĪį": 903,
      "áįħáĪĢáįįĠáīħáĭ±áĪµ": 904,
      "áĪĿáĪ®": 905,
      "áĪŃáĭµ": 906,
      "ĠáĪĺáĬ«áĬ¨áĪį": 907,
      "ĠáĪŃ": 908,
      "ĠáĬĲáĮĪáĪ®áī½": 909,
      "áĭįĠáīł": 910,
      "ĠáĬłáĭŃáĭ°": 911,
      "áĭİáĬķ": 912,
      "áī³áĭĬ": 913,
      "áĭĪáīħ": 914,
      "áĬĵĠáĭ¨": 915,
      "áīłáĪĪ": 916,
      "áĪĪáĭ«": 917,
      "áĪŀáī½": 918,
      "áīµĠáī°": 919,
      "áī³áĪį": 920,
      "áīµĠáĬ¨": 921,
      "áĪĦáĪŃ": 922,
      "ĠáĬ¥áĭµ": 923,
      "ĠáĪĢáĭŃ": 924,
      "áĪĿáĪŃ": 925,
      "áĮįáĪŃ": 926,
      "áĭŀ": 927,
      "áĮ¨áĪ¨": 928,
      "ĠáĪħáĭŃáĭĪ": 929,
      "áĬŃáĪį": 930,
      "ĠáįĢ": 931,
      "áĪµáĪ«áĬ¤áĪį": 932,
      "áī»áī¸áĭį": 933,
      "áī³áī½áĬķ": 934,
      "áĪĻáĪī": 935,
      "áĮ¥áĪŃ": 936,
      "ĠáīµáĬķ": 937,
      "áĪĿáīµ": 938,
      "áĭĺáĮĭ": 939,
      "ĠáĪ¨": 940,
      "áĮįáĭļ": 941,
      "áĪīáīµ": 942,
      "ĠáĭĪáĬķáĭµ": 943,
      "ĠáĬ¥áĬķáĬ³": 944,
      "áī³áĪįĠ": 945,
      "áĮĪáĬĿ": 946,
      "ĠáĬ¥áĬķáĭ²áĪģáĪĿ": 947,
      "ĠáĪĪáĪĿ": 948,
      "Ġáĭ°áĪ¨áĮĥ": 949,
      "áĪµáįĭ": 950,
      "ĠáĪ´": 951,
      "áĬķáĭĺ": 952,
      "ĠáĪĺáĬķáĮį": 953,
      "áĬ¬": 954,
      "áĬłáīµ": 955,
      "ĠáĬ¥áĬĲáĪ±": 956,
      "ĠáĪĿáĪµ": 957,
      "ĠáĪĽáĭµáĪ¨áĮį": 958,
      "ĠáĬĲáĮĪáĪŃĠáĮįáĬķ": 959,
      "áĮ¨áĪ¨áĪ»": 960,
      "áī°áĭį": 961,
      "áĮįáĪ«": 962,
      "Ġáĭ¨áĪļáĭ«áĪµ": 963,
      "ĠáĬķáĮī": 964,
      "áĮłáīł": 965,
      "áĪŃáĮį": 966,
      "ĠáĬ¨áĪĨáĬĲ": 967,
      "áĮįáĭļáĬłáī¥": 968,
      "áĮįáĭļáĬłáī¥áĪĦáĪŃ": 969,
      "áĪĭáīµ": 970,
      "ĠáĪĮáĪİáī½": 971,
      "áī³áīµ": 972,
      "ĠáĬ¨áĭļáĪħ": 973,
      "ĠáĮİ": 974,
      "áĪĦáĭµ": 975,
      "ĠáĪ½": 976,
      "áĪįáĬŃ": 977,
      "ĠáĭĽ": 978,
      "áī±áĪĿ": 979,
      "áĬ¨áīµ": 980,
      "Ġáĭ«áĪį": 981,
      "áĮįáĪį": 982,
      "ĠáĬłáĭį": 983,
      "áĮłáīĥ": 984,
      "áĮłáĪŃ": 985,
      "áĪ·": 986,
      "ĠáĬłáĭŃáĬĲáīµ": 987,
      "Ġáĭ«áĪħáĪį": 988,
      "áĪįáĮ£": 989,
      "ĠáĭŃáĪĨáĭĭ": 990,
      "ĠáĪĢáĪ³": 991,
      "áĭ°áĪŃáĮĭ": 992,
      "ĠáĬ¥áĬķáĭ²áĭ«": 993,
      "ĠáĬłáī¥": 994,
      "ĠáĬŃáĪŃáĪµ": 995,
      "áįĪáĪĪ": 996,
      "áĪŃáĪ±": 997,
      "áī£áīµ": 998,
      "áĬķáĬķ": 999,
      "áīłáīµĠáĮĬáĭľ": 1000,
      "áĮĪáĬĽ": 1001,
      "ĠáĮ¥áīħ": 1002,
      "áĮĬáĭľ": 1003,
      "Ġáī¡": 1004,
      "áī½áĪī": 1005,
      "ĠáĪģáĪĪ": 1006,
      "áįĪáĪįáĮĭ": 1007,
      "áĭµáĬķ": 1008,
      "áĪ«áī¸áĭį": 1009,
      "ĠáĭŃáĪģáĬķ": 1010,
      "Ġáī¤áī°": 1011,
      "ĠáĭŃáī½áĪĭáĪįĠ": 1012,
      "áĪįĠáīł": 1013,
      "Ġáįħ": 1014,
      "áīĢáĪ¨": 1015,
      "áįĮ": 1016,
      "ĠáĬ¥áĮħ": 1017,
      "áĪ°áĮ£": 1018,
      "áĬķáīĢ": 1019,
      "áĪªáĬ«": 1020,
      "ĠáĮ£": 1021,
      "áįĪáĪĭ": 1022,
      "áĮ¢": 1023,
      "áī°áĪŃ": 1024,
      "Ġáī¥áĪİ": 1025,
      "áįĴ": 1026,
      "ĠáĬ¨áįįáī°áĬĽ": 1027,
      "ĠáĪĦ": 1028,
      "ĠáĬłáĬķáĭ³áĬķáĭµ": 1029,
      "áĪĪáĬĽ": 1030,
      "áĭ«áīĦ": 1031,
      "áīłáĪĪáĮł": 1032,
      "áĪĺáĪ°": 1033,
      "áįĵ": 1034,
      "áĪªáĭİáī½": 1035,
      "áĪ°áī£": 1036,
      "áīĢáĮ¥": 1037,
      "ĠáĪĿáĭµáĪŃ": 1038,
      "ĠáīµáĪĿáĪħ": 1039,
      "ĠáĭĪáīħ": 1040,
      "áĪĿĠáī°": 1041,
      "áīµáĬĵ": 1042,
      "ĠáĭµáĬķ": 1043,
      "ĠáĪ¶": 1044,
      "áī£áĪį": 1045,
      "áĬĲáĪ±": 1046,
      "áįĪáĪĭáĮĬ": 1047,
      "áĭ®áī½": 1048,
      "áĪĿáĬĲáīµ": 1049,
      "ĠáĬ¥áĭ¨áī°": 1050,
      "áĬķĠáĪĽ": 1051,
      "áĬķáĬĵ": 1052,
      "ĠáĬłáĬķáī°": 1053,
      "áĬ¸": 1054,
      "ĠáĪĻáĪī": 1055,
      "ĠáĬ¦": 1056,
      "áĬķáĭĺáī¥": 1057,
      "áĬĿĠ": 1058,
      "áĬķáĭ¶áī½": 1059,
      "áī»áī½áĬķ": 1060,
      "áįįáīµ": 1061,
      "áĭ°áĭį": 1062,
      "ĠáĮĮ": 1063,
      "áĮłáĪ«": 1064,
      "áĬĽáĭįáĪĿ": 1065,
      "áĭ¶áī½": 1066,
      "ĠáīłáĪĺáĪĨáĬĳ": 1067,
      "Ġáĭ²": 1068,
      "ĠáĭĺáĬķáĭµ": 1069,
      "áĬķĠáĬ¨": 1070,
      "áįĪáįĢ": 1071,
      "áī³áĭį": 1072,
      "áĪ¨áī¥": 1073,
      "áĮįáĬĺáīµ": 1074,
      "ĠáĬ¥áĬĽ": 1075,
      "áĬķĠáĪĪáĪĽ": 1076,
      "áĭĪáĪµ": 1077,
      "ĠáĮ¥áĭ«áīĦ": 1078,
      "áīłáī¥": 1079,
      "áĪĿĠáĭŃ": 1080,
      "ĠáĪĬáĭ«": 1081,
      "ĠáĭŃáī½áĪĭáĪį": 1082,
      "ĠáĪĪáĪļ": 1083,
      "Ġáī£áĪħ": 1084,
      "ĠáĪįáī¥": 1085,
      "ĠáįķáĪ®": 1086,
      "áĪªáĬŃ": 1087,
      "ĠáĬ¨áĭļáĭ«áĪĿ": 1088,
      "Ġáī°áīĢ": 1089,
      "áĮłáĬĵ": 1090,
      "Ġáĭ«áĪĪáĭįáĬķ": 1091,
      "ĠáĬłáĮĪáĪįáĮįáĪİ": 1092,
      "áĪŁ": 1093,
      "áīµĠáĬ¥áĬĵ": 1094,
      "áīµĠáĪĭáĭŃ": 1095,
      "Ġáĭ®": 1096,
      "ĠáĪµáĪĿ": 1097,
      "ĠáĪĽáĪĪáīµ": 1098,
      "ĠáĬłáĪģáĬķ": 1099,
      "áĭ°áĬķ": 1100,
      "áĬķĠáĪĪáĪĺ": 1101,
      "áĬķĠáĭ«": 1102,
      "áĪµáī¥": 1103,
      "áĬ¨áĪŃ": 1104,
      "ĠáĪĤ": 1105,
      "ĠáĬŃáįįáĪį": 1106,
      "ĠáĬłáĪĽ": 1107,
      "ĠáĬłáĪĪáĭį": 1108,
      "áī¤áīµ": 1109,
      "áĭ¨áĪŃ": 1110,
      "ĠáĬ¨áī°áĪĽ": 1111,
      "ĠáĪįáĭ©": 1112,
      "áĬ©áĪį": 1113,
      "áĪŃáĪµáĭİ": 1114,
      "áĪĺáĪ¨": 1115,
      "áĬ¨áĪ«": 1116,
      "áĪħáĭĿ": 1117,
      "áĬĲáĭį": 1118,
      "áĬĸáĪ©": 1119,
      "áĮª": 1120,
      "ĠáĬ¨áĪļ": 1121,
      "ĠáīłáĪĻáĪī": 1122,
      "ĠáĪĺáĪ¨áĮĥ": 1123,
      "Ġáĭ¨áĬłáĪĿáĪĭáĬŃ": 1124,
      "áĭĪáĭ³": 1125,
      "ĠáĪĨáĭŃ": 1126,
      "áĪµáĪĽ": 1127,
      "áĪĺáĪ«": 1128,
      "ĠáĬłáĪ³": 1129,
      "ĠáĬĵáī¸áĭįĠ": 1130,
      "ĠáĪĺáĪĨáĬĳ": 1131,
      "áĬķĠáī°": 1132,
      "áĭ°áĪ¨áĮĪ": 1133,
      "áĪ®áī½áĬķ": 1134,
      "áĪħáĭŃáĭĪ": 1135,
      "áĪĨáĬĵ": 1136,
      "áĬŃáĪŃ": 1137,
      "ĠáĭĪáĪŃ": 1138,
      "áĬĲáī±": 1139,
      "áĬĲáīłáĪ©": 1140,
      "Ġáįĸ": 1141,
      "ĠáĬª": 1142,
      "áĬķáĭ°": 1143,
      "áĮłáī¥": 1144,
      "ĠáĮŃ": 1145,
      "ĠáĬ©": 1146,
      "Ġáĭ¨áĭĪ": 1147,
      "ĠáĪĺáĬķáįĪ": 1148,
      "áĪĭáĪįĠ": 1149,
      "ĠáĪĺáĪ³": 1150,
      "áĪĪáĪĿĠ": 1151,
      "ĠáĪĽáĪµ": 1152,
      "Ġáĭ¨áĪĿáīµ": 1153,
      "áĪĺáĪįáĬ¨": 1154,
      "Ġáĭ¨áĪĽáĭŃ": 1155,
      "ĠáīłáĪĿ": 1156,
      "áĬŃáĪµ": 1157,
      "ĠáĭĪáĭŃáĪĿĠáīł": 1158,
      "ĠáĬłáīµ": 1159,
      "áĭ°áĪŃáĮį": 1160,
      "áĪĽáĭŃ": 1161,
      "Ġáĭ¨áĬ¢": 1162,
      "áĪ°áĮ¥": 1163,
      "áīµĠáĭ¨áĪļ": 1164,
      "áįĪáĪŃ": 1165,
      "áĬķĠáĭ¨áĪļ": 1166,
      "áįĪáĭį": 1167,
      "áĪĿĠáĪĺ": 1168,
      "áī¸áĭĭáĪįĠ": 1169,
      "ĠáĬ¥áĬĵáĬķáī°": 1170,
      "áīĤáĭ«": 1171,
      "ĠáĭĺáĪĺ": 1172,
      "ĠáĬłáĪĿ": 1173,
      "áĪģáĪī": 1174,
      "áī¥áĪ¨": 1175,
      "áĬķáīµ": 1176,
      "áĪĺáĪ³": 1177,
      "ĠáĬ¥áĬķáĭ°áī°": 1178,
      "áĬ¨áī³": 1179,
      "ĠáĪģáĪĪáīµ": 1180,
      "áĬŃáīµ": 1181,
      "ĠáīłáĪĭáĭŃ": 1182,
      "áīĢáĭµ": 1183,
      "áĪĽáĪŃ": 1184,
      "ĠáīµáĪįáīħ": 1185,
      "ĠáĪ°áĪ«": 1186,
      "áī¤áī°": 1187,
      "ĠáĬłáĬķáĭ±": 1188,
      "Ġáĭ¶": 1189,
      "ĠáĬĲáīłáĪ©": 1190,
      "ĠáĬ¥áĬķáĮĤ": 1191,
      "Ġáĭ¨áīµ": 1192,
      "áĮ®": 1193,
      "ĠáĬĲáįĥ": 1194,
      "ĠáĪµáĪľ": 1195,
      "Ġáīłáĭļáĭ«": 1196,
      "áĪĭáĭĬ": 1197,
      "Ġáīłáī°áĮ¨áĪĽáĪª": 1198,
      "áĮ£áīµ": 1199,
      "áĪ¹": 1200,
      "áĪĭáĭį": 1201,
      "ĠáĬłáĪģ": 1202,
      "áĪĭáĪĪ": 1203,
      "áĪĭáīħ": 1204,
      "Ġáĭ¨áĪĨáĬĳ": 1205,
      "áĪĪáĭ«áĭ©": 1206,
      "Ġáī°áĪµáįĭ": 1207,
      "ĠáĬķáĮīáĪµ": 1208,
      "ĠáĪ²áĪĨáĬķ": 1209,
      "áĪ«áĪį": 1210,
      "áĬķáĭ³áĬķáĭ±": 1211,
      "áĮłáīĢáĪĿ": 1212,
      "ĠáĬ¥áĭļáĪħ": 1213,
      "áĪ°áĪ©": 1214,
      "ĠáīłáĬ¥áĪŃáĮį": 1215,
      "ĠáĭĽáĪ¬": 1216,
      "ĠáĪµáī¥": 1217,
      "ĠáĬŃáĪŃáĪµáī²": 1218,
      "ĠáĪĿáĪ³áĪĮ": 1219,
      "áĪĪáīłáīµ": 1220,
      "Ġáĭ«áĪĭáī¸áĭį": 1221,
      "áĮįáĪĪ": 1222,
      "áĬķĠáĬ¥áĬĵ": 1223,
      "ĠáīµáĬķáĪ½": 1224,
      "áĭ°áĮĭ": 1225,
      "áīłáĭį": 1226,
      "áīĢáĪĺ": 1227,
      "ĠáĮĵ": 1228,
      "áĬķáĭµáĬķ": 1229,
      "ĠáĬłáĭ²áĪµ": 1230,
      "áī¥áĪ«": 1231,
      "áīĢáĭį": 1232,
      "áĪŃáĭĿ": 1233,
      "áĪŃáĭ«": 1234,
      "ĠĠĠĠ": 1235,
      "áĪĭáĮİ": 1236,
      "áįĪáĪįáĮį": 1237,
      "áĪģáĭ³": 1238,
      "áī¶áĪµ": 1239,
      "áī½áĬĭ": 1240,
      "Ġáī°áĮ¨áĪĽáĪª": 1241,
      "ĠáĪĢáĪ³áī¥": 1242,
      "áīª": 1243,
      "áĪµáĮł": 1244,
      "áĬĲáĭļáĪħ": 1245,
      "Ġáĭ¨áĪĺáĮĢáĪĺáĪªáĭ«": 1246,
      "ĠáīµáĪĿáĪħáĪŃáīµ": 1247,
      "áĪ³áīµ": 1248,
      "áĮĪáĪįáĮĭ": 1249,
      "ĠáĪĪáĪĽáĭµáĪ¨áĮį": 1250,
      "áĬĵáĭį": 1251,
      "áĭ²áĭ«": 1252,
      "áįįáĪ«": 1253,
      "ĠáĪľ": 1254,
      "ĠáĪĺáĭĿ": 1255,
      "áĭ¥": 1256,
      "ĠáīłáĪŃ": 1257,
      "áĪĤ": 1258,
      "ĠáĪĪáī°": 1259,
      "áįĪáĪįáĮī": 1260,
      "áĭ°áĪŃáĮī": 1261,
      "áīµĠáĬłáĪĺ": 1262,
      "ĠáĪĺáĮ¥": 1263,
      "ĠáĪ²áĪį": 1264,
      "áĭŃáīµ": 1265,
      "áĪĺáĭį": 1266,
      "ĠáĬłáĪĺáīµ": 1267,
      "ĠáĪģáĪīáĪĿ": 1268,
      "ĠáīµáĬŃ": 1269,
      "Ġáįĵ": 1270,
      "áĪ¾": 1271,
      "áĬķĠáĬłáĭŃ": 1272,
      "áĮµ": 1273,
      "áĮĪáī¥": 1274,
      "áĮĪáī¡": 1275,
      "Ġáī°áĬĵ": 1276,
      "áĪ³áĭĬ": 1277,
      "ĠáĮįáĬķĠáīł": 1278,
      "ĠáĬ¥áĮįáĭļáĬłáī¥áĪĦáĪŃ": 1279,
      "áĭ°áĪ¨áĮį": 1280,
      "áĮĦ": 1281,
      "ĠáĭĭáĮĭ": 1282,
      "áĪ»áĪ»": 1283,
      "ĠáĭµáĪŃáĮħ": 1284,
      "áĮłáĪ©": 1285,
      "áĪĭáĪī": 1286,
      "ĠáĭįáĮ¤": 1287,
      "áĪĪáĪħĠ": 1288,
      "áī·áĪįĠ": 1289,
      "ĠáĪĺáĪ³áĪªáĭ«": 1290,
      "áī£áĬ¤": 1291,
      "Ġáī¥áĪŃ": 1292,
      "ĠáĪ¸": 1293,
      "áī°áĬĽáĭį": 1294,
      "ĠáĮīáĭ³áĭŃ": 1295,
      "ĠáĪ²áĭ«": 1296,
      "Ġáīłáīµ": 1297,
      "áĪĿĠáĪĨáĬĲ": 1298,
      "áĭŃáĪĨ": 1299,
      "áĪĿĠáĪĭáĭŃ": 1300,
      "ĠáĬ¥áĭįáĬĲ": 1301,
      "áĪĢáĭŃ": 1302,
      "áĪĪáĭŃ": 1303,
      "áĪĪáĭįáĬķ": 1304,
      "áī§": 1305,
      "áĭľ": 1306,
      "ĠáĪĬáĪĨáĬķ": 1307,
      "áĪŃáĭ³": 1308,
      "ĠáĬĲáīłáĪ¨": 1309,
      "áĭ°áĪ¨áĮī": 1310,
      "ĠáĭŃáĪĨáĬĵáĪįĠ": 1311,
      "ĠáĬ¥áī£": 1312,
      "áĪµáī°áĬĽ": 1313,
      "Ġáĭ«áĪ³": 1314,
      "ĠáīµáĬ¥": 1315,
      "áĮįáĬĵ": 1316,
      "áĭ°áĪĿ": 1317,
      "áĪįĠáĭ¨": 1318,
      "ĠáĮĮáī³": 1319,
      "ĠáĬ¨áī£": 1320,
      "ĠáĪĪáĭį": 1321,
      "ĠáĭŃáī½áĪĭáĪīĠ": 1322,
      "áĪĮáĪİáī½": 1323,
      "ĠáĮĪáįħ": 1324,
      "áĪİáĪµ": 1325,
      "ĠáīłáįĬáīµ": 1326,
      "áĪ°áīł": 1327,
      "ĠáįĬáīµ": 1328,
      "ĠáĬłáĪī": 1329,
      "áĪĺáĪĪáĬ¨áī°": 1330,
      "ĠáĪĺáįħáĪĢáįįĠáīħáĭ±áĪµ": 1331,
      "áĪ¶áī½": 1332,
      "áĭ«áĭ«": 1333,
      "áĪľáĪªáĬ«": 1334,
      "ĠáĬķáĮį": 1335,
      "áĪħáĬĵ": 1336,
      "áĪĪáī¥": 1337,
      "áĪĺáĪªáĭ«": 1338,
      "áĭįáīĥ": 1339,
      "áĬĵáĮĪáĪŃ": 1340,
      "áĬ«áī³": 1341,
      "ĠáĭŃáī½áĪĭáĪī": 1342,
      "ĠáĪµáĪĭ": 1343,
      "Ġáĭ¨áī³": 1344,
      "Ġáĭ¨áĪµ": 1345,
      "áĬĲáĮĪ": 1346,
      "áĪĺáĪ³áĪ³áĭŃ": 1347,
      "áĪ«áĪµ": 1348,
      "áĪ¨áĮĭáĮĪ": 1349,
      "áĭĬáīµ": 1350,
      "áĮĪáĭĽ": 1351,
      "Ġáī°áĮįáī£": 1352,
      "ĠáĪħáĭĿáī¥": 1353,
      "áĮĪáĬĺáĭį": 1354,
      "áĭ°áĬĽ": 1355,
      "ĠáĬłáĬ«áī£áī¢": 1356,
      "ĠáīµáĪŃ": 1357,
      "ĠáĭŃáĪĺáĪµ": 1358,
      "ĠáĪ°áĪĭ": 1359,
      "ĠáĪħáĮį": 1360,
      "áīµĠáĬłáĭŃ": 1361,
      "ĠáĪµáīµ": 1362,
      "áĪ°áī¡": 1363,
      "áĮĨáī½": 1364,
      "ĠáĬ¥áĬķáīħ": 1365,
      "ĠáĪĽáĪħ": 1366,
      "áĬķáįĪ": 1367,
      "áĪĿáĮĥ": 1368,
      "áĪĨáĬķáĪĿ": 1369,
      "áĪİáī½áĬķ": 1370,
      "ĠáĪª": 1371,
      "ĠáīĢáĪĭáĪį": 1372,
      "Ġáīłáĭ¨": 1373,
      "áįĨ": 1374,
      "áī°áĬŀáī½": 1375,
      "ĠáĬ¥áĮħáĮį": 1376,
      "ĠáīłáīĢ": 1377,
      "áĬ«áĪį": 1378,
      "áĭŃáĪĨáĭĭ": 1379,
      "Ġáĭ°áĬķ": 1380,
      "ĠáĬ¥áĬķáĮį": 1381,
      "ĠáįĪáīĥ": 1382,
      "áĬĹ": 1383,
      "áĪĭáįĬ": 1384,
      "Ġáĭ¨áī°áĬĲáĪ³": 1385,
      "ĠáĮįáĬķáĬĻ": 1386,
      "Ġáĭ¨áĪ°": 1387,
      "ĠáįįáĪĭáĮİ": 1388,
      "ĠáĭĭáĬĵ": 1389,
      "áĬ¸áĭį": 1390,
      "áĬĵáĬķáī°": 1391,
      "áīµáĭ®": 1392,
      "Ġáįĭ": 1393,
      "áĪĿáĭµ": 1394,
      "áĪĽáĬĿ": 1395,
      "áīĨáĮ£": 1396,
      "áīħáĭµ": 1397,
      "ĠáĪ®": 1398,
      "ĠáįįáīħáĪŃ": 1399,
      "ĠáĭŃáĪĨáĬĵáĪį": 1400,
      "áĬĽáĭįáĬķ": 1401,
      "áĮłáįĭ": 1402,
      "áĬĲáĮĭ": 1403,
      "ĠáĪµáĪĪáĪļ": 1404,
      "áĪĮáĪĭ": 1405,
      "Ġáĭ¨áĭį": 1406,
      "áĪĭáĬ¨": 1407,
      "áĪ³áĬĶ": 1408,
      "ĠáĪĺáī¥": 1409,
      "Ġáĭ¨áīłáĪĪáĮł": 1410,
      "áī¥áĭĻ": 1411,
      "áī¶áī¹": 1412,
      "áĪ³áī¸áĭį": 1413,
      "ĠáĮĪáĬķáĭĺáī¥": 1414,
      "áĪĬáĭ": 1415,
      "áĪŀáĬŃ": 1416,
      "ĠáĬłáīħ": 1417,
      "ĠáĬ¥áĬķáĭ°áĪļáĭ«": 1418,
      "ĠáĪĺáĬķáĮįáĪµáīµ": 1419,
      "ĠáīłáĮ¥": 1420,
      "ĠáĬĸ": 1421,
      "ĠáĬłáĪµáĭ°": 1422,
      "áĮĪáĬĲ": 1423,
      "áī³áī½": 1424,
      "áĪįáįį": 1425,
      "áĪģáĪĪ": 1426,
      "áī³áĭŃ": 1427,
      "áĪĪáī½Ġ": 1428,
      "Ġáī£áĪį": 1429,
      "ĠáĮ¦": 1430,
      "áīµáĭ®áĮµ": 1431,
      "ĠáĬ¨áĪĽ": 1432,
      "ĠáĭĪáĬķáĭ¶áī½": 1433,
      "áĪŃáĬŃ": 1434,
      "ĠáĭµáĪĿ": 1435,
      "ĠáĪĿáĬŃáĪŃ": 1436,
      "áīłáīĥ": 1437,
      "áĪĨáĬķĠáĬł": 1438,
      "ĠáĬłáĭµ": 1439,
      "áĭ«áĭĬ": 1440,
      "áĪ°áĮłáĭį": 1441,
      "áĪĿĠáĪĪ": 1442,
      "áĬķáĮįáĭµ": 1443,
      "Ġáīĭ": 1444,
      "áĬķĠáīłáĪĽ": 1445,
      "ĠáĭŃáĪįáīħ": 1446,
      "ĠáĮĢáĪĿáĪ®": 1447,
      "áĪĪáĪĺ": 1448,
      "ĠáĭįáĪĢ": 1449,
      "áĪĿĠáĬłáĪµ": 1450,
      "áĪĽáīµ": 1451,
      "áĮłáĭŃ": 1452,
      "ĠáīłáĬ¥áĪŃáĮįáĮ¥": 1453,
      "Ġáĭ¨áĬĲáīłáĪ¨": 1454,
      "áĬ«áĪĿ": 1455,
      "áĬĵĠ": 1456,
      "ĠáĪĺáĪ°áĪ¨áīµ": 1457,
      "áĬ¨áįį": 1458,
      "Ġáĭ¨áĭ«áĪħáĭĮ": 1459,
      "áī£áĬķáĭ«": 1460,
      "áĮ£áĪĿ": 1461,
      "ĠáīµáĬ©": 1462,
      "áĪ°áĮ¡": 1463,
      "áįİáī½": 1464,
      "áĬķáĮĢ": 1465,
      "ĠáĭĿáĮį": 1466,
      "ĠáĬłáĮĭ": 1467,
      "ĠáĮįáī¥": 1468,
      "áīĢáīµ": 1469,
      "ĠáĪģáĪīáĬķáĪĿ": 1470,
      "ĠáĬłáĪµáįĪáĪĭáĮĬ": 1471,
      "áīłáĪįáĮ¥": 1472,
      "áĮłáīħ": 1473,
      "ĠáĪģáĪį": 1474,
      "áĭ¨áĭį": 1475,
      "ĠáĪĺáĪĪ": 1476,
      "ĠáĪĿáĬŃáĬķáĭ«áī±áĪĿ": 1477,
      "áĪ«áĪįĠ": 1478,
      "áĬŀáī¹": 1479,
      "áĪ¨áĮ¥": 1480,
      "Ġáĭ¨áĪĿáĬķ": 1481,
      "áĪįĠáĬ¥áĬĵ": 1482,
      "ĠáĪĿáĮįáī¥": 1483,
      "áĬ¨áī¥": 1484,
      "áĬķĠáĪĪ": 1485,
      "áįĪáĮ¥": 1486,
      "áĬ«áī£áī¢": 1487,
      "áĪµáĪįáĮ£": 1488,
      "áĬķáĭµáĬķĠáĬĲáĭįĠ": 1489,
      "Ġáĭįáĭµ": 1490,
      "áī£áĭŃ": 1491,
      "áĭ·": 1492,
      "ĠáĭįáĪ³áĬĶ": 1493,
      "Ġáĭ¨áī£": 1494,
      "áĬŃáī¥": 1495,
      "ĠáĬ¥áĪŃáĮį": 1496,
      "ĠáĪĭáĭŃĠáĭ¨áī°": 1497,
      "ĠáīħáĪŃ": 1498,
      "áĬĲáĪµ": 1499,
      "ĠáĭĪáĭŃáĪĿĠáĭ¨": 1500,
      "ĠáĬ¥áĬķáĭµáīµ": 1501,
      "áĪµáīĥ": 1502,
      "ĠáĪħáĭŃáĭĪáīµ": 1503,
      "áĪŃáĬĲáīµ": 1504,
      "Ġáī£áĪĪáĭį": 1505,
      "ĠáĬ¥áĬķáĭ³áĭŃ": 1506,
      "áĬĵáīĤ": 1507,
      "ĠáīłáĬłáĬķáĭµ": 1508,
      "ĠáĬ¥áĪŃáĪĿáĮĥ": 1509,
      "ĠáĪĺáĪ°áĪ¨": 1510,
      "áĭĪáĪŃ": 1511,
      "Ġáī´": 1512,
      "áī¨": 1513,
      "ĠáīłáĪĨáĬĲ": 1514,
      "áįĭáīµ": 1515,
      "áĬķáĬ«": 1516,
      "áĬķĠáīłáĪĺ": 1517,
      "Ġáĭ¨áīł": 1518,
      "áĭĺáĮĭáĮĢ": 1519,
      "Ġáī½áĮįáĪŃ": 1520,
      "áĭ«áĭİáī½": 1521,
      "ĠáĬłáĬķáīĢ": 1522,
      "ĠáĪĺáĪŃ": 1523,
      "ĠáĬ¥áĬķáĭ°áĮĪáĬĵ": 1524,
      "ĠáĪ´áīµ": 1525,
      "ĠáĪĽáĪ³": 1526,
      "áī¸áĭįĠ": 1527,
      "áĪµáī±": 1528,
      "áĪģáĬĳ": 1529,
      "ĠáĬ¥áīĥ": 1530,
      "ĠáĭĪáĮ£": 1531,
      "ĠáĬ¥áĪŃáĪ±": 1532,
      "ĠáĮ¥áīĤ": 1533,
      "Ġáī½áĪİ": 1534,
      "ĠáĬŃáĪŃáĪµáī²áĭ«": 1535,
      "áī³áĭİáī½": 1536,
      "áĬķáĭ²": 1537,
      "áī½áĭį": 1538,
      "áĭŃáĬķ": 1539,
      "ĠáĪĢáĭŃáĪį": 1540,
      "ĠáĪµáĪŃáĬł": 1541,
      "áĪĬáĭ®": 1542,
      "ĠáĭĿáĪŃáĭĿ": 1543,
      "áĭ°áĪ°": 1544,
      "áĭįáĪµ": 1545,
      "áĪµáī³áĭĪ": 1546,
      "áĭįáĪį": 1547,
      "ĠáĪ³áĪĿáĬķ": 1548,
      "áĬķĠáīłáī°": 1549,
      "ĠáĬ«áĪį": 1550,
      "ĠáĬłáĪģáĬķáĪĿ": 1551,
      "áī³áĪĽ": 1552,
      "áī»áī½áĪģ": 1553,
      "áĮłáĪį": 1554,
      "ĠáĭĻ": 1555,
      "ĠáĪĢáĮ¢": 1556,
      "ĠáĮ³": 1557,
      "áĮĪáĭ°": 1558,
      "áī»áĪį": 1559,
      "áĭ¨áĪ©": 1560,
      "áī¥áĪİ": 1561,
      "ĠáĪĻáĪ´": 1562,
      "áĭĺáĭį": 1563,
      "áī½Ġ": 1564,
      "áĬķáīĭ": 1565,
      "áĭįáĪİáĪµ": 1566,
      "ĠáĭĪáĭ³": 1567,
      "áĪµáĪ«áĬ¤": 1568,
      "áĪĺáĪĪáĪµ": 1569,
      "áįįáĮ¥": 1570,
      "ĠáĬłáĭĭ": 1571,
      "áīħáĪ¨áī¥": 1572,
      "áĮłáīłáīħ": 1573,
      "áī³áĭ°": 1574,
      "áĭ²áĪħ": 1575,
      "ĠáĪĽáĪµáī°": 1576,
      "ĠáīłáįĬ": 1577,
      "ĠáĮįáĬķáĬĻáĬĲáīµ": 1578,
      "Ġáĭľ": 1579,
      "áīĥáīµ": 1580,
      "áĭ³áĬķ": 1581,
      "ĠáīłáĬ©áĪį": 1582,
      "áĬ¨áĬĵ": 1583,
      "áĬĵáī¸áĭį": 1584,
      "áĪĿĠáĭĪáĭ°": 1585,
      "áĪĻáĪŃ": 1586,
      "Ġáĭ©": 1587,
      "ĠáĬ¥áĪĿáĬĲáīµ": 1588,
      "áĮłáīĥáĪĭáĭŃ": 1589,
      "áĪº": 1590,
      "áīłáĬĽ": 1591,
      "ĠáīµáĬŃáĬŃ": 1592,
      "ĠáĬ¥áĬķáĭ´áīµĠáĬĲáĭįĠ": 1593,
      "ĠáĭĪáīħáīµ": 1594,
      "ĠáīłáĪ°": 1595,
      "Ġáĭ°áĪµ": 1596,
      "áĬķĠáīłáĬł": 1597,
      "áĮĪáĬķ": 1598,
      "áīłáīµáĬķ": 1599,
      "ĠáĪĢáĪĭáįĬ": 1600,
      "ĠáĪĺáĬķáĮĪ": 1601,
      "áī¾": 1602,
      "áĮłáĭį": 1603,
      "áĬĵĠáĬ¨": 1604,
      "áĪ±áĬķ": 1605,
      "áĬŃáĪĿáĬĵ": 1606,
      "Ġáĭ¨áī°áī£": 1607,
      "ĠáĪĿáĬĵáĪį": 1608,
      "ĠáįħáĪģ": 1609,
      "áĪµáīĥáĪ´": 1610,
      "ĠáĪĭáĭŃĠáī°": 1611,
      "ĠáĪĽáĬ¥": 1612,
      "ĠáĬ¥áī£áĬŃ": 1613,
      "ĠáīłáĬ¢": 1614,
      "áĭĪáĪ°áĬĲ": 1615,
      "Ġáī°áĬĵáĮį": 1616,
      "áīµáĪĿ": 1617,
      "Ġáī³áĪĭáīħ": 1618,
      "áĬ¨áī°áĪĽ": 1619,
      "áīłáĪĭ": 1620,
      "áĪ«áĪ«": 1621,
      "áĭĪáĭ°": 1622,
      "áīĭáīĭ": 1623,
      "áĪĭáĪŃ": 1624,
      "ĠáĭŃáĪĭáĪį": 1625,
      "áī³áī¸áĭįáĬķ": 1626,
      "áī½áĪĪáĭį": 1627,
      "ĠáĮįáĪį": 1628,
      "ĠáĬ¥áĬķáĭ³áĪĪ": 1629,
      "ĠáĪĽáĪĪ": 1630,
      "ĠáīģáĮ¥áĪŃ": 1631,
      "áīº": 1632,
      "áĪĺáĪĪáĬ¨": 1633,
      "áĪ»áĪĪ": 1634,
      "ĠáĪĿáĬŃáĬķáĭ«áīµ": 1635,
      "ĠĠĠ": 1636,
      "áĭ£": 1637,
      "áī·áĪį": 1638,
      "ĠáīłáĪĺáĪĨáĬĳáĪĿ": 1639,
      "ĠáīµáĬ¥áĭĽ": 1640,
      "áīµĠáĬłáĪµ": 1641,
      "ĠáĬ©áī£áĬķáĭ«": 1642,
      "áĭ°áĮį": 1643,
      "áĭ«áĭĿ": 1644,
      "Ġáĭ«áĭ°áĪŃáĮĭ": 1645,
      "áīµáĭ®áĮµáĭ«": 1646,
      "áĭĽáīµ": 1647,
      "Ġáī¡áĭµ": 1648,
      "áī³áī½áĪģ": 1649,
      "ĠáĭŃáĪħáĪĿ": 1650,
      "ĠáĬłáĭ³": 1651,
      "áĭ³áĭ°áĪŃ": 1652,
      "Ġáįİ": 1653,
      "ĠáĪħáĭĿáī¡": 1654,
      "áĭĭáĬ¥": 1655,
      "áī¸áĭĭáĪį": 1656,
      "áĭ²áĭ®": 1657,
      "ĠáĬłáĮĪáĪįáĮĭ": 1658,
      "áĪ°áĪŃ": 1659,
      "áĬĽáĪį": 1660,
      "áīłáĪ¨áī³": 1661,
      "áĪįáĪµ": 1662,
      "áĭįáĬķĠáĭ¨": 1663,
      "ĠáĬłáĬķáīĢáįħ": 1664,
      "áĬ¨áĪĭáĬ¨": 1665,
      "ĠáĬłáĪŃ": 1666,
      "ĠáĪĺáĪĺáĪªáĭ«": 1667,
      "áĪĽáĪªáĭİáī½": 1668,
      "ĠáĮ¨áĭĭ": 1669,
      "ĠáĬłáĪĭáī¸áĭį": 1670,
      "ĠáĪįáĬŃ": 1671,
      "Ġáī³áĪªáĬŃ": 1672,
      "áĪ½áĬķ": 1673,
      "ĠáĪĻáĪīĠáīłáĪĻáĪī": 1674,
      "áĭ¨áĪ©áĪ³áĪĮ": 1675,
      "ĠáĮ³áĭįáĪİáĪµ": 1676,
      "áĪ¨áĬķ": 1677,
      "ĠáĪµáĮĭ": 1678,
      "ĠáĮįáĬķĠáĬł": 1679,
      "ĠáĪĪáĪĿáĪ³áĪĮ": 1680,
      "Ġáī¥áĪı": 1681,
      "ĠáĪĺáĪĨáĬķ": 1682,
      "áīłáĭ«": 1683,
      "ĠáĬ¨áī£áĭµ": 1684,
      "áĪĺáĭµ": 1685,
      "ĠáĪĺáįħáĪĢáįį": 1686,
      "ĠáĪĨáĬĸáĪĿ": 1687,
      "áīĢáįį": 1688,
      "ĠáīłáĪµ": 1689,
      "ĠáĮ«": 1690,
      "áĭįáĪ°": 1691,
      "áĪĿĠáīłáĬł": 1692,
      "áīµáĪŃ": 1693,
      "áīĥáĪļ": 1694,
      "ĠáĬĲáĬĿ": 1695,
      "áĭ°áĪ¨áĮĪáĭį": 1696,
      "áĭįáĭ«": 1697,
      "áĪħáĭĿáī¥": 1698,
      "ĠáĬ¥áĬķáīħáĪµáīĥáĪ´": 1699,
      "áĬķĠáĭĪáĭ°": 1700,
      "áĮ¥áī¥": 1701,
      "ĠáĬ¥áĭįáĬĲáīµ": 1702,
      "ĠáĭĺáĪĺáĬķ": 1703,
      "áī¥áĬĿ": 1704,
      "áĬķĠáīłáĬ¥": 1705,
      "áĬ©Ġ": 1706,
      "ĠáĪŃáĬ¥": 1707,
      "Ġáī°áĮĪ": 1708,
      "áĮłáĪ¨": 1709,
      "áī³áīµĠáīł": 1710,
      "áĭ³áĪŃ": 1711,
      "ĠáĪĭáĭŃĠáĭ¨": 1712,
      "ĠáĮłáīĥáĪļ": 1713,
      "áĬĵáĭĬ": 1714,
      "áĪ©Ġ": 1715,
      "ĠáĬłáĬ«áĪį": 1716,
      "áįĪáįħ": 1717,
      "ĠáĪĽáĬķáĬĽáĭįáĪĿ": 1718,
      "ĠáĪĭáĭŃĠáĭ¨áĪļ": 1719,
      "áĭŃáī³": 1720,
      "áĪ³áī½": 1721,
      "Ġáī¢áĪĨáĬķáĪĿ": 1722,
      "áĮ§": 1723,
      "Ġáĭ¨áĪħ": 1724,
      "áĬ¡": 1725,
      "ĠáĪĤáĭ°": 1726,
      "áĪ°áĪį": 1727,
      "ĠáĪĿáĪįáĬŃ": 1728,
      "áĬªáĬĵ": 1729,
      "ĠáĬĽ": 1730,
      "ĠáĪµáįįáĪ«": 1731,
      "áĭ°áĪŃáĪµ": 1732,
      "áĪħáĭŃáĭĪáīµ": 1733,
      "Ġáī¥áĪĪáĭį": 1734,
      "áĭ°áī¥": 1735,
      "ĠáĪĪáĪĽáĮįáĬĺáīµ": 1736,
      "ĠáĮłáīħ": 1737,
      "áĪĿĠáĮĬáĭľ": 1738,
      "Ġáĭ«áĪįáī°": 1739,
      "ĠáĭĪáĮ¥": 1740,
      "Ġáĭ¨áĬ¥áĪµáĪ«áĬ¤áĪį": 1741,
      "áįĪáįĥ": 1742,
      "ĠáĪµáĪį": 1743,
      "ĠáĬ¥áĬĵĠáĪĪ": 1744,
      "áĪĭáī½áĬķ": 1745,
      "áĬķáĭ³áĬķáĭµ": 1746,
      "áĪ¨áĮĭáĮį": 1747,
      "Ġáĭ¨áī°áĪĪáĭ«áĭ©": 1748,
      "ĠáĬ¥áĭ«áĬķáĭ³áĬķáĭ±": 1749,
      "ĠáĬłáĪĪáĪĿ": 1750,
      "ĠáĪĺáĬķáįĪáĪµ": 1751,
      "áĬķĠáĬłáĪµ": 1752,
      "áīħáĪŃáī¥": 1753,
      "ĠáĬłáĭŃáĭ°áĪĪáĪĿ": 1754,
      "áĭĪáĮ¡": 1755,
      "ĠáĬ¥áĪ·": 1756,
      "ĠáĪµáī¥áĪ°áī£": 1757,
      "áĭµáīħ": 1758,
      "áĮ«áĭĪ": 1759,
      "áĪĪáĭ¨": 1760,
      "áĬ¨áĪ°": 1761,
      "ĠáĪĺáĮ£": 1762,
      "Ġáī¤áī±": 1763,
      "áīµĠáīłáĬł": 1764,
      "ĠáĮ¤": 1765,
      "áī¥áĪ¨áīµ": 1766,
      "Ġáī£áĪĪáĪµáĪįáĮ£": 1767,
      "áĬĲáīłáĪŃ": 1768,
      "Ġáī°áĪĺáĪį": 1769,
      "Ġáī½áĮį": 1770,
      "ĠáĪĿáĪĭ": 1771,
      "áĬ«áīµ": 1772,
      "áĪĢáĪį": 1773,
      "ĠáīłáĭļáĪħĠáĮĬáĭľ": 1774,
      "ĠáīłáĪĽáĪĪáīµ": 1775,
      "áīŃ": 1776,
      "ĠáĭŃáĬ¸áĭį": 1777,
      "Ġáĭ¶áĪĭáĪŃ": 1778,
      "áī¦áī½áĬķ": 1779,
      "áĭİáīµ": 1780,
      "ĠáĬłáĮĪ": 1781,
      "ĠáīµáĬŃáĬŃáĪĪáĬĽ": 1782,
      "ĠáĬ¥áĬĵĠáĬ¨": 1783,
      "áĭŃáĪģáĭ³": 1784,
      "ĠáĬ¥áĬĲáĪĨ": 1785,
      "áĬ¨áĬĵáĭĪ": 1786,
      "áĪ¨áĭ±": 1787,
      "áī³áĭĪ": 1788,
      "ĠáĪĭáĭŃĠáĭŃ": 1789,
      "Ġáĭ¨áĪµáĪ«": 1790,
      "ĠáĬłáĪĽáĬ«": 1791,
      "ĠáĬ¥áĪŃáĪµ": 1792,
      "ĠáĬ¥áĬķáī½áĪĭ": 1793,
      "áĬķáĬŃ": 1794,
      "áĪ°áĪ¨": 1795,
      "ĠáĭŃáĪģáĬķáĬĵ": 1796,
      "áĪĿáī³": 1797,
      "ĠáĭįáĮŃ": 1798,
      "ĠáĮĨ": 1799,
      "ĠáĪĿáĭµ": 1800,
      "ĠáīłáĪĺáĮ¨áĪ¨áĪ»": 1801,
      "áĬŃáĪŃáĪµ": 1802,
      "Ġáĭ¨áĪĢ": 1803,
      "áīĢáīł": 1804,
      "Ġáĭ¨áĮ¥": 1805,
      "ĠáĭµáĪĿáįħ": 1806,
      "áĪĿĠáīłáĬ¥": 1807,
      "ĠáĬłáĪĪáĭįĠ": 1808,
      "áĪĿĠáĭ¨áĪļ": 1809,
      "ĠáĪĿáĪŃáĮ¥": 1810,
      "Ġáīµáī½áĪĭ": 1811,
      "áįħáĬ¥": 1812,
      "áĮ¡Ġ": 1813,
      "áĮłáīĢáĪĻ": 1814,
      "ĠáĮĪáĪį": 1815,
      "áįħáĬ¥áĬĸ": 1816,
      "Ġáī³áĪĽáĬĿ": 1817,
      "Ġáĭ¨áĪĨáĬĲáĭį": 1818,
      "ĠáĮįáĪįáįħ": 1819,
      "ĠáĪ°áĬł": 1820,
      "áĪ¨áĭµ": 1821,
      "áĪµáĪ«áīµ": 1822,
      "ĠáīĢáĮ¥": 1823,
      "ĠáĮ¨áĪĿáĪ®": 1824,
      "áĬªáĭ«": 1825,
      "áĪĦáĭ±": 1826,
      "ĠáĮīáī£áĬ¤": 1827,
      "ĠáīĭáĬķáīĭ": 1828,
      "ĠáĭĪáĪ°": 1829,
      "ĠáĭĪáĪµ": 1830,
      "ĠáĪ´áī¶áī½": 1831,
      "ĠáĪĿáĪŃáĮ«": 1832,
      "ĠáĬ¥áĪŃáĭ³": 1833,
      "áĮįáĬĿ": 1834,
      "áĪŀáīµ": 1835,
      "Ġáĭ¨áĪĺáįħáĪĢáįįĠáīħáĭ±áĪµ": 1836,
      "Ġáī¥áĭ¬": 1837,
      "áĭ²áĭ«áĭį": 1838,
      "ĠáĭĪáĪĭ": 1839,
      "áĪİáĮĤ": 1840,
      "ĠáĬ¢áĬķ": 1841,
      "áĪ«áĪ±": 1842,
      "ĠáĪµáĪĪáĪĨáĬĲ": 1843,
      "áĪĭáī½áĪģĠ": 1844,
      "áĪŃáī£": 1845,
      "Ġáīłáĭ°": 1846,
      "ĠáĬŃáįī": 1847,
      "Ġáĭ¨áĮĪ": 1848,
      "áįĪáĪ«": 1849,
      "áĬĸáĪ¨áĭį": 1850,
      "ĠáĬłáĭ«": 1851,
      "áĪ®áĪµ": 1852,
      "ĠáĬłáĪĪĠ": 1853,
      "ĠáĬłáĭµáĪŃáĮİ": 1854,
      "áĮłáĭ¨": 1855,
      "áī¸áĭĭ": 1856,
      "ĠáĪµáĪįáĮ£": 1857,
      "áĪªáī±": 1858,
      "áĬĽáĪįĠ": 1859,
      "ĠáĬłáĬķáĭµĠáĪ°áĭį": 1860,
      "áĬ¥áĬŃ": 1861,
      "ĠáĭŃáĪģáĬķĠáĬ¥áĬķáĮĤ": 1862,
      "ĠáĬ¥áĬĲáĭļáĪħáĬķ": 1863,
      "ĠáīłáĮį": 1864,
      "ĠáĭĺáĪŃ": 1865,
      "áĪļáĭİáī½": 1866,
      "ĠáįķáĪ®áĮįáĪ«": 1867,
      "áĪĪáĪĽ": 1868,
      "Ġáī³áĭ²áĭ«": 1869,
      "áĪįáĪĿ": 1870,
      "ĠáĪ«áĪµ": 1871,
      "ĠáīłáĮ£áĪĿĠáĮ¥áĪ©": 1872,
      "áīĢáĭµáĪŀ": 1873,
      "Ġáīª": 1874,
      "ĠáĬĲáīłáĪ©Ġ": 1875,
      "áī¥áĭĽ": 1876,
      "áĮĭáįį": 1877,
      "ĠáĪĪáĪĽáĪµ": 1878,
      "áĪĺáĬĵ": 1879,
      "áī°áĭĭáĪįĠ": 1880,
      "áĬķáĬĽáĭįáĪĿ": 1881,
      "áĪ¯áĪįĠ": 1882,
      "áĬķáĮī": 1883,
      "Ġáĭ¨áĮį": 1884,
      "áīħáĪŃáī¡": 1885,
      "ĠáĬ¥áĬķáĭµáĬķ": 1886,
      "áĪĢáĪįĠ": 1887,
      "Ġáī¤áī¶áī½": 1888,
      "Âł": 1889,
      "áĬĲáįĥ": 1890,
      "ĠáĪĿáĬķĠáĭ«áĪħáĪį": 1891,
      "ĠáīłáĪį": 1892,
      "ĠáĬĲáĭįĠáĬ¥áĬĵ": 1893,
      "áĬĵáĮĪáĪ©": 1894,
      "áĪĭáīĢ": 1895,
      "Ġáī¢áĪĨáĬķ": 1896,
      "ĠáĭŃáīłáĪįáĮ¥": 1897,
      "ĠáĬ¢áĭ®": 1898,
      "ĠáĬĲáĮĪáĪ®áī½áĬķ": 1899,
      "ĠáīłáĪĺáĮĢáĪĺáĪªáĭ«": 1900,
      "áīĢáĪĿ": 1901,
      "ĠáĪĺáīħ": 1902,
      "ĠáĪĪáĭįáĮ¥": 1903,
      "ĠáĭĻáĪªáĭ«": 1904,
      "ĠáĬłáĮĪáĪįáĮįáĪİáīµ": 1905,
      "áĪĿáĪ«": 1906,
      "áĪģáĪīáĪĿ": 1907,
      "áĭĿáĬĵ": 1908,
      "áĮİáī½": 1909,
      "áĬķĠáĬ¥": 1910,
      "ĠáĪĢáī¥": 1911,
      "áĭµáĪŃáĮī": 1912,
      "ĠáĪ³áĭŃáĪĨáĬķ": 1913,
      "ĠáĪ°áĮ¥": 1914,
      "Ġáī¥áĪĦ": 1915,
      "áīĢáĪŃáī¥": 1916,
      "ĠáĬłáĮĪáĪŃ": 1917,
      "ĠáĪ°áĪŃ": 1918,
      "Ġáĭ®áĪĢ": 1919,
      "ĠáĬ¥áĭįáĬĲáī°áĬĽ": 1920,
      "ĠáĬ¥áĪŃáĭ³áī³": 1921,
      "ĠáĮ¥áīłáī¥": 1922,
      "ĠáĪĽáĬķáĪĿ": 1923,
      "Ġáĭ³áĪŃ": 1924,
      "áĬ¥áĪ«": 1925,
      "áįĬáĭ«": 1926,
      "ĠáĬ¥áĬķáĭ³áĪį": 1927,
      "ĠáĭĪáĪ¨": 1928,
      "áĭ°áĪ«": 1929,
      "ĠáĪĺáĪįáĬ«áĪĿ": 1930,
      "ĠáĬłáĭŃáĭ°áĪĪáĪĿĠ": 1931,
      "áĪĭáĭįáĭ«áĬķ": 1932,
      "ĠáĪĿáĪµáĪ«": 1933,
      "ĠáĭŃáĪ°áĮ£": 1934,
      "ĠáĪĨáĬĲáĭį": 1935,
      "ĠáĭŃáĮĪáī£": 1936,
      "ĠáĪĽáĮįáĬĺáīµ": 1937,
      "áīĢáĭ°": 1938,
      "ĠáĬłáī¥áĭĽ": 1939,
      "ĠáĪ±": 1940,
      "áĭ°áĮĪ": 1941,
      "áĮłáĬĽ": 1942,
      "áĭŃáĬĵ": 1943,
      "áĪ³áĪį": 1944,
      "áĭ¢": 1945,
      "áĭĺáĪĭ": 1946,
      "ĠáĬ¥áĭµáĪľ": 1947,
      "ĠáĬ¥áĪµáĪ«áĬ¤": 1948,
      "ĠáĪ¶áĪµáīµ": 1949,
      "ĠáĭµáĬķáĮĭ": 1950,
      "ĠáĪĺáī£": 1951,
      "áįı": 1952,
      "áīĢáīłáĪį": 1953,
      "áīµĠáĬłáĪį": 1954,
      "áĪħáĪŃ": 1955,
      "áī¿": 1956,
      "áīµĠáĬłáĪĪ": 1957,
      "áįĪáĪĪáĮī": 1958,
      "ĠáĬŃáĪŃáĪµáī¶áĪµ": 1959,
      "áĮĭáĪª": 1960,
      "áĪµáī°áĪŃ": 1961,
      "ĠáĪĺáĮłáĬķ": 1962,
      "áĬ¨áī£": 1963,
      "Ġáīłáī°áĪĪáĭŃ": 1964,
      "ĠáĪ©": 1965,
      "Ġáĭ¨áĪ°áĭį": 1966,
      "áĭĪáĭµ": 1967,
      "ĠáĪģáĪįáĮĬáĭľ": 1968,
      "áĪįáīģ": 1969,
      "Ġáī¦áī³áĭİáī½": 1970,
      "áĪĿáĪ©": 1971,
      "áĬ¨áĪį": 1972,
      "áĪĬáĭ«": 1973,
      "áĬ¨áįĭ": 1974,
      "ĠáĪ°áĭŃ": 1975,
      "ĠáĪ°áĬłáīµ": 1976,
      "áĭįáīħ": 1977,
      "Ġáĭ¨áĪĺáĮ¨áĪ¨áĪ»": 1978,
      "áįĶ": 1979,
      "Ġáĭ«áĬķ": 1980,
      "ĠáīĢáĭ°áĪĿ": 1981,
      "áīĢáĪ¨áīł": 1982,
      "ĠáĬ¥áĪŃáĪµáĭİ": 1983,
      "áĪħáī°": 1984,
      "ĠáįĸáĪĬ": 1985,
      "áĪĺáĮ¡": 1986,
      "áī£áĪŃ": 1987,
      "Ġáĭ¨áĪĮ": 1988,
      "áĬķáĬ«áĪ«": 1989,
      "ĠáīłáĬ¥áĭį": 1990,
      "áī»áī¸áĭįáĬķ": 1991,
      "ĠáĬ¥áĬĲáĭļáĭ«": 1992,
      "ĠáĪĪáĭļáĪħ": 1993,
      "ĠáĪº": 1994,
      "áĪĺáīµ": 1995,
      "ĠáĭŃáĪ°áĪĽ": 1996,
      "ĠáĭĪáĬķáĭµáĪŀáī½": 1997,
      "Ġáī£áĪĪáĪĻ": 1998,
      "Ġáīłáī°áĮ¨áĪĽáĪªáĪĿ": 1999,
      "ĠáĭĿáĪŃáĭĿáĪŃ": 2000,
      "áīłáīħ": 2001,
      "Ġáī½áĪİáī³": 2002,
      "áĪĨáĬķĠáīł": 2003,
      "áĬķáīħ": 2004,
      "ĠáĪ»": 2005,
      "áĬ®áī½": 2006,
      "ĠáĪļáĬĴ": 2007,
      "áĪĽáĬĸ": 2008,
      "áĪħáĬķáĬĲáīµ": 2009,
      "áĭ°áĪŃáĮĪáĭį": 2010,
      "áĮłáī£": 2011,
      "áĮ®áī½": 2012,
      "ĠáĪµáĪŃáĬłáīµ": 2013,
      "áĪĺáĪ°áĪ¨": 2014,
      "áĪĽáĭĬ": 2015,
      "áĭĪáĪĪ": 2016,
      "áī«": 2017,
      "áĪµáĪŃ": 2018,
      "áĪµáĬĵ": 2019,
      "áĬĸáĪ¨": 2020,
      "ĠáĮīáĭŀ": 2021,
      "áĪ³áī°": 2022,
      "áī¥áĪŃáĪĢ": 2023,
      "áĭĺáĪĭáĪĪáĪĿ": 2024,
      "Ġáĭ¨áĪį": 2025,
      "Ġáĭ°áĪµáī³": 2026,
      "ĠáįįáĪŃáĭµ": 2027,
      "Ġáĭ¨áįį": 2028,
      "áĪĽáĮį": 2029,
      "ĠáĮīáĭ³áĭ®áī½": 2030,
      "ĠáĬŃáĪŃáĪµáī²áĭ«áĬĸáī½": 2031,
      "ĠáĭĿáĮįáĮħ": 2032,
      "áĪµĠ": 2033,
      "áīµĠáīłáī°": 2034,
      "ĠáĪĪáĪĿáĬķáĭµáĬķĠáĬĲáĭįĠ": 2035,
      "Ġáĭ¨áĪļáĪį": 2036,
      "áĪĪáĪį": 2037,
      "Ġáĭ³áĭĬáīµ": 2038,
      "áĮįáī£áĪŃ": 2039,
      "Ġáĭ¨áĪĺáĬķáĮį": 2040,
      "ĠáĪĭáĭŃĠáīł": 2041,
      "áĭİáī½Ġáīł": 2042,
      "áįģáĪħ": 2043,
      "áĮĪáĪ¨": 2044,
      "áĮįáĪĪáĮ«": 2045,
      "ĠáīµáĪŃáĮī": 2046,
      "áįĪáĪ¨": 2047,
      "ĠáĭµáĮĭáįį": 2048,
      "ĠáĪĿáĪĭáĪ½": 2049,
      "áīĨáī¥": 2050,
      "ĠáĭµáĪŃáĮĬ": 2051,
      "áĮ¥áĪ¨": 2052,
      "ĠáĬ¥áĬķáĪµ": 2053,
      "áĪ°áĪĽáĭŃ": 2054,
      "ĠáĮĭáĪŃĠáī°": 2055,
      "ĠáĬłáĪĭáĪĽ": 2056,
      "áĪĦáĭ³": 2057,
      "ĠáĪĪáĪĿáĬķ": 2058,
      "áĬĵáĮĪáĪ¨áĭį": 2059,
      "Ġáĭĺáĭ´": 2060,
      "áĪ¬áĭį": 2061,
      "ĠáĪĺáĬķáįĪáĪ³áĭĬ": 2062,
      "áīµĠáīłáĪĽ": 2063,
      "ĠáĬ¨áĬ¥áĪ±": 2064,
      "ĠáīłáĪļáĭ«": 2065,
      "Ġáĭ¨áĪĨáĬĲáĭįáĬķ": 2066,
      "áĬķáĭĿ": 2067,
      "áĬķĠáĬ¥áĬķáĭ°": 2068,
      "áĬ¥áīĨáī¥": 2069,
      "áī°áĭĭáĪį": 2070,
      "ĠáĪĺáĭĽ": 2071,
      "ĠáĪĺáĮĢáĪĺáĪªáĭ«": 2072,
      "ĠáĮĭáĪŃĠáīłáī°": 2073,
      "Ġáĭ¨áī°áĪ»áĪĪ": 2074,
      "áĬŃáĬŃáĪį": 2075,
      "ĠáĪĭáĭŃĠáĪĺ": 2076,
      "áĭ°áĪŃáĮĪ": 2077,
      "áĬķáī£": 2078,
      "áĭ«áĬķáĭ³áĬķáĭ±": 2079,
      "ĠáĮĪáī¥": 2080,
      "áĪįáĪħ": 2081,
      "ĠáĭĪáī³áĭ°": 2082,
      "ĠáĪĿáĬŃáĬķáĭ«áī±": 2083,
      "áĭ«áĭ«áĭĺ": 2084,
      "áĪĿĠáĬ¥": 2085,
      "áĪĪáī²": 2086,
      "ĠáĭŃáĭĺ": 2087,
      "áĮĭáĮ¥": 2088,
      "Ġáī¶": 2089,
      "áĪ®áĬķ": 2090,
      "ĠáĮ¤áĬĵ": 2091,
      "ĠáĪµáĬķ": 2092,
      "ĠáĪĿáĬĵáĪįáī£áīµ": 2093,
      "ĠáĬłáįį": 2094,
      "áīłáĪ«áĭĬ": 2095,
      "Ġáī¥áĪĪ": 2096,
      "áĪ¨áĮĭáĮĪáĮ¥": 2097,
      "Ġáĭ¨áĪļáĬ¨áī°": 2098,
      "ĠáīĢáĬĵáīµ": 2099,
      "ĠáĪģáĬĶáī³áĭİáī½": 2100,
      "ĠáĬ¬": 2101,
      "ĠáĪµáĮ¦": 2102,
      "ĠáĪĽáĪµáī³áĭĪ": 2103,
      "Ġáī»": 2104,
      "Ġáĭ¨áĬ¤": 2105,
      "ĠáīłáĪŃáĬ«áī³": 2106,
      "áĬ¥áĪĿáĪ®": 2107,
      "ĠáīłáĪ¨": 2108,
      "ĠáĪĿáĪµáĬŃ": 2109,
      "ĠáĮ¥áīĤáīµ": 2110,
      "áĪĽáĮįáĪĮ": 2111,
      "Ġáĭ¨áīĢ": 2112,
      "ĠáĮ¥áĪ¨áīµ": 2113,
      "ĠáĬŃáĪį": 2114,
      "ĠáĮĵáĭ°áĬĽ": 2115,
      "ĠáĪĿáĬķáĪĿĠáĬ¥áĬķáĬ³": 2116,
      "áīłáīµĠáĬł": 2117,
      "ĠáĪĺáĮ¥áįİ": 2118,
      "áĮįáĭ³": 2119,
      "áĪµáĮłáīµ": 2120,
      "áĭįĠáĪĺ": 2121,
      "ĠáĪ°áĪĽ": 2122,
      "áĪĺáĪįáĬ¨áī±": 2123,
      "áĭįáĮ£": 2124,
      "áĭĺáĪŃ": 2125,
      "Ġáī²": 2126,
      "áĪĿĠáĬ¥áĬĵ": 2127,
      "ĠáįĪáįħ": 2128,
      "áĭįáĪ°áĭµ": 2129,
      "áĮ¥áįį": 2130,
      "ĠáīģáĮ¥": 2131,
      "áĮĪáĪĪáĮį": 2132,
      "áįįáĮłáĪŃ": 2133,
      "ĠáĭĪáĭ²áĭ«áĭį": 2134,
      "áįĪáĪĪáĮį": 2135,
      "ĠáĬ¥áĪµáĬ«": 2136,
      "ĠáĭŃáĬĸáĪŃ": 2137,
      "Ġáī¥áĭĻĠáĮĬáĭľ": 2138,
      "áĭµáĪĢ": 2139,
      "Ġáīłáįį": 2140,
      "ĠáĬłáĭĭáĮħ": 2141,
      "áĭįĠ": 2142,
      "áĮ£áĬķ": 2143,
      "áĬĵĠáĪĺ": 2144,
      "ĠáīĢáĪŃ": 2145,
      "Ġáī°áī¥áĪİ": 2146,
      "Ġáī£áĪªáĭ«": 2147,
      "ĠáĭįáĪµáĮ¥Ġáĭ¨áĪļ": 2148,
      "áĮ¦áĪŃ": 2149,
      "ĠáīłáĪµáī°": 2150,
      "Ġáī£áĪĪáī¤": 2151,
      "áĪ°áī¦áī½": 2152,
      "ĠáĭĪáĮª": 2153,
      "ĠáĬķáĮīáĪ±": 2154,
      "ĠáĪĽáĪŃ": 2155,
      "ĠáĬłáĪĺáĪĪ": 2156,
      "áĬ¨áĪĪ": 2157,
      "áĬĵáĮĪáĪ¨": 2158,
      "ĠáĪī": 2159,
      "áĪĿáĮ£": 2160,
      "Ġáī°áĭĪ": 2161,
      "Ġáī¤áī°áĪ°áī¥": 2162,
      "ĠáĮłáĬķáĬ«áĪ«": 2163,
      "áĪ³áī½áĬķ": 2164,
      "ĠáĬ¤ĠáĬł": 2165,
      "ĠáīµáĬ¥áĭĽáĭĿ": 2166,
      "áĪĿáĪĭáĬ«": 2167,
      "áįĸáĪŃ": 2168,
      "ĠáĪĽáĬķáĬĽáĭįáĬķ": 2169,
      "Ġáī´áĬŃ": 2170,
      "áĬ©áīµ": 2171,
      "ĠáĬłáĪµáī°áĭ«": 2172,
      "áĬĵĠáĪĪ": 2173,
      "áĪ³áī¥": 2174,
      "ĠáĪĢáĮ¢áĬł": 2175,
      "ĠáĬłáĭİ": 2176,
      "áĪ«áĮŃ": 2177,
      "áĬ¨áĪ¨": 2178,
      "ĠáĪĺáĪįáĪµ": 2179,
      "ĠáįĪáīĥáĭµ": 2180,
      "áĪĿáįĴ": 2181,
      "áĮĭáĪ«": 2182,
      "ĠáĮ£áī¢áĭ«": 2183,
      "ĠáīµáĪĿáĪħáĪŃ": 2184,
      "áĬĲáįį": 2185,
      "ĠáīłáĪĺáī¶": 2186,
      "ĠáĭĪáĭŃáĪĿĠáĬł": 2187,
      "áĭ²áĪ±": 2188,
      "áĬ¨áī³áī°": 2189,
      "áīĤáīĥ": 2190,
      "áĪµáī²": 2191,
      "áĮ©": 2192,
      "áĪĨáĬĲáĭį": 2193,
      "áĬŀáī½áĬķ": 2194,
      "Ġáī£áĪī": 2195,
      "áĬķĠáĭ¨áĪļáĭ«": 2196,
      "ĠáīłĠ": 2197,
      "áĮłáĬĿáĬĲáīµ": 2198,
      "ĠáĮĪáĭ°": 2199,
      "áįĲ": 2200,
      "áĬĲáĮį": 2201,
      "áĭ°áĪ¨áĪ°": 2202,
      "ĠáĪĺáī°": 2203,
      "áī¡áī¥": 2204,
      "Ġáī¥áīµ": 2205,
      "ĠáĭįáĪµáĮ¥Ġáĭ¨": 2206,
      "Ġáĭ«áĪīáīµ": 2207,
      "áĬĲáīłáĪ¨áĭį": 2208,
      "ĠáĮĵáĭ°": 2209,
      "áĪĭáĬķáĭµ": 2210,
      "ĠáĬ¥áĬķáĭ²áĭ«áĭį": 2211,
      "ĠáĪįáĪĿáĭµ": 2212,
      "áĬĲáīł": 2213,
      "áĪŀáĪĭ": 2214,
      "Ġáĭ¨áĬ¥áĬĶ": 2215,
      "ĠáĪĺáĪµáĭĭáĬ¥": 2216,
      "áī°áĬĵ": 2217,
      "áĭĪáĮ¥": 2218,
      "áĪĿĠáĬ¥áĬķáĭ°": 2219,
      "Ġáī°áīĭ": 2220,
      "ĠáĪ¨áĮĪáĭµ": 2221,
      "áĪģáĪĪáīµ": 2222,
      "áĪĿĠáĭ¨áĬ¥": 2223,
      "áĪĪáī²áĬ«": 2224,
      "ĠáĬ¥áĪħ": 2225,
      "ĠáĬŃáī¥áĪŃ": 2226,
      "ĠáĪģáĪĪáī±": 2227,
      "ĠáĬłáĪĪáīłáīµ": 2228,
      "ĠáĮ¥áĭ«áīĦáĭİáī½": 2229,
      "ĠáĬ¥áĬķáī½áĪĭáĪĪáĬķĠ": 2230,
      "Ġáī°áįħáĬ¥áĬĸ": 2231,
      "ĠáĬ¥ĠáĬ¤ĠáĬł": 2232,
      "áĪĽáī¸áĭį": 2233,
      "áįħáĪģ": 2234,
      "ĠáĬ¥áĪµáĬª": 2235,
      "áĭ«áĬķáĪµ": 2236,
      "´áĮ¥": 2237,
      "ĠáĪĽáī´": 2238,
      "ĠáĬŃáįįáĪİáī½": 2239,
      "ĠáĬłáĪĺáĪĪáĬ«áĬ¨": 2240,
      "ĠáĪµáĪħáī°": 2241,
      "áįĪáīĥ": 2242,
      "áĬķáĭĽ": 2243,
      "áĬ®áĬĸ": 2244,
      "ĠáĬłáĪµáĭ°áĬĵáīĤ": 2245,
      "áĪĿĠáĭ«": 2246,
      "ĠáĪĺáĪ¬": 2247,
      "ĠáĭĪáĬķáĭ¶áī½ĠáĪįáĮĨáī½": 2248,
      "Ġáĭ¨áĬ«": 2249,
      "ĠáĬ¥áĭļáĭ«": 2250,
      "áĮĪáĬĵáĬĺ": 2251,
      "áĪĿáĪµ": 2252,
      "áĪµáĪĺáĪŃ": 2253,
      "ĠáĮĭáĪŃĠáĭ¨áī°": 2254,
      "ĠáĭĪáĮĪ": 2255,
      "ĠáĬ¥áĭµáĪį": 2256,
      "Ġáĭ´": 2257,
      "ĠáĬłáĪĺáī³áīµ": 2258,
      "ĠáĬ¥áĭµáĮĪ": 2259,
      "ĠáĪĺáī³": 2260,
      "áīµáĪµ": 2261,
      "áĮłáĪĭ": 2262,
      "ĠáĬĲáįį": 2263,
      "áĮłáīłáīĢ": 2264,
      "áī¹áĬķ": 2265,
      "ĠáīłáĮ£áĪĿĠáĬłáĪµ": 2266,
      "ĠáįķáĪ¬": 2267,
      "áįħáĬĵ": 2268,
      "áĭĺáĮĭáĮħ": 2269,
      "áįķáĪ®": 2270,
      "Ġáĭ«áĪīáīµáĬķ": 2271,
      "ĠáįĴ": 2272,
      "áīµĠáĭ¨áī°": 2273,
      "áĭĭáīĤ": 2274,
      "ĠáĪļáĪĬáĭ®": 2275,
      "ĠáĬŃáįįáĭ«": 2276,
      "áĪ°áĪĭ": 2277,
      "Ġáĭİ": 2278,
      "áĪĺáĪ°áĮįáĬĵ": 2279,
      "áįĪáĪįáĮĪ": 2280,
      "ĠáĬĲáĭįĠáīł": 2281,
      "ĠáĬ¨áī°áĪŀáī½": 2282,
      "ĠáĬłáĪįáī°": 2283,
      "áīµĠáīłáĬ¥": 2284,
      "ĠáĬ¥áĬķáĭ²áĪģáĪĿĠáīł": 2285,
      "áĪ´áįį": 2286,
      "ĠáĪįáĮģ": 2287,
      "ĠáĪµáĪĪáī°": 2288,
      "áīĨáī½": 2289,
      "Ġáīłáī³áī½": 2290,
      "áĮĪáĬĲáĭĺ": 2291,
      "Ġáĭ«áĭµáĪŃáĮī": 2292,
      "ĠáĮįáĪĪ": 2293,
      "ĠáĬłáĪĭáĪħ": 2294,
      "ĠáĪ«áĪ±": 2295,
      "áĭī": 2296,
      "ĠáĪ½áĪĽáĮįáĪĮ": 2297,
      "Ġáĭ¨áĪĪ": 2298,
      "Ġáĭ¨áĬĲáīłáĪ©": 2299,
      "áĪĭáĪħ": 2300,
      "ĠáĬ¥áĬķáĭ²áĪĨáĬķ": 2301,
      "áīĢĠáĪĺáĭĽ": 2302,
      "ĠáĬĲáĮĪáĪŃĠáĮįáĬķĠáīł": 2303,
      "ĠáĭĿáīħ": 2304,
      "ĠáĪĦáĭ°": 2305,
      "áī£áĪĪ": 2306,
      "áĮĢáĪĺáĪŃ": 2307,
      "áĪµáīµĠáĬł": 2308,
      "Ġáĭ°áīĤáīĥ": 2309,
      "ĠáĮįáĪ«": 2310,
      "áīĨáĮłáĪ©": 2311,
      "áĬĸáĪµ": 2312,
      "ĠáĭįáĪµáĮ¥Ġáīł": 2313,
      "ĠáĬ¥áĪ±áĪĿ": 2314,
      "áĮįáī¥áįħ": 2315,
      "ĠáĮ¦áĪŃáĬĲáīµ": 2316,
      "Ġáĭ¨áĬķáĮįáĭµ": 2317,
      "áĪ«áĪ²": 2318,
      "áīĢáĪµ": 2319,
      "áī»áĪĪáĪģ": 2320,
      "Ġáįİáī¶": 2321,
      "áĬĲáī¶áī½": 2322,
      "ĠáĬ®áĪļ": 2323,
      "áĭįáĪ®": 2324,
      "ĠáĬłáīł": 2325,
      "ĠáĬ¥áĪŃáĮįáĮłáĬĽ": 2326,
      "ĠáĪĺáĪĨáĬĵ": 2327,
      "Ġáī°áĮł": 2328,
      "áĪĺáĭĿ": 2329,
      "ĠáĭŃáīħáĪŃ": 2330,
      "ĠáĮ´áĮ¥": 2331,
      "áĭ«áĪį": 2332,
      "áĪģáĬĳĠáĮĬáĭľ": 2333,
      "Ġáī£áĭŃ": 2334,
      "áī¦áīµ": 2335,
      "Ġáĭ¨áĪĿáī³": 2336,
      "ĠáĪĭáĭŃĠáĭ«": 2337,
      "áĪħáĭĿáī¡": 2338,
      "áī°áĬķ": 2339,
      "áĮīáī£áĬ¤": 2340,
      "áĪµáīµáĬĵ": 2341,
      "áī¨áĪŃ": 2342,
      "áĭµáĪĢáĬĴ": 2343,
      "Ġáĭ¨Ġ": 2344,
      "áĮ¥áĬķ": 2345,
      "áĮįáĪįáįħ": 2346,
      "áī¾áī½": 2347,
      "áįĥáĪħ": 2348,
      "áĪµáīµáĪª": 2349,
      "ĠáĪµáĪľáīµ": 2350,
      "áĪµáĬŃ": 2351,
      "áĭİáī½ĠáĬ¥áĬĵ": 2352,
      "áįįáĮ¥áĬĲáīµ": 2353,
      "ĠáĪħáĭĿáī¦áī½": 2354,
      "áĪĿĠáīłáī°": 2355,
      "áĪĺáĭĺ": 2356,
      "áĪ©áīµ": 2357,
      "áĬĸáĪªáĭ«": 2358,
      "ĠáīĢáĬĵ": 2359,
      "ĠáĪĿáĪµáĬŃáĪ®áī½": 2360,
      "ĠáĪĿáĪ½": 2361,
      "ĠáĮĢáĪĺáĪŃ": 2362,
      "Ġáī¥áĪĭ": 2363,
      "Ġáįįáįģ": 2364,
      "áīĢáĪŃáī¡": 2365,
      "ĠáĬłáĪµáĭ°áĪ³áī½": 2366,
      "Ġáī¡áĭµáĬķ": 2367,
      "áĪħĠ": 2368,
      "áĪ«áīħ": 2369,
      "áĭ°áĪį": 2370,
      "áī¶áī»áī¸áĭį": 2371,
      "Ġáī¢áĭ«áĬķáĪµ": 2372,
      "áī¤áī°áĪ°áī¥": 2373,
      "áĪµáī´": 2374,
      "ĠáĬ«áĪĪ": 2375,
      "ĠáĭĪáĪĪ": 2376,
      "Ġáī°áĪĺáĪ³áĪ³áĭŃ": 2377,
      "áīĥáĪį": 2378,
      "Ġáī¥áĪŃáĪĢ": 2379,
      "ĠáĬķáįģáĪħ": 2380,
      "ĠáĪ°áĪ«áī°áĬŀáī½": 2381,
      "Ġáĭ°áī¥": 2382,
      "áĬĸáĪ«": 2383,
      "áĪ³áī¸áĭįáĬķ": 2384,
      "áīµĠáīłáĬĭáĪĭ": 2385,
      "ĠáĬłáĪīĠ": 2386,
      "áĪĺáī±": 2387,
      "ĠáįįáĪ¬": 2388,
      "ĠáĪĺáĪµáĮł": 2389,
      "Ġáī£áĪħáĪŃ": 2390,
      "ĠáĬ¥áĬķáĭ°áĪĽáĭŃ": 2391,
      "áįĸáĪŃáīµ": 2392,
      "áĬ¨áī°áĪį": 2393,
      "áī£áĭĬ": 2394,
      "áĪĿáĪħáĪŃáīµ": 2395,
      "Ġáĭ¨áĭļáĪħ": 2396,
      "ĠáīłáĪĮáĪĭ": 2397,
      "áīµĠáīłáĪļ": 2398,
      "áĪĪáįį": 2399,
      "ĠáĬ¤áĪį": 2400,
      "áĬ¥áĬŃáīµ": 2401,
      "áī¤áī±": 2402,
      "ĠáĬ¥áīħáĭµ": 2403,
      "ĠáĬłáĪįáĬĲáīłáĪ¨": 2404,
      "ĠáīµáĬ©áĪ¨áīµ": 2405,
      "áĭŁ": 2406,
      "áĮĭáĪļ": 2407,
      "Ġáī£áĪĪáįĪáĭį": 2408,
      "ĠáĬłáĭ°áĮĭ": 2409,
      "áĪĿáĪ¨": 2410,
      "áĮ¤áĬĵ": 2411,
      "áĪ³áī½áĪģ": 2412,
      "áĪĿĠáĬłáīĢáįį": 2413,
      "áĬķĠáīłáĪļ": 2414,
      "áĪ½áī³": 2415,
      "ĠáĪĢáĪĭáįĬáĬĲáīµ": 2416,
      "ĠáĭŃáīĢ": 2417,
      "ĠáĬłáĪĪáĪĺ": 2418,
      "ĠáĬ¥áĪµáĪ«áĬ¤áĪį": 2419,
      "áĬ¦áĪį": 2420,
      "áĮĪáĪĪáįĢ": 2421,
      "áĬķáĭ´": 2422,
      "ĠáĬ¤áĪµ": 2423,
      "áĪĿáĮĪ": 2424,
      "ĠáĪħáįĥ": 2425,
      "ĠáĬ¨áĬ¥áĬĲáĪ±": 2426,
      "áīĢáĪŃáī£": 2427,
      "áįĪáįĢáĪĿ": 2428,
      "áĭŃáĪį": 2429,
      "Ġáĭ¨áĬ¥áĬĽ": 2430,
      "ĠáĬłáĪĽáĬ«áĬĿáĬĲáīµ": 2431,
      "Ġáĭ¨áĬłáĭ¨áĪŃ": 2432,
      "ĠáĭµáĬķáĬ³": 2433,
      "áĬķáĮĨ": 2434,
      "áĭĺáĭĿ": 2435,
      "ĠáĪĽáĭĪáīħ": 2436,
      "ĠáĪĺáĪĭ": 2437,
      "áĬĸáĪİáĮĤ": 2438,
      "ĠáĪĽáĮįáĬĺ": 2439,
      "ĠáĭŃáĪ¨áĭ³": 2440,
      "áĭĪáĮĪáĭµ": 2441,
      "áīĢáīħ": 2442,
      "áįĪáĮ¥áĪ®": 2443,
      "ĠáĬłáĮįáĬĿ": 2444,
      "ĠáĭŃáĪħáĬķáĬķ": 2445,
      "ĠáĪįáīµ": 2446,
      "áįķáĪĭ": 2447,
      "Ġáĭ°áĮįáĪŀáĪĿ": 2448,
      "áĪĺáĪĪáĬ¨áī±": 2449,
      "áĮŃáĪŃ": 2450,
      "ĠáįįáĪĭáĮİáīµ": 2451,
      "ĠáĮĦ": 2452,
      "áī¥Ġ": 2453,
      "ĠáĪµáĮ¦áī³": 2454,
      "Ġáĭ¨áĬ®": 2455,
      "áĪīáīµáĬķ": 2456,
      "áĬķĠáĮĬáĭľ": 2457,
      "ĠáĪĺáĮ¨áĪ¨áĪ»": 2458,
      "ĠáĬ¨áĬ¥áĬĲáĭļáĪħ": 2459,
      "ĠáĬ¥áĪ¨": 2460,
      "áĪĪáĬĽáĭį": 2461,
      "áĬŃáī°áĪŃ": 2462,
      "áĪģáĭµ": 2463,
      "Ġáĭ¨áĪļáĭ«áĪ³": 2464,
      "áīĢáĪĺáĮ¥": 2465,
      "Ġáīłáĭ³": 2466,
      "áīłáĬŀáī½": 2467,
      "ĠáĮ¥áĪŃ": 2468,
      "ĠáįħáĪģáįį": 2469,
      "ĠáĮ¨áĭĭáī³": 2470,
      "Ġáĭ¨áĪ°áĪ«": 2471,
      "ĠáĪĺáĮį": 2472,
      "ĠáĬ¥áĬĲáĪŃáĪ±": 2473,
      "áĬĲáĪŃáĪ±": 2474,
      "ĠáīģáĪŃ": 2475,
      "ĠáĪ°áĪ«áĭĬ": 2476,
      "Ġáĭ°áĪµáī°áĬĽ": 2477,
      "ĠáĬ«áĪī": 2478,
      "áĬłáĪį": 2479,
      "áīħáĬĵ": 2480,
      "ĠáĪĿáĬķáĪĿĠáĬłáĭŃáĬĲáīµ": 2481,
      "ĠáĭŃáĮĪáĬĽ": 2482,
      "ĠáĬ«áĪħ": 2483,
      "ĠáĬłáĭ°áĪŃáĮĭ": 2484,
      "Ġáĭ¨áī°áīĢ": 2485,
      "ĠáĪįáĪĽ": 2486,
      "áĭĭáĬķ": 2487,
      "Ġáĭ¨áĪĿáĬĵ": 2488,
      "ĠáĭŃáĪĨáĬĵ": 2489,
      "ĠáĮ¥áīħáĪĿĠáĪĭáĭŃ": 2490,
      "áĪ«áĬķ": 2491,
      "ĠáĬ¨áĮ¥": 2492,
      "áĮĬáĭ«": 2493,
      "áįįáīµáĪĦ": 2494,
      "ĠáĪĺáĬķáĮĪáĭ¶áī½": 2495,
      "ĠáĮĪáĬĵ": 2496,
      "Ġáīłáĭį": 2497,
      "áĮłáīģ": 2498,
      "áĬķáī³": 2499,
      "ĠáĪĺáĪĨáĬķĠáĬł": 2500,
      "ĠáĬ¨áĭĪ": 2501,
      "áīħáĭ±": 2502,
      "ĠáįķáĪ®áĮĢ": 2503,
      "áĬķáįĥ": 2504,
      "áĭ°áīµ": 2505,
      "Ġáī°áīĥ": 2506,
      "ĠáĪĺáĮįáĪĪáĮ«": 2507,
      "ĠáĪĿáĬ¥áĪ«": 2508,
      "Ġáĭ³áĭĬ": 2509,
      "ĠáīĨáĬķáĮĨ": 2510,
      "ĠáĪĺáĭ°": 2511,
      "Ġáĭ¨áĬłáĪľáĪªáĬ«": 2512,
      "áĪĬáĭĿ": 2513,
      "áĭįĠáĪĭáĭŃ": 2514,
      "áĪ®áī¹": 2515,
      "Ġáįĥ": 2516,
      "ĠáĬ¨áĪĿ": 2517,
      "áĮłáĪĺ": 2518,
      "ĠáĪĢáĭĭ": 2519,
      "áĪįáĭµ": 2520,
      "Ġáĭ«áĪµáī°": 2521,
      "áĪĺáĪįáĬ¨áīµĠ": 2522,
      "áĪİáī¹": 2523,
      "ĠáĬ¥áĬķáĭ´": 2524,
      "áĬĵáĭŃáīµ": 2525,
      "áīĢáĬĳ": 2526,
      "áĬĲáĮĭáĮĪáĪŃ": 2527,
      "áĪĺáĪĪáĬ¨áīµ": 2528,
      "áĪįáĪĽ": 2529,
      "áĮ£áĪª": 2530,
      "ĠáĬłáĪĪáī¥": 2531,
      "áīłáĪ¨áĪ°áī¥": 2532,
      "áĮ£áĪļ": 2533,
      "áĬķáīĢáĪ³": 2534,
      "Ġáĭ¨áĪŀ": 2535,
      "áī»áĪĪ": 2536,
      "áīĨáĭŃ": 2537,
      "ĠáĬ¨áĬłáĬķáĭµ": 2538,
      "áĬļ": 2539,
      "áĭ«áī¸áĭį": 2540,
      "ĠáĪµáĪĿáĪĿáĬĲáīµ": 2541,
      "ĠáĬĲáĭĭ": 2542,
      "áĬŃáī¶": 2543,
      "ĠáīłáĪĿáĭµáĪŃ": 2544,
      "Ġáī°áĪĽáĪªáĭİáī½": 2545,
      "Ġáī°áĮĪáī¢": 2546,
      "Ġáĭ¨áĬŃ": 2547,
      "áĭĺáĬķ": 2548,
      "áĬ¤áĪµ": 2549,
      "ĠáĪĬáĪĨáĬķĠáĭŃáī½áĪĭáĪį": 2550,
      "áī£áĪ¨": 2551,
      "áī£áī½áĪģ": 2552,
      "áĬ¨áįĪ": 2553,
      "ĠáĪįáī¥áĪµ": 2554,
      "ĠáĬ¥áĬķáĭ²áĪħĠáĭŃáĪĭáĪį": 2555,
      "áĪĿĠáĪģáĪī": 2556,
      "Ġáĭ¨áĭ°": 2557,
      "ĠáĪĪáĪĽáĮįáĬĺ": 2558,
      "ĠáĬ¨áĬ¥áĬĶ": 2559,
      "áĪ¨áĮħ": 2560,
      "ĠáĪĪáĪĽáĪ³": 2561,
      "ĠáīłáĪĢ": 2562,
      "áĪŀáī½áĬķ": 2563,
      "áĮĪáī£áĭį": 2564,
      "ĠáĭĪáĭ²áĭ«áĭįáĬĳ": 2565,
      "ĠáĮłáī¥": 2566,
      "ĠáĪŃáĬ¥áĪµ": 2567,
      "ĠáĬĴ": 2568,
      "Ġáĭ¨áī¤áīµ": 2569,
      "ĠáĪĺáĪª": 2570,
      "áĪ«áī½áĪģ": 2571,
      "áĬĸáĪ«áī¸áĭį": 2572,
      "áįĥáįį": 2573,
      "áĪįáĬĿ": 2574,
      "ĠáĪĬáĪĨáĬķĠáĭŃáī½áĪĭáĪįĠ": 2575,
      "ĠáĭŃáįĪáĪįáĮĭ": 2576,
      "ĠáĪħáĬŃáĪĿáĬĵ": 2577,
      "ĠáĪµáī³": 2578,
      "ĠáĬ¨áĪ°": 2579,
      "áĪĽáĪį": 2580,
      "áĭįáĬķĠáĬĲáĮĪáĪŃ": 2581,
      "áīĢáĮ¥áī³": 2582,
      "áĭ®áī¹": 2583,
      "áĪħáĪ¨": 2584,
      "áĭİáī½ĠáĪĭáĭŃ": 2585,
      "ĠáĭĺáĭŃ": 2586,
      "áĭ¶áī½áĬķ": 2587,
      "Ġáĭ³áĪŃáī»": 2588,
      "áĮ¦áī½": 2589,
      "áĮĲ": 2590,
      "áĬķáĪ°": 2591,
      "áĬĲáĪŃ": 2592,
      "áįĪáĪ©": 2593,
      "áĭĪáĪ°áĬĳ": 2594,
      "Ġáĭ¨áĪ«": 2595,
      "ĠáīłáĪħ": 2596,
      "Ġáĭ¨áī°áĪĪáĭ¨": 2597,
      "áĪĭáĪĽ": 2598,
      "ĠáįĮ": 2599,
      "áĬķáī²": 2600,
      "áīµĠáĭ¨áĬ¥": 2601,
      "áĭįáĬķĠáĮĬáĭľ": 2602,
      "Ġáī¢áĪ®": 2603,
      "áĪµáī°áĭ³áĭ°áĪŃ": 2604,
      "Ġáĭ±": 2605,
      "áĬĲáīħ": 2606,
      "ĠáĬłáĬŃ": 2607,
      "Ġáī°áĬ¨áī³": 2608,
      "Ġáĭ¨áĮİ": 2609,
      "Ġáĭ¨áĪĺáĮ£": 2610,
      "áĬŃáĪŃáĪµáī¶áĪµ": 2611,
      "áĬĲáĪ°": 2612,
      "ĠáĪ°áī¥": 2613,
      "Ġáĭ¨áĪĻ": 2614,
      "áĭĭáĪĪáĪģ": 2615,
      "áĪĦáĭ°": 2616,
      "Ġáĭ¨áĪļáī½áĪī": 2617,
      "Ġáĭ¨áĪĪáĪĿĠ": 2618,
      "áĭ°áĪµ": 2619,
      "áĮĪáĪįáĮĪáĪį": 2620,
      "ĠáįĪáįħáĪŀ": 2621,
      "áĭ¨áĪ©áĪ³áĪĮáĪĿ": 2622,
      "áĪĿĠáĪĮáĪĭ": 2623,
      "áĭ«áĭĺ": 2624,
      "ĠáīłáĪĺáĬķáįĪ": 2625,
      "áĪµáĪĽáĪĽ": 2626,
      "áĭµáĪ¨áĪµ": 2627,
      "áĪīĠáĬ¥áĬĵ": 2628,
      "ĠáĮ¥áĬĵ": 2629,
      "ĠáĪĪáĪĽáĭĪáīħ": 2630,
      "ĠáĮĭáĪŃĠáīłáī°áĭ«áĭ«áĭĺ": 2631,
      "ĠáĬłáĬķáī¥": 2632,
      "ĠáĬ¥áĬĲáĪ±áĪĿ": 2633,
      "áĮ£áĪį": 2634,
      "ĠáĪĺáĪįáĬ¥áĬŃ": 2635,
      "ĠáĬ¥áĬķáĭ°áĪļáĭ«áĪµ": 2636,
      "ĠáĬ¥áĪµáĪ«áĬ¤áĪĭáĭįáĭ«áĬķ": 2637,
      "áĪĺáĪ°áĪ¨áī°": 2638,
      "ĠáĬ«áĪĪáĭį": 2639,
      "áīłáī³áĪįĠ": 2640,
      "áīĢáĮ¥áĪĪáĭį": 2641,
      "ĠáĪĺáĬķáĮįáĪµáī³": 2642,
      "ĠáīłáĬ¥áĪ±": 2643,
      "áĬĵáĭŃáīµáĭµ": 2644,
      "áī¸áĮĭáĪª": 2645,
      "ĠáĮĭáĭľ": 2646,
      "áįĪáįĥáĪļ": 2647,
      "áĭİáĪµ": 2648,
      "áĬ¥áĭŃ": 2649,
      "áĭĭáĮĭ": 2650,
      "ĠáĪĪáĬ¥áĬĶ": 2651,
      "ĠáĬłáī³": 2652,
      "ĠáĬ¨áĪį": 2653,
      "áīµĠáĬłáĬķáĭµ": 2654,
      "áīµáĪħ": 2655,
      "ĠáĭĪáĭ°áĪļ": 2656,
      "ĠáĬłáīĢ": 2657,
      "áįīáīµ": 2658,
      "áĭ³áī¤": 2659,
      "áĬķáĮ«": 2660,
      "Ġáī³áĪĭ": 2661,
      "ĠáīłáĬłáĪĪáĪĿ": 2662,
      "Ġáĭ¨áĪĪáĭį": 2663,
      "áĭļáīĥ": 2664,
      "áĪĺáĪĪáĪ±": 2665,
      "ĠáįĬáĪį": 2666,
      "ĠáĪĽáĬķáĬĽáĭįáĬķáĪĿ": 2667,
      "ĠáĬ¥áĬķáĭ²áĪģáĪĿĠáĭ¨": 2668,
      "áīĢĠáĪĺáĭĽáĪĻáĪŃ": 2669,
      "áīµĠáĭįáĪµáĮ¥": 2670,
      "áĪĪáĮł": 2671,
      "ĠáĪ¬": 2672,
      "ĠáĬ«áĪŃ": 2673,
      "áĪŃáĭ³áīµ": 2674,
      "ĠáĬķáĮįáĭµ": 2675,
      "áĭµáįį": 2676,
      "áĪĺáĪ©": 2677,
      "ĠáĬ¥áīĥáĭİáī½": 2678,
      "Ġáĭ«áĭįáīĥ": 2679,
      "ĠáĪ°áįĬ": 2680,
      "áĮĪáĬķáĭĺáī¥": 2681,
      "áĬ«áĪª": 2682,
      "áĬķáĬĲáīµ": 2683,
      "áĮĪáĪµ": 2684,
      "ĠáīłáĪĺáĬ«áĬ¨": 2685,
      "Ġáĭ¨áĬłáĪĿáĪĭáĬŃáĬķ": 2686,
      "áįĬáĭİáī½": 2687,
      "áĪ°áĮ£áī¸áĭį": 2688,
      "Ġáī¢áĭ«": 2689,
      "ĠáĬ¥áĬķáĭ´áīµĠáĬ¥áĬķáĭ°áĪļ": 2690,
      "áīµĠáĪĽ": 2691,
      "áĪµáī°áĭĭ": 2692,
      "ĠáīłáĬłáĪģáĬĳĠáĮĬáĭľ": 2693,
      "ĠáĪĺáĬ¨áĪ«": 2694,
      "Ġáī¥áī»ĠáĬĲáĭį": 2695,
      "áĬ¨áįįáī°áĬĽ": 2696,
      "ĠáĬłáĮł": 2697,
      "áĪģĠ": 2698,
      "Ġáĭ¨áĪļáī½áĪį": 2699,
      "áĪŃáĪĿ": 2700,
      "ĠáīłáĬłáĪĿáĪĭáĬŃ": 2701,
      "ĠáįĢáĪĢ": 2702,
      "áīµĠáĪĪ": 2703,
      "Ġáī±": 2704,
      "áĪįáĬ®": 2705,
      "áĬķáīĥ": 2706,
      "ĠáĪµáĭµ": 2707,
      "ĠáĪµáī´": 2708,
      "áīµĠáīłáĮ£áĪĿ": 2709,
      "ĠáĮĭáĪŃĠáĭŃ": 2710,
      "ĠáĪĺáīĢ": 2711,
      "ĠáĪįáĬŃĠáĬ¥áĬķáĭ°": 2712,
      "áĬ¨áĪĽ": 2713,
      "Ġáīħáĭµ": 2714,
      "áĪľáĬķ": 2715,
      "ĠáĬ¥áĬķáĭ°áĪļáī½áĪį": 2716,
      "ĠáĮĥ": 2717,
      "áĮĭáī¢": 2718,
      "áī£áī¸áĭįáĬķ": 2719,
      "Ġáī¥áĪį": 2720,
      "áĪ«áī½áĬķ": 2721,
      "áĪ³áĪµ": 2722,
      "áĪįáĬķ": 2723,
      "Ġáīłáī³": 2724,
      "áĪĽáĭįáĭ«áĬķ": 2725,
      "ĠáĭŃáĬĵáĮĪ": 2726,
      "áĪıáī¸áĭį": 2727,
      "ĠáĬ¥áĬķáĭ°áĪĽ": 2728,
      "áīµĠáĭ«": 2729,
      "Ġáĭ¨áįĪ": 2730,
      "áĬĳáĬķ": 2731,
      "áī£áī¸áĭįĠ": 2732,
      "áĬķĠáĬłáĪį": 2733,
      "ĠáĪ²áĪī": 2734,
      "áĪ¯áĪį": 2735,
      "áĪĮáĬŃáīµ": 2736,
      "áĪ©áĬķ": 2737,
      "áĪ«áĬķáĪµ": 2738,
      "áįĪáĪįáĮĪáĭį": 2739,
      "Ġáī½áĮįáĪ®áī½": 2740,
      "Ġáĭ®áĪĢáĬķáĪµ": 2741,
      "áĬ¨áĭį": 2742,
      "Ġáīªáĭ²áĭ®": 2743,
      "Ġáĭ°áĪħáĬķáĬĲáīµ": 2744,
      "áĮ¡áīµ": 2745,
      "áīĨáĮ£áĮłáĪŃ": 2746,
      "áīħáĪŃáī¥ĠáĮĬáĭľ": 2747,
      "áĪĿĠáĬ¥áĬķáĬ³": 2748,
      "áĪ«áĪ½": 2749,
      "ĠáĬ¢áĭ«": 2750,
      "áĬķáĭ±áĪµáīµáĪª": 2751,
      "áĮ£áĮ«": 2752,
      "ĠáĬ¥áĬķáĪµáĪ³": 2753,
      "áĪŃáī²": 2754,
      "áĪĪáĭĭ": 2755,
      "Ġáī°áĭĭ": 2756,
      "ĠáĬ¥áĬķáĭ³áĪĪáĭį": 2757,
      "áĭĽáĪ¬áĭį": 2758,
      "ĠáĬķáī¥áĪ¨": 2759,
      "ĠáīłáīĢáĪĭáĪī": 2760,
      "ĠáĪ¨áĮħ": 2761,
      "áĪĿĠáĬłáĪį": 2762,
      "áīģĠ": 2763,
      "ĠáĮ¦áĪŃ": 2764,
      "áĪįáĪµáĮ¤": 2765,
      "ĠáĪ°áī£": 2766,
      "áī´áĬŃ": 2767,
      "áĪĭáī¸áĭįĠ": 2768,
      "Ġáĭ¨áī°áĭĪáĪ°áĬĲ": 2769,
      "ĠáĮłáĪĭ": 2770,
      "ĠáĪļáĪµ": 2771,
      "ĠáĪĺáĭĿáĪĻáĪŃ": 2772,
      "ĠáĬ¥áĬķáĮįáĭ²áĪħ": 2773,
      "ĠáĮ´áĮ¥áĪ®áĪµ": 2774,
      "áįįáĪ¬": 2775,
      "áĬ¡áĪµ": 2776,
      "ĠáĭŃáĪĨáĬķ": 2777,
      "áĪĿĠáĬłáĪĿáĪĭáĬŃ": 2778,
      "áĮłáīĥáĪļ": 2779,
      "Ġáī°áĭĪáĭ³": 2780,
      "áĭ±Ġ": 2781,
      "ĠáĪĢáĭŃáĪĽáĬĸ": 2782,
      "áĪĿĠáĬłáĬķáĭµ": 2783,
      "áĭµáĮĵ": 2784,
      "ĠáĪħáĪĺ": 2785,
      "áĭİáī³áĪį": 2786,
      "Ġáĭ°áĪŃ": 2787,
      "áīµĠáĬłáĭµáĪŃ": 2788,
      "ĠáĬ¥áĬĶáĪĿ": 2789,
      "Ġáī¥áĭĻáĭįáĬķĠáĮĬáĭľ": 2790,
      "áĬ¦áĬķ": 2791,
      "ĠáĬŃáĪŃáĪµáī²áĭ«áĬķ": 2792,
      "áĮĪáĪĺ": 2793,
      "áįĪáīµ": 2794,
      "áĮĮáī³": 2795,
      "ĠáĪĪáĪµ": 2796,
      "áī½áĪįáĪĿĠ": 2797,
      "áĪĿáĬĲ": 2798,
      "ĠáĪµáĬ¥": 2799,
      "ĠáĬłáĭµáĪ«": 2800,
      "áĪ½áĬ¨áĪŃ": 2801,
      "ĠáĪĺáĪĨáĬĳáĬķ": 2802,
      "áĮ¿": 2803,
      "áĬķáĭ¶áī¹": 2804,
      "áĪīáĪĿ": 2805,
      "áįħáĪģáįį": 2806,
      "ĠáĬłáĪ°": 2807,
      "áĮĭáĭĬ": 2808,
      "áĮĭáī½áĪģ": 2809,
      "ĠáĬ¥áĬķáĭ°áĭļáĪħ": 2810,
      "ĠáĬ¥áĬķáĭ°áĪĿáīµ": 2811,
      "áĪĭáĪīĠ": 2812,
      "áĪ«áĪŃ": 2813,
      "áĭ«áĭĻ": 2814,
      "ĠáĪĽáĭ¨áīµ": 2815,
      "áīģáĪŃ": 2816,
      "ĠáĪµáĪ«áĭİáī½": 2817,
      "áĭįáĮ£áīµ": 2818,
      "áĪŃáĪĢ": 2819,
      "áīĨáĪĿ": 2820,
      "ĠáĭŃáĪĺáĪµáĪĭáĪį": 2821,
      "Ġáī°áĪ°": 2822,
      "áĪıáĪįĠ": 2823,
      "áĪĪáīĢ": 2824,
      "ĠáĮ¥áĪ¨": 2825,
      "Ġáī¥áĭĻĠáĪ°áĭİáī½": 2826,
      "áįĨáī½": 2827,
      "áĬķáĮĪ": 2828,
      "áĪŃáīµáĪ«": 2829,
      "ĠáīłáĭĪ": 2830,
      "áĬĵáĬķ": 2831,
      "áĭ°áĬķáī¥": 2832,
      "áĬ®áĬĸáĪļ": 2833,
      "ĠáĪİ": 2834,
      "ĠáĪĿáĬķáĭµáĬķĠáĬĲáĭįĠ": 2835,
      "ĠáĮįáĭµ": 2836,
      "áĬķáĭ³áĬķáĭ³": 2837,
      "ĠáĬĸáĪ®": 2838,
      "áĬķáĪ²": 2839,
      "áĬķáĪµáī¶": 2840,
      "áĪ¾áī½": 2841,
      "Ġáī°áĮįáī£áĪŃ": 2842,
      "ĠáĭŃáĪĺáĪįáĬ¨áī±": 2843,
      "áĭ«áīµ": 2844,
      "áĪ«áī¢": 2845,
      "ĠáĬ¥áĬķáĭ°áĪĿ": 2846,
      "áĪŀáĬ¨áĪŃ": 2847,
      "Ġáĭ¨áĪĪáĪĿ": 2848,
      "ĠáĪµáĬĲ": 2849,
      "áĭĺáĪĺ": 2850,
      "áįķáĪ¬": 2851,
      "áĭ³áĬĵ": 2852,
      "ĠáĮ¥áĪ«áīµ": 2853,
      "ĠáĭµáĪ¨": 2854,
      "ĠáĬłáīĭ": 2855,
      "ĠáīłáĪĽáĭµáĪ¨áĮį": 2856,
      "Ġáī°áĪµáĪĽ": 2857,
      "áĭ³áĪª": 2858,
      "áįĭáĪµ": 2859,
      "ĠáĪµáĪĻ": 2860,
      "ĠáīĢáĭµ": 2861,
      "áĬĴáĭį": 2862,
      "Ġáī°áĮįáī£áĪ«áĭĬ": 2863,
      "áĮłáĭ¨áīħ": 2864,
      "ĠáĬ¨áĪĺáĪĨáĬĳ": 2865,
      "ĠáĬĲáĭįĠáĭŃáĪħ": 2866,
      "áĪĪáĭįĠ": 2867,
      "ĠáĬķáī¥áĪ¨áīµ": 2868,
      "áĭ«áīĤ": 2869,
      "Ġáĭ¨áĪĿáĮįáī¥": 2870,
      "ĠáīłáīµáĬŃáĬŃáĪį": 2871,
      "Ġáīłáĭ«áĪħáĭĮ": 2872,
      "ĠáĭĪáĬķáĮĢ": 2873,
      "áĬĸáī½áĬķ": 2874,
      "áĪŁáĪĭ": 2875,
      "áĪħáĪĿ": 2876,
      "áī¶áī½ĠáĬ¥áĬĵ": 2877,
      "áĪĿĠáĬłáĪĪ": 2878,
      "Ġáī°áĬĵáĮįáĪ¯áĪįĠ": 2879,
      "áĬ¨áĪĭáĬ¨áĭ«": 2880,
      "ĠáĬłáĪ«": 2881,
      "ĠáĪģáĪĪáī°áĬĽ": 2882,
      "Ġáī°áīĢáĪĿ": 2883,
      "áĪĺáĪįáĬ¨áīµ": 2884,
      "ĠáĬłáĪĺáī³áīµĠáīł": 2885,
      "ĠáĭĪáĬķáĭµáĪŀ": 2886,
      "ĠáĪĢáĮ¢áĬłáīµ": 2887,
      "áĭ«áĪįĠ": 2888,
      "áĪĭáī½áĬĭ": 2889,
      "áīłáĪµ": 2890,
      "ĠáĬ¨áĪĨáĬĳ": 2891,
      "áī¶áī»áī½áĬķ": 2892,
      "ĠáĬ¥áĬķáĭ°áĪļáī½áĪī": 2893,
      "ĠáĭĺáĮĪáī£": 2894,
      "áīµĠáĪ°áĭİáī½": 2895,
      "Ġáĭ¨áīĨ": 2896,
      "áĭİáī½Ġáĭ¨áĪļ": 2897,
      "áĭįáĪĿ": 2898,
      "áĪĽáĪ½": 2899,
      "ĠáĮłáĭ¨": 2900,
      "ĠáīµáĬķáī¢": 2901,
      "Ġáĭ¨áįĢ": 2902,
      "ĠáĭŃáī³": 2903,
      "ĠáīłáĬ¥áĬĶ": 2904,
      "ĠáĬ¥áĬķáĭ²áĪħĠáĬłáĪĪáĭį": 2905,
      "ĠáĭĪáĪĭáĮĨáī½": 2906,
      "ĠáĪµáĬ¬": 2907,
      "ĠáīłáĮ£áĪĿĠáĬł": 2908,
      "Ġáī¥áĪıáĪįĠ": 2909,
      "ĠáĪ³áĪĪ": 2910,
      "ĠáĪĺáĪįáĬŃ": 2911,
      "áĪĽáĬķ": 2912,
      "áĪİáīµ": 2913,
      "Ġáĭ°áĪ¨": 2914,
      "ĠáĪĪáĪĽáĭ¨áīµ": 2915,
      "ĠáīĥáĪįĠáĬª": 2916,
      "áĬķĠáĬłáĬķáĭµ": 2917,
      "áĪģáīµ": 2918,
      "ĠáĪĪáĭĺáĪĭáĪĪáĪĿ": 2919,
      "ĠáĬłáĮłáīĥáĪĭáĭŃ": 2920,
      "áĬ«áī¤": 2921,
      "áĮ¨áĪĺáĪŃ": 2922,
      "áĭ«áĭįáīģ": 2923,
      "áĪ«áĭŃ": 2924,
      "áīĢáĮłáĪį": 2925,
      "áĪ³áĬ«": 2926,
      "Ġáĭ«áĪĿ": 2927,
      "áĪ³áĪĿáĬķ": 2928,
      "áĭ³áī¸áĭį": 2929,
      "áĪİáĬķ": 2930,
      "ĠáĮĭáĪŃĠáīł": 2931,
      "ĠáĪĪáĬłáĪĿáĪĭáĬŃ": 2932,
      "áĪµáī³áĭį": 2933,
      "áĪŃáīħ": 2934,
      "ĠáĬ¨áĬ¥áĬĵáĬķáī°": 2935,
      "ĠáĪĺáĬķáĮįáĪµ": 2936,
      "áĭįáĪįáĭµ": 2937,
      "áĬ«áī°": 2938,
      "áĬķĠáĬłáĭŃáĬĲáīµ": 2939,
      "Ġáĭ¨áĬłáĪĪáĪĿ": 2940,
      "ĠáĪĽáĪµáĪ¨áĮĥ": 2941,
      "ĠáĪĿáĪµáĬŃáĪŃ": 2942,
      "áĪ°áĪĻ": 2943,
      "Ġáī°áĪ«áĪ«": 2944,
      "ĠáĪĪáĭ«áĪħáĭĮ": 2945,
      "áĭļáĪģ": 2946,
      "áī°áĬ®": 2947,
      "áĬķáī°áĪŃ": 2948,
      "Ġáĭ«áĪįáĪĨáĬĲ": 2949,
      "ĠáĪĺáįįáīµáĪĦ": 2950,
      "Ġáī°áīĢáī£áĭŃ": 2951,
      "áĪµáĪĢ": 2952,
      "ĠáĪģáĪįĠáĮĬáĭľ": 2953,
      "áĭ³áĪľ": 2954,
      "ĠáĬķáĬ¡áĪµ": 2955,
      "áįĸáĪĪáī²áĬ«": 2956,
      "ĠáīłáĪħáĭŃáĭĪ": 2957,
      "ĠáĮĤ": 2958,
      "ĠáĪģáĪĭáī½áĬķ": 2959,
      "áĪ¶áī½áĬķ": 2960,
      "ĠáįĸáĪĬáĪ²": 2961,
      "ĠáĬ¥áĭĪáĭ³": 2962,
      "ĠáĪĺáĬªáĬĵ": 2963,
      "áĪ°áī¢áĭ«": 2964,
      "ĠáĪ°áĪ«áī°áĬĽ": 2965,
      "ĠáĬłáĮ¥": 2966,
      "ĠáĬ¥áĬķáĭ°áĪĨáĬĳ": 2967,
      "Ġáĭ¨áĬłáĬ«áĪį": 2968,
      "ĠáĬĳ": 2969,
      "áĪĺáĬĽ": 2970,
      "Ġáĭ«áĮĪáĬĽ": 2971,
      "ĠáĬŃáī¥": 2972,
      "áĪĺáĮ¥": 2973,
      "áĭĪáĪ¨": 2974,
      "ĠáĪįáĮĨáī¹": 2975,
      "ĠáĭįáĮ¤áī³áĪĽ": 2976,
      "áīĥáĪįĠ": 2977,
      "áĮįáīł": 2978,
      "ĠáĬłáĪµáī°áĭĭ": 2979,
      "ĠáĭŃáīł": 2980,
      "áī´áĪį": 2981,
      "ĠáĪĮáĪĬ": 2982,
      "áĬŃáī¥áĬ«áī¤": 2983,
      "Ġáĭ¨áī¥": 2984,
      "áīłáīµĠáĪĺáĬķáĮĪáĭµ": 2985,
      "áĪ´áī¶áī½": 2986,
      "ĠáĪĿáĬķáĮĬáĭľ": 2987,
      "áĪĺáĪµáĪį": 2988,
      "ĠáĬłáĬķáĭ²": 2989,
      "ĠáĬ¥áĬķáĭµáī³": 2990,
      "áĭĺáĮĭáĮģ": 2991,
      "ĠáĬłáĪľáĪªáĬ«": 2992,
      "áįĪáī³": 2993,
      "ĠáĮīáĭ³áĭ©": 2994,
      "Ġáĭ°áī¥áĭ³áī¤": 2995,
      "ĠáĬĭ": 2996,
      "ĠáĪĽáĭµáĪ¨": 2997,
      "áĭ°áĭµ": 2998,
      "áĪ¯áī¸áĭį": 2999,
      "áī¬": 3000,
      "ĠáĬ¥áĭŃáī³": 3001,
      "ĠáīµáĬŃáĬŃáĪį": 3002,
      "ĠáĬłáĮĪáĪ®áī½": 3003,
      "áĪĿáĮĪáĪĽ": 3004,
      "Ġáĭ°áĮĭ": 3005,
      "ĠáįįáĮ¥": 3006,
      "ĠáĭĿáĮįáĮģ": 3007,
      "Ġáĭ¨áĪļáĪĪáĭį": 3008,
      "áīĥáĭĪ": 3009,
      "Ġáĭ¨áĬłáĬ«áī£áī¢": 3010,
      "ĠáĬ¥áĪµáī²": 3011,
      "ĠáĬ¨áĪĢ": 3012,
      "áĪ´áīµ": 3013,
      "ĠáĭľáĬĵ": 3014,
      "Ġáĭ©áĬĴ": 3015,
      "ĠáĬłáīħáĪŃ": 3016,
      "áĪ¨áĮħáĪĿĠáĮĬáĭľ": 3017,
      "áĪĪáĪŀ": 3018,
      "ĠáĪįáĮĥ": 3019,
      "áĪ»áĪ»áĪį": 3020,
      "ĠáĭµáĪŃáĮħáīµ": 3021,
      "ĠáĪĺáī¼": 3022,
      "ĠáĭįáĪµáĮ¥Ġáĭ¨áī°": 3023,
      "ĠáĪ«áĬ¥áĭŃ": 3024,
      "áĬķĠáīłáī°áĪĺáĪĪáĬ¨áī°": 3025,
      "áĮĪáĪįáįħ": 3026,
      "áĪĿáīłáĪŃ": 3027,
      "áĭ«áĮŃ": 3028,
      "ĠáĬĲáĬĿĠ": 3029,
      "ĠáĬ¥áįĪáĪįáĮĭ": 3030,
      "áī¥áĬķ": 3031,
      "áĬŃáĪ²": 3032,
      "ĠáĪĺáĪįáĬ©": 3033,
      "Ġáĭİáī¹": 3034,
      "áĪ¨áįį": 3035,
      "áĮĭáĬĵ": 3036,
      "áīłáīµĠáī¦áī³": 3037,
      "áĬĴáĬŃ": 3038,
      "áĮĪáĪįáĮįáĪİáīµ": 3039,
      "ĠáĬłáĭµáĪŃáĮĪáĭį": 3040,
      "ĠáĬĲáĮ¥áī¥": 3041,
      "ĠáĬ¥áĬĵĠáĪĮáĪİáī½": 3042,
      "ĠáĭįáĭŃ": 3043,
      "ĠáĪĪáĪĺáĪĨáĬķ": 3044,
      "áĮĪáĬĵáĬĽ": 3045,
      "ĠáĪįáĬķ": 3046,
      "áĪĮáĪĪ": 3047,
      "ĠáĮ¢": 3048,
      "áĪ«áĪ³áī¸áĭį": 3049,
      "Ġáĭ«áĬ¥áīĨáī¥": 3050,
      "áĮīáĪŃ": 3051,
      "áĭ«áĪĪáĪģ": 3052,
      "áĪĿĠáīłáĪĭáĭŃ": 3053,
      "ĠáĬłáĪĺáĪ°": 3054,
      "ĠáĪĮáĪİáī½áĬķ": 3055,
      "ĠáĮ¥áīłáīĥ": 3056,
      "ĠáĪļáĪĬáĭ®áĬķ": 3057,
      "ĠáīłáīħáĪŃáī¡": 3058,
      "ĠáĬłáĪįáįİ": 3059,
      "ĠáīĢáĬķĠáīł": 3060,
      "áĮįáĬĻ": 3061,
      "ĠáĮĪáīłáĭ«": 3062,
      "ĠáĪĪáĬłáĬķáĭµ": 3063,
      "áĭĪáĪµáĭµ": 3064,
      "áĪĿáĪ¨áĮ¥": 3065,
      "ĠáĬłáĭ°áĪ¨áĮĪ": 3066,
      "áįĭáĮŃ": 3067,
      "ĠáīłáĬłáĪį": 3068,
      "áįİáī½áĬķ": 3069,
      "ĠáĪļáĪµáīµ": 3070,
      "áīħáĬķ": 3071,
      "Ġáī¥áīĥáīµ": 3072,
      "ĠáĬĲáīłáĪŃĠáĬ¥áĬĵ": 3073,
      "ĠáĮĭáĪŃĠáĭ¨áĪļ": 3074,
      "ĠáĭŃáĪ°áĪ«": 3075,
      "áĭĪáīĢ": 3076,
      "áĪ¨áĭ³áīµ": 3077,
      "ĠáĪ°áĪĭáĪĿ": 3078,
      "Ġáī¥áĪıáĪį": 3079,
      "áĬķáĭĽáī¤": 3080,
      "ĠáĬłáĪ¸": 3081,
      "Ġáīłáī£": 3082,
      "áĭ«áĭįáīħ": 3083,
      "áīµĠáĬłáĪĺáī³áīµ": 3084,
      "ĠáĬ¥áī£áĬŃáĭİ": 3085,
      "áīµĠáĭĪáĭ°": 3086,
      "áĭįĠáĬ¨": 3087,
      "ĠáīłáīĤ": 3088,
      "áĬĵáĭ³": 3089,
      "ĠáĬłáĪµáī³áĭį": 3090,
      "Ġáĭ®áĪ´áįį": 3091,
      "ĠáĬ¥ĠáĬ¤ĠáĬłĠáīł": 3092,
      "áĪĿáĭµáĪŃ": 3093,
      "áĪµáī¡": 3094,
      "áĮįáĪ©": 3095,
      "ĠáĪĬáĭ«áĪµ": 3096,
      "áĪĪáīµĠ": 3097,
      "ĠáĮ¥áīħáĪĿ": 3098,
      "ĠáĪĺáĪ³áĪªáĭ«áĭİáī½": 3099,
      "áĪ³áĭį": 3100,
      "áĭ®áī½áĬķ": 3101,
      "áįįáī³": 3102,
      "Ġáĭ¨áĪļáĪĪáĭįáĬķ": 3103,
      "áĮİáī¥": 3104,
      "áīĤáīµ": 3105,
      "Ġáīłáĭµ": 3106,
      "áįĪáįĢáĪĻ": 3107,
      "áĮĪáĪ©": 3108,
      "áįĪáįĢáĪĺ": 3109,
      "Ġáĭ¨áĪĺáĮĢáĪĺáĪªáĭ«áĭį": 3110,
      "áĬķáĮīáĪ±": 3111,
      "áĪµáĪĺáĪŃĠáĪĭáĭŃ": 3112,
      "ĠáĪµáĪĪáĬĲáīłáĪŃ": 3113,
      "ĠáĮ¥áĬĵáīµ": 3114,
      "Ġáī³áĭįáīĥ": 3115,
      "áĪ²áī²": 3116,
      "ĠáĬ¨áĬłáĪĿáĪĭáĬŃ": 3117,
      "áĪ°áĪµ": 3118,
      "ĠáĪ°áĬĲ": 3119,
      "áĪ«áĪīĠ": 3120,
      "ĠáĭµáĪŃáĮħáī¶áī½": 3121,
      "ĠáĭĿáīħáī°áĬĽ": 3122,
      "áĪŃáĭ«áĭį": 3123,
      "ĠáĬłáī£áĪĭáīµ": 3124,
      "ĠáīµáĬ©áĪ¨": 3125,
      "áī½áĬķáĬķ": 3126,
      "ĠáĬłáĪĭáī¸áĭįĠ": 3127,
      "ĠáĭĬ": 3128,
      "áĬĳĠ": 3129,
      "ĠáĬŃáĪµáī°": 3130,
      "áīµĠáĭ¨áĪĽ": 3131,
      "ĠáĬłáī£áĪį": 3132,
      "Ġáĭ¨áĬĲáīłáĪ¨áĭį": 3133,
      "ĠáĬ¨áĪµ": 3134,
      "áĪ°áĪ«áĪŃ": 3135,
      "ĠáĬ¨áĭļáĪħĠáĭŃáĪįáīħ": 3136,
      "áĬŃáįį": 3137,
      "áįĪáįĥáįĢ": 3138,
      "áĪ±Ġ": 3139,
      "áĭµáĪ¨Ġáīłáĭ³": 3140,
      "Ġáī£áĪħáĪª": 3141,
      "ĠáĬ¨áĬłáĬķáī°": 3142,
      "ĠáĪĪáĬ¥áĬĵáĬķáī°": 3143,
      "áĮįáĪĪáįħ": 3144,
      "ĠáĮ¥áīĥ": 3145,
      "áīĢáĪ¨áī¡": 3146,
      "ĠáĪı": 3147,
      "áĪīáĪĿĠ": 3148,
      "ĠáīµáĪĿáĪħáĪŃáīµĠáī¤áīµ": 3149,
      "áĬ¨áĪĭáĬ¨áĪį": 3150,
      "áĪ¶áĪµáīµ": 3151,
      "ĠáĬ¥áī½áĪĭ": 3152,
      "ĠáĭŃáĪĺáĮ£": 3153,
      "Ġáī³áĪª": 3154,
      "áĭµáĪŃáĮħ": 3155,
      "áĮĪáĬĻáīµ": 3156,
      "Ġáī£áĪĪáĪĻáĭ«": 3157,
      "áĪŃáĭ±": 3158,
      "áĬ¨áĬĵáĭį": 3159,
      "Ġáī°áĪ«": 3160,
      "ĠáĬ¥áĬķáĬŃáī¥áĬ«áī¤": 3161,
      "ĠáĪ³áĪĻ": 3162,
      "ĠáĪµáĪįáĮłáĬĵ": 3163,
      "ĠáĮ¥áĪįáīħ": 3164,
      "Ġáĭ°áĪħáĬĵ": 3165,
      "ĠáĬ¨áĬ¥áĬĽ": 3166,
      "ĠáīģáĪįáįį": 3167,
      "ĠáĪıáĪĭáĭĬ": 3168,
      "Ġáīłáī¥": 3169,
      "ĠáĬ¥áĪµáĬ«áĪģáĬķ": 3170,
      "áĪĪáĪĺáĭ°": 3171,
      "ĠáĪ°áĮł": 3172,
      "áĬ©áĪµ": 3173,
      "áĪīáĬķ": 3174,
      "Ġáī°áĮ«": 3175,
      "áĬŃáī°": 3176,
      "Ġáī°áĬĲáĪ³": 3177,
      "áĮĵáĭĿ": 3178,
      "ĠáĬłáĪµáī°áĭ³áĭ°áĪŃ": 3179,
      "áī´áĬķ": 3180,
      "áĪ°áĬķ": 3181,
      "ĠáĭĪáĭµ": 3182,
      "Ġáĭ¨áĪļáĭ«áĪµáī½áĪį": 3183,
      "ĠáĬĲáįĥáĬĲáīµ": 3184,
      "áĭįĠáĭįáĪµáĮ¥": 3185,
      "Ġáĭ¨áĭµ": 3186,
      "áĪĽáĪĽ": 3187,
      "áįĪáīĢáĭ°": 3188,
      "ĠáĬŃáĪŃ": 3189,
      "ĠáĬłáĭµáĪŃáĮĪ": 3190,
      "ĠáĬ¥áī¥": 3191,
      "ĠáĮĢáĪĺáĪ¨": 3192,
      "ĠáīĨáĭŃ": 3193,
      "ĠáĬłáĭ³áĭ²áĪµ": 3194,
      "áīµĠáĬĲáĭį": 3195,
      "Ġáĭ¨áĮįáĪį": 3196,
      "ĠáĪĿáĮį": 3197,
      "ĠáīłáĬ¥áĪµáĪ«áĬ¤áĪį": 3198,
      "ĠáįĪáī°áĬĵ": 3199,
      "ĠáīłáĮİ": 3200,
      "áĪĪáĮ¥": 3201,
      "ĠáĮłáī£": 3202,
      "Ġáīłáīł": 3203,
      "áĬĽáĭİáī¹": 3204,
      "Ġáĭ¨áĬ¥áĪŃáĪµáĭİ": 3205,
      "ĠáĮĭáĪŃĠáĪĪáĪĺ": 3206,
      "ĠáĬĲáĮĪáĪŃĠáĪģáĪī": 3207,
      "áĪ¸áįĪ": 3208,
      "ĠáĬłáĮłáĮĪáī¥": 3209,
      "ĠáĬŃáĬķáĭµ": 3210,
      "ĠáĪĮáĪĭáĭį": 3211,
      "áĬķáī±": 3212,
      "ĠáĪĿáĮįáī£áĪŃ": 3213,
      "ĠáĪįáĪĿ": 3214,
      "áĭ°áĪŃáĪ±": 3215,
      "áĬķáĬ¨áī£": 3216,
      "áĪľáĪį": 3217,
      "ĠáīģáĮ£": 3218,
      "ĠáĮ£áįĭáĮŃ": 3219,
      "ĠáĭŃáĭĪ": 3220,
      "ĠáīłáĬ¥áĬĲáĭļáĪħ": 3221,
      "Ġáī³áĭĭáīĤ": 3222,
      "áĮįáī£áī¥": 3223,
      "Ġáīµáī½áĪĭáĪĪáĪħĠ": 3224,
      "áĬĢ": 3225,
      "áīµĠáĪģáĪī": 3226,
      "áĪŃáĪ³": 3227,
      "ĠáĮ¥áįĭ": 3228,
      "Ġáī£áĪħáĪªáĭ«": 3229,
      "áīĢáĮ£": 3230,
      "ĠáĮįáĭ´": 3231,
      "ĠáīłáĬłáĮłáīĥáĪĭáĭŃ": 3232,
      "Ġáīħáĭ³áĪľ": 3233,
      "ĠáĬłáĪĺáĪ°áĮįáĬĵ": 3234,
      "áĭĪáīħáī±": 3235,
      "ĠáĬĲáĮŃ": 3236,
      "ĠáĭŃáī»": 3237,
      "Ġáĭ¨áī£áĪħáĪŃ": 3238,
      "ĠáĪĺáĪ°áĪ¨áī³áĭĬ": 3239,
      "áĮĪáĪªáī±": 3240,
      "áĭİáī³áĪįĠ": 3241,
      "ĠáĬłáĪ³áĪį": 3242,
      "ĠáĬĲáĭĭáĪªáĭİáī½": 3243,
      "áĭĽáĪ¬áĭįĠáĮĬáĭľ": 3244,
      "ĠáīłáĬ¤": 3245,
      "ĠáĪ½áĪĽáĮįáĪĮáĭİáī½": 3246,
      "ĠáīłáĪĿáīµ": 3247,
      "ĠáĪĺáĬĸáĪŃ": 3248,
      "áī³áĭ©": 3249,
      "ĠáĭĪáĭ°áįĬáīµ": 3250,
      "áĮĪáĬĺáĭįáĬķ": 3251,
      "áĪģáĪĪáī±": 3252,
      "ĠáĬ¥áĬĵáĪĺáĪ°áĮįáĬĵ": 3253,
      "Ġáĭ°áīĢĠáĪĺáĭĽáĪĻáĪŃ": 3254,
      "ĠáĬ¨áĬ¢": 3255,
      "áĭİáī»áī½áĬķ": 3256,
      "áĪĪáĭĭáĪįĠ": 3257,
      "áīħáĪ¨": 3258,
      "Ġáĭŀ": 3259,
      "áĮ¥áĪ©": 3260,
      "ĠáĬłáĪĺáīµĠáīł": 3261,
      "ĠáĬ¥áĭ«áĬķáĭ³áĬķáĭ³": 3262,
      "Ġáĭ¨áĪļáĬĸáĪ©": 3263,
      "ĠáĪĺáĪįáĪ¶": 3264,
      "áĭ°áĪªáĭ«": 3265,
      "ĠáĪĽáĬŃ": 3266,
      "ĠáĬłáĬķáĭ³áĬķáĭµĠáĮĬáĭľ": 3267,
      "ĠáĮīáĭ³áīµ": 3268,
      "ĠáīłáĮįáĪįáįħ": 3269,
      "áĪ¨áĭĭáĪįĠ": 3270,
      "ĠáīĢáĭŃ": 3271,
      "ĠáĮĪáīł": 3272,
      "áĪ¸áĬĲáįį": 3273,
      "ĠáīłáĬ¥áĪŃáĮįáĮłáĬĿáĬĲáīµ": 3274,
      "áĪ¼": 3275,
      "áĪĿĠáĭ¨áī°": 3276,
      "áĭŃáĬĲ": 3277,
      "áīµĠáĪĺáĬ«áĬ¨áĪį": 3278,
      "Ġáĭ³áĮį": 3279,
      "áī½áĪĪáĭįĠáĬ¥áĬķáĭ´áīµĠáĬĲáĭįĠ": 3280,
      "ĠáĪ°áĪĿ": 3281,
      "áĭĪáĮ£áĭį": 3282,
      "ĠáĬŃáĪįáĪį": 3283,
      "ĠáĬłáĭĺ": 3284,
      "ĠáĪĺáī¶": 3285,
      "ĠáĭŃáĪĭáĪįĠ": 3286,
      "ĠáĭĽáįį": 3287,
      "ĠáĮŃáĬķáīĢ": 3288,
      "áĬŃáĪŃáĪµáī²": 3289,
      "ĠáĭĪáĬķ": 3290,
      "áī²áĬŃ": 3291,
      "áĮłáī¥áīħ": 3292,
      "ĠáĬłáĪµáī°áĭ«áĭ¨": 3293,
      "áĪĪáīħ": 3294,
      "ĠáĪĺáĭĭ": 3295,
      "ĠáĬ¨áĮĬáĭľ": 3296,
      "ĠáĪĪáĪį": 3297,
      "ĠáĪºáĪħ": 3298,
      "Ġáĭ¨áĬĲ": 3299,
      "ĠáīłáĪĺáįħáĪĢáįįĠáīħáĭ±áĪµ": 3300,
      "Ġáĭ¨áĬ¥áĮįáĭļáĬłáī¥áĪĦáĪŃ": 3301,
      "ĠáĪĺáĭµáĪ¨": 3302,
      "Ġáī¥áī»ĠáĪ³áĭŃáĪĨáĬķ": 3303,
      "áįĸáĪĬ": 3304,
      "ĠáĪĽáĬķáĬĽáĭįáĪĿĠáĪ°áĭį": 3305,
      "Ġáĭ«áĪĭáī¸áĭįáĬķ": 3306,
      "áĮłáĬķ": 3307,
      "ĠáįĪáīĥáĭ°áĬĽ": 3308,
      "áĪĿĠáĪ°áĭį": 3309,
      "Ġáī³áĭŃ": 3310,
      "Ġáĭ«áĭ°áĪŃáĮĭáĪįĠ": 3311,
      "ĠáĮĭáĪŃĠáīłáĪĺ": 3312,
      "ĠáĮĪáī£": 3313,
      "ĠáĪ«áĪ´": 3314,
      "ĠáĬłáĮĪáĪįáĮĭáĭ®áī½": 3315,
      "Ġáī´áĬŃáĬĸáĪİáĮĤ": 3316,
      "áī£áī£": 3317,
      "áĪĢáī¥": 3318,
      "ĠáĬłáĭµáĪŃáĮĵ": 3319,
      "ĠáĭŃáīĨ": 3320,
      "ĠáĮįáĬķáĭĽáī¤": 3321,
      "Ġáĭ¨áĪļáĭ«áĭ°áĪŃáĮī": 3322,
      "áīłáīµĠ": 3323,
      "áĬĵĠáĬ¥": 3324,
      "ĠáĪįáĮĦ": 3325,
      "áĭĺáĪ¨": 3326,
      "Ġáīłáī°áĪĺáĪĪáĬ¨áī°": 3327,
      "ĠáĮłáĭŃ": 3328,
      "áī°áĬĵáĪį": 3329,
      "ĠáĪĿáĪŃáīµ": 3330,
      "áĬķáĪĿĠ": 3331,
      "áĮħáĬĲáīµ": 3332,
      "áĭİáī½áĬķĠáĪĪáĪĺ": 3333,
      "ĠáĪĺáĪįáĬ«": 3334,
      "áįĪáĪĪáĮĪ": 3335,
      "ĠáĬĲáĮĪáĭµ": 3336,
      "áįĬáī±": 3337,
      "ĠáĬłáĪĪáīĥ": 3338,
      "ĠáĬĽáĭį": 3339,
      "áĭ³áĬķáīµ": 3340,
      "ĠáĬ¥áĬķáĬ³áĬķ": 3341,
      "áĪµáĬ®": 3342,
      "áįĪáĮłáĪ¨": 3343,
      "áĪ¬áīµ": 3344,
      "Ġáī¥áī¸": 3345,
      "ĠáĮĪáĪįáĮ¿": 3346,
      "áĪĺáĪĭáĪĪ": 3347,
      "áĪĺáĪĪáĬŃ": 3348,
      "áĪ°áĪ«áĭį": 3349,
      "áĭįáĪ«": 3350,
      "ĠáĭĪáĮ£áīµ": 3351,
      "áĬ«áĭŃ": 3352,
      "ĠáīĢáĮ£": 3353,
      "Ġáī°áīĢáī£áĭŃáĬĲáīµ": 3354,
      "Ġáĭ¨áĮ¦áĪŃ": 3355,
      "áĪŃáĪĽ": 3356,
      "ĠáĭĪáĭŃáĪµ": 3357,
      "áĪĺáĬĲ": 3358,
      "áĪħáīłáĪ«áĭĬ": 3359,
      "áĪ²áĭ«": 3360,
      "ĠáĪĪáĬ¥áĪŃáĪµáĭİ": 3361,
      "ĠáįķáĪ®áĮĢáĬŃ": 3362,
      "áī¨áĪŃáĪ²áī²": 3363,
      "Ġáĭ¨áĪħáĭĿáī¥": 3364,
      "áīĥáĪĪáĪģ": 3365,
      "Ġáī«": 3366,
      "ĠáĪĪáĭĪ": 3367,
      "áĪĿáįķ": 3368,
      "ĠáĬ¨áīł": 3369,
      "ĠáīµáĪŃáĮīáĪĿ": 3370,
      "Ġáĭ¨áĭ©": 3371,
      "ĠáĭĪáĪ«áīµ": 3372,
      "ĠáĬĲáĮĪáĪµáī³": 3373,
      "ĠáĪĿáĬĵáĪįáī£": 3374,
      "ĠáĭĪáĭ²áĪħ": 3375,
      "áĬłáĭĬ": 3376,
      "áĬ©áĪŃ": 3377,
      "áĬķĠáĪĺáĪį": 3378,
      "ĠáĬ¥áĬķáĭ²áĪħĠáĬłáĪĪ": 3379,
      "áīµĠáĬłáĭŃáĭ°": 3380,
      "áĪ¨áĮĪ": 3381,
      "ĠáĪĬáĪĨáĬĳ": 3382,
      "áĪŀáĬŃáĪ®": 3383,
      "áĪµáī°áĬĽáĭį": 3384,
      "áĪµáīµáĪ«": 3385,
      "áĮ¢áĬł": 3386,
      "áīµĠáĬłáĪĺáīµ": 3387,
      "áĪ³áĬķ": 3388,
      "áĭ¨áĪģ": 3389,
      "ĠáĮĪáī¢": 3390,
      "Ġáĭ¨áĭŃáĪĨáĭĭ": 3391,
      "ĠáĬ¨áĪģáĪī": 3392,
      "áĮĭáĮł": 3393,
      "áĪµáī°áĭį": 3394,
      "ĠáĬ¥áĭįáīĢ": 3395,
      "ĠáīģáĮ¥áĮ¥áĪŃ": 3396,
      "ĠáĬłáĭ«áĪµ": 3397,
      "áīĢáĬĲáĪµ": 3398,
      "Ġáī¸": 3399,
      "ĠáĬłáĪĿáĪĭáĬ«": 3400,
      "ĠáĪĽáĪĪáīµĠáĬĲáĭįĠ": 3401,
      "ĠáīłáĪµáī°áīĢáĪŃ": 3402,
      "áĮ´": 3403,
      "áĭĪáĭ±": 3404,
      "ĠáĮįáĪĿáĮĪáĪĽ": 3405,
      "ĠáĪ³áĬ¦áĪį": 3406,
      "áī½áĪįáĪĿ": 3407,
      "ĠáĪĽáĪµáī³áĭĪáīĤáĭ«": 3408,
      "ĠáĪĭáĭŃĠáĬł": 3409,
      "Ġáĭ¨áĬłáĬķáĭµ": 3410,
      "áĪŃáī¶": 3411,
      "áĪĪáĬĿ": 3412,
      "áĪ¨áĬ¨": 3413,
      "áīłáĪ³": 3414,
      "áī£áī½áĬķ": 3415,
      "áįħáĬ¦": 3416,
      "áĪĨáĬĵáī¸áĭį": 3417,
      "ĠáĪĺáĬŃ": 3418,
      "ĠáĬłáĭ¨áĪŃ": 3419,
      "áĪħáĬķĠáĬł": 3420,
      "áĪ«áĮ®áī½": 3421,
      "áĭµáĬĵ": 3422,
      "áĭ¨áĪĿ": 3423,
      "ĠáīłáĪĽáĪĪ": 3424,
      "ĠáĬłáī£áĪĭ": 3425,
      "ĠáĪĢáĪ³áī¦áī½": 3426,
      "áĮłáī¥áīģ": 3427,
      "áĪĢáĭŃáĪį": 3428,
      "áīµáĬŃ": 3429,
      "áĪµáī°áĭ³": 3430,
      "áĭİáī½áĬķĠáĬ¥áĬĵ": 3431,
      "áĭĪáĪµáĭ³": 3432,
      "Ġáī¥áĪĦáĪ«áĭĬ": 3433,
      "áĮĪáĪ«": 3434,
      "ĠáīłáĬ¥áĭįáĬĲáīµ": 3435,
      "ĠáĬ³": 3436,
      "áĪįáĭ«": 3437,
      "áĬĲáĪµáī°áĬĽ": 3438,
      "Ġáĭ³áĭŃ": 3439,
      "Ġáĭ¨áĪļáĮĪáĬĻ": 3440,
      "ĠáĭĪáĪĪáĭ°": 3441,
      "ĠáĬ¨áĪĮáĪİáī½": 3442,
      "ĠáĪĽáĬķáīłáī¥": 3443,
      "ĠáĮ«áĪĽ": 3444,
      "áįĥáĪħáįįáīµ": 3445,
      "áĮ³": 3446,
      "Ġáĭ«áĪ¨áĮĭáĮį": 3447,
      "áįįáĪŃ": 3448,
      "áĭĪáĭ«": 3449,
      "áĬ«áįĪáĪį": 3450,
      "ĠáĮĭáĪŃĠáĪĺ": 3451,
      "Ġáī°áĪµáĪĽáĪļ": 3452,
      "ĠáĭŃáĭŀ": 3453,
      "ĠáīłáĪµáĪ«": 3454,
      "ĠáĬłáĭ°": 3455,
      "ĠáĭŃáĮ¨": 3456,
      "ĠáĬĲáī¢": 3457,
      "áīĥáī¸áĭį": 3458,
      "ĠáĮ¥áĪĭ": 3459,
      "ĠáĪļáĬĴáĪµáīµ": 3460,
      "áĭĻáĪªáĭ«": 3461,
      "ĠáĭµáĬķáīħ": 3462,
      "ĠáĪĺáĭµáĪĢáĬĴ": 3463,
      "ĠáĬ©áī£áĬķáĭ«áĭİáī½": 3464,
      "ĠáĬ¥áĬķáĭ°áĬĲáīłáĪŃ": 3465,
      "áīµĠáĬ¥áĬķáĭ²": 3466,
      "áĭ«áĪħ": 3467,
      "ĠáĪĽáĪ»áĪ»": 3468,
      "áĪĢáĭĬ": 3469,
      "Ġáĭ¨áĪļáĪĨáĬĳ": 3470,
      "ĠáĬĲáĭįĠáĭ¨": 3471,
      "áĭįáĬĲ": 3472,
      "ĠáĪµáĪĪáĪĽ": 3473,
      "ĠáĬ¥áĬķáĭ³áĪī": 3474,
      "ĠáīłáĪĽáĬķáĬĽáĭįáĪĿ": 3475,
      "ĠáĪĿáĪµáĪį": 3476,
      "áĭİáī»áī¸áĭį": 3477,
      "Ġáīłáī°áĪĺáĪ³áĪ³áĭŃ": 3478,
      "ĠáĪīáīĥ": 3479,
      "áĪŃáĪ»": 3480,
      "áĪĭáĬŃ": 3481,
      "áĪ³áĭ©": 3482,
      "ĠáĪĪáĪĺáĮĢáĪĺáĪªáĭ«": 3483,
      "Ġáĭ«áĭ°áĪŃáĮĪ": 3484,
      "ĠáĬ¥áĬĵĠ": 3485,
      "ĠáĪĿáĪŃáĪĺáĪ«": 3486,
      "áĬĵáĭŃáīµáĭµĠáĪµáī´": 3487,
      "áĬķáĮĪáĭµ": 3488,
      "ĠáĪĺáĪĪáĭ«": 3489,
      "áīĢáĪį": 3490,
      "ĠáĪįáĭ©áĬĲáīµ": 3491,
      "ĠáĬĭáĪĭ": 3492,
      "Ġáĭ¨áĭ³": 3493,
      "ĠáĪĪáĪ°": 3494,
      "ĠáĪĪáĪĽáīħáĪ¨áī¥": 3495,
      "áī¡Ġ": 3496,
      "áĪĿĠáįį": 3497,
      "Ġáĭ¨áĪĺáĬķáĮįáĪµáīµ": 3498,
      "Ġáĭ«áĮįáĬĻ": 3499,
      "áĪ³áĭ¨": 3500,
      "ĠáīµáĪ«": 3501,
      "ĠáĬłáĭŃáĭ°áĪĪ": 3502,
      "ĠáĪĿáī¹": 3503,
      "ĠáīĢáĮł": 3504,
      "áĮłáĮ£": 3505,
      "áĪ³áĪįĠ": 3506,
      "áĭįáĬķáĪĿ": 3507,
      "ĠáĪĪáĪĿáĪ³áĪĮĠáĭ«áĪħáĪį": 3508,
      "ĠáĮ¤áĬĵáĪĽ": 3509,
      "áĪ³áĪ°áī¥": 3510,
      "ĠáĮ¡": 3511,
      "áĪģáĬķáĪĿ": 3512,
      "áĪĢáĪĪáĪģ": 3513,
      "áĪĮáĪĪáĭį": 3514,
      "ĠáĪĿáĬķĠáĪĽáĭµáĪ¨áĮį": 3515,
      "ĠáĪĪáĬ¥áĪ±": 3516,
      "Ġáī£áĪĪáĪĻáĭ«áĭİáī½": 3517,
      "áĬĵáĭŃáīµáĭµĠáĪµáī´áīµáĪµ": 3518,
      "ĠáĬ¨áĪĭáĭŃ": 3519,
      "áī³áĬķ": 3520,
      "ĠáĭĪáĪ«": 3521,
      "áī±Ġ": 3522,
      "ĠáĪħáĮĭáĭĬ": 3523,
      "ĠáīłáĪ½áī³": 3524,
      "áĭĪáĮį": 3525,
      "ĠáĬ¥áī£áĬŃáĭİáĬķ": 3526,
      "ĠáĪ¹": 3527,
      "áĪ°Ġ": 3528,
      "áĮĨáī¹": 3529,
      "áĬĴáĭ«": 3530,
      "ĠáĪĿáĬķĠáĬłáĭŃáĬĲáīµ": 3531,
      "ĠáĪµáĪĪáĪĺ": 3532,
      "áĪĭáĪµ": 3533,
      "ĠáĮ¥áĮĪáĬĵ": 3534,
      "áĪ¨áĮį": 3535,
      "áĭ³áīµ": 3536,
      "áī¤áĪį": 3537,
      "ĠáĪĿáĬķáĮŃ": 3538,
      "ĠáĬ¥áĬķáĭ²áĪħĠáĪ²áĪį": 3539,
      "Ġáĭ²áĭĽ": 3540,
      "ĠáįĢáĪĢáįĬ": 3541,
      "áĪĿáĬĳ": 3542,
      "áĪµáī¶": 3543,
      "áĬĲáĭļáĭ«": 3544,
      "ĠáĮĪáĭ¢": 3545,
      "ĠáĪļáĪµáī°áĪŃ": 3546,
      "áīĥáĮłáĪį": 3547,
      "áįĥáĪľ": 3548,
      "Ġáĭ¨áĮĪáĬķáĭĺáī¥": 3549,
      "ĠáīĢáĬķĠáĬł": 3550,
      "ĠáĬ¨áĬ¥áĪŃáĪ±": 3551,
      "áĪŀáĬŃáĪ«áĪ²": 3552,
      "ĠáĪµáĪĭáĪį": 3553,
      "ĠáĪĭáĭŃĠáĬ¨": 3554,
      "áī°áĪħ": 3555,
      "ĠáĪ°áĪĽáĭŃ": 3556,
      "ĠáĪ°áĭİáī½áĬķ": 3557,
      "Ġáī¥áĭĻáĪĿ": 3558,
      "Ġáĭ«áĪµáįĪáĪįáĮĭ": 3559,
      "áĪ°áĬĵ": 3560,
      "ĠáīĢáĪĪ": 3561,
      "áĪĭáĭįáĭ«": 3562,
      "áĬĵáĪ½": 3563,
      "ĠáĪĭáĭŃĠáĪĪáĪĺ": 3564,
      "áīĭáĪįĠ": 3565,
      "ĠáĪĿáĬķáĪĿĠáĬĲáĮĪáĪŃ": 3566,
      "ĠáĭŃáĮĪáī£áĪįĠ": 3567,
      "ĠáĬ¥áĬķáĮ¨": 3568,
      "áīĨáĭ¨": 3569,
      "áĪ¨áĮĭáĮĭ": 3570,
      "áĪŃáĮįáĮ¥": 3571,
      "áĮłáĬĵáīĢ": 3572,
      "áĭĭáĬĵ": 3573,
      "áĭ°áĮĪáįį": 3574,
      "ĠáĮ¢áĪŀ": 3575,
      "áĮįáĬķ": 3576,
      "ĠáĬłáīłáī£": 3577,
      "ĠáīłáĪĨáĬĳ": 3578,
      "áĬĲáĬ«": 3579,
      "ĠáĬłáĪ®": 3580,
      "áī¥áĬĵáĪįĠ": 3581,
      "áĭµáĪľ": 3582,
      "ĠáīħáĬķ": 3583,
      "ĠáĪĺáĪµáĪĺáĪŃ": 3584,
      "ĠáĭĪáĮ£áī¶áī½": 3585,
      "Ġáĭ¨áĪļáĮĪáī£": 3586,
      "ĠáĬ¥áĬķáĭ³áĪĪáī¥": 3587,
      "áĮĵáĮĵ": 3588,
      "áĮĪáĭĻ": 3589,
      "áĬŃáĪª": 3590,
      "áĭĿáĮį": 3591,
      "áĬķĠáīłáĪĻáĪī": 3592,
      "ĠáĬ¥áĪŃáĮįáĮ¥": 3593,
      "áĮĭáĪį": 3594,
      "áīĥáĮł": 3595,
      "ĠáĪĪáĪĺáĪµáĮłáīµ": 3596,
      "ĠáĪĪáĪĽáĬķ": 3597,
      "ĠáĭĪáĭŃáĪĿĠáĬ¨": 3598,
      "ĠáĬłáĮĪáĪįáĮĭáĭŃ": 3599,
      "Ġáĭ¨áĬ¦": 3600,
      "Ġáĭ«áĬķáĬķ": 3601,
      "áĬŃáī¥áĪ®": 3602,
      "áĬĲáī³áī¸áĭį": 3603,
      "áĮłáĭŃáīħ": 3604,
      "áĪ«áĪī": 3605,
      "áīłáīµĠáĭĪáīħáīµ": 3606,
      "áīĭáĪ¨áĮ¥": 3607,
      "ĠáĬŃáįįáĪĪ": 3608,
      "ĠáĬ¥áĭįáīĢáīµ": 3609,
      "áīħáĪį": 3610,
      "ĠáĪĽáī³": 3611,
      "áĬĲáĮĪáĪŃ": 3612,
      "áĭ°áĬĵáīĤ": 3613,
      "ĠáĬłáĪĿáĪµáīµ": 3614,
      "áī°áĪĽ": 3615,
      "áĪ¸áĮ¥": 3616,
      "ĠáĪĺáĪįáĬ¥áĬŃáīµ": 3617,
      "áĪ¨áĮĭáĮĪáĮ«": 3618,
      "áĬķáĪ°áĪŃ": 3619,
      "áĬĵáĭįáĭ«áĬķ": 3620,
      "ĠáīłáĪĽáĪµ": 3621,
      "ĠáīłáĪħáĭŃáĭĪáīµ": 3622,
      "áĬķáĭĪ": 3623,
      "áĪ³áī¢": 3624,
      "áī½áĪģáĬķ": 3625,
      "áĪĬáĬŃ": 3626,
      "ĠáĬ¥áĭ«áĪĪ": 3627,
      "ĠáĬłáĬķáĪµáī¶": 3628,
      "ĠáĬ¥áĬķáĭµáĬĵ": 3629,
      "ĠáĬ«áĪħáĬĳ": 3630,
      "áĭįáīģ": 3631,
      "áĮłáĪ¨áĭį": 3632,
      "áĮłáī¢áĭ«": 3633,
      "Ġáī°áĪĽáĪª": 3634,
      "áĬĲáĪ³áĪ³": 3635,
      "ĠáĬ¥áĪĪáīµ": 3636,
      "áĮ¨áĭĭ": 3637,
      "áĭįáĪ®áįĵ": 3638,
      "áĪĪáīĨ": 3639,
      "áĭ°áĪ³áī½": 3640,
      "Ġáī°áĪŃ": 3641,
      "áįĭáĬķ": 3642,
      "áĮįáī£áīµ": 3643,
      "áī½áĬĭáĪįĠ": 3644,
      "ĠáĪĭáĭŃĠáĭ¨áī°áĪĺáĪ°áĪ¨áī°": 3645,
      "áĮĪáīłáĭ«": 3646,
      "ĠáĪĪáī¥áĭĻ": 3647,
      "áĭ³áīłáĪŃ": 3648,
      "ĠáĬłáĭįáĪ®": 3649,
      "áĪħáĮį": 3650,
      "áĪµáīł": 3651,
      "áĪĿáĮ£áīµ": 3652,
      "ĠáĭįáĪµáĮ¥ĠáĭŃ": 3653,
      "ĠáĭĪáĮĪáĬĸáī½": 3654,
      "Ġáī°áĪĺ": 3655,
      "ĠáĬ¥áĬĵĠáĬł": 3656,
      "áįĥáįĪ": 3657,
      "ĠáĪĺáĪµáįĪáĪŃ": 3658,
      "ĠáĪĿáĪµáĪ«áīħ": 3659,
      "ĠáĪĬáīĢ": 3660,
      "áĪĪáĮĭ": 3661,
      "áĭ«áĭ£": 3662,
      "áĬĲáīĢ": 3663,
      "ĠáĮįáĪĿáīµ": 3664,
      "áĪĿĠáīłáĪĽ": 3665,
      "Ġáĭ¨áĬłáī£": 3666,
      "áĮĢáĪĺáĪ¨": 3667,
      "ĠáĪĪáĬ¥áĬĽ": 3668,
      "áĮĪáĬĵáĬĿ": 3669,
      "ĠáĬłáĬķáī¥áī¥Ġ": 3670,
      "ĠáĬķáĬ¡áĪµĠáĬłáĬķáīĢáįħ": 3671,
      "áĪ°áīĥ": 3672,
      "ĠáĮĪáĪĪ": 3673,
      "ĠáĬ¨áįĪáĪĪáĮī": 3674,
      "Ġáī¥áĭĻáĭİáī½": 3675,
      "ĠáĮħ": 3676,
      "áī¥áĪį": 3677,
      "áĪĻáĬķ": 3678,
      "ĠáĬłáĬķáįĥ": 3679,
      "ĠáĬłáī¥áĪŃáĪĢ": 3680,
      "áĪĺáĬĳ": 3681,
      "ĠáĬ¥áĬĵĠáīłáĬł": 3682,
      "Ġáĭ¨áī°áĪ°áĪ«": 3683,
      "áĪµáĪį": 3684,
      "ĠáīłáĭļáĪħĠáĬłáĭĭáĮħ": 3685,
      "áĮįáīłáĪªáĭ«": 3686,
      "ĠáĪ¾": 3687,
      "áĮĪáīł": 3688,
      "áĭ°áīł": 3689,
      "ĠáĬłáī¥áĪ¨áĭį": 3690,
      "áĪŃáĭ«áīµ": 3691,
      "ĠáĪĺáī¥áīµ": 3692,
      "ĠáīłáĭĽáĪ¬áĭįĠáĮĬáĭľ": 3693,
      "Ġáĭ«áĪĭ": 3694,
      "Ġáī¤áīµĠáĬł": 3695,
      "ĠáĬ¢áĭ«áĪ±": 3696,
      "ĠáįįáĮ¥áĬĲáīµ": 3697,
      "áĭ³áĮħ": 3698,
      "ĠáĮ¥áīł": 3699,
      "áĭ¬áĬķ": 3700,
      "áĮĢáĬķáĪ²": 3701,
      "Ġáĭ¨áĪĿáĪŃ": 3702,
      "áīłáĪ¨áī³áī³": 3703,
      "áĪĪáĪ½": 3704,
      "áĭİĠáĭįáĪµáĮ¥": 3705,
      "áĪªáĭį": 3706,
      "ĠáĪĽáĪħáīłáĪ¨áĪ°áī¥": 3707,
      "áĬ«áĪŃ": 3708,
      "áĮİáĭ³": 3709,
      "ĠáĪĿáĬķáĪĿĠáĬ¥áĬķáĬ³áĬķ": 3710,
      "ĠáĪĺáĪĢ": 3711,
      "áĭŃáĭĿ": 3712,
      "ĠáĪĺáĮĭ": 3713,
      "Ġáī°áĬ¨": 3714,
      "ĠáĪĽáĮ¥": 3715,
      "ĠáĮįáĭĽ": 3716,
      "Ġáĭ¨áĪĽáĭ«": 3717,
      "Ġáĭ¨áĬ¨áī°áĪĽ": 3718,
      "áĬ¥áĪĿ": 3719,
      "ĠáĭµáĪį": 3720,
      "áĬ¨áī°áĪĪáĭį": 3721,
      "Ġáĭ¨áĪĨáĬĳáīµ": 3722,
      "áĭ«áĭ«áĭĻ": 3723,
      "áĪĽáĪįĠ": 3724,
      "ĠáĪĿáĬŀ": 3725,
      "áĪµáī¶áī½": 3726,
      "áī¶áī¼": 3727,
      "áĭĮáĪŃ": 3728,
      "Ġáī¡áĭµáĬĸáī½": 3729,
      "ĠáĬ®áĪļáī´": 3730,
      "áī¥áĪħ": 3731,
      "áĪ°áīµ": 3732,
      "Ġáī°áĪ¸": 3733,
      "ĠáĪĿáĬŃáĬķáĭ«áī¶áī½": 3734,
      "ĠáĪĽáĪħáīłáĪ«áĭĬ": 3735,
      "áĬ«áī£áī¢áĭį": 3736,
      "áĮįáĭĽáīµ": 3737,
      "áĮĭáī¸áĭį": 3738,
      "ĠáīĢáĬķĠ": 3739,
      "ĠáĪŀáī°": 3740,
      "ĠáīĢáĪĪáĪĿ": 3741,
      "ĠáīĢáĭµáĪŀ": 3742,
      "áĬķáĬ©": 3743,
      "áĪµáīłáĭį": 3744,
      "ĠáĬłáĬķáĭ°": 3745,
      "áĪ³áĪªáĭ«": 3746,
      "ĠáĪĿáĪħ": 3747,
      "áĪĿĠáīłáĭļáĪħ": 3748,
      "ĠáĬ¥áĪŃáĪ»": 3749,
      "Ġáĭ¨áįĭ": 3750,
      "Ġáĭ°áĬķáīł": 3751,
      "Ġáī¥áĪĪáĭĭáĪįĠ": 3752,
      "ĠáīłáįįáĮ¥áĬĲáīµ": 3753,
      "áĪ³áĬķĠáĪĺ": 3754,
      "Ġáĭ¨áĪļáĭ«áĪ³áĭŃ": 3755,
      "ĠáĪĺáĪįáĬł": 3756,
      "áĭŃáĬĵáĬķáĪµ": 3757,
      "áĪĭáĪĭ": 3758,
      "áĬłáĭĽ": 3759,
      "áĪ©áĪĿ": 3760,
      "áīģáĪĿ": 3761,
      "ĠáĪľáĭ³": 3762,
      "ĠáĭŃáĬ¸áĭįáĪĿ": 3763,
      "ĠáĬłáĪħ": 3764,
      "áĪįáī£": 3765,
      "Ġáī°áĪ³": 3766,
      "ĠáĪįáī³": 3767,
      "áĪŀáī±": 3768,
      "ĠáĪĻáĬ¨áĪ«": 3769,
      "ĠáīĢáĭ°áĪĿĠáĪ²áĪį": 3770,
      "áįħáĪĦ": 3771,
      "ĠáĪļáĭ²áĭ«": 3772,
      "ĠáĭĭáĪµáīµáĬĵ": 3773,
      "áī½áĬĭáĪį": 3774,
      "áĬłáĪĿ": 3775,
      "áĭ³áĪļ": 3776,
      "ĠáĪµáī¥áĪµáī¥": 3777,
      "Ġáĭ°áĬķáī¥": 3778,
      "áĪįáīłáīµ": 3779,
      "ĠáĭįáĮ¤áīµ": 3780,
      "áĮĪáĬĺáĪģ": 3781,
      "ĠáĬĲáĮ¥": 3782,
      "Ġáĭ«áĬ«áīµ": 3783,
      "ĠáĬ¥áĬĵáĭ°áĪŃáĮĭ": 3784,
      "áĬ«áĪĦáĭµ": 3785,
      "ĠáĬ¨áĬ¥áĬķáĮį": 3786,
      "áī½áĪīáīµ": 3787,
      "áĬĵáĮį": 3788,
      "áī¸áĭįáĪĿ": 3789,
      "ĠáĮ¥áīģáĪŃ": 3790,
      "ĠáĬ¥áĬķáĭ³áĭ«": 3791,
      "áĪĭáĪįáīħ": 3792,
      "ĠáĪļáĬĵ": 3793,
      "Ġáī¥áī»ĠáĬĲáĭįĠ": 3794,
      "áĮĪáĪĪáĮįáĪį": 3795,
      "ĠáīłáĬ®": 3796,
      "áĬĵáī½áĪģ": 3797,
      "áī£áĪĪáĭį": 3798,
      "áĪĭáĪĪáįį": 3799,
      "áĮĪáĪĪáĮįáĪī": 3800,
      "Ġáī°áĮłáīħ": 3801,
      "áĭĺáī°": 3802,
      "áĮĢáĪĿáĪŃ": 3803,
      "ĠáĭĿáĬĵ": 3804,
      "ĠáįįáįģáĪĿ": 3805,
      "áī£áĪī": 3806,
      "áĪ°áĮłáĭįáĬķ": 3807,
      "Ġáĭ¨áĭĭ": 3808,
      "ĠáĬ¥áĬķáĭ²áĪĨáĬĳ": 3809,
      "ĠáĮ¥áīĥáīµ": 3810,
      "áĪ°áĬĲ": 3811,
      "ĠáĬ«áĪħáĬĵ": 3812,
      "ĠáĪĻáĭļáīĥ": 3813,
      "ĠáĪļáĬĴáĪµáī´": 3814,
      "áīµĠáīłáĮ£": 3815,
      "áī¦áī¹": 3816,
      "ĠáĬķáĮįáĮįáĪŃ": 3817,
      "ĠáĮĭáĭľáĮ£": 3818,
      "áĬĲáī±áĬķ": 3819,
      "Ġáī°áĬĲ": 3820,
      "áĮĭáĭŃ": 3821,
      "ĠáĬ¥áĬķáĭ²áĪħĠáĭ«áĪĪ": 3822,
      "ĠáĬłáĪµáī°áĭ«áĭ¨áīµ": 3823,
      "ĠáĬłáĭĿ": 3824,
      "ĠáīĢáĪ¨": 3825,
      "áĪ¹áĪ«áĬķáĪµ": 3826,
      "áĬľ": 3827,
      "ĠáīĤ": 3828,
      "Ġáĭ¨áĭŃ": 3829,
      "áī°áĬĿáĬĲáīµ": 3830,
      "Ġáĭ«áĭ°áĪ¨áĮĪ": 3831,
      "ĠáīħáĮ£": 3832,
      "Ġáĭ¨áĪĿáĭµáĪŃ": 3833,
      "áįĪáī°": 3834,
      "áĪĽáĪ©": 3835,
      "áĪ³áĬ¤": 3836,
      "Ġáĭ¨áī°áĪ³": 3837,
      "ĠáĭĺáĪĭ": 3838,
      "Ġáī³áĪĽ": 3839,
      "áĪĨáĬķáĬ©": 3840,
      "áĬĽáĭįáĪĿĠáĭ¨": 3841,
      "ĠáĭµáĪŃáĪ»": 3842,
      "ĠáĪ³áĪĿáĬķáīµ": 3843,
      "áĭįáĪĢ": 3844,
      "áĪĿĠáĭŃáĪħ": 3845,
      "áĮ¥áīħ": 3846,
      "áĬ¨áĪ©": 3847,
      "Ġáī¥áĪ©": 3848,
      "ĠáĭŃáĪĺáĪµáĪĭáĪįĠ": 3849,
      "áīĭáīĭáĪĿ": 3850,
      "ĠáĪĪáĪĺáĮĢáĪĺáĪªáĭ«ĠáĮĬáĭľ": 3851,
      "Ġáĭ¨áĪļáī³": 3852,
      "áĪ«áī¢áĭ«": 3853,
      "Ġáī°áĪŀáĬŃáĪ®": 3854,
      "ĠáĪ°áĮª": 3855,
      "áĭİáī½ĠáĭįáĪµáĮ¥": 3856,
      "ĠáĪĺáįħáĪĢ": 3857,
      "ĠáĬ¨áĭ«áĪħáĭĮ": 3858,
      "áĭĭáīµ": 3859,
      "ĠáĮ¥áĪª": 3860,
      "ĠáĪ²áĪĨáĬĳ": 3861,
      "áĭ®áĬķ": 3862,
      "ĠáĪĺáĪĨáĬķĠáĬłáĪĪáīłáīµ": 3863,
      "áĬķáįĢ": 3864,
      "ĠáĪĪáī¥": 3865,
      "ĠáĭĪáĭĺáī°": 3866,
      "áįĪáĮłáĪŃ": 3867,
      "Ġáīłáī°áĪĪáĭ«áĭ©": 3868,
      "ĠáĬ¨áĭļáĭ«ĠáīłáĬĭáĪĭ": 3869,
      "ĠáĭĪáĪ¨áīĢ": 3870,
      "Ġáĭ¨áĭĺ": 3871,
      "áĭ°áĪ±": 3872,
      "ĠáĭįáĮª": 3873,
      "áĪİáĪĿ": 3874,
      "Ġáī£áĪĪáī¤áīµ": 3875,
      "áĭİáī½áĬķĠáĭŃ": 3876,
      "áĭ·áĪįĠ": 3877,
      "ĠáĬ¨áĬ¥áĪ±ĠáĮĭáĪŃ": 3878,
      "ĠáīłáĮī": 3879,
      "ĠáĬłáĪ«áīµ": 3880,
      "áĪ«áĪ´": 3881,
      "ĠáĭĪáĭ°ĠáĪĺ": 3882,
      "ĠáĬ¥áĬĵĠáĭ¨áĪĺ": 3883,
      "áī¶áī»áī½áĪģ": 3884,
      "ĠáĬ¥áĬķáĭ°áĪĿáĬķ": 3885,
      "ĠáīµáĪįáīģ": 3886,
      "áĭĬáĭ«": 3887,
      "ĠáĬłáĪµáĪŃ": 3888,
      "Ġáĭ¨áĬ¢áĭ¨áĪ±áĪµ": 3889,
      "ĠáĪµáĪįáĮ£áĬķ": 3890,
      "ĠáīłáĪŃáĪµ": 3891,
      "áĪĪĠ": 3892,
      "ĠáĬłáĭŃáĪģáĭ³": 3893,
      "ĠáīłáĪļáĭ«áĪµ": 3894,
      "áĬ¨áī°áĪī": 3895,
      "áīµáĬŃáĪį": 3896,
      "áĪŃáįį": 3897,
      "áĪĪáī±": 3898,
      "áī£áī¥": 3899,
      "ĠáĬłáĪĽáĪ«áĮŃ": 3900,
      "ĠáĪĿáĪŃáī¶áī½": 3901,
      "ĠáĬłáĭįáĪ«": 3902,
      "áĪŃáĭ³áĬĸáĪµ": 3903,
      "áĭĪáīģ": 3904,
      "ĠáĬĲáĮĪáĪŃĠáĮįáĬķĠáĬł": 3905,
      "ĠáĮİáĭ³áĬĵ": 3906,
      "ĠáĮĪáĪįáĮ¿áĪįĠ": 3907,
      "áĪĺáī³": 3908,
      "áĬ¥áĭµ": 3909,
      "áĪĪáĪģĠáĬ¥áĬĵ": 3910,
      "ĠáĪ¨áĭµ": 3911,
      "áįĴáī³áĪį": 3912,
      "áīĢáĪĺáĮ¡": 3913,
      "áĮłáĭŃáīģ": 3914,
      "ĠáīłáĮ£áĪĿĠáĬłáĪµáįĪáĪĭáĮĬ": 3915,
      "áĮ´áĭĽ": 3916,
      "áĭįáĬĲáīµ": 3917,
      "ĠáĪĪáĬ¥áĬĲáĪ±": 3918,
      "ĠáĭĪáĬķáĭµáĪĿ": 3919,
      "Ġáĭ«áĪįáĪĨáĬĳ": 3920,
      "áĬķáĬ®": 3921,
      "ĠáĪĽáīĨ": 3922,
      "ĠáĭįáĪµáĮ¥ĠáĪĺ": 3923,
      "Ġáĭ³áĬķ": 3924,
      "áįĮáĭ´": 3925,
      "áĪĽáĪ¨": 3926,
      "ĠáĪµáĪ«ĠáĬłáĪµ": 3927,
      "áĪĿáĪħáĪŃ": 3928,
      "ĠáĬ¥áĬķáĮįáĭ³": 3929,
      "ĠáįĪáĪŃ": 3930,
      "áįķáĪª": 3931,
      "áīĢáīłáĪī": 3932,
      "ĠáĪĺáĭ°áīłáĬĽ": 3933,
      "ĠáĪĢáĭĭáĪŃáĭ«áĭį": 3934,
      "áĪĪáĪĿĠáĬłáīĢáįį": 3935,
      "áīµáĬķĠáĪĪáĪĺ": 3936,
      "ĠáĬ«áĪįáĪĨáĬĲ": 3937,
      "ĠáĬłáĭ²áĪ±": 3938,
      "áĭįáĬķĠáīł": 3939,
      "ĠáĬķáĭµáįį": 3940,
      "áĬĲáī³áī½áĬķ": 3941,
      "ĠáĬŃáĪĬ": 3942,
      "áĮ£áĬĿ": 3943,
      "Ġáĭ¨áĪļáĭ«áĭ°áĪŃáĮį": 3944,
      "ĠáįķáĪ¬áĭļ": 3945,
      "áĭ³áĪĿ": 3946,
      "ĠáĬ¥áĬķáĭ°áĪĺ": 3947,
      "Ġáī¥áĪ«": 3948,
      "áĬķáĭ°áĪŃ": 3949,
      "ĠáĮįáĭ´áī³": 3950,
      "áīłáĪ«": 3951,
      "áī¥áīħ": 3952,
      "ĠáĪ°áī£áīµ": 3953,
      "ĠáĪĪáĪĽáĪµáī°": 3954,
      "áĬķáĮįáĪµáīµ": 3955,
      "áĪ³áĭŃáĭ«áĪµ": 3956,
      "ĠáĪľáīµáĪŃ": 3957,
      "ĠáĬ¥áī£áĬŃáĪħ": 3958,
      "áĭµáĪ©": 3959,
      "áĪĿĠáīłáĪļ": 3960,
      "ĠáĪĽáĪµáī³áĭĪáĪ»": 3961,
      "áĬķĠáĪģáĪī": 3962,
      "ĠáĬłáĭĽ": 3963,
      "ĠáĪħáĪį": 3964,
      "ĠáĪģáĪīáĪĿĠáĪ°áĭį": 3965,
      "Ġáīłáī¥áĭĻ": 3966,
      "ĠáĪĺáĪĦáĭµ": 3967,
      "ĠáĪĪáĪĮáĪİáī½": 3968,
      "ĠáĪħáĪĬ": 3969,
      "áīĨáĭ©": 3970,
      "ĠáīłáĬ¥áĬĽ": 3971,
      "ĠáĬ¥áĬĲáĭļáĪħĠáĪ°áĭİáī½": 3972,
      "ĠáĭŃáĪĨáĬĵáĪīĠ": 3973,
      "ĠáĬĲáĪħ": 3974,
      "áĮ¥áįİ": 3975,
      "ĠáĭĪáĪ³": 3976,
      "ĠáīłáĪĺáĪĭáĭį": 3977,
      "Ġáī¤áīµĠáĪĺ": 3978,
      "Ġáīħáįħ": 3979,
      "Ġáĭ¨áĬ¥áĪ±": 3980,
      "ĠáĬłáīħáĮ£áĮ«": 3981,
      "ĠáĭĪáī³áĭ°áĪ«áĭĬ": 3982,
      "áĪįáĬ«": 3983,
      "áĬ¨áįĬ": 3984,
      "áĭ°áĮĭáĮĭáĪļ": 3985,
      "áĭįáĮŃ": 3986,
      "ĠáĭįáĪµáĮ¥Ġáī°": 3987,
      "ĠáĪļáĭĽ": 3988,
      "áī°áĬĽáĭįĠáĬłáĪĿáĪĭáĬŃ": 3989,
      "Ġáī°áĮ«áĭĭ": 3990,
      "Ġáĭ¨áĮ¤áĬĵ": 3991,
      "ĠáĬĲáĭįĠáĬ¨": 3992,
      "ĠáĮįáī¥áĪŃ": 3993,
      "áĬķĠáīłáĬĭáĪĭ": 3994,
      "ĠáĬłáĪ°áĪ«áĪŃ": 3995,
      "áĮłáĬķáīĢ": 3996,
      "ĠáĭįáĪµáĮ¥ĠáĬ¨": 3997,
      "ĠáĪ²áĪĨáĬķĠáīł": 3998,
      "áĮįĠ": 3999,
      "áĪ¸áįį": 4000,
      "ĠáĬ¥áĬķáĭ²áĪħĠáĬłáĪĭáī¸áĭį": 4001,
      "ĠáįĭáĭŃ": 4002,
      "ĠáĬ¥áĬķáĭ³áĪįáĪĨáĬĲ": 4003,
      "áĪĿáįĴáĭį": 4004,
      "ĠáīłáĭµáĬķ": 4005,
      "áĬĲáĬĽ": 4006,
      "ĠáīµáĪĨáĬĵ": 4007,
      "áī¢áĭ«áĭį": 4008,
      "ĠáĭĪáĪŃáīħ": 4009,
      "ĠáįĬáīµĠáĪĪ": 4010,
      "ĠáĮĪáĪįáįĢ": 4011,
      "ĠáĭĪáī³áĭ°áĪ®áī½": 4012,
      "ĠáĮłáĮħ": 4013,
      "áĬŀáī»áī½áĬķ": 4014,
      "ĠáĬ¨áĭļáĭ«áĪĿĠáīł": 4015,
      "ĠáĪŀáĮĪáĪµ": 4016,
      "ĠáĬłáĬķáĭ³áĬķáĭ¶áī¹": 4017,
      "ĠáĮĪáĭ°áĪĽ": 4018,
      "ĠáĬ¨áĪĺáĪĨáĬĳáĪĿĠáĪĮáĪĭ": 4019,
      "ĠáĪĪáĮ¥": 4020,
      "áīĥáĪī": 4021,
      "áĪĪáĬķĠáĬ¥áĬĵ": 4022,
      "áĮĬáĭľáĭį": 4023,
      "Ġáĭ¨áĭ«áĪħáĭĮĠáĪĿáĪµáĬŃáĪ®áī½": 4024,
      "ĠáĬłáĪįáĬĲáīłáĪ¨áĪĿĠ": 4025,
      "áĪªáīµ": 4026,
      "ĠáĭįáĪµáĮ¥Ġáĭ«áĪī": 4027,
      "ĠáĪħáĮĪ": 4028,
      "áĮįáĪª": 4029,
      "áīłáī³áĪį": 4030,
      "ĠáīµáĬĵáĬķ": 4031,
      "ĠáĪªáįĸáĪŃ": 4032,
      "ĠáĪĽáĬķáĪĿĠáĪ°áĭį": 4033,
      "ĠáĪ°áĪĪáĪŀ": 4034,
      "áī»áĪĪáĭį": 4035,
      "áī´áĪĮ": 4036,
      "ĠáīĥáĪĭ": 4037,
      "ĠáĬłáĬķáĭ²áīµ": 4038,
      "áĭįáĬĵ": 4039,
      "ĠáĬ¥áĮģ": 4040,
      "áĪµáĮĭ": 4041,
      "áįĪáĪª": 4042,
      "ĠáĪħáĭ«áĭį": 4043,
      "áĬ³áī¸áĭį": 4044,
      "Ġáĭ¨áĪļáįĪáĪįáĮī": 4045,
      "ĠáīµáĪĭ": 4046,
      "áĬ¢áīµáĭ®áĮµáĭ«": 4047,
      "ĠáĬłáĬķáīĢáįħĠáĬķáĬ¡áĪµĠáĬłáĬķáīĢáįħ": 4048,
      "ĠáīłáĪĻ": 4049,
      "áĬĿáī³": 4050,
      "áĮĪáĬĵáĬĻ": 4051,
      "ĠáīµáĪŃáĬ¢": 4052,
      "áĮĩ": 4053,
      "áĮĪáĭ³": 4054,
      "ĠáĬ¥áĭ¨áĪ°áĪ«": 4055,
      "ĠáīłáĭļáĪħĠáĪĺáĬķáĮĪáĭµ": 4056,
      "ĠáĬłáĪµáī°áĭ³": 4057,
      "ĠáĬ¨áĮĬáĭľĠáīłáĬĭáĪĭ": 4058,
      "áīµĠáĬĲáĭįĠ": 4059,
      "Ġáī°áĪ°áĮ¥": 4060,
      "ĠáĪħáĬķáįĥ": 4061,
      "Ġáĭ«áĭ°áĪŃáĮĭáĪį": 4062,
      "áįĲáĪŃ": 4063,
      "Ġáīłáĭļáĭ«áĬķĠáĮĬáĭľ": 4064,
      "ĠáĬłáĬķáįĥáĪŃ": 4065,
      "áĮłáīłáīģ": 4066,
      "áĬĲáīłáĪ©áīµ": 4067,
      "Ġáĭ¨áĪĪáĭįáĪĿĠ": 4068,
      "áĬķĠáĬ¥áĬķáĭ²": 4069,
      "áĪĮáīµ": 4070,
      "Ġáĭ¨áĪĺáĬªáĬĵ": 4071,
      "ĠáĬ¥áĭ¨áĮ¨": 4072,
      "áĭĪáĪ°áĭ±": 4073,
      "ĠáįĢáĪĢáĭŃ": 4074,
      "ĠáĪĺáĪĨáĬĵáī¸áĭįáĬķ": 4075,
      "áĮįáĭĽ": 4076,
      "áĪ½áĬĳ": 4077,
      "áĮĢáĪĿ": 4078,
      "ĠáĬ¨áī°áĪĽáĭĭ": 4079,
      "Ġáĭ¨áĭįáĪĢ": 4080,
      "áĭįĠáĮĮáī³": 4081,
      "ĠáĬłáĬ¥áĪĿáĪ®": 4082,
      "áĪĺáĬŃ": 4083,
      "ĠáĪĺáĪµáĪ«": 4084,
      "áīłáīµĠáīĢáĬķ": 4085,
      "ĠáĬ¥áĬķáįĪáĪįáĮĭ": 4086,
      "Ġáĭ«áĭ°áĪ¨": 4087,
      "ĠáĪĽáĪ¨áĮĭáĮĪáĮ«": 4088,
      "ĠáĬŃáĪħ": 4089,
      "áĪĬáĬķ": 4090,
      "ĠáĪŀáĭ´": 4091,
      "ĠáĪĿáĪŃáĪĿáĪŃ": 4092,
      "Ġáĭ¨áīłáĪĭáĭŃ": 4093,
      "ĠáĮłáīħĠáĭ«áĭµáĪŃáĮī": 4094,
      "áĬ¨áī³áī°áĪį": 4095,
      "áĮ£áī¸áĭį": 4096,
      "ĠáįĢáĪİ": 4097,
      "ĠáĬ¥áĪĪ": 4098,
      "áĪ³áīģ": 4099,
      "Ġáī¥áĪĪáĪħ": 4100,
      "ĠáĬ¥áĬķáĭ°áĪļáĪĨáĬķ": 4101,
      "Ġáī¢áĬĸáĪŃ": 4102,
      "ĠáīĨáĪŃ": 4103,
      "Ġáī¤áī°áĪ°áī¦áī½": 4104,
      "áĬĲáĪµáī¶": 4105,
      "áĭįáĭ«áĬĳ": 4106,
      "ĠáīłáĪĺáĬķáįĪáĪµ": 4107,
      "áīµáĪį": 4108,
      "ĠáĬ¥áĮį": 4109,
      "áīĢáĪĭáĪī": 4110,
      "ĠáĪĢáĮĪáĪŃ": 4111,
      "Ġáī¤áīµĠáīł": 4112,
      "ĠáĪĢáĭŃáĪĪáĬĽ": 4113,
      "áįĨáī³": 4114,
      "ĠáīłáĬŃ": 4115,
      "ĠáĬłáįĪáįĥáįĢ": 4116,
      "ĠáĮīáī¥áĬĿ": 4117,
      "áĪĮáĬŃáīµáĪªáĬŃ": 4118,
      "ĠáĬ¥áĬĵĠáĭ¨áī°": 4119,
      "áĭİáī½ĠáĭŃ": 4120,
      "áĭĿáĮĪáī£": 4121,
      "ĠáīµáĭįáĪįáĭµ": 4122,
      "ĠáĬ¢áīµáĭ®áĮµáĭ«": 4123,
      "áĭĭáĪĪáĪģĠ": 4124,
      "ĠáĬķáīģ": 4125,
      "ĠáĬ¥áĬķáĭ²áĪģáĪĿĠáĬ¨": 4126,
      "áĪĢáĭŃáĪĽáĬĸ": 4127,
      "áĪĭáĪ³": 4128,
      "áī»áĪī": 4129,
      "ĠáįĢáĮĭ": 4130,
      "áī§áĪįĠ": 4131,
      "ĠáĮłáī£áīĤ": 4132,
      "áĬķĠáĭ¨áĪĺ": 4133,
      "áī¥áĪµ": 4134,
      "áĪĨáĬķáĬŃ": 4135,
      "áīĢáĪĺáĮ«": 4136,
      "ĠáĬłáĮĭáĮ£áĪļ": 4137,
      "áĪ³áĪ°": 4138,
      "ĠáĬ¥áĬķáĪĺáĪįáĬ¨áīµĠ": 4139,
      "ĠáĬłáĪĺáĪ«áĪŃ": 4140,
      "ĠáīłáĪļáīĢáĮ¥áĪĪáĭį": 4141,
      "ĠáĪŃáĭĿ": 4142,
      "Ġáĭ¨áĮī": 4143,
      "áĭŃáī±": 4144,
      "Ġáĭ¨áĪļáįĪ": 4145,
      "áĮĪáĪįáĮĪ": 4146,
      "ĠáĭµáĬķáĮĭáĭŃ": 4147,
      "ĠáĭŃáĪģáĭ³": 4148,
      "Ġáĭ«áĭ°áĪ¨áĮĪáĭį": 4149,
      "Ġáī¤áīµĠáĭ¨": 4150,
      "ĠáĬłáĪĭáĭįáīħ": 4151,
      "áįħáĭµáīħ": 4152,
      "áĪĻáīµ": 4153,
      "ĠáĭĺáĪĺáī»": 4154,
      "áĬĵĠáīłáĬł": 4155,
      "áĭ°áĬŀáī½": 4156,
      "áī»áĪĪáĪģĠ": 4157,
      "ĠáĭµáĬķáĮĭáĮĮ": 4158,
      "Ġáĭ³áĮįáĪĺáĬĽ": 4159,
      "áĪĿĠáĮĭáĪŃ": 4160,
      "Ġáĭ¨áĪħáĬŃáĪĿáĬĵ": 4161,
      "ĠáĬ¨áĬ¥áĬķáĮįáĭ²áĪħ": 4162,
      "Ġáīłáĭ©": 4163,
      "áĭĪáĪį": 4164,
      "áĪĮáĪĭáī¸áĭį": 4165,
      "ĠáĬķĠáĬłáĬķáī¥áī¥Ġ": 4166,
      "áī°áĬŀáī½áĬķ": 4167,
      "áīĢáĭ¨áĪŃ": 4168,
      "ĠáĬ¥áĬķáĭ²áĪħĠáī¥áĪıáĪį": 4169,
      "Ġáĭ©áĬĴáī¨áĪŃáĪ²áī²": 4170,
      "áĭ°áĪµáī³": 4171,
      "ĠáĪĽáĭį": 4172,
      "ĠáĪĽáĭŃ": 4173,
      "ĠáĪĭáĭŃĠáīłáĪĺ": 4174,
      "ĠáĭĪáĭ°ĠáĬ¥áĪ±": 4175,
      "ĠáĪģáĪīáĪĿĠáĬĲáĮĪáĪŃ": 4176,
      "ĠáĬ«áĪįáī°": 4177,
      "ĠáĪĺáĬĸáĪªáĭ«": 4178,
      "ĠáĭŃáĬĸ": 4179,
      "áīĢáĬķ": 4180,
      "ĠáĪĽáĮ£": 4181,
      "áĭ³áĭŃ": 4182,
      "ĠáĬŃáĪµ": 4183,
      "ĠáĪĪáĬłáĬķáī°": 4184,
      "ĠáĭŃáĪĺáĪµáĪĪáĬĽ": 4185,
      "áĮĪáĪĪáįĢáĭį": 4186,
      "áĪĪáĭĭáĪį": 4187,
      "Ġáĭ«áĭĺ": 4188,
      "ĠáīłáĭļáĪħáĪĿ": 4189,
      "áĮĪáĬĲáī£": 4190,
      "ĠáĪĽáĪµáī°áĭĭáĪį": 4191,
      "Ġáĭ¨áĪ³": 4192,
      "áĪĪáĭĪáĮ¥": 4193,
      "áĭ«áĬ¥áīĨáī¥": 4194,
      "áĪ¨áī³": 4195,
      "ĠáĬłáī¥áĪ®": 4196,
      "Ġáĭ¨áĪħáĮį": 4197,
      "Ġáĭ³áĭŃáĪ¬": 4198,
      "ĠáĭĪáĪ³áĬĿ": 4199,
      "áĪĿáī£": 4200,
      "áĭİáī½Ġ": 4201,
      "áĭ³áī¥": 4202,
      "ĠáĪĭáĪĪ": 4203,
      "Ġáĭ¨áī°áĪ°": 4204,
      "ĠáĪĢáĬª": 4205,
      "ĠáĪĬáĪ¨áĭ³": 4206,
      "ĠáĮįáĬķáī£": 4207,
      "áĮłáīĢáĪĽ": 4208,
      "ĠáĪĽáĬ¥áĬ¨": 4209,
      "áīµáĬŃáĬŃáĪį": 4210,
      "áĭĪáĭĿ": 4211,
      "ĠáĪĺáĭį": 4212,
      "ĠáĪħáĮİáī½": 4213,
      "áĮĢáīµ": 4214,
      "ĠáĬłáĬķáĭ³áĬķáĭ¶áī½": 4215,
      "áĪ¨áĬĽ": 4216,
      "áīĢáĭĿ": 4217,
      "áĮ£áĪįĠ": 4218,
      "Ġáĭ¨áĪļáĪĨáĬķ": 4219,
      "áĪµáī°áĭ«": 4220,
      "ĠáĪµáĭµáĪµáīµ": 4221,
      "ĠáīłáĭįáĪµ": 4222,
      "ĠáĬĲáīł": 4223,
      "ĠáĪµáĪ«áĭįáĬķ": 4224,
      "ĠáĪ½áĪįáĪĽ": 4225,
      "áĭ°áĪ°áīµ": 4226,
      "áĭįáĭį": 4227,
      "áĪĿĠáī¢áĪĨáĬķ": 4228,
      "áīµĠáĬłáĪĪáī¥": 4229,
      "ĠáĬ¢áĬķáĭ±áĪµáīµáĪª": 4230,
      "áįįáĮ¥áĪ¨áīµ": 4231,
      "ĠáĭŃáĪĦáĭ³": 4232,
      "áįĭáĭĬ": 4233,
      "áįĬáĬŃ": 4234,
      "áĮ¨áĪĿáĪŃ": 4235,
      "ĠáĬłáĪĪáĪĿĠáĬłáīĢáįį": 4236,
      "ĠáĭįáĭµáĭµáĪŃ": 4237,
      "ĠáĮ¨áĭĭáī³áĭİáī½": 4238,
      "ĠáīłáĬ¥áĭįáĬĲáī±": 4239,
      "Ġáī°áĭĪáĭ³áĮħ": 4240,
      "áĪĿĠáĬłáĭŃ": 4241,
      "áĮłáįī": 4242,
      "ĠáĪ°áĬķ": 4243,
      "áĬĸáī¹": 4244,
      "ĠáĪĢáĭ«": 4245,
      "áĪµáī¥áĪ°áī£": 4246,
      "ĠáĬ¥áĬķáĭ´áīµĠáĪĺ": 4247,
      "áī£áī¸áĭĭáĪįĠ": 4248,
      "Ġáĭ«áĪĺáĮ£": 4249,
      "ĠáĪįáĪĽáīµ": 4250,
      "áī¡áĪŃ": 4251,
      "ĠáĭµáĪħáĪ¨": 4252,
      "ĠáĪ«áĪ³áī¸áĭįáĬķ": 4253,
      "ĠáīĨáĪ®": 4254,
      "áĭ°áĪ¨áĮīáīµ": 4255,
      "áĪĺáĪĪáĬ¨áī°áĭį": 4256,
      "áī¸áĭĭáĪĪáĪģ": 4257,
      "ĠáĪ¨áĮħáĪĿ": 4258,
      "áĬĵáī½áĬķ": 4259,
      "ĠáĬ¨áĪļáĭ«": 4260,
      "Ġáĭ°áī¡áī¥": 4261,
      "áĪµáī³áĭĪáĪµ": 4262,
      "ĠáĪĿáĬŃáĬķáĭ«áī³áĭĬ": 4263,
      "áĬĵáįį": 4264,
      "áĬĲáĬł": 4265,
      "áĪ«áĭį": 4266,
      "Ġáĭ¨áī°áĪŀáĪĭ": 4267,
      "áĭĺáĭĻ": 4268,
      "áĬ®áĬķ": 4269,
      "áĪ¸áĬ¨": 4270,
      "áĪıáĪį": 4271,
      "ĠáĬłáĭ°áĪŃáĮĭáĪĪáĪģ": 4272,
      "ĠáĬ¥áĬ©áĪį": 4273,
      "ĠáĬ¨áĪŀ": 4274,
      "áī³áĬĿ": 4275,
      "áĭµáĪµ": 4276,
      "áĬ«áĪĦáĭ°": 4277,
      "ĠáĬłáĭĭáīĤ": 4278,
      "ĠáĬ¥áĪ«áĪµ": 4279,
      "ĠáĬ¨áįĬ": 4280,
      "áĪĽáĪĽáĬĿ": 4281,
      "ĠáĪ°áĭİáī¹": 4282,
      "ĠáĪĿáĬ¥áĪ«áįį": 4283,
      "áīħáĪĿ": 4284,
      "áĬķáīĥáīĦ": 4285,
      "áī½áĭįáĬķ": 4286,
      "áĪ¨áįĬáĭ«": 4287,
      "ĠáīłáĪĺáĮłáīĢáĪĿ": 4288,
      "áĬķĠáīłáĪĭáĭŃ": 4289,
      "Ġáĭ¨áĬ¢áīµáĭ®áĮµáĭ«": 4290,
      "Ġáī£áĪįáĬķáĮĢ": 4291,
      "áĭĪáĪĪáĭ°": 4292,
      "áĭįáĪŀ": 4293,
      "ĠáīłáĮŃ": 4294,
      "áĪģáĬķĠ": 4295,
      "ĠáĬ¥áĬĵĠáĪĺ": 4296,
      "áīµáĬķáĬĵ": 4297,
      "Ġáĭ«áĪĪáĬķ": 4298,
      "ĠáĪģáĪĪáī±áĪĿ": 4299,
      "áĭ³áĪŃĠáĮĵáĭ°áĬĽ": 4300,
      "ĠáĮĬ": 4301,
      "áīłáĪī": 4302,
      "áī£áī±": 4303,
      "ĠáĪĭáĬ¨": 4304,
      "áĭĪáĪ°áĭ°": 4305,
      "ĠáĬ¥áĪ³": 4306,
      "áįĢáĪį": 4307,
      "ĠáīĥáĪĭáīµ": 4308,
      "áīĢáĪ¨áīłáĭį": 4309,
      "áįĵáĪŃ": 4310,
      "Ġáī°áĪĺáĪįáĬ«": 4311,
      "áįĪáīĥáĭµ": 4312,
      "áĪ½áĬ¨áĪŃáĬ«áĪª": 4313,
      "ĠáĪıáĪĭáĭĬáĭįĠáĮĮáī³": 4314,
      "áĮĪáī¢": 4315,
      "ĠáĭĪáĬķáĭĿ": 4316,
      "ĠáĪĭáĭŃĠáĬ¥áĬķáĭ²": 4317,
      "Ġáī³áĪµ": 4318,
      "ĠáĬ¢áĪ³áĭŃáĭ«áĪµ": 4319,
      "áĪ°áĪĽáĭį": 4320,
      "áįĥáĪħáįį": 4321,
      "áĪĿáĬķáĪĿ": 4322,
      "Ġáĭ¨áī¤áī°": 4323,
      "ĠáĮĪáĬķáĭĺ": 4324,
      "ĠáĮĪáįĨáī½": 4325,
      "ĠáĬ®áĪŃ": 4326,
      "Ġáī°áĬ¨áī³áī³áĭŃ": 4327,
      "ĠáĪĽáĪ»áĪ»áĭ«": 4328,
      "áīłáĭĽ": 4329,
      "ĠáĬĲáĮĭ": 4330,
      "áĪªáĪµ": 4331,
      "ĠáĪĽáĭ¨": 4332,
      "áįİáĪŃ": 4333,
      "áĬķĠáĪ²": 4334,
      "áĬĲáīĥ": 4335,
      "ĠáĬ¨áī¥": 4336,
      "áĮĭáĮ£áĪļ": 4337,
      "ĠáĬłáĪĺáī±": 4338,
      "ĠáĬłáĪĺáīµĠáĭ¨": 4339,
      "áīĢáĪŃáī£áĪį": 4340,
      "áĪģáĪĪáī°áĬĽ": 4341,
      "ĠáīłáĪĮáĪĭĠáīłáĬ©áĪį": 4342,
      "áīµáĪĿáĪħáĪŃáīµ": 4343,
      "ĠáĬ¥áĪĿ": 4344,
      "ĠáĪĺáĮłáīĢáĪĿ": 4345,
      "ĠáĬ¨áī³": 4346,
      "ĠáĪĭáĪī": 4347,
      "áĬĿáĪĿ": 4348,
      "áīłáĪ©áīµ": 4349,
      "ĠáĬ¥áĪŃáĪµĠáīłáĪŃáĪµ": 4350,
      "áĪįáĬ¥": 4351,
      "ĠáīłáĪĭ": 4352,
      "ĠáĭĪáĭŃáĪĿĠáĪĪ": 4353,
      "Ġáī¥áĪİáĮį": 4354,
      "Ġáĭ¨áĭĪáĭ°": 4355,
      "áĬķĠáĬ¨áĪĺ": 4356,
      "áīĥáī¥áĪŃ": 4357,
      "Ġáĭ°áĪĿ": 4358,
      "áĬ³áĪŃ": 4359,
      "ĠáīħáĪŃáĬķáĮ«": 4360,
      "ĠáĭŃáĪĨáĬĵáĪī": 4361,
      "ĠáĬĶ": 4362,
      "áĪµáĭĭáĬ¥": 4363,
      "ĠáĬ¨ĠáīłáĪĭáĭŃ": 4364,
      "áĮ¥áįĭ": 4365,
      "ĠáĬ¥áĬķáĭ²áĪħĠáĬłáĭŃáĬĲáīµ": 4366,
      "ĠáĪļáĪµáĮ¥": 4367,
      "Ġáī£áĪĪáĪµáĪįáĮ£áĬĵáīµ": 4368,
      "áĪŃáĪĿáĭ«áĪµ": 4369,
      "áīµĠáĪĪáĪĺ": 4370,
      "áĮ¥áĪį": 4371,
      "Ġáĭ¨áĪļáĪ°áĪ«": 4372,
      "Ġáĭ°áĪħáĬķ": 4373,
      "áĪĦáĭ°áĭį": 4374,
      "ĠáĬ¥áĬķáĭ³áīµ": 4375,
      "áĭ°áĬķáīł": 4376,
      "ĠáĪħáĪĺáĪĿ": 4377,
      "ĠáĬ¥áĭĪáĭ³áĪĪáĪģ": 4378,
      "áĪĽáĪµ": 4379,
      "áĬŃáĪ®": 4380,
      "Ġáĭ¨áĪļáĮł": 4381,
      "ĠáĬłáĪµáī£": 4382,
      "Ġáĭ¨áĪµáĬĲ": 4383,
      "áĭĪáĪŃáīħ": 4384,
      "áĭĪáĪ°áĬĲĠáĮĬáĭľ": 4385,
      "ĠáĪ°áĭŃáĮ£": 4386,
      "ĠáĮ¥áĪŃáĮ¥áĪŃ": 4387,
      "ĠáĪīáīĥáĪµ": 4388,
      "ĠáĪĭáĪĪáĭį": 4389,
      "áĭĬáĭ«áĭį": 4390,
      "ĠáīłáĬ¥áĬĲáĪ±": 4391,
      "ĠáĪĿáĬŃáĪŃĠáī¤áīµ": 4392,
      "ĠáįĪáĪ¨": 4393,
      "áĮĪáĪĪáįģ": 4394,
      "áĭİĠáĪĭáĭŃ": 4395,
      "áįįáĪŃáĭµ": 4396,
      "áįĭáĭŃ": 4397,
      "ĠáĪĨáĬĹ": 4398,
      "ĠáīłáĬ¥áĮħ": 4399,
      "ĠáīłáĬ¥áĭ«áĬķáĭ³áĬķáĭ±": 4400,
      "áĪ¨áĬķáĪ³áĭŃ": 4401,
      "áī³áĪŃ": 4402,
      "ĠáĪĪáĪĢ": 4403,
      "Ġáī°áĭ°áĪŃ": 4404,
      "áĭĪáĭ°áĭį": 4405,
      "ĠáĬŃáĬķ": 4406,
      "ĠáĬ¤áĮĢáĬķáĪ²": 4407,
      "ĠáĬ¨áĭļáĭ«ĠáīłáĪĭáĭŃ": 4408,
      "áĪĪáĭ«áĭ¨": 4409,
      "ĠáĮĪáįħáī³": 4410,
      "áįķáĪ®áĮĢ": 4411,
      "ĠáĬ¥áįĪáĪįáĮĭáĪĪáĪģ": 4412,
      "Ġáĭ¨áĪ½": 4413,
      "ĠáĪĿáĬķĠáĬł": 4414,
      "áī´áĭİáĪµ": 4415,
      "ĠáĬłáĪµáī¸áĮĭáĪª": 4416,
      "ĠáĪĿáĬķĠáĬ¥áĬķáĭ°áĪļ": 4417,
      "áĪĤáĪ³áī¥": 4418,
      "Ġáĭ«áĪ³áĭ«áĪįĠ": 4419,
      "áĪħáĬķáĪĿ": 4420,
      "áīĢáĪŃáīłáĭį": 4421,
      "ĠáĪĺáĭĿáĪĻ": 4422,
      "ĠáĭµáĬķáĬ³áĬĳ": 4423,
      "ĠáīłáĪŀ": 4424,
      "áīłáĪŃáĬ«áī³": 4425,
      "ĠáĪ³áĭ«": 4426,
      "áįĪáĪįáĮĭáī¸áĭį": 4427,
      "ĠĠĠĠĠĠĠĠ": 4428,
      "áī¨áĪµáīµ": 4429,
      "ĠáĬ¥áĪ«": 4430,
      "áĪ½áĬĲáīµ": 4431,
      "Ġáī¥áĪĦáĪ«áīµ": 4432,
      "áĬĵáįĬ": 4433,
      "ĠáĭįáĪµ": 4434,
      "áīģáĮ¥": 4435,
      "ĠáįįáįĥáĪľ": 4436,
      "áĮ«áĭĪáīµ": 4437,
      "ĠáĬ¥áĬĵĠáĭĪáĭ°": 4438,
      "áĭİáī½áĬķĠáĪĺ": 4439,
      "ĠáĬĲáĭįáĬĵ": 4440,
      "áĪĻĠ": 4441,
      "Ġáī¤áī°áĪ°": 4442,
      "Ġáīłáĭĺ": 4443,
      "áĪ¨áĪĿ": 4444,
      "ĠáĮ¥áįĭáīµ": 4445,
      "áīµĠáīłáĭļáĪħ": 4446,
      "ĠáĭĪáĪµáĭ¶": 4447,
      "áĬĲáī¥": 4448,
      "áįĥáįĪáĭį": 4449,
      "áĬ¢áĭ¨áĪ±áĪµ": 4450,
      "ĠáĬłáĭįáĮ¥": 4451,
      "ĠáĪģáĪīáĬķáĪĿĠáĬĲáĮĪáĪŃ": 4452,
      "áįıáĪįĠ": 4453,
      "ĠáĬ³áĪµ": 4454,
      "áīĢáĪĭáīĢ": 4455,
      "ĠáĪĦáĭ°Ġ": 4456,
      "Ġáĭ¨áĪħáĭŃáĭĪáīµ": 4457,
      "áįįáĪ¨áīµ": 4458,
      "ĠáīħáĮĤ": 4459,
      "ĠáĪĿáĪįáĬŃáīµ": 4460,
      "ĠáīĥáĪįĠáĬªáĭ³": 4461,
      "ĠáĪĪáĪģáĪīáĪĿ": 4462,
      "áĮłáĬŀáī½": 4463,
      "áĪ±áīµ": 4464,
      "ĠáĭĪáĭ°ĠáĬ¥áĬĶ": 4465,
      "áĪĺáĮ£áĭį": 4466,
      "ĠáĬłáī¥áĭĽáĬŀáī¹": 4467,
      "ĠáĪĺáĮĢáĪĺáĪªáĭ«ĠáĪĭáĭŃ": 4468,
      "ĠáĭŃáīħáĪŃáī³": 4469,
      "áĪĪáĪµ": 4470,
      "áĪĭáĪĿ": 4471,
      "áĪ¨áĮł": 4472,
      "ĠáĪĽáīħáĪ¨áī¥": 4473,
      "áĮīáīµ": 4474,
      "Ġáī£áĪĪáĪĺ": 4475,
      "ĠáĬłáĪģáĬķĠáīł": 4476,
      "áĭ°áīłáĬĽ": 4477,
      "ĠáĬ¥áĬĵĠáĭ¨áĬł": 4478,
      "áĭĪáĪ©": 4479,
      "ĠáĬ«áĪīáīµ": 4480,
      "ĠáĬłáĪĪáī£áī¸áĭį": 4481,
      "áĭĪáĪ°áĬķ": 4482,
      "áĮłáīĥáĪļáĭİáī½": 4483,
      "áĪįáīł": 4484,
      "áĪįáĪĽáīµ": 4485,
      "ĠáĪĺáĪªáĭİáī½": 4486,
      "ĠáĪĪáĪĺáĪµáĪ«áīµ": 4487,
      "ĠáĪĮáĭĭ": 4488,
      "ĠáĪĽáĬ¥áĬ¨áĪį": 4489,
      "Ġáī°áī¥": 4490,
      "ĠáīĢáĮ¥áĪİ": 4491,
      "ĠáĭĺáĪĭáīĤ": 4492,
      "áĪĿĠáĪĨ": 4493,
      "ĠáĬ¥áĮįáĪŃ": 4494,
      "ĠáĭĺáĮį": 4495,
      "ĠáĬłáĬķáĭµáĬĲáīµ": 4496,
      "ĠáĮĢáĪŃáī£": 4497,
      "ĠáĮ¨áĪŃ": 4498,
      "áĭ°áĪ©": 4499,
      "ĠáĮĬáĭľĠáĭįáĪµáĮ¥": 4500,
      "áĭ°áĪ¨áĮĥ": 4501,
      "áĬķĠáĪĪáĪĽáĪµ": 4502,
      "Ġáĭ°áĬķáīłáĬŀáī½": 4503,
      "ĠáĪµáĪŃáĬłáī¶áī½": 4504,
      "ĠáĬ¥áĪŃáĪµĠáīłáĪŃ": 4505,
      "ĠáĬ¥áĮ£": 4506,
      "Ġáī°áĭ°": 4507,
      "áī±áĬķĠáĬł": 4508,
      "ĠáĮīáĭµáĮĵ": 4509,
      "áīĢáĮ¥áĪį": 4510,
      "ĠáĪĻáĪ´áĬķ": 4511,
      "ĠáĬ¥áĭµáĮĪáīµ": 4512,
      "ĠáĬĲáįįáĪµ": 4513,
      "áĬķĠáĬ¥áĬķ": 4514,
      "Ġáī°áĮłáīĥáĪļ": 4515,
      "áĪĺáĪĪáĬ¨áī³": 4516,
      "ĠáĪĺáĮłáīłáīħ": 4517,
      "ĠáĪĿáĪµáĮĭáĬĵ": 4518,
      "ĠáīłáĬ¥áĮįáĭļáĬłáī¥áĪĦáĪŃ": 4519,
      "ĠáĪįáĮĨáī»áī½áĪģ": 4520,
      "ĠáīĭáĪļ": 4521,
      "áĬĲáĭ°": 4522,
      "áī¥áī»": 4523,
      "ĠáĬ¨áĪĮ": 4524,
      "áī³áĭĪáīħ": 4525,
      "áĪĿĠáīłáĮ£áĪĿ": 4526,
      "ĠáĪĪáĬ¥áĭ«áĬķáĭ³áĬķáĭ±": 4527,
      "áī³áĭĪáīĢ": 4528,
      "ĠáĪĺáīħáĭ°áĪ±": 4529,
      "ĠáĭŃáĪ°áĮ£áĪįĠ": 4530,
      "Ġáī¥áĪĪáĭĭáĪį": 4531,
      "áĪŃáĬ«áī³": 4532,
      "áĪŀáī¹": 4533,
      "ĠáīĢáĬķĠáĭ¨": 4534,
      "áĪĮáĮħ": 4535,
      "áĮĵáĭ´": 4536,
      "áĪĺáĪŃáĪĺáĪŃ": 4537,
      "ĠáĬ¥áĬķáĭ´áīµĠáĬ¥áĬķáĭ°áĪĨáĬĲ": 4538,
      "ĠáĪĺáĮłáĭ¨": 4539,
      "ĠĠáīł": 4540,
      "ĠáĭŃáįĪ": 4541,
      "áī£áĭµ": 4542,
      "Ġáī£áĪħáĪį": 4543,
      "ĠáĭŃáĪħĠáĪ°áĭį": 4544,
      "ĠáĪ²áī£áĪį": 4545,
      "ĠáįĪáĮ£": 4546,
      "áĭ°áĬķáīħ": 4547,
      "ĠáĪĤáĭ°áīµ": 4548,
      "ĠáĪĺáĮįáī¢áĭ«": 4549,
      "ĠáīłáĪ°áĪĽáĭŃ": 4550,
      "áĭĽáī¥": 4551,
      "Ġáĭ«áĪĪáīłáīµ": 4552,
      "ĠáĭĺáĭŃáī¤": 4553,
      "áĬķĠáĪµ": 4554,
      "áĪĻáĪµ": 4555,
      "ĠáĮłáīħáĪĭáĭŃ": 4556,
      "ĠáīłáĬĲ": 4557,
      "áĪĪáĪŃ": 4558,
      "áĮ£áĪī": 4559,
      "ĠáĭŃáĪħáĬķĠáĬł": 4560,
      "áĮĪáĪŃĠáĭįáĪµáĮ¥": 4561,
      "ĠáĪ°áĮ¥áī¶": 4562,
      "ĠáĬłáĪĪáīłáīµĠ": 4563,
      "ĠáĪĺáĪįáĬłáĬŃ": 4564,
      "ĠáĪĭáĭŃĠáĪĽ": 4565,
      "ĠáĪĭáĭŃĠáĭ«áĪĪáĭįáĬķ": 4566,
      "ĠáĪĿáĪŃáĮ¡": 4567,
      "áĪ¨áĮĭáĮĪáĮł": 4568,
      "áĬķĠáīµ": 4569,
      "áĭİáī¼": 4570,
      "áīĥáĭŃ": 4571,
      "Ġáĭ«áĪĪáįĪ": 4572,
      "ĠáĬ¨áĬ¥áĪµáĪ«áĬ¤áĪį": 4573,
      "áĬĲáĭįáĬķ": 4574,
      "ĠáĬ¨Ġ": 4575,
      "áīĨáĮ¥": 4576,
      "áįĢáĭ«": 4577,
      "áĮĪáĬķáī£áīµ": 4578,
      "áĪ¨áĬķáĮĵáĭ´": 4579,
      "ĠáĭŃáĪ°áĮ£áĪį": 4580,
      "áĬķáīº": 4581,
      "áĭ³áī½áĪģ": 4582,
      "áĭĭáĮŃ": 4583,
      "ĠáĪĪáĪĺáĮłáīłáīħ": 4584,
      "ĠáĪĬáĬĸáĪŃ": 4585,
      "áīµĠáĭ¨áĪĿáĬķ": 4586,
      "ĠáĬ¢áĬ®áĬĸáĪļ": 4587,
      "ĠáīłáĬ¥áĪŃáĪ±": 4588,
      "áĮĪáĬĺáĭįĠáĭ¨": 4589,
      "ĠáĬłáĪµáī°áĪ³áĪ°áī¥": 4590,
      "ĠáĪªáįĸáĪŃáīµ": 4591,
      "ĠáĪĽáĪ«": 4592,
      "Ġáī¥áīģ": 4593,
      "ĠáĭĪáĭ°áĭļáĪħ": 4594,
      "ĠáīłáĬ¥áĬĵáĬķáī°": 4595,
      "áĬķáĮįáĪĬáĭĿ": 4596,
      "ĠáĬłáĭµáĪŃáĮĮ": 4597,
      "ĠáĪŃáĬ¥áĪ°": 4598,
      "áĬ¤áĪĿ": 4599,
      "ĠáĪĿáĪµáĪİáī½": 4600,
      "áĭĪáĪµáĭ±": 4601,
      "áĭ·áĪį": 4602,
      "ĠáįķáĪ®áĮįáĪ«áĪĿ": 4603,
      "áĬķáī¶": 4604,
      "Ġáĭ¨áīĢáĭµáĪŀ": 4605,
      "ĠáĬłáĪĬáĭ«": 4606,
      "áī£áĪħáĪŃ": 4607,
      "áĬ«áĪĽ": 4608,
      "Ġáĭ°áĪµĠáĭŃ": 4609,
      "áįĲáī¥": 4610,
      "ĠáīłáĪĿáĭµáĪŃĠáĪĭáĭŃ": 4611,
      "ĠáĭµáĪ¨ĠáĮĪáįħ": 4612,
      "áįĸáĪĬáĪµ": 4613,
      "áĪĿĠáĬĲáīłáĪŃĠ": 4614,
      "Ġáĭ¨áī¤áī°áĪ°áī¥": 4615,
      "áĭ«áĭŃ": 4616,
      "ĠáĪĺáĬĵáĮĪáĪŃ": 4617,
      "áĬŃáĪĭ": 4618,
      "ĠáĪŀáīµ": 4619,
      "ĠáĬ¥áįħ": 4620,
      "ĠáĪĽáĪ°áī¥": 4621,
      "Ġáĭ¨áī°áĪ¨": 4622,
      "Ġáĭ¨áī°áĮłáīłáīĢ": 4623,
      "ĠáĮłáĪ¨": 4624,
      "ĠáĬłáĭ°áĪŃáĮĭáĪĪáĪģĠ": 4625,
      "ĠáĬłáĪµáī°áĭĭáįħáĬ¦": 4626,
      "ĠáīłáĭŃáĪĨáĭĭ": 4627,
      "áĭİáīµĠ": 4628,
      "áįįáĪªáĬ«": 4629,
      "áīĨáĪŃ": 4630,
      "áĪ°áĪĽáī¸áĭį": 4631,
      "ĠáĪŃáīĢ": 4632,
      "áĪ«áī¸áĭįĠ": 4633,
      "áī£áĭŃáĪį": 4634,
      "Ġáī°áĮłáĭ«áīĤ": 4635,
      "áĮĪáĬĲáĭĺáī¥": 4636,
      "áĪĿáĪĪ": 4637,
      "Ġáĭ«áĬĲáĪ°": 4638,
      "áĮłáĬĲ": 4639,
      "Ġáī¥áĪĦáĪŃ": 4640,
      "áĮĪáĪįáįĥ": 4641,
      "ĠáĬ¨áĭļáĪħĠáīłáī³áī½": 4642,
      "ĠáĪĺáĪµáĭĭáĬ¥áīµ": 4643,
      "ĠáīłáįĢ": 4644,
      "áīĢáĪ©": 4645,
      "Ġáĭ¨áī°áĪ°áĪ©": 4646,
      "áīµáĬķĠáĪģáĪī": 4647,
      "Ġáįįáīµ": 4648,
      "áĪĺáĪµáĪ¨áīµ": 4649,
      "ĠáĭŃáĬĸáĪŃáī¥áĬĵáĪįĠ": 4650,
      "ĠáĪħáĮī": 4651,
      "ĠáĪĿáĪįáĬŃáī¶áī½": 4652,
      "ĠáĮ©": 4653,
      "áĬĶáīµ": 4654,
      "ĠáĪµáĪĪáĪļáĭ«": 4655,
      "ĠáĬłáĪĺáī³": 4656,
      "ĠáīłáĪĽáĭŃ": 4657,
      "ĠáĪĺáĪŃáĬ¨": 4658,
      "áįĢáĭ«áįĬ": 4659,
      "áĬķáī³áĭĬ": 4660,
      "ĠáīłáĪ°áĭį": 4661,
      "áĮĢáĪŃ": 4662,
      "Ġáĭ¨áĪĿáĪµ": 4663,
      "Ġáĭ¶áĬŃáī°áĪŃ": 4664,
      "ĠáįĵáĪŃáī²": 4665,
      "ĠáĪ¸áĪĪáīĨ": 4666,
      "ĠáĪ°áĭŃáįį": 4667,
      "áĬķĠáĬĲáĭį": 4668,
      "Ġáĭ¨áī¦": 4669,
      "ĠáĭŃáĭĺáĭį": 4670,
      "ĠáĪįáĮĨáī½áĬķ": 4671,
      "áĪ°áīłáĪ°áī¡": 4672,
      "ĠáĬłáĪĺáĪĪáĬ«áĬ¨áīµ": 4673,
      "áĬ«áįį": 4674,
      "ĠáīĢáĬĿ": 4675,
      "ĠáĪĺáī°áĮįáīłáĪªáĭ«": 4676,
      "ĠáĬłĠáĪĿ": 4677,
      "áīħáĭ«áĪµ": 4678,
      "áĭĬáīµĠáĮĮáī³": 4679,
      "Ġáĭ¨áĬĲáīłáĪ¨áĭįáĬķ": 4680,
      "ĠáīłáĪĮ": 4681,
      "áĭĿáīĥ": 4682,
      "ĠáĮįáĮŃ": 4683,
      "áĭ±áĪŃ": 4684,
      "áīµĠáĭ¨áĪĿáīµ": 4685,
      "áĪŃáĪµáĭİáĬķ": 4686,
      "áĪĿáįħ": 4687,
      "áĮĪáīµ": 4688,
      "áĪ¨áĮ¡": 4689,
      "ĠáĪ³áĮ¥": 4690,
      "áĪĺáĪįáĬ¨áī»": 4691,
      "ĠáĪ³áĪĻáĬ¤áĪį": 4692,
      "áĪħáĬŃáĪĿáĬĵ": 4693,
      "áĮĵáĭĻ": 4694,
      "ĠáĮĮáī³áĭ¬": 4695,
      "ĠáĬ¥áĭ¨áĮ¨áĪĺáĪ¨": 4696,
      "ĠáĬ¨áĮį": 4697,
      "ĠáĬ¥áĬķáĭ²áĭ«áĭ°áĪŃáĮī": 4698,
      "Ġáĭ¨áĭįáĮŃ": 4699,
      "áĪįáĬ¥áĬ®": 4700,
      "áĬĲáīłáī¥": 4701,
      "ĠáĪĪáĪĺáįįáĮłáĪŃ": 4702,
      "ĠáįįáĮ¥áĪ¨": 4703,
      "áĪ°áĪĽáĬĿ": 4704,
      "áĪĿĠáĬ¨áĭļáĪħ": 4705,
      "Ġáĭ¨áī°áī£áĪĪáĭį": 4706,
      "ĠáĬ¡": 4707,
      "áĬķáĮĭ": 4708,
      "áĬķĠáĮ¨áĪĿáĪ®": 4709,
      "Ġáĭ«áĭĪáĮ£": 4710,
      "Ġáī¥áĪĪáĬķ": 4711,
      "ĠáīµáĪĭáĪįáīħ": 4712,
      "ĠáĭŃáĪħĠáĬĲáĭį": 4713,
      "Ġáĭ¨áĪĿáĪŃáīµ": 4714,
      "Ġáĭ«áĪµáįĪáĪįáĮį": 4715,
      "áĪ·áĪįĠ": 4716,
      "Ġáĭ¨áĪĨáĬĳáīµáĬķ": 4717,
      "ĠáīłáĪĨáĬĲĠáĪĺáĬķáĮĪáĭµ": 4718,
      "áĭ°áĪ°áī±": 4719,
      "ĠáĮģ": 4720,
      "ĠáĪĺáĪĨ": 4721,
      "áĮįáĪµáīµ": 4722,
      "áĭİáī½Ġáĭ¨": 4723,
      "Ġáī¥áī³": 4724,
      "Ġáĭ¨áī°áĮłáīĢ": 4725,
      "ĠáĬłáĪĿáĪĭ": 4726,
      "áĬĲáī´": 4727,
      "áĮ¥áįĭáīµ": 4728,
      "áīµĠáĬłáĪĽ": 4729,
      "ĠáĬŃáĪ¬": 4730,
      "áĪ°áī¥áĬ©": 4731,
      "áĬ¨áī°áĪĽáĭĭ": 4732,
      "ĠáĬ¢áĭ®áī¥": 4733,
      "ĠáĬ¨áĪĺáĮĢáĪĺáĪªáĭ«": 4734,
      "ĠáīłáĮ£áĪĿĠáĭ¨áī°": 4735,
      "ĠáĪ«áĪ³áī½áĬķ": 4736,
      "áĬĲáĮĪáĪ¨": 4737,
      "áĭŃáĬķĠáĮłáĮħ": 4738,
      "Ġáĭ¨áĮĪáī£": 4739,
      "ĠáĬłáĮŃáĪŃ": 4740,
      "áīĢáĮł": 4741,
      "áĬłáĪĺáī±": 4742,
      "ĠáĮĪáĬķáĭ³": 4743,
      "ĠáĮĪáĭ°áī¥": 4744,
      "ĠáĪĪáĪļáĭ«": 4745,
      "áĮłáĬĿ": 4746,
      "ĠáĪįáĬĵ": 4747,
      "ĠáįĶ": 4748,
      "ĠáīĢáĪµ": 4749,
      "áĮĨáī»áī¸áĭį": 4750,
      "Ġáī¤áīµĠáĭįáĪµáĮ¥": 4751,
      "ĠáĬ¥áĭ«áĬķáĭ³áĬķáĭ³áī¸áĭį": 4752,
      "Ġáī¢áĪĨáĬĳ": 4753,
      "ĠáĮīáĭ³áĭ®áī½áĬķ": 4754,
      "ĠáĪĽáĪħáīłáĪ¨": 4755,
      "áī¥áĭĽáĬĽáĭį": 4756,
      "ĠáĬ¥áĪµáĪ«áĬ¤áĪĭáĭįáĭ«": 4757,
      "ĠáĬłáĪĺáĪ°áĮįáĬĵáĪĪáĪģ": 4758,
      "áĬķĠáĭ¨áĪĽ": 4759,
      "áīµĠáĬłáĪĪáīłáīµ": 4760,
      "ĠáĪĿáĬķĠáĬ¥áĬķáĭ°áĪĨáĬĲ": 4761,
      "áĭĪáĮ£áīµ": 4762,
      "ĠáĮĢáĪĺáĪŃĠ": 4763,
      "ĠáĬłáī¤áī±": 4764,
      "áī±ĠáĪĭáĭŃ": 4765,
      "ĠáĭĪáĭ°áĭļáĭ«": 4766,
      "áīĨáĪĻ": 4767,
      "ĠáĭĺáĭŃáīµ": 4768,
      "ĠáĬ¤áĪŃáĪĿáĭ«áĪµ": 4769,
      "ĠáĬ¥áĭįáīħáĬĵ": 4770,
      "áĪ®áĬķáī¶áĪµ": 4771,
      "ĠáĭĮ": 4772,
      "ĠáĬłáĭ¨": 4773,
      "áĬķĠáīłáĮ£áĪĿ": 4774,
      "áĬ®áĪŃ": 4775,
      "ĠáĭĺáĪĺáĬķĠáĭ¨": 4776,
      "ĠáĬłáī¶": 4777,
      "áįĪáĬķ": 4778,
      "Ġáī£áĪŃ": 4779,
      "áĬķáĪĿĠáĪĨáĬĲ": 4780,
      "áīłáĪ¨áĭ¶": 4781,
      "ĠáĪŃáĬ©áĪµ": 4782,
      "áīĢáĬĵ": 4783,
      "áĬ¬áīµ": 4784,
      "áĪŀáĬŃáĪ©": 4785,
      "ĠáĭŃáĬĵáĮĪáĪ«áĪįĠ": 4786,
      "áĪĿĠáīłáĪĺ": 4787,
      "Ġáĭ¨áĭŃáĪģáĭ³": 4788,
      "áī¶áī½Ġáīł": 4789,
      "Ġáĭ¨áĪļáĭ«áĪĿáĪŃ": 4790,
      "ĠáĮĨáĪ®": 4791,
      "ĠáĭįáĭŃáĭŃ": 4792,
      "áĪ«áĪ¨áī¥": 4793,
      "ĠáīłáĬłáĬķáī°": 4794,
      "ĠáĮ®": 4795,
      "ĠáĪĽáĪĢ": 4796,
      "ĠáĬłáĪµáīĢáĭµáĪŀ": 4797,
      "ĠáĬ¥áĬķáĭ³áĪĪáīłáīµ": 4798,
      "Ġáĭ¨áĪĨáĬĲĠáĬĲáĮĪáĪŃ": 4799,
      "ĠáĪĨáĬĲĠ": 4800,
      "ĠáĬłáįįáĪªáĬ«": 4801,
      "Ġáĭ¨áĮİáĭ°": 4802,
      "áĬķáĮ¨": 4803,
      "Ġáĭ¨áĪ¶": 4804,
      "áĮłáĪªáĭ«": 4805,
      "ĠáĬ¥áĬĵĠáĪĪáĪĺ": 4806,
      "Ġáĭ°áĪĺ": 4807,
      "ĠáĭĪáĭ°ĠáĬ¢": 4808,
      "Ġáī½áĪĭ": 4809,
      "ĠáĬĴáĭį": 4810,
      "áĭįáĭµ": 4811,
      "áĪĿĠáĬĲáīłáĪŃ": 4812,
      "ĠáĪĿáĬĵ": 4813,
      "Ġáī¥áīħ": 4814,
      "áĭĪáĪ°áĭµ": 4815,
      "áĬķĠáĬĲáĮĪáĪŃ": 4816,
      "ĠáĬĲáĭįĠáĪµáĪĪáĭļáĪħ": 4817,
      "ĠáĬłáĭŃáī½áĪī": 4818,
      "ĠáĪĺáĪµáĪªáĭ«": 4819,
      "áĭĺáĮĭáĮĥ": 4820,
      "áī¤áī°áĪ°": 4821,
      "ĠáĪ´áīµĠáĪįáĮħ": 4822,
      "ĠáĬłáĭµáĪ«áĪ»": 4823,
      "ĠáĪĺáįį": 4824,
      "áĪĽáī½áĪģ": 4825,
      "ĠáĮĬáĭľáĭį": 4826,
      "ĠáĮĭáĪŃĠáĪ²": 4827,
      "ĠáĬ«áĪŃáĭµ": 4828,
      "ĠáĭĪáĮ¥áī¶": 4829,
      "áįıáĪį": 4830,
      "áĪĭáī½áĬĭáĪĪáĪģ": 4831,
      "ĠáĬłáĬĵ": 4832,
      "áĪħáįĪáīµ": 4833,
      "áĬŃáīłáĪŃ": 4834,
      "áĭ³áĪ¨": 4835,
      "ĠáĬĲáĭįĠáĬĲáĮĪáĪŃĠáĮįáĬķ": 4836,
      "ĠáīłáĪļáĮĪáī£": 4837,
      "áĭĺáĮĭáĮĢáīµ": 4838,
      "ĠáĪµáĪħáī°áīµ": 4839,
      "ĠáĭŃáĪĨáĬķĠ": 4840,
      "Ġáīłáĭ°áĬķáī¥": 4841,
      "áī¥áĪ¨áī°": 4842,
      "áĮ®áī½áĬķ": 4843,
      "áīĢáĭ±": 4844,
      "áĪ³áĪ½": 4845,
      "Ġáĭ¨áī°áĪĺ": 4846,
      "ĠáĭĪáĭ°Ġáī¤áīµ": 4847,
      "áĭ²áīµ": 4848,
      "áĪĺáĪĪáĪ°": 4849,
      "ĠáĭĺáĪĺáĬĵáĭĬ": 4850,
      "áĪĪáĭĭáĭĭáĮŃ": 4851,
      "ĠáīµáĬĵáĬķáĪ½": 4852,
      "Ġáīį": 4853,
      "ĠáīłáĪ«áĪ±": 4854,
      "áĮĭáīµ": 4855,
      "áĪĢáĪĪáĪģĠ": 4856,
      "ĠáĬ«áĪĭ": 4857,
      "ĠáįķáĪĭ": 4858,
      "ĠáĬªáĪİ": 4859,
      "Ġáĭ¨áīµáĪĿáĪħáĪŃáīµ": 4860,
      "áĬķáĮİ": 4861,
      "áī£áīłáĪŃ": 4862,
      "ĠáĬłáī£áīµ": 4863,
      "ĠáĬłáī£áī´": 4864,
      "ĠáĬłáĭŃáĭ°áĪĪáĪģ": 4865,
      "áĬ¨áĬĵáĭĪáĬķ": 4866,
      "Ġáįİáī¶áĮįáĪ«": 4867,
      "ĠáīħáĭµáĪĺ": 4868,
      "áīµáĬŃáĪįáīµ": 4869,
      "ĠáĬłáĮłáīĥ": 4870,
      "áĭŃáĭĽ": 4871,
      "áĮĪáįĭ": 4872,
      "áĬŃáįĪ": 4873,
      "ĠáįĨ": 4874,
      "Ġáĭ¨áĬłáĭŃ": 4875,
      "ĠáįĪáĮ£áĬķ": 4876,
      "áĪ³áĭŃáĬķáĪµ": 4877,
      "áĬķĠáĭįáĪµáĮ¥": 4878,
      "Ġáĭ¨áįĬ": 4879,
      "ĠáĬ¨áĬ¤": 4880,
      "ĠáĪĪáĭŃáĪĨáĭĭ": 4881,
      "Ġáī°áĪĺáĪįáĬ¨áīµĠ": 4882,
      "Ġáĭ¨áī°áįĪáĮ¥áĪ®": 4883,
      "ĠáĭŃáĪħáĪĿĠáĭ¨": 4884,
      "áĪĬáīµ": 4885,
      "Ġáī¥áĭĻáĭİáī¹": 4886,
      "ĠáīģáĪ³áīģ": 4887,
      "ĠáĪĺáīĨ": 4888,
      "áĭ°áī£": 4889,
      "ĠáĬĲáī¢áĭ«": 4890,
      "ĠáĪĪáīłáĪĪáĮł": 4891,
      "áĪ³áĪ«": 4892,
      "áĭİáī½áĬĵ": 4893,
      "ĠáĪĪáĪĺáĪŃáĭ³áīµ": 4894,
      "ĠáĪģáĪĪáī°áĬĽáĭį": 4895,
      "ĠáĬłáīħáĪ«áī¢": 4896,
      "Ġáīµáī½áĪĭáĪĪáĪħ": 4897,
      "áĪŀáĬŃáĪ«áĪ²áĭ«áĭĬ": 4898,
      "ĠáīłáĬ«": 4899,
      "Ġáīłáĭĭ": 4900,
      "áī°áĪ¨": 4901,
      "Ġáī°áĮĭ": 4902,
      "áīµĠáĬłáĪĿáĪĭáĬŃ": 4903,
      "áĭĽáĪĽ": 4904,
      "áĮ¦áī½áĬķ": 4905,
      "áīĢáĪĺáĮł": 4906,
      "ĠáĪĽáĪħáīłáĪŃ": 4907,
      "ĠáĬĲáĬķ": 4908,
      "Ġáĭ¨áī°áĭĪáĪ°áĬĳ": 4909,
      "ĠáĮįáĭĽáīµ": 4910,
      "ĠáĬķáĮ¥áĪ¨": 4911,
      "ĠáĮłáįį": 4912,
      "áĮĪáĪįáįģ": 4913,
      "ĠáĪĺáīħáĭ°áĪµ": 4914,
      "Ġáĭ¨áĪ°áĭįĠáĪįáĮħ": 4915,
      "áĬķáī¥": 4916,
      "áĪµáīµĠáĭ¨": 4917,
      "ĠáĬłáĪ¨": 4918,
      "áĭŃáįį": 4919,
      "áĪ°áĪ¨áīµ": 4920,
      "Ġáĭ«áĮĪáĬĺ": 4921,
      "áĪĺáĪĪáĬ«áĬ¨": 4922,
      "ĠáĪĺáĪ°áĭĬáĭ«": 4923,
      "ĠáĬłáĭįáīĥáĪĪáĪģ": 4924,
      "ĠáĪļáĪĬáĭ®áĬķĠáĭ¶áĪĭáĪŃ": 4925,
      "Ġáĭ³áĬķáĬ¤áĪį": 4926,
      "ĠáĬ¥áĭ³": 4927,
      "áīłáīµĠáĪģáĬĶáī³": 4928,
      "ĠáĬ¨áĭļáĭ«áĪĿĠáĭ¨": 4929,
      "Ġáĭ°áĪ¨áĮĥáĭİáī½": 4930,
      "Ġáīłáĭ¨áīĢáĬĳ": 4931,
      "ĠáĮ«áįį": 4932,
      "ĠáĬ¥áĪŃáĪµáĭİáĬķ": 4933,
      "ĠáĮĵáĭ°áĬŀáī½": 4934,
      "Ġáī¥áĭĻáĪĿĠáĪ³áĭŃ": 4935,
      "ĠáīłĠĠ": 4936,
      "ĠáĬłáĬŃáī¥áĪ®": 4937,
      "ĠáĬĲáįĭáĪµ": 4938,
      "áī±ĠáĭįáĪµáĮ¥": 4939,
      "áĭįáĬķĠáĪĪáĪĺ": 4940,
      "ĠáĬłáĭŃáĪĨáĬķáĪĿ": 4941,
      "ĠáīĥáĪī": 4942,
      "ĠáĬłáĪĽáĪįáĬŃ": 4943,
      "ĠáįĸáĪĬáĪµ": 4944,
      "áĪĺáĭĺáĮĪáī¡": 4945,
      "ĠáīłáĪĺáĬ«áĬ¨áĪĭáī¸áĭį": 4946,
      "ĠáĬłáĪ³áĭŃ": 4947,
      "ĠáĭŃáī£": 4948,
      "áĬ«áĭ®áī½": 4949,
      "ĠáĪįáĮ¥áįį": 4950,
      "áĪµáĪ«áīħ": 4951,
      "ĠáĮ¥áīħáĪµ": 4952,
      "ĠáĬłáĪīáīµĠ": 4953,
      "áĪĺáĭĿáĮĪáī¥": 4954,
      "áĪŃáī¥": 4955,
      "ĠáĪµáĬĵ": 4956,
      "áĭĪáĬķáĭµ": 4957,
      "Ġáĭ¨áĪļáĪ°áĮłáĭį": 4958,
      "Ġáįįáīħ": 4959,
      "ĠáĪµáĪĭáĪĪáĭį": 4960,
      "Ġáĭ¨áĭ«áĪħáĭĮáĬķ": 4961,
      "áĮłáī£áīłáīħ": 4962,
      "ĠáįįáĪŃáĭµĠáī¤áīµ": 4963,
      "ĠáĭĿáĬĵáī¥": 4964,
      "ĠáĪļáĬĴáĪµáī´áĪŃ": 4965,
      "Ġáĭ¨áĪĭáīĢ": 4966,
      "áĪįáĪį": 4967,
      "ĠáīłáĪ°áĪĽ": 4968,
      "Ġáī°áīĨáĮ£": 4969,
      "áĭĿáĪŃáĭĿ": 4970,
      "ĠáĮ¥áĪ«": 4971,
      "ĠáĭŃáĪħáī½": 4972,
      "ĠáĬĵáī½áĪģ": 4973,
      "ĠáīłáĪ½": 4974,
      "ĠáīłáĬ©": 4975,
      "ĠáĬ¨ĠáĬ¥áĪµáĬ¨": 4976,
      "áĪĽáī½áĬķ": 4977,
      "áĪ°áįį": 4978,
      "ĠáĪ°áĬĶ": 4979,
      "áĮĨáī¼": 4980,
      "ĠáĪĽáĪµáĮłáĬķáīĢ": 4981,
      "áĬķáĬ«áĪ¬": 4982,
      "ĠáĭŃáĪĺáĪįáĬ¨áī±Ġ": 4983,
      "Ġáī³áĪĽáĬĿáĬĲáīµ": 4984,
      "áĬĲáīģ": 4985,
      "ĠáĭŃáĭ°áĭį": 4986,
      "Ġáī¥áĬķ": 4987,
      "áĬĿáĪĿĠ": 4988,
      "ĠáĪĨáĬľ": 4989,
      "Ġáī¥áĪŃáī±": 4990,
      "ĠáīłáĮ¥áĪ©": 4991,
      "ĠáīłáĪĨáĬĲáĭį": 4992,
      "ĠáĬ¥áĪŃáĪ±áĪĿ": 4993,
      "ĠáĪĿáĪµáĪ«áī½": 4994,
      "Ġáĭ¨áĪļáĬ¨áī°áĪīáīµáĬķ": 4995,
      "áĬķáĭİ": 4996,
      "áĪ®áī½Ġ": 4997,
      "áĪ°áī¥áĪ°áī¥": 4998,
      "áĪĿáĪ¨áīµ": 4999,
      "ĠáĪĪáĪĨáĬĳ": 5000,
      "áīĢáĭĭáĪįĠ": 5001,
      "Ġáĭ¨áĪļáĪ¨áĭ³": 5002,
      "áįĭáĪŃ": 5003,
      "Ġáīłáī°áī»áĪĪ": 5004,
      "áĬ®áī½áĬķ": 5005,
      "ĠáĪ«áĪ±áĬķ": 5006,
      "ĠáįĸáĪĪáī²áĬ«": 5007,
      "áĭ·áī¸áĭį": 5008,
      "ĠáĬ¥áĪŃáĮįáĮ¥ĠáĬĲáĭį": 5009,
      "Ġáĭ¨áĪĭ": 5010,
      "áĮĪáĭ±": 5011,
      "ĠáĭĪáĭ°ĠáĬĭáĪĭ": 5012,
      "áĬķĠáĬłáīµ": 5013,
      "ĠáĬ¨áĪĺáĮł": 5014,
      "ĠáĮįáĬķáī£áī³": 5015,
      "áĪŃáĮħ": 5016,
      "áįĳ": 5017,
      "áĪįáĬĵ": 5018,
      "áĭ°áĭ°": 5019,
      "ĠáĪĺáĪµáĮłáīµ": 5020,
      "áĮĤáī³áĪį": 5021,
      "ĠáĪĪáĬ¥áĪµáĪ«áĬ¤áĪį": 5022,
      "ĠáīģáĪŃáĮ¥": 5023,
      "ĠáĭŃáįĪáĪįáĮĭáĪī": 5024,
      "ĠáĬłáĭĪ": 5025,
      "áĪ°áĬŀ": 5026,
      "áĪ³áĪī": 5027,
      "áĪĿĠáīłáĭļáĭ«": 5028,
      "áįĪáįħáĪĻ": 5029,
      "áĪŃáĮĭ": 5030,
      "áĪľáī³": 5031,
      "ĠáĬ¥áĬķáĭ²áĪģáĪĿĠáĬł": 5032,
      "ĠáĪĿáĬķáĮĬáĭľáĪĿ": 5033,
      "áĬķĠáĬĲáĭįĠ": 5034,
      "ĠáĬ¨áīµ": 5035,
      "Ġáī°áĪĺáĪ«": 5036,
      "Ġáī£áĪīáīµ": 5037,
      "ĠáĬłáĪĪáĬĿ": 5038,
      "áĮĪáĪįáįĢ": 5039,
      "ĠáĬłáĬķáĭµĠáĬĲáĮĪáĪŃ": 5040,
      "ĠáįĪáĮłáĪ«": 5041,
      "ĠáĪĤáĭµ": 5042,
      "áī»áĪįáĬ©": 5043,
      "ĠáīłáĪĺáĬķáįĪáĪ³áĭĬ": 5044,
      "áīµĠáĬĲáīłáĪŃĠ": 5045,
      "ĠáĬłáĬĲáĪµáī°áĬĽ": 5046,
      "áī½áĪĪáĭįáĬķ": 5047,
      "áĭİáī½ĠáĮĭáĪŃ": 5048,
      "ĠáĮĬáĭľáĭ«": 5049,
      "áīµĠáĬłáīħ": 5050,
      "áĬķĠáĬłáĪĿáĪĭáĬŃ": 5051,
      "áĮĢáĪŃáī£": 5052,
      "áīµĠáĪĺáī¥": 5053,
      "ĠáĭĭáĬĵáĭį": 5054,
      "áĪģáĪĪáī°áĬĽáĭį": 5055,
      "ĠáĭĪáĬķáĮĢáĪį": 5056,
      "ĠáĪĺáĬ¨áĪĭáĬ¨áĭ«": 5057,
      "áĮĭáĮĪáī¥": 5058,
      "ĠáĪĪáĪĽáĪ¨áĮĭáĮĪáĮ¥": 5059,
      "ĠáįķáĪ®áįĮ": 5060,
      "ĠáĭµáĪŃáĮĬáīµ": 5061,
      "ĠáīħáĭµáĪļáĭ«": 5062,
      "ĠáĮłáĪ¨áĮ´áĭĽ": 5063,
      "áĪŃáĪ·": 5064,
      "ĠáĪĺáĭįáĪ°áĭµ": 5065,
      "áī³áĪī": 5066,
      "áīĢáĭŃ": 5067,
      "áĪŁáĪįĠ": 5068,
      "ĠáĪĽáĪĪáīµĠáĬĲáĭį": 5069,
      "ĠáĪ°áĬłáī³áīµ": 5070,
      "Ġáĭ¨áĪ®": 5071,
      "áī³áĪ¨": 5072,
      "áĬłáĭŃ": 5073,
      "ĠáīłáĮ£áĪĿĠáī¥áĭĻ": 5074,
      "ĠáĮ¨áĪĪáĪĽ": 5075,
      "ĠáĪ³áĭŃáĬķáĪµ": 5076,
      "ĠáĪļáĬĴáĪµáīµáĪŃ": 5077,
      "Ġáī¥áĭĻáĪĿĠáĪ³áĭŃáīĨáĭŃ": 5078,
      "ĠáīłáĪģáĪīáĪĿ": 5079,
      "áī³áĪīĠ": 5080,
      "áīĢáīµĠáĪĺ": 5081,
      "ĠáĪµáĪĿáĬķ": 5082,
      "ĠáīłáĪĺáĪĨáĬķ": 5083,
      "áĪ¸áĬķ": 5084,
      "ĠáĬ¨áĬ¥áĬĲáĪŃáĪ±": 5085,
      "áĬ³áĬķáĬķ": 5086,
      "ĠáĬ¥áĬĽáĪĿ": 5087,
      "áĭİáī½Ġáĭ¨áĪļáīĨáĮłáĪ©": 5088,
      "áĭŃáĭĻ": 5089,
      "áĭ°áĬĿáĬĲáīµ": 5090,
      "áīµĠáĭ¨áĪĨáĬĲ": 5091,
      "ĠáĮ¨áĪ¨": 5092,
      "ĠáĬłáĮĪáĪįáĮįáĪİáī¶áī½": 5093,
      "áĮłáī¥áīĥ": 5094,
      "ĠáĬĲáĮĭáĭ´": 5095,
      "áĬķáĪ½": 5096,
      "ĠáīłáĪ«": 5097,
      "ĠáĭĪáĮĪáĬķ": 5098,
      "Ġáĭ°áĬ«áĪĽ": 5099,
      "áīµĠáĭ¨áĪĿ": 5100,
      "ĠáĮįáĬķáī£áĪŃ": 5101,
      "áĮ¦áĪŃáĬĲáīµ": 5102,
      "áĬĽáĭįáĬķĠáĮĬáĭľ": 5103,
      "ĠáĮįáī¥áĭ£": 5104,
      "ĠáĮĢáĪĺáĪ¨Ġ": 5105,
      "áĪ°áĭĬáĭ«áĭį": 5106,
      "ĠáĮįáī¢": 5107,
      "áĭİáī¹áĬķ": 5108,
      "Ġáįĥáĭµáīħ": 5109,
      "áī´áĬŃáĬĸáĪİáĮĤ": 5110,
      "ĠáĬĲáĬķĠ": 5111,
      "áįĪáĮłáĪ©": 5112,
      "ĠáĪĭáĭŃĠáĭ«áĪĪáĭį": 5113,
      "áĪ»áĪ½": 5114,
      "ĠáĮĪáĪĭ": 5115,
      "áī§áĬķ": 5116,
      "ĠáĬ¥áĪ³áīµ": 5117,
      "áī¥áī¥áĪŃ": 5118,
      "ĠáĪĪáĬ¥áĮįáĭļáĬłáī¥áĪĦáĪŃ": 5119,
      "ĠáĪĺáĬķáĮĪáĭ±": 5120,
      "áįĪáĪįáĮĪáĭįáĬķ": 5121,
      "Ġáĭ¨áī¡": 5122,
      "ĠáīłáĮĪ": 5123,
      "áī°áīµ": 5124,
      "áī£áīł": 5125,
      "ĠáĪįáī¦": 5126,
      "ĠáĪ«áĪ³áī¸áĭį": 5127,
      "Ġáĭ«áĪµáī½áĪĭ": 5128,
      "Ġáįħáĭµáīħ": 5129,
      "ĠáĪĽáĪµáĮłáĬķáīĢáīĤáĭ«": 5130,
      "áīĢáĬĿ": 5131,
      "ĠáĬ¥áĬķáĭ²áĬĸáĪŃ": 5132,
      "áĮİáīł": 5133,
      "ĠáĬ¥áĬķáĭ³áĪĭáī¸áĭį": 5134,
      "ĠáīĥáĪĪ": 5135,
      "áīĢáĮ¥áĪī": 5136,
      "Ġáīłáĭļáĭ«áĪĿ": 5137,
      "ĠáĮįáĪĪáĪ°áī¦áī½": 5138,
      "Ġáĭ±áīĦ": 5139,
      "áīµáĪ®": 5140,
      "ĠáĬ¨áĪµáĪ«": 5141,
      "ĠáĪµáĭ°": 5142,
      "Ġáĭ¨áĬ¥áĮįáĪŃ": 5143,
      "áĮĬáĭİáī½": 5144,
      "Ġáĭ«áĪµáįĪáĪįáĮĪ": 5145,
      "áĬķáī£áĪĮ": 5146,
      "áĬķáįĢáī£áĪ¨": 5147,
      "ĠáīłáĪ¶": 5148,
      "ĠáĬłáĭĺáĮĭáĮħ": 5149,
      "áī°áĬŀáī¹": 5150,
      "áĭµáĪį": 5151,
      "áįĪáĬĲ": 5152,
      "Ġáĭįáī¥": 5153,
      "ĠáĭŃáĪħĠáĭ¨": 5154,
      "ĠáĭĿáĪŃáĭ«": 5155,
      "áĮłáĬĵáīĢáīħ": 5156,
      "ĠáĪĺáĪĨáĬĵáī¸áĭį": 5157,
      "Ġáī¥áī¸áĬĽáĭį": 5158,
      "ĠĠáĭ¨": 5159,
      "ĠáĪĺáįħáĪĦ": 5160,
      "áĪŀáĬŃáĪŃ": 5161,
      "áĪĮáĬŃ": 5162,
      "Ġáĭ¨áī°áī£áĪĪ": 5163,
      "Ġáĭ°áĪħáĬķáĬĲáī±": 5164,
      "áĮĪáĮį": 5165,
      "Ġáĭ«áīĢáĪŃáī£áĪį": 5166,
      "áĬ«áĪļ": 5167,
      "áĪ©áĪ²áĭ«": 5168,
      "ĠáįįáĪįáĪµáĮ¤": 5169,
      "Ġáĭ¨áĬ¥áĪŃáĪµáĭİáĬķ": 5170,
      "ĠáĭĿáĬķáī£áĪĮ": 5171,
      "Ġáĭ²áĭ«": 5172,
      "ĠáīħáĪŃáįħ": 5173,
      "ĠáĭĺáĪŃáįį": 5174,
      "ĠáĪħáįĥáĬĵáīµ": 5175,
      "ĠáīłáīĢáĪŃ": 5176,
      "áĬ¨áīłáĪŃ": 5177,
      "ĠáĬ¥áĬķáĭ°áĬĲáīłáĪ¨": 5178,
      "ĠáĮįáĬķáī¥": 5179,
      "áĪ¶áī¹": 5180,
      "ĠáĬ¢áĭ¨áĪ±áĪµáĪĿ": 5181,
      "áĬŃáĪįáĪī": 5182,
      "áĪµáĪ«áĬ¤áĪĭáĭįáĭ«áĬķ": 5183,
      "áĪĮáĬŃáīµáĪ®": 5184,
      "ĠáīłáĭĪáīħáī±": 5185,
      "áĬ¨áīłáĪ¨": 5186,
      "áĬ«áĪªáĭİáī½": 5187,
      "Ġáĭ¨áĪĽáĪµ": 5188,
      "Ġáī¡áĬĵ": 5189,
      "áĪĤáī¥": 5190,
      "ĠáĬ¥áĬķáĭ²áĭ«áĭįáĪĿ": 5191,
      "ĠáĬ¥áĬķáĭ°áĭļáĪħĠáĬłáĭŃáĬĲáīµ": 5192,
      "áĬķĠáĬłáĪĭ": 5193,
      "áĭ©áīµ": 5194,
      "ĠáĪĻáĭ«": 5195,
      "ĠáĬłáĪĿáĪĭáĬŃáĪħ": 5196,
      "áĪ°áī£áī½áĬķ": 5197,
      "áĮįáī¥áįħĠáĪĿáĭµáĪŃ": 5198,
      "áĪµáī¡áĬŃ": 5199,
      "Ġáĭ¨áĮĭ": 5200,
      "ĠáĬĲáĮłáĪĭ": 5201,
      "Ġáĭ¨áĪĺáĮ¡": 5202,
      "áĪ»áĪį": 5203,
      "ĠáĬ¥áĬĶáĬĵ": 5204,
      "áįķáī´": 5205,
      "ĠáīµáĬķáĪ³áĬ¤": 5206,
      "áĬĲáĭįĠ": 5207,
      "ĠáĮĭáĪŃĠáĭ¨áī°áĭ«áĭ«áĭĻ": 5208,
      "Ġáīħáĭ³áĪľáĬĵĠáĬ¥": 5209,
      "ĠáĮ©áĬ¸": 5210,
      "Ġáĭ¨áĭ«áĭĺ": 5211,
      "ĠáĬ¥áĬĵĠáīłáĪĺ": 5212,
      "Ġáĭ¨áĪļáĪ°áĮ¥": 5213,
      "Ġáĭ¨áī°áĬĵáĮĪáĪ¨áĭį": 5214,
      "áĬĲáīµĠáĭ«áĪĪáĭį": 5215,
      "ĠáĬłáĭŃáīĢáĪŃ": 5216,
      "ĠáĪ°áĭįáĭ¨áĭį": 5217,
      "ĠáįĢáĮīáĪŃ": 5218,
      "áĬķáĭµáĬķĠáĬĲáĭį": 5219,
      "Ġáī£áĪħáĪŃáĭŃ": 5220,
      "áĪ«áī¸áĭįáĬķ": 5221,
      "ĠáĪ²áĪĺáĮ£": 5222,
      "ĠáīłáĬłáĪµ": 5223,
      "áī¸áĭĭáĪĪáĪģĠ": 5224,
      "áĪµáĪĢáīħ": 5225,
      "áĪŃáĬķ": 5226,
      "ĠáīłáĪ«áĪµ": 5227,
      "ĠáĬłáĪµáĪ«": 5228,
      "áĪĭáī¸áĭĭáĪįĠ": 5229,
      "ĠáĪĽáī¥": 5230,
      "áĭĺáĭĭ": 5231,
      "ĠáīłáĮ£áĪĿĠáĭ¨": 5232,
      "ĠáĬłáĪįáī£": 5233,
      "ĠáīĨáĪ»áĪ»": 5234,
      "Ġáī£áĪįáĭ°áĪ¨": 5235,
      "áĭįĠáĪĺáī¶": 5236,
      "áĬĲáīłáĪ«áī¸áĭį": 5237,
      "ĠáĬ¥áī½áĪĭáĪĪáĪģĠ": 5238,
      "áĭ«áĪĪáĪģĠ": 5239,
      "ĠáĪĪáĪ¨áĮħáĪĿĠáĮĬáĭľ": 5240,
      "áĪ½áĬĵ": 5241,
      "áīłáīµĠáĭĪáīħ": 5242,
      "áīµĠáĭ¨áīłáĪĪáĮł": 5243,
      "áĮĥáī¸áĭį": 5244,
      "ĠáĪµáĪ«áĭį": 5245,
      "áĭŀáī½": 5246,
      "áĮįáĪ«áī¸áĭį": 5247,
      "ĠáīłáīĢáĮ¥áī³": 5248,
      "ĠáĪĺáĪµáĪ«áīµ": 5249,
      "áĪīáīµĠ": 5250,
      "ĠáĪĿáĭĿáĮĪáī£": 5251,
      "ĠáĪĽáīłáĪ¨áī³": 5252,
      "áĬķĠáīłáĭļáĪħ": 5253,
      "áīłáīµáĬĵ": 5254,
      "áīµáĬķĠáĭŃ": 5255,
      "áĪľáĪ«": 5256,
      "áī´áĮĤ": 5257,
      "ĠáĬ®áĭµ": 5258,
      "ĠáĬ¢áĭ¨áĪ±áĪµĠáĬŃáĪŃáĪµáī¶áĪµ": 5259,
      "ĠáĮ£áĪį": 5260,
      "áĮłáĬĵáĬ¨áĪŃ": 5261,
      "ĠáĪĽáĪĪáīµáĪĿ": 5262,
      "Ġáī°áĬĵáĮįáĪ¯áĪį": 5263,
      "áĮ§áĪįĠ": 5264,
      "Ġáī´áĬŃáĬĴ": 5265,
      "Ġáĭ¨áĮįáī¥": 5266,
      "ĠáīłáĬ¨áįįáī°áĬĽ": 5267,
      "ĠáĬ¨áĭ°": 5268,
      "áĮ¥áĪ¨áīµ": 5269,
      "áĬłáĪĪáĪģ": 5270,
      "Ġáĭ¨áĪļáī°": 5271,
      "ĠáĮįáĪŃ": 5272,
      "áįĭáī¸áĭį": 5273,
      "ĠáĬłáĭŃáĬĸáĪŃ": 5274,
      "áĭ®áĪµ": 5275,
      "áĪĪáīµĠáī°": 5276,
      "áĭİáĬķáī³áĭĬ": 5277,
      "ĠáĮįáĪĪáĪ°áī¥": 5278,
      "áĬŃáĪŃáĪµáī²áĭ«áĬķ": 5279,
      "ĠáĪĢáĭĭáĪŃáĭ«áĭįĠáĮ³áĭįáĪİáĪµ": 5280,
      "ĠáĮĪáĪįáįĢáĭĭáĪįĠ": 5281,
      "ĠáĬłáīĥ": 5282,
      "áĪħáĬĲáīµ": 5283,
      "áĪ°áĪĪ": 5284,
      "áĪĢáĭµ": 5285,
      "ĠáĮįáĭĻ": 5286,
      "Ġáĭ³áī¦": 5287,
      "ĠáĭĪáīħáī³áĭĬ": 5288,
      "áīµĠáĬłáĪµáįĪáĪĭáĮĬ": 5289,
      "ĠáĪ°áĭŃáĮ£áĬķ": 5290,
      "ĠáĭŃáĪģáĬĳ": 5291,
      "áĭİáī½áĬķĠáĬł": 5292,
      "áĭĪáīµáĪŃ": 5293,
      "áįīĠ": 5294,
      "áī¶áī½áĬķĠáĬ¥áĬĵ": 5295,
      "ĠáĬłáĬ«áĪĭáīµ": 5296,
      "áĪ«áĪĿ": 5297,
      "áĬ«áĭĬ": 5298,
      "ĠáĪĪáĪĽáĬķáĬĽáĭįáĪĿ": 5299,
      "ĠáĮĪáĬĲáīµ": 5300,
      "áĬŃáĪįáĪį": 5301,
      "ĠáĪĪáĭįáĮ¦áī½": 5302,
      "áĪµáīµáĪ«áĪĬáĭ«": 5303,
      "Ġáĭ¨áįĸáĪĪáī²áĬ«": 5304,
      "áī³áĭ¨": 5305,
      "ĠáĪĿáīµáĬŃ": 5306,
      "áĪŀáĬķ": 5307,
      "ĠáĪ³áĪĿáĬķáī³áīµ": 5308,
      "ĠáĬłáĪŃáī¥": 5309,
      "ĠáĬłáī¥áĭĽáĬĽáĭİáī¹": 5310,
      "áĪĿáįĴáĭ©": 5311,
      "Ġáĭ¨áĬłáĬ«áĪįĠáī¥áīĥáīµ": 5312,
      "áīłáĪ©áīµĠáĪĺáĬķáĮįáĪµáī³": 5313,
      "áĪĿĠáĭįáĪµáĮ¥": 5314,
      "áĪĿáĪ«áīµ": 5315,
      "áĪŃáĬ¨": 5316,
      "ĠáĭŃáĪħĠáĭ°áĮįáĪŀ": 5317,
      "Ġáĭµáī¥": 5318,
      "ĠáĪĢáĪ³áī¦áī½áĬķ": 5319,
      "Ġáī¥áĪĭáĪĪáī½": 5320,
      "ĠáĮįáĪĿáīµĠáĭįáĪµáĮ¥": 5321,
      "ĠáĪµáĪįáĬŃ": 5322,
      "ĠáĬ¥áĬĵĠáī°": 5323,
      "áĪµáī°áĬŀáī½": 5324,
      "áī¦áī³áĭį": 5325,
      "ĠáįįáĪŃáĪĢ": 5326,
      "áĮĪáī£áīµ": 5327,
      "ĠáĪĢáĭŃáĪİáī½": 5328,
      "ĠáĬ¥áĬķáī½áĪĭáĪĪáĬķ": 5329,
      "ĠáĭŃáĮĪáī£áĪį": 5330,
      "áĪĿáĪµáīµ": 5331,
      "ĠáĪĿáĬķáĮ®áī½": 5332,
      "ĠáĬłáĬķáīº": 5333,
      "áīªáĭ¥": 5334,
      "ĠáĪĽáĪ³áĭ¨": 5335,
      "áįķáī´áĪĿáīłáĪŃ": 5336,
      "áĬ«áĪĤ": 5337,
      "ĠáīłáĭļáĪħĠáĬłáĬķáīĢáįħĠáĬķáĬ¡áĪµĠáĬłáĬķáīĢáįħ": 5338,
      "áĪ³áī°áįį": 5339,
      "Ġáĭ¨áīħ": 5340,
      "Ġáĭ«áĭ°áĪ¨áĮį": 5341,
      "áĭ³áĭĬáīµ": 5342,
      "ĠáĮłáĪŃ": 5343,
      "áĪĺáĪįáĪµ": 5344,
      "ĠáĬłáĭįáī¶": 5345,
      "áĪµáī¥áĪµáī¥": 5346,
      "ĠáĪªáįĲáī¥": 5347,
      "áī½áĭįĠ": 5348,
      "ĠáīłáĬłáĪĪáĪĿĠáĭĻáĪªáĭ«": 5349,
      "ĠáĭŃáī»áĪĭáĪį": 5350,
      "áīģáĮ¥áĮ¥áĪŃ": 5351,
      "ĠáĬ¥áĪº": 5352,
      "ĠáīłáĬĲáīłáĪ¨": 5353,
      "ĠáĬłáĮįáī£áī¥": 5354,
      "ĠáĪĪáĭĺ": 5355,
      "áĪ°áĬĿ": 5356,
      "ĠáĭĪáĪ¬": 5357,
      "áīĥáī½áĪģ": 5358,
      "Ġáĭ¨áī°áĪĪáĪĺáĭ°": 5359,
      "áīĨáĪĺ": 5360,
      "áĮĪáĬĽáĪįĠ": 5361,
      "Ġáĭ®áĬĵ": 5362,
      "ĠáĮŃáĪĿáĪŃ": 5363,
      "áĪŀáĬŃáĪ«": 5364,
      "áĪĿĠáīµ": 5365,
      "ĠáĬ¥áĪĿáĬĲ": 5366,
      "áĬĵáĭŃ": 5367,
      "Ġáī£áĬķáĬŃ": 5368,
      "ĠáĪ²áĬĵáĮĪáĪŃ": 5369,
      "áīģáīµ": 5370,
      "áīµáĬķáĪ½": 5371,
      "áĮĢáĪĺáĪ©": 5372,
      "áĪĺáĮ£áĮ£áĬĿ": 5373,
      "ĠáĪĺáĭµáĪ¨áĬŃ": 5374,
      "ĠáĬłáī¢": 5375,
      "áĬĵĠáĭĪáĭ°": 5376,
      "ĠáĬĲáī½": 5377,
      "Ġáī£áĪĭáī¸áĭį": 5378,
      "Ġáī³áĭĽ": 5379,
      "áīµĠáĭ¨áĪĽáĭŃ": 5380,
      "ĠáīµáĪŃáįį": 5381,
      "Ġáī£áĪĪáī¤áī´": 5382,
      "ĠáĪĿáĬ¥áĪ«áī¥": 5383,
      "Ġáĭ²áĭĽáĭŃ": 5384,
      "áĬĵĠáĭ¨áĪĺ": 5385,
      "ĠáĭŃáĭĪáĪµáĭ³": 5386,
      "áĪ³áĭ«": 5387,
      "ĠáĪ°áĪ¨áĮĪ": 5388,
      "ĠáĪ°áīħáĪį": 5389,
      "áĭįáĬķĠáĪ°áĭį": 5390,
      "áĪ³áīµáįİ": 5391,
      "ĠáĬ¥áĬķáīħáĪįáįį": 5392,
      "Ġáī°áīĥáĭįáĪŀ": 5393,
      "áī¥áĪ®": 5394,
      "Ġáĭ¨áĪļáĪĺáĪµ": 5395,
      "ĠáĬ¥áĬķáīģ": 5396,
      "áīµĠáīłáįĬáīµ": 5397,
      "Ġáĭ¨áĪļáĭ«áĪµáĬ¨áīµ": 5398,
      "Ġáĭ²áĮįáĪª": 5399,
      "áĮįáĪĪáĪ°áī¥": 5400,
      "ĠáĪĿáĪħáĪ¨áīµ": 5401,
      "áĮĪáĮĥ": 5402,
      "áĪ¨áĭĭáĪį": 5403,
      "ĠáĪĪáĪ°áĭį": 5404,
      "áĮ£áĪ«": 5405,
      "ĠáĭŃáĪĨáĭĭĠáĪĨáĭŃ": 5406,
      "ĠáĪ¶áįįáīµ": 5407,
      "Ġáī°áĬĵáĮįáĪ¨áĭĭáĪįĠ": 5408,
      "Ġáīłáįįáįģ": 5409,
      "ĠáīĥáĪįĠáĬªáĭ³áĬķ": 5410,
      "Ġáīłáī¤": 5411,
      "áīłáī£": 5412,
      "áĭİáĬķĠáīł": 5413,
      "Ġáĭ«áĪĪáĪĽ": 5414,
      "ĠáĮįáī¥áįħ": 5415,
      "ĠáĮ¥áĬĵáī¶áī½": 5416,
      "Ġáĭ¨áĪļáĪ°áĮ¡": 5417,
      "ĠáĪĪáĪĺáĪµáĮł": 5418,
      "áĬ¨áī°áĪīáīµ": 5419,
      "Ġáĭ«áĪħáĭĮĠáĪĨáĭŃ": 5420,
      "ĠáįĢáĮ¥": 5421,
      "ĠáĬ¥áĭįáĬĲáī³": 5422,
      "áīµáĪ¨": 5423,
      "Ġáĭ¨áī¢": 5424,
      "Ġáĭ¨áĪ°áĮł": 5425,
      "áĪ¨áįįáīµ": 5426,
      "áĮłáĮ¥": 5427,
      "áĪ³áĭ¨áĭį": 5428,
      "áĮĢáĪĿáĪ©": 5429,
      "áĪĿĠáĬłáīĢ": 5430,
      "ĠĠĠĠĠ": 5431,
      "ĠáĬ¤áĪįáĭ«áĪµ": 5432,
      "ĠáĬ«áĪħáĬĵáīµ": 5433,
      "áīĢáĪ°": 5434,
      "Ġáī¥áĭĽáīµ": 5435,
      "áī·áī¸áĭĭáĪįĠ": 5436,
      "Ġáī¦áī³ĠáĪĭáĭŃ": 5437,
      "áĪĺáĪįáĬŃáī¶": 5438,
      "ĠáĪ½áĭ«áĮŃ": 5439,
      "ĠáĪĢáī¥áīµ": 5440,
      "ĠáĬ¨áĬ¥áĬĲáĪ±ĠáĮĭáĪŃ": 5441,
      "Ġáĭ°áīĢĠáĪĺáĭĽáĪĻáĪŃáī±": 5442,
      "áįįáīħáĪŃ": 5443,
      "ĠáīłáĪĺáĪµáĪĺáĪŃĠáĪĭáĭŃ": 5444,
      "ĠáĭŃáĪħáĪĿĠáīł": 5445,
      "ĠáĭµáĮį": 5446,
      "áĪĭáī¸áĭįáĬķ": 5447,
      "ĠáĬ¨áĬ¥áĪŃáĪµáĭİ": 5448,
      "áĪµáī³áĭįáĪµ": 5449,
      "ĠáĬłáĪįáĮĭ": 5450,
      "ĠáĪĤáĪ³áī¥": 5451,
      "ĠáĬłáĪĿáĪįáĬ®": 5452,
      "áī½áĬĭáĪĪáĪģ": 5453,
      "ĠáĬłáĭµáĪŃáĮĵáĪįĠ": 5454,
      "ĠáīĢáĮ£áĭŃ": 5455,
      "áīµáĬķĠáĬł": 5456,
      "ĠáĬ¥áīħ": 5457,
      "ĠáĬ¥áĪħáĪį": 5458,
      "áĬĵĠáĪµáĪĪ": 5459,
      "ĠáĪĽáĪŃáĭ«": 5460,
      "áĪ½áĬĸáī½": 5461,
      "áĪĮáĭ³": 5462,
      "ĠáĪĺáĬķáĮĭ": 5463,
      "áīĭáĪŃ": 5464,
      "ĠáīłáĮ£áĪĿĠáī°": 5465,
      "ĠáĬ¥áĬķáĭ²áĭ«áĮĪáĬĻ": 5466,
      "áĭ«áĭ«áĭĿ": 5467,
      "ĠáĭŃáĬĸáĪ¨": 5468,
      "ĠáĬłáĭŃáĬĲáī±": 5469,
      "ĠáĮłáīłáīĥ": 5470,
      "Ġáĭ¨áĬ¥áĪĿáĬĲáīµ": 5471,
      "Ġáĭ«áĪħáĭĮáĬķ": 5472,
      "áīµĠáĬłáĪĺáī³áīµĠáīł": 5473,
      "áĮ§áī¸áĭį": 5474,
      "ĠáĬ¥áī½áĪĭáĪĪáĪģ": 5475,
      "áĪĪáĭµ": 5476,
      "áĭĭáĪļ": 5477,
      "Ġáĭ°áĪ«áĪ²": 5478,
      "ĠáĭįáĪµáĮ¥Ġáĭ«áĪĪáĭį": 5479,
      "ĠáĪģáĪīĠáĭŃ": 5480,
      "áĪ¬áĬķ": 5481,
      "áĬĭáī¸áĭį": 5482,
      "áĪ²áĬ«": 5483,
      "áĪĨáĬĵáī½áĪģ": 5484,
      "ĠáĪ°áĪĽáĭ«áĭĬ": 5485,
      "ĠáĬ¨áĬ¥áĬĶĠáĮĭáĪŃ": 5486,
      "áĪįáī¥": 5487,
      "áĪ®áī»áī¸áĭį": 5488,
      "Ġáĭ¨áī°áĪ»": 5489,
      "ĠáĮ¥áĬķáĬ«áĪ¬": 5490,
      "Ġáī³áĭ°áĪŃáĮĭ": 5491,
      "áĬ«áĬ¨áĪĪáĬĽ": 5492,
      "Ġáī¦áĪŃáĭµ": 5493,
      "áīµĠáĬ¨áĪļ": 5494,
      "ĠáįįáĪĭáĮİáī¶áī½": 5495,
      "áĪįáīģáĬķáĪĿ": 5496,
      "ĠáĪµáĬŃáĪª": 5497,
      "áĬ¨áī±": 5498,
      "Ġáĭ¨áī°áĭĺáĮĭáĮĢ": 5499,
      "áĪ½áĬķáĮį": 5500,
      "áī¡áĬķ": 5501,
      "áĮĪáī£áī¸áĭį": 5502,
      "áįİáī¶": 5503,
      "ĠáĪ¨áĭ³": 5504,
      "áĪªáĬ«áĭĬ": 5505,
      "áĬĹáĬĹ": 5506,
      "áĪµáī²áĬŃ": 5507,
      "áĭįáĪī": 5508,
      "Ġáĭ¨áĪ«áĪµ": 5509,
      "ĠáīłáĭĻáĪªáĭ«": 5510,
      "ĠáĬ¨áī³áī½": 5511,
      "ĠáĭĪáĬª": 5512,
      "áĪĨáī½": 5513,
      "Ġáī°áĬ¨áīµ": 5514,
      "ĠáĬĲáĮĪáĪ©": 5515,
      "ĠáįĢáĪ¨": 5516,
      "áīĭáīĭáĪĺ": 5517,
      "Ġáĭ¨áĪĮáĪĪáĭį": 5518,
      "áĪĿáįĴáĭįáī°áĪŃ": 5519,
      "ĠáĭµáĪħáĪ¨ĠáĮĪáįħ": 5520,
      "ĠáĬłáįķ": 5521,
      "ĠáĭŃáĬĸáĪ«": 5522,
      "ĠáĪĪáīł": 5523,
      "ĠáĬ¥áĬķáĭĪ": 5524,
      "áĪªáī±áĬķ": 5525,
      "ĠáĪĭáĭŃĠáĬĲáĭįĠ": 5526,
      "áĬ©áĪ«": 5527,
      "áīĤáĬĿ": 5528,
      "Ġáĭ¨áĬ¥áĮħ": 5529,
      "áīĭáĪļ": 5530,
      "Ġáī¦áĪŃáĪ³": 5531,
      "ĠáĬ¨áĬłáī£": 5532,
      "ĠáĪ¶áĪµáī°áĬĽ": 5533,
      "ĠáĪĪáĪĽáĪµáĭĪáĮĪáĭµ": 5534,
      "ĠáįķáĪ¬áĭĿ": 5535,
      "Ġáĭ¨áĪĨ": 5536,
      "ĠáĪģáĪĭáī½áĪģ": 5537,
      "ĠáīĨáĭ³": 5538,
      "ĠáĬłáĬ«áī£áī¢áĭİáī½": 5539,
      "ĠáĪĺáĪµáįĪáĪŃáī¶áī½": 5540,
      "áĪĿáĪĿ": 5541,
      "ĠáīłáĪĮáĪİáī½": 5542,
      "Ġáĭ¨áī°áĪ°áĮł": 5543,
      "ĠáĬ¥áĬķáĮĢ": 5544,
      "áĮ¨áĬĲáīħ": 5545,
      "ĠáĭĺáĪ®áī½": 5546,
      "ĠáĬłáĬķáī°áĪĿ": 5547,
      "ĠáĬ¥áĮįáĭļáĬłáī¥áĪĦáĪŃáĪĿ": 5548,
      "ĠáĪĺáĪĢáĪį": 5549,
      "Ġáĭ¨áĪļáĮĪáĬĿ": 5550,
      "ĠáĪĪáĪĺáĪµáĪ«": 5551,
      "áĪĿĠáįĪ": 5552,
      "ĠáĬ¤áĪĬ": 5553,
      "Ġáīħáĭ±áĪ³áĬķĠáĪĺ": 5554,
      "Ġáĭ¨áĬłáĪĿáĪĭáĬŃĠáīĥáĪį": 5555,
      "Ġáĭ¨áĪ°áĪ«áĭĬáīµĠáĮĮáī³": 5556,
      "áĪĺáī»": 5557,
      "áī¥áĪİáĪµ": 5558,
      "ĠáĬ¢áīµáĭ®áĮµ": 5559,
      "Ġáĭ°áĪµĠáī¥áĪİ": 5560,
      "áĭĪáĪĪáĭµ": 5561,
      "Ġáī¥áĪŃáĪĢáĬķ": 5562,
      "ĠáĪµáĬ¬áī³áĪĽ": 5563,
      "ĠáĭŃáī»áĪĭáĪįĠ": 5564,
      "ĠáĪħáĪĬáĬĵ": 5565,
      "áĪŃáĬ©": 5566,
      "áĪ«áĬĴ": 5567,
      "Ġáĭ«áīĢáĪŃáī£": 5568,
      "ĠáĪĽáĭ³": 5569,
      "Ġáĭ°áĪµáī°áĬŀáī½": 5570,
      "ĠáīłáĪĽáĬķ": 5571,
      "ĠáĪįáĮĨáī»áī¸áĭį": 5572,
      "ĠáĪĿáĬķáĪĿĠáĭŃáĪģáĬķ": 5573,
      "ĠáĪĺáĪ°áĪ¨áīµĠáĭ¨": 5574,
      "ĠáĬĲáī¢áĭ©": 5575,
      "áī£áĪª": 5576,
      "ĠáĭįáĪ¸": 5577,
      "ĠáĬ¥áĬķáĭ²áĭ«áĪµ": 5578,
      "áīĨáīµ": 5579,
      "áĪĦáĪ«áĭĬ": 5580,
      "ĠáĬ¢áĪľ": 5581,
      "ĠáįĬáĪįáĪĿ": 5582,
      "ĠáīłáįĬáīµĠáĭ¨": 5583,
      "áĪ³áĪĿáĬķáī±": 5584,
      "ĠáĪĿáĭµáĪ¨Ġáīłáĭ³": 5585,
      "Ġáĭ¨áĪļáĭ«áĭ°áĪŃáĮĪáĭį": 5586,
      "ĠáĪĺáĪµáĪİ": 5587,
      "ĠáĪŀáĬŃ": 5588,
      "áĪģáĪīáĪĿĠáĭ¨": 5589,
      "áĪĬáĭ®áĬķ": 5590,
      "ĠáīłáįĬáīµĠáīł": 5591,
      "ĠáĬ¥áĪ¨áįįáīµ": 5592,
      "áĬķáīĢáĪ³áīĢáĪµ": 5593,
      "Ġáĭ¨áī¤": 5594,
      "ĠáĬ¨áī¤áīµ": 5595,
      "áĬ¨áīł": 5596,
      "áĭĿáĬķ": 5597,
      "Ġáĭ¨áĬłáĬķáī°": 5598,
      "ĠáĪĨáĬķ": 5599,
      "áĮİáīµ": 5600,
      "Ġáĭ«áĪĪáī£áī¸áĭį": 5601,
      "áīłáĪįáĮ¡": 5602,
      "ĠáĪĽáī´áĭİáĪµ": 5603,
      "ĠáĮ¥áĪ«áīµĠáĭ«áĪĪáĭį": 5604,
      "ĠáĬłáĭ°áĪ¨áĮĪĠ": 5605,
      "Ġáĭ¨áĭ®": 5606,
      "Ġáīłáīħ": 5607,
      "ĠáĬĲáĮį": 5608,
      "áĪĨáĬķĠáĬłáĭŃ": 5609,
      "ĠáĪµáĪĽ": 5610,
      "Ġáĭ¨áī°áĭ°áĪ¨áĮĪ": 5611,
      "áįĭáĬĳ": 5612,
      "ĠáĪĢáĮĪ": 5613,
      "ĠáĪĿáĬŃáĪ®áī½": 5614,
      "ĠáĪĺáĪµáĬŃ": 5615,
      "ĠáĪ³áĭŃáĪĨáĬķĠáīł": 5616,
      "áī³áī½áĬķáĬķ": 5617,
      "áĮ¢áĬłáīµ": 5618,
      "ĠáĬŃáįįáĪįĠáĭįáĪµáĮ¥": 5619,
      "áĬķáįĪáĪµ": 5620,
      "áĪģáĪĪáī±áĪĿ": 5621,
      "ĠáĬ¥áĬ©": 5622,
      "áĭİáĬķĠáĭŃ": 5623,
      "ĠáĬĲáĭįáĬĵĠ": 5624,
      "áī±áĬķĠáīł": 5625,
      "Ġáĭ¨áĬłáĬ¥áĪĿáĪ®": 5626,
      "áĮĪáĬĺáĭįĠáīł": 5627,
      "ĠáĪĽáĬķĠáĬĲáĭįĠ": 5628,
      "ĠáīħáĪŃáī¥": 5629,
      "Ġáī£áĪĪáĪµáĪįáĮ£áĬĵ": 5630,
      "ĠáĭŃáĮĪáĬĽáĪįĠ": 5631,
      "Ġáīħáĭ³áĪľáĬĵĠáĬ¥áĪģáĭµ": 5632,
      "áĬĲáĪ»": 5633,
      "áĭ°áĭ±": 5634,
      "ĠáĪĿáĪį": 5635,
      "Ġáī£áĭ¶": 5636,
      "áĭĺáĮį": 5637,
      "áĭįáĭ«áĬķáĪĿ": 5638,
      "Ġáī¥áĭ¬ĠáĬłáĪµáī£": 5639,
      "ĠáĬ¢áĬķáĪ¹áĪ«áĬķáĪµ": 5640,
      "ĠáĪįáĪĽáĭµ": 5641,
      "ĠáīłáĪ´": 5642,
      "áī£áī¢áĭ«": 5643,
      "áĬ«áįĪ": 5644,
      "áīĭáĪį": 5645,
      "áįįáīµáĪħ": 5646,
      "Ġáĭ¨áīµáĬŀáī¹": 5647,
      "Ġáī°áĭĪáĪĭ": 5648,
      "Ġáĭ¨áĭ²": 5649,
      "Ġáĭ¨áīĢáĪ¨áīł": 5650,
      "áĪĭáĬķ": 5651,
      "áī³áī°": 5652,
      "áĪ³áĭµ": 5653,
      "Ġáĭ¨áĪļáĪ°áĪ©": 5654,
      "áĭĺáĪ¨áĮĭ": 5655,
      "ĠáĪĨáĪµ": 5656,
      "áīµĠáĭŃáĪįáīħ": 5657,
      "áĬķáĮīáĪµ": 5658,
      "áĮĪáĬĵáĬĺáīµ": 5659,
      "ĠáĭŃáĮ¨áĪĿ": 5660,
      "áĪĿĠáĪµáĪĪ": 5661,
      "áĭ«áĪī": 5662,
      "ĠáĪĺáįįáĮłáĪŃ": 5663,
      "ĠáĭŃáĪ°áĮł": 5664,
      "áĮłáĭĭ": 5665,
      "áīĢĠ": 5666,
      "Ġáī°áĪĪáĭŃ": 5667,
      "ĠáĬ¥áĬĵĠáĪĽ": 5668,
      "áĪĢáĪ´": 5669,
      "ĠáĪĪáĪĽáĭ¨": 5670,
      "ĠáĬ¨áįįĠáĬ¨áįį": 5671,
      "ĠáĬ¥áĬķáĮįáĪĬáĭĿ": 5672,
      "ĠáĭĿáĮįáĮħáīµ": 5673,
      "ĠáĬŃáĪŃáĬŃáĪŃ": 5674,
      "ĠáīłáĬĲáįĥ": 5675,
      "ĠáĬłáĪŀ": 5676,
      "áĮĪáĪĿ": 5677,
      "ĠáĪĪĠ": 5678,
      "ĠáĭĪáĭ°Ġáĭ«áĪħáĭĮ": 5679,
      "Ġáī£áī¢": 5680,
      "Ġáī³áĭį": 5681,
      "ĠáĬ¥áĬķáĭ²áĪħĠáī¥áĪĭáĪĪáī½": 5682,
      "áĬķĠáĪ°áĭį": 5683,
      "áĪįáī¶": 5684,
      "áĪįáįī": 5685,
      "ĠáĬłáįĪ": 5686,
      "áī°áĭįĠáīł": 5687,
      "Ġáī°áĬĲáĪµáī¶": 5688,
      "ĠáĪĭáĭŃĠáĭ«áĪī": 5689,
      "Ġáī³áī¦": 5690,
      "ĠáĬ¢áĬķáī°áĪŃ": 5691,
      "áĬ®áīµ": 5692,
      "ĠáĪµáĪ«áĭİáī½áĬķ": 5693,
      "áĮĵáī¸áĭį": 5694,
      "Ġáĭ«áĪµáīĢáĪĿ": 5695,
      "áĪµáįĭáįĭ": 5696,
      "ĠáĬłáīħáĬļ": 5697,
      "ĠáĬłáĭµáĬĵ": 5698,
      "ĠáĬ¥áĬķáīħáĪµáīĥáĪ´áĭİáī½": 5699,
      "Ġáĭ¨áĪĺáĮ¨áĪ¨áĪ»áĭį": 5700,
      "ĠáĬ¥áĬķáĪµáĪ³áīµ": 5701,
      "áĬ¨áĪĽáī»": 5702,
      "ĠáĪµáīĥáĭŃ": 5703,
      "áĬ«áĪĦáĭ°áĭį": 5704,
      "ĠáĪ°áĪĮáĭ³": 5705,
      "ĠáĭįáĪµáī¥áĪµáī¥": 5706,
      "Ġáĭ¨áī°áĪĺáĪ¨": 5707,
      "ĠáĪģáĪīáĪĿĠáĭ¨": 5708,
      "áĪĺáĬķáīµ": 5709,
      "ĠáĮ¥áīħáĪŀáī½": 5710,
      "Ġáī³áĪĭáīģ": 5711,
      "áĭįáĪŃ": 5712,
      "áĮ¥áĬĵáīµ": 5713,
      "Ġáĭ«áĭ°áĪ¨áĮī": 5714,
      "áĭĪáĮł": 5715,
      "áī±áĬķáĪĿ": 5716,
      "ĠáįįáīµáĪħ": 5717,
      "ĠáĮĢáĪŃ": 5718,
      "Ġáī°áīĢáī¥": 5719,
      "ĠáĭĪáĪ°áĬķ": 5720,
      "ĠáĮįáĭµáĮįáĭ³": 5721,
      "ĠáĪĺáĮłáĭ¨áīħ": 5722,
      "Ġáĭ¨áĬķ": 5723,
      "ĠáĬ¥áĪ°áĮ£": 5724,
      "ĠáĬłáĭ°áĪ¨áĮī": 5725,
      "áĪħáīłáĪ¨áĪ°áī¥": 5726,
      "áĮĪáī¢áĭ«": 5727,
      "ĠáĪĪáĪĺáĪĦáĭµ": 5728,
      "Ġáĭ¨áĬłáĪĺ": 5729,
      "ĠáĬ«áĪĭáī¸áĭį": 5730,
      "ĠáīħáĮ£áīµ": 5731,
      "ĠáĪĿáĬŃáĬķáĭ«áīµĠáĭ¨": 5732,
      "ĠáĮĵáĭ°áĬŀ": 5733,
      "áĪħáīµáĬĵ": 5734,
      "ĠáĪĺáĮłáīĢ": 5735,
      "áĪ°áĭįáĬķ": 5736,
      "áĬŃáįĪáĪį": 5737,
      "ĠáĭįáĪį": 5738,
      "ĠáĪ°áĭİáī½ĠáĪģáĪī": 5739,
      "ĠáĬłáĪµáīĢáĭµ": 5740,
      "ĠáĭĿáĪĿáĭµ": 5741,
      "áĮłáīĢáĪĿáīłáīµ": 5742,
      "áī°áĪĽáĪĺáĬķ": 5743,
      "áīµĠáĬĲáĮĪáĪŃ": 5744,
      "áĪĿĠáĬĲáĮĪáĪŃĠáĮįáĬķ": 5745,
      "Ġáīłáī¤áī°": 5746,
      "áīłáĭĿ": 5747,
      "áįĪáĪµ": 5748,
      "áĬĿĠáĬĲáīłáĪŃĠ": 5749,
      "ĠáīĢáĭ°": 5750,
      "áĭĽáī¸áĭį": 5751,
      "ĠáĬłáĭŃáĮĪáī£": 5752,
      "ĠáĮĪáįĢ": 5753,
      "ĠáĬłáĪĪáī£áī¸áĭįĠ": 5754,
      "áī£áī¢áĪİáĬķ": 5755,
      "ĠáĪĺáĪĪáĪµ": 5756,
      "áĬ¨áĪ°áī±": 5757,
      "áĮİáī¥áĬĺ": 5758,
      "Ġáĭļ": 5759,
      "áī°áĬĵáĪįĠ": 5760,
      "áĭ°áĬĲáĮĪ": 5761,
      "ĠáĭĪáĭ°ĠáĪĮáĪĭ": 5762,
      "ĠáĬ¥áĪ±áĬķ": 5763,
      "áīªáĭ²áĭ®": 5764,
      "áĪĪáĪĺáĭ±": 5765,
      "áĮ¬": 5766,
      "ĠáĬ¥áĮ©": 5767,
      "ĠáĬ¥áĬĵáī´": 5768,
      "ĠáĬ¢áĪ³": 5769,
      "ĠáĬ¥áĭ«áĪī": 5770,
      "ĠáĪĪáĪµáĪĭáĪ³": 5771,
      "áĬŃáĪŃáĪµáī²áĭ«": 5772,
      "ĠáĬ¥áĬĵáĭ°áĪŃáĮĭáĪĪáĬķĠ": 5773,
      "ĠáįĬáīµĠáĪĪáįĬáīµ": 5774,
      "ĠáĬ¨áĪĺáĮłáĬķĠáīłáĪĭáĭŃ": 5775,
      "áīłáīģ": 5776,
      "ĠáĬ¨áĭĭ": 5777,
      "ĠáĭŃáī³áĭĪ": 5778,
      "áĬ¨áīłáĪ©": 5779,
      "áĬ«áĪ½": 5780,
      "ĠáĬŃáĪĭ": 5781,
      "Ġáĭ¨áĪĽáĪµáī°": 5782,
      "ĠáĬªáĬķáĮį": 5783,
      "ĠáīµáĬ©áĪµ": 5784,
      "áī³áĪĽáĬĿáĬĲáīµ": 5785,
      "ĠáĬ¨áĮ¥áīĤáīµ": 5786,
      "áīĥáĮłáĪįĠáĪĺáī£": 5787,
      "áĭĿáīĥáĭĽ": 5788,
      "áĪįáĬĵáĪįĠ": 5789,
      "ĠáĬłáĮĪáĬĺ": 5790,
      "áĪĺáĭ±": 5791,
      "ĠáĪĿáĪģ": 5792,
      "ĠáĪįáī¤": 5793,
      "ĠáĪĪáĪĺáĬĸáĪŃ": 5794,
      "áĮĪáī£áĬĽáĪį": 5795,
      "ĠáĪĺáĪµáįĪ": 5796,
      "áĭŀáĪŃ": 5797,
      "ĠáĮ£áĬ¦": 5798,
      "ĠáĬłáĪĪáĪĿĠáĭįáĪµáĮ¥": 5799,
      "áĬĵáĮĪáĪ¨áĭįáĬķ": 5800,
      "áįĮáĭ´áĪ«áĪį": 5801,
      "áĪĿáįĴáĭ©áī°áĪŃ": 5802,
      "áĪįáĬ«áĪĿ": 5803,
      "áĪĪáĬĵáĪįĠ": 5804,
      "áĪĺáĮĪáī¥": 5805,
      "ĠáĪĺáĪĽáĪŃ": 5806,
      "ĠáĬ¨áī¥áĭĻ": 5807,
      "áī¶áī½ĠáĪĭáĭŃ": 5808,
      "ĠáīħáĪ¬": 5809,
      "áĭ¶ĠáĮ¥áĮĪáĬĵ": 5810,
      "áī·áī¸áĭį": 5811,
      "áīĢáĪŃáīł": 5812,
      "Ġáĭ¨áĬ¢áĬķ": 5813,
      "áĬ®áĬĸáĪļáĭ«": 5814,
      "ĠáĭĪáĭµáĮĦ": 5815,
      "ĠáĪĿáĮįáī¦áī½": 5816,
      "áĪĪáīµĠáī°áĬ¥": 5817,
      "Ġáĭ¨áĬ©": 5818,
      "ĠáĪĪáĬ¢": 5819,
      "Ġáī°áĮĪáĬĿ": 5820,
      "Ġáī°áĪįáĬ¥áĬ®": 5821,
      "ĠáĮįáĪ©áĪĿ": 5822,
      "ĠáĮĪáĭĽ": 5823,
      "ĠáīĨáĪ®áĬķáī¶áĪµ": 5824,
      "ĠáĭĪáĪ¨áīĢáīµ": 5825,
      "ĠáĪ°áĪĽáĭ«": 5826,
      "ĠáĪĢáĭĭáĪŃáĭ«": 5827,
      "áĮİáī¥áĬĻ": 5828,
      "ĠáĭŃáĮłáīĢáĪĻ": 5829,
      "ĠáīłáĪĺáĮłáīĢ": 5830,
      "ĠáĪĢáĪĿ": 5831,
      "áīģáĮ£": 5832,
      "áĪĿĠáĭ¨áĪĨáĬĲ": 5833,
      "áĭ¶áī¹": 5834,
      "ĠáĭŃáĪĨáĭĭĠáĬ¥áĬķáĭ²áĪħĠáĭŃáĪĭáĪį": 5835,
      "ĠáĪµáīµáĪ«": 5836,
      "ĠáĪĺáĪŃáĪĢ": 5837,
      "Ġáī³áĪĭáĪĭáīħ": 5838,
      "áĬŃáįī": 5839,
      "áĬ¥áĪĪáī±": 5840,
      "áĭ³áĪį": 5841,
      "ĠáĪĪáĪĺáĮĢáĪĺáĪŃ": 5842,
      "áīĨáĮłáĪŃ": 5843,
      "ĠáĬ¤áįĮ": 5844,
      "áĮ¦áĪ½": 5845,
      "ĠáĪĺáĮ¥áī¶": 5846,
      "ĠáĪĿáĭµáĪªáī±": 5847,
      "Ġáĭ¨áī¥áĪŃ": 5848,
      "áĭ«áĪīĠ": 5849,
      "áĮįáĪ³": 5850,
      "áįĪáĮłáĪ¨áĭį": 5851,
      "áīµĠáĬłáīµ": 5852,
      "áĬķĠáĬłáĪĪ": 5853,
      "áįĥáįī": 5854,
      "áĪ¸áĪ«": 5855,
      "Ġáī£áĪįáĬĵ": 5856,
      "ĠáįķáĪ®áĮĢáĬŃáīµ": 5857,
      "ĠáĬłáĪ¨áĬķáĮĵáĭ´": 5858,
      "áĪĻáĬĵ": 5859,
      "áĪ»áĮĪáĪŃ": 5860,
      "ĠáįįáĪĪáĮĭ": 5861,
      "áĪĿĠáĭ¨áĪĽ": 5862,
      "ĠáĬłáĪĺáĮ£": 5863,
      "ĠáĬłáīħáĪ«áī¢áĭ«": 5864,
      "ĠáĪĽáĪ³áĪ°áī¢áĭ«": 5865,
      "ĠáĭŃáīĢáĮ¥": 5866,
      "áī£áĮŃ": 5867,
      "Ġáī¥áīĥ": 5868,
      "Ġáĭ¨áĬłáīµáĬŃáĪįáīµ": 5869,
      "áĬ¤áįį": 5870,
      "ĠáĬ¥áĪµáĪŃ": 5871,
      "áĪ¨áĭįĠ": 5872,
      "ĠáīĨáĪŀ": 5873,
      "ĠáĬłáĭŃáĭ°áĪīáĪĿĠ": 5874,
      "ĠáĪĦáĭ¶": 5875,
      "áĪĨáĬĵáī½áĬķ": 5876,
      "ĠáĪ°áĪ«áĭĬáīµ": 5877,
      "ĠáĬ¥áĬĵáĪĺáĪ°áĮįáĬĵáĪĪáĬķ": 5878,
      "ĠáĪĽáĬŃáĪ°áĬŀ": 5879,
      "ĠáīłáĮİáī½": 5880,
      "áĬĲáī¶áī½áĬķ": 5881,
      "áĭµáĬĳ": 5882,
      "ĠáĪįáī¡": 5883,
      "ĠáīłáĪĺáī³": 5884,
      "áĭĺáĪĿ": 5885,
      "ĠáĬłáĪĺáī³áĭĬ": 5886,
      "ĠáĪĿáĬķáĬĽ": 5887,
      "ĠáĪ«áĪ³áī½áĪģ": 5888,
      "áĮłáĪ«áĭį": 5889,
      "ĠáīĭáĬķáīĭáĭİáī½": 5890,
      "áĬĲáįĥáįĢ": 5891,
      "ĠáĬ¥áĪħáī¶áī½": 5892,
      "ĠáĪĽáīłáĪ¨áī³áī»": 5893,
      "áĪĭáĪĪáĪģ": 5894,
      "áĭ°áīħ": 5895,
      "ĠáĪĭáĭŃĠáĭ«áĪĪ": 5896,
      "áī»áĭŃáĬĵ": 5897,
      "ĠáĭĪáĭ°ĠáĪ°": 5898,
      "áĮ¨áĪĪáĪĽ": 5899,
      "áĪĿĠáĬłáīµ": 5900,
      "ĠáĮīáĭµ": 5901,
      "ĠáĬ¨áįįĠáĭ«áĪĪ": 5902,
      "áĬĵáĮĪáĬĿ": 5903,
      "Ġáī£áĪħáĪŃáĭ«": 5904,
      "áĭ°áĬķáīłáĬĽ": 5905,
      "ĠáīłáĪĿáĭµ": 5906,
      "ĠáĭĭáĬĵĠáĭĭáĬĵ": 5907,
      "áīłáīµáĬķĠáĪĺáĬķáĮĪáĭµ": 5908,
      "ĠáĬ¥áĪĭáī½áĬĭáĪĪáĪģ": 5909,
      "áĬĵĠáĪĪáĪĺ": 5910,
      "áĬķáĭĭ": 5911,
      "ĠáĪĺáĪ¨": 5912,
      "ĠáĭŃáĪĭ": 5913,
      "áĭįáĬķáī²": 5914,
      "áĮ¨áĪµ": 5915,
      "áįĢáĬĵ": 5916,
      "áįĢáĪĢáĭŃ": 5917,
      "ĠáĬĵáī¸áĭįĠáĬ¥áĬĵ": 5918,
      "áī§áĪį": 5919,
      "áĪĿĠáĬłáĪµáįĪáĪĭáĮĬ": 5920,
      "ĠáīłáĪĺáĮ¨áĪ¨áĪ»áĪĿ": 5921,
      "Ġáĭ¨áįįáīħáĪŃ": 5922,
      "ĠáīĢáĮłáĪ®": 5923,
      "ĠáĭŃáī°": 5924,
      "ĠáĪĪáĭŃ": 5925,
      "áĭİáī³": 5926,
      "áĬ«áĬķ": 5927,
      "ĠáīłáĪĺáĬķáĮĪáĭµ": 5928,
      "ĠáĬŃáįįáīµ": 5929,
      "áĭ¨áīµáĬĽáĭįáĪĿ": 5930,
      "ĠáīłáĬ¢áīµáĭ®áĮµáĭ«": 5931,
      "Ġáī½áĮįáĪ©": 5932,
      "ĠáĬ¢áĬķáī¨áĪµáīµ": 5933,
      "áįĦ": 5934,
      "ĠáĬ¥áĪģáĭµ": 5935,
      "áĮįáĭµ": 5936,
      "áīłáī°": 5937,
      "ĠáĪĭáĭŃĠáīłáī°": 5938,
      "ĠáĮĭáĪŃĠáĭ¨": 5939,
      "Ġáįįáīĥ": 5940,
      "áĮĪáĪĪáĮĪ": 5941,
      "ĠáĪĺáĬķáĮįáĪµáī±": 5942,
      "áĬķáīĢáįħ": 5943,
      "Ġáĭ¨áĪĨáĬĲáĭįáĬķĠáĬĲáĮĪáĪŃ": 5944,
      "ĠáĮĪáī¥áī¶": 5945,
      "Ġáī°áīĢáĪĿáĮ¦": 5946,
      "Ġáī¬": 5947,
      "ĠáĭŃáĮĪáĪįáįĥ": 5948,
      "áįĭáĪª": 5949,
      "áīµáĬķĠáĭ«": 5950,
      "áĪŁáī¸áĭį": 5951,
      "ĠáĭįáĮ¤áī¶áī½": 5952,
      "Ġáīº": 5953,
      "Ġáĭ¨áĮīáī£áĬ¤": 5954,
      "ĠáĬłáĮ¥áī¥": 5955,
      "ĠáĭŃáĪ¸": 5956,
      "áĪ°áĭµ": 5957,
      "áįįáĪį": 5958,
      "áīĢáĪ³": 5959,
      "Ġáĭ¨áĪļáī½áĪĪáĭį": 5960,
      "Ġáĭ¨áĪĺáĬĸáĪªáĭ«": 5961,
      "áĪ¯áĭĬ": 5962,
      "Ġáī°áīĢáĪĺ": 5963,
      "ĠáĬ¨áĬ¥áĬĽĠáĮĭáĪŃ": 5964,
      "ĠáĪĪáī³": 5965,
      "áĪªáĬķ": 5966,
      "Ġáĭ¨áī°áĭĪ": 5967,
      "ĠáĪĪáĪĺáĪĺáĪĪáĪµ": 5968,
      "áĪĿĠáīłáĬĭáĪĭ": 5969,
      "ĠáĭĽáįİáī½": 5970,
      "áīĪ": 5971,
      "áįĪáīħáĭµ": 5972,
      "áĭİáī½áĬķĠáīł": 5973,
      "ĠáĪĽáĪ°": 5974,
      "Ġáĭĺáįį": 5975,
      "ĠáĬ®áĪªáĭ«": 5976,
      "ĠáĬ®áĬ¨áī¥": 5977,
      "áįĪáĪŃáĬ¦áĬķ": 5978,
      "ĠáĬĲáīłáĪ¨Ġ": 5979,
      "áīħáĭµáĪĺ": 5980,
      "Ġáī¶áĪİ": 5981,
      "ĠáĪµáĪ«ĠáĬłáĪµáĬªáĭ«": 5982,
      "Ġáĭ¨áĪ°áĪĽ": 5983,
      "Ġáīłáī¤áīµ": 5984,
      "ĠáīłáĬĲáĮĪ": 5985,
      "áĭŃáĭµ": 5986,
      "áĭ°áī¡": 5987,
      "áĮłáįį": 5988,
      "áĪ³áīµĠáĬł": 5989,
      "ĠáĪĽáĪĺáĪįáĬ¨áī»": 5990,
      "áĭ³áĭ²áĪµ": 5991,
      "ĠáĪ°áĬŀ": 5992,
      "Ġáī£áīµ": 5993,
      "ĠáĪ²áĭ°áĪŃáĪµ": 5994,
      "ĠáĭĿáĪĿ": 5995,
      "ĠáĬłáĭµáĪŃáĮī": 5996,
      "ĠáĬłáĪµáī°áĪĽáĪĽáĬĿ": 5997,
      "áĬķáĮĢáĪį": 5998,
      "ĠáīµáĬŃáĬŃáĪĪáĬĽáĭį": 5999,
      "áĮ«áĭĪáī±": 6000,
      "Ġáīłáĭ°áĪµáī³": 6001,
      "Ġáĭ¨áĪ²": 6002,
      "Ġáĭ¨áĭĪáĮ£": 6003,
      "áĪµáī£": 6004,
      "áĭµáĪĽ": 6005,
      "áįįáī³áīµ": 6006,
      "áĪįĠáįį": 6007,
      "ĠáīłáĪĺáĪµáĮłáīµ": 6008,
      "áĭĽáĪ¬": 6009,
      "Ġáĭ¨áĪĺáĪµáĪĺáĪŃĠáĪĭáĭŃ": 6010,
      "ĠáĬĵáīµ": 6011,
      "ĠáĬ¥áĪ±áĪĿĠáīł": 6012,
      "Ġáĭ«áĬķáī¥": 6013,
      "Ġáĭ¨áĪļáĬ¨áī°áĪĪáĭįáĬķ": 6014,
      "ĠáĬłáĭįáĪ®áįķáĪĭ": 6015,
      "áī°áĪ®áī½": 6016,
      "ĠáĭŃáĮłáĭŃ": 6017,
      "Ġáĭ¨áĪļáĭĪ": 6018,
      "Ġáī³áī½": 6019,
      "Ġáĭ¨áĪļáĭ«áĪµáī°": 6020,
      "ĠáīħáĮ¥áĪŃ": 6021,
      "ĠáĬ¥áĪµáī´": 6022,
      "Ġáĭ«áĪµáī½": 6023,
      "ĠáīµáĪįáīħĠáī¦áī³": 6024,
      "áĬĲáĮĭáĮį": 6025,
      "ĠáĪģáĪĭáī½áĬķáĪĿ": 6026,
      "Ġáĭ¨áįħ": 6027,
      "áĪĺáĪĿ": 6028,
      "Ġáĭ¨áĪļáī£áĪį": 6029,
      "Ġáĭįáīłáīµ": 6030,
      "ĠáĪ°áĭįáĬĲáīµ": 6031,
      "ĠáĬ¥áĪµáĬ¨ĠáĭĽáĪ¬": 6032,
      "ĠáĪ°áĪĭáĪĽáĭĬ": 6033,
      "ĠáīĢáĮ¥áī°áĬĽ": 6034,
      "Ġáī°áĭĪáĬ«áĭ®áī½": 6035,
      "áĭįáĪ®áįķáĪĭ": 6036,
      "ĠáīłáĪħáĮį": 6037,
      "áĪĿáī¶": 6038,
      "Ġáĭ¨ĠĠ": 6039,
      "ĠáīłáĭŃ": 6040,
      "ĠáīłáĬ¦": 6041,
      "ĠáīłáĭŃáĪģáĭ³": 6042,
      "áĪĪáĭ©": 6043,
      "ĠáĭŃáĭĪáĮ£": 6044,
      "áĭµáīĥ": 6045,
      "ĠáĪĪáī£": 6046,
      "ĠáĭĪáĭ®": 6047,
      "ĠáĬĲáĮĪáĪŃĠáĬĲáĭįĠ": 6048,
      "áĮ¨áĬĵ": 6049,
      "ĠáīłáĬłáĭŃ": 6050,
      "áīµĠáĭ¨áīł": 6051,
      "ĠáĪĺáĪĨáĬĳáĬķĠáĬł": 6052,
      "áįĪáįħáĪŀ": 6053,
      "áĬķáī£áī³": 6054,
      "Ġáĭ¨áĬĲáīłáĪ©áīµ": 6055,
      "áĪĿĠáĪįáĮĨáī½": 6056,
      "ĠáīłáĮīáī£áĬ¤": 6057,
      "áĪ³áĪĪáĪģ": 6058,
      "áĮĪáĪĪáįħ": 6059,
      "áĭįáīĢáĭį": 6060,
      "áĭ«áī½áĬķ": 6061,
      "Ġáī°áĬĵáĮĪáĪ¨": 6062,
      "áĮ£áĮ£": 6063,
      "áĬĿĠáĬ¥áĬĵ": 6064,
      "áīģáĪ¨áĮ¥": 6065,
      "ĠáĪħáĭŃáĭĪáī´": 6066,
      "ĠáĪ®áĪĿ": 6067,
      "ĠáīłáĬ¥áĪŃáĮįáĮ¥áĪĿ": 6068,
      "ĠáĬŃáįįáĪĪĠáĮĬáĭľ": 6069,
      "ĠáĮĲ": 6070,
      "áĪ³áĪīĠ": 6071,
      "Ġáī¥áĪ¨áīµ": 6072,
      "ĠáīłáĪĺáĪĦáĭµ": 6073,
      "áīµĠáĬłáĬķáĭ³áĬķáĭµ": 6074,
      "ĠáĮĭáĪŃĠáīłáĪļ": 6075,
      "áĭ®áĪŃáĬŃ": 6076,
      "ĠáįįáĪ«": 6077,
      "Ġáĭ¨áĬ¥áĬĲáĭļáĪħ": 6078,
      "áĬ¨áĬĵáĭĪáĬĳ": 6079,
      "áĭŁáĪįĠ": 6080,
      "ĠáĬŃáī¥áĭ°": 6081,
      "ĠáĮīáĭµáĮĵáĭµ": 6082,
      "áĬłáī¸áĭį": 6083,
      "ĠáĬ¥áĬķáĭ²áĪ¨áĭ³": 6084,
      "ĠáĬłáĭŃáĬķ": 6085,
      "ĠáĬłáĪĪáīĨáī½": 6086,
      "ĠáĮĢáĪįáī£": 6087,
      "Ġáĭ«áĪµáĭ°": 6088,
      "ĠáĮİáĬķ": 6089,
      "áĭ°áĬķáīłáĬŀáī½": 6090,
      "Ġáī°áĬĵáĮįáĪ«": 6091,
      "ĠáĭŃáĪĺáĪµáĪį": 6092,
      "Ġáĭ¨áĪĮáĪĭáī¸áĭį": 6093,
      "ĠáĮĭáĪŃĠáĭ¨áī°áĭ«áĭ«áĭĺ": 6094,
      "Ġáĭ¨áįĵ": 6095,
      "áīħĠ": 6096,
      "ĠáĭįáĪµáĮ¥Ġáĭ«áĪĪáĭįáĬķ": 6097,
      "ĠáĪ³áīµ": 6098,
      "áĪ·áĪį": 6099,
      "áī³áĭįáīģ": 6100,
      "ĠáĪĺáĭĿáĬĵ": 6101,
      "ĠáĭįáĭŃáĭŃáīµ": 6102,
      "ĠáĮįáĭĻáįį": 6103,
      "ĠáĭŃáĪģáĬķĠ": 6104,
      "ĠáĪĽáĪ¨áįĬáĭ«": 6105,
      "áĮĭáī£": 6106,
      "áĬĿáĬķ": 6107,
      "ĠáĪĨáĬĵ": 6108,
      "áĪ¬áĭİáī½": 6109,
      "ĠáĬłáĪĺáįħ": 6110,
      "áĬķĠáĪĺáĪĺáĪªáĭ«": 6111,
      "ĠáĪļáĪµáī±": 6112,
      "ĠáĬłáĪīáīµ": 6113,
      "áĭ³áĭ©": 6114,
      "áįĭáĪį": 6115,
      "ĠáĪĿáĪµáĪ«áī¹": 6116,
      "ĠáĭŃáĭį": 6117,
      "áĭĭáĭŃ": 6118,
      "ĠáĪĭáĭŃĠáī°áįħáĬ¥áĬĸ": 6119,
      "ĠáīłáĬ¢áĭ¨áĪ±áĪµ": 6120,
      "ĠáĭĪáĪ°áĭ°": 6121,
      "ĠáĪ°áĬĲáĭµ": 6122,
      "áĮĵáĮĵáĭ£": 6123,
      "áĪµáĬĲ": 6124,
      "Ġáĭ¨áĬłáĪĪ": 6125,
      "áĮŃáīłáĪŃ": 6126,
      "ĠáĬ¤áĪŃáīµáĪ«": 6127,
      "ĠáĭĪáĭŃáĪĿĠáīłáĬł": 6128,
      "ĠáĬĸáĪ¬": 6129,
      "ĠáĬĲáĮĪáĪµáī³áīµ": 6130,
      "áĬ®áĬĸáĪļáĭ«áĭĬ": 6131,
      "áĪĿĠáĬĲáĭį": 6132,
      "ĠáĬ¨áĬķáī±": 6133,
      "áĪ³áī±": 6134,
      "Ġáĭ¨áĪļáĪĺáĪ«": 6135,
      "ĠáĪ²áĪĦáĭµ": 6136,
      "áī¢áĭİáī½": 6137,
      "áīµáĬķĠáĬĲáĮĪáĪŃ": 6138,
      "Ġáĭ«áĪĪáī¥": 6139,
      "Ġáī£áĪĪáįīáīµ": 6140,
      "ĠáĬ¤áĬŃáĪµ": 6141,
      "ĠáĬłáĪģáĬķĠáĮįáĬķ": 6142,
      "ĠáīµáĪĿáĪħáĪŃáīµĠáī¤áī¶áī½": 6143,
      "áĭľáĬĵ": 6144,
      "ĠáĪĺáĪĪáĪ°": 6145,
      "áĮ¨áĭĭáī³": 6146,
      "áĭµáĪ«": 6147,
      "áĭ³áĪ´": 6148,
      "ĠáĬ¥áĬķáĭ°áĪĨáĬķáĬ©": 6149,
      "ĠáĬķáĪµáĪĢ": 6150,
      "ĠáĬ¥áĬķáĮįáĭ²áĭ«áĭį": 6151,
      "áīµĠáīłáĪĽáĭµáĪ¨áĮį": 6152,
      "ĠáĪĪáīłáĪĪáĮłĠáĪĺáĪ¨áĮĥ": 6153,
      "áĪĪáīµĠáī°áĬ¥áĪĪáīµ": 6154,
      "ĠáīłáĬ¨áī°áĪĽ": 6155,
      "áĮĭáī½áĬķ": 6156,
      "áĬ«áī¸áĭį": 6157,
      "Ġáĭ¨áĪĨáĬĲáĭįĠáĭ¨": 6158,
      "áĮĭáĮ¥áĪĻ": 6159,
      "ĠáīłáĭįáĪĢ": 6160,
      "ĠáĪĮáĪĬáīµ": 6161,
      "ĠáĬłáĪ³áĪįáįİ": 6162,
      "Ġáĭ¨áĭµáĬķ": 6163,
      "ĠáĪĺáĭ«áĭĿ": 6164,
      "ĠáĪĪáīµ": 6165,
      "áįįáĪ¨": 6166,
      "áīµĠáīłáĪĭáĭŃ": 6167,
      "áĭ°áĪ¨áĪ±": 6168,
      "ĠáĪĿáĪ³áĪĮĠ": 6169,
      "ĠáīµáĬŃáĬŃáĪĪáĬĽáĭįáĬķ": 6170,
      "ĠáĪĽáĬķáĬĽáĭįáĬķáĪĿĠáĬĲáĮĪáĪŃ": 6171,
      "ĠáĮ¢áĪŀáī´áĭİáĪµ": 6172,
      "Ġáī°áĭ°áĪŃáĮİ": 6173,
      "Ġáĭ°áĪħáĬķáĬĲáī±Ġáĭ¨áī°áĮłáīłáīĢ": 6174,
      "Ġáĭ¨áĮĭáĪ«": 6175,
      "áĬĵáī¸áĭįáĬķ": 6176,
      "ĠáĪĺáĪĺáĪĪáĪµ": 6177,
      "áĪ¨áĬķáĪµ": 6178,
      "áī¥áĪĭ": 6179,
      "ĠáĭŃáĪ»": 6180,
      "áĬ¨áĪī": 6181,
      "Ġáĭ¨áĪļáĬĸáĪŃ": 6182,
      "áĭįáĬķĠáĪģáĪī": 6183,
      "áĭĺáĭĺáĭį": 6184,
      "Ġáĭ¨áĬłáĭįáĪ®áįĵ": 6185,
      "ĠáĭĺáįįáĮ¥áĪ¨áīµ": 6186,
      "ĠáĬłáĪįáī»": 6187,
      "áī·áĬķ": 6188,
      "áĪŁáĪį": 6189,
      "ĠáĮ¥áīłáīłáĬĽ": 6190,
      "ĠáĬ«áĪħáĬĵáī±": 6191,
      "áīĥáĪª": 6192,
      "ĠáĪĢáĭ«áĪį": 6193,
      "ĠáĮĪáĭ¥": 6194,
      "ĠáĭĺáįĪ": 6195,
      "áįĵáĪŃáīµ": 6196,
      "ĠáĪ¸áĪĽ": 6197,
      "áĭµáĪŃáĮħáī±": 6198,
      "áīµĠáĬłáĭŃáĭ°áĪĪáĪĿĠ": 6199,
      "Ġáĭ³áĭŃáĪ¬áĬŃáī°áĪŃ": 6200,
      "ĠáįįáīµáĪĢáĭĬ": 6201,
      "áĪŃáī»": 6202,
      "ĠáĪĺáĬĸáĪ©": 6203,
      "áĪ«áĪĦ": 6204,
      "ĠáĬ¥áĬĵĠáĪµáĪĪ": 6205,
      "Ġáĭ¨áĪļáī½áĪīáīµ": 6206,
      "ĠáīłáĪĺáĪ°áĪ¨": 6207,
      "ĠáĪĢáĭĺ": 6208,
      "áīµáĬķĠáĪĪáĪĽ": 6209,
      "ĠáīħáĬĵáĪ½": 6210,
      "ĠáįĪáĪª": 6211,
      "áĪµáĪĽáīµ": 6212,
      "ĠáĮ¥áĪŃáĮ¥áĪŃĠáĭ¨áĪĪáĭįáĪĿĠ": 6213,
      "ĠáĪĭáĭŃĠáĬĲáĭį": 6214,
      "ĠáĮįáĪĿ": 6215,
      "áĮŃáĬĲáīµ": 6216,
      "ĠáīłáĪļáĮĪáĬĺáĭį": 6217,
      "ĠáĬ¨áĭļáĪħĠáīłáĬĭáĪĭ": 6218,
      "ĠáĬłáĪĽáĪ«áĮ®áī½": 6219,
      "Ġáīłáĭ¨áĬłáĪĺáī±": 6220,
      "ĠáĬ¢áĬķáī½": 6221,
      "ĠáĬłáī¥áĭĽáĬĽáĭįáĬķĠáĮĬáĭľ": 6222,
      "áĬŃáī°áĪ®áī½": 6223,
      "áĭİĠáīłáįĬáīµ": 6224,
      "Ġáī°áĮłáīĥáĪļáĭİáī½": 6225,
      "ĠáĬ¥áĬĵáĭįáīĥ": 6226,
      "Ġáĭ¨áĬłáĪµáī°áĭ³áĭ°áĪŃ": 6227,
      "ĠáĭĪáĭŃáĪĿĠáĪĮáĪĭ": 6228,
      "áĬĴáĬ¬": 6229,
      "ĠáįĪáĮ£áĪª": 6230,
      "ĠáīłáĪļáĪį": 6231,
      "ĠáĪĪáĬłáī£": 6232,
      "ĠáĪµáīµáĪį": 6233,
      "ĠáĪĿáĪ½áīµ": 6234,
      "ĠáĬłáĪ¸áĬĵáįĬ": 6235,
      "ĠáĪµáįĶ": 6236,
      "Ġáī°áĭĺáĮĭáĮħ": 6237,
      "ĠáĪĪáĪĺáĭįáĪ°áĭµ": 6238,
      "áĪµáī°áĬ«áĬ¨": 6239,
      "áĭĽáĭį": 6240,
      "ĠáĭĪáĭŃáĪĿĠáĬ¨áĭļáĭ«ĠáīłáĪĭáĭŃ": 6241,
      "ĠáĭĿáĪŃáĭĿáĪ®áī½": 6242,
      "ĠáīĢáĬĵáīµĠáĭįáĪµáĮ¥": 6243,
      "Ġáĭ°áīĤáīĥáĭİáī½": 6244,
      "ĠáĪĪáĪ°áĭİáī½": 6245,
      "áĭ°áĬĲ": 6246,
      "ĠáĬĲáĪħĠ": 6247,
      "áīĢáĪ±": 6248,
      "áīĥáĪ¨": 6249,
      "ĠáĭĪáĭ°Ġ": 6250,
      "ĠáĪĮáĪİáī¹": 6251,
      "áĮłáĪ«áīĢ": 6252,
      "áĮĪáĭĽáĭĿ": 6253,
      "ĠáīłáĪĺáĮĢáĪĺáĪªáĭ«áĭį": 6254,
      "Ġáĭ¨áĬłáĭ¨áĪŃĠáĪģáĬĶáī³": 6255,
      "áĪĿáĪįáĬ®": 6256,
      "áĪĪáĬķĠáīł": 6257,
      "áĪ¨áĪ³": 6258,
      "áĭµáĪ®": 6259,
      "áĪ³áĭ¨áīµ": 6260,
      "áĮ£áĪīĠ": 6261,
      "ĠáīłáĪĺáīĢáĮłáĪį": 6262,
      "ĠáĭĪáĭ°ĠáĭįáĮŃ": 6263,
      "áĭĺáĭĺ": 6264,
      "ĠáĬłáĭŃáī½áĪįáĪĿĠ": 6265,
      "áĬķĠáĪĺáĬ«áĬ¨áĪį": 6266,
      "Ġáĭ¨áĪĽáĪħáīłáĪ«áĭĬ": 6267,
      "ĠáĬłáīħáĪŃáī¦": 6268,
      "áĭĿáĪŃáĭĿáĪŃ": 6269,
      "áĭįáĪµáĮ¥": 6270,
      "áī°áĬ©": 6271,
      "áĪ¨áĪĿáīµ": 6272,
      "áĭµáĪµáīµ": 6273,
      "ĠáĪĪáĬ«": 6274,
      "ĠáĪĪáĪħáĭĿáī¡": 6275,
      "ĠáĪµáĪĭáĪĪ": 6276,
      "Ġáī°áĮ¨": 6277,
      "Ġáī°áĪ³áīµáįİ": 6278,
      "áĪ®áĮ¥": 6279,
      "áīĥáĪĪáĪģĠ": 6280,
      "ĠáĪįáĭįáĭį": 6281,
      "Ġáĭ°áĪĺáĬĵ": 6282,
      "ĠáĬ«áĪµ": 6283,
      "áĬªáĭİáī½": 6284,
      "Ġáĭ¨áĪ°áĭįĠáĪįáĮĨáī½": 6285,
      "Ġáī£áĪĪáī¤áī¶áī½": 6286,
      "áĬ¨áĬĵáĭįáĬĳ": 6287,
      "ĠáĬłáĭŃáĪģáĭ³áĭįáĭ«áĬķ": 6288,
      "ĠáĮłáīħĠáĭ«áĭµáĪŃáĮīĠ": 6289,
      "áĪħáĪ©": 6290,
      "ĠáĪĪáĭ°": 6291,
      "ĠáĪ°áĭ¶": 6292,
      "ĠáĬ¥áĬķáĭ°ĠáĪĨáĬĲ": 6293,
      "áĪĬáĭ«áĬķ": 6294,
      "ĠáĬłáĬķáĭµĠáĮĬáĭľ": 6295,
      "ĠáĬ¤áĪĿ": 6296,
      "ĠáĪ¶áĪµ": 6297,
      "áįĪáīĥáĭ°áĬĿáĬĲáīµ": 6298,
      "Ġáĭ«áĭ°áĪŃáĮĪáĭĭáĪį": 6299,
      "áĭ³áĪ¨áĪ»": 6300,
      "ĠáĪªáįĲáī¥áĪĬáĬŃ": 6301,
      "Ġáĭ¨áĪ¸": 6302,
      "áĪĺáĭĭáĪįĠ": 6303,
      "áįĬáīµĠáīł": 6304,
      "Ġáĭ¨áĬ¥áĭįáĬĲ": 6305,
      "áĭĪáĪµáĭ°áĭį": 6306,
      "Ġáĭĺáĭ´áĭİáī½": 6307,
      "ĠáĪĺáĭ«áĭ£": 6308,
      "ĠáĬĲáįĭ": 6309,
      "áĬŃáĪī": 6310,
      "Ġáī°áĬł": 6311,
      "Ġáĭ¨áĪļáĪĨáĬĲ": 6312,
      "Ġáĭ¨áĪļáĮĪáĪįáįħ": 6313,
      "ĠáĪĪáĬ¥áĬĲáĪŃáĪ±": 6314,
      "áī¥áĭĽáĬĽáĭİáī¹": 6315,
      "áĪįáĭ«áĭµ": 6316,
      "áĭĿáĮįáĮħ": 6317,
      "áĭįáī¶": 6318,
      "Ġáĭ¨áĬŃáĪŃáĪµáī¶áĪµ": 6319,
      "áĮįáī¢áĭ«": 6320,
      "ĠáĭŃáĭ°áĪŃ": 6321,
      "Ġáĭ«áĮĪáĪĪáĮį": 6322,
      "Ġáĭ¨áĪļáĪ¨áĭ±": 6323,
      "ĠáĪĿáī¾": 6324,
      "ĠáīłáĪĺáĮ£": 6325,
      "Ġáĭ¨áĬłáĪį": 6326,
      "ĠáĬłáĬķáĭµĠáĬłáĭŃáĬĲáīµ": 6327,
      "ĠáĬ¥áĪŃáĬ«áī³": 6328,
      "ĠáīģáĪĿ": 6329,
      "ĠáĬ¨áĭļáĭ«áĪĿĠáĬł": 6330,
      "ĠáĬ¥áĬķáĭ³áĪĪáī£áī¸áĭį": 6331,
      "Ġáĭ°áĮĭáįĬ": 6332,
      "ĠáĬĲáī¢áĭŃ": 6333,
      "ĠáĮ£áĪįáīĥ": 6334,
      "ĠáĪĺáĪ¸": 6335,
      "ĠáĬ¨áĪ°áĪĽáĭŃ": 6336,
      "áī³áĭĺáĭĿ": 6337,
      "ĠáĪµáĪª": 6338,
      "Ġáĭ¨áĪļáĮĪáĬĺáĭį": 6339,
      "Ġáĭ¨áī°áĮĪáĬĺ": 6340,
      "ĠáīĢáĭĿáīĥáĭĽ": 6341,
      "áīĨáĭ¨áīµ": 6342,
      "ĠáĪ³áĪ«": 6343,
      "áįĢáĪĪáĭŃ": 6344,
      "ĠáĪĺáĮłáĭŃ": 6345,
      "áĮĪáĪįáĮĭáĭŃ": 6346,
      "Ġáĭ¨áī³áĭĪáīĢ": 6347,
      "Ġáī£áĪªáĭ«áĭİáī½": 6348,
      "Ġáĭ¨áĪļáĭ«áĪ³áĭ©": 6349,
      "ĠáīłáĪ²": 6350,
      "áĪĺáĪ©Ġ": 6351,
      "ĠáĪĺáĮįáī£": 6352,
      "áĪ°áĭĭáĪįĠ": 6353,
      "áĮ¥áī¶": 6354,
      "Ġáī°áĪ°áī¥": 6355,
      "áĮ£áĭĬ": 6356,
      "áĮĭáĭį": 6357,
      "ĠáĪĪáĪĺáĮłáīĢáĪĿ": 6358,
      "áĭĽáĬĿ": 6359,
      "ĠáĪĢáĪĻáĪµ": 6360,
      "ĠáĮĪáįĥ": 6361,
      "ĠáĭĺáĭĪáīµáĪŃ": 6362,
      "áįĢáĭ³": 6363,
      "Ġáī£áĪĪáįī": 6364,
      "Ġáĭ«áĪħáĭĮĠ": 6365,
      "ĠáĬ¥áĭ«áĭ°áĮĪ": 6366,
      "ĠáĬ¦áįķáĪ¬": 6367,
      "Ġáĭ¨áĭĪáĬķáĭµ": 6368,
      "ĠáĬ¥áĬĵáĬķáī°áĪĿ": 6369,
      "ĠáĪµáī¥áĪ°áī£áĭİáī½": 6370,
      "ĠáĬ¥áĬĲáĭļáĪħáĬķĠáĬĲáĮĪáĪ®áī½": 6371,
      "áįķáĪ®áĮįáĪ«": 6372,
      "ĠáĭŃáĪ¨áĭ³áĬĵáĪįĠ": 6373,
      "ĠáĬĲáĭĭáĪª": 6374,
      "ĠáĮ¥áĪĭáī»": 6375,
      "Ġáĭ«áĪĪáĪĽáīĭáĪ¨áĮ¥": 6376,
      "áĪµáĬ¤": 6377,
      "ĠáĬłáĬķáĭ´": 6378,
      "ĠáĪĺáīĢáĪĺáĮ«": 6379,
      "áĪĽáī¸áĭįáĬķ": 6380,
      "áī³áĬķáĭ«": 6381,
      "Ġáĭ¨áĪļáĪĺáĮ£": 6382,
      "ĠáĪĽáĪ¨áĮĭáĮĪáĮ¥": 6383,
      "áĭ³áĮį": 6384,
      "áīĥáĪīĠ": 6385,
      "Ġáĭ¨áī°áĪ°áĮłáĭį": 6386,
      "áī¦áī»áī¸áĭį": 6387,
      "áĪ¶áĪŃ": 6388,
      "ĠáĬłáī¥áĪ¨": 6389,
      "ĠáĪģáĪĪáīµĠáĭ¨": 6390,
      "Ġáī°áĮįáī£áĪ«": 6391,
      "ĠáĪĺáī¥áī¶áī½": 6392,
      "Ġáĭ¨áī£áĪĪ": 6393,
      "ĠáĪĺáĪŃáĬ¨áī¥": 6394,
      "Ġáī»áĭŃ": 6395,
      "ĠáīĢáĪŃáī¶": 6396,
      "ĠáīħáĪŃáĬķáĮ«áįį": 6397,
      "áĮĪáĪ°": 6398,
      "áī¸áĪŃ": 6399,
      "ĠáĪĿáĪħáĪ¨": 6400,
      "ĠáīµáįĪáĪįáĮĭ": 6401,
      "áĭĺáĮĪ": 6402,
      "ĠáĮĬáĭľáĭ«áĭĬ": 6403,
      "áĬķĠáĬłáī£": 6404,
      "áĪĻáĭ«": 6405,
      "áī²áĬķ": 6406,
      "ĠáĪįáĮĨáī¼": 6407,
      "áĪĺáĪ«áĪŃ": 6408,
      "Ġáĭ¨áĭĪáĪŃáīħ": 6409,
      "ĠáĬĲáīłáĪ¨áī½": 6410,
      "ĠáĪĿáĭµáī¥": 6411,
      "Ġáĭ°áĮĭáĮį": 6412,
      "ĠáīłĠáĭİáī¹": 6413,
      "áĬĲáī³áī¸áĭįáĬķ": 6414,
      "ĠáĭŃáĪµ": 6415,
      "ĠáĪĪáĪµáĪ«": 6416,
      "ĠáĪĭáĪĪáĪĺ": 6417,
      "ĠáĪĭáĭŃĠáĬ¥áĬķáĭ°": 6418,
      "Ġáĭ¨áĪĺáĪ¨áĮĥ": 6419,
      "áĪľáīµ": 6420,
      "ĠáĪ°áĭİáī½ĠáĮĭáĪŃ": 6421,
      "áī³áĭĪáīģ": 6422,
      "ĠáĬ¥áįĪáĪįáĮĭáĪĪáĪģĠ": 6423,
      "áįķáĪ®áĮĢáĬŃ": 6424,
      "áĪĿĠáĪĺáĬ«áĬ¨áĪį": 6425,
      "Ġáĭ¨áĪĪáīłáīµ": 6426,
      "ĠáĪĺáĬª": 6427,
      "ĠáĭŃáĪĺ": 6428,
      "áĭ¨áĬķ": 6429,
      "Ġáĭ¨áĪĺáĬ¨áĪĭáĬ¨áĭ«": 6430,
      "áĮİáī½áĬķ": 6431,
      "Ġáįįáĭ¨": 6432,
      "áĪ°áī¥áĬłáĭĬ": 6433,
      "ĠáĭŃáĪħáĬķĠáĪĽáĭµáĪ¨áĮį": 6434,
      "ĠáĪĪáĬ¥áĪŃáĪ±": 6435,
      "ĠáĪ¸áĬŃ": 6436,
      "áĬ¨áįĭáįĪáĪį": 6437,
      "ĠáĪµáīµáĪ«áī´áĮĤ": 6438,
      "áī®": 6439,
      "áī°áĭĭ": 6440,
      "áī°áī£áīłáĪŃ": 6441,
      "áĪħáĬķĠáīł": 6442,
      "áī¥áĪªáĬ«": 6443,
      "ĠáĬ¨áĪ¨": 6444,
      "Ġáī¥áĪįáĪħ": 6445,
      "Ġáĭ¨áī°áĬĲáĭ°": 6446,
      "áĭįáĬķĠáĭ«": 6447,
      "ĠáĭĪáĭ°ĠáĬłáĬķáī°": 6448,
      "ĠáĭŃáĪħĠáĬĲáĭįĠ": 6449,
      "ĠáĭĪáĭŃáĪĿĠ": 6450,
      "ĠáĪĺáĬķáĪµáĬ¤": 6451,
      "ĠáĬ«áĪ³": 6452,
      "áĪ²áī¥": 6453,
      "ĠáĪĽáĬķáĬĽáĭįáĪĿĠáĭ¨": 6454,
      "ĠáĬłáī£áī±": 6455,
      "Ġáĭ¨áĪļáĭ«áĪµáĭ°": 6456,
      "ĠáĪ½áįĭ": 6457,
      "ĠáĪĬáĭ«áĭ°áĪŃáĮį": 6458,
      "ĠáĬłáĮĪáĪįáĮĭáĭ®áī¹": 6459,
      "ĠáĪĺáĮ£Ġ": 6460,
      "áĪ³áī°áįī": 6461,
      "ĠáĮĦáĬĶ": 6462,
      "áĮĪáĪ«áĪļ": 6463,
      "áĬŁ": 6464,
      "áĪįáĭ©": 6465,
      "ĠáĬ¥áīµ": 6466,
      "ĠáīłĠáĬĽáĭį": 6467,
      "Ġáī¥áĭĽ": 6468,
      "ĠáĭĪáĭ°Ġáī¤": 6469,
      "ĠáĬłáĭŃáĪĺáĪµ": 6470,
      "ĠáīłáĬłáī¥áĭĽáĬĽáĭį": 6471,
      "ĠáĬ¥áĪµáĬŃ": 6472,
      "ĠáĬ¥áĬĶĠáĮįáĬķ": 6473,
      "áīµĠáĭŃáĬĸáĪŃ": 6474,
      "áīªáĪį": 6475,
      "áīĨáĮ£áĮłáĪªáĭ«": 6476,
      "áĪµáī³áĭĪáīĤáĭ«": 6477,
      "áĬķáīħáĪĭ": 6478,
      "áĬŃáįįáĪį": 6479,
      "ĠáĭŃáĭ°áĭįáĪī": 6480,
      "áĮĪáĪĿáī³": 6481,
      "ĠáĪĺáĮ¡": 6482,
      "áĪĽáĪļáĭ«": 6483,
      "áĮ¥áīłáī¥": 6484,
      "áĭĪáĪ«": 6485,
      "ĠáĪħáĭĿáī¤": 6486,
      "Ġáī¤áī°áĪ°áī¡": 6487,
      "áĪĿáĪĭáĬ«áī½áĬķ": 6488,
      "áĬ¥áĭµĠáĬłáĮĪáĪŃ": 6489,
      "áĭįáĬķáĭµ": 6490,
      "áĪ¨áĬŃ": 6491,
      "ĠáĪµáĪĿáĪħ": 6492,
      "ĠáĬ¥áĬķáĭ²áī½áĪī": 6493,
      "áĮ«áĭİáī½": 6494,
      "ĠáĪģáĬĶáī³áĭį": 6495,
      "áĭ´áĮį": 6496,
      "ĠáĪĺáĮłáĮ¥": 6497,
      "áįĮáĪµáī¡áĬŃ": 6498,
      "áīłáĪĭáĪ¸": 6499,
      "áĮłáīĢáĪĻáīłáīµ": 6500,
      "áĮłáĭ¨áīģ": 6501,
      "Ġáĭ¨áĪļáĮĪáī¡": 6502,
      "Ġáĭ¨áĪļáĭ°áĪ¨áĮį": 6503,
      "áī¶áī»áī¸áĭįáĬķ": 6504,
      "áĭ¨áĭĭ": 6505,
      "áīĨáĪĽ": 6506,
      "ĠáĬĵáīµĠ": 6507,
      "áīµĠáĭŃáĪ°áĪĽ": 6508,
      "ĠáĪĪáī°áĭĪáĪ°áĬĲĠáĮĬáĭľ": 6509,
      "áįħáĬĵáĬĵ": 6510,
      "ĠáĪįáĮĥáī½áĪģ": 6511,
      "Ġáī°áĪŃáįİ": 6512,
      "áĬķáĬĵĠáĭ¨": 6513,
      "Ġáĭ¨áĬĵ": 6514,
      "ĠáĬłáĭ«áĭįáīħ": 6515,
      "áĮĪáĪĿáĮĪ": 6516,
      "ĠáĭŃáĭĪáĭ³": 6517,
      "áĬŃáĪ©": 6518,
      "ĠáĪĪáĪĺáĬĵáĮĪáĪŃ": 6519,
      "áĪĮáĪŃ": 6520,
      "ĠáĪ²áĪįĠ": 6521,
      "áĮįáī£áī¡": 6522,
      "áīµĠáĭŃáįĪáĪįáĮĭ": 6523,
      "áĬķĠáĬłáĭŃáĭ°": 6524,
      "áĬ¨áĪ°áī°": 6525,
      "ĠáĪĿáĬŃáĬķáĭ«áī±áĪĿĠáīł": 6526,
      "áĮĪáĬĲáĭĺáī¡": 6527,
      "Ġáĭ¨áī£áĪħáĪŃĠáĭ³áĪŃáī»": 6528,
      "ĠáĭĪáĬķáĮĮ": 6529,
      "ĠáĬĲáĮ¥áī¦áī½": 6530,
      "ĠáīłáĮ¥áĪ©ĠáĪģáĬĶáī³": 6531,
      "ĠáĪ¼": 6532,
      "ĠáīĦ": 6533,
      "áī³áĪĪáī½": 6534,
      "ĠáĪĪáĪĽáĪĪáīµ": 6535,
      "ĠáĪģáĪīĠáĪĭáĭŃ": 6536,
      "áīµĠáĪĺáī£": 6537,
      "ĠáīłáĪļáĮĪáĬĿ": 6538,
      "Ġáĭ°áĮįáĬĲáīµ": 6539,
      "ĠáĬ®áĬķ": 6540,
      "ĠáĬ¥áĪµáĬ¨áĪļ": 6541,
      "Ġáĭ¨áĪļáĭ«áĪµáįĪáĪįáĮī": 6542,
      "ĠáĬłáĪĿáī£": 6543,
      "áĪ»áĪĪĠáĪģáĬĶáī³": 6544,
      "áįĪáī³áī³áĬĿ": 6545,
      "Ġáĭ¨áĪ´": 6546,
      "áĪĪáĬķĠáĬł": 6547,
      "áĪħáĭĽáī¥": 6548,
      "ĠáĬ¨áĪħ": 6549,
      "Ġáĭ¨áĬłáĮĪáĪįáĮįáĪİáīµ": 6550,
      "ĠáĬ«áĪĿ": 6551,
      "Ġáī¢áĪĬáĭ®áĬķ": 6552,
      "ĠáĬłáĭŃáĭ°áĪīáĪĿ": 6553,
      "áĮłáĭįĠ": 6554,
      "ĠáįħáĪģáįİáī½": 6555,
      "ĠáĪĺáĪ¬áīµ": 6556,
      "áĮįáĪ³áįħ": 6557,
      "áĬķĠáĪµáĪĪ": 6558,
      "ĠáīłáįĪ": 6559,
      "áĮłáĭĭáĪįĠ": 6560,
      "áĭİáī½ĠáĪĺáĬ«áĬ¨áĪį": 6561,
      "Ġáĭ¨áī°áĭĭ": 6562,
      "ĠáĪĪáĪĺáĭ«áĭĿ": 6563,
      "ĠáĪĬáīĥ": 6564,
      "ĠáīłáĬłáĪĽ": 6565,
      "áīµáĬķĠáĭ¨áĪļ": 6566,
      "áĭ°áĪ¨áĪ°áĭį": 6567,
      "ĠáĮłáī¦": 6568,
      "áįİáī¹": 6569,
      "ĠáĮĢáĪĺáĪ©Ġ": 6570,
      "ĠáĬ¥áĬĲáĪ±áĪĿĠáīł": 6571,
      "ĠáĪĿáĬŃáĬķáĭ«áī±áĪĿĠáĭ¨": 6572,
      "Ġáī³áĪªáĬ®áī½": 6573,
      "áĬłáĭĽáĪŃ": 6574,
      "ĠáĪŀáĭ´áĪį": 6575,
      "áĪĿáĪ¨áĭį": 6576,
      "Ġáīłáīĥ": 6577,
      "áĪĪáī£áī¸áĭį": 6578,
      "áĪħáĪī": 6579,
      "áĪ«áĪĺáĭµ": 6580,
      "Ġáī°áī£": 6581,
      "áĪ®áī»áī½áĬķ": 6582,
      "ĠáĮįáī¥áĪ¨": 6583,
      "ĠáĬ¥áĬķáĬ¨": 6584,
      "áĬķĠáĭ¨áĪļáīĨáĮłáĪ©": 6585,
      "ĠáīµáĪĿáĪħáĪŃáī¶áī½": 6586,
      "ĠáĬ¨áĪ°áĭį": 6587,
      "ĠáĬ¨ĠáĬłáĪĺáī³áīµĠáīł": 6588,
      "áįįáĬķ": 6589,
      "ĠáĪĭáĪį": 6590,
      "ĠáĪĪáĪĽáĮĪáĪįáĮĪáĪį": 6591,
      "áĭ±áīµ": 6592,
      "ĠáĬłáĪĺáįĢ": 6593,
      "ĠáĬłáĬķáī£áī¢": 6594,
      "áįĪáįĢáĪĺáĭį": 6595,
      "ĠáĬłáĮĪáĪįáĮįáĪİáī¶áī½áĬķ": 6596,
      "áĪ¾áī½áĬķ": 6597,
      "ĠáĭĪáĭ³áĪĪáĭį": 6598,
      "áĮ§áĪį": 6599,
      "áĬ¨áįĭáįĪ": 6600,
      "Ġáĭ²áĭ«áī¥áĪİáĪµ": 6601,
      "áĬĵáĮĭ": 6602,
      "áĮĪáī°áĬĽ": 6603,
      "áĬ¨áįĪáĪį": 6604,
      "ĠáĮįáī¦áī½": 6605,
      "ĠáĮłáĭĭ": 6606,
      "ĠáĬ¤áĬķ": 6607,
      "áĪĪáĪĿáĭ¶": 6608,
      "áĮĵáĪįĠ": 6609,
      "ĠáĪŃáĪµáīµ": 6610,
      "áįĪáįħáĪĿ": 6611,
      "ĠáįķáĪ®áĮįáĪ«áĪŀáī½": 6612,
      "áĪµáī°áĭ«áĭ¨": 6613,
      "Ġáĭ¨áĬłáĬ«áĪįĠáī¥áīĥáīµĠáĬ¥áĬķáīħáĪµáīĥáĪ´": 6614,
      "áĭ¦": 6615,
      "ĠáĭŃáĪĭáĪī": 6616,
      "áĭĪáĮįáĭ³": 6617,
      "ĠáĪĿáĬķáĭµ": 6618,
      "Ġáī¥áĭµáĪŃ": 6619,
      "áī²áīµ": 6620,
      "ĠáįĢáĪİáīµ": 6621,
      "ĠáĭĪáĬķáĭµĠáĪįáĮħ": 6622,
      "Ġáī°áĪĺáĪįáĪ¶": 6623,
      "áĭĿáĬĵáĬĽ": 6624,
      "áĪĺáĪ°áĪ¨áī±": 6625,
      "ĠáĪģáĪĪáī±áĬķáĪĿ": 6626,
      "ĠáĪ°áī¥áĬłáĭĬ": 6627,
      "ĠáĪĺáĭĿáĪĻáĪŃĠ": 6628,
      "ĠáĬłáĪĿáĪĭáĬ«áī½áĬķ": 6629,
      "ĠáĪ¨áĭµáī¶": 6630,
      "ĠáĪĺáĪ¨áī¥": 6631,
      "ĠáĭŃáĪ°": 6632,
      "áĭĪáĪŃáĭµ": 6633,
      "áĮ£áĭį": 6634,
      "áĪ©áīħ": 6635,
      "ĠáīłáĬłáĬķáĭ³áĬķáĭµ": 6636,
      "ĠáĬ¨áĭļáĪħĠáīłáįĬáīµ": 6637,
      "Ġáīłáī°áĮ¨áĪĽáĪªáĪĿĠáīł": 6638,
      "ĠáĬ¥áĪŃáĪĿáĮĥáĭİáī½": 6639,
      "ĠáīĢáĬķĠáĬłĠáĪĿ": 6640,
      "ĠáĬ¥áĬķáĮĢáĪ«": 6641,
      "áĬķĠáīĥáĪį": 6642,
      "áĪĪáĭ¨áīµ": 6643,
      "ĠáĪĺáīĢáīłáĪį": 6644,
      "áĭİáī¿": 6645,
      "Ġáĭ«áĭ°áĪŃáĮī": 6646,
      "áįĪáīħ": 6647,
      "ĠáĪ²áĪĨáĬķĠáĬł": 6648,
      "ĠáĬĲáĮĪáĪŃĠáĬĲáĭį": 6649,
      "ĠáĮĪáįģ": 6650,
      "Ġáī³áĮĪáĬĽ": 6651,
      "ĠáīĨáĪĺ": 6652,
      "áĮĮáĮ¥": 6653,
      "áįĪáĪįáĮįáĪĿĠ": 6654,
      "Ġáīµáī½áĪĭáĪĭáī½áĪģĠ": 6655,
      "Ġáīłáĭ°áĪį": 6656,
      "áĪĺáĬŃáĪ«": 6657,
      "ĠáĪĨáĬĹáĪįĠ": 6658,
      "ĠáĭĿáĪĿáĭµáĬĵ": 6659,
      "áĪħĠáĪĭáĭŃ": 6660,
      "áĪ«áĭįáĭ«áĬķ": 6661,
      "áĭ°áĪ«áĪį": 6662,
      "ĠáĪĪáĪħáĭĿáī¥": 6663,
      "áĪªáįį": 6664,
      "áįħáįį": 6665,
      "áĭĺáĪ©": 6666,
      "ĠáīĢáīł": 6667,
      "áĪĿĠáĬłáĬķáĭ³áĬķáĭµ": 6668,
      "Ġáī¤áī¶áī½áĬķ": 6669,
      "ĠáĬ¢áĬ®áĬĸáĪļáĭ«áĭĬ": 6670,
      "áĭ®áĪŃáĭ³áĬĸáĪµ": 6671,
      "áīĤáīħ": 6672,
      "ĠáĬłáĪµáīĢáĪĿ": 6673,
      "ĠáĪĺáĪµáĬ®": 6674,
      "ĠáĪħáĭŃáĭĪáī³áī½áĬķ": 6675,
      "ĠáĪĿáĪµáĪİáī½áĬķ": 6676,
      "áĮĪáĬĽáĪĪáĬķĠ": 6677,
      "ĠáĬ¥áĮħáĮįĠáīłáĮ£áĪĿ": 6678,
      "ĠáĭĪáĭ³áĮħáĬĲáīµ": 6679,
      "Ġáĭ«áĭ°áĪŃáĮĭáĪīĠ": 6680,
      "ĠáĪĺáĬķáįĪáĪµĠáīħáĭ±áĪµ": 6681,
      "ĠáĪĺáĮłáĬķĠáĭ«áĪĪáĭį": 6682,
      "Ġáĭ¨áĪĺáĬķáĮįáĪµáī±": 6683,
      "ĠáĪĽáīĨáĪļáĭ«": 6684,
      "áĬķĠáĪĿáĭµáĪŃ": 6685,
      "áĭ°áĭŃ": 6686,
      "ĠáĬ¨áĬĲ": 6687,
      "ĠáĮ¥áĬķáī³áĭĬ": 6688,
      "ĠáĬłáĭŃáĬĲáī¶áī½": 6689,
      "ĠáĮĪáĬķ": 6690,
      "áĭİáī½áĬķĠáīłáĪĺ": 6691,
      "ĠáĪħáĭĿáīħáĭ«áĪµ": 6692,
      "ĠáĬłáĬķáĭ³áĬķáĭµĠáĪ°áĭİáī½": 6693,
      "áĭĪáĭ³áĭ°áĪŃ": 6694,
      "ĠáĪĺáĮ¥áī°áĭį": 6695,
      "ĠáĪµáĪįáĮ£áĬķáĬĵ": 6696,
      "ĠáĬ¤áĪįáĪ³": 6697,
      "áĮłáĬĵáīĢáīĢ": 6698,
      "ĠáĪĺáįħáĪĢáįī": 6699,
      "ĠáĬłáĪĿáĪĭáĬ¬": 6700,
      "Ġáįİáī¶áĮįáĪ«áįį": 6701,
      "áĭįáĪ¨áĭµ": 6702,
      "Ġáĭ¨áĮĪáĭĽ": 6703,
      "áĪµáĪĿ": 6704,
      "áĭŃáĪµ": 6705,
      "ĠáĭŃáĪ°áĮ¥": 6706,
      "ĠáĪĽáĬĵáī¸áĭį": 6707,
      "ĠáĪ°áįĪ": 6708,
      "Ġáī¤áī±áĬķ": 6709,
      "ĠáīłáĬłáĭ²áĪ±": 6710,
      "ĠáĮłáĪ«": 6711,
      "ĠáĬŃáįįáĭ«áĭİáī½": 6712,
      "áīµĠáĭŃáī»": 6713,
      "áįĨáī½áĬķ": 6714,
      "ĠáĪĺáĪ°áĪ¨áīµĠáīł": 6715,
      "Ġáīłáĭ°áī¡áī¥": 6716,
      "áĬķáīĢáĪ³áīĥ": 6717,
      "Ġáĭ°áĪŃáĪ¶": 6718,
      "ĠáĭĪáĪĪáĭ°Ġ": 6719,
      "ĠáĪĽáĪ«áĬª": 6720,
      "Ġáĭ¨áĬª": 6721,
      "áĪĪáī³áĪįĠ": 6722,
      "ĠáĪĽáĭ¶": 6723,
      "ĠáĪĽáī¥áĪ«": 6724,
      "áĭ³áĪªáĭİáī½": 6725,
      "áĬ©ĠáĬĲáĭį": 6726,
      "ĠáĭĺáįĢ": 6727,
      "ĠáĪ³áĪį": 6728,
      "Ġáĭ®áĪŃáĬŃ": 6729,
      "Ġáĭ¨áĪĺáĮĢáĪĺáĪªáĭ«áĭįáĬķ": 6730,
      "áĭ°áĪĿáĭ°": 6731,
      "áĮĪáĬĲáī¡": 6732,
      "ĠáĭĪáĮ£Ġ": 6733,
      "ĠáĪĺáĪĺáĪªáĭ«áĭİáī½": 6734,
      "ĠáĭĪáĪµáĭ°": 6735,
      "áĪ°áĪĭáĪ°áĪį": 6736,
      "Ġáĭ«áĮĪáĬĽáĪī": 6737,
      "ĠáĬłáĭĪáĮ£": 6738,
      "áĮĭáĮłáĪĺ": 6739,
      "áįĭáĪįĠ": 6740,
      "áīµáĬķĠáĬ¥áĬĵ": 6741,
      "ĠáĬķáĮĪ": 6742,
      "áĬŀáī»áī¸áĭį": 6743,
      "ĠáīłáĪļáĮĪáĬĻ": 6744,
      "áĭİáī½áĬķĠáĭ«": 6745,
      "áĪĺáĪįáĬŃ": 6746,
      "ĠáĬ¥áĭµáĪī": 6747,
      "ĠáīłáĪĺáĪĨáĬĳáĪĿĠáĭ¨": 6748,
      "Ġáī¥áĪĦáĪ«": 6749,
      "ĠáĬ¨áĬłáĬķáī°ĠáĮĭáĪŃ": 6750,
      "áĪ¿": 6751,
      "áīµáĪĺ": 6752,
      "Ġáĭ¨áīĢáĪ¨": 6753,
      "áĪĺáī°": 6754,
      "áĪ¨áī¤": 6755,
      "áĪ«áĪª": 6756,
      "áĭ³áĭį": 6757,
      "ĠáĭįáĮĬáĭ«": 6758,
      "áĬĿĠáĬĲáīłáĪŃ": 6759,
      "Ġáī³áĪªáĬ«áĭĬ": 6760,
      "ĠáīłáĬłáĭ²áĪµ": 6761,
      "ĠáĬķáįħ": 6762,
      "ĠáįĪáĪĪ": 6763,
      "áĪ¨áĮĭáĮįáĮ¥": 6764,
      "ĠáĪĪáĪĿáĬķĠáĬ¥áĬķáĭ°áĪĨáĬĲ": 6765,
      "Ġáĭ¨áĪļáĬ¨áī°áĪīáīµ": 6766,
      "Ġáĭ«áĮĪáĬĽáĪīĠ": 6767,
      "áĮĪáī£áĬĽáĪįĠáĮ¥áĭ«áīĦ": 6768,
      "ĠáĬĸáĪ¬áĮĭ": 6769,
      "áĪĿáī¥": 6770,
      "áĬ«áĬĿáĬĲáīµ": 6771,
      "áĬ«áī£áī¢áĭ«": 6772,
      "Ġáĭ¨áī°áĮĪáĭ°": 6773,
      "áĪİáĪĽ": 6774,
      "áĬ®áĪ«": 6775,
      "ĠáĬłáĭµáĪŃáĮĭáī½áĪģ": 6776,
      "ĠáīłáīĢáĪµ": 6777,
      "áīµáĪŃáįį": 6778,
      "ĠáĭĪáĬķáĭµáĪŀáī¹": 6779,
      "ĠáįķáĪ¬áĭļáĭ³áĬķáīµ": 6780,
      "áĪĿĠáĪĬ": 6781,
      "áĬĵáĮĪáĭµ": 6782,
      "ĠáĪĪáīĢ": 6783,
      "áĮłáĬĳ": 6784,
      "Ġáī°áįĪáįĥáĪļ": 6785,
      "ĠáĮįáĮ¥": 6786,
      "áĭĿáĬĲáĪµ": 6787,
      "ĠáĭįáĪµáĮ¥ĠáĬłáĬķáĭ±": 6788,
      "ĠáĪµáĪĪáĪĽáĭŃ": 6789,
      "ĠáįįáĪĭ": 6790,
      "Ġáĭ¨áĪĽáĬķ": 6791,
      "ĠáĬ¥áĬķáĭ²áĪħĠáī¥áĪİ": 6792,
      "ĠáĪĪáĬ¥áĬĲáĭļáĪħ": 6793,
      "Ġáī¤áī°ĠáĬŃáĪŃáĪµáī²áĭ«áĬķ": 6794,
      "ĠáĭĪáīħáīµĠáīł": 6795,
      "ĠáĪĪáĪļáįĪáĪįáĮī": 6796,
      "ĠáĪµáĪĿáĪĿ": 6797,
      "Ġáī½áĮįáĪ®áī½áĬķ": 6798,
      "ĠáĬ¢áĭ®áĬłáī¥": 6799,
      "ĠáĪĺáĪªáĬĲáīµ": 6800,
      "ĠáĪĺáĭĿáĪĻáĪ®áī½Ġ": 6801,
      "ĠáĪµáĪ«ĠáĬłáĪµáĬªáĭ«áĮħ": 6802,
      "áĪĿĠáĭ¨áĬł": 6803,
      "áĮĪáĪĭ": 6804,
      "ĠáĪĺáĬĿáī³": 6805,
      "áī³áĪĿ": 6806,
      "ĠáĪĪáĮĭ": 6807,
      "áĮ£áįį": 6808,
      "áĭĭáĮħ": 6809,
      "Ġáĭ¨áī°áįĥáįĪ": 6810,
      "ĠáīłáĬłáĪľáĪªáĬ«": 6811,
      "ĠáĪ³áĭ«áĪµ": 6812,
      "áĮ«áĬĳ": 6813,
      "ĠáĭµáĬķáīłáĪŃ": 6814,
      "ĠáĪĽáĪ³áĭ¨áīµ": 6815,
      "ĠáĪĪáĪĽáĪ³áĭ¨áīµ": 6816,
      "áī°áĬ®áĪŃ": 6817,
      "áĬĢáĬķáĬĲáīµ": 6818,
      "ĠáĮŃáĬķáīĢáīµ": 6819,
      "Ġáĭ¨áī°áĪ³áĪ³áī°": 6820,
      "ĠáĭŃáĬĸáĪ«áĪįĠ": 6821,
      "áĬķáįĢáī£áĪ¨áīħ": 6822,
      "áĪ«áĪĽ": 6823,
      "áī¥áĪ©": 6824,
      "ĠáĭŃáĭ°áĪ¨": 6825,
      "ĠáĪĪáĪħ": 6826,
      "Ġáī°áĪĪáĭĭáĭĭáĮŃ": 6827,
      "ĠáīµáĬĵ": 6828,
      "áīµáĬķĠáĭ¨": 6829,
      "Ġáīłáī°áĭ°áĮĭáĮĭáĪļ": 6830,
      "áĪĬáįİáĪŃ": 6831,
      "áĪ°áĪĽáĪħ": 6832,
      "áĮĪáĬĺáīµ": 6833,
      "áīµĠáĬ¨áĪĨáĬĲ": 6834,
      "áĬ¨áī³áī³áĭŃ": 6835,
      "ĠáīłáīµáĬ¥": 6836,
      "ĠáĪħáįĥáĬĵ": 6837,
      "Ġáĭ¨áĭ°áĪħáĬķáĬĲáīµ": 6838,
      "Ġáĭ«áĪĿĠáī¢áĪĨáĬķ": 6839,
      "ĠáĬ¥áĪµáĬ«áĪģáĬķĠáĭµáĪ¨áĪµ": 6840,
      "ĠáīłáĪĿáĬķ": 6841,
      "áī½áĪİ": 6842,
      "áĭ°áī¡áī¥": 6843,
      "áĮłĠ": 6844,
      "ĠáĪĽáįħ": 6845,
      "ĠáīłáĪĺáĬķáĮįáĪµáīµ": 6846,
      "ĠáĪĪáĪĺáĪĨáĬĳ": 6847,
      "ĠáĮĪáĪĪáĪį": 6848,
      "áĪĿĠáĬłáĬķáī°": 6849,
      "ĠáĬłáĪĪáĬĿĠ": 6850,
      "ĠáīłáĪĽáĪ°áī¥": 6851,
      "ĠáįĪáĮ¥": 6852,
      "ĠáīłáĭļáĪħĠáĪ¨áĮĪáĭµ": 6853,
      "ĠáĪŀáī°áĪŃ": 6854,
      "áĭ°áĪŃáĮĭáī¸áĭį": 6855,
      "áĮĪáĪįáĮĭáĭ®áī½": 6856,
      "ĠáĭĪáĭ³áĮħ": 6857,
      "ĠáĪĺáĪ¬áīµĠáĪĭáĭŃ": 6858,
      "ĠáīłáĪĮáĪĭĠáīłáĬ©áĪįĠáĭ°áĮįáĪŀ": 6859,
      "ĠáīĢáĪµĠáīłáīĢáĪµ": 6860,
      "ĠáĪĿáĬķáĪĿĠáĭŃáĪģáĬķĠáĪĿáĬķ": 6861,
      "ĠáĬ¥áĮĪáĭĽ": 6862,
      "Ġáīłáī¦": 6863,
      "ĠáĬłáĪĢ": 6864,
      "áĭ«áī½áĪģ": 6865,
      "ĠáĪĺáĮĭáī¢": 6866,
      "áĮįáĪ¬": 6867,
      "áĪĽáĪĺáĮ¥": 6868,
      "áī£áĬĸáĪµ": 6869,
      "áĬłáĪŃ": 6870,
      "áīħáĮ£áĮ«": 6871,
      "ĠáĭįáĪ»": 6872,
      "ĠáĮįáĪĽáĪ½": 6873,
      "áĭįáĬķĠáĭŃ": 6874,
      "ĠáīĢáĪļ": 6875,
      "ĠáĪĨáī´": 6876,
      "ĠáĬ¢áĪ«áīħ": 6877,
      "ĠáĮłáĪŃáī¶": 6878,
      "áĪĭáĪĪáįĪ": 6879,
      "áĬ¨áĪ°áīµ": 6880,
      "áī£áī£áĪª": 6881,
      "Ġáĭ«áĭ°áĪŃáĮĪáĭĭáĪįĠ": 6882,
      "áĪģáĪĪáī°áĬĽĠáĭ°áĪ¨áĮĥ": 6883,
      "ĠáĬłáĭŃáīĢáĪŃáĪĿĠ": 6884,
      "áĪħáĪ«áĪĦ": 6885,
      "áĮ£áĮł": 6886,
      "áĭ¨áĬł": 6887,
      "áĪ®áī¼": 6888,
      "áīµĠáĬłáĮĪáĪįáĮįáĪİ": 6889,
      "áĬķáĪĿĠáīł": 6890,
      "ĠáĬ¥áĬķáĭ°áĪļáī»áĪį": 6891,
      "Ġáĭ¨áĬ¥áĬķáĪµ": 6892,
      "Ġáĭ¨áĬ¥áĬĲáĪ±": 6893,
      "ĠáĬ¥áĭµáĪİáī½": 6894,
      "áĬ¨áīµáĪį": 6895,
      "Ġáĭ¨áīµáĭ³áĪŃĠáĮĵáĭ°áĬĽ": 6896,
      "Ġáīłáī°áĮ¨áĪĽáĪªáĪĿĠáĭ¨": 6897,
      "áĬķáĭ²áīµ": 6898,
      "ĠáĪµáĪĪáĪĨáĬĲáĪĿ": 6899,
      "ĠáĬ¥áĬĵáĪĺáĪ°áĮįáĬĵáĪĪáĬķĠ": 6900,
      "Ġáĭ¨áĪ»": 6901,
      "Ġáĭ¨áĪ°áĮłáĭį": 6902,
      "ĠáĬ¥áĮ¥áįį": 6903,
      "ĠáĬłáĭ²": 6904,
      "áĭ³áĪįĠ": 6905,
      "ĠáĪįáĪĺáĬĵ": 6906,
      "áĬķĠáĬłáĭį": 6907,
      "Ġáī³áĭ³": 6908,
      "ĠáīłáĬłáĪĺ": 6909,
      "ĠáĬ¢áĭ¨áĪ©áĪ³áĪĮ": 6910,
      "ĠáĬ¥áĪµáĬªáĭ«": 6911,
      "áĪ°áĪ©áīµ": 6912,
      "áī¥áĪİáĮį": 6913,
      "ĠáĬ¥áĪħáīµ": 6914,
      "ĠáĭĪáĪĪáĭµ": 6915,
      "ĠáĬ¨áĪįáī¥": 6916,
      "áĬķáĭĻ": 6917,
      "áĪĭáīģ": 6918,
      "ĠáĪĺáĬ®áĬķ": 6919,
      "áĮįáĭ°áĪį": 6920,
      "áĬ¨áĬĲáĬł": 6921,
      "áīĥáĮ¥": 6922,
      "ĠáĮĭáĪ»": 6923,
      "Ġáĭ¨áĪĺáī³": 6924,
      "áĭ©ĠáĬ¤áĪµ": 6925,
      "áīµĠáĪĺáĪµáĭĭáĬ¥": 6926,
      "áĪ«áĪµáĭİ": 6927,
      "ĠáīłáĬłáĪĪáĪĿĠáĪĭáĭŃ": 6928,
      "Ġáĭ«áĭįáīĥáĪįĠ": 6929,
      "Ġáī³áĭįáīĥáĪĪáĪħ": 6930,
      "Ġáĭ«áĪµáī³áĭį": 6931,
      "Ġáĭ°áĭĮ": 6932,
      "áīĨáĮłáī¥": 6933,
      "ĠáĪ°áĭİáī½Ġáīł": 6934,
      "ĠáĮīáĪįáīłáīµ": 6935,
      "áĪĺáĪµáĪ¨": 6936,
      "ĠáĪŃáĬ«áĪ½": 6937,
      "ĠáĮ¥áīħáĪį": 6938,
      "áĬķĠáĬ¨áĪĽ": 6939,
      "Ġáĭ«áĬķĠáĭ«áĪħáĪį": 6940,
      "áīµáĭİ": 6941,
      "ĠáīłáĪħáĭĿáī¥": 6942,
      "ĠáĪĺáĭįáĮ£": 6943,
      "ĠáĭŃáĭĪáĪ°": 6944,
      "áįįáĬĵ": 6945,
      "Ġáįĳ": 6946,
      "ĠáĪµáĪĪĠáĬ¥áĪ±": 6947,
      "áĪĮáĪĭáĭį": 6948,
      "áĪĭáī¸áĭįáĪĿĠ": 6949,
      "ĠáĪĺáĪµáĪĺ": 6950,
      "áīµĠáī°áĪµáįĭ": 6951,
      "Ġáĭ°áĬķáīłáĬĽ": 6952,
      "Ġáĭ«áĪĿĠáĪĨáĬĸ": 6953,
      "áĭĪáĭ«áĭ¨áīµ": 6954,
      "ĠáĬłáĭ°áĮĪáĬĽ": 6955,
      "Ġáĭ¨áįĭáĭŃáĬĵáĬķáĪµ": 6956,
      "áĭ«áĭĭáĬķ": 6957,
      "áĪħáĪ³áĪµ": 6958,
      "áīłáĭĭáĪįĠ": 6959,
      "ĠáĬ¨áīĢáĬĳ": 6960,
      "áī³áĭ¨áĭį": 6961,
      "ĠáĬ¥áĬķáĭ°áĪĮáĪĪ": 6962,
      "ĠáĪµáĪĪáĪĨáĬĳ": 6963,
      "ĠáĬŃáįĭ": 6964,
      "áįĬáīµĠáĭ¨": 6965,
      "ĠáĭĪáĭŃáĬķ": 6966,
      "ĠáīłáĬłáĬķáĭ±": 6967,
      "ĠáĬ«áĬĵáĭ³": 6968,
      "ĠáĬ¨áĪĺáĬ«áĬ¨": 6969,
      "áĮłáīĢáĪ°áĭį": 6970,
      "ĠáĬłáĬ«áĪĦáĭµ": 6971,
      "áĪ¨áĭ³áĭį": 6972,
      "Ġáĭ®áĪŃáĭ³áĬĸáĪµ": 6973,
      "ĠáĮŃáī¥": 6974,
      "áī½áĬĭáĪĪáĪģĠ": 6975,
      "ĠáįĵáĪŃáĬŃ": 6976,
      "Ġáĭ¨áĪĿáĬķáī½áĪĪáĭįĠáĬ¥áĬķáĭ´áīµĠáĬĲáĭįĠ": 6977,
      "ĠáĬ¬áĬŃ": 6978,
      "ĠáĬłáĪĺáĪ°áĮįáĬĵáĪĪáĪģĠ": 6979,
      "ĠáĬ¥áĪŃáĪµĠáīłáĪŃáĪ³áī¸áĭį": 6980,
      "áĮĪáĪ®áī½": 6981,
      "áĮ¥áĪ«": 6982,
      "ĠáĭĪáįİáī½": 6983,
      "Ġáī°áĬķ": 6984,
      "Ġáī°áĭ°áĪ«": 6985,
      "ĠáĬ¥áĬĵáīµ": 6986,
      "ĠáĪĽáĮĪáĪįáĮĪáĪį": 6987,
      "áĪİáĪª": 6988,
      "áĮīáĭŀ": 6989,
      "ĠáĬ¥áĭįáĬĲáī±": 6990,
      "ĠáĪĺáĬķáĮįáĪµáīµĠáĬł": 6991,
      "Ġáī£áĪħáĪĭáĭĬ": 6992,
      "Ġáī°áĮłáĬķáīĢ": 6993,
      "áīħáĭ±áĪµ": 6994,
      "ĠáĭŃáĬĵáĮĪáĪ«áĪīĠ": 6995,
      "ĠáīłáĭµáĮĭáĪļ": 6996,
      "áĪĬáįİáĪŃáĬĴáĭ«": 6997,
      "áĭł": 6998,
      "Ġáĭ¨áĪ¨": 6999,
      "áĪįáĮħ": 7000,
      "ĠáĬłáĭ°áĪ¨áĮį": 7001,
      "áĪ°áĬĺ": 7002,
      "ĠáĬŃáīµ": 7003,
      "ĠáĬłáĭŃáĬĲ": 7004,
      "ĠáīłáĬłáĬ«áī£áī¢áĭį": 7005,
      "ĠáĬ«áĬķáĪ°áĪŃ": 7006,
      "ĠáĬ«áĭįáĬķáī²": 7007,
      "áī¦áī¼": 7008,
      "Ġáĭ«áĪĪáĬķáĬķ": 7009,
      "ĠáĪĻáĭļ": 7010,
      "áī¼áĭį": 7011,
      "áĬķĠáĭ«áĪ¨áĮĭáĮį": 7012,
      "ĠáīłáĪĿáĭµáĪ¨Ġáīłáĭ³": 7013,
      "Ġáī¡áĭµáĬĳ": 7014,
      "ĠáīłáĪ¨áĬ¨": 7015,
      "ĠáĬ¨áĬ¥áĬĵáĬķáī°ĠáĮĭáĪŃ": 7016,
      "ĠáĪįáĭįáĭįáĮ¥": 7017,
      "Ġáī¼": 7018,
      "áĪĿáĪ¬": 7019,
      "áĪŃáĮĤ": 7020,
      "áĪµáĬķ": 7021,
      "ĠáĪĺáī¥áĪ«": 7022,
      "áĭ³áĭµ": 7023,
      "áĪ½áĭ«áĮŃ": 7024,
      "áĪªáĭ«áĭİáī½": 7025,
      "Ġáīłáī°áĪĪáĭ¨": 7026,
      "ĠáĬ¨áī°áĪĪáĭ«áĭ©": 7027,
      "áĪ°áĪ«áĭĬ": 7028,
      "áĪ°áĪ«áĮ¨": 7029,
      "áĬĲáĪ³áĭį": 7030,
      "ĠáĪ¶áĪµáī±": 7031,
      "ĠáĪ²áĭ«áĮĭáĮ¥": 7032,
      "ĠáĬłáĮĭáĮ¥": 7033,
      "ĠáĪ´áī¶áī½ĠáĪįáĮĨáī½": 7034,
      "áĭĪáĪĪáĭ±": 7035,
      "áĪ½áĬ¨áĪŃáĬ«áĪªáĭİáī½": 7036,
      "ĠáĭŃáĪĺáĮ£áĪį": 7037,
      "ĠáĭŃáĪĭáĪīĠ": 7038,
      "ĠáĬ¥áĬķáĭ°áĪĿáī³": 7039,
      "ĠáĭįáĪŃ": 7040,
      "ĠáĮįáĭ¢": 7041,
      "ĠáĭŃáĪħĠáĪģáĪī": 7042,
      "áĪĿĠáĬłáĪĪáĭįĠ": 7043,
      "áĮĢáĪĺáĪ¨áĭį": 7044,
      "ĠáīĨáĭŃáī³": 7045,
      "áįĵáĬķ": 7046,
      "Ġáĭ¨áĭĪáĭŃ": 7047,
      "ĠáĮįáĬķĠáīłáĬ¥": 7048,
      "ĠáĬłáĪŃáī²": 7049,
      "ĠáĬ¥áĪ·áĪĿ": 7050,
      "áĬ¨áī£áĭµ": 7051,
      "ĠáĪĺáĬķáĮįáĪµáīµĠáīł": 7052,
      "ĠáĭŃáĪ°áĪ«áĪį": 7053,
      "ĠáĪĺáĪĨáĬķĠáĬłáĪĪáīłáīµĠ": 7054,
      "ĠáĮ¨áĪŃáĪ¶": 7055,
      "Ġáĭ¨áĮİáĭ°áĪĪáĭį": 7056,
      "ĠáĪĺáĪĿáĮ£": 7057,
      "áĪĽáĪī": 7058,
      "ĠáĭŃáĪŀ": 7059,
      "áĭİáīµáĬķ": 7060,
      "áįĪáĮ¥áĪŃ": 7061,
      "ĠáĪĽáĮłáĪ«áīĢ": 7062,
      "áĭĿáĪĿ": 7063,
      "ĠáĪĪáĪĽáĪ»áĪ»áĪį": 7064,
      "ĠáĬłáĪµáįĪáĪª": 7065,
      "áĬķĠáįĪ": 7066,
      "ĠáĪĿáĪµáĮ¢": 7067,
      "áĬķĠáĪĪáĪĽáĪ¨áĮĭáĮĪáĮ¥": 7068,
      "áĪµáĪĽáĪĻ": 7069,
      "ĠáĪĽáĪµáĭĪáĮĪáĭµ": 7070,
      "áĭ°áĪŃáĮīáīµ": 7071,
      "ĠáĬ¥áĬķáĭµáĬķáī½áĪį": 7072,
      "áĬĵĠáīłáĪĺ": 7073,
      "áĮĪáĮ¥": 7074,
      "ĠáĪ°áįĪáĪŃ": 7075,
      "ĠáĭįáĪµáĮ¥ĠáĪĪ": 7076,
      "ĠáĬłáĭŃáĬĸáī½": 7077,
      "ĠáĪµáĪŃáĮŃ": 7078,
      "áī³áĭįáīħ": 7079,
      "áĪŁáĪĭáīµ": 7080,
      "Ġáī³áĪĽáĬĿĠáįįáīħáĪŃ": 7081,
      "ĠáīĢáĪŃáī¦": 7082,
      "ĠáĪĺáī³áĮłáī¢áĭ«": 7083,
      "áĬĵĠáĪĮáĪİáī½": 7084,
      "áĪ«áĮ®áī½áĬķ": 7085,
      "ĠáĭŃáĮłáįĭ": 7086,
      "áĪģáĬķĠáīł": 7087,
      "Ġáĭ¨áĪļáĭĪáĭ±": 7088,
      "áīĥáī½áĬķ": 7089,
      "áīµĠáĬłáī£": 7090,
      "áĬķĠáĬłáĬķáĭ³áĬķáĭµ": 7091,
      "áĪĻáĪ´": 7092,
      "áīĨáĪµ": 7093,
      "ĠáĮłáĭ«áīĤ": 7094,
      "ĠáĬłáĬķáĭµĠáīĢáĬķ": 7095,
      "áĬĴáĪµáīµ": 7096,
      "áĬķĠáĪĪáĪĽáĮįáĬĺáīµ": 7097,
      "ĠáĪĺáĮ¨áĪ¨áĪ»áĭį": 7098,
      "ĠáĬ¨áĭĪáĬķáĭµ": 7099,
      "áĬķáĬ¨áī£áĬ¨áī¥": 7100,
      "Ġáĭ¨áĮ¦áĪŃĠáĪĺáĪ³áĪªáĭ«": 7101,
      "ĠáīłáĪĽáĬķáĬĽáĭįáĪĿĠáĮĬáĭľ": 7102,
      "ĠáĪŃáīĢáīµĠáĪĭáĭŃ": 7103,
      "ĠáĬłáĮ£": 7104,
      "ĠáĭŃáĪįáīģáĬķáĪĿ": 7105,
      "Ġáĭ¨áĪļáĮĪáī£áĭį": 7106,
      "ĠáĪĿáĬ¥": 7107,
      "ĠáīµáĭĿ": 7108,
      "áīµáĬķĠáĪ°áĭİáī½": 7109,
      "ĠáĪ³áĬķáī²": 7110,
      "áī²áĬķáĮį": 7111,
      "ĠáĬłáĪĿáĪĭáĬŃáĬķ": 7112,
      "áĭ«áĪħáĭĮĠáĪĿáĪµáĬŃáĪ®áī½": 7113,
      "ĠáĬ¦áĪŃ": 7114,
      "ĠáĬĲáīłáĪ¨áī½Ġ": 7115,
      "ĠáĬĲáīłáĪ¨áĭįĠ": 7116,
      "áĬĲáĮĪáĪ©": 7117,
      "ĠáĪĽáĪµáī°áĬ«áĬ¨": 7118,
      "ĠáĪĺáĬķáĮĪáĭ¶áī½áĬķ": 7119,
      "ĠáĭŃáĪĺáĪµáĪĪáĬĽáĪį": 7120,
      "Ġáĭ¨áīħáĪŃáī¥ĠáĮĬáĭľ": 7121,
      "ĠáīłáĪģáĪĪáī±": 7122,
      "ĠáĬłáĬĲáĪ³": 7123,
      "ĠáĪĺáĭ°áī¥": 7124,
      "áĪ³áĭįáĭ«áĬķ": 7125,
      "áĮĭáĪĪ": 7126,
      "Ġáĭ¨áī°áĪŁáĪĭ": 7127,
      "ĠáĪįáĬ¡": 7128,
      "ĠáīłáĪĺáĪµáĮł": 7129,
      "ĠáĪµáĪĪĠáĭ«áĪħáĭĮ": 7130,
      "ĠáĪµáĪĪĠáĬłáĪĿáĪĭáĬŃ": 7131,
      "áĪµáī°áĭĭáĪį": 7132,
      "áįĥáĬĵáīµ": 7133,
      "ĠáĮīáĪįáīł": 7134,
      "áĬĴáĬŃáĪµ": 7135,
      "ĠáĬ®áĪĮáĮħ": 7136,
      "ĠáĬłáĭ³áĪĿ": 7137,
      "ĠáĬłáĪĽáĬ«áĪª": 7138,
      "áĬ¥áĪ«áī¥": 7139,
      "áĭ°áĪ«áĮĢ": 7140,
      "ĠáĮĭáĪŃĠáī°áĪĺáĪ³áĪ³áĭŃ": 7141,
      "áĪĿĠáīłáī°áĮ¨áĪĽáĪª": 7142,
      "ĠáĭŃáĮĪáĬĽáĪīĠ": 7143,
      "ĠáĮłáĪĭáī¶áī½": 7144,
      "ĠáĬłáĭµáĪŃáĮĪáĪħ": 7145,
      "Ġáĭ¨áĪľ": 7146,
      "áĪįáĬĿĠ": 7147,
      "ĠáīłáĪľ": 7148,
      "áĪħáīłáĪ¨": 7149,
      "áĮįáī¡": 7150,
      "áĭµáĬ©": 7151,
      "áĬŃáĪĪáĬĽáĭį": 7152,
      "Ġáĭ«áī¥áĪ«": 7153,
      "ĠáĭĪáĪĪáĪį": 7154,
      "áĬ¨áī¥áĪŃ": 7155,
      "ĠáĪ°áĬķáĪ°": 7156,
      "áī±áĬķĠáĪĺ": 7157,
      "áįħáĭĭ": 7158,
      "ĠáĭŃáĪħáĬķĠáĪĺ": 7159,
      "áĪµáī°áĬ«": 7160,
      "áĬ¤áĪŃáīµáĪ«": 7161,
      "áĪľáĪĮáĬŃ": 7162,
      "áįĪáĪįáĮİ": 7163,
      "Ġáĭ¨áĪĽáĭµáĪ¨áĮį": 7164,
      "áīĭáī¸áĭį": 7165,
      "áĪ¸áĬĲ": 7166,
      "ĠáĬ¥áĬķáĭ²áĪħĠáĭ«áĪĪáĭį": 7167,
      "áĬ¢áĭ¨áĪ©áĪ³áĪĮáĪĿ": 7168,
      "áįĮáĭ°áĪ«áĪį": 7169,
      "Ġáī¥áĪ©áĪħ": 7170,
      "áīĢáĭĿáīĢ": 7171,
      "ĠáīµáĬĵáĬķáīµ": 7172,
      "áĪĿĠáī¢": 7173,
      "áĪĪáĭĪáĮł": 7174,
      "ĠáĭŃáĮłáīł": 7175,
      "áī³áĪĪáī½Ġ": 7176,
      "áĪĨáĬķĠáīłáĬł": 7177,
      "ĠáĮ¥áĬķáīĥáīĦ": 7178,
      "ĠáīłáĪĺáĪĨáĬĵáī¸áĭį": 7179,
      "áĪĻáĬĴáĬ¬": 7180,
      "ĠáĪµáĪ«Ġ": 7181,
      "ĠáĪĻáĭ«áĭĬ": 7182,
      "ĠáĬłáĬ«áĪĭ": 7183,
      "ĠáĪĤáĪ³": 7184,
      "ĠáĪ°áĪĭáĪĿáī³": 7185,
      "Ġáĭ¨áĮĪáīłáĭ«": 7186,
      "ĠáĭŃáįĪáĪįáĮĭáĪīĠ": 7187,
      "áįķáĪ¬áĭļ": 7188,
      "áĬĲáįĥáįĢáĪŃ": 7189,
      "ĠáīłáīĨ": 7190,
      "ĠáĬłáįħ": 7191,
      "áĪĽáĭį": 7192,
      "ĠáĭŃáĪĺáĪ«": 7193,
      "áĬŃĠ": 7194,
      "áĬŃáĪİ": 7195,
      "áĮłáĭĭáĪį": 7196,
      "áīĢáĬķáĪµ": 7197,
      "ĠáĪĿáĮįáī£": 7198,
      "áĬ«áĭį": 7199,
      "ĠáĪµáĪĪáĬĲáīłáĪ¨": 7200,
      "ĠáĬŃáĪª": 7201,
      "áįĬáĭį": 7202,
      "ĠáĬ«áĭ°áĪ¨áĮį": 7203,
      "Ġáī£áĪĪáĪĢáī¥": 7204,
      "ĠáĪ¨áīĤáīħ": 7205,
      "ĠáīłáĪĺáĪĨáĬĳáĪĿĠáīł": 7206,
      "ĠáĬ¥áĭįáĬĲáī°áĬĽáĭįĠáĬłáĪĿáĪĭáĬŃ": 7207,
      "áĭįáĪ°áĭ±": 7208,
      "ĠáĬ¥áĪŃáĪµáĭĭ": 7209,
      "ĠáīłáĬķ": 7210,
      "áĪĨáĬĶ": 7211,
      "áī±ĠáīłáįĬáīµ": 7212,
      "áĪµáī°áĬ«áĬ¨áĪį": 7213,
      "ĠáĮĪáĭ³áĭŃ": 7214,
      "ĠáĪ³áĬķ": 7215,
      "ĠáĬłáĪµáįĢáĭ«áįĬ": 7216,
      "ĠáĬ¥áĬķáĭ²áĪħĠáīł": 7217,
      "áĪĺáĪŃáĮ¡": 7218,
      "ĠáĬłáĪµáī°áĪĽáĪª": 7219,
      "áī¥áĪ«áĭŃ": 7220,
      "áįĪáĮ¥áĪ¯áĭĬ": 7221,
      "ĠáĭĪáĭµáĮĦáĭĭáĪĪáĪģ": 7222,
      "áĪĺáī°ĠáĪĪáĭįáĮ¥": 7223,
      "áīĢáĭĿáīĢáĭ£": 7224,
      "ĠáĪĬáĭ": 7225,
      "Ġáĭ¨áĭĺáĪĭáĪĪáĪĿ": 7226,
      "ĠáīłáĪ³": 7227,
      "ĠáĭŃáĪĺáĪĪ": 7228,
      "áī£áĪīĠ": 7229,
      "áĬ«áī½áĪģ": 7230,
      "ĠáĪ°áĪľáĬķ": 7231,
      "áĭĭáĪª": 7232,
      "ĠáĪĭáĭŃĠáĪĬ": 7233,
      "ĠáĭĪáĭ°ĠáĪ°áĪĽáĭŃ": 7234,
      "áĬķĠáĬłáĭµáĪŃ": 7235,
      "ĠáīłáĬ¥áĭµáĪľ": 7236,
      "ĠáĬĵáī¡": 7237,
      "áĪ¨áĭ³áī¸áĭį": 7238,
      "áĭİáĬķĠáĭ«áĪ¨áĮĭáĮį": 7239,
      "Ġáī¤áī°ĠáĪĺáīħáĭ°áĪµ": 7240,
      "áĪĭáĪĪáĪĽáĭĬ": 7241,
      "áĪ«áĪµáĪħ": 7242,
      "ĠáįĪáīĥáĭ°áĬŀáī½": 7243,
      "ĠáĬłáĮĭáĪŃ": 7244,
      "Ġáī´áĪĮ": 7245,
      "áĬĵáĮĪáĪ©áīµ": 7246,
      "ĠáĬ¨áĪĿáĭµáĪŃ": 7247,
      "áĬĲáĮĪáĪŃĠáĮįáĬķ": 7248,
      "Ġáĭ¨áīłáĪĭáĭŃĠáī°áĪĺáĪįáĬ«": 7249,
      "áĪŃáĬł": 7250,
      "áĪĺáĬĿ": 7251,
      "áĮĪáĭĿ": 7252,
      "ĠáĪĺáĬłáĭĽ": 7253,
      "áĪ°áĭİáī½": 7254,
      "áī£áĭį": 7255,
      "áī£áī¸áĭĭáĪį": 7256,
      "Ġáĭ«áĮĪáĬĻ": 7257,
      "ĠáĬ¥áĬķáĭ²áĬĸáĪ«áī¸áĭį": 7258,
      "áįħáĬĵáīµ": 7259,
      "áĪĢáĬķ": 7260,
      "ĠáīµáĮįáĪį": 7261,
      "Ġáī£áĪĭ": 7262,
      "áī²áīŃ": 7263,
      "ĠáĬ¥áĬķáĭ²áĪħĠáĭ«áĪī": 7264,
      "ĠáīµáĬ¥áĭŃáĬķ": 7265,
      "ĠáĬłáī¥áĭĽáĬĽáĭį": 7266,
      "áī¥áĪŃáĪĢáĪĿ": 7267,
      "ĠáĭĿáĮįáĮħáī¶áī½": 7268,
      "ĠáĬłáī¥áĪŃáĪĢáĪĿ": 7269,
      "ĠáĪĺáĭĿáĬĵáĬĽ": 7270,
      "áĬķáīłáīµ": 7271,
      "ĠáĭŃáĮįáī£": 7272,
      "ĠáĬ¥áĬĵĠáĬ¥áĬķáĭ°": 7273,
      "áįħáĪĿáĬĵ": 7274,
      "ĠáĮĬáĭľáĭ«áīµ": 7275,
      "áĬķĠáīłáĭ¨": 7276,
      "áįĭáĪī": 7277,
      "áĮİáĬĵ": 7278,
      "áī°áĬĽáĭįáĬķ": 7279,
      "ĠáĬ¥áĭ¨áīĢ": 7280,
      "Ġáĭ«áĪħáĭĮĠáĬ¥áĬķáĭ²áĪħĠáĭŃáĪĭáĪį": 7281,
      "áĪħáĬķáĬĵ": 7282,
      "Ġáĭ¨áĭĪáĭŃáĬķĠáĮłáĮħ": 7283,
      "ĠáĮ«áĬĵ": 7284,
      "ĠáĬłáįįáīĥáĪª": 7285,
      "Ġáĭ¨áĪĿáĪµáĬŃáĪŃ": 7286,
      "ĠáīħáĪ¬áī³": 7287,
      "áĬķĠáĬ¥áĬķáĭ°áĪļ": 7288,
      "Ġáĭ¨áĭ±áĪŃ": 7289,
      "áĪŃáĪ½": 7290,
      "ĠáĪĺáĪĿáĪħ": 7291,
      "áĮįáĭĻ": 7292,
      "áīłáīĤáĭ«": 7293,
      "áįįáĪ«áīµ": 7294,
      "Ġáī°áĮĪáĪį": 7295,
      "ĠáĮįáĪĭáĭĬ": 7296,
      "ĠáĪįáĮĩ": 7297,
      "Ġáīµáī¥áī¥áĪŃ": 7298,
      "ĠáīłáĪĺáĪĭ": 7299,
      "ĠáīĢáĬĳáĬķ": 7300,
      "ĠáĬ¢áĪĭáĪĽ": 7301,
      "ĠáįįáĪŃ": 7302,
      "áīĭáĬķáīĭ": 7303,
      "ĠáĪĽáĬķáĬĲáīµ": 7304,
      "ĠáĪ¶áĪµáī°áĬĽáĭį": 7305,
      "ĠáĮĮáī³ĠáĪĨáĭŃ": 7306,
      "ĠáīłáĮ¥áĬķáīĥáīĦ": 7307,
      "áī¥áĭĽáĬŀáī¹": 7308,
      "áĮłáī£áīłáīĥ": 7309,
      "ĠáįķáĪ¬áĪµ": 7310,
      "ĠáĮįáĪĪáĪ°áī¡": 7311,
      "ĠáĬ®áĪļáĪ½": 7312,
      "áĬ¥áĪĿáĪ¯": 7313,
      "áįĢáĪįáĭŃ": 7314,
      "áīµáĪĺáīµ": 7315,
      "Ġáīłáĭ²": 7316,
      "ĠáĬłáĬĵáīµ": 7317,
      "áĪĺáĪ¨áī¥": 7318,
      "áĬķáĭŀ": 7319,
      "áĭ°áĪĿĠáī°": 7320,
      "ĠáĬ¨áīĢ": 7321,
      "ĠáĬ¨áĬ®": 7322,
      "áī³áĭĺáĭĻ": 7323,
      "ĠáĪĪáĪĮáĪĭ": 7324,
      "áī¶áī¿": 7325,
      "Ġáĭ°áįĭáĪŃ": 7326,
      "Ġáĭ¨áĬłáĪ³": 7327,
      "ĠáĬ¨áĬłáĪĭáĪħ": 7328,
      "ĠáĬłáĬ«áĪĭáĭĬ": 7329,
      "áĬķĠáĪĽáĪµ": 7330,
      "Ġáī°áĮįáī£áĪ«áīµ": 7331,
      "áĮĪáĬķáī£": 7332,
      "áĬĴáĭįáĭ®áĪŃáĬŃ": 7333,
      "áī°áĬ®áĪ¨": 7334,
      "ĠáĬłáĪ«áĭĬ": 7335,
      "áĪĽáĪªáĭ«": 7336,
      "áīĢáĭįáĬķ": 7337,
      "Ġáī°áĪ°áĪĽ": 7338,
      "ĠáĪĽáĪ½": 7339,
      "áĬĳáĪŃ": 7340,
      "áĪ½Ġ": 7341,
      "ĠáĪĨáī´áĪį": 7342,
      "áīµĠáĪĺáĪĨáĬĳ": 7343,
      "áĪ°áī£áĪ°áī¥": 7344,
      "Ġáī°áĪµáįĭĠáĬłáĭ°áĪŃáĮĭáĪĪáĪģĠ": 7345,
      "ĠáĭµáĪĿáįģ": 7346,
      "ĠáīµáĬ¥áĭĽáĭĽ": 7347,
      "áĭ°áĪŃáĮĪáĭįáĬķ": 7348,
      "Ġáĭ³áĭĬáīµáĬķ": 7349,
      "Ġáĭ¨áĬłáĪĿáĪĭáĬŃáĬķĠáīĥáĪį": 7350,
      "Ġáī°áĪ«áĪ®áī½": 7351,
      "Ġáī¥áī¸áĬĽ": 7352,
      "ĠáĬ¥áĬķáĭ³áĪĪáī¥áĬĿ": 7353,
      "Ġáĭ¨áĪ«áĪ±": 7354,
      "áĪµáĪĪ": 7355,
      "áĭ«áĭĺáĭį": 7356,
      "ĠáĬ¨áĪģáĪĪáīµ": 7357,
      "áĪĽáĪīĠ": 7358,
      "ĠáĭŃáĪĤ": 7359,
      "áĮ¥áĬĵ": 7360,
      "áĮłáĮ¡": 7361,
      "áĪŀáī°": 7362,
      "ĠáīłáĬ¥áĪĿáĬĲáīµ": 7363,
      "ĠáĪļáĬ«": 7364,
      "ĠáįķáĪª": 7365,
      "ĠáĬĲáĮĪáĪ®áī½ĠáĪģáĪī": 7366,
      "áīłáĪĪáįĢ": 7367,
      "áĬķĠáĬ¨áĪļ": 7368,
      "Ġáĭ«áĪ³áĭµ": 7369,
      "áī¨áĪŃáĪµ": 7370,
      "áīĭáīĭáĪĻ": 7371,
      "Ġáī£áĪĪáĪµáĪįáĮ£áĬķ": 7372,
      "Ġáĭ¨áĪįáī¥": 7373,
      "áĮĪáĬĵáĬĽĠáĭµáĬķáĬ³áĬĳ": 7374,
      "ĠáĬĲáīħ": 7375,
      "Ġáĭ«áĮłáįĭ": 7376,
      "áĬ«áĬĿ": 7377,
      "áĬķáĪĿĠáĪģáĪī": 7378,
      "áī¡áĬ¥": 7379,
      "ĠáĮłáīģ": 7380,
      "áĮĨáī»áī½áĪģ": 7381,
      "Ġáĭ³áī³": 7382,
      "ĠáĪ´áī¶áī½áĬķ": 7383,
      "ĠáĬ¨áĭļáĪħáĪĿĠáĪĮáĪĭ": 7384,
      "ĠáĬłáīµáĬŃáĪį": 7385,
      "ĠáĪµáĪľáī³áĭĬ": 7386,
      "ĠáĬłáĪīáī³áĭĬ": 7387,
      "ĠáĮįáī¥áĭŃ": 7388,
      "ĠáĬłáĪµáįĪáĪĭáĮĬĠáĬĲáĭįĠ": 7389,
      "áĪĿĠáīłáĬłáĬķáĭµ": 7390,
      "áĬķĠáīłáĬ¥áĪŃáĮįáĮ¥": 7391,
      "ĠáĪ±áīħ": 7392,
      "áĪµáī°áĭĭáĭĪáīħ": 7393,
      "ĠáĬ¨ĠáĮĢáĪĿáĪ®": 7394,
      "áĪ°áīłáĭį": 7395,
      "ĠáĬ¥áĬĵĠáīłáī°": 7396,
      "ĠáĪĢáĪ°": 7397,
      "ĠáĪħáĭ³áĪŃ": 7398,
      "ĠáĬ«áĪľáĪ«": 7399,
      "áĮĨáī½áĬķ": 7400,
      "áĪħáĪįĠáĪĺáī£": 7401,
      "áīµĠáĬłáĪĺáī³": 7402,
      "áīµĠáĬłáĪĪĠ": 7403,
      "ĠáīģáĪŃáĮłáĬĿáĬĲáīµ": 7404,
      "ĠáĬłáĪĪáī¥áĬķĠ": 7405,
      "ĠáĬłáīĢáĪ«áĪ¨áī¥": 7406,
      "áįĵáĪŃáī³áĪĽ": 7407,
      "áĭįáĪµáīµáĪ«áĪĬáĭ«": 7408,
      "ĠáĬłáĭ°áĪ¨": 7409,
      "áĪ¨áĬŀáī½": 7410,
      "áĪ«áĪ³áī½áĬķ": 7411,
      "ĠáĪĭáĭŃĠáĬ¥": 7412,
      "ĠáĪįáī£áī¸áĭį": 7413,
      "áĬķĠáīłáĪļáĭ«": 7414,
      "áĬķĠáĬłáĪĽ": 7415,
      "áĬ©áīµáĬķ": 7416,
      "ĠáĭµáĪĢ": 7417,
      "ĠáĬ¥áĬķáĭ²áĪħĠáīłáĪĽáĪĪáīµ": 7418,
      "ĠáĪĿáĬŃáĬķáĭ«áīµĠáīł": 7419,
      "áĪıáī¸áĭįĠ": 7420,
      "ĠáĪĦáĭ±Ġ": 7421,
      "áĮłáĬĵáīħ": 7422,
      "Ġáī°áĮ¨áĪĽáĪªĠáĪĺáĪ¨áĮĥ": 7423,
      "ĠáĪĺáĭĿáĮĪáī¥": 7424,
      "ĠáĬķáĮįáĮį": 7425,
      "ĠáĬ¥áĪ¨áįį": 7426,
      "Ġáī°áĭĪáĭ³áĭ³áĪª": 7427,
      "áīµĠáĬłáĭŃáĭ°áĪĪáĪĿ": 7428,
      "áĪĿĠáĬ¥áĬķáĭ²áĪģ": 7429,
      "áĪĿĠáĭŃáĪħáĬķ": 7430,
      "Ġáĭ¨áĭµáĪŃ": 7431,
      "áī°áĭĪ": 7432,
      "ĠáĪĺáĮĪáĪĪ": 7433,
      "áī³áĪĪáĪģ": 7434,
      "ĠáĪĪáĮį": 7435,
      "áĮ£áĪļáĭİáī½": 7436,
      "Ġáĭ¨áĪļáĮĪáĪŃ": 7437,
      "áĭ¨áĭįáĬķ": 7438,
      "ĠáĭįáĪİ": 7439,
      "ĠáĭĪáĭ°áĬĭáĪĭ": 7440,
      "ĠáĪĨáĬĳ": 7441,
      "ĠáīħáĬĵ": 7442,
      "ĠáĪĿáĬķĠáĪĽáĪĪáīµ": 7443,
      "ĠáĬ¨áĬłáĭ²áĪµ": 7444,
      "ĠáĬ¥áĬķáĭ´áīµĠáĭ«áĪĪ": 7445,
      "áĬ¨áī¥áĪ©": 7446,
      "Ġáĭ©áĬĵáĭŃáīµáĭµĠáĪµáī´áīµáĪµ": 7447,
      "áĪµáī²áĬŃáĪµ": 7448,
      "ĠáĬłáĪįáĬĲáīłáĪ¨áĪĿ": 7449,
      "ĠáĪĺáĭĭáĮ®": 7450,
      "áĪ½áĬķáĮįáī°áĬķ": 7451,
      "ĠáīłáĪĪ": 7452,
      "ĠáĬłáĪ»": 7453,
      "áĬķáĭ·": 7454,
      "áī°áĭįĠáĭ¨": 7455,
      "áĬ¨áĪ»": 7456,
      "ĠáĭĪáĭ°áī°": 7457,
      "ĠáīłáĬłáīħ": 7458,
      "áĮĪáī£áĪįĠ": 7459,
      "ĠáįĪáĪ«": 7460,
      "áįİáĪŃáĭµ": 7461,
      "Ġáĭ²áĪŀáĬŃáĪ«áĪ²áĭ«áĭĬ": 7462,
      "ĠáĪĽáĭµáĪ¨áĮī": 7463,
      "áĮķ": 7464,
      "Ġáĭ¨áĬĽ": 7465,
      "áī¥áīĥ": 7466,
      "áĪĽáīħ": 7467,
      "áįįáīĢáĭµ": 7468,
      "ĠáĬ¥áĬķáĭ°Ġáī°": 7469,
      "áī²áī±": 7470,
      "áĬķĠáįĪáīĥáĭµ": 7471,
      "áĪ°áī¥áĬŃ": 7472,
      "ĠáĭĭáĭŃ": 7473,
      "áĪ°áĮłáĬķ": 7474,
      "ĠáĬłáī£áī³áī½áĬķ": 7475,
      "Ġáī°áĪµáįĭĠáĬłáĭ°áĪŃáĮĭáĪĪáĪģ": 7476,
      "áĬĲáĮĪáĪ¨áĭį": 7477,
      "áįĪáĮ¥áĪ©": 7478,
      "ĠáĪµáĮĭáīµ": 7479,
      "ĠáĭĪáĪ¨áĭ°": 7480,
      "ĠáĬ¬áĪļ": 7481,
      "ĠáĮ¥áĪ¨áīµĠáĬł": 7482,
      "ĠáĬŃáĪµáī°áī¶áī½": 7483,
      "áĪµáī°áĭ³áĭµáĪŃ": 7484,
      "ĠáĪļáĪµáĮ¥áĪ«áĭĬ": 7485,
      "áĪĿĠáĭĪáĭŃáĪĿ": 7486,
      "áĪŃáĬ¨áī¥": 7487,
      "áĪįĠáĭŃáĪħ": 7488,
      "ĠáĬ¥áĪį": 7489,
      "áī¥áĭ±": 7490,
      "ĠáĭŃáĮİáī¥áĬĻ": 7491,
      "ĠáĭĪáįį": 7492,
      "áīĢáįĪ": 7493,
      "áĪªáĮħ": 7494,
      "áĭĭáĭĪ": 7495,
      "ĠáĬ¥áĬķáĭ²áĪ°áĪ©": 7496,
      "ĠáĭĪáĭ°ĠáĬł": 7497,
      "ĠáĬŃáĪĪáī¥": 7498,
      "ĠáĪĢáĬĵ": 7499,
      "ĠáĬ¨áĬłáĪĺ": 7500,
      "áĬ³áĭŃ": 7501,
      "áĪŃáĮįáĮłáĬĿáĬĲáīµ": 7502,
      "ĠáĪĮáĪİáī½Ġáĭ°áĮįáĪŀ": 7503,
      "ĠáĪ½áįĭáĬķ": 7504,
      "ĠáĬłáĪĿáĪ«": 7505,
      "Ġáĭ¨áī°áī£áĪĪáī½": 7506,
      "áĮłáĪ¨áĭ¥": 7507,
      "ĠáĭĪáĪĭáĮħ": 7508,
      "ĠáīłáĪ¨áĭ¶": 7509,
      "áĭŁáī¸áĭį": 7510,
      "áĭįáĪ«áĮĥ": 7511,
      "áĪ³áĪ°áĪī": 7512,
      "áĪµáī°áĭ«áĭ¨áīµ": 7513,
      "áĭª": 7514,
      "Ġáĭ«áĭį": 7515,
      "áĪ³áįįáĮ¥": 7516,
      "ĠáĬ¥áĬķáĭ²áĪ°áĪ«": 7517,
      "Ġáīµáĭ³áĪŃ": 7518,
      "áĮ¨áĪ¨áĪµ": 7519,
      "Ġáī¤áĭĽ": 7520,
      "ĠáĮłáĪĭáīµ": 7521,
      "ĠáįĪáĮĪáĮį": 7522,
      "ĠáĪįáĮĨáī»áī½áĬķ": 7523,
      "áī¶áī½áĬķĠáĪĪáĪĺ": 7524,
      "ĠáĪĺáĬ«áĬ¨áĪįĠáĭ«áĪĪáĭį": 7525,
      "Ġáĭįáĭµáīħ": 7526,
      "ĠáĬ¥áĭŃ": 7527,
      "ĠáīłáīµáĬķ": 7528,
      "áī½ĠáīłáĬĭáĪĭ": 7529,
      "áĪ¨áĪ±": 7530,
      "áī¥áĬł": 7531,
      "ĠáĭŃáĮłáīħ": 7532,
      "Ġáī°áĪ¨áĭµ": 7533,
      "ĠáĮįáĪ©": 7534,
      "ĠáĪµáĪĪáĪĿ": 7535,
      "ĠáĬłáĭŃáĬĸ": 7536,
      "ĠáĬ¢áĭ¨áĪ©áĪ³áĪĮáĪĿ": 7537,
      "ĠáĪ³áĮ¥áĬķ": 7538,
      "ĠáĪĽáĬķáĬĽáĭį": 7539,
      "ĠáĬ¥áī£áĬ®": 7540,
      "ĠáīłáĬ¢áĭ¨áĪ©áĪ³áĪĮáĪĿ": 7541,
      "Ġáĭ¨áĬ¥áĪµáĪ«áĬ¤áĪįĠáĬłáĪĿáĪĭáĬŃ": 7542,
      "Ġáĭ«áĭįáīĥáĪī": 7543,
      "ĠáĪĢáĭŃáĪĽáĬĸáī³áĭĬ": 7544,
      "ĠáīĢáĮ£áĭ©": 7545,
      "ĠáīłáĪ¬": 7546,
      "ĠáīłáĪĿáĪŃ": 7547,
      "ĠáĬłáĭĺáĭį": 7548,
      "áī³áĪĺ": 7549,
      "áįĪáīĢáĭµ": 7550,
      "áĪ®áĪĿ": 7551,
      "ĠáĬķáĭµ": 7552,
      "Ġáĭ¨áĪĽáĬ¥": 7553,
      "ĠáĬłáĪįáīł": 7554,
      "ĠáĬ¥áĪ±ĠáĮįáĬķ": 7555,
      "ĠáĭµáĪŃĠáĮ£áī¢áĭ«": 7556,
      "Ġáĭ²áĮĤáī³áĪį": 7557,
      "Ġáī£áĪħáĪ©": 7558,
      "áĬķáįĪáĪ¨áĬķáĪµ": 7559,
      "ĠáīłáĪ°áĭŃáįį": 7560,
      "ĠáĭµáĪŃáĮĬáī¶áī½": 7561,
      "áīµĠáĬłáĭµáĪŃáĮİ": 7562,
      "ĠáĭµáĪ¨ĠáĮĪáįĨáī½": 7563,
      "Ġáī°áĪ³áī³": 7564,
      "ĠáĬ¥áĬķáįĪáĪįáĮĭáĪĪáĬķĠ": 7565,
      "áĬķĠáĭĪáĭŃáĪĿ": 7566,
      "ĠáĬłáĪĿáĬĵ": 7567,
      "ĠáĬ¨áĮĪ": 7568,
      "ĠáĬ¨áĪ³": 7569,
      "Ġáĭ¨áĪļáĪĨáĬĲáĭį": 7570,
      "áĭĭáĪŃáĭ«áīµ": 7571,
      "áĪŀáĪī": 7572,
      "áīµĠáĬłáĬķáĭ±": 7573,
      "áĪĮáĭŃ": 7574,
      "Ġáĭ¨áĪĺáĭµáĪĢáĬĴ": 7575,
      "áĪĿĠáĬłáĪĭ": 7576,
      "áĪĬáĪĭ": 7577,
      "ĠáīłáĬĭáĪĭáĪĿ": 7578,
      "ĠáĪĢáĪ³áī¡": 7579,
      "áĪ°áī£áī°áĬĽáĭį": 7580,
      "ĠáĬķáĮįáĭ¶áī½": 7581,
      "Ġáĭ°áĬķáī¦áī½": 7582,
      "áĪĪáĪĺáĭ°áĭį": 7583,
      "ĠáĪµáĪŃáĬłáī±": 7584,
      "Ġáĭ¨áĮ¥áĪŃáĪµ": 7585,
      "Ġáĭ¨áĮįáĭµ": 7586,
      "Ġáī°áĮ«áĭĭáī½": 7587,
      "ĠáīłáĮŃáĪ«áĪ½": 7588,
      "áĬķĠáĪĬ": 7589,
      "Ġáĭ¨áįĸ": 7590,
      "Ġáĭ¨ĠáĬłáĪĺáīµ": 7591,
      "ĠáĬ¥áĮĪáĪĿáī³": 7592,
      "ĠáĬłáĭİáĬķáī³áĭĬ": 7593,
      "áĪĭáĪ½": 7594,
      "ĠáĪĺáĪĿáĪ¨áĮ¥": 7595,
      "ĠáĬ¨áī¤": 7596,
      "áĪ°áĪª": 7597,
      "Ġáī°áĪĺáĪĪáĪ±": 7598,
      "ĠáĪĿáĬķĠáĪĺ": 7599,
      "Ġáĭ¨áī°áĪ«": 7600,
      "ĠáĬĲáĮĪáĪ¨": 7601,
      "áīłáĪŃáĮį": 7602,
      "ĠáĬłáĪ³áī¢": 7603,
      "áīµĠáĬłáĭŃáĬĲáīµ": 7604,
      "áĮ«áĭĪáī»": 7605,
      "áĭ°áĪ¨áĪ°áīłáīµ": 7606,
      "ĠáįĮáĭ´": 7607,
      "ĠáĮĪáĬķáĭĺáī¡": 7608,
      "Ġáĭ¨áĪļáĮłáĮī": 7609,
      "ĠáĬ¨áĪĺáĮĢáĪĺáĪªáĭ«áĭį": 7610,
      "áĭ°áĪĿáĭ°áĪļáĭ«": 7611,
      "áĬķáĮŃ": 7612,
      "ĠáĪĺáĬ¨áī°áĪį": 7613,
      "áĭĪáĭµáīħ": 7614,
      "áĬ«áĪ«": 7615,
      "áĬ©ĠáīłáĬĭáĪĭ": 7616,
      "Ġáĭ¨áĬłáĪŃ": 7617,
      "áĭ°áĪŃáĪµáī¥": 7618,
      "ĠáĬ¢áĪľáĪį": 7619,
      "áĪĬáĬ¬": 7620,
      "ĠáĪĿáĬŃáĪ®áī½áĬķ": 7621,
      "Ġáī¡áĪ½": 7622,
      "Ġáĭ¨áīµáĬĽáĭį": 7623,
      "ĠáĬ¥áĪŃáĮįáĮłáĬŀáī½": 7624,
      "Ġáī°áĮĪáĬķáĭĿ": 7625,
      "ĠáĪ°áĮ¥áī·áĪįĠ": 7626,
      "áĪĿĠáĭ¨áĬ¥áĪµáĪ«áĬ¤áĪį": 7627,
      "ĠáĪįáĪĿáĪĿáĭµ": 7628,
      "Ġáĭ¨áĭ©ĠáĬ¤áĪµ": 7629,
      "ĠáĭįáĪµáĮ£áĭĬ": 7630,
      "ĠáīįáĪŃáī£": 7631,
      "áĬķĠáĬ¥áĭ«": 7632,
      "áĭįĠáĬĲáĮĪáĪŃ": 7633,
      "ĠáĬ¨áįĭ": 7634,
      "ĠáĬ¨áĪŀáīµ": 7635,
      "ĠáĭŃáĮłáī¥": 7636,
      "áĮ£áī½áĪģ": 7637,
      "Ġáĭ¨áĪļáĪĺáĮ¡": 7638,
      "ĠáĪ°áĭįáĬķ": 7639,
      "áĪ®áĭį": 7640,
      "Ġáī¥áĪĭáī½áĪģ": 7641,
      "ĠáĪĺáĬ«áĬ¨áĪįĠáĭ«áĪĪáĭįáĬķ": 7642,
      "ĠáĪĺáĬ«áĬ¨áĪįĠáĬłáĬķáĭ±": 7643,
      "ĠáĪ½áĪįáĪĽáīµ": 7644,
      "ĠáĪģáĪĪáī±áĬķ": 7645,
      "áĪŁáĪī": 7646,
      "áīĢĠáĪĺáĭĽáĪĻáĪŃáī±": 7647,
      "ĠáĭŀáĪŃ": 7648,
      "ĠáĪĪáĪĽáĬķáīłáī¥": 7649,
      "ĠáĬªáĪİĠáĪľáīµáĪŃ": 7650,
      "ĠáįĨáī³": 7651,
      "Ġáįįáīĥáĭµ": 7652,
      "ĠáĪĺáįĪáĪĪáĮį": 7653,
      "ĠáĭŃáĮłáīģ": 7654,
      "ĠáĪĪáĪģáĪĪáīµ": 7655,
      "Ġáĭ«áĭ°áĪŃáĮį": 7656,
      "áįĪáĭĭáĪįĠ": 7657,
      "Ġáĭ¨áĪļáĪĺ": 7658,
      "ĠáĪĽáĭŃáĪį": 7659,
      "áī±áīµ": 7660,
      "áĪ®áī³": 7661,
      "Ġáĭ¨áī°áĪ¨áĮĭáĮĪáĮł": 7662,
      "áĭĽáī½áĪģ": 7663,
      "áĬ¤áĪįĠ": 7664,
      "ĠáĬķĠáī°áĪĺáĪįáĬ¨áīµĠ": 7665,
      "áĮŃáĬķáīĢ": 7666,
      "ĠáĬ¥áĭ¨áĪŀ": 7667,
      "Ġáī¦áĪŃáĭ±": 7668,
      "ĠáĪĨáĬĸáĪĿĠáīł": 7669,
      "áĪ°áĮłáĬĿ": 7670,
      "áĪĤáĭ°": 7671,
      "ĠáĮĵáĭ°áĬĽáĭ¬": 7672,
      "ĠáĬłáįĪáįĥáįĢáĪĿ": 7673,
      "ĠáĭŃáĬĸáĪ«áĪį": 7674,
      "Ġáī°áī¥áĪĪáĭį": 7675,
      "Ġáī¥áīħĠáī¥áīħ": 7676,
      "Ġáĭ¨áĬ¬": 7677,
      "Ġáĭ¨áĮĬáĭľ": 7678,
      "áī½ĠáĬ¥áĬĵ": 7679,
      "ĠáĭŃáĪĦ": 7680,
      "ĠáĭŃáĮĢáĪĿ": 7681,
      "áĬłáĪµ": 7682,
      "ĠáĪ°áĪª": 7683,
      "ĠáĬĲáīłáĪŃĠáĬĲáĮĪáĪŃĠáĮįáĬķ": 7684,
      "ĠáĮłáĬķáĬŃ": 7685,
      "ĠáĬłáĭµáĪŃáĮį": 7686,
      "áīĢáĪ¨áī¥": 7687,
      "ĠáĪĿáĪ³áĪĮáĭİáī½": 7688,
      "ĠáĭĪáĭ³áĭµ": 7689,
      "ĠáĬ¥áĭ«áĬķáĭ³áĬķáĭ±áĬķ": 7690,
      "Ġáĭ¨áįĪáĮłáĪ«": 7691,
      "áīµáĬ¥": 7692,
      "Ġáĭ¨áĪĢáĭŃáĪį": 7693,
      "áĪĢáĬĲ": 7694,
      "áĪ½áĬĵáĪį": 7695,
      "áīµĠáĭ¨áĬĲáīłáĪ¨": 7696,
      "ĠáĪ°áĭįĠáĪģáĪī": 7697,
      "áĭİáĬķĠáĪĪáĪĺ": 7698,
      "ĠáįĭáĬķáī³": 7699,
      "ĠáīłáįįáīħáĪŃ": 7700,
      "ĠáĭŃáĪĺáĪµáĪĪáĬĽáĪįĠ": 7701,
      "ĠáĪĽáĮłáĪ«áīĢáĪļáĭ«": 7702,
      "áĬķáīģ": 7703,
      "áĪĿĠáĪ°áĭİáī½": 7704,
      "áĪĪáįĪ": 7705,
      "áĪĪáįī": 7706,
      "áĮĪáĮĪ": 7707,
      "áĮ¥áī°áĭį": 7708,
      "Ġáī°áĪ½áĬ¨áĪŃáĬ«áĪª": 7709,
      "áĮ£áĪ¬": 7710,
      "áĮ£áī¸áĭįĠ": 7711,
      "ĠáĬĲáĭįĠáĪĪ": 7712,
      "áĭļáĭ«áĭį": 7713,
      "áĮİáĭµ": 7714,
      "áĪ¸áīµ": 7715,
      "áĪ¸áĪ½": 7716,
      "Ġáĭ«áĪħáĭĮĠáīł": 7717,
      "ĠáīĥáĪįĠáĬłáīĢ": 7718,
      "ĠáĬ¥áĬķáĭ°áī°áĬĵáĮĪáĪ¨áĭį": 7719,
      "ĠáĮīáĭ³áĭŃĠáĪĭáĭŃ": 7720,
      "áĭĺáĮĭáĮĢáĭį": 7721,
      "Ġáĭ©ĠáĬ¤áĪµ": 7722,
      "ĠáīłáĪĺáĪ°áĪ¨áī±": 7723,
      "áĪĿáĪ°áĪį": 7724,
      "áĪŃáĬĵ": 7725,
      "áĪĪáĬŀáī½": 7726,
      "ĠáĪĺáĭ³áĪ¨áĪ»": 7727,
      "áī³áĮĪ": 7728,
      "áī³áĪĭáīħ": 7729,
      "áĭµáĮį": 7730,
      "áī£áĪĽ": 7731,
      "ĠáĪĽáĪį": 7732,
      "áĬ«áĪļáĭİáī½": 7733,
      "áĪĻáĪŃáīµ": 7734,
      "Ġáĭ¨áĬłáįįáĪªáĬ«": 7735,
      "Ġáĭ¨áĬ¥áĪ±áĬķ": 7736,
      "ĠáĪµáĪ«áī¸áĭį": 7737,
      "ĠáĪµáĪ«ĠáĪĭáĭŃ": 7738,
      "ĠáĬŃáįįáĪİáī½áĬķ": 7739,
      "áĮĪáĪįáĮĭáĭ®áī¹": 7740,
      "ĠáįĵáĭįáĬķáĭµ": 7741,
      "ĠáĬĲáīłáĪ¨áĭį": 7742,
      "ĠáįĭáĭŃáĪį": 7743,
      "Ġáĭ¨áĬ¥áĪµáĪ«áĬ¤áĪįáĬķ": 7744,
      "ĠáĪĿáĭµáĮĥ": 7745,
      "ĠáīĢáĭ°áĪĿĠáī¥áĪİ": 7746,
      "Ġáĭ¨áĭĪáĭ°áįĬáīµ": 7747,
      "áĪĿáĪĪáĬªáĭ«": 7748,
      "áĬķáĪ³áĭĬ": 7749,
      "Ġáĭ¨áįħáĪģáįį": 7750,
      "áĪįĠáĬ¥áĪµáī´": 7751,
      "ĠáĬłáĮ¥áĬķ": 7752,
      "áĪĺáī³áīµ": 7753,
      "áīłáĪįĠ": 7754,
      "ĠáĮįáĬĿ": 7755,
      "ĠáĮ¥áī¥áīħ": 7756,
      "áĬķáĪĿĠáĭŃ": 7757,
      "Ġáīłáī°áīĥ": 7758,
      "áĬ¸áĬĿ": 7759,
      "áĭĪáĭ³áī¸áĭį": 7760,
      "Ġáĭ¨áĪĺáĮĢáĪĺáĪªáĭ«áĭİáī¹": 7761,
      "áĬĲáĮįáĪ¨": 7762,
      "áīħáĬķáĮ¦": 7763,
      "ĠáĬłáĪĿáĪĭáĬ«áī½áĪģ": 7764,
      "áĪĿĠáĪĨáĬĳ": 7765,
      "ĠáĪ¶áįįáīµáĭĮáĪŃ": 7766,
      "áĬķĠáī£": 7767,
      "áĪĺáĭĭáĪį": 7768,
      "áĬĲáĭµ": 7769,
      "áĪ³áĪĪáĪģĠ": 7770,
      "áĬ¥áī¢áĭ«": 7771,
      "áĭĪáĭŃ": 7772,
      "Ġáĭ¨áĪļáīĥáĮłáĪįĠáĪĺáī£": 7773,
      "ĠáĪ°áĪľ": 7774,
      "ĠáĬ¥áĬķáĭ²áĪ°áĮ¡": 7775,
      "áĪĢáĮ¢áĬł": 7776,
      "ĠáĭĪáĭ°ĠáĮĬáĭľ": 7777,
      "áīµĠáĬłáĮįáĬĿ": 7778,
      "ĠáīĢáĬĳ": 7779,
      "ĠáīĢáĬķĠáĭŃ": 7780,
      "áĪµáī°áĪĽáĪŃ": 7781,
      "áĪµáīµáĪ®": 7782,
      "ĠáĬ¥áĬķáĭ³áĪĭ": 7783,
      "ĠáīĨáĮ£": 7784,
      "ĠáĪĺáĮłáĬķĠáīł": 7785,
      "ĠáįħáĬķáĪ°": 7786,
      "ĠáĮ£áĬ¥": 7787,
      "Ġáĭ¨áĬ¢áĬ®áĬĸáĪļ": 7788,
      "ĠáīłáĬ¥áĭįáĬĲ": 7789,
      "ĠáĭŃáįĪáĪįáĮĭáĪįĠ": 7790,
      "áĬ¨áĪĽáī¸": 7791,
      "Ġáīłáī³áĪĭáīħ": 7792,
      "ĠáĪĺáĬŃáįĪáĪį": 7793,
      "ĠáĭµáĬķáĮĭáĮĮáĭİáī½": 7794,
      "áĮĢáĪŃáĪĺáĬķ": 7795,
      "ĠáįķáĪ®áįĮáĪ°áĪŃ": 7796,
      "áĬĹáĬĹáĪŃ": 7797,
      "áĬķáīĢáĪ³áīĥáĪ½": 7798,
      "áĪĿĠáĭµáĪ¨áĪµ": 7799,
      "Ġáĭ¨áĪĤáĪ³áī¥": 7800,
      "ĠáĬłáĪıáī¸áĭį": 7801,
      "ĠáĭŃáĮĪáĬĻ": 7802,
      "ĠáĪµáĪĿĠáĬł": 7803,
      "áįĪáĭĭáĪį": 7804,
      "áĬ¨áĪ¬": 7805,
      "áĬĴáĪµ": 7806,
      "ĠáĪĺáĪµáĪĽáīµ": 7807,
      "ĠáĬ¥áĬĲáĭļáĪħĠáĪģáĪī": 7808,
      "ĠáįĢáĬķáī¶": 7809,
      "áĮįáĪ«áįĬ": 7810,
      "áī£áĪįáĬķáĮĢ": 7811,
      "áĬķĠáĪĽáĭĪáīħ": 7812,
      "ĠáĬ¨áĭļáĭ«áĪĿĠáĭĪáĭ°": 7813,
      "ĠáĭµáĪŃáĮħáī±": 7814,
      "ĠáĭįáĪµáĮ¥Ġáĭ¨áĪļáĮĪáĬĻ": 7815,
      "áīĢĠáĪĺáĭĽáĪĻáĪŃáīµ": 7816,
      "ĠáīłáĪĺáįħáĪĢáįįĠáīħáĭ±áĪµĠáĭįáĪµáĮ¥": 7817,
      "Ġáĭ°áĪĺáĭĪáĭĿ": 7818,
      "Ġáĭ«áīĢáĪŃáī£áĪįĠ": 7819,
      "áĬķáī»": 7820,
      "áīµáĪ«": 7821,
[...]
