{
  "version": "1.0",
  "truncation": null,
  "padding": null,
  "added_tokens": [
    {
      "id": 0,
      "content": "[UNK]",
      "single_word": false,
      "lstrip": false,
      "rstrip": false,
      "normalized": false,
      "special": true
    },
    {
      "id": 1,
      "content": "[SOS]",
      "single_word": false,
      "lstrip": false,
      "rstrip": false,
      "normalized": false,
      "special": true
    },
    {
      "id": 2,
      "content": "[EOS]",
      "single_word": false,
      "lstrip": false,
      "rstrip": false,
      "normalized": false,
      "special": true
    },
    {
      "id": 3,
      "content": "[PAD]",
      "single_word": false,
      "lstrip": false,
      "rstrip": false,
      "normalized": false,
      "special": true
    }
  ],
  "normalizer": null,
  "pre_tokenizer": {
    "type": "ByteLevel",
    "add_prefix_space": true,
    "trim_offsets": true,
    "use_regex": false
  },
  "post_processor": {
    "type": "ByteLevel",
    "add_prefix_space": true,
    "trim_offsets": true,
    "use_regex": true
  },
  "decoder": {
    "type": "ByteLevel",
    "add_prefix_space": true,
    "trim_offsets": true,
    "use_regex": true
  },
  "model": {
    "type": "BPE",
    "dropout": null,
    "unk_token": "[UNK]",
    "continuing_subword_prefix": null,
    "end_of_word_suffix": null,
    "fuse_unk": false,
    "byte_fallback": false,
    "vocab": {
      "[UNK]": 0,
      "[SOS]": 1,
      "[EOS]": 2,
      "[PAD]": 3,
      "A": 4,
      "B": 5,
      "C": 6,
      "D": 7,
      "E": 8,
      "F": 9,
      "G": 10,
      "H": 11,
      "I": 12,
      "J": 13,
      "K": 14,
      "L": 15,
      "M": 16,
      "N": 17,
      "O": 18,
      "P": 19,
      "Q": 20,
      "R": 21,
      "S": 22,
      "T": 23,
      "U": 24,
      "V": 25,
      "W": 26,
      "X": 27,
      "Y": 28,
      "Z": 29,
      "a": 30,
      "b": 31,
      "c": 32,
      "d": 33,
      "e": 34,
      "f": 35,
      "g": 36,
      "h": 37,
      "i": 38,
      "j": 39,
      "k": 40,
      "l": 41,
      "m": 42,
      "n": 43,
      "o": 44,
      "p": 45,
      "q": 46,
      "r": 47,
      "s": 48,
      "t": 49,
      "u": 50,
      "v": 51,
      "w": 52,
      "x": 53,
      "y": 54,
      "z": 55,
      "Â": 56,
      "Ġ": 57,
      "ł": 58,
      "eĠ": 59,
      "Ġt": 60,
      "sĠ": 61,
      "Ġth": 62,
      "dĠ": 63,
      "in": 64,
      "tĠ": 65,
      "an": 66,
      "er": 67,
      "on": 68,
      "ĠtheĠ": 69,
      "yĠ": 70,
      "ou": 71,
      "or": 72,
      "en": 73,
      "oĠ": 74,
      "th": 75,
      "ar": 76,
      "of": 77,
      "al": 78,
      "ing": 79,
      "re": 80,
      "andĠ": 81,
      "at": 82,
      "Ġs": 83,
      "Ġw": 84,
      "edĠ": 85,
      "Ġa": 86,
      "Ġh": 87,
      "ĠtoĠ": 88,
      "om": 89,
      "st": 90,
      "isĠ": 91,
      "il": 92,
      "it": 93,
      "you": 94,
      "esĠ": 95,
      "Ġc": 96,
      "ion": 97,
      "el": 98,
      "Ġb": 99,
      "for": 100,
      "ic": 101,
      "es": 102,
      "Ġm": 103,
      "atĠ": 104,
      "is": 105,
      "Ġp": 106,
      "ow": 107,
      "veĠ": 108,
      "ingĠ": 109,
      "ac": 110,
      "erĠ": 111,
      "Ġthe": 112,
      "ec": 113,
      "im": 114,
      "all": 115,
      "as": 116,
      "ed": 117,
      "ro": 118,
      "asĠ": 119,
      "ofĠ": 120,
      "leĠ": 121,
      "ĠandĠ": 122,
      "am": 123,
      "itĠ": 124,
      "ir": 125,
      "ith": 126,
      "Ġd": 127,
      "us": 128,
      "ill": 129,
      "ur": 130,
      "eĠth": 131,
      "wh": 132,
      "and": 133,
      "ch": 134,
      "Ġf": 135,
      "ol": 136,
      "ĠthatĠ": 137,
      "gh": 138,
      "Ġl": 139,
      "un": 140,
      "ri": 141,
      "ov": 142,
      "Ġin": 143,
      "em": 144,
      "ev": 145,
      "ent": 146,
      "ation": 147,
      "id": 148,
      "os": 149,
      "ear": 150,
      "ofĠtheĠ": 151,
      "no": 152,
      "op": 153,
      "Ġyou": 154,
      "Ġwh": 155,
      "if": 156,
      "ha": 157,
      "ra": 158,
      "entĠ": 159,
      "eĠw": 160,
      "Ġg": 161,
      "et": 162,
      "ayĠ": 163,
      "eĠs": 164,
      "ul": 165,
      "eĠt": 166,
      "ab": 167,
      "Ġto": 168,
      "pl": 169,
      "rom": 170,
      "ad": 171,
      "ex": 172,
      "ak": 173,
      "our": 174,
      "ersĠ": 175,
      "notĠ": 176,
      "areĠ": 177,
      "lyĠ": 178,
      "ah": 179,
      "ag": 180,
      "res": 181,
      "odĠ": 182,
      "ereĠ": 183,
      "ay": 184,
      "Ġn": 185,
      "ĠtheyĠ": 186,
      "ĠthisĠ": 187,
      "up": 188,
      "ut": 189,
      "anĠ": 190,
      "iv": 191,
      "ldĠ": 192,
      "sh": 193,
      "eh": 194,
      "ain": 195,
      "com": 196,
      "oneĠ": 197,
      "oun": 198,
      "Ġre": 199,
      "pro": 200,
      "with": 201,
      "Ġi": 202,
      "ep": 203,
      "Ġfor": 204,
      "outĠ": 205,
      "etĠ": 206,
      "be": 207,
      "utĠ": 208,
      "con": 209,
      "ĠtheĠs": 210,
      "oth": 211,
      "idĠ": 212,
      "ouldĠ": 213,
      "ea": 214,
      "Ġj": 215,
      "li": 216,
      "beĠ": 217,
      "ter": 218,
      "ceĠ": 219,
      "usĠ": 220,
      "ew": 221,
      "your": 222,
      "from": 223,
      "Ġof": 224,
      "Ġha": 225,
      "ehov": 226,
      "ehovah": 227,
      "est": 228,
      "lo": 229,
      "qu": 230,
      "Ġthem": 231,
      "iveĠ": 232,
      "sĠandĠ": 233,
      "um": 234,
      "eĠtheĠ": 235,
      "haveĠ": 236,
      "Ġst": 237,
      "Ġwith": 238,
      "eĠtoĠ": 239,
      "ap": 240,
      "Ġtheir": 241,
      "inĠtheĠ": 242,
      "ityĠ": 243,
      "ok": 244,
      "cl": 245,
      "wor": 246,
      "ess": 247,
      "ist": 248,
      "Ġsh": 249,
      "igh": 250,
      "ig": 251,
      "tsĠ": 252,
      "ud": 253,
      "enĠ": 254,
      "pe": 255,
      "ough": 256,
      "Ġwill": 257,
      "own": 258,
      "ef": 259,
      "eĠh": 260,
      "tion": 261,
      "ong": 262,
      "eĠm": 263,
      "edĠtoĠ": 264,
      "per": 265,
      "iesĠ": 266,
      "toĠ": 267,
      "will": 268,
      "ever": 269,
      "ell": 270,
      "ĠhisĠ": 271,
      "anyĠ": 272,
      "eĠandĠ": 273,
      "eĠd": 274,
      "uc": 275,
      "over": 276,
      "essĠ": 277,
      "jehovah": 278,
      "od": 279,
      "inĠ": 280,
      "end": 281,
      "now": 282,
      "andĠtheĠ": 283,
      "aĠ": 284,
      "onĠ": 285,
      "ach": 286,
      "opleĠ": 287,
      "art": 288,
      "soĠ": 289,
      "oc": 290,
      "Ġyour": 291,
      "eth": 292,
      "whoĠ": 293,
      "ĠtoĠtheĠ": 294,
      "eas": 295,
      "ich": 296,
      "Ġch": 297,
      "hisĠ": 298,
      "ĠhaveĠ": 299,
      "ĠasĠ": 300,
      "eĠb": 301,
      "por": 302,
      "Ġcom": 303,
      "Ġcon": 304,
      "der": 305,
      "ib": 306,
      "eg": 307,
      "rec": 308,
      "ustĠ": 309,
      "allyĠ": 310,
      "ĠitĠ": 311,
      "ous": 312,
      "ĠofĠ": 313,
      "ang": 314,
      "ip": 315,
      "ĠtheĠm": 316,
      "ĠtheĠb": 317,
      "eĠc": 318,
      "estĠ": 319,
      "ĠtheĠf": 320,
      "mentĠ": 321,
      "ant": 322,
      "Ġpro": 323,
      "eĠa": 324,
      "go": 325,
      "out": 326,
      "him": 327,
      "wasĠ": 328,
      "edĠb": 329,
      "ect": 330,
      "ableĠ": 331,
      "ish": 332,
      "year": 333,
      "Ġon": 334,
      "godĠ": 335,
      "ingĠa": 336,
      "ial": 337,
      "erv": 338,
      "ub": 339,
      "sp": 340,
      "ĠisĠ": 341,
      "ath": 342,
      "Ġtim": 343,
      "ĠmyĠ": 344,
      "ers": 345,
      "ack": 346,
      "eĠin": 347,
      "av": 348,
      "Ġtr": 349,
      "aus": 350,
      "eĠof": 351,
      "ot": 352,
      "dayĠ": 353,
      "fer": 354,
      "aw": 355,
      "ĠbutĠ": 356,
      "entsĠ": 357,
      "ingsĠ": 358,
      "ĠtheĠp": 359,
      "Ġk": 360,
      "itsĠ": 361,
      "Ġthat": 362,
      "aidĠ": 363,
      "iz": 364,
      "ind": 365,
      "ĠsĠ": 366,
      "aysĠ": 367,
      "ass": 368,
      "myĠ": 369,
      "sel": 370,
      "stĠ": 371,
      "ign": 372,
      "ateĠ": 373,
      "ob": 374,
      "ĠtheĠl": 375,
      "sĠtoĠ": 376,
      "peopleĠ": 377,
      "ĠtheĠc": 378,
      "uch": 379,
      "ĠwasĠ": 380,
      "se": 381,
      "str": 382,
      "oseĠ": 383,
      "ord": 384,
      "antĠ": 385,
      "ingĠtoĠ": 386,
      "ĠwhatĠ": 387,
      "Ġam": 388,
      "gr": 389,
      "ĠthereĠ": 390,
      "orĠ": 391,
      "act": 392,
      "ful": 393,
      "anc": 394,
      "eyĠ": 395,
      "enc": 396,
      "ostĠ": 397,
      "omeĠ": 398,
      "ĠtheĠt": 399,
      "af": 400,
      "Ġfrom": 401,
      "ph": 402,
      "ard": 403,
      "alĠ": 404,
      "pr": 405,
      "adĠ": 406,
      "alsoĠ": 407,
      "ĠbeĠ": 408,
      "att": 409,
      "Ġthen": 410,
      "ĠtheĠd": 411,
      "lik": 412,
      "eb": 413,
      "rough": 414,
      "form": 415,
      "ibleĠ": 416,
      "ousĠ": 417,
      "youĠ": 418,
      "ightĠ": 419,
      "Ġtak": 420,
      "int": 421,
      "ail": 422,
      "weĠ": 423,
      "righ": 424,
      "other": 425,
      "Ġac": 426,
      "Ġhow": 427,
      "mor": 428,
      "oll": 429,
      "enceĠ": 430,
      "ationĠ": 431,
      "oldĠ": 432,
      "heĠ": 433,
      "ian": 434,
      "ĠtheĠh": 435,
      "when": 436,
      "gre": 437,
      "ameĠ": 438,
      "elp": 439,
      "urn": 440,
      "fic": 441,
      "Ġpl": 442,
      "ook": 443,
      "eal": 444,
      "Ġcan": 445,
      "forĠ": 446,
      "ver": 447,
      "ens": 448,
      "whatĠ": 449,
      "doĠ": 450,
      "ecaus": 451,
      "ast": 452,
      "dis": 453,
      "hadĠ": 454,
      "comm": 455,
      "Ġthes": 456,
      "ĠweĠ": 457,
      "mak": 458,
      "eep": 459,
      "ick": 460,
      "eĠwill": 461,
      "indĠ": 462,
      "work": 463,
      "Ġhim": 464,
      "eĠthatĠ": 465,
      "ink": 466,
      "emb": 467,
      "wereĠ": 468,
      "ardĠ": 469,
      "been": 470,
      "yĠtoĠ": 471,
      "esĠandĠ": 472,
      "Ġwor": 473,
      "Ġab": 474,
      "sĠof": 475,
      "Ġand": 476,
      "pres": 477,
      "itt": 478,
      "ru": 479,
      "Ġwhen": 480,
      "oundĠ": 481,
      "aryĠ": 482,
      "anceĠ": 483,
      "port": 484,
      "atedĠ": 485,
      "hasĠ": 486,
      "noĠ": 487,
      "vi": 488,
      "ans": 489,
      "cont": 490,
      "eĠwith": 491,
      "ition": 492,
      "do": 493,
      "elyĠ": 494,
      "even": 495,
      "ryĠ": 496,
      "new": 497,
      "ationsĠ": 498,
      "ĠsoĠ": 499,
      "ure": 500,
      "par": 501,
      "ureĠ": 502,
      "ĠtheĠw": 503,
      "butĠ": 504,
      "can": 505,
      "rael": 506,
      "pos": 507,
      "israel": 508,
      "Ġas": 509,
      "ĠofĠtheĠ": 510,
      "each": 511,
      "ĠheĠ": 512,
      "ek": 513,
      "ust": 514,
      "edĠin": 515,
      "ne": 516,
      "astĠ": 517,
      "rem": 518,
      "eng": 519,
      "ild": 520,
      "ectĠ": 521,
      "eĠofĠ": 522,
      "tain": 523,
      "not": 524,
      "pp": 525,
      "eĠwasĠ": 526,
      "endĠ": 527,
      "which": 528,
      "iss": 529,
      "esusĠ": 530,
      "ĠwhoĠ": 531,
      "ordĠ": 532,
      "sid": 533,
      "Ġsp": 534,
      "og": 535,
      "Ġbe": 536,
      "ĠyouĠ": 537,
      "under": 538,
      "oodĠ": 539,
      "ineĠ": 540,
      "byĠ": 541,
      "Ġad": 542,
      "bl": 543,
      "otherĠ": 544,
      "au": 545,
      "iceĠ": 546,
      "Ġther": 547,
      "Ġall": 548,
      "Ġjehovah": 549,
      "Ġif": 550,
      "aid": 551,
      "acc": 552,
      "duc": 553,
      "jo": 554,
      "fl": 555,
      "ĠthoseĠ": 556,
      "cre": 557,
      "eĠsh": 558,
      "Ġpe": 559,
      "know": 560,
      "ingĠs": 561,
      "we": 562,
      "unt": 563,
      "ĠgodĠ": 564,
      "Ġor": 565,
      "istĠ": 566,
      "Ġmor": 567,
      "prov": 568,
      "Ġcl": 569,
      "terĠ": 570,
      "reg": 571,
      "ark": 572,
      "sĠthatĠ": 573,
      "ean": 574,
      "aceĠ": 575,
      "man": 576,
      "Ġthan": 577,
      "ingĠandĠ": 578,
      "self": 579,
      "aĠs": 580,
      "ingĠtheĠ": 581,
      "eadĠ": 582,
      "son": 583,
      "di": 584,
      "woĠ": 585,
      "Ġaf": 586,
      "thĠ": 587,
      "ern": 588,
      "Ġwhich": 589,
      "ound": 590,
      "ĠdoĠ": 591,
      "ĠhasĠ": 592,
      "ionsĠ": 593,
      "pre": 594,
      "Ġthrough": 595,
      "everĠ": 596,
      "iĠ": 597,
      "fir": 598,
      "aboutĠ": 599,
      "ead": 600,
      "oveĠ": 601,
      "her": 602,
      "amp": 603,
      "ship": 604,
      "ageĠ": 605,
      "arm": 606,
      "artic": 607,
      "min": 608,
      "erĠandĠ": 609,
      "nessĠ": 610,
      "tyĠ": 611,
      "ical": 612,
      "edĠbyĠ": 613,
      "itiesĠ": 614,
      "again": 615,
      "well": 616,
      "lif": 617,
      "aĠl": 618,
      "ĠnotĠ": 619,
      "any": 620,
      "wouldĠ": 621,
      "rit": 622,
      "sĠofĠ": 623,
      "sĠs": 624,
      "edĠandĠ": 625,
      "Ġex": 626,
      "eli": 627,
      "onĠtheĠ": 628,
      "kingĠ": 629,
      "fe": 630,
      "ual": 631,
      "giv": 632,
      "ĠbyĠ": 633,
      "arg": 634,
      "Ġtra": 635,
      "ementĠ": 636,
      "otĠ": 637,
      "inc": 638,
      "how": 639,
      "justĠ": 640,
      "edĠwith": 641,
      "ilyĠ": 642,
      "look": 643,
      "veryĠ": 644,
      "eĠto": 645,
      "ĠatĠ": 646,
      "oryĠ": 647,
      "po": 648,
      "Ġpr": 649,
      "ult": 650,
      "yearsĠ": 651,
      "aĠm": 652,
      "ount": 653,
      "Ġv": 654,
      "rel": 655,
      "help": 656,
      "resp": 657,
      "meĠ": 658,
      "ollow": 659,
      "esĠtoĠ": 660,
      "ĠpeopleĠ": 661,
      "read": 662,
      "serv": 663,
      "mayĠ": 664,
      "ik": 665,
      "aveĠ": 666,
      "evel": 667,
      "aĠb": 668,
      "ĠthemĠ": 669,
      "nĠt": 670,
      "king": 671,
      "Ġse": 672,
      "eav": 673,
      "des": 674,
      "inter": 675,
      "yĠtheĠ": 676,
      "comp": 677,
      "ey": 678,
      "ĠandĠtheĠ": 679,
      "onĠt": 680,
      "ug": 681,
      "gan": 682,
      "ildr": 683,
      "redĠ": 684,
      "itĠisĠ": 685,
      "mad": 686,
      "Ġr": 687,
      "som": 688,
      "ener": 689,
      "clud": 690,
      "befor": 691,
      "wayĠ": 692,
      "riv": 693,
      "edĠtheĠ": 694,
      "earn": 695,
      "sĠin": 696,
      "so": 697,
      "jesusĠ": 698,
      "Ġcont": 699,
      "artĠ": 700,
      "ater": 701,
      "onlyĠ": 702,
      "allĠ": 703,
      "aith": 704,
      "ret": 705,
      "hear": 706,
      "rib": 707,
      "ubl": 708,
      "Ġacc": 709,
      "Ġag": 710,
      "aĠp": 711,
      "ĠmayĠ": 712,
      "everyĠ": 713,
      "aĠf": 714,
      "ection": 715,
      "roth": 716,
      "yp": 717,
      "rightĠ": 718,
      "Ġcomm": 719,
      "ĠtimeĠ": 720,
      "ĠtoĠs": 721,
      "Ġour": 722,
      "Ġman": 723,
      "Ġmak": 724,
      "ingĠin": 725,
      "getĠ": 726,
      "goodĠ": 727,
      "Ġwork": 728,
      "ĠtheĠn": 729,
      "aĠg": 730,
      "actĠ": 731,
      "Ġne": 732,
      "ĠwouldĠ": 733,
      "orsĠ": 734,
      "ash": 735,
      "ĠtwoĠ": 736,
      "ool": 737,
      "ĠtheseĠ": 738,
      "ĠhadĠ": 739,
      "saidĠ": 740,
      "dec": 741,
      "Ġthink": 742,
      "umb": 743,
      "iseĠ": 744,
      "iousĠ": 745,
      "ingĠb": 746,
      "car": 747,
      "ueĠ": 748,
      "bec": 749,
      "iteĠ": 750,
      "down": 751,
      "ia": 752,
      "ost": 753,
      "ĠaĠs": 754,
      "aul": 755,
      "dom": 756,
      "orn": 757,
      "jud": 758,
      "atesĠ": 759,
      "und": 760,
      "view": 761,
      "every": 762,
      "ech": 763,
      "becaus": 764,
      "right": 765,
      "ĠtoĠbeĠ": 766,
      "old": 767,
      "ingĠm": 768,
      "air": 769,
      "ann": 770,
      "wer": 771,
      "edĠfor": 772,
      "ett": 773,
      "peri": 774,
      "off": 775,
      "Ġher": 776,
      "Ġnew": 777,
      "ly": 778,
      "vis": 779,
      "oul": 780,
      "mon": 781,
      "rist": 782,
      "overn": 783,
      "giveĠ": 784,
      "ionĠ": 785,
      "augh": 786,
      "itesĠ": 787,
      "antsĠ": 788,
      "manyĠ": 789,
      "ci": 790,
      "Ġthough": 791,
      "ideĠ": 792,
      "hous": 793,
      "Ġsom": 794,
      "ileĠ": 795,
      "aĠd": 796,
      "atĠtheĠ": 797,
      "reeĠ": 798,
      "Ġnow": 799,
      "iĠwill": 800,
      "loc": 801,
      "row": 802,
      "shall": 803,
      "reat": 804,
      "eĠtheyĠ": 805,
      "quest": 806,
      "portĠ": 807,
      "edĠon": 808,
      "alk": 809,
      "aĠc": 810,
      "gu": 811,
      "oy": 812,
      "dition": 813,
      "keep": 814,
      "br": 815,
      "Ġal": 816,
      "goĠ": 817,
      "Ġdo": 818,
      "ment": 819,
      "ingĠfor": 820,
      "Ġhear": 821,
      "Ġper": 822,
      "sĠofĠtheĠ": 823,
      "Ġy": 824,
      "mostĠ": 825,
      "sĠfor": 826,
      "yĠandĠ": 827,
      "iel": 828,
      "ofĠs": 829,
      "overĠ": 830,
      "ext": 831,
      "Ġknow": 832,
      "ask": 833,
      "moreĠ": 834,
      "oh": 835,
      "Ġup": 836,
      "econ": 837,
      "landĠ": 838,
      "ĠaĠl": 839,
      "rip": 840,
      "loveĠ": 841,
      "Ġso": 842,
      "amilyĠ": 843,
      "lesĠ": 844,
      "bu": 845,
      "rat": 846,
      "ĠandĠh": 847,
      "ific": 848,
      "ĠthisĠisĠ": 849,
      "ublic": 850,
      "didĠ": 851,
      "Ġlik": 852,
      "az": 853,
      "ofĠm": 854,
      "ivesĠ": 855,
      "Ġdis": 856,
      "peak": 857,
      "exp": 858,
      "ĠthoseĠwhoĠ": 859,
      "usin": 860,
      "chang": 861,
      "Ġbut": 862,
      "oup": 863,
      "ĠoneĠ": 864,
      "eĠitĠ": 865,
      "Ġserv": 866,
      "fath": 867,
      "ingĠp": 868,
      "selv": 869,
      "theĠ": 870,
      "worldĠ": 871,
      "atch": 872,
      "ingĠc": 873,
      "uf": 874,
      "untoĠ": 875,
      "ict": 876,
      "stand": 877,
      "yst": 878,
      "respon": 879,
      "ildĠ": 880,
      "plac": 881,
      "letĠ": 882,
      "uallyĠ": 883,
      "ĠshouldĠ": 884,
      "ĠandĠs": 885,
      "ular": 886,
      "earth": 887,
      "shouldĠ": 888,
      "wordĠ": 889,
      "iffer": 890,
      "follow": 891,
      "inn": 892,
      "compl": 893,
      "avidĠ": 894,
      "sĠtheĠ": 895,
      "ĠnoĠ": 896,
      "Ġbecaus": 897,
      "ersĠandĠ": 898,
      "Ġcomp": 899,
      "fin": 900,
      "edĠthatĠ": 901,
      "Ġhelp": 902,
      "eĠfor": 903,
      "edĠm": 904,
      "rol": 905,
      "long": 906,
      "ĠthingsĠ": 907,
      "ational": 908,
      "waysĠ": 909,
      "rag": 910,
      "reatĠ": 911,
      "ng": 912,
      "Ġbefor": 913,
      "sĠb": 914,
      "ric": 915,
      "eĠyou": 916,
      "esĠthatĠ": 917,
      "evelop": 918,
      "eĠofĠtheĠ": 919,
      "inĠa": 920,
      "readĠ": 921,
      "to": 922,
      "articleĠ": 923,
      "iedĠ": 924,
      "emp": 925,
      "ofĠa": 926,
      "after": 927,
      "eĠhasĠ": 928,
      "call": 929,
      "iĠam": 930,
      "ĠaboutĠ": 931,
      "much": 932,
      "ron": 933,
      "ĠmeĠ": 934,
      "ealth": 935,
      "anĠin": 936,
      "reas": 937,
      "Ġis": 938,
      "ness": 939,
      "ĠtheĠg": 940,
      "stud": 941,
      "happ": 942,
      "app": 943,
      "etwe": 944,
      "eph": 945,
      "antĠtoĠ": 946,
      "Ġafter": 947,
      "ĠthereĠisĠ": 948,
      "exc": 949,
      "othersĠ": 950,
      "entlyĠ": 951,
      "sĠareĠ": 952,
      "edĠs": 953,
      "ĠtheirĠ": 954,
      "Ġturn": 955,
      "eath": 956,
      "eptĠ": 957,
      "allĠtheĠ": 958,
      "until": 959,
      "sider": 960,
      "eĠthisĠ": 961,
      "inv": 962,
      "Ġph": 963,
      "ertain": 964,
      "ingĠthatĠ": 965,
      "eet": 966,
      "greatĠ": 967,
      "ution": 968,
      "ank": 969,
      "irstĠ": 970,
      "Ġthou": 971,
      "seĠ": 972,
      "inu": 973,
      "ix": 974,
      "ĠinĠtheĠ": 975,
      "iĠhaveĠ": 976,
      "icesĠ": 977,
      "Ġagain": 978,
      "red": 979,
      "firstĠ": 980,
      "offer": 981,
      "experi": 982,
      "earch": 983,
      "eatĠ": 984,
      "room": 985,
      "ept": 986,
      "ĠtheĠbibleĠ": 987,
      "import": 988,
      "extĠ": 989,
      "ystem": 990,
      "Ġap": 991,
      "Ġmon": 992,
      "Ġrec": 993,
      "erc": 994,
      "ligh": 995,
      "Ġthos": 996,
      "eveĠ": 997,
      "lordĠ": 998,
      "sur": 999,
      "ĠinĠ": 1000,
      "iah": 1001,
      "Ġreg": 1002,
      "itedĠ": 1003,
      "aĠw": 1004,
      "fac": 1005,
      "open": 1006,
      "requ": 1007,
      "ĠtoĠd": 1008,
      "about": 1009,
      "struc": 1010,
      "ould": 1011,
      "jehovahĠ": 1012,
      "back": 1013,
      "ĠaĠf": 1014,
      "organ": 1015,
      "erveĠ": 1016,
      "formation": 1017,
      "whereĠ": 1018,
      "iĠm": 1019,
      "abl": 1020,
      "areĠs": 1021,
      "youĠwill": 1022,
      "ĠmanyĠ": 1023,
      "ilityĠ": 1024,
      "alityĠ": 1025,
      "pri": 1026,
      "ittleĠ": 1027,
      "childr": 1028,
      "Ġpers": 1029,
      "eaven": 1030,
      "arri": 1031,
      "eir": 1032,
      "ray": 1033,
      "ountĠ": 1034,
      "ativeĠ": 1035,
      "itĠsĠ": 1036,
      "eĠcan": 1037,
      "faith": 1038,
      "fri": 1039,
      "learn": 1040,
      "rect": 1041,
      "ableĠtoĠ": 1042,
      "eĠsaidĠ": 1043,
      "ull": 1044,
      "say": 1045,
      "ĠjustĠ": 1046,
      "spir": 1047,
      "Ġter": 1048,
      "offic": 1049,
      "ingĠh": 1050,
      "ĠtakeĠ": 1051,
      "empl": 1052,
      "ĠloveĠ": 1053,
      "ĠaĠb": 1054,
      "aidĠtoĠ": 1055,
      "Ġtrans": 1056,
      "ower": 1057,
      "ision": 1058,
      "iansĠ": 1059,
      "uresĠ": 1060,
      "easeĠ": 1061,
      "aĠh": 1062,
      "law": 1063,
      "beli": 1064,
      "couldĠ": 1065,
      "kill": 1066,
      "ten": 1067,
      "edi": 1068,
      "edĠhim": 1069,
      "person": 1070,
      "nam": 1071,
      "ĠsaidĠ": 1072,
      "blem": 1073,
      "putĠ": 1074,
      "ifĠyou": 1075,
      "gl": 1076,
      "Ġthank": 1077,
      "ĠdidĠ": 1078,
      "ether": 1079,
      "provid": 1080,
      "Ġdes": 1081,
      "selvesĠ": 1082,
      "poss": 1083,
      "sc": 1084,
      "impl": 1085,
      "edĠfrom": 1086,
      "ĠtheĠson": 1087,
      "minist": 1088,
      "show": 1089,
      "Ġlif": 1090,
      "againstĠ": 1091,
      "allĠh": 1092,
      "ĠitĠisĠ": 1093,
      "chool": 1094,
      "lifeĠ": 1095,
      "atur": 1096,
      "willĠb": 1097,
      "Ġgo": 1098,
      "ĠwhyĠ": 1099,
      "ĠtodayĠ": 1100,
      "reĠ": 1101,
      "ilit": 1102,
      "etween": 1103,
      "still": 1104,
      "includ": 1105,
      "ress": 1106,
      "Ġdec": 1107,
      "etsĠ": 1108,
      "forĠtheĠ": 1109,
      "edg": 1110,
      "ampleĠ": 1111,
      "ethi": 1112,
      "andĠtheyĠ": 1113,
      "given": 1114,
      "thor": 1115,
      "itĠwasĠ": 1116,
      "Ġthere": 1117,
      "ingĠwith": 1118,
      "Ġtog": 1119,
      "ĠwereĠ": 1120,
      "unto": 1121,
      "andĠs": 1122,
      "dsĠ": 1123,
      "yourĠ": 1124,
      "Ġfe": 1125,
      "Ġlook": 1126,
      "ĠthatĠtheyĠ": 1127,
      "ĠjesusĠ": 1128,
      "ĠthatĠisĠ": 1129,
      "yĠt": 1130,
      "issu": 1131,
      "ros": 1132,
      "overnmentĠ": 1133,
      "ession": 1134,
      "lessĠ": 1135,
      "press": 1136,
      "Ġtook": 1137,
      "ethiop": 1138,
      "aterĠ": 1139,
      "nor": 1140,
      "Ġind": 1141,
      "usinessĠ": 1142,
      "ention": 1143,
      "produc": 1144,
      "into": 1145,
      "ĠtooĠ": 1146,
      "ofĠisrael": 1147,
      "ight": 1148,
      "Ġass": 1149,
      "urch": 1150,
      "Ġus": 1151,
      "feel": 1152,
      "intĠ": 1153,
      "enjo": 1154,
      "edĠinĠtheĠ": 1155,
      "godĠsĠ": 1156,
      "comeĠ": 1157,
      "eter": 1158,
      "rais": 1159,
      "ax": 1160,
      "among": 1161,
      "odyĠ": 1162,
      "ember": 1163,
      "ĠaĠm": 1164,
      "osesĠ": 1165,
      "rece": 1166,
      "ansĠ": 1167,
      "lin": 1168,
      "add": 1169,
      "conc": 1170,
      "lig": 1171,
      "eff": 1172,
      "ari": 1173,
      "eĠthem": 1174,
      "rain": 1175,
      "righte": 1176,
      "likeĠ": 1177,
      "oneĠwhoĠ": 1178,
      "upon": 1179,
      "sup": 1180,
      "clos": 1181,
      "Ġshall": 1182,
      "ristĠ": 1183,
      "employ": 1184,
      "Ġrem": 1185,
      "eek": 1186,
      "outh": 1187,
      "ĠtoĠm": 1188,
      "ingĠon": 1189,
      "vers": 1190,
      "Ġar": 1191,
      "ĠaĠ": 1192,
      "intoĠ": 1193,
      "ther": 1194,
      "Ġan": 1195,
      "urs": 1196,
      "olog": 1197,
      "high": 1198,
      "Ġat": 1199,
      "andĠt": 1200,
      "imp": 1201,
      "alt": 1202,
      "Ġsay": 1203,
      "order": 1204,
      "earlyĠ": 1205,
      "liv": 1206,
      "less": 1207,
      "rong": 1208,
      "dep": 1209,
      "stat": 1210,
      "sĠm": 1211,
      "ĠiĠwill": 1212,
      "ĠthyĠ": 1213,
      "olyĠ": 1214,
      "jehovahĠsĠ": 1215,
      "cam": 1216,
      "ĠmoreĠ": 1217,
      "eĠwor": 1218,
      "urr": 1219,
      "ide": 1220,
      "bo": 1221,
      "eign": 1222,
      "eastĠ": 1223,
      "put": 1224,
      "Ġbr": 1225,
      "eĠisĠ": 1226,
      "ĠthatĠtheĠ": 1227,
      "vel": 1228,
      "Ġbec": 1229,
      "alsĠ": 1230,
      "doesĠ": 1231,
      "stor": 1232,
      "ourĠ": 1233,
      "fromĠtheĠ": 1234,
      "ucc": 1235,
      "etherĠ": 1236,
      "apt": 1237,
      "kingdom": 1238,
      "eful": 1239,
      "youĠhaveĠ": 1240,
      "Ġcar": 1241,
      "agesĠ": 1242,
      "ĠsomeĠ": 1243,
      "aim": 1244,
      "allow": 1245,
      "oci": 1246,
      "need": 1247,
      "rew": 1248,
      "gram": 1249,
      "was": 1250,
      "olic": 1251,
      "thingĠ": 1252,
      "haveĠbeen": 1253,
      "isĠtheĠ": 1254,
      "ustom": 1255,
      "just": 1256,
      "ush": 1257,
      "such": 1258,
      "ofĠhisĠ": 1259,
      "ofĠd": 1260,
      "ram": 1261,
      "pec": 1262,
      "who": 1263,
      "ĠusĠ": 1264,
      "reach": 1265,
      "expl": 1266,
      "ivid": 1267,
      "christ": 1268,
      "identĠ": 1269,
      "ultĠ": 1270,
      "iredĠ": 1271,
      "ĠandĠtheyĠ": 1272,
      "ourag": 1273,
      "but": 1274,
      "Ġdown": 1275,
      "eĠtheĠs": 1276,
      "foundĠ": 1277,
      "sĠwith": 1278,
      "esĠtheĠ": 1279,
      "alem": 1280,
      "organiz": 1281,
      "ĠiĠhaveĠ": 1282,
      "uss": 1283,
      "enef": 1284,
      "prom": 1285,
      "ountryĠ": 1286,
      "doĠnotĠ": 1287,
      "inceĠ": 1288,
      "val": 1289,
      "Ġtell": 1290,
      "ident": 1291,
      "ĠoutĠ": 1292,
      "eric": 1293,
      "Ġrel": 1294,
      "fort": 1295,
      "ingĠw": 1296,
      "ounc": 1297,
      "disc": 1298,
      "cons": 1299,
      "ifferentĠ": 1300,
      "respons": 1301,
      "ĠmustĠ": 1302,
      "eĠwouldĠ": 1303,
      "du": 1304,
      "alwaysĠ": 1305,
      "eedĠ": 1306,
      "someĠ": 1307,
      "erus": 1308,
      "plesĠ": 1309,
      "mean": 1310,
      "ĠaĠc": 1311,
      "gener": 1312,
      "oper": 1313,
      "hereĠ": 1314,
      "Ġstud": 1315,
      "Ġteach": 1316,
      "erusalem": 1317,
      "onsĠ": 1318,
      "eam": 1319,
      "jectĠ": 1320,
      "itness": 1321,
      "Ġchildr": 1322,
      "egyp": 1323,
      "reallyĠ": 1324,
      "ĠhimĠ": 1325,
      "return": 1326,
      "enter": 1327,
      "willĠbeĠ": 1328,
      "ĠcanĠ": 1329,
      "herĠ": 1330,
      "andsĠ": 1331,
      "onesĠ": 1332,
      "ĠtheyĠareĠ": 1333,
      "edĠthem": 1334,
      "run": 1335,
      "Ġprov": 1336,
      "war": 1337,
      "imm": 1338,
      "makeĠ": 1339,
      "Ġthis": 1340,
      "atter": 1341,
      "ĠcouldĠ": 1342,
      "ĠiĠam": 1343,
      "erĠofĠ": 1344,
      "ofĠb": 1345,
      "Ġaccord": 1346,
      "assĠ": 1347,
      "ofĠc": 1348,
      "eĠtheir": 1349,
      "youĠcan": 1350,
      "equ": 1351,
      "gra": 1352,
      "ital": 1353,
      "ock": 1354,
      "ĠherĠ": 1355,
      "whyĠ": 1356,
      "young": 1357,
      "ĠthatĠh": 1358,
      "findĠ": 1359,
      "fill": 1360,
      "mentsĠ": 1361,
      "esh": 1362,
      "ingĠd": 1363,
      "cor": 1364,
      "nown": 1365,
      "ys": 1366,
      "had": 1367,
      "inist": 1368,
      "ationĠandĠ": 1369,
      "Ġdi": 1370,
      "eck": 1371,
      "occ": 1372,
      "ĠiĠ": 1373,
      "stit": 1374,
      "ength": 1375,
      "imeĠ": 1376,
      "way": 1377,
      "alm": 1378,
      "gaveĠ": 1379,
      "Ġpar": 1380,
      "eĠweĠ": 1381,
      "wher": 1382,
      "etter": 1383,
      "ĠanĠ": 1384,
      "becom": 1385,
      "mall": 1386,
      "roughtĠ": 1387,
      "edĠup": 1388,
      "ement": 1389,
      "ireĠ": 1390,
      "placeĠ": 1391,
      "partĠ": 1392,
      "what": 1393,
      "list": 1394,
      "ĠtoĠb": 1395,
      "Ġperson": 1396,
      "eĠhim": 1397,
      "ledg": 1398,
      "hap": 1399,
      "oil": 1400,
      "eftĠ": 1401,
      "ecur": 1402,
      "ry": 1403,
      "ris": 1404,
      "lead": 1405,
      "ĠdoĠnotĠ": 1406,
      "Ġgu": 1407,
      "etyĠ": 1408,
      "eat": 1409,
      "Ġsup": 1410,
      "olv": 1411,
      "ressĠ": 1412,
      "aff": 1413,
      "edĠhisĠ": 1414,
      "Ġinter": 1415,
      "Ġgr": 1416,
      "awayĠ": 1417,
      "raw": 1418,
      "readyĠ": 1419,
      "ofĠtheĠt": 1420,
      "edĠby": 1421,
      "cityĠ": 1422,
      "iallyĠ": 1423,
      "himĠ": 1424,
      "ustr": 1425,
      "remain": 1426,
      "fun": 1427,
      "ĠgiveĠ": 1428,
      "ofĠthisĠ": 1429,
      "def": 1430,
      "though": 1431,
      "tionsĠ": 1432,
      "del": 1433,
      "far": 1434,
      "rid": 1435,
      "echn": 1436,
      "unityĠ": 1437,
      "ission": 1438,
      "ĠtheĠlordĠ": 1439,
      "Ġact": 1440,
      "ather": 1441,
      "present": 1442,
      "consider": 1443,
      "Ġsuch": 1444,
      "eĠwereĠ": 1445,
      "pass": 1446,
      "eĠshall": 1447,
      "vir": 1448,
      "edĠasĠ": 1449,
      "iaĠ": 1450,
      "proph": 1451,
      "appl": 1452,
      "youĠareĠ": 1453,
      "handĠ": 1454,
      "ĠdayĠ": 1455,
      "atelyĠ": 1456,
      "alf": 1457,
      "dur": 1458,
      "judg": 1459,
      "eed": 1460,
      "ieldĠ": 1461,
      "ectsĠ": 1462,
      "evenĠ": 1463,
      "continu": 1464,
      "week": 1465,
      "familyĠ": 1466,
      "rink": 1467,
      "ingĠtoĠtheĠ": 1468,
      "hab": 1469,
      "ĠaĠp": 1470,
      "angu": 1471,
      "Ġhous": 1472,
      "ivers": 1473,
      "ĠyouĠareĠ": 1474,
      "log": 1475,
      "ĠtimesĠ": 1476,
      "ablish": 1477,
      "ĠgetĠ": 1478,
      "Ġtherefor": 1479,
      "ectiveĠ": 1480,
      "ĠareĠ": 1481,
      "eĠthan": 1482,
      "ism": 1483,
      "establish": 1484,
      "ĠonĠtheĠ": 1485,
      "lastĠ": 1486,
      "ientĠ": 1487,
      "along": 1488,
      "tĠandĠ": 1489,
      "bel": 1490,
      "emberĠ": 1491,
      "low": 1492,
      "national": 1493,
      "ingĠab": 1494,
      "creas": 1495,
      "ĠdonĠt": 1496,
      "ofĠyour": 1497,
      "aĠt": 1498,
      "ire": 1499,
      "rev": 1500,
      "nameĠ": 1501,
      "andĠtoĠ": 1502,
      "ump": 1503,
      "kindĠ": 1504,
      "ort": 1505,
      "public": 1506,
      "eĠmayĠ": 1507,
      "enĠandĠ": 1508,
      "arch": 1509,
      "Ġbroth": 1510,
      "Ġwhat": 1511,
      "ĠtheirĠf": 1512,
      "pris": 1513,
      "ĠifĠyou": 1514,
      "hav": 1515,
      "part": 1516,
      "onĠofĠ": 1517,
      "Ġoff": 1518,
      "reak": 1519,
      "standĠ": 1520,
      "day": 1521,
      "rific": 1522,
      "beenĠ": 1523,
      "aĠn": 1524,
      "ĠgoĠ": 1525,
      "caus": 1526,
      "eĠhisĠ": 1527,
      "endsĠ": 1528,
      "ĠaĠw": 1529,
      "ĠtheĠhous": 1530,
      "ez": 1531,
      "eyesĠ": 1532,
      "lov": 1533,
      "ĠanyĠ": 1534,
      "broth": 1535,
      "ĠtheĠfirstĠ": 1536,
      "Ġun": 1537,
      "anotherĠ": 1538,
      "greg": 1539,
      "reason": 1540,
      "crip": 1541,
      "rang": 1542,
      "educ": 1543,
      "ecial": 1544,
      "complet": 1545,
      "proc": 1546,
      "ĠiĠm": 1547,
      "known": 1548,
      "Ġwher": 1549,
      "uck": 1550,
      "uredĠ": 1551,
      "oss": 1552,
      "ham": 1553,
      "Ġsub": 1554,
      "ĠletĠ": 1555,
      "bas": 1556,
      "fre": 1557,
      "ingĠt": 1558,
      "wif": 1559,
      "liveĠ": 1560,
      "Ġplac": 1561,
      "itu": 1562,
      "ĠthereĠareĠ": 1563,
      "start": 1564,
      "embersĠ": 1565,
      "Ġshow": 1566,
      "oneĠofĠtheĠ": 1567,
      "answer": 1568,
      "sol": 1569,
      "appro": 1570,
      "point": 1571,
      "iĠwasĠ": 1572,
      "ationĠof": 1573,
      "eĠbutĠ": 1574,
      "possibleĠ": 1575,
      "loodĠ": 1576,
      "acrific": 1577,
      "ĠgoodĠ": 1578,
      "ĠalsoĠ": 1579,
      "ailableĠ": 1580,
      "Ġhigh": 1581,
      "illion": 1582,
      "ĠtoĠthem": 1583,
      "procl": 1584,
      "amil": 1585,
      "angel": 1586,
      "iful": 1587,
      "akeĠ": 1588,
      "adv": 1589,
      "Ġspir": 1590,
      "uk": 1591,
      "another": 1592,
      "Ġapp": 1593,
      "Ġpres": 1594,
      "opp": 1595,
      "dem": 1596,
      "vo": 1597,
      "oub": 1598,
      "oint": 1599,
      "question": 1600,
      "edĠtoĠtheĠ": 1601,
      "pleas": 1602,
      "aj": 1603,
      "beg": 1604,
      "iĠw": 1605,
      "sĠt": 1606,
      "inesĠ": 1607,
      "hum": 1608,
      "Ġthre": 1609,
      "lock": 1610,
      "congreg": 1611,
      "elect": 1612,
      "davidĠ": 1613,
      "ĠintoĠ": 1614,
      "aroundĠ": 1615,
      "seeĠ": 1616,
      "beforeĠ": 1617,
      "irc": 1618,
      "aut": 1619,
      "yl": 1620,
      "ream": 1621,
      "eeĠ": 1622,
      "erĠs": 1623,
      "ĠhereĠ": 1624,
      "book": 1625,
      "get": 1626,
      "ountain": 1627,
      "Ġres": 1628,
      "real": 1629,
      "edic": 1630,
      "erĠin": 1631,
      "accord": 1632,
      "ĠheĠs": 1633,
      "command": 1634,
      "yearĠ": 1635,
      "etterĠ": 1636,
      "ocial": 1637,
      "ief": 1638,
      "importantĠ": 1639,
      "ofĠtheĠs": 1640,
      "encyĠ": 1641,
      "ecut": 1642,
      "ĠlordĠ": 1643,
      "Ġnor": 1644,
      "econdĠ": 1645,
      "sheĠ": 1646,
      "eĠmyĠ": 1647,
      "wentĠ": 1648,
      "Ġchrist": 1649,
      "Ġah": 1650,
      "ĠtheĠch": 1651,
      "ortĠ": 1652,
      "avor": 1653,
      "asĠwell": 1654,
      "wardĠ": 1655,
      "Ġtrain": 1656,
      "area": 1657,
      "dist": 1658,
      "Ġproduc": 1659,
      "ingĠyour": 1660,
      "useĠ": 1661,
      "ofĠp": 1662,
      "prot": 1663,
      "ref": 1664,
      "ĠyouĠwill": 1665,
      "whil": 1666,
      "play": 1667,
      "ĠsheĠ": 1668,
      "rop": 1669,
      "ject": 1670,
      "ĠaĠd": 1671,
      "eĠshouldĠ": 1672,
      "uryĠ": 1673,
      "god": 1674,
      "ingĠitĠ": 1675,
      "ofĠh": 1676,
      "Ġll": 1677,
      "ecurityĠ": 1678,
      "essĠandĠ": 1679,
      "yetĠ": 1680,
      "Ġback": 1681,
      "ĠyourĠ": 1682,
      "eryĠ": 1683,
      "den": 1684,
      "ritt": 1685,
      "esĠin": 1686,
      "rac": 1687,
      "needĠtoĠ": 1688,
      "ĠitsĠ": 1689,
      "areĠtheĠ": 1690,
      "madeĠ": 1691,
      "iĠs": 1692,
      "edĠinĠ": 1693,
      "by": 1694,
      "weĠhaveĠ": 1695,
      "judah": 1696,
      "cap": 1697,
      "tionĠ": 1698,
      "beĠs": 1699,
      "experienc": 1700,
      "olit": 1701,
      "ĠitĠsĠ": 1702,
      "restĠ": 1703,
      "sl": 1704,
      "ugg": 1705,
      "aĠre": 1706,
      "ren": 1707,
      "Ġtru": 1708,
      "setĠ": 1709,
      "don": 1710,
      "ĠandĠm": 1711,
      "evil": 1712,
      "perf": 1713,
      "ĠtheĠlandĠ": 1714,
      "daysĠ": 1715,
      "yĠthatĠ": 1716,
      "Ġamong": 1717,
      "author": 1718,
      "ours": 1719,
      "ouslyĠ": 1720,
      "ebs": 1721,
      "erĠtoĠ": 1722,
      "inal": 1723,
      "prof": 1724,
      "ingĠf": 1725,
      "nightĠ": 1726,
      "cent": 1727,
      "ingĠup": 1728,
      "ĠandĠhisĠ": 1729,
      "opport": 1730,
      "quick": 1731,
      "co": 1732,
      "develop": 1733,
      "wom": 1734,
      "grow": 1735,
      "ecess": 1736,
      "Ġcompl": 1737,
      "mark": 1738,
      "eaveĠ": 1739,
      "icsĠ": 1740,
      "aĠst": 1741,
      "hasĠbeen": 1742,
      "Ġfeel": 1743,
      "edĠbyĠtheĠ": 1744,
      "Ġcor": 1745,
      "Ġbu": 1746,
      "problem": 1747,
      "ingĠthem": 1748,
      "word": 1749,
      "understand": 1750,
      "Ġmad": 1751,
      "eĠbyĠ": 1752,
      "Ġcall": 1753,
      "icallyĠ": 1754,
      "thing": 1755,
      "ĠwhereĠ": 1756,
      "lightĠ": 1757,
      "itual": 1758,
      "estsĠ": 1759,
      "sayĠ": 1760,
      "onder": 1761,
      "ĠgreatĠ": 1762,
      "numb": 1763,
      "rep": 1764,
      "ĠtheĠsam": 1765,
      "elf": 1766,
      "childrenĠ": 1767,
      "Ġover": 1768,
      "ardsĠ": 1769,
      "een": 1770,
      "someth": 1771,
      "Ġproc": 1772,
      "them": 1773,
      "amin": 1774,
      "ofĠour": 1775,
      "men": 1776,
      "cho": 1777,
      "ourn": 1778,
      "jos": 1779,
      "leftĠ": 1780,
      "eĠthereĠ": 1781,
      "ĠoĠ": 1782,
      "happen": 1783,
      "fear": 1784,
      "Ġadd": 1785,
      "enough": 1786,
      "ĠthanĠ": 1787,
      "fullyĠ": 1788,
      "Ġprof": 1789,
      "roll": 1790,
      "fatherĠ": 1791,
      "job": 1792,
      "rul": 1793,
      "Ġby": 1794,
      "thatĠ": 1795,
      "ouch": 1796,
      "expect": 1797,
      "Ġhapp": 1798,
      "cesĠ": 1799,
      "alreadyĠ": 1800,
      "enem": 1801,
      "edĠitĠ": 1802,
      "exampleĠ": 1803,
      "sub": 1804,
      "ividual": 1805,
      "lar": 1806,
      "ood": 1807,
      "imag": 1808,
      "seem": 1809,
      "encourag": 1810,
      "earthĠ": 1811,
      "design": 1812,
      "proclam": 1813,
      "cr": 1814,
      "canĠ": 1815,
      "doneĠ": 1816,
      "isĠnotĠ": 1817,
      "paul": 1818,
      "owerĠ": 1819,
      "Ġcons": 1820,
      "sĠh": 1821,
      "Ġcam": 1822,
      "Ġboth": 1823,
      "raph": 1824,
      "Ġabout": 1825,
      "sĠon": 1826,
      "irdĠ": 1827,
      "izedĠ": 1828,
      "rot": 1829,
      "born": 1830,
      "Ġeven": 1831,
      "Ġnot": 1832,
      "Ġinst": 1833,
      "Ġwhil": 1834,
      "imesĠ": 1835,
      "whom": 1836,
      "iqu": 1837,
      "experienceĠ": 1838,
      "eld": 1839,
      "full": 1840,
      "usb": 1841,
      "bibleĠ": 1842,
      "espec": 1843,
      "andĠh": 1844,
      "econom": 1845,
      "ablyĠ": 1846,
      "near": 1847,
      "serveĠ": 1848,
      "ĠthatĠyou": 1849,
      "appear": 1850,
      "ĠawayĠ": 1851,
      "mightĠ": 1852,
      "concern": 1853,
      "eral": 1854,
      "ĠtheĠpeopleĠ": 1855,
      "writ": 1856,
      "Ġwas": 1857,
      "ĠtheyĠwereĠ": 1858,
      "never": 1859,
      "said": 1860,
      "ĠtheyĠwill": 1861,
      "ribut": 1862,
      "edĠh": 1863,
      "iti": 1864,
      "viol": 1865,
      "inst": 1866,
      "manĠ": 1867,
      "edĠoutĠ": 1868,
      "amb": 1869,
      "whenĠ": 1870,
      "ĠjehovahĠsĠ": 1871,
      "against": 1872,
      "eĠsoĠ": 1873,
      "group": 1874,
      "ĠtheyĠhaveĠ": 1875,
      "coll": 1876,
      "idnĠt": 1877,
      "Ġstat": 1878,
      "icĠ": 1879,
      "began": 1880,
      "creat": 1881,
      "agre": 1882,
      "groundĠ": 1883,
      "questionsĠ": 1884,
      "eĠdoĠ": 1885,
      "Ġoffer": 1886,
      "heartĠ": 1887,
      "etail": 1888,
      "cover": 1889,
      "ration": 1890,
      "didĠnotĠ": 1891,
      "itnessesĠ": 1892,
      "usĠtoĠ": 1893,
      "position": 1894,
      "yourĠf": 1895,
      "Ġtri": 1896,
      "tĠtoĠ": 1897,
      "Ġz": 1898,
      "ĠandĠb": 1899,
      "pract": 1900,
      "Ġret": 1901,
      "Ġmonth": 1902,
      "oreĠ": 1903,
      "urg": 1904,
      "Ġhowever": 1905,
      "Ġhav": 1906,
      "qualityĠ": 1907,
      "Ġwom": 1908,
      "eĠdo": 1909,
      "alleng": 1910,
      "ĠofĠm": 1911,
      "Ġlaw": 1912,
      "great": 1913,
      "christĠ": 1914,
      "Ġtogether": 1915,
      "iltĠ": 1916,
      "irl": 1917,
      "leg": 1918,
      "itĠtoĠ": 1919,
      "ingĠfrom": 1920,
      "Ġhum": 1921,
      "yself": 1922,
      "edĠto": 1923,
      "ifiedĠ": 1924,
      "aterial": 1925,
      "conv": 1926,
      "lim": 1927,
      "iec": 1928,
      "ingĠthisĠ": 1929,
      "month": 1930,
      "edĠatĠ": 1931,
      "eĠdidĠ": 1932,
      "receiv": 1933,
      "ym": 1934,
      "usedĠtoĠ": 1935,
      "ellow": 1936,
      "ĠheĠwill": 1937,
      "clear": 1938,
      "ĠtheĠmostĠ": 1939,
      "Ġtw": 1940,
      "research": 1941,
      "oct": 1942,
      "unic": 1943,
      "altĠ": 1944,
      "goingĠtoĠ": 1945,
      "Ġwell": 1946,
      "eĠthat": 1947,
      "Ġoffic": 1948,
      "gotĠ": 1949,
      "ĠtheĠbestĠ": 1950,
      "ofĠmyĠ": 1951,
      "mov": 1952,
      "direct": 1953,
      "insĠ": 1954,
      "arĠ": 1955,
      "believ": 1956,
      "orĠs": 1957,
      "ofĠjehovah": 1958,
      "Ġkeep": 1959,
      "aseĠ": 1960,
      "ĠforĠ": 1961,
      "erg": 1962,
      "whileĠ": 1963,
      "disci": 1964,
      "ĠgodĠsĠ": 1965,
      "notĠbeĠ": 1966,
      "estro": 1967,
      "amesĠ": 1968,
      "Ġfl": 1969,
      "conf": 1970,
      "fall": 1971,
      "ĠitĠwasĠ": 1972,
      "Ġinto": 1973,
      "ingĠyou": 1974,
      "Ġjud": 1975,
      "ritten": 1976,
      "inĠs": 1977,
      "Ġbo": 1978,
      "Ġmat": 1979,
      "becomeĠ": 1980,
      "Ġfin": 1981,
      "let": 1982,
      "ert": 1983,
      "jerusalem": 1984,
      "me": 1985,
      "iffic": 1986,
      "righteousĠ": 1987,
      "knowledg": 1988,
      "osĠ": 1989,
      "uĠsĠ": 1990,
      "idenceĠ": 1991,
      "enjoy": 1992,
      "Ġbeli": 1993,
      "ĠforĠtheĠ": 1994,
      "ĠthereĠwasĠ": 1995,
      "Ġtow": 1996,
      "enseĠ": 1997,
      "explain": 1998,
      "umm": 1999,
      "dat": 2000,
      "ĠweĠhaveĠ": 2001,
      "onĠs": 2002,
      "Ġbl": 2003,
      "rather": 2004,
      "Ġwhom": 2005,
      "pers": 2006,
      "ĠlifeĠ": 2007,
      "Ġthing": 2008,
      "itch": 2009,
      "andĠthatĠ": 2010,
      "ond": 2011,
      "withĠ": 2012,
      "Ġtravel": 2013,
      "ĠiĠwasĠ": 2014,
      "ĠweĠareĠ": 2015,
      "ĠafterĠ": 2016,
      "eer": 2017,
      "riesĠ": 2018,
      "ĠtheĠsonĠofĠ": 2019,
      "ationĠofĠ": 2020,
      "likeĠa": 2021,
      "Ġask": 2022,
      "rayĠ": 2023,
      "raham": 2024,
      "Ġgener": 2025,
      "eĠtoĠtheĠ": 2026,
      "ianĠ": 2027,
      "wouldĠbeĠ": 2028,
      "unitedĠ": 2029,
      "fil": 2030,
      "imil": 2031,
      "usedĠ": 2032,
      "jew": 2033,
      "Ġhop": 2034,
      "uel": 2035,
      "reci": 2036,
      "daugh": 2037,
      "ĠtoĠp": 2038,
      "eĠthingsĠ": 2039,
      "aleĠ": 2040,
      "mustĠ": 2041,
      "Ġhom": 2042,
      "oven": 2043,
      "children": 2044,
      "Ġtalk": 2045,
      "Ġteam": 2046,
      "ĠthreeĠ": 2047,
      "Ġchildren": 2048,
      "egyptĠ": 2049,
      "itĠandĠ": 2050,
      "weĠareĠ": 2051,
      "good": 2052,
      "aĠandĠ": 2053,
      "ai": 2054,
      "ofĠtheĠc": 2055,
      "sĠw": 2056,
      "erĠfor": 2057,
      "eesĠ": 2058,
      "speak": 2059,
      "irst": 2060,
      "lineĠ": 2061,
      "ĠthenĠ": 2062,
      "itiveĠ": 2063,
      "univers": 2064,
      "ruth": 2065,
      "ĠtheirĠs": 2066,
      "Ġadv": 2067,
      "etermin": 2068,
      "ationship": 2069,
      "eĠhow": 2070,
      "kind": 2071,
      "pat": 2072,
      "rup": 2073,
      "ott": 2074,
      "ourĠf": 2075,
      "Ġjoh": 2076,
      "firm": 2077,
      "inĠf": 2078,
      "information": 2079,
      "ĠofĠs": 2080,
      "eu": 2081,
      "ingĠto": 2082,
      "withoutĠ": 2083,
      "inĠm": 2084,
      "ingĠhisĠ": 2085,
      "ĠdaysĠ": 2086,
      "Ġtyp": 2087,
      "valu": 2088,
      "step": 2089,
      "ential": 2090,
      "pir": 2091,
      "riveĠ": 2092,
      "ĠdoesĠ": 2093,
      "donĠt": 2094,
      "foodĠ": 2095,
      "Ġpart": 2096,
      "ĠtheĠsameĠ": 2097,
      "ersĠtoĠ": 2098,
      "ouncil": 2099,
      "gain": 2100,
      "rans": 2101,
      "ancesĠ": 2102,
      "listen": 2103,
      "Ġdur": 2104,
      "rest": 2105,
      "governmentĠ": 2106,
      "aĠgreatĠ": 2107,
      "ĠyouĠhaveĠ": 2108,
      "availableĠ": 2109,
      "Ġterm": 2110,
      "anim": 2111,
      "acob": 2112,
      "ivelyĠ": 2113,
      "eltĠ": 2114,
      "ĠtheĠcityĠ": 2115,
      "Ġinv": 2116,
      "ementsĠ": 2117,
      "uff": 2118,
      "eĠtak": 2119,
      "Ġchang": 2120,
      "Ġconc": 2121,
      "israelitesĠ": 2122,
      "Ġstr": 2123,
      "roc": 2124,
      "gett": 2125,
      "ĠfindĠ": 2126,
      "Ġstill": 2127,
      "ourtĠ": 2128,
      "attack": 2129,
      "rontĠ": 2130,
      "hom": 2131,
      "ĠsayĠ": 2132,
      "opportun": 2133,
      "eoneĠ": 2134,
      "Ġmark": 2135,
      "fromĠ": 2136,
      "Ġmuch": 2137,
      "withĠtheĠ": 2138,
      "necess": 2139,
      "wholeĠ": 2140,
      "Ġlearn": 2141,
      "ouldnĠt": 2142,
      "ror": 2143,
      "ĠthatĠi": 2144,
      "Ġwho": 2145,
      "proper": 2146,
      "ĠwithĠtheĠ": 2147,
      "ither": 2148,
      "especiallyĠ": 2149,
      "program": 2150,
      "ogn": 2151,
      "bestĠ": 2152,
      "Ġjohn": 2153,
      "anyoneĠ": 2154,
      "doesĠnotĠ": 2155,
      "ĠagainstĠ": 2156,
      "Ġproblem": 2157,
      "believeĠ": 2158,
      "both": 2159,
      "icalĠ": 2160,
      "Ġyoung": 2161,
      "ingĠofĠ": 2162,
      "esnĠt": 2163,
      "eĠtheĠt": 2164,
      "attleĠ": 2165,
      "Ġthous": 2166,
      "ĠsaysĠ": 2167,
      "roadĠ": 2168,
      "crib": 2169,
      "uffer": 2170,
      "ĠbeforeĠ": 2171,
      "ĠaĠh": 2172,
      "rueĠ": 2173,
      "heĠs": 2174,
      "envir": 2175,
      "ifyĠ": 2176,
      "istsĠ": 2177,
      "ĠheĠwasĠ": 2178,
      "plyĠ": 2179,
      "Ġbeg": 2180,
      "clean": 2181,
      "dev": 2182,
      "vide": 2183,
      "enĠt": 2184,
      "ingĠinĠtheĠ": 2185,
      "ĠplaceĠ": 2186,
      "struct": 2187,
      "environ": 2188,
      "entĠtoĠ": 2189,
      "perform": 2190,
      "weĠwill": 2191,
      "ifi": 2192,
      "ultsĠ": 2193,
      "plan": 2194,
      "eĠmad": 2195,
      "Ġaddition": 2196,
      "imilar": 2197,
      "eldĠ": 2198,
      "four": 2199,
      "apost": 2200,
      "Ġneed": 2201,
      "Ġlong": 2202,
      "partic": 2203,
      "resultĠ": 2204,
      "around": 2205,
      "ister": 2206,
      "strength": 2207,
      "Ġprovid": 2208,
      "Ġsl": 2209,
      "ulyĠ": 2210,
      "ĠwithoutĠ": 2211,
      "heaven": 2212,
      "holyĠ": 2213,
      "ahĠ": 2214,
      "companyĠ": 2215,
      "pointĠ": 2216,
      "Ġpri": 2217,
      "istoryĠ": 2218,
      "esĠofĠ": 2219,
      "ĠofĠc": 2220,
      "ĠneedĠtoĠ": 2221,
      "argeĠ": 2222,
      "hand": 2223,
      "easĠ": 2224,
      "ĠworldĠ": 2225,
      "ĠmostĠ": 2226,
      "centĠ": 2227,
      "ĠyouĠcan": 2228,
      "email": 2229,
      "afterĠ": 2230,
      "fiveĠ": 2231,
      "sm": 2232,
      "rection": 2233,
      "bodyĠ": 2234,
      "otion": 2235,
      "erĠisĠ": 2236,
      "ĠbusinessĠ": 2237,
      "outsid": 2238,
      "ingĠofĠtheĠ": 2239,
      "inĠhisĠ": 2240,
      "oneĠs": 2241,
      "report": 2242,
      "itud": 2243,
      "ĠwhileĠ": 2244,
      "ingĠoutĠ": 2245,
      "appoint": 2246,
      "ofĠw": 2247,
      "alĠs": 2248,
      "found": 2249,
      "playĠ": 2250,
      "ityĠtoĠ": 2251,
      "Ġameric": 2252,
      "qual": 2253,
      "ationĠofĠtheĠ": 2254,
      "righteous": 2255,
      "Ġdef": 2256,
      "activ": 2257,
      "find": 2258,
      "official": 2259,
      "ator": 2260,
      "Ġconsider": 2261,
      "uccess": 2262,
      "echnolog": 2263,
      "ld": 2264,
      "uthor": 2265,
      "utureĠ": 2266,
      "mayĠbeĠ": 2267,
      "certain": 2268,
      "inĠyour": 2269,
      "forĠa": 2270,
      "stitut": 2271,
      "hop": 2272,
      "iver": 2273,
      "iesĠandĠ": 2274,
      "irth": 2275,
      "ĠthisĠs": 2276,
      "arsĠ": 2277,
      "Ġspeak": 2278,
      "sĠtoĠtheĠ": 2279,
      "Ġint": 2280,
      "raf": 2281,
      "isĠt": 2282,
      "strong": 2283,
      "ner": 2284,
      "anĠa": 2285,
      "Ġpre": 2286,
      "rok": 2287,
      "ublish": 2288,
      "onĠa": 2289,
      "want": 2290,
      "ĠthusĠ": 2291,
      "atis": 2292,
      "associ": 2293,
      "relat": 2294,
      "Ġbas": 2295,
      "oursĠ": 2296,
      "proveĠ": 2297,
      "ĠwillĠbeĠ": 2298,
      "ĠtheĠpri": 2299,
      "aĠlotĠ": 2300,
      "ingĠaboutĠ": 2301,
      "ofĠtheir": 2302,
      "ĠtoĠyou": 2303,
      "Ġpublic": 2304,
      "abilityĠ": 2305,
      "ĠtheĠwayĠ": 2306,
      "ingĠisĠ": 2307,
      "Ġdevelop": 2308,
      "broughtĠ": 2309,
      "between": 2310,
      "littleĠ": 2311,
      "pop": 2312,
      "agoĠ": 2313,
      "increas": 2314,
      "ĠwantĠtoĠ": 2315,
      "Ġmen": 2316,
      "Ġbel": 2317,
      "claim": 2318,
      "region": 2319,
      "action": 2320,
      "ĠtogetherĠ": 2321,
      "onceĠ": 2322,
      "Ġliv": 2323,
      "leastĠ": 2324,
      "canĠbeĠ": 2325,
      "ĠtoldĠ": 2326,
      "Ġform": 2327,
      "manag": 2328,
      "answ": 2329,
      "eachĠ": 2330,
      "oughtĠ": 2331,
      "ajor": 2332,
      "Ġhealth": 2333,
      "Ġpray": 2334,
      "resh": 2335,
      "cameĠ": 2336,
      "Ġson": 2337,
      "ĠwhenĠ": 2338,
      "eĠwork": 2339,
      "eĠsom": 2340,
      "ĠreadĠ": 2341,
      "rug": 2342,
      "pur": 2343,
      "Ġcoll": 2344,
      "eanĠ": 2345,
      "Ġcontinu": 2346,
      "enjoyĠ": 2347,
      "aq": 2348,
      "headĠ": 2349,
      "Ġlead": 2350,
      "Ġmin": 2351,
      "rich": 2352,
      "usbandĠ": 2353,
      "immedi": 2354,
      "heĠwasĠ": 2355,
      "ĠfromĠtheĠ": 2356,
      "ork": 2357,
      "ĠchildĠ": 2358,
      "ĠtheĠtim": 2359,
      "underĠ": 2360,
      "friend": 2361,
      "ward": 2362,
      "ĠandĠheĠ": 2363,
      "eĠcouldĠ": 2364,
      "cript": 2365,
      "ioĠ": 2366,
      "ĠonlyĠ": 2367,
      "ofĠthem": 2368,
      "elsĠ": 2369,
      "encesĠ": 2370,
      "ĠgovernmentĠ": 2371,
      "ingĠst": 2372,
      "ofĠgodĠ": 2373,
      "father": 2374,
      "edĠc": 2375,
      "everyoneĠ": 2376,
      "ulation": 2377,
      "perfectĠ": 2378,
      "Ġfac": 2379,
      "bal": 2380,
      "Ġcol": 2381,
      "beingĠ": 2382,
      "isdom": 2383,
      "accept": 2384,
      "nation": 2385,
      "ĠthatĠw": 2386,
      "ĠhandĠ": 2387,
      "Ġmean": 2388,
      "comeĠtoĠ": 2389,
      "asĠtheĠ": 2390,
      "Ġfri": 2391,
      "entr": 2392,
      "osp": 2393,
      "prepar": 2394,
      "ofĠall": 2395,
      "Ġcho": 2396,
      "promis": 2397,
      "itor": 2398,
      "eap": 2399,
      "orig": 2400,
      "ieĠ": 2401,
      "armyĠ": 2402,
      "aintain": 2403,
      "Ġgiv": 2404,
      "ateĠtheĠ": 2405,
      "startĠ": 2406,
      "atureĠ": 2407,
      "ĠmakeĠ": 2408,
      "newsĠ": 2409,
      "bor": 2410,
      "oudĠ": 2411,
      "har": 2412,
      "iftĠ": 2413,
      "keptĠ": 2414,
      "oot": 2415,
      "sign": 2416,
      "outĠtheĠ": 2417,
      "urelyĠ": 2418,
      "idea": 2419,
      "compan": 2420,
      "spiritĠ": 2421,
      "alĠandĠ": 2422,
      "ĠtheĠkingĠ": 2423,
      "Ġspecial": 2424,
      "differentĠ": 2425,
      "hath": 2426,
      "ĠcomeĠ": 2427,
      "Ġwrit": 2428,
      "ĠtoĠc": 2429,
      "pleaseĠ": 2430,
      "energ": 2431,
      "ĠheartĠ": 2432,
      "ĠinĠf": 2433,
      "ĠmightĠ": 2434,
      "committ": 2435,
      "fru": 2436,
      "ract": 2437,
      "ĠexampleĠ": 2438,
      "ocum": 2439,
      "erit": 2440,
      "areĠt": 2441,
      "elĠ": 2442,
      "Ġbeh": 2443,
      "check": 2444,
      "ĠwithĠ": 2445,
      "cameĠtoĠ": 2446,
      "ĠpleaseĠ": 2447,
      "impleĠ": 2448,
      "joh": 2449,
      "ĠthemselvesĠ": 2450,
      "ĠwhatĠisĠ": 2451,
      "pray": 2452,
      "ĠdavidĠ": 2453,
      "ww": 2454,
      "inĠour": 2455,
      "beaut": 2456,
      "tt": 2457,
      "also": 2458,
      "ĠseeĠ": 2459,
      "guid": 2460,
      "spok": 2461,
      "power": 2462,
      "ingleĠ": 2463,
      "atherĠ": 2464,
      "nextĠ": 2465,
      "yal": 2466,
      "event": 2467,
      "saysĠ": 2468,
      "ally": 2469,
      "needĠ": 2470,
      "fieldĠ": 2471,
      "ĠtoĠdoĠ": 2472,
      "Ġco": 2473,
      "iraq": 2474,
      "idd": 2475,
      "releas": 2476,
      "attention": 2477,
      "Ġtry": 2478,
      "Ġreturn": 2479,
      "aboveĠ": 2480,
      "ilitaryĠ": 2481,
      "eightĠ": 2482,
      "watch": 2483,
      "eĠtim": 2484,
      "princ": 2485,
      "drink": 2486,
      "ilitiesĠ": 2487,
      "ity": 2488,
      "express": 2489,
      "becauseĠ": 2490,
      "often": 2491,
      "ĠreallyĠ": 2492,
      "ĠwillĠb": 2493,
      "ox": 2494,
      "ircum": 2495,
      "eathĠ": 2496,
      "soon": 2497,
      "implyĠ": 2498,
      "ĠtheĠsonĠof": 2499,
      "fail": 2500,
      "whatĠisĠ": 2501,
      "Ġrece": 2502,
      "interest": 2503,
      "eĠthanĠ": 2504,
      "Ġnever": 2505,
      "Ġjo": 2506,
      "ĠandĠwhen": 2507,
      "herit": 2508,
      "level": 2509,
      "inglyĠ": 2510,
      "ĠwayĠ": 2511,
      "inĠorder": 2512,
      "Ġprogram": 2513,
      "sĠtheyĠ": 2514,
      "ĠpartĠ": 2515,
      "ipp": 2516,
      "john": 2517,
      "isĠtoĠ": 2518,
      "ancial": 2519,
      "houseĠ": 2520,
      "attend": 2521,
      "mess": 2522,
      "heĠisĠ": 2523,
      "leaveĠ": 2524,
      "ensiveĠ": 2525,
      "outĠofĠtheĠ": 2526,
      "ger": 2527,
      "iĠveĠ": 2528,
      "aĠfew": 2529,
      "ies": 2530,
      "ingĠatĠ": 2531,
      "eritre": 2532,
      "fortĠ": 2533,
      "Ġfollow": 2534,
      "Ġread": 2535,
      "faithful": 2536,
      "benef": 2537,
      "death": 2538,
      "inĠh": 2539,
      "ĠsaidĠtoĠ": 2540,
      "Ġdep": 2541,
      "unch": 2542,
      "rob": 2543,
      "ĠhoweverĠ": 2544,
      "Ġpleas": 2545,
      "receiveĠ": 2546,
      "rock": 2547,
      "edĠmyĠ": 2548,
      "ĠthereĠisĠnoĠ": 2549,
      "erĠofĠtheĠ": 2550,
      "eĠheĠ": 2551,
      "rap": 2552,
      "le": 2553,
      "presentĠ": 2554,
      "heardĠ": 2555,
      "keyĠ": 2556,
      "ĠarticleĠ": 2557,
      "ĠwentĠ": 2558,
      "build": 2559,
      "ĠandĠw": 2560,
      "andĠtheir": 2561,
      "edĠtoĠbeĠ": 2562,
      "ordsĠ": 2563,
      "onyĠ": 2564,
      "Ġweek": 2565,
      "portsĠ": 2566,
      "east": 2567,
      "post": 2568,
      "Ġprot": 2569,
      "invest": 2570,
      "sentĠ": 2571,
      "anceĠwith": 2572,
      "Ġactiv": 2573,
      "vol": 2574,
      "oneyĠ": 2575,
      "forĠyour": 2576,
      "administ": 2577,
      "eĠaf": 2578,
      "Ġalthough": 2579,
      "org": 2580,
      "rad": 2581,
      "eĠdis": 2582,
      "himself": 2583,
      "ingĠtheir": 2584,
      "Ġschool": 2585,
      "ĠchristĠ": 2586,
      "onĠandĠ": 2587,
      "Ġsol": 2588,
      "Ġfre": 2589,
      "Ġgen": 2590,
      "eĠsur": 2591,
      "upĠ": 2592,
      "eĠdown": 2593,
      "urchas": 2594,
      "ll": 2595,
      "pret": 2596,
      "ran": 2597,
      "oupleĠ": 2598,
      "Ġjob": 2599,
      "everal": 2600,
      "hu": 2601,
      "esĠareĠ": 2602,
      "control": 2603,
      "ĠtheirĠown": 2604,
      "isl": 2605,
      "canĠb": 2606,
      "gather": 2607,
      "overeign": 2608,
      "faceĠ": 2609,
      "relig": 2610,
      "Ġrequ": 2611,
      "inistryĠ": 2612,
      "last": 2613,
      "ins": 2614,
      "Ġdem": 2615,
      "ĠforĠexampleĠ": 2616,
      "antlyĠ": 2617,
      "foc": 2618,
      "empleĠ": 2619,
      "christian": 2620,
      "ationĠtoĠ": 2621,
      "conduc": 2622,
      "ibilityĠ": 2623,
      "col": 2624,
      "ĠtheeĠ": 2625,
      "usic": 2626,
      "andĠthen": 2627,
      "understandĠ": 2628,
      "rim": 2629,
      "unish": 2630,
      "rectĠ": 2631,
      "ait": 2632,
      "witnessesĠ": 2633,
      "cal": 2634,
      "arn": 2635,
      "statesĠ": 2636,
      "makesĠ": 2637,
      "polic": 2638,
      "oft": 2639,
      "erĠof": 2640,
      "ĠtheĠth": 2641,
      "ction": 2642,
      "sal": 2643,
      "ĠtoĠthisĠ": 2644,
      "ickedĠ": 2645,
      "wareĠ": 2646,
      "ĠbibleĠ": 2647,
      "regard": 2648,
      "jacob": 2649,
      "mosesĠ": 2650,
      "plic": 2651,
      "empt": 2652,
      "uggest": 2653,
      "ipleĠ": 2654,
      "cas": 2655,
      "deal": 2656,
      "ederal": 2657,
      "shar": 2658,
      "whichĠisĠ": 2659,
      "Ġclos": 2660,
      "ĠlikeĠ": 2661,
      "ior": 2662,
      "mod": 2663,
      "wantĠtoĠ": 2664,
      "onor": 2665,
      "cred": 2666,
      "aughtĠ": 2667,
      "lic": 2668,
      "road": 2669,
      "estim": 2670,
      "ersĠwhoĠ": 2671,
      "bey": 2672,
      "erĠsĠ": 2673,
      "salm": 2674,
      "ĠonĠ": 2675,
      "ourcesĠ": 2676,
      "ĠorĠ": 2677,
      "Ġnumb": 2678,
      "walk": 2679,
      "eseĠ": 2680,
      "health": 2681,
      "nationsĠ": 2682,
      "Ġdel": 2683,
      "fur": 2684,
      "ofĠg": 2685,
      "Ġloc": 2686,
      "beh": 2687,
      "Ġcomplet": 2688,
      "esĠofĠtheĠ": 2689,
      "cloth": 2690,
      "ĠtheĠman": 2691,
      "seen": 2692,
      "morn": 2693,
      "mar": 2694,
      "pay": 2695,
      "forĠm": 2696,
      "init": 2697,
      "peac": 2698,
      "ĠandĠitĠ": 2699,
      "Ġtrad": 2700,
      "justĠasĠ": 2701,
      "ariousĠ": 2702,
      "Ġsaid": 2703,
      "Ġpaul": 2704,
      "worth": 2705,
      "ĠyourĠgodĠ": 2706,
      "Ġmanag": 2707,
      "estin": 2708,
      "amiliesĠ": 2709,
      "election": 2710,
      "ĠhasĠbeen": 2711,
      "ĠneedĠ": 2712,
      "heĠwill": 2713,
      "forc": 2714,
      "isionsĠ": 2715,
      "eĠtoĠbeĠ": 2716,
      "Ġcaus": 2717,
      "condition": 2718,
      "cienceĠ": 2719,
      "stitution": 2720,
      "ilesĠ": 2721,
      "yeĠ": 2722,
      "light": 2723,
      "eĠtheĠw": 2724,
      "abyl": 2725,
      "yourself": 2726,
      "orderĠ": 2727,
      "estroy": 2728,
      "ors": 2729,
      "Ġgl": 2730,
      "ursu": 2731,
      "freeĠ": 2732,
      "ĠtheĠfollow": 2733,
      "avo": 2734,
      "ĠdoĠyou": 2735,
      "altar": 2736,
      "oubleĠ": 2737,
      "essional": 2738,
      "Ġcustom": 2739,
      "Ġbook": 2740,
      "eventĠ": 2741,
      "meet": 2742,
      "otsĠ": 2743,
      "wordsĠ": 2744,
      "ationĠfor": 2745,
      "eĠwer": 2746,
      "ovenantĠ": 2747,
      "forĠs": 2748,
      "Ġstart": 2749,
      "natur": 2750,
      "item": 2751,
      "aĠnew": 2752,
      "itnessĠ": 2753,
      "Ġposs": 2754,
      "Ġhad": 2755,
      "ribeĠ": 2756,
      "artmentĠ": 2757,
      "forĠyou": 2758,
      "ĠputĠ": 2759,
      "Ġbecom": 2760,
      "netĠ": 2761,
      "favor": 2762,
      "exper": 2763,
      "asĠwellĠasĠ": 2764,
      "ingĠhim": 2765,
      "ightyĠ": 2766,
      "ograph": 2767,
      "urb": 2768,
      "ĠtheĠlaw": 2769,
      "hadĠbeen": 2770,
      "stop": 2771,
      "ethiopian": 2772,
      "sĠtoĠbeĠ": 2773,
      "respond": 2774,
      "eleb": 2775,
      "gress": 2776,
      "ilder": 2777,
      "Ġjerusalem": 2778,
      "ĠasĠwell": 2779,
      "vict": 2780,
      "therĠ": 2781,
      "Ġcertain": 2782,
      "Ġbetween": 2783,
      "ĠthatĠwasĠ": 2784,
      "ĠinĠa": 2785,
      "struction": 2786,
      "iĠf": 2787,
      "flu": 2788,
      "eldersĠ": 2789,
      "draw": 2790,
      "Ġtop": 2791,
      "americ": 2792,
      "shallĠbeĠ": 2793,
      "Ġtaken": 2794,
      "Ġthey": 2795,
      "option": 2796,
      "izeĠ": 2797,
      "ĠthoughtĠ": 2798,
      "ĠthereĠsĠ": 2799,
      "ondĠ": 2800,
      "ĠtheĠst": 2801,
      "andĠtheĠs": 2802,
      "tersĠ": 2803,
      "ecific": 2804,
      "emor": 2805,
      "inĠthisĠ": 2806,
      "Ġpract": 2807,
      "ĠthereforeĠ": 2808,
      "epar": 2809,
      "anct": 2810,
      "bless": 2811,
      "ertĠ": 2812,
      "Ġlov": 2813,
      "willĠnotĠ": 2814,
      "commend": 2815,
      "aĠgoodĠ": 2816,
      "usiness": 2817,
      "athersĠ": 2818,
      "strat": 2819,
      "ĠtakeĠa": 2820,
      "written": 2821,
      "studentsĠ": 2822,
      "nessĠandĠ": 2823,
      "ental": 2824,
      "abor": 2825,
      "ourceĠ": 2826,
      "applic": 2827,
      "yleĠ": 2828,
      "shouldĠbeĠ": 2829,
      "eetĠ": 2830,
      "iceĠandĠ": 2831,
      "ectedĠ": 2832,
      "involv": 2833,
      "tim": 2834,
      "ĠtheĠworldĠ": 2835,
      "Ġinclud": 2836,
      "issuesĠ": 2837,
      "aron": 2838,
      "ingĠour": 2839,
      "ĠofĠb": 2840,
      "ĠtheĠfirst": 2841,
      "ĠhowĠcan": 2842,
      "joseph": 2843,
      "ayĠtoĠ": 2844,
      "fair": 2845,
      "represent": 2846,
      "stayĠ": 2847,
      "seek": 2848,
      "engag": 2849,
      "ĠinĠtheĠm": 2850,
      "ĠdidĠnotĠ": 2851,
      "effectiveĠ": 2852,
      "preach": 2853,
      "organization": 2854,
      "spr": 2855,
      "ĠheĠisĠ": 2856,
      "ĠthouĠsh": 2857,
      "challeng": 2858,
      "willĠ": 2859,
      "Ġconf": 2860,
      "recogn": 2861,
      "sideĠ": 2862,
      "ĠtheĠph": 2863,
      "edĠtheir": 2864,
      "individual": 2865,
      "sĠfrom": 2866,
      "Ġmed": 2867,
      "ordin": 2868,
      "sĠor": 2869,
      "eĠdec": 2870,
      "Ġproper": 2871,
      "israelĠ": 2872,
      "comesĠ": 2873,
      "ĠtrueĠ": 2874,
      "north": 2875,
      "chief": 2876,
      "likeĠtheĠ": 2877,
      "ton": 2878,
      "ĠfirstĠ": 2879,
      "yourĠs": 2880,
      "inĠtheĠm": 2881,
      "urntĠ": 2882,
      "beforeĠtheĠ": 2883,
      "resur": 2884,
      "anger": 2885,
      "camp": 2886,
      "eĠthen": 2887,
      "Ġlangu": 2888,
      "ourseĠ": 2889,
      "ĠtheĠdis": 2890,
      "implement": 2891,
      "los": 2892,
      "anoint": 2893,
      "utesĠ": 2894,
      "Ġjos": 2895,
      "videoĠ": 2896,
      "aud": 2897,
      "iĠcan": 2898,
      "refer": 2899,
      "edom": 2900,
      "Ġregard": 2901,
      "tedĠ": 2902,
      "ĠthatĠsĠ": 2903,
      "inĠtheĠs": 2904,
      "upĠtoĠ": 2905,
      "eem": 2906,
      "few": 2907,
      "eĠbecaus": 2908,
      "eag": 2909,
      "iĠah": 2910,
      "sĠyou": 2911,
      "execut": 2912,
      "visit": 2913,
      "Ġwer": 2914,
      "Ġmeet": 2915,
      "Ġcontrol": 2916,
      "Ġgroup": 2917,
      "righteousnessĠ": 2918,
      "raiseĠ": 2919,
      "Ġmr": 2920,
      "observ": 2921,
      "rightsĠ": 2922,
      "Ġtouch": 2923,
      "Ġdist": 2924,
      "roleĠ": 2925,
      "saidĠtoĠ": 2926,
      "parentsĠ": 2927,
      "edĠforĠ": 2928,
      "Ġcent": 2929,
      "habit": 2930,
      "inf": 2931,
      "eriesĠ": 2932,
      "omb": 2933,
      "Ġmod": 2934,
      "etwork": 2935,
      "likeĠtoĠ": 2936,
      "school": 2937,
      "ensur": 2938,
      "atisf": 2939,
      "reportĠ": 2940,
      "illustr": 2941,
      "Ġdesign": 2942,
      "eĠmeĠ": 2943,
      "mitt": 2944,
      "neg": 2945,
      "peech": 2946,
      "alongĠwith": 2947,
      "olitical": 2948,
      "custom": 2949,
      "declar": 2950,
      "ingĠtheĠs": 2951,
      "ersĠareĠ": 2952,
      "risk": 2953,
      "ebsiteĠ": 2954,
      "Ġsm": 2955,
      "acleĠ": 2956,
      "ecret": 2957,
      "foreign": 2958,
      "ofĠjudah": 2959,
      "ĠfamilyĠ": 2960,
      "entsĠandĠ": 2961,
      "eaut": 2962,
      "worship": 2963,
      "studyĠ": 2964,
      "quicklyĠ": 2965,
      "girl": 2966,
      "Ġten": 2967,
      "yearĠoldĠ": 2968,
      "miss": 2969,
      "edĠthat": 2970,
      "clus": 2971,
      "Ġcreat": 2972,
      "eĠwentĠ": 2973,
      "ership": 2974,
      "acyĠ": 2975,
      "itherĠ": 2976,
      "everythingĠ": 2977,
      "jectsĠ": 2978,
      "saw": 2979,
      "ĠtoĠmak": 2980,
      "eĠther": 2981,
      "actuallyĠ": 2982,
      "moreĠthan": 2983,
      "gen": 2984,
      "ĠofĠhisĠ": 2985,
      "local": 2986,
      "diffic": 2987,
      "andĠm": 2988,
      "elessĠ": 2989,
      "edĠthisĠ": 2990,
      "remember": 2991,
      "has": 2992,
      "anĠh": 2993,
      "onĠtheĠs": 2994,
      "conn": 2995,
      "eĠmustĠ": 2996,
      "Ġfaith": 2997,
      "ĠinĠhisĠ": 2998,
      "aster": 2999,
      "ountriesĠ": 3000,
      "ularlyĠ": 3001,
      "uaryĠ": 3002,
      "yn": 3003,
      "ĠeveryĠ": 3004,
      "ester": 3005,
      "ĠtoĠhisĠ": 3006,
      "whoĠareĠ": 3007,
      "approach": 3008,
      "onderful": 3009,
      "sĠinĠtheĠ": 3010,
      "ateĠandĠ": 3011,
      "ĠcityĠ": 3012,
      "ailyĠ": 3013,
      "buildĠ": 3014,
      "ingĠor": 3015,
      "urrentĠ": 3016,
      "ung": 3017,
      "tern": 3018,
      "neverĠ": 3019,
      "ĠthisĠproclam": 3020,
      "Ġspiritual": 3021,
      "larg": 3022,
      "pain": 3023,
      "ingĠmyĠ": 3024,
      "wereĠs": 3025,
      "prev": 3026,
      "Ġmay": 3027,
      "indeedĠ": 3028,
      "although": 3029,
      "ĠmoreĠthan": 3030,
      "ilityĠtoĠ": 3031,
      "energyĠ": 3032,
      "badĠ": 3033,
      "kin": 3034,
      "ĠweĠwill": 3035,
      "indow": 3036,
      "ify": 3037,
      "rueĠgodĠ": 3038,
      "ruc": 3039,
      "ĠandĠiĠwill": 3040,
      "unn": 3041,
      "untoĠhim": 3042,
      "ĠthouĠshaltĠ": 3043,
      "ara": 3044,
      "Ġcong": 3045,
      "rossĠ": 3046,
      "Ġconcern": 3047,
      "erem": 3048,
      "Ġshar": 3049,
      "doesnĠt": 3050,
      "Ġplay": 3051,
      "disclos": 3052,
      "Ġsometh": 3053,
      "ingĠasĠ": 3054,
      "ĠweĠcan": 3055,
      "Ġchristian": 3056,
      "ven": 3057,
      "andĠw": 3058,
      "noth": 3059,
      "ender": 3060,
      "Ġorder": 3061,
      "review": 3062,
      "ourĠs": 3063,
      "Ġstor": 3064,
      "aĠch": 3065,
      "aiah": 3066,
      "iĠl": 3067,
      "ium": 3068,
      "provideĠ": 3069,
      "special": 3070,
      "vert": 3071,
      "Ġjudg": 3072,
      "cend": 3073,
      "charg": 3074,
      "ĠtoĠtheĠs": 3075,
      "pressĠ": 3076,
      "calledĠ": 3077,
      "langu": 3078,
      "perĠ": 3079,
      "Ġsc": 3080,
      "usp": 3081,
      "ĠjehovahĠ": 3082,
      "ĠtryĠtoĠ": 3083,
      "eĠmak": 3084,
      "access": 3085,
      "payĠ": 3086,
      "suranceĠ": 3087,
      "ross": 3088,
      "processĠ": 3089,
      "orrow": 3090,
      "Ġpat": 3091,
      "ocrat": 3092,
      "ituation": 3093,
      "Ġtreat": 3094,
      "ĠsetĠ": 3095,
      "Ġprom": 3096,
      "Ġnam": 3097,
      "Ġstand": 3098,
      "authorityĠ": 3099,
      "homeĠ": 3100,
      "Ġpos": 3101,
      "ustryĠ": 3102,
      "break": 3103,
      "countryĠ": 3104,
      "poseĠ": 3105,
      "sĠandĠtheĠ": 3106,
      "anal": 3107,
      "ĠtrustĠ": 3108,
      "youĠshouldĠ": 3109,
      "beautiful": 3110,
      "bablyĠ": 3111,
      "shareĠ": 3112,
      "ownĠ": 3113,
      "inĠmyĠ": 3114,
      "ĠhomeĠ": 3115,
      "eason": 3116,
      "ĠthatĠs": 3117,
      "ĠwhichĠisĠ": 3118,
      "visitĠ": 3119,
      "enemiesĠ": 3120,
      "ĠtheĠk": 3121,
      "upĠandĠ": 3122,
      "journ": 3123,
      "ledĠ": 3124,
      "ĠtheĠlastĠ": 3125,
      "heĠhadĠ": 3126,
      "ultur": 3127,
      "aign": 3128,
      "education": 3129,
      "system": 3130,
      "char": 3131,
      "easyĠ": 3132,
      "contactĠ": 3133,
      "requi": 3134,
      "ĠindeedĠ": 3135,
      "sonĠ": 3136,
      "ualĠ": 3137,
      "wear": 3138,
      "Ġsystem": 3139,
      "respectĠ": 3140,
      "Ġappro": 3141,
      "yri": 3142,
      "imit": 3143,
      "Ġreal": 3144,
      "changeĠ": 3145,
      "ĠchildrenĠ": 3146,
      "ingsĠandĠ": 3147,
      "ĠtoĠhaveĠ": 3148,
      "church": 3149,
      "ĠandĠi": 3150,
      "mention": 3151,
      "suchĠasĠ": 3152,
      "disciplesĠ": 3153,
      "lack": 3154,
      "wid": 3155,
      "ĠheĠsaidĠ": 3156,
      "itself": 3157,
      "edĠt": 3158,
      "eĠsp": 3159,
      "assign": 3160,
      "priv": 3161,
      "Ġwant": 3162,
      "ĠthisĠisĠwhatĠ": 3163,
      "reveal": 3164,
      "almostĠ": 3165,
      "govern": 3166,
      "aĠv": 3167,
      "edd": 3168,
      "eĠwas": 3169,
      "exist": 3170,
      "eĠcall": 3171,
      "ĠtheseĠthingsĠ": 3172,
      "bath": 3173,
      "aĠsĠ": 3174,
      "Ġpass": 3175,
      "Ġgod": 3176,
      "decid": 3177,
      "ĠaccordanceĠwith": 3178,
      "mal": 3179,
      "alu": 3180,
      "atingĠ": 3181,
      "edĠmeĠ": 3182,
      "accordingĠtoĠ": 3183,
      "economic": 3184,
      "universityĠ": 3185,
      "union": 3186,
      "ĠgaveĠ": 3187,
      "Ġany": 3188,
      "etimesĠ": 3189,
      "knowĠthatĠ": 3190,
      "serviceĠ": 3191,
      "postĠ": 3192,
      "ĠtoĠyour": 3193,
      "ĠtheĠtwoĠ": 3194,
      "finish": 3195,
      "happyĠ": 3196,
      "careĠ": 3197,
      "ĠsinceĠ": 3198,
      "ruleĠ": 3199,
      "ethiopia": 3200,
      "appropri": 3201,
      "immediatelyĠ": 3202,
      "businessĠ": 3203,
      "ures": 3204,
      "olution": 3205,
      "ĠthankĠyou": 3206,
      "goldĠ": 3207,
      "ĠeĠ": 3208,
      "areĠw": 3209,
      "iter": 3210,
      "Ġpo": 3211,
      "land": 3212,
      "oneĠtoĠ": 3213,
      "ĠtoĠgetĠ": 3214,
      "stoodĠ": 3215,
      "Ġgre": 3216,
      "eĠofĠhisĠ": 3217,
      "fulĠ": 3218,
      "ĠasĠtheĠ": 3219,
      "onĠyour": 3220,
      "ĠheĠhasĠ": 3221,
      "ĠtimeĠtoĠ": 3222,
      "forĠall": 3223,
      "iction": 3224,
      "edĠintoĠ": 3225,
      "relationship": 3226,
      "doĠyou": 3227,
      "aur": 3228,
      "amaz": 3229,
      "ĠinĠthisĠ": 3230,
      "haveĠtoĠ": 3231,
      "cient": 3232,
      "thisĠ": 3233,
      "eĠwillĠbeĠ": 3234,
      "hard": 3235,
      "sĠwereĠ": 3236,
      "nothingĠ": 3237,
      "fulfill": 3238,
      "ĠactsĠ": 3239,
      "contain": 3240,
      "congregation": 3241,
      "thew": 3242,
      "projectĠ": 3243,
      "mentĠandĠ": 3244,
      "lat": 3245,
      "ĠaĠman": 3246,
      "Ġhimself": 3247,
      "ĠbecameĠ": 3248,
      "iĠwouldĠ": 3249,
      "membersĠ": 3250,
      "esĠfor": 3251,
      "eventsĠ": 3252,
      "resultsĠ": 3253,
      "istic": 3254,
      "eĠhear": 3255,
      "usĠandĠ": 3256,
      "ĠhaveĠtoĠ": 3257,
      "shallĠb": 3258,
      "pet": 3259,
      "tak": 3260,
      "ĠinĠs": 3261,
      "ĠtrulyĠ": 3262,
      "weĠcan": 3263,
      "eĠserv": 3264,
      "utt": 3265,
      "overĠtheĠ": 3266,
      "afetyĠ": 3267,
      "friendsĠ": 3268,
      "international": 3269,
      "eriousĠ": 3270,
      "rik": 3271,
      "eĠso": 3272,
      "workĠ": 3273,
      "ttp": 3274,
      "compet": 3275,
      "iresĠ": 3276,
      "ingĠof": 3277,
      "edĠthrough": 3278,
      "arriv": 3279,
      "ĠandĠd": 3280,
      "Ġinformation": 3281,
      "earli": 3282,
      "servantsĠ": 3283,
      "bre": 3284,
      "russ": 3285,
      "ĠbecauseĠ": 3286,
      "ier": 3287,
      "ensĠ": 3288,
      "reli": 3289,
      "moneyĠ": 3290,
      "houseĠofĠ": 3291,
      "non": 3292,
      "Ġtre": 3293,
      "givesĠ": 3294,
      "ĠyesĠ": 3295,
      "Ġpersonal": 3296,
      "atersĠ": 3297,
      "ounsel": 3298,
      "eĠaĠs": 3299,
      "notĠtoĠ": 3300,
      "head": 3301,
      "areasĠ": 3302,
      "youĠmustĠ": 3303,
      "yourĠb": 3304,
      "wifeĠ": 3305,
      "meansĠ": 3306,
      "ĠyouĠmustĠ": 3307,
      "gam": 3308,
      "obtain": 3309,
      "eĠbec": 3310,
      "Ġperform": 3311,
      "duceĠ": 3312,
      "ĠtoĠhim": 3313,
      "els": 3314,
      "ĠwithĠa": 3315,
      "ĠwhenĠi": 3316,
      "first": 3317,
      "fellow": 3318,
      "ienceĠ": 3319,
      "exerc": 3320,
      "contin": 3321,
      "friendĠ": 3322,
      "ingĠinĠ": 3323,
      "ival": 3324,
      "big": 3325,
      "whenĠyou": 3326,
      "ĠaccordingĠtoĠ": 3327,
      "bear": 3328,
      "sist": 3329,
      "intsĠ": 3330,
      "ĠtheĠpres": 3331,
      "however": 3332,
      "respect": 3333,
      "efullyĠ": 3334,
      "iddleĠ": 3335,
      "ched": 3336,
      "ĠfoodĠ": 3337,
      "ĠtoĠt": 3338,
      "okeĠ": 3339,
      "Ġcondition": 3340,
      "edĠyou": 3341,
      "ĠandĠc": 3342,
      "Ġtot": 3343,
      "iĠthink": 3344,
      "ĠtheĠgodĠ": 3345,
      "urv": 3346,
      "ĠmattĠ": 3347,
      "inĠl": 3348,
      "Ġwar": 3349,
      "olid": 3350,
      "ĠthatĠitĠ": 3351,
      "quot": 3352,
      "letĠusĠ": 3353,
      "Ġhand": 3354,
      "human": 3355,
      "variousĠ": 3356,
      "edĠtheĠs": 3357,
      "idsĠ": 3358,
      "areĠnotĠ": 3359,
      "eĠdes": 3360,
      "ĠwhoĠisĠ": 3361,
      "ĠtheyĠhadĠ": 3362,
      "Ġadminist": 3363,
      "ĠserviceĠ": 3364,
      "ĠtheĠin": 3365,
      "Ġlist": 3366,
      "ĠtheirĠm": 3367,
      "whenĠi": 3368,
      "eel": 3369,
      "med": 3370,
      "withĠa": 3371,
      "eĠdoesĠ": 3372,
      "urntĠoffer": 3373,
      "bur": 3374,
      "motherĠ": 3375,
      "apostleĠ": 3376,
      "owĠ": 3377,
      "issueĠ": 3378,
      "feetĠ": 3379,
      "beginn": 3380,
      "marri": 3381,
      "sĠc": 3382,
      "atan": 3383,
      "improv": 3384,
      "world": 3385,
      "knew": 3386,
      "ootĠ": 3387,
      "oman": 3388,
      "ivil": 3389,
      "quit": 3390,
      "ĠhowĠtoĠ": 3391,
      "ĠheĠhadĠ": 3392,
      "carryĠ": 3393,
      "enn": 3394,
      "ĠinĠm": 3395,
      "ĠyetĠ": 3396,
      "Ġcas": 3397,
      "Ġplan": 3398,
      "Ġpeac": 3399,
      "merc": 3400,
      "ourt": 3401,
      "Ġchar": 3402,
      "aĠlittleĠ": 3403,
      "bar": 3404,
      "yr": 3405,
      "allĠofĠ": 3406,
      "appreci": 3407,
      "piec": 3408,
      "areĠtoĠ": 3409,
      "boardĠ": 3410,
      "div": 3411,
      "inĠb": 3412,
      "aboutĠtheĠ": 3413,
      "fastĠ": 3414,
      "youĠmayĠ": 3415,
      "ĠthisĠis": 3416,
      "ĠwhenĠyou": 3417,
      "occas": 3418,
      "lyĠtoĠ": 3419,
      "Ġout": 3420,
      "Ġsaw": 3421,
      "ĠcareĠ": 3422,
      "iĠd": 3423,
      "inessĠ": 3424,
      "Ġsam": 3425,
      "ison": 3426,
      "etc": 3427,
      "effort": 3428,
      "sequ": 3429,
      "Ġmov": 3430,
      "loyal": 3431,
      "got": 3432,
      "eĠwillĠb": 3433,
      "Ġeach": 3434,
      "exam": 3435,
      "ĠtheĠhigh": 3436,
      "deadĠ": 3437,
      "prophetĠ": 3438,
      "piritĠ": 3439,
      "ee": 3440,
      "mission": 3441,
      "eĠthrough": 3442,
      "edĠbutĠ": 3443,
      "formationĠ": 3444,
      "eri": 3445,
      "ali": 3446,
      "eĠtooĠ": 3447,
      "isĠs": 3448,
      "solut": 3449,
      "uleĠ": 3450,
      "wrong": 3451,
      "oplesĠ": 3452,
      "effic": 3453,
      "extra": 3454,
      "ĠmosesĠ": 3455,
      "Ġlevel": 3456,
      "utur": 3457,
      "flesh": 3458,
      "araoh": 3459,
      "ofĠt": 3460,
      "Ġcap": 3461,
      "otherĠs": 3462,
      "general": 3463,
      "occur": 3464,
      "necessaryĠ": 3465,
      "dwell": 3466,
      "link": 3467,
      "Ġpartic": 3468,
      "anĠsĠ": 3469,
      "ĠtheĠbook": 3470,
      "goneĠ": 3471,
      "ĠatĠtheĠ": 3472,
      "rejo": 3473,
      "otel": 3474,
      "discuss": 3475,
      "evenĠif": 3476,
      "ĠtryingĠtoĠ": 3477,
      "ĠofĠa": 3478,
      "Ġheaven": 3479,
      "oph": 3480,
      "eĠshow": 3481,
      "announc": 3482,
      "zz": 3483,
      "andĠhisĠ": 3484,
      "escap": 3485,
      "ingĠanĠ": 3486,
      "eholdĠ": 3487,
      "anythingĠ": 3488,
      "eĠtook": 3489,
      "eĠcanĠ": 3490,
      "phil": 3491,
      "ĠcompanyĠ": 3492,
      "obedi": 3493,
      "Ġservic": 3494,
      "ativesĠ": 3495,
      "ilv": 3496,
      "ĠlastĠ": 3497,
      "abraham": 3498,
      "ĠforĠa": 3499,
      "support": 3500,
      "epher": 3501,
      "eĠaĠl": 3502,
      "ebook": 3503,
      "verb": 3504,
      "flow": 3505,
      "aitĠ": 3506,
      "atic": 3507,
      "hapsĠ": 3508,
      "eans": 3509,
      "inĠd": 3510,
      "eĠintoĠ": 3511,
      "unitedĠstatesĠ": 3512,
      "echnologyĠ": 3513,
      "arrang": 3514,
      "ension": 3515,
      "ĠmoneyĠ": 3516,
      "ĠaĠfew": 3517,
      "uccessĠ": 3518,
      "imagin": 3519,
      "edĠw": 3520,
      "fireĠ": 3521,
      "Ġfur": 3522,
      "edlyĠ": 3523,
      "istor": 3524,
      "beĠtheĠ": 3525,
      "improveĠ": 3526,
      "ishĠ": 3527,
      "servic": 3528,
      "Ġdisc": 3529,
      "determin": 3530,
      "heĠsaidĠ": 3531,
      "iam": 3532,
      "vall": 3533,
      "ariesĠ": 3534,
      "ĠtoĠhelp": 3535,
      "eĠsay": 3536,
      "heldĠ": 3537,
      "later": 3538,
      "mountain": 3539,
      "publish": 3540,
      "sĠhaveĠ": 3541,
      "ĠthereĠwereĠ": 3542,
      "Ġafric": 3543,
      "ildernessĠ": 3544,
      "byĠtheĠ": 3545,
      "fact": 3546,
      "enessĠ": 3547,
      "oundsĠ": 3548,
      "everyth": 3549,
      "gloryĠ": 3550,
      "ĠiĠveĠ": 3551,
      "orĠin": 3552,
      "notĠonlyĠ": 3553,
      "viousĠ": 3554,
      "Ġbeen": 3555,
      "ĠtheĠnextĠ": 3556,
      "ercial": 3557,
      "ber": 3558,
      "ationĠisĠ": 3559,
      "estruc": 3560,
      "extrem": 3561,
      "better": 3562,
      "yesĠ": 3563,
      "ĠtheĠdes": 3564,
      "effectĠ": 3565,
      "meas": 3566,
      "passĠ": 3567,
      "rank": 3568,
      "Ġgrow": 3569,
      "Ġsinc": 3570,
      "Ġpriv": 3571,
      "eĠdaysĠ": 3572,
      "ĠtakesĠ": 3573,
      "notic": 3574,
      "ĠcommunityĠ": 3575,
      "ideasĠ": 3576,
      "menĠ": 3577,
      "ateĠs": 3578,
      "ĠyouĠandĠ": 3579,
      "approv": 3580,
      "lookingĠfor": 3581,
      "Ġpost": 3582,
      "ĠtheĠserv": 3583,
      "sĠandĠs": 3584,
      "ĠbutĠtheĠ": 3585,
      "brothersĠ": 3586,
      "heĠhasĠ": 3587,
      "engl": 3588,
      "runn": 3589,
      "ysical": 3590,
      "ĠbrothersĠ": 3591,
      "ehic": 3592,
      "christiansĠ": 3593,
      "idesĠ": 3594,
      "peal": 3595,
      "Ġcomput": 3596,
      "ĠparentsĠ": 3597,
      "onth": 3598,
      "areĠth": 3599,
      "enterĠ": 3600,
      "aĠsh": 3601,
      "birth": 3602,
      "Ġsign": 3603,
      "Ġvis": 3604,
      "heritanceĠ": 3605,
      "ofĠegyptĠ": 3606,
      "chem": 3607,
      "entĠandĠ": 3608,
      "esdayĠ": 3609,
      "hair": 3610,
      "anceĠtoĠ": 3611,
      "bring": 3612,
      "la": 3613,
      "sĠwhoĠ": 3614,
      "lip": 3615,
      "eĠmightĠ": 3616,
      "aĠveryĠ": 3617,
      "personal": 3618,
      "Ġway": 3619,
      "ĠbyĠtheĠ": 3620,
      "forceĠ": 3621,
      "isĠthatĠ": 3622,
      "itĠs": 3623,
      "agn": 3624,
      "click": 3625,
      "jord": 3626,
      "onĠm": 3627,
      "ountsĠ": 3628,
      "ratherĠthan": 3629,
      "oppos": 3630,
      "Ġyork": 3631,
      "Ġtruth": 3632,
      "Ġluk": 3633,
      "ifĠyouĠ": 3634,
      "ĠtheĠsonsĠof": 3635,
      "during": 3636,
      "eĠdidĠnotĠ": 3637,
      "pastĠ": 3638,
      "Ġrom": 3639,
      "met": 3640,
      "Ġsal": 3641,
      "edĠaboutĠ": 3642,
      "sĠthisĠ": 3643,
      "ractĠ": 3644,
      "inĠtheir": 3645,
      "raidĠ": 3646,
      "aper": 3647,
      "yearsĠoldĠ": 3648,
      "vision": 3649,
      "onĠhisĠ": 3650,
      "edĠor": 3651,
      "whether": 3652,
      "ighbor": 3653,
      "assemb": 3654,
      "decision": 3655,
      "ĠtheĠhouseĠofĠ": 3656,
      "prec": 3657,
      "cleanĠ": 3658,
      "achi": 3659,
      "Ġorgan": 3660,
      "Ġremember": 3661,
      "ĠinsteadĠ": 3662,
      "kingsĠ": 3663,
      "mr": 3664,
      "only": 3665,
      "Ġagre": 3666,
      "ofĠf": 3667,
      "ĠbeingĠ": 3668,
      "accountĠ": 3669,
      "productĠ": 3670,
      "bin": 3671,
      "Ġdev": 3672,
      "opposition": 3673,
      "eĠback": 3674,
      "attersĠ": 3675,
      "Ġabraham": 3676,
      "Ġcommand": 3677,
      "aughterĠ": 3678,
      "Ġcompan": 3679,
      "pack": 3680,
      "ĠtheĠnew": 3681,
      "ĠinĠtheĠs": 3682,
      "ingĠac": 3683,
      "indic": 3684,
      "communityĠ": 3685,
      "eavenĠ": 3686,
      "ield": 3687,
      "listĠ": 3688,
      "star": 3689,
      "usuallyĠ": 3690,
      "Ġget": 3691,
      "ĠtheĠpr": 3692,
      "commission": 3693,
      "anĠandĠ": 3694,
      "storyĠ": 3695,
      "Ġcamp": 3696,
      "elyĠtoĠ": 3697,
      "excell": 3698,
      "urrentlyĠ": 3699,
      "ĠtheĠpriestĠ": 3700,
      "chos": 3701,
      "Ġrev": 3702,
      "ityĠandĠ": 3703,
      "esus": 3704,
      "uniqu": 3705,
      "Ġclear": 3706,
      "equip": 3707,
      "cu": 3708,
      "oneĠof": 3709,
      "inĠorderĠtoĠ": 3710,
      "ocratic": 3711,
      "iĠhadĠ": 3712,
      "sk": 3713,
      "youĠandĠ": 3714,
      "isnĠt": 3715,
      "opportunityĠtoĠ": 3716,
      "Ġpolic": 3717,
      "ĠinĠtheĠf": 3718,
      "evidenceĠ": 3719,
      "ĠtheĠsonsĠofĠ": 3720,
      "ĠstudentsĠ": 3721,
      "prison": 3722,
      "Ġthr": 3723,
      "ingĠwork": 3724,
      "Ġcr": 3725,
      "Ġdat": 3726,
      "entyĠ": 3727,
      "carri": 3728,
      "overeignĠlordĠ": 3729,
      "ĠaĠn": 3730,
      "comfort": 3731,
      "consum": 3732,
      "ebsit": 3733,
      "bloodĠ": 3734,
      "ministryĠ": 3735,
      "dam": 3736,
      "easilyĠ": 3737,
      "eĠofĠs": 3738,
      "anyth": 3739,
      "holdĠ": 3740,
      "atsĠ": 3741,
      "ely": 3742,
      "opsĠ": 3743,
      "eaĠ": 3744,
      "ĠallĠh": 3745,
      "Ġexc": 3746,
      "ĠbelieveĠ": 3747,
      "avoidĠ": 3748,
      "ĠothersĠ": 3749,
      "ingĠall": 3750,
      "idstĠ": 3751,
      "ĠstateĠ": 3752,
      "rought": 3753,
      "sayingĠ": 3754,
      "eaf": 3755,
      "Ġtrack": 3756,
      "als": 3757,
      "abern": 3758,
      "initelyĠ": 3759,
      "iesĠtoĠ": 3760,
      "Ġauthor": 3761,
      "ĠmembersĠ": 3762,
      "ĠthemĠandĠ": 3763,
      "whenĠtheyĠ": 3764,
      "presidentĠ": 3765,
      "egypt": 3766,
      "voic": 3767,
      "Ġheb": 3768,
      "acter": 3769,
      "emper": 3770,
      "ĠservicesĠ": 3771,
      "aloneĠ": 3772,
      "ĠforĠyour": 3773,
      "communic": 3774,
      "Ġcompet": 3775,
      "employmentĠ": 3776,
      "moveĠ": 3777,
      "otherw": 3778,
      "allĠtheĠpeopleĠ": 3779,
      "ĠcameĠ": 3780,
      "avesĠ": 3781,
      "siderĠ": 3782,
      "discipl": 3783,
      "environmentĠ": 3784,
      "beĠt": 3785,
      "lev": 3786,
      "nov": 3787,
      "itiz": 3788,
      "ĠmoreĠin": 3789,
      "mos": 3790,
      "sinceĠ": 3791,
      "inĠandĠ": 3792,
      "ary": 3793,
      "ingĠforĠ": 3794,
      "ĠthatĠjehovah": 3795,
      "regul": 3796,
      "particip": 3797,
      "Ġtown": 3798,
      "stateĠ": 3799,
      "ecre": 3800,
      "childĠ": 3801,
      "sonsĠ": 3802,
      "fig": 3803,
      "matter": 3804,
      "Ġfind": 3805,
      "ditional": 3806,
      "enefitĠ": 3807,
      "anch": 3808,
      "ictĠ": 3809,
      "ĠinĠorder": 3810,
      "oblig": 3811,
      "ĠbeforeĠtheĠ": 3812,
      "ĠsupportĠ": 3813,
      "engin": 3814,
      "pot": 3815,
      "aniel": 3816,
      "emerg": 3817,
      "Ġref": 3818,
      "yourĠm": 3819,
      "feltĠ": 3820,
      "Ġel": 3821,
      "thingsĠ": 3822,
      "eĠtimeĠ": 3823,
      "Ġtool": 3824,
      "upportĠ": 3825,
      "load": 3826,
      "asterĠ": 3827,
      "ufact": 3828,
      "childrenĠofĠisrael": 3829,
      "ĠthirdĠ": 3830,
      "stra": 3831,
      "aĠresultĠ": 3832,
      "gar": 3833,
      "nic": 3834,
      "fell": 3835,
      "Ġunder": 3836,
      "refl": 3837,
      "recommend": 3838,
      "ift": 3839,
      "eĠmor": 3840,
      "builtĠ": 3841,
      "accordingĠtoĠtheĠ": 3842,
      "ircumst": 3843,
      "driv": 3844,
      "amountĠ": 3845,
      "quir": 3846,
      "ĠsomeoneĠ": 3847,
      "exceptĠ": 3848,
      "deliver": 3849,
      "oor": 3850,
      "ĠliveĠ": 3851,
      "eĠandĠs": 3852,
      "eĠbut": 3853,
      "recentlyĠ": 3854,
      "ĠgotĠ": 3855,
      "reduc": 3856,
      "ĠtheĠbo": 3857,
      "buyĠ": 3858,
      "ĠwholeĠ": 3859,
      "eautiful": 3860,
      "lab": 3861,
      "lostĠ": 3862,
      "erĠor": 3863,
      "radi": 3864,
      "Ġsacrific": 3865,
      "allĠof": 3866,
      "whetherĠ": 3867,
      "ĠthatĠdayĠ": 3868,
      "attitud": 3869,
      "Ġexperi": 3870,
      "supportĠ": 3871,
      "operat": 3872,
      "uccessful": 3873,
      "ifĠi": 3874,
      "ervedĠ": 3875,
      "retch": 3876,
      "ĠaccountĠ": 3877,
      "rictĠ": 3878,
      "intoĠtheĠ": 3879,
      "Ġcongreg": 3880,
      "ingĠsoĠ": 3881,
      "youĠcanĠ": 3882,
      "ason": 3883,
      "class": 3884,
      "Ġmore": 3885,
      "ribution": 3886,
      "propertyĠ": 3887,
      "ĠtoĠtheir": 3888,
      "vot": 3889,
      "ĠveryĠ": 3890,
      "astic": 3891,
      "remov": 3892,
      "Ġapplic": 3893,
      "laterĠ": 3894,
      "may": 3895,
      "ĠcountryĠ": 3896,
      "ĠthemĠtoĠ": 3897,
      "createdĠ": 3898,
      "armiesĠ": 3899,
      "givenĠ": 3900,
      "oneĠw": 3901,
      "oneĠofĠ": 3902,
      "inĠtheĠt": 3903,
      "record": 3904,
      "Ġworship": 3905,
      "join": 3906,
      "jehovahĠsĠwitnessesĠ": 3907,
      "actsĠ": 3908,
      "roduc": 3909,
      "Ġcharg": 3910,
      "ĠtryĠ": 3911,
      "depend": 3912,
      "abernacleĠ": 3913,
      "egal": 3914,
      "iĠdonĠt": 3915,
      "Ġwalk": 3916,
      "forĠhisĠ": 3917,
      "Ġpain": 3918,
      "eĠsomeĠ": 3919,
      "endedĠ": 3920,
      "ĠnextĠ": 3921,
      "vest": 3922,
      "Ġtest": 3923,
      "ingĠtheĠm": 3924,
      "Ġpsalm": 3925,
      "ĠandĠall": 3926,
      "ĠtheĠtop": 3927,
      "burn": 3928,
      "Ġair": 3929,
      "ĠmayĠbeĠ": 3930,
      "scrip": 3931,
      "Ġyear": 3932,
      "older": 3933,
      "eĠtwoĠ": 3934,
      "easyĠtoĠ": 3935,
      "ĠtheĠholyĠ": 3936,
      "didnĠt": 3937,
      "forth": 3938,
      "owl": 3939,
      "asc": 3940,
      "Ġfir": 3941,
      "lobal": 3942,
      "ĠstandĠ": 3943,
      "promot": 3944,
      "their": 3945,
      "irr": 3946,
      "emotion": 3947,
      "plain": 3948,
      "Ġcheck": 3949,
      "habitantsĠ": 3950,
      "hold": 3951,
      "inth": 3952,
      "ingĠtheĠc": 3953,
      "asĠs": 3954,
      "anĠun": 3955,
      "Ġproph": 3956,
      "Ġagainst": 3957,
      "responsibleĠ": 3958,
      "choos": 3959,
      "aac": 3960,
      "sw": 3961,
      "empor": 3962,
      "plann": 3963,
      "eption": 3964,
      "eĠofĠm": 3965,
      "belong": 3966,
      "fightĠ": 3967,
      "ĠtoĠse": 3968,
      "esĠof": 3969,
      "ofĠj": 3970,
      "register": 3971,
      "pursu": 3972,
      "nowĠ": 3973,
      "financial": 3974,
      "ĠtoĠmeĠ": 3975,
      "ĠtoĠtak": 3976,
      "Ġstep": 3977,
      "Ġbuild": 3978,
      "valleyĠ": 3979,
      "andĠc": 3980,
      "ĠhusbandĠ": 3981,
      "Ġpay": 3982,
      "ĠyouĠshouldĠ": 3983,
      "Ġstrong": 3984,
      "anĠinter": 3985,
      "electric": 3986,
      "yearsĠagoĠ": 3987,
      "Ġremain": 3988,
      "version": 3989,
      "obe": 3990,
      "ĠtheĠoneĠwhoĠ": 3991,
      "examin": 3992,
      "Ġjun": 3993,
      "jehovahĠyourĠgodĠ": 3994,
      "onĠitĠ": 3995,
      "ĠtheĠhandĠ": 3996,
      "door": 3997,
      "desp": 3998,
      "Ġtax": 3999,
      "imin": 4000,
      "onĠsĠ": 4001,
      "Ġseek": 4002,
      "leav": 4003,
      "pict": 4004,
      "ĠwantĠ": 4005,
      "Ġforeign": 4006,
      "eak": 4007,
      "ieg": 4008,
      "pick": 4009,
      "abyĠ": 4010,
      "regist": 4011,
      "lord": 4012,
      "Ġcre": 4013,
      "Ġpur": 4014,
      "Ġforef": 4015,
      "Ġphil": 4016,
      "doub": 4017,
      "mom": 4018,
      "Ġim": 4019,
      "plf": 4020,
      "Ġperi": 4021,
      "ĠsoĠtheyĠ": 4022,
      "vailableĠ": 4023,
      "Ġuntil": 4024,
      "ationsĠandĠ": 4025,
      "Ġconn": 4026,
      "ĠtheĠtruth": 4027,
      "ronic": 4028,
      "glor": 4029,
      "Ġinvest": 4030,
      "Ġbegan": 4031,
      "ĠthatĠheĠ": 4032,
      "ĠlivesĠ": 4033,
      "rief": 4034,
      "umer": 4035,
      "beganĠtoĠ": 4036,
      "Ġposition": 4037,
      "ili": 4038,
      "ĠdifferentĠ": 4039,
      "eĠdi": 4040,
      "warn": 4041,
      "mitĠ": 4042,
      "asĠa": 4043,
      "longer": 4044,
      "ĠhouseĠ": 4045,
      "women": 4046,
      "ĠsurelyĠ": 4047,
      "ĠhandsĠ": 4048,
      "ofĠtheĠlordĠ": 4049,
      "ancientĠ": 4050,
      "Ġhar": 4051,
      "erson": 4052,
      "phot": 4053,
      "anceĠandĠ": 4054,
      "Ġlet": 4055,
      "ĠinĠyour": 4056,
      "resid": 4057,
      "loadĠ": 4058,
      "comput": 4059,
      "eĠdoĠnotĠ": 4060,
      "english": 4061,
      "mis": 4062,
      "err": 4063,
      "olveĠ": 4064,
      "atterĠ": 4065,
      "Ġmar": 4066,
      "peaceĠ": 4067,
      "completelyĠ": 4068,
      "powerĠ": 4069,
      "Ġjust": 4070,
      "ĠandĠtoĠ": 4071,
      "account": 4072,
      "daughterĠ": 4073,
      "raftĠ": 4074,
      "eerĠ": 4075,
      "sĠisĠ": 4076,
      "youĠll": 4077,
      "isedĠ": 4078,
      "itĠhasĠ": 4079,
      "ĠlandĠ": 4080,
      "entireĠ": 4081,
      "canĠhelp": 4082,
      "Ġstrength": 4083,
      "ĠjustĠasĠ": 4084,
      "ĠshallĠbeĠ": 4085,
      "realiz": 4086,
      "su": 4087,
      "pli": 4088,
      "ĠsayingĠ": 4089,
      "ingĠdown": 4090,
      "edĠtheĠm": 4091,
      "lood": 4092,
      "ĠtimeĠandĠ": 4093,
      "deb": 4094,
      "half": 4095,
      "sĠbutĠ": 4096,
      "ĠwhoĠwasĠ": 4097,
      "Ġclaim": 4098,
      "ball": 4099,
      "jah": 4100,
      "ĠiĠthink": 4101,
      "ĠtheĠsecondĠ": 4102,
      "ĠbutĠif": 4103,
      "arden": 4104,
      "provision": 4105,
      "developmentĠ": 4106,
      "ĠtowardĠ": 4107,
      "cop": 4108,
      "hoodĠ": 4109,
      "harm": 4110,
      "reetĠ": 4111,
      "prim": 4112,
      "servantĠ": 4113,
      "investig": 4114,
      "ĠaĠt": 4115,
      "Ġbreak": 4116,
      "ĠinĠmyĠ": 4117,
      "ĠofĠgodĠ": 4118,
      "edĠonĠtheĠ": 4119,
      "ĠtoĠtakeĠ": 4120,
      "ĠofĠtheĠt": 4121,
      "untoĠthem": 4122,
      "Ġrelationship": 4123,
      "occup": 4124,
      "ge": 4125,
      "hib": 4126,
      "edĠher": 4127,
      "ilk": 4128,
      "itableĠ": 4129,
      "esĠthisĠ": 4130,
      "inĠtheĠw": 4131,
      "eĠaĠf": 4132,
      "Ġtransl": 4133,
      "judgmentĠ": 4134,
      "marketĠ": 4135,
      "ĠhappyĠ": 4136,
      "past": 4137,
      "ĠthingĠ": 4138,
      "havi": 4139,
      "everlast": 4140,
      "egr": 4141,
      "eĠinto": 4142,
      "describ": 4143,
      "Ġdirect": 4144,
      "differ": 4145,
      "ileg": 4146,
      "leĠtoĠ": 4147,
      "clin": 4148,
      "aĠisĠ": 4149,
      "animal": 4150,
      "ĠtheĠwordĠ": 4151,
      "esĠtoĠtheĠ": 4152,
      "ĠwhenĠtheyĠ": 4153,
      "umbleĠ": 4154,
      "iĠknow": 4155,
      "edĠa": 4156,
      "ector": 4157,
      "ferenceĠ": 4158,
      "ĠawayĠfrom": 4159,
      "original": 4160,
      "bapt": 4161,
      "betterĠ": 4162,
      "lotĠ": 4163,
      "ĠprojectĠ": 4164,
      "ustain": 4165,
      "rementsĠ": 4166,
      "aliveĠ": 4167,
      "iff": 4168,
      "becam": 4169,
      "joshu": 4170,
      "blog": 4171,
      "ĠtheĠhear": 4172,
      "ettl": 4173,
      "bod": 4174,
      "ofĠitĠ": 4175,
      "eĠaĠb": 4176,
      "complish": 4177,
      "Ġwatch": 4178,
      "usesĠ": 4179,
      "voiceĠ": 4180,
      "ĠmenĠ": 4181,
      "areĠyou": 4182,
      "requiredĠ": 4183,
      "octob": 4184,
      "dut": 4185,
      "fund": 4186,
      "ecom": 4187,
      "ageĠofĠ": 4188,
      "atedĠwith": 4189,
      "becauseĠtheyĠ": 4190,
      "destroy": 4191,
      "sheep": 4192,
      "Ġconduc": 4193,
      "ĠallĠtheĠ": 4194,
      "joyĠ": 4195,
      "jun": 4196,
      "noah": 4197,
      "akesĠ": 4198,
      "couldĠbeĠ": 4199,
      "cutĠ": 4200,
      "tsĠandĠ": 4201,
      "did": 4202,
      "xi": 4203,
      "ĠtoĠmyĠ": 4204,
      "effect": 4205,
      "prettyĠ": 4206,
      "unishmentĠ": 4207,
      "ousĠandĠ": 4208,
      "amm": 4209,
      "udgetĠ": 4210,
      "sĠthatĠareĠ": 4211,
      "struck": 4212,
      "ĠandĠif": 4213,
      "ĠtheĠsovereignĠlordĠ": 4214,
      "forĠusĠ": 4215,
      "oriesĠ": 4216,
      "ĠthroughĠtheĠ": 4217,
      "feat": 4218,
      "ofĠthisĠarticleĠ": 4219,
      "pol": 4220,
      "inj": 4221,
      "ingĠtheĠf": 4222,
      "edĠusĠ": 4223,
      "earsĠ": 4224,
      "eĠsuch": 4225,
      "ightsĠ": 4226,
      "ongsĠ": 4227,
      "eĠwithoutĠ": 4228,
      "interestĠ": 4229,
      "judic": 4230,
      "cleĠ": 4231,
      "material": 4232,
      "Ġit": 4233,
      "ird": 4234,
      "rig": 4235,
      "willĠhelp": 4236,
      "Ġclean": 4237,
      "ugeĠ": 4238,
      "awayĠfrom": 4239,
      "eremiah": 4240,
      "stay": 4241,
      "eĠtheĠc": 4242,
      "essential": 4243,
      "excit": 4244,
      "strengthen": 4245,
      "leep": 4246,
      "orĠtoĠ": 4247,
      "ĠtheĠdaysĠ": 4248,
      "ĠtheĠnationsĠ": 4249,
      "yourĠown": 4250,
      "function": 4251,
      "path": 4252,
      "Ġmarri": 4253,
      "ĠneverĠ": 4254,
      "withĠhisĠ": 4255,
      "ĠmadeĠ": 4256,
      "ĠcameĠtoĠ": 4257,
      "hon": 4258,
      "arant": 4259,
      "eĠman": 4260,
      "soĠmuch": 4261,
      "Ġcloth": 4262,
      "jesusĠchristĠ": 4263,
      "redĠtoĠ": 4264,
      "sell": 4265,
      "water": 4266,
      "ineĠandĠ": 4267,
      "rif": 4268,
      "ablesĠ": 4269,
      "ageĠandĠ": 4270,
      "compar": 4271,
      "whoĠhaveĠ": 4272,
      "rativeĠ": 4273,
      "ĠthousandĠ": 4274,
      "activitiesĠ": 4275,
      "giftĠ": 4276,
      "edĠthemĠ": 4277,
      "ofĠtheĠf": 4278,
      "ĠiĠwouldĠ": 4279,
      "undred": 4280,
      "Ġregion": 4281,
      "arietyĠ": 4282,
      "grad": 4283,
      "ĠprocessĠ": 4284,
      "ĠcertainlyĠ": 4285,
      "Ġwrot": 4286,
      "edĠover": 4287,
      "beth": 4288,
      "dieĠ": 4289,
      "congregationĠ": 4290,
      "jewsĠ": 4291,
      "sor": 4292,
      "insp": 4293,
      "opin": 4294,
      "exual": 4295,
      "Ġnational": 4296,
      "ĠtheĠsun": 4297,
      "noĠoneĠ": 4298,
      "mĠ": 4299,
      "ingĠwhatĠ": 4300,
      "sĠsuch": 4301,
      "Ġthrow": 4302,
      "inĠc": 4303,
      "Ġmess": 4304,
      "ĠtheĠmountain": 4305,
      "Ġseem": 4306,
      "main": 4307,
      "ĠtoĠyouĠ": 4308,
      "itĠwill": 4309,
      "nothing": 4310,
      "raz": 4311,
      "looksĠ": 4312,
      "undredĠ": 4313,
      "Ġhuman": 4314,
      "Ġcli": 4315,
      "elev": 4316,
      "Ġfun": 4317,
      "istanceĠ": 4318,
      "ĠpeaceĠ": 4319,
      "annual": 4320,
      "uesĠ": 4321,
      "edĠdown": 4322,
      "Ġhead": 4323,
      "atĠleastĠ": 4324,
      "entertain": 4325,
      "ĠtoĠtheĠt": 4326,
      "Ġmeas": 4327,
      "Ġpower": 4328,
      "viouslyĠ": 4329,
      "howeverĠ": 4330,
      "eĠafter": 4331,
      "Ġlisten": 4332,
      "occasion": 4333,
      "livesĠ": 4334,
      "Ġfull": 4335,
      "etic": 4336,
      "abbath": 4337,
      "result": 4338,
      "eĠbu": 4339,
      "articlesĠ": 4340,
      "partyĠ": 4341,
      "elseĠ": 4342,
      "observeĠ": 4343,
      "ĠservantĠ": 4344,
      "ĠactivitiesĠ": 4345,
      "sacrific": 4346,
      "expos": 4347,
      "epend": 4348,
      "yourĠd": 4349,
      "ubitsĠ": 4350,
      "ĠnotĠbeĠ": 4351,
      "kindnessĠ": 4352,
      "alkingĠ": 4353,
      "ateĠin": 4354,
      "inĠall": 4355,
      "youĠreĠ": 4356,
      "ethiopiaĠ": 4357,
      "violenceĠ": 4358,
      "Ġbar": 4359,
      "ĠpsĠ": 4360,
      "industryĠ": 4361,
      "agreementĠ": 4362,
      "ĠaĠnew": 4363,
      "Ġhas": 4364,
      "imum": 4365,
      "eĠwant": 4366,
      "odayĠ": 4367,
      "Ġconv": 4368,
      "Ġspecific": 4369,
      "ingĠback": 4370,
      "soonĠasĠ": 4371,
      "elt": 4372,
      "ingĠagain": 4373,
      "servicesĠ": 4374,
      "Ġnorth": 4375,
      "ĠmanĠ": 4376,
      "impress": 4377,
      "Ġfall": 4378,
      "ĠtheĠbas": 4379,
      "worksĠ": 4380,
      "limit": 4381,
      "ĠdoesĠnotĠ": 4382,
      "council": 4383,
      "deep": 4384,
      "detail": 4385,
      "onĠmyĠ": 4386,
      "ationĠwith": 4387,
      "aph": 4388,
      "Ġprinc": 4389,
      "relev": 4390,
      "ĠheardĠ": 4391,
      "productsĠ": 4392,
      "statementĠ": 4393,
      "environment": 4394,
      "enj": 4395,
      "edĠtheĠc": 4396,
      "eĠminist": 4397,
      "ĠtheĠheaven": 4398,
      "internetĠ": 4399,
      "Ġwomen": 4400,
      "euro": 4401,
      "fectĠ": 4402,
      "futureĠ": 4403,
      "pal": 4404,
      "inĠwhich": 4405,
      "anuaryĠ": 4406,
      "rav": 4407,
      "abilityĠtoĠ": 4408,
      "probablyĠ": 4409,
      "econd": 4410,
      "Ġmatthew": 4411,
      "Ġgeneral": 4412,
      "certainlyĠ": 4413,
      "Ġreceiv": 4414,
      "ĠasĠwellĠasĠ": 4415,
      "idenc": 4416,
      "iblyĠ": 4417,
      "Ġtrust": 4418,
      "ĠwordĠ": 4419,
      "dog": 4420,
      "spiritual": 4421,
      "ofĠisraelĠ": 4422,
      "bleĠ": 4423,
      "oon": 4424,
      "rateĠ": 4425,
      "ourc": 4426,
      "aĠman": 4427,
      "alesĠ": 4428,
      "ĠwaterĠ": 4429,
      "Ġcover": 4430,
      "ĠmeĠandĠ": 4431,
      "comingĠ": 4432,
      "whoĠwereĠ": 4433,
      "justiceĠ": 4434,
      "ĠdevelopmentĠ": 4435,
      "sinc": 4436,
      "ĠleaveĠ": 4437,
      "ĠtheyĠwouldĠ": 4438,
      "inner": 4439,
      "ecretaryĠ": 4440,
      "ĠthisĠisĠwhatĠjehovah": 4441,
      "alc": 4442,
      "ingĠbutĠ": 4443,
      "jehovahĠandĠ": 4444,
      "Ġyourself": 4445,
      "ĠweĠs": 4446,
      "ĠofĠthisĠ": 4447,
      "activeĠ": 4448,
      "ingĠsom": 4449,
      "ĠalwaysĠ": 4450,
      "ĠspiritĠ": 4451,
      "install": 4452,
      "lu": 4453,
      "purchas": 4454,
      "weĠs": 4455,
      "ĠwhetherĠ": 4456,
      "ersĠofĠ": 4457,
      "ahĠandĠ": 4458,
      "ĠtheĠdeadĠ": 4459,
      "ificantĠ": 4460,
      "ĠletĠusĠ": 4461,
      "somethingĠ": 4462,
      "geĠ": 4463,
      "Ġen": 4464,
      "arilyĠ": 4465,
      "ersĠin": 4466,
      "upport": 4467,
      "ĠmonthsĠ": 4468,
      "Ġthousand": 4469,
      "masĠ": 4470,
      "Ġtrib": 4471,
      "eĠoff": 4472,
      "becameĠ": 4473,
      "ocietyĠ": 4474,
      "practic": 4475,
      "Ġtoward": 4476,
      "answerĠ": 4477,
      "ĠsecurityĠ": 4478,
      "immor": 4479,
      "ĠyouĠtoĠ": 4480,
      "ĠnameĠ": 4481,
      "best": 4482,
      "otiv": 4483,
      "responsibilityĠ": 4484,
      "ĠstudyĠ": 4485,
      "Ġappear": 4486,
      "ertific": 4487,
      "iĠc": 4488,
      "eĠher": 4489,
      "some": 4490,
      "ĠwouldĠbeĠ": 4491,
      "periodĠ": 4492,
      "recogniz": 4493,
      "staff": 4494,
      "ĠisĠnotĠ": 4495,
      "contribut": 4496,
      "Ġallow": 4497,
      "Ġclass": 4498,
      "ashing": 4499,
      "ĠaĠv": 4500,
      "its": 4501,
      "ĠfromĠ": 4502,
      "Ġexp": 4503,
      "Ġassoci": 4504,
      "ĠtheĠfollowingĠ": 4505,
      "maintain": 4506,
      "ellig": 4507,
      "goesĠ": 4508,
      "Ġcommitt": 4509,
      "discover": 4510,
      "managementĠ": 4511,
      "focusĠ": 4512,
      "either": 4513,
      "asĠtheyĠ": 4514,
      "ĠlittleĠ": 4515,
      "const": 4516,
      "yourĠw": 4517,
      "ĠifĠyouĠ": 4518,
      "goodĠnew": 4519,
      "rowdĠ": 4520,
      "dr": 4521,
      "oud": 4522,
      "orĠm": 4523,
      "oĠandĠ": 4524,
      "youĠtoĠ": 4525,
      "offerĠ": 4526,
      "aughter": 4527,
      "requestĠ": 4528,
      "brok": 4529,
      "mult": 4530,
      "orth": 4531,
      "ourselvesĠ": 4532,
      "Ġtimoth": 4533,
      "eventuallyĠ": 4534,
      "strateg": 4535,
      "million": 4536,
      "pan": 4537,
      "onlineĠ": 4538,
      "easi": 4539,
      "sĠofĠs": 4540,
      "enemyĠ": 4541,
      "Ġbless": 4542,
      "ĠpostĠ": 4543,
      "adeĠ": 4544,
      "sĠinclud": 4545,
      "etweenĠ": 4546,
      "employeesĠ": 4547,
      "ezek": 4548,
      "count": 4549,
      "pt": 4550,
      "ĠtoĠh": 4551,
      "Ġpet": 4552,
      "ageĠof": 4553,
      "vertis": 4554,
      "mindĠ": 4555,
      "tiveĠ": 4556,
      "vill": 4557,
      "yester": 4558,
      "ingĠtheĠp": 4559,
      "Ġpow": 4560,
      "ounter": 4561,
      "being": 4562,
      "odeĠ": 4563,
      "Ġprepar": 4564,
      "citiesĠ": 4565,
      "myself": 4566,
      "suffer": 4567,
      "Ġtrip": 4568,
      "oneĠandĠ": 4569,
      "uman": 4570,
      "makeĠa": 4571,
      "remind": 4572,
      "endĠofĠtheĠ": 4573,
      "Ġput": 4574,
      "agaz": 4575,
      "Ġnear": 4576,
      "Ġclick": 4577,
      "depart": 4578,
      "responsib": 4579,
      "pow": 4580,
      "forĠf": 4581,
      "impactĠ": 4582,
      "iĠb": 4583,
      "otoĠ": 4584,
      "yingĠ": 4585,
      "Ġpreach": 4586,
      "eĠcam": 4587,
      "doingĠ": 4588,
      "weetĠ": 4589,
      "ĠaddisĠ": 4590,
      "sightĠ": 4591,
      "andon": 4592,
      "ĠaboveĠ": 4593,
      "desir": 4594,
      "Ġbehalf": 4595,
      "Ġorganiz": 4596,
      "ufactur": 4597,
      "atoryĠ": 4598,
      "Ġpop": 4599,
      "adem": 4600,
      "Ġamaz": 4601,
      "Ġalong": 4602,
      "startedĠ": 4603,
      "europ": 4604,
      "crit": 4605,
      "Ġdeal": 4606,
      "oneĠanotherĠ": 4607,
      "endur": 4608,
      "ethod": 4609,
      "ĠpresidentĠ": 4610,
      "oftwareĠ": 4611,
      "Ġwater": 4612,
      "Ġwhether": 4613,
      "aheadĠ": 4614,
      "produceĠ": 4615,
      "Ġchin": 4616,
      "ĠonceĠ": 4617,
      "actlyĠ": 4618,
      "eĠthatĠisĠ": 4619,
      "Ġdesp": 4620,
      "sĠf": 4621,
      "atorsĠ": 4622,
      "ealthĠ": 4623,
      "ĠhimĠandĠ": 4624,
      "continueĠ": 4625,
      "apostleĠpaul": 4626,
      "aaron": 4627,
      "historyĠ": 4628,
      "ient": 4629,
      "sam": 4630,
      "sĠthat": 4631,
      "aris": 4632,
      "omin": 4633,
      "ilĠ": 4634,
      "esĠwith": 4635,
      "esisĠ": 4636,
      "ural": 4637,
      "eĠthoseĠ": 4638,
      "ialĠ": 4639,
      "grat": 4640,
      "regular": 4641,
      "goodĠnewsĠ": 4642,
      "Ġdecid": 4643,
      "oĠm": 4644,
      "edĠat": 4645,
      "edĠout": 4646,
      "ilver": 4647,
      "isionĠ": 4648,
      "ationĠin": 4649,
      "onĠour": 4650,
      "priestĠ": 4651,
      "nerĠ": 4652,
      "sy": 4653,
      "useĠtheĠ": 4654,
      "igital": 4655,
      "udden": 4656,
      "ouseĠ": 4657,
      "edĠbecaus": 4658,
      "ĠifĠyouĠareĠ": 4659,
      "ĠaĠlong": 4660,
      "ĠaĠlittleĠ": 4661,
      "Ġprofessional": 4662,
      "abylon": 4663,
      "edit": 4664,
      "uteĠ": 4665,
      "ountyĠ": 4666,
      "ĠtheĠcountryĠ": 4667,
      "ĠaccordingĠtoĠtheĠ": 4668,
      "ingĠonĠtheĠ": 4669,
      "ĠtheĠmen": 4670,
      "wayĠtoĠ": 4671,
      "ĠreceiveĠ": 4672,
      "edĠagainstĠ": 4673,
      "ĠwithĠhisĠ": 4674,
      "egre": 4675,
      "grant": 4676,
      "Ġbeliev": 4677,
      "resurrection": 4678,
      "excellentĠ": 4679,
      "hardĠ": 4680,
      "wel": 4681,
      "reign": 4682,
      "ĠsentĠ": 4683,
      "ofĠusĠ": 4684,
      "ĠfoundĠ": 4685,
      "idol": 4686,
      "eft": 4687,
      "eĠinter": 4688,
      "common": 4689,
      "cannotĠ": 4690,
      "fortun": 4691,
      "pag": 4692,
      "rog": 4693,
      "ĠinĠaddition": 4694,
      "evalu": 4695,
      "ĠtheirĠb": 4696,
      "angerĠ": 4697,
      "Ġking": 4698,
      "moreĠthanĠ": 4699,
      "contentĠ": 4700,
      "creen": 4701,
      "df": 4702,
      "onĠthisĠ": 4703,
      "ĠandĠsh": 4704,
      "percentĠ": 4705,
      "whoĠisĠ": 4706,
      "orĠofĠtheĠ": 4707,
      "outĠofĠ": 4708,
      "haveĠbeenĠ": 4709,
      "readyĠtoĠ": 4710,
      "docum": 4711,
      "ointĠ": 4712,
      "oubl": 4713,
      "Ġsor": 4714,
      "forĠtheĠs": 4715,
      "givingĠ": 4716,
      "ologyĠ": 4717,
      "spoken": 4718,
      "europe": 4719,
      "offe": 4720,
      "ĠforĠs": 4721,
      "eĠdonĠt": 4722,
      "ĠyourĠs": 4723,
      "ĠtheĠchief": 4724,
      "meetĠ": 4725,
      "oleĠ": 4726,
      "sĠitĠ": 4727,
      "Ġspok": 4728,
      "deservedĠ": 4729,
      "ken": 4730,
      "saveĠ": 4731,
      "veg": 4732,
      "sĠwhich": 4733,
      "imateĠ": 4734,
      "ĠiĠloveĠ": 4735,
      "eĠmoreĠ": 4736,
      "Ġchurch": 4737,
      "ernal": 4738,
      "ĠproductsĠ": 4739,
      "deathĠ": 4740,
      "iĠloveĠ": 4741,
      "sin": 4742,
      "error": 4743,
      "youĠknow": 4744,
      "ĠcitiesĠ": 4745,
      "ureĠtoĠ": 4746,
      "exchang": 4747,
      "likelyĠtoĠ": 4748,
      "whereĠtheĠ": 4749,
      "partĠofĠtheĠ": 4750,
      "receivedĠ": 4751,
      "theĠs": 4752,
      "ating": 4753,
      "ĠyouĠcanĠ": 4754,
      "regn": 4755,
      "ĠbecomeĠ": 4756,
      "eĠthereĠisĠ": 4757,
      "popular": 4758,
      "omorrow": 4759,
      "shop": 4760,
      "ĠtakeĠtheĠ": 4761,
      "askedĠ": 4762,
      "licens": 4763,
      "iplesĠ": 4764,
      "mer": 4765,
      "itter": 4766,
      "asĠtoĠ": 4767,
      "ĠyouĠmayĠ": 4768,
      "portion": 4769,
      "valueĠ": 4770,
      "ircumstancesĠ": 4771,
      "emen": 4772,
      "ĠtheĠtimeĠ": 4773,
      "consist": 4774,
      "american": 4775,
      "aryĠtoĠ": 4776,
      "lyĠandĠ": 4777,
      "assion": 4778,
      "seeĠtheĠ": 4779,
      "ĠthenĠh": 4780,
      "ured": 4781,
      "Ġassign": 4782,
      "Ġappreci": 4783,
      "eachĠotherĠ": 4784,
      "natural": 4785,
      "rout": 4786,
      "orĠd": 4787,
      "forĠyouĠ": 4788,
      "Ġfil": 4789,
      "capt": 4790,
      "gameĠ": 4791,
      "vehic": 4792,
      "sĠasĠ": 4793,
      "acredĠ": 4794,
      "eĠthes": 4795,
      "eĠmen": 4796,
      "restĠofĠtheĠ": 4797,
      "ĠfinallyĠ": 4798,
      "ĠpropertyĠ": 4799,
      "leadĠ": 4800,
      "ingĠsh": 4801,
      "eĠsaysĠ": 4802,
      "quar": 4803,
      "eĠofĠmyĠ": 4804,
      "ebru": 4805,
      "rust": 4806,
      "box": 4807,
      "dark": 4808,
      "efor": 4809,
      "famil": 4810,
      "Ġother": 4811,
      "orĠl": 4812,
      "withĠyour": 4813,
      "outĠandĠ": 4814,
      "arketĠ": 4815,
      "eersĠ": 4816,
      "ingĠthrough": 4817,
      "asp": 4818,
      "ĠsubĠarticleĠ": 4819,
      "Ġofficial": 4820,
      "ĠtheĠfamilyĠ": 4821,
      "someoneĠ": 4822,
      "ĠshouldĠbeĠ": 4823,
      "insteadĠ": 4824,
      "ospital": 4825,
      "Ġjoseph": 4826,
      "prais": 4827,
      "ral": 4828,
      "Ġtit": 4829,
      "outĠof": 4830,
      "eĠcar": 4831,
      "ĠtheĠnameĠ": 4832,
      "finallyĠ": 4833,
      "exercis": 4834,
      "influ": 4835,
      "ingĠtheĠl": 4836,
      "ingĠbyĠ": 4837,
      "ĠserveĠ": 4838,
      "edĠall": 4839,
      "ĠhastĠ": 4840,
      "estern": 4841,
      "dayĠandĠ": 4842,
      "personĠ": 4843,
      "fineĠ": 4844,
      "roundĠ": 4845,
      "atform": 4846,
      "eĠtr": 4847,
      "Ġrelig": 4848,
      "lotsĠ": 4849,
      "aperĠ": 4850,
      "soul": 4851,
      "small": 4852,
      "restor": 4853,
      "ĠbeĠs": 4854,
      "Ġday": 4855,
      "whos": 4856,
      "agraph": 4857,
      "grand": 4858,
      "ĠhowĠdidĠ": 4859,
      "Ġappoint": 4860,
      "sendĠ": 4861,
      "ĠtheĠisraelitesĠ": 4862,
      "ingĠpeopleĠ": 4863,
      "uriesĠ": 4864,
      "ersĠofĠtheĠ": 4865,
      "ĠiĠcan": 4866,
      "qui": 4867,
      "quiteĠ": 4868,
      "ethodĠ": 4869,
      "ableĠandĠ": 4870,
      "surv": 4871,
      "ĠmeansĠ": 4872,
      "coĠ": 4873,
      "vin": 4874,
      "alseĠ": 4875,
      "eĠbeli": 4876,
      "ĠthoughtsĠ": 4877,
      "process": 4878,
      "ĠtheĠoneĠ": 4879,
      "ĠsendĠ": 4880,
      "Ġnov": 4881,
      "ĠofĠh": 4882,
      "estival": 4883,
      "clearlyĠ": 4884,
      "andĠtheĠt": 4885,
      "park": 4886,
      "basedĠon": 4887,
      "bell": 4888,
      "gamesĠ": 4889,
      "key": 4890,
      "search": 4891,
      "wo": 4892,
      "ĠaĠg": 4893,
      "pros": 4894,
      "youĠnotĠ": 4895,
      "removeĠ": 4896,
      "edĠonesĠ": 4897,
      "companiesĠ": 4898,
      "mother": 4899,
      "yĠisĠ": 4900,
      "ĠtheĠscript": 4901,
      "eĠdel": 4902,
      "ingĠaĠs": 4903,
      "pric": 4904,
      "more": 4905,
      "forĠour": 4906,
      "ĠbutĠtheyĠ": 4907,
      "bow": 4908,
      "fish": 4909,
      "udĠ": 4910,
      "ĠpayĠ": 4911,
      "undeservedĠ": 4912,
      "ĠthisĠwasĠ": 4913,
      "ĠtheĠsea": 4914,
      "ĠtheĠswordĠ": 4915,
      "haveĠtheĠ": 4916,
      "inĠtheĠlandĠ": 4917,
      "Ġext": 4918,
      "ĠheartsĠ": 4919,
      "rench": 4920,
      "film": 4921,
      "Ġamerican": 4922,
      "difficult": 4923,
      "hur": 4924,
      "ientsĠ": 4925,
      "esĠtheyĠ": 4926,
      "river": 4927,
      "ĠworkingĠ": 4928,
      "disclosedĠ": 4929,
      "Ġfurther": 4930,
      "ouredĠ": 4931,
      "Ġmillion": 4932,
      "Ġfoc": 4933,
      "Ġlater": 4934,
      "ifĠyouĠareĠ": 4935,
      "addĠ": 4936,
      "ĠhaveĠtheĠ": 4937,
      "ĠtheĠheadĠ": 4938,
      "professional": 4939,
      "whenĠitĠ": 4940,
      "bank": 4941,
      "de": 4942,
      "win": 4943,
      "ĠtheĠsh": 4944,
      "usingĠ": 4945,
      "utyĠ": 4946,
      "shown": 4947,
      "ĠtheĠspiritĠ": 4948,
      "Ġapproach": 4949,
      "arab": 4950,
      "Ġnon": 4951,
      "inĠanĠ": 4952,
      "aultĠ": 4953,
      "volunt": 4954,
      "ecretĠ": 4955,
      "garm": 4956,
      "lay": 4957,
      "mineĠ": 4958,
      "ĠheadĠ": 4959,
      "whoseĠ": 4960,
      "Ġreport": 4961,
      "whatĠyou": 4962,
      "Ġphot": 4963,
      "Ġguid": 4964,
      "possibleĠtoĠ": 4965,
      "advant": 4966,
      "centuryĠ": 4967,
      "victim": 4968,
      "everlastingĠ": 4969,
      "wideĠ": 4970,
      "ycl": 4971,
      "outhĠ": 4972,
      "ingĠtheĠb": 4973,
      "ford": 4974,
      "amĠ": 4975,
      "ĠtoĠthemĠ": 4976,
      "ĠstartĠ": 4977,
      "important": 4978,
      "Ġanother": 4979,
      "eĠtaken": 4980,
      "ircumc": 4981,
      "equipmentĠ": 4982,
      "sĠthrough": 4983,
      "Ġsaul": 4984,
      "peoplesĠ": 4985,
      "overse": 4986,
      "former": 4987,
      "ruthĠ": 4988,
      "acceptĠ": 4989,
      "ĠcontactĠ": 4990,
      "ĠthanksĠfor": 4991,
      "attern": 4992,
      "Ġtechn": 4993,
      "ĠtheĠministryĠ": 4994,
      "ĠsoĠthatĠ": 4995,
      "Ġindividual": 4996,
      "Ġhappen": 4997,
      "ĠinĠfactĠ": 4998,
      "ĠforefathersĠ": 4999,
      "onlin": 5000,
      "ĠaĠst": 5001,
      "edĠtheĠp": 5002,
      "eĠhelp": 5003,
      "partsĠ": 5004,
      "ĠoneĠofĠtheĠ": 5005,
      "ĠthanksĠ": 5006,
      "Ġdeclar": 5007,
      "ĠusĠtoĠ": 5008,
      "Ġgovern": 5009,
      "ĠiĠknow": 5010,
      "Ġprim": 5011,
      "rateg": 5012,
      "ĠthoseĠwhoĠareĠ": 5013,
      "officeĠ": 5014,
      "ruption": 5015,
      "iĠll": 5016,
      "laidĠ": 5017,
      "enth": 5018,
      "Ġdid": 5019,
      "ĠthisĠyear": 5020,
      "ĠiĠhadĠ": 5021,
      "Ġcommunic": 5022,
      "Ġknowledg": 5023,
      "Ġterror": 5024,
      "greatestĠ": 5025,
      "ĠperiodĠ": 5026,
      "lamb": 5027,
      "ofĠn": 5028,
      "ifĠtheyĠ": 5029,
      "propos": 5030,
      "goal": 5031,
      "likelyĠ": 5032,
      "black": 5033,
      "ugar": 5034,
      "heard": 5035,
      "celeb": 5036,
      "iesĠthatĠ": 5037,
      "zer": 5038,
      "eĠyour": 5039,
      "ĠsaveĠ": 5040,
      "Ġwhos": 5041,
      "agencyĠ": 5042,
      "ĠofĠmyĠ": 5043,
      "awareĠ": 5044,
      "Ġsome": 5045,
      "Ġgiven": 5046,
      "castĠ": 5047,
      "round": 5048,
      "sĠwill": 5049,
      "ĠbodyĠ": 5050,
      "joy": 5051,
      "eĠdoesĠnotĠ": 5052,
      "ĠlukeĠ": 5053,
      "flo": 5054,
      "ateĠm": 5055,
      "foreverĠ": 5056,
      "ĠtroubleĠ": 5057,
      "ĠourĠ": 5058,
      "estruction": 5059,
      "sens": 5060,
      "request": 5061,
      "Ġfear": 5062,
      "umbl": 5063,
      "ĠtheĠmess": 5064,
      "oti": 5065,
      "cendantsĠ": 5066,
      "covenantĠ": 5067,
      "handsĠ": 5068,
      "mat": 5069,
      "Ġu": 5070,
      "eĠfrom": 5071,
      "undayĠ": 5072,
      "rescu": 5073,
      "uponĠ": 5074,
      "quart": 5075,
      "ighb": 5076,
      "diedĠ": 5077,
      "aan": 5078,
      "Ġtal": 5079,
      "erĠthan": 5080,
      "oftĠ": 5081,
      "Ġsw": 5082,
      "elm": 5083,
      "Ġincreas": 5084,
      "Ġhair": 5085,
      "effortĠ": 5086,
      "underst": 5087,
      "ritish": 5088,
      "Ġgood": 5089,
      "ĠproductĠ": 5090,
      "tu": 5091,
      "Ġwish": 5092,
      "edĠd": 5093,
      "Ġmedi": 5094,
      "Ġdu": 5095,
      "agu": 5096,
      "upĠwith": 5097,
      "ivityĠ": 5098,
      "hisĠown": 5099,
      "iaĠandĠ": 5100,
      "ajorityĠ": 5101,
      "eigh": 5102,
      "esĠfrom": 5103,
      "ĠcountriesĠ": 5104,
      "edĠtheĠb": 5105,
      "entir": 5106,
      "haz": 5107,
      "ehold": 5108,
      "antic": 5109,
      "godĠandĠ": 5110,
      "obeyĠ": 5111,
      "eousĠ": 5112,
      "yeĠshall": 5113,
      "omen": 5114,
      "edĠtheĠf": 5115,
      "ureĠandĠ": 5116,
      "Ġloy": 5117,
      "ĠtheĠmain": 5118,
      "ĠaĠlotĠ": 5119,
      "refug": 5120,
      "network": 5121,
      "Ġtold": 5122,
      "ĠtoĠjehovah": 5123,
      "ĠtoĠgiveĠ": 5124,
      "ĠandĠsaidĠ": 5125,
      "prior": 5126,
      "legal": 5127,
      "origin": 5128,
      "wantĠ": 5129,
      "Ġdon": 5130,
      "ageĠs": 5131,
      "aintĠ": 5132,
      "ebrew": 5133,
      "ĠandĠheĠwill": 5134,
      "edĠhimĠ": 5135,
      "demn": 5136,
      "kid": 5137,
      "mir": 5138,
      "waterĠ": 5139,
      "Ġhour": 5140,
      "omon": 5141,
      "urd": 5142,
      "green": 5143,
      "anointedĠ": 5144,
      "cheduleĠ": 5145,
      "emporaryĠ": 5146,
      "Ġpiec": 5147,
      "eĠturn": 5148,
      "utter": 5149,
      "ĠcanĠbeĠ": 5150,
      "ĠmoreĠthanĠ": 5151,
      "poor": 5152,
      "livingĠ": 5153,
      "woman": 5154,
      "bi": 5155,
      "dream": 5156,
      "hour": 5157,
      "luck": 5158,
      "erĠb": 5159,
      "ites": 5160,
      "Ġgett": 5161,
      "eĠheĠwasĠ": 5162,
      "anti": 5163,
      "peopleĠandĠ": 5164,
      "ritoryĠ": 5165,
      "soĠthatĠ": 5166,
      "killedĠ": 5167,
      "eitherĠ": 5168,
      "arrow": 5169,
      "Ġsur": 5170,
      "andid": 5171,
      "Ġfour": 5172,
      "resourcesĠ": 5173,
      "Ġstop": 5174,
      "ĠasĠa": 5175,
      "sĠofĠm": 5176,
      "eiv": 5177,
      "ateg": 5178,
      "unclean": 5179,
      "anĠisĠ": 5180,
      "ĠwillĠ": 5181,
      "ĠofĠyour": 5182,
      "ĠtheĠdec": 5183,
      "ustri": 5184,
      "aturdayĠ": 5185,
      "yardĠ": 5186,
      "onc": 5187,
      "openĠ": 5188,
      "advis": 5189,
      "athan": 5190,
      "knowsĠ": 5191,
      "Ġthought": 5192,
      "market": 5193,
      "religiousĠ": 5194,
      "alb": 5195,
      "replac": 5196,
      "eĠsaid": 5197,
      "ĠofĠarmiesĠ": 5198,
      "yearsĠandĠ": 5199,
      "weak": 5200,
      "providesĠ": 5201,
      "yĠs": 5202,
      "edĠonĠ": 5203,
      "Ġaw": 5204,
      "stick": 5205,
      "esĠinĠtheĠ": 5206,
      "owardĠ": 5207,
      "ingĠusĠ": 5208,
      "eĠthink": 5209,
      "whit": 5210,
      "iftsĠ": 5211,
      "eĠhereĠ": 5212,
      "Ġworld": 5213,
      "locatedĠ": 5214,
      "ĠyourĠown": 5215,
      "pm": 5216,
      "ring": 5217,
      "woodĠ": 5218,
      "orĠb": 5219,
      "ateĠwith": 5220,
      "Ġcop": 5221,
      "edĠthatĠtheĠ": 5222,
      "Ġreason": 5223,
      "ĠtheirĠw": 5224,
      "eĠdep": 5225,
      "avid": 5226,
      "effectsĠ": 5227,
      "freedom": 5228,
      "Ġchoos": 5229,
      "Ġlocal": 5230,
      "driveĠ": 5231,
      "itĠis": 5232,
      "comesĠtoĠ": 5233,
      "igg": 5234,
      "Ġproverb": 5235,
      "riverĠ": 5236,
      "prophetsĠ": 5237,
      "ĠlanguageĠ": 5238,
      "onstr": 5239,
      "ĠtheĠwork": 5240,
      "thĠdayĠ": 5241,
      "Ġpol": 5242,
      "edroom": 5243,
      "Ġdrink": 5244,
      "upd": 5245,
      "specific": 5246,
      "attempt": 5247,
      "rightĠtoĠ": 5248,
      "numberĠ": 5249,
      "conductĠ": 5250,
      "rejoic": 5251,
      "iĠcouldĠ": 5252,
      "lyĠtheĠ": 5253,
      "mit": 5254,
      "paidĠ": 5255,
      "yt": 5256,
      "arenĠt": 5257,
      "altern": 5258,
      "Ġaud": 5259,
      "ingĠaf": 5260,
      "phoneĠ": 5261,
      "whenĠh": 5262,
      "ashion": 5263,
      "relevantĠ": 5264,
      "sent": 5265,
      "ofĠthatĠ": 5266,
      "elder": 5267,
      "ĠinĠb": 5268,
      "eĠsureĠ": 5269,
      "ĠonesĠ": 5270,
      "afraidĠ": 5271,
      "lookĠfor": 5272,
      "ingĠintoĠ": 5273,
      "messeng": 5274,
      "oesĠ": 5275,
      "Ġtast": 5276,
      "repe": 5277,
      "Ġwisdom": 5278,
      "stream": 5279,
      "strik": 5280,
      "useful": 5281,
      "epr": 5282,
      "Ġchalleng": 5283,
      "ĠcomeĠtoĠ": 5284,
      "ingĠserv": 5285,
      "urround": 5286,
      "Ġprocess": 5287,
      "olidayĠ": 5288,
      "sĠand": 5289,
      "oĠb": 5290,
      "ingĠtheĠt": 5291,
      "forwardĠ": 5292,
      "Ġleg": 5293,
      "ourĠm": 5294,
      "club": 5295,
      "eĠon": 5296,
      "isĠitĠ": 5297,
      "ingĠl": 5298,
      "fromĠyour": 5299,
      "evenĠthough": 5300,
      "newĠ": 5301,
      "neither": 5302,
      "diersĠ": 5303,
      "currentlyĠ": 5304,
      "set": 5305,
      "inform": 5306,
      "ofĠjehovahĠ": 5307,
      "Ġde": 5308,
      "ĠisĠitĠ": 5309,
      "aver": 5310,
      "forĠexampleĠ": 5311,
      "rightĠhandĠ": 5312,
      "enefitsĠ": 5313,
      "Ġtwo": 5314,
      "entranceĠ": 5315,
      "examplesĠ": 5316,
      "pageĠ": 5317,
      "enh": 5318,
      "iciousĠ": 5319,
      "strum": 5320,
      "canĠt": 5321,
      "iĠdĠ": 5322,
      "ottom": 5323,
      "ednessĠ": 5324,
      "Ġdeath": 5325,
      "ĠinĠtheĠp": 5326,
      "ofĠtheĠlandĠ": 5327,
      "peopleĠwhoĠ": 5328,
      "ogleĠ": 5329,
      "uffic": 5330,
      "untoĠtheĠ": 5331,
      "ein": 5332,
      "hor": 5333,
      "iar": 5334,
      "obey": 5335,
      "saf": 5336,
      "edĠf": 5337,
      "Ġlo": 5338,
      "eĠhop": 5339,
      "Ġcontain": 5340,
      "ification": 5341,
      "enterpris": 5342,
      "gotten": 5343,
      "ilverĠ": 5344,
      "umerousĠ": 5345,
      "det": 5346,
      "divid": 5347,
      "Ġthreat": 5348,
      "ĠtheĠearth": 5349,
      "atedĠtoĠ": 5350,
      "Ġsocial": 5351,
      "ĠthatĠweĠ": 5352,
      "Ġreview": 5353,
      "Ġshort": 5354,
      "antsĠandĠ": 5355,
      "ordersĠ": 5356,
      "ectionĠ": 5357,
      "expensiveĠ": 5358,
      "ĠthouĠhastĠ": 5359,
      "ifĠyouĠhaveĠ": 5360,
      "Ġsupport": 5361,
      "cription": 5362,
      "ransom": 5363,
      "meĠandĠ": 5364,
      "simplyĠ": 5365,
      "Ġbetter": 5366,
      "forĠmyĠ": 5367,
      "accomplish": 5368,
      "ĠandĠj": 5369,
      "Ġdraw": 5370,
      "idden": 5371,
      "Ġoften": 5372,
      "eĠoffer": 5373,
      "Ġtraf": 5374,
      "ĠpersonĠ": 5375,
      "eur": 5376,
      "sav": 5377,
      "roseĠ": 5378,
      "brother": 5379,
      "protect": 5380,
      "repair": 5381,
      "daughter": 5382,
      "executiveĠ": 5383,
      "assemblyĠ": 5384,
      "ĠtimothyĠ": 5385,
      "ĠyearsĠ": 5386,
      "thirdĠ": 5387,
      "ingĠwasĠ": 5388,
      "forĠmeĠ": 5389,
      "edition": 5390,
      "ovedĠ": 5391,
      "ents": 5392,
      "endĠtoĠ": 5393,
      "estĠandĠ": 5394,
      "Ġkor": 5395,
      "Ġworking": 5396,
      "importantĠtoĠ": 5397,
      "Ġproced": 5398,
      "fam": 5399,
      "ingĠtheĠd": 5400,
      "ingĠandĠtheĠ": 5401,
      "ĠstayĠ": 5402,
      "Ġcompar": 5403,
      "feed": 5404,
      "ĠmankindĠ": 5405,
      "ĠthisĠproclamationĠ": 5406,
      "Ġtro": 5407,
      "allĠhisĠ": 5408,
      "ofĠitsĠ": 5409,
      "Ġdwell": 5410,
      "hak": 5411,
      "exalt": 5412,
      "ersĠhaveĠ": 5413,
      "eĠmanyĠ": 5414,
      "onĠearth": 5415,
      "ĠactĠ": 5416,
      "againĠ": 5417,
      "eavyĠ": 5418,
      "explor": 5419,
      "continueĠtoĠ": 5420,
      "policyĠ": 5421,
      "solutelyĠ": 5422,
      "pill": 5423,
      "inhabitantsĠ": 5424,
      "oneĠt": 5425,
      "Ġpark": 5426,
      "Ġpict": 5427,
      "chair": 5428,
      "ĠfiveĠ": 5429,
      "rainĠ": 5430,
      "Ġtoday": 5431,
      "ishedĠ": 5432,
      "Ġplann": 5433,
      "makeĠitĠ": 5434,
      "ĠatĠleastĠ": 5435,
      "ultiv": 5436,
      "Ġdecision": 5437,
      "havingĠ": 5438,
      "behindĠ": 5439,
      "requirementsĠ": 5440,
      "ĠqualityĠ": 5441,
      "Ġtip": 5442,
      "thr": 5443,
      "Ġdetail": 5444,
      "chol": 5445,
      "rab": 5446,
      "estic": 5447,
      "jehovahĠisĠ": 5448,
      "ĠtheĠfl": 5449,
      "eĠofĠa": 5450,
      "preh": 5451,
      "Ġaccept": 5452,
      "eĠthisĠisĠ": 5453,
      "experiencedĠ": 5454,
      "ĠneedsĠ": 5455,
      "kingĠs": 5456,
      "fortsĠ": 5457,
      "abab": 5458,
      "ĠtheseĠs": 5459,
      "ĠwhoĠhasĠ": 5460,
      "ĠaroundĠ": 5461,
      "dueĠtoĠ": 5462,
      "filledĠwith": 5463,
      "Ġtraffic": 5464,
      "liter": 5465,
      "alv": 5466,
      "Ġpublish": 5467,
      "acqu": 5468,
      "ofĠtheĠm": 5469,
      "ĠofĠthem": 5470,
      "expectĠ": 5471,
      "knowledgeĠ": 5472,
      "gressĠ": 5473,
      "six": 5474,
      "eder": 5475,
      "Ġreach": 5476,
      "inĠitsĠ": 5477,
      "recordĠ": 5478,
      "opportunityĠ": 5479,
      "jerusalemĠ": 5480,
      "getsĠ": 5481,
      "oĠab": 5482,
      "oward": 5483,
      "imagesĠ": 5484,
      "edĠtheĠd": 5485,
      "pharaoh": 5486,
      "aĠperson": 5487,
      "ĠtheĠnumb": 5488,
      "Ġapprov": 5489,
      "kingdomĠ": 5490,
      "whatĠtheyĠ": 5491,
      "prophec": 5492,
      "ooth": 5493,
      "ĠtheĠdayĠ": 5494,
      "Ġsearch": 5495,
      "stopp": 5496,
      "eĠaĠc": 5497,
      "introduc": 5498,
      "accur": 5499,
      "providedĠ": 5500,
      "ĠshallĠb": 5501,
      "putt": 5502,
      "ĠcompaniesĠ": 5503,
      "ateĠtoĠ": 5504,
      "Ġmal": 5505,
      "ancedĠ": 5506,
      "ĠandĠthen": 5507,
      "employe": 5508,
      "ĠplacesĠ": 5509,
      "rupt": 5510,
      "ysĠ": 5511,
      "Ġmaterial": 5512,
      "useĠofĠ": 5513,
      "comfortĠ": 5514,
      "ĠforĠyou": 5515,
      "sĠsom": 5516,
      "ĠcontentĠ": 5517,
      "needsĠ": 5518,
      "estroyĠ": 5519,
      "opportunitiesĠ": 5520,
      "further": 5521,
      "vit": 5522,
      "Ġisrael": 5523,
      "arĠa": 5524,
      "ionĠandĠ": 5525,
      "ĠbestĠ": 5526,
      "Ġdeb": 5527,
      "ĠshareĠ": 5528,
      "spec": 5529,
      "ĠmakesĠ": 5530,
      "number": 5531,
      "ranch": 5532,
      "script": 5533,
      "yesterdayĠ": 5534,
      "iĠdoĠ": 5535,
      "ĠtheĠking": 5536,
      "oĠs": 5537,
      "isĠa": 5538,
      "ĠthatĠgodĠ": 5539,
      "Ġsoon": 5540,
      "idential": 5541,
      "fitĠ": 5542,
      "ofĠpeopleĠ": 5543,
      "Ġsid": 5544,
      "ston": 5545,
      "Ġbank": 5546,
      "imprison": 5547,
      "enderĠ": 5548,
      "spendĠ": 5549,
      "whichĠwasĠ": 5550,
      "everything": 5551,
      "outhern": 5552,
      "purpos": 5553,
      "ĠthisĠproclamation": 5554,
      "eenĠ": 5555,
      "fem": 5556,
      "oath": 5557,
      "ingĠat": 5558,
      "Ġful": 5559,
      "rail": 5560,
      "Ġkind": 5561,
      "Ġaction": 5562,
      "anceĠofĠ": 5563,
      "ĠjehovahĠhasĠ": 5564,
      "iĠeĠ": 5565,
      "benefitĠ": 5566,
      "ĠtheĠsovereignĠlordĠjehovah": 5567,
      "Ġlin": 5568,
      "ĠforĠhisĠ": 5569,
      "quareĠ": 5570,
      "classĠ": 5571,
      "udd": 5572,
      "inĠitĠ": 5573,
      "mightĠbeĠ": 5574,
      "beyondĠ": 5575,
      "familiesĠ": 5576,
      "ingĠout": 5577,
      "convers": 5578,
      "offersĠ": 5579,
      "fatherĠtoĠ": 5580,
      "Ġregist": 5581,
      "Ġblack": 5582,
      "reject": 5583,
      "omentĠ": 5584,
      "edĠtheĠt": 5585,
      "eĠthatĠtheĠ": 5586,
      "Ġinf": 5587,
      "ifeĠ": 5588,
      "ĠiĠdonĠt": 5589,
      "ethĠ": 5590,
      "prep": 5591,
      "becomeĠa": 5592,
      "qualitiesĠ": 5593,
      "hol": 5594,
      "och": 5595,
      "political": 5596,
      "sortĠ": 5597,
      "uesdayĠ": 5598,
      "ĠanyoneĠ": 5599,
      "ĠtheĠwholeĠ": 5600,
      "goĠtoĠ": 5601,
      "Ġknew": 5602,
      "grac": 5603,
      "priseĠ": 5604,
      "Ġcanad": 5605,
      "uresĠandĠ": 5606,
      "standardĠ": 5607,
      "regional": 5608,
      "layĠ": 5609,
      "lad": 5610,
      "ĠtoĠkeep": 5611,
      "Ġjourn": 5612,
      "liesĠ": 5613,
      "ought": 5614,
      "whatĠwasĠ": 5615,
      "ĠservantsĠ": 5616,
      "placesĠ": 5617,
      "Ġbring": 5618,
      "Ġbrother": 5619,
      "renew": 5620,
      "Ġmedia": 5621,
      "fol": 5622,
      "night": 5623,
      "zen": 5624,
      "ateĠa": 5625,
      "ĠbetterĠ": 5626,
      "isaac": 5627,
      "ĠdoneĠ": 5628,
      "eĠwayĠ": 5629,
      "fromĠs": 5630,
      "Ġstaff": 5631,
      "orĠanyĠ": 5632,
      "ĠactuallyĠ": 5633,
      "duringĠtheĠ": 5634,
      "cen": 5635,
      "Ġbusiness": 5636,
      "ofĠtheĠw": 5637,
      "oppress": 5638,
      "pliedĠ": 5639,
      "should": 5640,
      "aĠk": 5641,
      "peopleĠtoĠ": 5642,
      "seenĠ": 5643,
      "enciesĠ": 5644,
      "ultureĠ": 5645,
      "changesĠ": 5646,
      "allĠhĠisĠ": 5647,
      "meansĠof": 5648,
      "applyĠ": 5649,
      "answeredĠ": 5650,
      "Ġtotal": 5651,
      "jesus": 5652,
      "Ġthurs": 5653,
      "onĠtheĠb": 5654,
      "forĠthisĠ": 5655,
      "ofĠz": 5656,
      "Ġfail": 5657,
      "Ġnatur": 5658,
      "Ġkill": 5659,
      "ĠthatĠthisĠ": 5660,
      "ĠtoĠsayĠ": 5661,
      "faithĠ": 5662,
      "organizationĠ": 5663,
      "findĠoutĠ": 5664,
      "problemsĠ": 5665,
      "extremelyĠ": 5666,
      "ebruaryĠ": 5667,
      "Ġblog": 5668,
      "Ġdiffer": 5669,
      "eĠoffic": 5670,
      "see": 5671,
      "study": 5672,
      "ĠtoĠdeath": 5673,
      "lawĠ": 5674,
      "protectĠ": 5675,
      "eritrean": 5676,
      "fix": 5677,
      "metĠ": 5678,
      "wisdom": 5679,
      "ofĠyou": 5680,
      "sheĠwasĠ": 5681,
      "confirm": 5682,
      "ingĠad": 5683,
      "eĠind": 5684,
      "itĠisĠnotĠ": 5685,
      "edĠmeĠtoĠ": 5686,
      "ĠrecentĠ": 5687,
      "eĠwouldĠbeĠ": 5688,
      "ĠinĠorderĠtoĠ": 5689,
      "suggest": 5690,
      "ĠtechnologyĠ": 5691,
      "Ġmis": 5692,
      "eĠtheseĠ": 5693,
      "cher": 5694,
      "raim": 5695,
      "youĠveĠ": 5696,
      "commod": 5697,
      "ofĠdavidĠ": 5698,
      "otherwiseĠ": 5699,
      "grain": 5700,
      "lesĠandĠ": 5701,
      "orĠandĠ": 5702,
      "ancyĠ": 5703,
      "faithĠin": 5704,
      "daughtersĠ": 5705,
      "render": 5706,
      "ĠweĠwereĠ": 5707,
      "allĠthingsĠ": 5708,
      "Ġnetwork": 5709,
      "considerĠ": 5710,
      "ĠwillĠnotĠ": 5711,
      "recall": 5712,
      "ĠgoingĠtoĠ": 5713,
      "ĠchristiansĠ": 5714,
      "sleep": 5715,
      "appropriateĠ": 5716,
      "oam": 5717,
      "Ġfig": 5718,
      "adop": 5719,
      "youĠr": 5720,
      "includeĠ": 5721,
      "ĠtogetherĠwith": 5722,
      "cook": 5723,
      "ĠaĠr": 5724,
      "unlessĠ": 5725,
      "entedĠ": 5726,
      "ĠtheyĠsaidĠ": 5727,
      "istinesĠ": 5728,
      "ĠbutĠh": 5729,
      "phys": 5730,
      "commun": 5731,
      "howĠtoĠ": 5732,
      "invit": 5733,
      "ummer": 5734,
      "wantedĠtoĠ": 5735,
      "farm": 5736,
      "roĠ": 5737,
      "anxi": 5738,
      "Ġchap": 5739,
      "olut": 5740,
      "ofĠtheĠb": 5741,
      "ĠsheĠwasĠ": 5742,
      "erself": 5743,
      "whenĠweĠ": 5744,
      "Ġaccount": 5745,
      "Ġisaiah": 5746,
      "addedĠ": 5747,
      "journal": 5748,
      "mouth": 5749,
      "Ġtur": 5750,
      "sĠatĠ": 5751,
      "oĠjehovah": 5752,
      "aterĠandĠ": 5753,
      "stuff": 5754,
      "Ġmel": 5755,
      "imatelyĠ": 5756,
      "eĠsheĠ": 5757,
      "Ġneg": 5758,
      "uct": 5759,
      "eĠbetween": 5760,
      "aĠdayĠ": 5761,
      "ront": 5762,
      "eĠthemĠ": 5763,
      "proclamation": 5764,
      "mustĠbeĠ": 5765,
      "restaur": 5766,
      "cardĠ": 5767,
      "mic": 5768,
      "wash": 5769,
      "ĠwordsĠ": 5770,
      "Ġmarch": 5771,
      "eĠthing": 5772,
      "iveryĠ": 5773,
      "ework": 5774,
      "appeal": 5775,
      "perhapsĠ": 5776,
      "attach": 5777,
      "ĠtheseĠw": 5778,
      "manentĠ": 5779,
      "Ġmarket": 5780,
      "dedic": 5781,
      "arah": 5782,
      "Ġhard": 5783,
      "chi": 5784,
      "ersĠfrom": 5785,
      "ĠyourĠf": 5786,
      "recip": 5787,
      "paragraph": 5788,
      "ĠandĠtheĠlordĠ": 5789,
      "Ġregular": 5790,
      "hadĠtoĠ": 5791,
      "ĠheĠsaid": 5792,
      "ĠgenesisĠ": 5793,
      "bon": 5794,
      "cur": 5795,
      "leyĠ": 5796,
      "sett": 5797,
      "inĠp": 5798,
      "ituallyĠ": 5799,
      "Ġmic": 5800,
      "ĠandĠyou": 5801,
      "ĠfreeĠ": 5802,
      "ĠleftĠ": 5803,
      "ĠgoldĠ": 5804,
      "ĠtheĠfact": 5805,
      "attract": 5806,
      "ĠtheĠgovernmentĠ": 5807,
      "ĠanotherĠ": 5808,
      "ĠareĠyou": 5809,
      "establishedĠ": 5810,
      "understandingĠ": 5811,
      "ymb": 5812,
      "estinian": 5813,
      "connect": 5814,
      "next": 5815,
      "Ġeph": 5816,
      "inĠjerusalem": 5817,
      "ĠbĠwhatĠ": 5818,
      "spend": 5819,
      "orĠnotĠ": 5820,
      "makeĠtheĠ": 5821,
      "eĠhimĠ": 5822,
      "octor": 5823,
      "ĠproblemsĠ": 5824,
      "Ġfriend": 5825,
      "sĠsuchĠasĠ": 5826,
      "gun": 5827,
      "pull": 5828,
      "sĠto": 5829,
      "witness": 5830,
      "theyĠ": 5831,
      "forgiveĠ": 5832,
      "ratherĠ": 5833,
      "otential": 5834,
      "whenĠtheĠ": 5835,
      "ĠofĠtheĠs": 5836,
      "neighbor": 5837,
      "flictĠ": 5838,
      "many": 5839,
      "longerĠ": 5840,
      "animalsĠ": 5841,
      "heavensĠ": 5842,
      "costĠ": 5843,
      "ĠoverĠ": 5844,
      "omat": 5845,
      "Ġcount": 5846,
      "Ġbre": 5847,
      "ofĠlifeĠ": 5848,
      "ussĠ": 5849,
      "rah": 5850,
      "ersĠandĠsist": 5851,
      "organizationsĠ": 5852,
      "effici": 5853,
      "inthiansĠ": 5854,
      "ih": 5855,
      "sinn": 5856,
      "onĠtheĠm": 5857,
      "ĠheĠw": 5858,
      "why": 5859,
      "ĠinĠall": 5860,
      "Ġger": 5861,
      "ĠthisĠarticleĠ": 5862,
      "construction": 5863,
      "yearsĠof": 5864,
      "ignor": 5865,
      "Ġvers": 5866,
      "sĠbut": 5867,
      "linesĠ": 5868,
      "below": 5869,
      "Ġkingdom": 5870,
      "brought": 5871,
      "wish": 5872,
      "wick": 5873,
      "zar": 5874,
      "orĠa": 5875,
      "Ġhis": 5876,
      "Ġjew": 5877,
      "recentĠ": 5878,
      "ĠthroughoutĠ": 5879,
      "lifeĠandĠ": 5880,
      "includesĠ": 5881,
      "Ġbecam": 5882,
      "Ġbelow": 5883,
      "ĠweĠw": 5884,
      "Ġless": 5885,
      "shallĠ": 5886,
      "conclud": 5887,
      "estyĠ": 5888,
      "ocol": 5889,
      "Ġtrump": 5890,
      "ĠthereĠareĠs": 5891,
      "direction": 5892,
      "Ġaffair": 5893,
      "aithĠ": 5894,
      "eĠtheyĠareĠ": 5895,
      "operation": 5896,
      "angelsĠ": 5897,
      "purposeĠ": 5898,
      "ĠtreatmentĠ": 5899,
      "cĠ": 5900,
      "fight": 5901,
      "ĠhistoryĠ": 5902,
      "ĠhoursĠ": 5903,
      "Ġdiv": 5904,
      "ageĠtoĠ": 5905,
      "Ġrejo": 5906,
      "essionsĠ": 5907,
      "aĠnumb": 5908,
      "beĠw": 5909,
      "na": 5910,
      "polit": 5911,
      "yet": 5912,
      "eĠl": 5913,
      "oneĠthatĠ": 5914,
      "orĠc": 5915,
      "reatedĠ": 5916,
      "Ġsimilar": 5917,
      "fordĠ": 5918,
      "imageĠ": 5919,
      "exactlyĠ": 5920,
      "ĠthisĠweek": 5921,
      "uper": 5922,
      "closeĠ": 5923,
      "eachĠoneĠ": 5924,
      "sometimesĠ": 5925,
      "justic": 5926,
      "ĠonĠtheĠother": 5927,
      "rush": 5928,
      "forĠthem": 5929,
      "imb": 5930,
      "Ġlib": 5931,
      "Ġgather": 5932,
      "others": 5933,
      "inĠtheĠworldĠ": 5934,
      "achel": 5935,
      "ĠtheĠlord": 5936,
      "rothersĠ": 5937,
      "echan": 5938,
      "ĠthoseĠs": 5939,
      "ĠminutesĠ": 5940,
      "dadĠ": 5941,
      "eum": 5942,
      "ĠaĠwhatĠ": 5943,
      "ĠbroughtĠ": 5944,
      "edn": 5945,
      "evidenc": 5946,
      "osh": 5947,
      "Ġgam": 5948,
      "eĠtoldĠ": 5949,
      "uponĠtheĠ": 5950,
      "readingĠ": 5951,
      "ĠtheseĠareĠ": 5952,
      "andĠtheyĠwill": 5953,
      "rossĠtheĠ": 5954,
      "ĠinterestĠ": 5955,
      "directlyĠ": 5956,
      "ĠcenturyĠ": 5957,
      "earlier": 5958,
      "uniqueĠ": 5959,
      "levitesĠ": 5960,
      "http": 5961,
      "rown": 5962,
      "itĠwouldĠ": 5963,
      "riendĠ": 5964,
      "ĠinĠour": 5965,
      "Ġgreat": 5966,
      "ĠshortĠ": 5967,
      "jehovahĠhasĠ": 5968,
      "avour": 5969,
      "ĠthatĠtim": 5970,
      "commercial": 5971,
      "ĠwhenĠheĠ": 5972,
      "underĠtheĠ": 5973,
      "Ġadam": 5974,
      "regulation": 5975,
      "ĠseeĠtheĠ": 5976,
      "ostlyĠ": 5977,
      "killsĠ": 5978,
      "neededĠ": 5979,
      "apostlesĠ": 5980,
      "Ġneverth": 5981,
      "cast": 5982,
      "counsel": 5983,
      "honor": 5984,
      "jeh": 5985,
      "atedĠbyĠ": 5986,
      "ĠhardĠ": 5987,
      "Ġamm": 5988,
      "Ġspac": 5989,
      "shipĠ": 5990,
      "ĠworkĠ": 5991,
      "Ġregul": 5992,
      "ĠmarketĠ": 5993,
      "powerful": 5994,
      "foot": 5995,
      "wonder": 5996,
      "Ġweb": 5997,
      "ĠaĠgreatĠ": 5998,
      "optionsĠ": 5999,
      "ainĠ": 6000,
      "Ġstar": 6001,
      "ĠtheĠlev": 6002,
      "phas": 6003,
      "ĠthenĠtheyĠ": 6004,
      "ĠandĠheĠsaidĠ": 6005,
      "ĠwhereĠtheĠ": 6006,
      "Ġdemocratic": 6007,
      "enjamin": 6008,
      "breadĠ": 6009,
      "music": 6010,
      "ingĠher": 6011,
      "ĠinĠtheĠc": 6012,
      "ĠwhatĠyou": 6013,
      "ĠhowĠmuch": 6014,
      "weightĠ": 6015,
      "relatedĠ": 6016,
      "Ġsee": 6017,
      "Ġupon": 6018,
      "causeĠ": 6019,
      "eĠmadeĠ": 6020,
      "bes": 6021,
      "federal": 6022,
      "gi": 6023,
      "ij": 6024,
      "oab": 6025,
      "uĠ": 6026,
      "forĠhim": 6027,
      "etim": 6028,
      "eĠtrans": 6029,
      "ĠforĠthisĠ": 6030,
      "Ġknown": 6031,
      "greater": 6032,
      "createĠ": 6033,
      "begin": 6034,
      "ĠaboutĠtheĠ": 6035,
      "wall": 6036,
      "Ġhon": 6037,
      "itĠwas": 6038,
      "ravel": 6039,
      "ĠofĠour": 6040,
      "doĠsoĠ": 6041,
      "eĠtheirĠ": 6042,
      "Ġconsum": 6043,
      "ĠtheĠphil": 6044,
      "prepareĠ": 6045,
      "courtĠ": 6046,
      "ilt": 6047,
      "ingĠitsĠ": 6048,
      "ĠlaterĠ": 6049,
      "entionĠ": 6050,
      "ideal": 6051,
      "ifĠitĠ": 6052,
      "withĠm": 6053,
      "obil": 6054,
      "grown": 6055,
      "commentsĠ": 6056,
      "edĠwithĠ": 6057,
      "Ġcommercial": 6058,
      "becauseĠofĠtheĠ": 6059,
      "production": 6060,
      "ysisĠ": 6061,
      "itizen": 6062,
      "mus": 6063,
      "warm": 6064,
      "ĠpageĠ": 6065,
      "riev": 6066,
      "inĠanyĠ": 6067,
      "ground": 6068,
      "attendĠ": 6069,
      "ĠwhenĠtheĠ": 6070,
      "ĠjehovahĠwill": 6071,
      "ĠtoĠspeak": 6072,
      "ofĠmeet": 6073,
      "eĠhasĠbeen": 6074,
      "eptemberĠ": 6075,
      "prayĠ": 6076,
      "vac": 6077,
      "waitĠ": 6078,
      "effortsĠ": 6079,
      "whoĠwasĠ": 6080,
      "avail": 6081,
      "ĠkingĠ": 6082,
      "aidĠtoĠhim": 6083,
      "difficultĠ": 6084,
      "onĠtheir": 6085,
      "allĠthatĠ": 6086,
      "eĠbas": 6087,
      "print": 6088,
      "arket": 6089,
      "whoeverĠ": 6090,
      "iĠsaw": 6091,
      "monthsĠ": 6092,
      "eeplyĠ": 6093,
      "ratesĠ": 6094,
      "social": 6095,
      "wis": 6096,
      "Ġtor": 6097,
      "ĠaĠre": 6098,
      "ingĠnew": 6099,
      "erĠinĠtheĠ": 6100,
      "ripp": 6101,
      "entsĠtoĠ": 6102,
      "adesĠ": 6103,
      "ĠwithĠyour": 6104,
      "everalĠ": 6105,
      "minutesĠ": 6106,
      "ostsĠ": 6107,
      "cipl": 6108,
      "letĠhim": 6109,
      "eĠbecameĠ": 6110,
      "cli": 6111,
      "orĠtheĠ": 6112,
      "Ġword": 6113,
      "Ġaut": 6114,
      "amentĠ": 6115,
      "Ġwhit": 6116,
      "notĠbeen": 6117,
      "spreadĠ": 6118,
      "sĠserv": 6119,
      "guarant": 6120,
      "followingĠ": 6121,
      "godĠsĠwordĠ": 6122,
      "ĠtellĠyou": 6123,
      "someĠofĠtheĠ": 6124,
      "virg": 6125,
      "ismĠ": 6126,
      "ĠmanagementĠ": 6127,
      "gat": 6128,
      "rum": 6129,
      "ĠdidnĠt": 6130,
      "ridĠ": 6131,
      "Ġworth": 6132,
      "ruit": 6133,
      "ĠperhapsĠ": 6134,
      "reditĠ": 6135,
      "definitelyĠ": 6136,
      "brotherĠ": 6137,
      "doubtĠ": 6138,
      "Ġconnection": 6139,
      "canc": 6140,
      "Ġbig": 6141,
      "ofĠtheĠcityĠ": 6142,
      "ifĠtheĠ": 6143,
      "ĠofĠp": 6144,
      "ensesĠ": 6145,
      "aĠlong": 6146,
      "ĠpeopleĠwhoĠ": 6147,
      "aĠbitĠ": 6148,
      "ĠlikeĠtheĠ": 6149,
      "graph": 6150,
      "ĠifĠyouĠhaveĠ": 6151,
      "eenag": 6152,
      "religion": 6153,
      "Ġfirm": 6154,
      "ĠtheĠheartĠ": 6155,
      "militaryĠ": 6156,
      "Ġfill": 6157,
      "romis": 6158,
      "oneĠisĠ": 6159,
      "fromĠhisĠ": 6160,
      "eĠofĠc": 6161,
      "final": 6162,
      "Ġwoman": 6163,
      "eastern": 6164,
      "undeservedĠkindnessĠ": 6165,
      "iltyĠ": 6166,
      "ĠpetĠ": 6167,
      "ĠinĠtheĠw": 6168,
      "ĠthatĠtimeĠ": 6169,
      "pointsĠ": 6170,
      "Ġprison": 6171,
      "ĠlikeĠa": 6172,
      "ĠisĠtheĠ": 6173,
      "ĠsomeĠofĠtheĠ": 6174,
      "eĠshouldĠbeĠ": 6175,
      "ĠthatĠyouĠmayĠ": 6176,
      "fr": 6177,
      "saul": 6178,
      "onom": 6179,
      "arc": 6180,
      "atanĠ": 6181,
      "edĠtheyĠ": 6182,
      "ifĠweĠ": 6183,
      "himĠandĠ": 6184,
      "eĠofĠb": 6185,
      "ĠjehovahĠisĠ": 6186,
      "argu": 6187,
      "eyeĠ": 6188,
      "ĠtooĠmuch": 6189,
      "affect": 6190,
      "ingĠabout": 6191,
      "fruitĠ": 6192,
      "russian": 6193,
      "eprdf": 6194,
      "bill": 6195,
      "corn": 6196,
      "ju": 6197,
      "tiesĠ": 6198,
      "eĠli": 6199,
      "sĠaboutĠ": 6200,
      "orc": 6201,
      "arrest": 6202,
      "islandĠ": 6203,
      "actionsĠ": 6204,
      "consequ": 6205,
      "recover": 6206,
      "untoĠyou": 6207,
      "reasonsĠ": 6208,
      "eedsĠ": 6209,
      "greatlyĠ": 6210,
      "ĠboardĠ": 6211,
      "dish": 6212,
      "iĠandĠ": 6213,
      "ĠtableĠ": 6214,
      "inĠoffer": 6215,
      "ofĠl": 6216,
      "usyĠ": 6217,
      "combin": 6218,
      "constitution": 6219,
      "lob": 6220,
      "ĠtheĠpublic": 6221,
      "assist": 6222,
      "atedĠandĠ": 6223,
      "sĠso": 6224,
      "languageĠ": 6225,
      "taken": 6226,
      "ingu": 6227,
      "edĠoff": 6228,
      "ecureĠ": 6229,
      "useĠtoĠ": 6230,
      "uncleanĠ": 6231,
      "entic": 6232,
      "additional": 6233,
      "ĠforĠm": 6234,
      "yourĠc": 6235,
      "eĠwithĠtheĠ": 6236,
      "flict": 6237,
      "rewardĠ": 6238,
      "humansĠ": 6239,
      "ĠtheĠprinc": 6240,
      "medic": 6241,
      "arian": 6242,
      "aton": 6243,
      "ĠtoĠusĠ": 6244,
      "italĠ": 6245,
      "edĠthereĠ": 6246,
      "edical": 6247,
      "ĠwhoseĠ": 6248,
      "eĠbroughtĠ": 6249,
      "aĠper": 6250,
      "domin": 6251,
      "ĠhopeĠ": 6252,
      "administration": 6253,
      "hoursĠ": 6254,
      "oz": 6255,
      "Ġoh": 6256,
      "Ġtour": 6257,
      "ĠtreeĠ": 6258,
      "alon": 6259,
      "Ġsix": 6260,
      "isk": 6261,
      "acrossĠ": 6262,
      "ecution": 6263,
      "estlyĠ": 6264,
      "eĠmail": 6265,
      "ĠasĠs": 6266,
      "ĠtheĠdi": 6267,
      "positiveĠ": 6268,
      "carry": 6269,
      "consideredĠ": 6270,
      "Ġresearch": 6271,
      "growth": 6272,
      "itchen": 6273,
      "patientĠ": 6274,
      "sych": 6275,
      "eyĠtoĠ": 6276,
      "wait": 6277,
      "Ġtarg": 6278,
      "enableĠ": 6279,
      "ĠtoĠgoĠ": 6280,
      "stretch": 6281,
      "youĠwouldĠ": 6282,
      "ĠmindĠ": 6283,
      "ĠandĠyouĠwill": 6284,
      "usersĠ": 6285,
      "apartĠ": 6286,
      "ĠhisĠson": 6287,
      "eĠinclud": 6288,
      "ĠkeptĠ": 6289,
      "integr": 6290,
      "Ġpharaoh": 6291,
      "Ġpresent": 6292,
      "entral": 6293,
      "anctuaryĠ": 6294,
      "stock": 6295,
      "ofĠanyĠ": 6296,
      "Ġdetermin": 6297,
      "emin": 6298,
      "rath": 6299,
      "abandon": 6300,
      "ĠthisĠisĠtheĠ": 6301,
      "withĠall": 6302,
      "hasĠbeenĠ": 6303,
      "edĠwithĠtheĠ": 6304,
      "Ġcontin": 6305,
      "mentĠtoĠ": 6306,
      "Ġheard": 6307,
      "saying": 6308,
      "expectedĠtoĠ": 6309,
      "mercyĠ": 6310,
      "elevision": 6311,
      "aĠin": 6312,
      "pion": 6313,
      "uild": 6314,
      "ĠrightĠ": 6315,
      "alam": 6316,
      "asĠanĠ": 6317,
      "Ġsheep": 6318,
      "onĠitsĠ": 6319,
      "spectiveĠ": 6320,
      "orĠeven": 6321,
      "ĠwhenĠh": 6322,
      "ĠcloseĠ": 6323,
      "untoĠtheĠlordĠ": 6324,
      "ĠprovideĠ": 6325,
      "means": 6326,
      "activityĠ": 6327,
      "cientific": 6328,
      "launch": 6329,
      "jection": 6330,
      "forĠtheir": 6331,
      "atĠall": 6332,
      "ander": 6333,
      "ulter": 6334,
      "behavi": 6335,
      "ĠonĠa": 6336,
      "intend": 6337,
      "ĠsoĠi": 6338,
      "ekel": 6339,
      "shipp": 6340,
      "ĠatĠthisĠ": 6341,
      "hadow": 6342,
      "ĠbrotherĠ": 6343,
      "saidĠtoĠhim": 6344,
      "ĠyouĠmustĠnotĠ": 6345,
      "Ġloyal": 6346,
      "peter": 6347,
      "wrot": 6348,
      "Ġtreas": 6349,
      "sĠinĠ": 6350,
      "inĠw": 6351,
      "ones": 6352,
      "whelm": 6353,
      "Ġfr": 6354,
      "entĠofĠmeet": 6355,
      "adiseĠ": 6356,
      "withĠyou": 6357,
      "Ġjacob": 6358,
      "ĠtheĠpur": 6359,
      "aug": 6360,
      "Ġcommun": 6361,
      "ĠtoĠserveĠ": 6362,
      "studentĠ": 6363,
      "wasĠtheĠ": 6364,
      "gradu": 6365,
      "ĠwhatĠtheyĠ": 6366,
      "Ġbelong": 6367,
      "color": 6368,
      "emorial": 6369,
      "iĠlisĠt": 6370,
      "sĠup": 6371,
      "ĠtoĠall": 6372,
      "ster": 6373,
      "isha": 6374,
      "Ġpick": 6375,
      "withĠhim": 6376,
      "Ġchief": 6377,
      "obileĠ": 6378,
      "ĠasĠtheyĠ": 6379,
      "regularlyĠ": 6380,
      "heart": 6381,
      "fatherĠandĠ": 6382,
      "Ġtransfer": 6383,
      "edĠhimself": 6384,
      "fundĠ": 6385,
      "Ġprofession": 6386,
      "fast": 6387,
      "meĠtoĠ": 6388,
      "separ": 6389,
      "edia": 6390,
      "Ġfound": 6391,
      "Ġrepublic": 6392,
      "ĠjanuaryĠ": 6393,
      "ebyĠ": 6394,
      "controll": 6395,
      "ĠsoĠh": 6396,
      "becauseĠof": 6397,
      "Ġheart": 6398,
      "ĠthatĠisĠwhyĠ": 6399,
      "ĠpartyĠ": 6400,
      "ĠpriestĠ": 6401,
      "chosen": 6402,
      "european": 6403,
      "ĠthursdayĠ": 6404,
      "circumc": 6405,
      "pen": 6406,
      "yz": 6407,
      "ĠtestĠ": 6408,
      "Ġthin": 6409,
      "ĠtheĠprophetĠ": 6410,
      "Ġsk": 6411,
      "eccl": 6412,
      "ĠthemĠin": 6413,
      "ĠtheirĠd": 6414,
      "essor": 6415,
      "ĠtheĠfin": 6416,
      "grew": 6417,
      "knowĠ": 6418,
      "houseĠandĠ": 6419,
      "ummerĠ": 6420,
      "nationalĠ": 6421,
      "conduct": 6422,
      "ĠsubĠarticleĠofĠthisĠarticleĠ": 6423,
      "lett": 6424,
      "vari": 6425,
      "Ġbes": 6426,
      "Ġprev": 6427,
      "entryĠ": 6428,
      "eĠby": 6429,
      "ingĠsystem": 6430,
      "eansĠ": 6431,
      "buy": 6432,
      "complex": 6433,
      "ĠfeetĠ": 6434,
      "Ġassemb": 6435,
      "reasonableĠ": 6436,
      "proclaim": 6437,
      "protection": 6438,
      "ordinaryĠ": 6439,
      "dutiesĠ": 6440,
      "cours": 6441,
      "gal": 6442,
      "Ġpack": 6443,
      "eĠtell": 6444,
      "short": 6445,
      "Ġconvers": 6446,
      "ĠtheĠmenĠ": 6447,
      "Ġsleep": 6448,
      "expertsĠ": 6449,
      "frequ": 6450,
      "food": 6451,
      "Ġtong": 6452,
      "ĠholdĠ": 6453,
      "Ġhalf": 6454,
      "chin": 6455,
      "fromĠb": 6456,
      "nowledg": 6457,
      "eĠbook": 6458,
      "objectĠ": 6459,
      "pril": 6460,
      "rettyĠ": 6461,
      "rows": 6462,
      "Ġdesir": 6463,
      "whateverĠ": 6464,
      "ituationĠ": 6465,
      "eĠsometh": 6466,
      "opinion": 6467,
      "alcoh": 6468,
      "ealĠ": 6469,
      "jeĠh": 6470,
      "mill": 6471,
      "onĠf": 6472,
      "eĠtodayĠ": 6473,
      "cloudĠ": 6474,
      "Ġshould": 6475,
      "ingĠam": 6476,
      "strang": 6477,
      "attorn": 6478,
      "commendĠ": 6479,
      "aĠsmall": 6480,
      "Ġvol": 6481,
      "Ġinterest": 6482,
      "wardĠtoĠ": 6483,
      "journeyĠ": 6484,
      "aĠwasĠ": 6485,
      "ipl": 6486,
      "largeĠ": 6487,
      "nut": 6488,
      "sĠtheĠs": 6489,
      "uclear": 6490,
      "eĠinĠtheĠ": 6491,
      "edĠafter": 6492,
      "Ġmos": 6493,
      "ĠandĠin": 6494,
      "jehovahĠhadĠ": 6495,
      "eĠcameĠ": 6496,
      "Ġpros": 6497,
      "ĠbutĠi": 6498,
      "ĠtheĠtr": 6499,
      "attemp": 6500,
      "helpsĠ": 6501,
      "studiesĠ": 6502,
      "untilĠtheĠ": 6503,
      "highlyĠ": 6504,
      "attorneyĠ": 6505,
      "dailyĠ": 6506,
      "gold": 6507,
      "rub": 6508,
      "securityĠ": 6509,
      "Ġtel": 6510,
      "ĠwebsiteĠ": 6511,
      "steadĠ": 6512,
      "edĠtheĠw": 6513,
      "raveĠ": 6514,
      "Ġgal": 6515,
      "Ġrep": 6516,
      "ĠtheĠdevil": 6517,
      "ollar": 6518,
      "ĠnewĠyork": 6519,
      "Ġsaying": 6520,
      "leadersĠ": 6521,
      "defin": 6522,
      "avoid": 6523,
      "radioĠ": 6524,
      "satisf": 6525,
      "ĠtheĠre": 6526,
      "ĠtoĠsh": 6527,
      "styleĠ": 6528,
      "forn": 6529,
      "userĠ": 6530,
      "Ġfar": 6531,
      "optim": 6532,
      "hael": 6533,
      "ĠthisĠdayĠ": 6534,
      "withĠmyĠ": 6535,
      "eĠmonth": 6536,
      "easonĠ": 6537,
      "ĠtheĠcamp": 6538,
      "enceĠtoĠ": 6539,
      "ĠandĠthatĠ": 6540,
      "Ġaff": 6541,
      "thĠyear": 6542,
      "aughtersĠ": 6543,
      "ĠthoseĠwhoĠhaveĠ": 6544,
      "ealthyĠ": 6545,
      "surpris": 6546,
      "ĠthingsĠthatĠ": 6547,
      "atisfac": 6548,
      "Ġjoshu": 6549,
      "clusion": 6550,
      "clusiveĠ": 6551,
      "achiev": 6552,
      "elligenceĠ": 6553,
      "kingĠandĠ": 6554,
      "left": 6555,
      "Ġsaf": 6556,
      "ĠcourtĠ": 6557,
      "ofĠtheĠearth": 6558,
      "eĠtog": 6559,
      "plusĠ": 6560,
      "Ġrepresent": 6561,
      "wereĠnotĠ": 6562,
      "contr": 6563,
      "sideĠtheĠ": 6564,
      "eĠweĠhaveĠ": 6565,
      "havingĠa": 6566,
      "conven": 6567,
      "convinc": 6568,
      "husbandĠ": 6569,
      "rationĠ": 6570,
      "Ġtick": 6571,
      "andĠd": 6572,
      "edĠandĠtheĠ": 6573,
      "edĠinto": 6574,
      "iteĠtheĠ": 6575,
      "esĠhisĠ": 6576,
      "ingĠanyĠ": 6577,
      "ĠlightĠ": 6578,
      "eĠsystem": 6579,
      "odiesĠ": 6580,
      "acknowledg": 6581,
      "ĠwasĠnotĠ": 6582,
      "diseas": 6583,
      "Ġtherap": 6584,
      "householdĠ": 6585,
      "aĠhigh": 6586,
      "butĠtheyĠ": 6587,
      "expectedĠ": 6588,
      "ĠandĠitĠcameĠtoĠ": 6589,
      "ĠcustomersĠ": 6590,
      "jordan": 6591,
      "aĠfor": 6592,
      "ĠministryĠ": 6593,
      "eĠthank": 6594,
      "riarch": 6595,
      "ador": 6596,
      "ĠsoĠmuch": 6597,
      "directĠ": 6598,
      "ingĠcreat": 6599,
      "kindĠofĠ": 6600,
      "ĠpresentĠ": 6601,
      "iĠwant": 6602,
      "ĠtheyĠtook": 6603,
      "comfortableĠ": 6604,
      "eableĠ": 6605,
      "tonĠ": 6606,
      "uitĠ": 6607,
      "onĠtheĠw": 6608,
      "ityĠthatĠ": 6609,
      "forgiven": 6610,
      "ĠandĠitsĠ": 6611,
      "willĠhaveĠ": 6612,
      "eĠaĠm": 6613,
      "priceĠ": 6614,
      "Ġneighbor": 6615,
      "eather": 6616,
      "economyĠ": 6617,
      "ĠcontinueĠtoĠ": 6618,
      "principlesĠ": 6619,
      "global": 6620,
      "jer": 6621,
      "ĠsonĠofĠ": 6622,
      "ofĠtheĠh": 6623,
      "ĠofĠman": 6624,
      "eĠcareĠ": 6625,
      "ersĠthatĠ": 6626,
      "ĠgodĠandĠ": 6627,
      "argum": 6628,
      "ĠtheseĠareĠtheĠ": 6629,
      "becauseĠofĠ": 6630,
      "eatĠandĠ": 6631,
      "eptember": 6632,
      "feelingsĠ": 6633,
      "consult": 6634,
      "colleg": 6635,
      "eapon": 6636,
      "Ġparticip": 6637,
      "ma": 6638,
      "erĠwhoĠ": 6639,
      "andĠb": 6640,
      "Ġwid": 6641,
      "Ġwindow": 6642,
      "ĠholyĠ": 6643,
      "irtyĠ": 6644,
      "agog": 6645,
      "ableĠto": 6646,
      "independ": 6647,
      "physical": 6648,
      "weĠveĠ": 6649,
      "presenceĠ": 6650,
      "intern": 6651,
      "ingĠmeĠ": 6652,
      "letĠmeĠ": 6653,
      "closedĠ": 6654,
      "prophet": 6655,
      "electronic": 6656,
      "Ġnorieg": 6657,
      "ĠinstanceĠ": 6658,
      "www": 6659,
      "ĠpossibleĠ": 6660,
      "eriouslyĠ": 6661,
      "indicat": 6662,
      "eatedĠ": 6663,
      "riseĠ": 6664,
      "ycleĠ": 6665,
      "eĠor": 6666,
      "Ġtask": 6667,
      "ĠtaughtĠ": 6668,
      "onĠtheĠf": 6669,
      "ĠtoĠour": 6670,
      "isĠthisĠ": 6671,
      "edyĠ": 6672,
      "Ġdr": 6673,
      "ĠprobablyĠ": 6674,
      "ĠkindĠ": 6675,
      "whichĠareĠ": 6676,
      "ingĠsuch": 6677,
      "Ġtradition": 6678,
      "innerĠ": 6679,
      "ercyĠ": 6680,
      "neededĠtoĠ": 6681,
      "believersĠ": 6682,
      "declaresĠ": 6683,
      "epherdĠ": 6684,
      "Ġmoreover": 6685,
      "ĠtoĠmakeĠ": 6686,
      "Ġbear": 6687,
      "Ġprais": 6688,
      "asĠaĠs": 6689,
      "ofĠjesusĠ": 6690,
      "adlyĠ": 6691,
      "ĠtheĠpastĠ": 6692,
      "otherĠthan": 6693,
      "commandĠ": 6694,
      "kingĠsĠ": 6695,
      "guardĠ": 6696,
      "ĠthingsĠtoĠ": 6697,
      "preventĠ": 6698,
      "emergencyĠ": 6699,
      "Ġtemper": 6700,
      "Ġdeep": 6701,
      "evereĠ": 6702,
      "nocentĠ": 6703,
      "term": 6704,
      "ĠwithĠyou": 6705,
      "angryĠ": 6706,
      "ĠonĠhisĠ": 6707,
      "ruitĠ": 6708,
      "Ġpric": 6709,
      "Ġcommission": 6710,
      "ĠindustryĠ": 6711,
      "garmentsĠ": 6712,
      "ont": 6713,
      "andĠi": 6714,
      "iliz": 6715,
      "Ġcanc": 6716,
      "Ġpurchas": 6717,
      "Ġdocum": 6718,
      "estock": 6719,
      "egg": 6720,
      "ĠtheĠdep": 6721,
      "ĠandĠtheĠs": 6722,
      "Ġvo": 6723,
      "ugustĠ": 6724,
      "oolish": 6725,
      "lightsĠ": 6726,
      "ĠtheirĠfamiliesĠ": 6727,
      "chooseĠ": 6728,
      "Ġconsult": 6729,
      "againstĠtheĠ": 6730,
      "goingĠtoĠbeĠ": 6731,
      "fruit": 6732,
      "eĠsureĠthatĠ": 6733,
      "ĠnumberĠ": 6734,
      "engineer": 6735,
      "ĠexperienceĠ": 6736,
      "veget": 6737,
      "garden": 6738,
      "heal": 6739,
      "les": 6740,
      "mist": 6741,
      "Ġwww": 6742,
      "Ġhur": 6743,
      "ĠtoĠseeĠ": 6744,
      "isĠin": 6745,
      "Ġcapt": 6746,
      "elimin": 6747,
      "roveĠ": 6748,
      "Ġden": 6749,
      "entit": 6750,
      "ulationĠ": 6751,
      "greek": 6752,
      "forĠanyĠ": 6753,
      "offspr": 6754,
      "loveĠtoĠ": 6755,
      "exceed": 6756,
      "profession": 6757,
      "friendlyĠ": 6758,
      "Ġsamuel": 6759,
      "atestĠ": 6760,
      "esĠor": 6761,
      "Ġdriv": 6762,
      "oles": 6763,
      "reserv": 6764,
      "ivesĠandĠ": 6765,
      "ĠofĠjehovah": 6766,
      "lift": 6767,
      "Ġvide": 6768,
      "aĠbig": 6769,
      "eĠmayĠbeĠ": 6770,
      "proced": 6771,
      "stitutionsĠ": 6772,
      "furtherĠ": 6773,
      "loyalĠloveĠ": 6774,
      "uddenlyĠ": 6775,
      "ĠavailableĠ": 6776,
      "ingĠover": 6777,
      "olf": 6778,
      "riedĠ": 6779,
      "Ġrefer": 6780,
      "quant": 6781,
      "alĠest": 6782,
      "whenĠheĠ": 6783,
      "ĠwhenĠweĠ": 6784,
      "ureau": 6785,
      "sĠintoĠ": 6786,
      "reasonĠ": 6787,
      "ĠtoĠmeetĠ": 6788,
      "reward": 6789,
      "eĠshallĠbeĠ": 6790,
      "ituationsĠ": 6791,
      "raft": 6792,
      "Ġpractic": 6793,
      "cryĠ": 6794,
      "eon": 6795,
      "rh": 6796,
      "weĠw": 6797,
      "ingĠthemĠ": 6798,
      "Ġcouncil": 6799,
      "Ġmus": 6800,
      "ingĠgodĠ": 6801,
      "ingĠyouĠ": 6802,
      "adjust": 6803,
      "withĠs": 6804,
      "ĠforĠall": 6805,
      "libr": 6806,
      "appar": 6807,
      "eĠdur": 6808,
      "ĠtheĠtempleĠ": 6809,
      "ĠwhichĠwasĠ": 6810,
      "guard": 6811,
      "Ġrecogn": 6812,
      "address": 6813,
      "farĠasĠ": 6814,
      "itiesĠthatĠ": 6815,
      "efficientĠ": 6816,
      "Ġparticular": 6817,
      "Ġdiscuss": 6818,
      "achieveĠ": 6819,
      "ashington": 6820,
      "regnantĠ": 6821,
      "bitĠ": 6822,
      "furn": 6823,
      "rentĠ": 6824,
      "seven": 6825,
      "sĠhisĠ": 6826,
      "edĠyour": 6827,
      "isĠtoĠbeĠ": 6828,
      "Ġfew": 6829,
      "fromĠtheĠs": 6830,
      "jehovahĠwill": 6831,
      "odern": 6832,
      "ĠwhoĠareĠ": 6833,
      "Ġrun": 6834,
      "urchaseĠ": 6835,
      "ological": 6836,
      "seemsĠ": 6837,
      "necessaryĠtoĠ": 6838,
      "performanceĠ": 6839,
      "arĠaoh": 6840,
      "gateĠ": 6841,
      "sea": 6842,
      "timeĠ": 6843,
      "orough": 6844,
      "andĠth": 6845,
      "ĠinĠtheĠlandĠ": 6846,
      "condemn": 6847,
      "onĠall": 6848,
      "ĠfromĠhisĠ": 6849,
      "wellĠ": 6850,
      "mayĠnotĠ": 6851,
      "oneĠofĠtheĠmostĠ": 6852,
      "adviceĠ": 6853,
      "decidedĠtoĠ": 6854,
      "ĠtheĠboardĠ": 6855,
      "ednesdayĠ": 6856,
      "futur": 6857,
      "least": 6858,
      "web": 6859,
      "wonĠt": 6860,
      "ondon": 6861,
      "ĠtheĠword": 6862,
      "youĠwith": 6863,
      "eĠter": 6864,
      "planĠ": 6865,
      "Ġstrateg": 6866,
      "eĠherĠ": 6867,
      "spac": 6868,
      "spentĠ": 6869,
      "object": 6870,
      "fulĠandĠ": 6871,
      "newĠyork": 6872,
      "helpĠyou": 6873,
      "beforeĠyou": 6874,
      "azar": 6875,
      "emptyĠ": 6876,
      "namedĠ": 6877,
      "ĠstudentĠ": 6878,
      "ĠofĠcours": 6879,
      "volum": 6880,
      "ĠtradeĠ": 6881,
      "frontĠ": 6882,
      "push": 6883,
      "inaryĠ": 6884,
      "redi": 6885,
      "ĠpraiseĠ": 6886,
      "acityĠ": 6887,
      "unitsĠ": 6888,
      "ĠinsuranceĠ": 6889,
      "adam": 6890,
      "ĠableĠtoĠ": 6891,
      "ĠtheĠwickedĠ": 6892,
      "Ġbey": 6893,
      "elijah": 6894,
      "ĠthereofĠ": 6895,
      "ities": 6896,
      "appointedĠ": 6897,
      "caseĠ": 6898,
      "gaz": 6899,
      "lav": 6900,
      "pil": 6901,
      "raceĠ": 6902,
      "westĠ": 6903,
      "Ġharm": 6904,
      "esĠasĠ": 6905,
      "ĠcostĠ": 6906,
      "Ġdam": 6907,
      "emphas": 6908,
      "identsĠ": 6909,
      "inĠtheĠmorn": 6910,
      "eĠmov": 6911,
      "rectionĠ": 6912,
      "eĠofĠthisĠ": 6913,
      "likeĠthisĠ": 6914,
      "ĠtheseĠc": 6915,
      "ĠtrainingĠ": 6916,
      "womenĠ": 6917,
      "particular": 6918,
      "particularlyĠ": 6919,
      "relatedĠtoĠ": 6920,
      "punish": 6921,
      "ĠwaysĠ": 6922,
      "Ġhold": 6923,
      "Ġlos": 6924,
      "achin": 6925,
      "ĠhaveĠbeen": 6926,
      "asseh": 6927,
      "Ġspec": 6928,
      "aĠdis": 6929,
      "priestsĠ": 6930,
      "ĠandĠtheyĠwill": 6931,
      "whatever": 6932,
      "getĠtoĠ": 6933,
      "ĠjoyĠ": 6934,
      "constantlyĠ": 6935,
      "cool": 6936,
      "ingredi": 6937,
      "Ġbal": 6938,
      "ofĠgodĠsĠ": 6939,
      "ĠasĠaĠresultĠ": 6940,
      "wasĠnotĠ": 6941,
      "eĠint": 6942,
      "ĠtheĠpar": 6943,
      "complain": 6944,
      "Ġphysical": 6945,
      "happenedĠ": 6946,
      "writeĠ": 6947,
      "practical": 6948,
      "Ġfinancial": 6949,
      "focus": 6950,
      "chedul": 6951,
      "ĠproverbsĠ": 6952,
      "ba": 6953,
      "edĠupon": 6954,
      "ĠtheyĠt": 6955,
      "ressĠandĠ": 6956,
      "ĠshallĠ": 6957,
      "edĠback": 6958,
      "ĠplayĠ": 6959,
      "Ġaccess": 6960,
      "visibleĠ": 6961,
      "ĠbecauseĠtheyĠ": 6962,
      "worthyĠ": 6963,
      "bag": 6964,
      "bush": 6965,
      "fresh": 6966,
      "similar": 6967,
      "Ġpeter": 6968,
      "ĠforĠtheĠs": 6969,
      "ĠtheĠsp": 6970,
      "sĠandĠhisĠ": 6971,
      "spectĠ": 6972,
      "ĠheĠalsoĠ": 6973,
      "helpĠ": 6974,
      "madeĠtheĠ": 6975,
      "ribleĠ": 6976,
      "ĠthinkĠaboutĠ": 6977,
      "ĠsometimesĠ": 6978,
      "ĠbecauseĠofĠtheĠ": 6979,
      "ĠagainĠ": 6980,
      "includingĠ": 6981,
      "completeĠ": 6982,
      "humanĠ": 6983,
      "whileĠtheĠ": 6984,
      "Ġregional": 6985,
      "responsibilitiesĠ": 6986,
      "cup": 6987,
      "laveĠ": 6988,
      "ingĠtheĠw": 6989,
      "Ġseven": 6990,
      "ĠtoĠgodĠ": 6991,
      "atĠandĠ": 6992,
      "Ġgirl": 6993,
      "odel": 6994,
      "etherĠandĠ": 6995,
      "ĠprojectsĠ": 6996,
      "ingĠawayĠ": 6997,
      "arriageĠ": 6998,
      "eĠworldĠ": 6999,
      "eĠweĠareĠ": 7000,
      "educationĠ": 7001,
      "commandmentsĠ": 7002,
      "Ġrealiz": 7003,
      "eplf": 7004,
      "kyĠ": 7005,
      "numerousĠ": 7006,
      "the": 7007,
      "reportsĠ": 7008,
      "elow": 7009,
      "Ġpolitical": 7010,
      "Ġli": 7011,
      "eĠspec": 7012,
      "apan": 7013,
      "eĠandĠhisĠ": 7014,
      "relax": 7015,
      "aĠph": 7016,
      "longĠasĠ": 7017,
      "crim": 7018,
      "valuableĠ": 7019,
      "piritual": 7020,
      "ĠjohnĠ": 7021,
      "outsideĠtheĠ": 7022,
      "drop": 7023,
      "match": 7024,
      "vow": 7025,
      "Ġtomorrow": 7026,
      "ĠtheĠkingdom": 7027,
      "ated": 7028,
      "Ġsmall": 7029,
      "forĠtheĠb": 7030,
      "ĠpowerĠ": 7031,
      "ĠandĠyour": 7032,
      "rapp": 7033,
      "outĠfrom": 7034,
      "strugg": 7035,
      "ĠcanĠyou": 7036,
      "newsp": 7037,
      "evelopmentĠ": 7038,
      "requir": 7039,
      "ĠthisĠtimeĠ": 7040,
      "equal": 7041,
      "ĠthereĠwasĠnoĠ": 7042,
      "ĠmeetingsĠ": 7043,
      "Ġadministration": 7044,
      "ĠmoreĠinformation": 7045,
      "ingĠagainstĠ": 7046,
      "quietĠ": 7047,
      "understandĠtheĠ": 7048,
      "ious": 7049,
      "nearlyĠ": 7050,
      "atĠtheĠm": 7051,
      "edĠitsĠ": 7052,
      "streetĠ": 7053,
      "itesĠandĠ": 7054,
      "Ġpan": 7055,
      "royal": 7056,
      "usual": 7057,
      "ently": 7058,
      "beach": 7059,
      "clam": 7060,
      "cleans": 7061,
      "eĠhigh": 7062,
      "eĠdidnĠt": 7063,
      "overall": 7064,
      "ocal": 7065,
      "ĠofĠusĠ": 7066,
      "ingĠas": 7067,
      "sonsĠofĠ": 7068,
      "oundaryĠ": 7069,
      "compens": 7070,
      "ĠgiveĠyou": 7071,
      "letĠthem": 7072,
      "expression": 7073,
      "ĠperformanceĠ": 7074,
      "jordanĠ": 7075,
      "lateĠ": 7076,
      "weĠwereĠ": 7077,
      "weĠdoĠ": 7078,
      "zeal": 7079,
      "sĠus": 7080,
      "edĠsoĠ": 7081,
      "ĠheavenĠ": 7082,
      "oler": 7083,
      "emoryĠ": 7084,
      "eĠwell": 7085,
      "eĠhous": 7086,
      "ensureĠ": 7087,
      "ruin": 7088,
      "engthĠ": 7089,
      "noticeĠ": 7090,
      "aĠgr": 7091,
      "ĠlookingĠfor": 7092,
      "outsideĠ": 7093,
      "representativesĠ": 7094,
      "ĠsomethingĠ": 7095,
      "ĠclientsĠ": 7096,
      "jack": 7097,
      "uzz": 7098,
      "Ġno": 7099,
      "that": 7100,
      "Ġsend": 7101,
      "Ġself": 7102,
      "isĠandĠ": 7103,
      "ecuredĠ": 7104,
      "ersĠinĠtheĠ": 7105,
      "comeĠandĠ": 7106,
      "haveĠyou": 7107,
      "ocrac": 7108,
      "ĠtheĠfatherĠ": 7109,
      "ervis": 7110,
      "Ġseen": 7111,
      "ĠageĠ": 7112,
      "aĠcoupleĠ": 7113,
      "priest": 7114,
      "ridg": 7115,
      "virt": 7116,
      "Ġwhatever": 7117,
      "Ġadditional": 7118,
      "uthorityĠ": 7119,
      "ĠfriendsĠ": 7120,
      "iantĠ": 7121,
      "kidsĠ": 7122,
      "eneĠ": 7123,
      "andĠin": 7124,
      "ateĠb": 7125,
      "edĠherĠ": 7126,
      "ingĠoff": 7127,
      "asesĠ": 7128,
      "rook": 7129,
      "rootĠ": 7130,
      "unableĠtoĠ": 7131,
      "entĠtoĠtheĠ": 7132,
      "ehem": 7133,
      "edĠtoĠhim": 7134,
      "ĠaddĠ": 7135,
      "eyesĠandĠ": 7136,
      "ĠhadĠbeen": 7137,
      "itesĠandĠtheĠ": 7138,
      "ciplesĠ": 7139,
      "ethiopianĠ": 7140,
      "ĠrequestĠ": 7141,
      "charact": 7142,
      "medical": 7143,
      "residentsĠ": 7144,
      "footĠ": 7145,
      "pĠ": 7146,
      "uceĠ": 7147,
      "wonderful": 7148,
      "orm": 7149,
      "atal": 7150,
      "omĠ": 7151,
      "itorsĠ": 7152,
      "forcesĠ": 7153,
      "Ġmedic": 7154,
      "ĠandĠwhatĠ": 7155,
      "urder": 7156,
      "Ġfact": 7157,
      "ĠthatĠhisĠ": 7158,
      "ĠyouĠll": 7159,
      "epis": 7160,
      "umĠ": 7161,
      "perhap": 7162,
      "Ġconst": 7163,
      "ĠonĠs": 7164,
      "spect": 7165,
      "allĠisrael": 7166,
      "selvesĠandĠ": 7167,
      "fatherĠsĠ": 7168,
      "straightĠ": 7169,
      "grateful": 7170,
      "edĠisĠ": 7171,
      "edĠaĠs": 7172,
      "ingĠoneĠ": 7173,
      "asĠitĠ": 7174,
      "ĠandĠmyĠ": 7175,
      "irt": 7176,
      "ĠfrontĠ": 7177,
      "Ġrefl": 7178,
      "weĠll": 7179,
      "ĠpercentĠ": 7180,
      "rittenĠ": 7181,
      "Ġstruct": 7182,
      "ĠactivityĠ": 7183,
      "itemsĠ": 7184,
      "etcĠ": 7185,
      "vestĠ": 7186,
      "yd": 7187,
      "oneĠth": 7188,
      "theĠc": 7189,
      "Ġcook": 7190,
      "ingĠroom": 7191,
      "erĠfrom": 7192,
      "andĠthisĠ": 7193,
      "within": 7194,
      "ĠiĠw": 7195,
      "eĠmostĠ": 7196,
      "inĠoneĠ": 7197,
      "ĠyourĠm": 7198,
      "likeĠthatĠ": 7199,
      "eveningĠ": 7200,
      "ĠpeoplesĠ": 7201,
      "esĠtoĠbeĠ": 7202,
      "manyĠpeopleĠ": 7203,
      "possession": 7204,
      "whatĠtheĠsovereignĠlordĠjehovah": 7205,
      "riveĠtoĠ": 7206,
      "Ġcampaign": 7207,
      "cubitsĠ": 7208,
      "gil": 7209,
      "van": 7210,
      "ofĠtheseĠ": 7211,
      "ĠtoĠhimĠ": 7212,
      "Ġcours": 7213,
      "Ġpion": 7214,
      "ersĠwereĠ": 7215,
      "sĠandĠh": 7216,
      "eĠhas": 7217,
      "aĠyear": 7218,
      "assistĠ": 7219,
      "lookĠatĠ": 7220,
      "veryĠmuch": 7221,
      "ribesĠ": 7222,
      "extend": 7223,
      "except": 7224,
      "fullĠofĠ": 7225,
      "violentĠ": 7226,
      "collect": 7227,
      "ĠwhenĠitĠ": 7228,
      "principleĠ": 7229,
      "overeigntyĠ": 7230,
      "eil": 7231,
      "noneĠ": 7232,
      "oi": 7233,
      "sureĠ": 7234,
      "ĠdĠ": 7235,
      "Ġtechnolog": 7236,
      "ĠtheĠonlyĠ": 7237,
      "orĠf": 7238,
      "asĠyou": 7239,
      "irtĠ": 7240,
      "Ġlarg": 7241,
      "eĠshar": 7242,
      "interview": 7243,
      "giveĠthem": 7244,
      "whereĠtheyĠ": 7245,
      "leadership": 7246,
      "ĠhavingĠ": 7247,
      "inspiredĠ": 7248,
      "ingĠthat": 7249,
      "Ġsection": 7250,
      "edĠawayĠ": 7251,
      "statedĠ": 7252,
      "Ġbeautiful": 7253,
      "forĠitĠ": 7254,
      "Ġpolit": 7255,
      "ofĠanĠ": 7256,
      "eĠthou": 7257,
      "plom": 7258,
      "ĠasĠsoonĠasĠ": 7259,
      "Ġcomfort": 7260,
      "Ġexplain": 7261,
      "ephraim": 7262,
      "atonementĠ": 7263,
      "andĠitĠ": 7264,
      "andĠheĠ": 7265,
      "ĠthatĠhasĠ": 7266,
      "inĠtheĠc": 7267,
      "perc": 7268,
      "Ġpropos": 7269,
      "weĠneedĠtoĠ": 7270,
      "edĠinĠa": 7271,
      "mayĠhaveĠ": 7272,
      "becauseĠtheĠ": 7273,
      "ĠthoseĠin": 7274,
      "Ġtransport": 7275,
      "issuedĠ": 7276,
      "eĠhimself": 7277,
      "ustral": 7278,
      "ĠhousesĠ": 7279,
      "lovesĠ": 7280,
      "paymentĠ": 7281,
      "ensureĠthatĠ": 7282,
      "ĠmaybeĠ": 7283,
      "ultural": 7284,
      "leaven": 7285,
      "Ġsett": 7286,
      "abund": 7287,
      "beat": 7288,
      "estyleĠ": 7289,
      "eĠboth": 7290,
      "Ġcombin": 7291,
      "ĠtheĠfull": 7292,
      "years": 7293,
      "Ġcommon": 7294,
      "decisionsĠ": 7295,
      "youĠwillĠbeĠ": 7296,
      "ĠtoĠbeĠs": 7297,
      "partiesĠ": 7298,
      "ĠfridayĠ": 7299,
      "Ġrequi": 7300,
      "Ġmedical": 7301,
      "negoti": 7302,
      "dict": 7303,
      "heĠwouldĠ": 7304,
      "ierĠ": 7305,
      "vess": 7306,
      "wickedĠ": 7307,
      "Ġopen": 7308,
      "sĠforĠ": 7309,
      "enedĠ": 7310,
      "Ġbull": 7311,
      "Ġlic": 7312,
      "ĠinĠtheir": 7313,
      "ofĠtheĠpeopleĠ": 7314,
      "absolutelyĠ": 7315,
      "ĠtoĠthatĠ": 7316,
      "ĠonĠtheĠs": 7317,
      "ĠgodĠisĠ": 7318,
      "ĠyeĠ": 7319,
      "storiesĠ": 7320,
      "christmasĠ": 7321,
      "Ġreleas": 7322,
      "practiceĠ": 7323,
      "gettingĠ": 7324,
      "drawn": 7325,
      "viney": 7326,
      "km": 7327,
      "simpleĠ": 7328,
      "isĠanĠ": 7329,
      "Ġdaniel": 7330,
      "ulatedĠ": 7331,
      "ĠtheĠbloodĠ": 7332,
      "ĠtheĠcitiesĠ": 7333,
      "ĠtheĠtrueĠgodĠ": 7334,
      "ĠandĠt": 7335,
      "downĠ": 7336,
      "becauseĠitĠ": 7337,
      "branch": 7338,
      "followersĠ": 7339,
      "Ġphys": 7340,
      "aĠweek": 7341,
      "areĠsoĠ": 7342,
      "scor": 7343,
      "Ġgoal": 7344,
      "egyptĠandĠ": 7345,
      "archit": 7346,
      "Ġlanguag": 7347,
      "ufficientĠ": 7348,
      "hast": 7349,
      "uls": 7350,
      "ĠtheĠfour": 7351,
      "ĠtheĠlead": 7352,
      "ĠtheĠnorth": 7353,
      "annel": 7354,
      "ieldsĠ": 7355,
      "repent": 7356,
      "Ġdeliver": 7357,
      "otherwis": 7358,
      "ĠtheĠdecision": 7359,
      "medi": 7360,
      "Ġtv": 7361,
      "ĠcutĠ": 7362,
      "ĠbloodĠ": 7363,
      "foref": 7364,
      "Ġmention": 7365,
      "Ġpm": 7366,
      "chap": 7367,
      "ĠtheĠdo": 7368,
      "ĠtheĠdaughterĠ": 7369,
      "ĠtheseĠwer": 7370,
      "ĠspaceĠ": 7371,
      "ĠbeforeĠyou": 7372,
      "surround": 7373,
      "belief": 7374,
      "lessĠthan": 7375,
      "enoughĠtoĠ": 7376,
      "encouragementĠ": 7377,
      "eĠdisc": 7378,
      "Ġappropri": 7379,
      "exerciseĠ": 7380,
      "eiveĠ": 7381,
      "neyĠ": 7382,
      "sitĠ": 7383,
      "ĠtheĠapostleĠpaul": 7384,
      "youĠneedĠtoĠ": 7385,
      "esĠon": 7386,
      "Ġben": 7387,
      "Ġbeth": 7388,
      "ĠofĠtheir": 7389,
      "ĠwithĠitsĠ": 7390,
      "ĠtheĠpat": 7391,
      "assess": 7392,
      "myĠlordĠ": 7393,
      "immig": 7394,
      "jeremiah": 7395,
      "neb": 7396,
      "erp": 7397,
      "arr": 7398,
      "ician": 7399,
      "Ġmet": 7400,
      "ĠmoveĠ": 7401,
      "Ġpal": 7402,
      "Ġpursu": 7403,
      "ofĠjehovahĠsĠ": 7404,
      "useĠof": 7405,
      "entionsĠ": 7406,
      "abel": 7407,
      "plentyĠ": 7408,
      "exic": 7409,
      "goingĠ": 7410,
      "Ġtroubl": 7411,
      "accessĠ": 7412,
      "arknessĠ": 7413,
      "anyoneĠwhoĠ": 7414,
      "ourĠown": 7415,
      "choic": 7416,
      "ĠwomenĠ": 7417,
      "ĠpointĠ": 7418,
      "giftsĠ": 7419,
      "jon": 7420,
      "ying": 7421,
      "orpor": 7422,
      "stoneĠ": 7423,
      "ulousĠ": 7424,
      "advertis": 7425,
      "ĠconsiderĠ": 7426,
      "afric": 7427,
      "formerĠ": 7428,
      "ĠjehovahĠyourĠgodĠ": 7429,
      "prefer": 7430,
      "wouldĠhaveĠ": 7431,
      "Ġvalu": 7432,
      "Ġinternational": 7433,
      "lastĠyear": 7434,
      "Ġprotection": 7435,
      "ĠprivateĠ": 7436,
      "Ġeccl": 7437,
      "Ġwait": 7438,
      "youth": 7439,
      "esĠs": 7440,
      "Ġmusic": 7441,
      "asĠmuch": 7442,
      "Ġgain": 7443,
      "eĠtalk": 7444,
      "iph": 7445,
      "weĠreĠ": 7446,
      "ationĠor": 7447,
      "ĠandĠtheir": 7448,
      "needĠfor": 7449,
      "Ġclub": 7450,
      "ultipleĠ": 7451,
      "Ġrul": 7452,
      "bringĠ": 7453,
      "Ġalso": 7454,
      "happyĠtoĠ": 7455,
      "itĠsĠnotĠ": 7456,
      "outhĠafric": 7457,
      "establishmentĠ": 7458,
      "ĠtruthĠ": 7459,
      "believeĠthatĠ": 7460,
      "interestedĠin": 7461,
      "analysisĠ": 7462,
      "imitateĠ": 7463,
      "firstborn": 7464,
      "ĠtotallyĠ": 7465,
      "potential": 7466,
      "georg": 7467,
      "entertainmentĠ": 7468,
      "mail": 7469,
      "weĠshouldĠ": 7470,
      "eĠsĠ": 7471,
      "inoĠ": 7472,
      "thren": 7473,
      "ateĠc": 7474,
      "atĠa": 7475,
      "Ġlink": 7476,
      "noc": 7477,
      "ĠwithĠmyĠ": 7478,
      "ĠsheĠisĠ": 7479,
      "yearsĠofĠ": 7480,
      "ubjectĠ": 7481,
      "butĠalsoĠ": 7482,
      "ĠwhoĠwereĠ": 7483,
      "Ġtermin": 7484,
      "ĠrelationsĠ": 7485,
      "kindĠof": 7486,
      "ĠhavenĠt": 7487,
      "ifficultĠ": 7488,
      "environmental": 7489,
      "heĠw": 7490,
      "lam": 7491,
      "landsĠ": 7492,
      "volv": 7493,
      "orsĠandĠ": 7494,
      "ĠsimplyĠ": 7495,
      "Ġtob": 7496,
      "upĠtoĠtheĠ": 7497,
      "antastic": 7498,
      "ĠcanĠb": 7499,
      "company": 7500,
      "normal": 7501,
      "closeĠtoĠ": 7502,
      "departmentĠ": 7503,
      "generation": 7504,
      "convention": 7505,
      "Ġfacebook": 7506,
      "estimonyĠ": 7507,
      "ĠneverthelessĠ": 7508,
      "aĠtoĠ": 7509,
      "business": 7510,
      "my": 7511,
      "maleĠ": 7512,
      "nav": 7513,
      "oyĠ": 7514,
      "send": 7515,
      "ĠartĠ": 7516,
      "Ġtend": 7517,
      "yĠwith": 7518,
      "enabl": 7519,
      "hah": 7520,
      "ĠtakenĠ": 7521,
      "ĠplanĠ": 7522,
      "ritain": 7523,
      "aĠmar": 7524,
      "Ġcontribut": 7525,
      "everyĠdayĠ": 7526,
      "ĠiĠalsoĠ": 7527,
      "emberĠofĠtheĠ": 7528,
      "rulesĠ": 7529,
      "iraqi": 7530,
      "ĠcompletelyĠ": 7531,
      "abylonĠ": 7532,
      "ĠthankĠyouĠfor": 7533,
      "youĠmustĠnotĠ": 7534,
      "merciful": 7535,
      "his": 7536,
      "sn": 7537,
      "sĠtheĠc": 7538,
      "speech": 7539,
      "theĠb": 7540,
      "rebel": 7541,
      "Ġwarm": 7542,
      "Ġwebsit": 7543,
      "isĠthereĠ": 7544,
      "shortĠ": 7545,
      "withĠthem": 7546,
      "ĠstatesĠ": 7547,
      "overtyĠ": 7548,
      "overwhelm": 7549,
      "ĠthenĠheĠ": 7550,
      "butĠitĠ": 7551,
      "preadĠ": 7552,
      "standingĠ": 7553,
      "accordingĠto": 7554,
      "designedĠtoĠ": 7555,
      "photograph": 7556,
      "featuresĠ": 7557,
      "eĠminister": 7558,
      "cholar": 7559,
      "eeth": 7560,
      "iĠjustĠ": 7561,
      "ringsĠ": 7562,
      "several": 7563,
      "inyĠ": 7564,
      "Ġmiss": 7565,
      "ĠandĠnow": 7566,
      "eĠthough": 7567,
      "child": 7568,
      "ĠinĠl": 7569,
      "entur": 7570,
      "ultyĠ": 7571,
      "Ġstock": 7572,
      "Ġstrug": 7573,
      "ĠstyleĠ": 7574,
      "eĠdayĠ": 7575,
      "ipsĠ": 7576,
      "ĠtheĠmor": 7577,
      "oteĠ": 7578,
      "oboam": 7579,
      "peopleĠareĠ": 7580,
      "ingĠtoĠdoĠ": 7581,
      "ĠthenĠi": 7582,
      "ĠtheseĠm": 7583,
      "neighb": 7584,
      "ĠtheĠnightĠ": 7585,
      "everyoneĠwhoĠ": 7586,
      "ĠperfectĠ": 7587,
      "Ġtransform": 7588,
      "Ġtransgress": 7589,
      "Ġthanks": 7590,
      "areaĠ": 7591,
      "iĠsayĠ": 7592,
      "enjoyedĠ": 7593,
      "riminal": 7594,
      "application": 7595,
      "ourtyardĠ": 7596,
      "ĠfocusĠ": 7597,
      "satan": 7598,
      "sĠp": 7599,
      "insuranceĠ": 7600,
      "ofĠsh": 7601,
      "andĠall": 7602,
      "Ġwear": 7603,
      "Ġminist": 7604,
      "ĠandĠasĠ": 7605,
      "iron": 7606,
      "ofĠtheĠworldĠ": 7607,
      "ayĠthatĠ": 7608,
      "ĠnightĠ": 7609,
      "aint": 7610,
      "ĠofĠthingsĠ": 7611,
      "edĠtoĠhaveĠ": 7612,
      "godĠhasĠ": 7613,
      "spiredĠ": 7614,
      "alsoĠbeĠ": 7615,
      "ĠtheseĠt": 7616,
      "ingĠsomeĠ": 7617,
      "ĠaĠsmall": 7618,
      "bringsĠ": 7619,
      "whoever": 7620,
      "becomesĠ": 7621,
      "ĠofficeĠ": 7622,
      "ĠcloseĠtoĠ": 7623,
      "willĠnotĠbeĠ": 7624,
      "angerousĠ": 7625,
      "existenceĠ": 7626,
      "Ġcongregation": 7627,
      "nĠ": 7628,
      "enior": 7629,
      "alking": 7630,
      "Ġsurv": 7631,
      "ĠweĠcanĠ": 7632,
      "edĠyouĠ": 7633,
      "stre": 7634,
      "resolveĠ": 7635,
      "beingĠs": 7636,
      "sĠandĠc": 7637,
      "ĠwithĠhim": 7638,
      "ĠonĠyour": 7639,
      "ĠbutĠnow": 7640,
      "ĠtheĠcourtĠ": 7641,
      "ensil": 7642,
      "someĠs": 7643,
      "wereĠw": 7644,
      "Ġappl": 7645,
      "ĠrecordĠ": 7646,
      "Ġfeat": 7647,
      "storm": 7648,
      "gaveĠthem": 7649,
      "godlyĠ": 7650,
      "perfect": 7651,
      "ĠwhileĠtheĠ": 7652,
      "inĠfactĠ": 7653,
      "Ġcolleg": 7654,
      "ynagog": 7655,
      "peterĠ": 7656,
      "cow": 7657,
      "ledĠtoĠ": 7658,
      "inĠthatĠ": 7659,
      "ingĠhow": 7660,
      "ateĠof": 7661,
      "imĠ": 7662,
      "andĠtook": 7663,
      "unk": 7664,
      "existĠ": 7665,
      "notĠyetĠ": 7666,
      "conferenceĠ": 7667,
      "ĠhaveĠyou": 7668,
      "ianceĠ": 7669,
      "makingĠ": 7670,
      "Ġspend": 7671,
      "ingĠbecaus": 7672,
      "olderĠ": 7673,
      "generallyĠ": 7674,
      "ĠthatĠiĠmayĠ": 7675,
      "expertĠ": 7676,
      "ingĠacc": 7677,
      "motiv": 7678,
      "psalm": 7679,
      "eĠph": 7680,
      "orom": 7681,
      "ortion": 7682,
      "enu": 7683,
      "ĠaĠgoodĠ": 7684,
      "youĠin": 7685,
      "eless": 7686,
      "rastruct": 7687,
      "utensil": 7688,
      "Ġproclam": 7689,
      "outĠtoĠ": 7690,
      "eĠofĠthem": 7691,
      "ĠweĠveĠ": 7692,
      "ĠsoĠheĠ": 7693,
      "ĠwhoĠhadĠ": 7694,
      "ĠtwoĠyearsĠ": 7695,
      "districtĠ": 7696,
      "ĠbuildĠ": 7697,
      "ĠhumansĠ": 7698,
      "answersĠ": 7699,
      "ĠconductĠ": 7700,
      "sĠd": 7701,
      "aneĠ": 7702,
      "Ġsuffer": 7703,
      "Ġhall": 7704,
      "Ġhttp": 7705,
      "Ġport": 7706,
      "ĠlistĠ": 7707,
      "riedĠtoĠ": 7708,
      "Ġinj": 7709,
      "abin": 7710,
      "Ġjeremiah": 7711,
      "canad": 7712,
      "ĠlikelyĠ": 7713,
      "selves": 7714,
      "ĠterritoryĠ": 7715,
      "couldĠnotĠ": 7716,
      "storeĠ": 7717,
      "identifyĠ": 7718,
      "ĠoĠjehovah": 7719,
      "especi": 7720,
      "nership": 7721,
      "iĠcanĠt": 7722,
      "laugh": 7723,
      "ooĠ": 7724,
      "sick": 7725,
      "Ġrather": 7726,
      "Ġpath": 7727,
      "abilitiesĠ": 7728,
      "plant": 7729,
      "ĠreportĠ": 7730,
      "beingĠa": 7731,
      "spectsĠ": 7732,
      "atholic": 7733,
      "ĠwhatĠwasĠ": 7734,
      "contract": 7735,
      "edĠinĠhisĠ": 7736,
      "followsĠ": 7737,
      "ĠwhyĠdidĠ": 7738,
      "returnedĠtoĠ": 7739,
      "prophes": 7740,
      "basedĠ": 7741,
      "ĠduringĠtheĠ": 7742,
      "model": 7743,
      "ĠtrustĠin": 7744,
      "oĠmu": 7745,
      "ees": 7746,
      "uth": 7747,
      "erĠc": 7748,
      "rebell": 7749,
      "Ġwel": 7750,
      "edĠanĠ": 7751,
      "itĠtoĠtheĠ": 7752,
      "esĠwereĠ": 7753,
      "esth": 7754,
      "ĠdriveĠ": 7755,
      "ĠdailyĠ": 7756,
      "unit": 7757,
      "ownersĠ": 7758,
      "otic": 7759,
      "ignificantĠ": 7760,
      "ĠtheĠcas": 7761,
      "weĠhadĠ": 7762,
      "itterĠ": 7763,
      "ney": 7764,
      "ĠyouĠreĠ": 7765,
      "armsĠ": 7766,
      "ĠnewsĠ": 7767,
      "requiresĠ": 7768,
      "putĠitĠ": 7769,
      "ĠaĠveryĠ": 7770,
      "rideĠ": 7771,
      "advanc": 7772,
      "ecessaryĠ": 7773,
      "legisl": 7774,
      "ospel": 7775,
      "modern": 7776,
      "prophecyĠ": 7777,
      "flock": 7778,
      "iedĠwith": 7779,
      "march": 7780,
      "onstrat": 7781,
      "stonesĠ": 7782,
      "Ġprec": 7783,
      "roman": 7784,
      "resolv": 7785,
      "proach": 7786,
      "withinĠtheĠ": 7787,
      "Ġjesus": 7788,
      "ĠtheĠfederal": 7789,
      "godĠisĠ": 7790,
      "assur": 7791,
      "assiveĠ": 7792,
      "oldĠandĠ": 7793,
      "accus": 7794,
      "saidĠuntoĠ": 7795,
      "ĠaĠsingleĠ": 7796,
      "afterĠtheĠ": 7797,
      "Ġassist": 7798,
      "ĠrememberĠ": 7799,
      "proclamationĠ": 7800,
      "iĠdidnĠt": 7801,
      "iamet": 7802,
      "irel": 7803,
      "sĠoutĠ": 7804,
      "ings": 7805,
      "ĠheĠd": 7806,
      "itĠtheĠ": 7807,
      "ĠmotherĠ": 7808,
      "Ġpoint": 7809,
      "edĠtogetherĠ": 7810,
      "andĠtoĠtheĠ": 7811,
      "entaryĠ": 7812,
      "Ġgar": 7813,
      "ourĠgodĠ": 7814,
      "Ġrevel": 7815,
      "ĠstoryĠ": 7816,
      "essionĠ": 7817,
      "eĠmoneyĠ": 7818,
      "eĠinformation": 7819,
      "ĠbutĠheĠ": 7820,
      "ĠtheĠcar": 7821,
      "Ġrich": 7822,
      "mentsĠandĠ": 7823,
      "areĠsomeĠ": 7824,
      "youĠhaveĠtoĠ": 7825,
      "eĠtheĠson": 7826,
      "irementĠ": 7827,
      "itiesĠtoĠ": 7828,
      "Ġduring": 7829,
      "prevent": 7830,
      "regulationsĠ": 7831,
      "reflect": 7832,
      "fashion": 7833,
      "ĠsiteĠ": 7834,
      "edĠatĠtheĠ": 7835,
      "ĠlineĠ": 7836,
      "ulat": 7837,
      "agram": 7838,
      "ays": 7839,
      "Ġrequest": 7840,
      "withĠusĠ": 7841,
      "ĠiĠa": 7842,
      "ĠjulyĠ": 7843,
      "Ġchem": 7844,
      "Ġabund": 7845,
      "ĠtheĠwar": 7846,
      "neitherĠ": 7847,
      "ĠaĠyear": 7848,
      "practicesĠ": 7849,
      "ĠprovidesĠ": 7850,
      "ĠofĠcourseĠ": 7851,
      "eachĠother": 7852,
      "resurrect": 7853,
      "ĠbecameĠfatherĠtoĠ": 7854,
      "battleĠ": 7855,
      "jamesĠ": 7856,
      "lower": 7857,
      "succ": 7858,
      "would": 7859,
      "websiteĠ": 7860,
      "ĠtextĠ": 7861,
      "sĠsoĠ": 7862,
      "inheritanceĠ": 7863,
      "alway": 7864,
      "editor": 7865,
      "overĠandĠ": 7866,
      "ifth": 7867,
      "projectsĠ": 7868,
      "Ġshop": 7869,
      "Ġchild": 7870,
      "ibl": 7871,
      "ĠbutĠwhen": 7872,
      "auth": 7873,
      "ĠifĠi": 7874,
      "Ġneither": 7875,
      "runk": 7876,
      "solution": 7877,
      "data": 7878,
      "ofĠtheĠcountryĠ": 7879,
      "aroundĠtheĠworldĠ": 7880,
      "ĠpriestsĠ": 7881,
      "aĠlotĠofĠ": 7882,
      "Ġcolor": 7883,
      "benefitsĠ": 7884,
      "ĠhowĠcanĠw": 7885,
      "ezekiah": 7886,
      "ĠandĠitĠcameĠtoĠpassĠ": 7887,
      "cell": 7888,
      "republic": 7889,
      "elong": 7890,
      "ĠandĠhow": 7891,
      "ĠthatĠwill": 7892,
      "Ġnation": 7893,
      "haveĠt": 7894,
      "edĠtoĠdoĠ": 7895,
      "ĠcommentĠ": 7896,
      "ĠtheĠdoor": 7897,
      "englandĠ": 7898,
      "anything": 7899,
      "interpret": 7900,
      "placeĠtoĠ": 7901,
      "ĠloveĠfor": 7902,
      "ĠthatĠtheyĠmayĠ": 7903,
      "capital": 7904,
      "ĠgodĠsĠwordĠ": 7905,
      "inĠfrontĠ": 7906,
      "stepsĠ": 7907,
      "Ġpromis": 7908,
      "ĠsinceĠtheĠ": 7909,
      "atisfaction": 7910,
      "falseĠ": 7911,
      "lareĠ": 7912,
      "ĠotherĠ": 7913,
      "ĠtheĠrightĠ": 7914,
      "ingĠtheyĠ": 7915,
      "andĠfor": 7916,
      "edĠwhen": 7917,
      "whiteĠ": 7918,
      "Ġfavor": 7919,
      "ersĠfor": 7920,
      "agg": 7921,
      "agic": 7922,
      "ĠforceĠ": 7923,
      "Ġhath": 7924,
      "whoĠhasĠ": 7925,
      "intention": 7926,
      "sĠofĠhisĠ": 7927,
      "iĠalsoĠ": 7928,
      "wouldĠnotĠ": 7929,
      "madeĠtoĠ": 7930,
      "lawsĠ": 7931,
      "Ġprior": 7932,
      "eĠdecid": 7933,
      "campaign": 7934,
      "ĠaddisĠabab": 7935,
      "eah": 7936,
      "mix": 7937,
      "weep": 7938,
      "restr": 7939,
      "ativelyĠ": 7940,
      "Ġseveral": 7941,
      "Ġmany": 7942,
      "usion": 7943,
      "usedĠfor": 7944,
      "addition": 7945,
      "fromĠa": 7946,
      "ĠtheĠfir": 7947,
      "spar": 7948,
      "ĠwhatĠcan": 7949,
      "moreĠs": 7950,
      "Ġbehavi": 7951,
      "ampaign": 7952,
      "ĠwouldĠyou": 7953,
      "reatmentĠ": 7954,
      "mental": 7955,
      "edĠsomeĠ": 7956,
      "Ġaround": 7957,
      "ocketĠ": 7958,
      "corpor": 7959,
      "damag": 7960,
      "Ġpurpos": 7961,
      "ĠammadĠ": 7962,
      "singleĠ": 7963,
      "ofĠher": 7964,
      "ĠtoĠa": 7965,
      "youĠmightĠ": 7966,
      "allĠofĠtheĠ": 7967,
      "rodĠ": 7968,
      "olor": 7969,
      "ĠwhiteĠ": 7970,
      "exualĠ": 7971,
      "ourĠb": 7972,
      "ourĠlordĠ": 7973,
      "project": 7974,
      "eĠdetail": 7975,
      "iber": 7976,
      "ĠkingsĠ": 7977,
      "ĠtheĠtabernacleĠ": 7978,
      "mankindĠ": 7979,
      "ikeĠ": 7980,
      "giveĠyou": 7981,
      "amongĠtheĠ": 7982,
      "ĠmustĠbeĠ": 7983,
      "correct": 7984,
      "ryingĠtoĠ": 7985,
      "weeksĠ": 7986,
      "ĠslaveĠ": 7987,
      "ĠfreeĠtoĠ": 7988,
      "Ġinvestig": 7989,
      "aĠa": 7990,
      "cross": 7991,
      "Ġton": 7992,
      "Ġspr": 7993,
      "ungr": 7994,
      "plantĠ": 7995,
      "ersĠwith": 7996,
      "resist": 7997,
      "commentĠ": 7998,
      "ĠiĠll": 7999,
      "onĠearthĠ": 8000,
      "greaterĠ": 8001,
      "rememberĠ": 8002,
      "eĠofĠyour": 8003,
      "ĠwhoĠhaveĠ": 8004,
      "uggl": 8005,
      "retail": 8006,
      "ĠitĠisĠnotĠ": 8007,
      "ĠwhyĠshouldĠ": 8008,
      "etermineĠ": 8009,
      "ĠthyĠgodĠ": 8010,
      "ĠwhateverĠ": 8011,
      "Ġexperienc": 8012,
      "ymbol": 8013,
      "deĠ": 8014,
      "munic": 8015,
      "atĠtheĠsam": 8016,
      "ĠweĠmustĠ": 8017,
      "isaiah": 8018,
      "ĠandĠp": 8019,
      "eĠtimesĠ": 8020,
      "fromĠmyĠ": 8021,
      "apersĠ": 8022,
      "assum": 8023,
      "ĠbeĠableĠtoĠ": 8024,
      "forĠyearsĠ": 8025,
      "ĠthereĠwer": 8026,
      "ĠthereĠwillĠbeĠ": 8027,
      "guiltyĠ": 8028,
      "Ġperhap": 8029,
      "responseĠ": 8030,
      "ĠbecauseĠtheĠ": 8031,
      "raisedĠ": 8032,
      "graveĠ": 8033,
      "voidĠ": 8034,
      "aĠstrong": 8035,
      "fallen": 8036,
      "character": 8037,
      "obedienceĠ": 8038,
      "october": 8039,
      "ĠtheĠbasisĠ": 8040,
      "iast": 8041,
      "master": 8042,
      "season": 8043,
      "tal": 8044,
      "inĠtoĠ": 8045,
      "oral": 8046,
      "regre": 8047,
      "Ġsit": 8048,
      "stall": 8049,
      "Ġmy": 8050,
      "ingĠi": 8051,
      "yourselvesĠ": 8052,
      "ĠtheĠlatestĠ": 8053,
      "Ġplatform": 8054,
      "madeĠa": 8055,
      "backĠ": 8056,
      "Ġdescrib": 8057,
      "butĠtheĠ": 8058,
      "ĠbuyĠ": 8059,
      "eĠthereĠareĠ": 8060,
      "onderĠ": 8061,
      "Ġcharact": 8062,
      "ĠauthorityĠ": 8063,
      "prehensiveĠ": 8064,
      "drug": 8065,
      "anan": 8066,
      "artsĠ": 8067,
      "altyĠ": 8068,
      "Ġcod": 8069,
      "academ": 8070,
      "eĠthos": 8071,
      "haph": 8072,
      "ago": 8073,
      "Ġrest": 8074,
      "inĠtheĠcityĠ": 8075,
      "obst": 8076,
      "display": 8077,
      "noĠmatter": 8078,
      "anywhereĠ": 8079,
      "ĠnowĠ": 8080,
      "organis": 8081,
      "aĠhalf": 8082,
      "addressĠ": 8083,
      "super": 8084,
      "discern": 8085,
      "educational": 8086,
      "believedĠ": 8087,
      "jewish": 8088,
      "ĠconfidenceĠ": 8089,
      "hardĠtoĠ": 8090,
      "preciousĠ": 8091,
      "ingĠafter": 8092,
      "ĠdemocraticĠrepublic": 8093,
      "caughtĠ": 8094,
      "foughtĠ": 8095,
      "secondĠ": 8096,
      "inĠaccordanceĠwith": 8097,
      "ingĠthingsĠ": 8098,
      "Ġwin": 8099,
      "Ġhell": 8100,
      "ĠtoĠitĠ": 8101,
      "Ġdream": 8102,
      "chari": 8103,
      "Ġindi": 8104,
      "expressĠ": 8105,
      "Ġstopp": 8106,
      "itsĠown": 8107,
      "does": 8108,
      "ypoc": 8109,
      "ĠandĠheĠs": 8110,
      "importanceĠ": 8111,
      "employeeĠ": 8112,
      "ĠthatĠheĠwasĠ": 8113,
      "correctĠ": 8114,
      "ĠguardĠ": 8115,
      "distribut": 8116,
      "ĠamongĠtheĠ": 8117,
      "numberĠofĠ": 8118,
      "Ġinvolv": 8119,
      "negativeĠ": 8120,
      "Ġreveal": 8121,
      "octoberĠ": 8122,
      "siz": 8123,
      "soundĠ": 8124,
      "onentsĠ": 8125,
      "orid": 8126,
      "ĠsideĠ": 8127,
      "Ġwall": 8128,
      "edĠas": 8129,
      "Ġaaron": 8130,
      "Ġborn": 8131,
      "using": 8132,
      "opyĠ": 8133,
      "fromĠall": 8134,
      "inĠtheĠfirstĠ": 8135,
      "artyĠ": 8136,
      "ĠtheĠdeath": 8137,
      "ĠtheĠhand": 8138,
      "disput": 8139,
      "eĠwithĠ": 8140,
      "eĠwithĠhim": 8141,
      "howĠmuch": 8142,
      "loveĠandĠ": 8143,
      "learnedĠ": 8144,
      "ĠtransportĠ": 8145,
      "ĠtogetherĠandĠ": 8146,
      "ridic": 8147,
      "limitedĠ": 8148,
      "privileg": 8149,
      "effortĠtoĠ": 8150,
      "oardĠ": 8151,
      "onentĠ": 8152,
      "atĠtimesĠ": 8153,
      "Ġscript": 8154,
      "youĠfrom": 8155,
      "Ġbirth": 8156,
      "ĠinĠwhatĠ": 8157,
      "eĠteach": 8158,
      "exhib": 8159,
      "ĠtheyĠshouldĠ": 8160,
      "updat": 8161,
      "ĠwithĠall": 8162,
      "doĠitĠ": 8163,
      "doĠthisĠ": 8164,
      "edĠinĠthisĠ": 8165,
      "eĠofĠtheĠt": 8166,
      "ĠtheĠgener": 8167,
      "Ġrecord": 8168,
      "structionsĠ": 8169,
      "ĠthanksĠtoĠ": 8170,
      "altarĠ": 8171,
      "eĠworth": 8172,
      "lowlyĠ": 8173,
      "ĠthereĠareĠmanyĠ": 8174,
      "refusedĠtoĠ": 8175,
      "ĠtriedĠtoĠ": 8176,
      "explainedĠ": 8177,
      "ĠtheĠgodĠofĠisrael": 8178,
      "egyptian": 8179,
      "album": 8180,
      "ped": 8181,
      "Ġcorn": 8182,
      "Ġbath": 8183,
      "andĠtwoĠ": 8184,
      "oliveĠ": 8185,
      "rast": 8186,
      "ĠgivesĠ": 8187,
      "abric": 8188,
      "ayingĠ": 8189,
      "eĠhom": 8190,
      "ĠbutĠasĠ": 8191,
      "orĠother": 8192,
      "ĠtheĠway": 8193,
      "ĠtheĠwatersĠ": 8194,
      "notĠtheĠ": 8195,
      "ĠifĠweĠ": 8196,
      "sĠsaidĠ": 8197,
      "Ġpris": 8198,
      "Ġruss": 8199,
      "ashesĠ": 8200,
      "backĠtoĠ": 8201,
      "norm": 8202,
      "aximum": 8203,
      "Ġarea": 8204,
      "ofĠcours": 8205,
      "wifeĠandĠ": 8206,
      "advic": 8207,
      "ĠandĠmosesĠ": 8208,
      "ĠintoĠtheĠ": 8209,
      "ĠbasedĠon": 8210,
      "eĠdesign": 8211,
      "ĠpolicyĠ": 8212,
      "registration": 8213,
      "civil": 8214,
      "gall": 8215,
      "gard": 8216,
      "lem": 8217,
      "ux": 8218,
      "ugh": 8219,
      "ofĠthoseĠ": 8220,
      "atĠthisĠ": 8221,
      "Ġwould": 8222,
      "esĠandĠtheĠ": 8223,
      "esau": 8224,
      "Ġmaintain": 8225,
      "rak": 8226,
      "ĠitĠwas": 8227,
      "eĠawayĠ": 8228,
      "ĠtimeĠin": 8229,
      "Ġtruck": 8230,
      "noĠmoreĠ": 8231,
      "ryĠandĠ": 8232,
      "ĠatĠall": 8233,
      "compassion": 8234,
      "ĠworkersĠ": 8235,
      "guyĠ": 8236,
      "ĠhelpĠ": 8237,
      "happinessĠ": 8238,
      "ĠinĠanyĠ": 8239,
      "ĠcalledĠ": 8240,
      "Ġjudah": 8241,
      "ĠdefinitelyĠ": 8242,
      "guidanceĠ": 8243,
      "eĠbecauseĠ": 8244,
      "baptiz": 8245,
      "broken": 8246,
      "eĠbelieveĠ": 8247,
      "ĠtheĠlevitesĠ": 8248,
      "rack": 8249,
      "alĠd": 8250,
      "ingĠwill": 8251,
      "ilenceĠ": 8252,
      "Ġcrit": 8253,
      "ĠbadĠ": 8254,
      "ounceĠ": 8255,
      "Ġstrik": 8256,
      "ĠasĠanĠ": 8257,
      "ĠtheĠco": 8258,
      "ĠtheĠcouncil": 8259,
      "ĠhowĠdoĠ": 8260,
      "noĠlonger": 8261,
      "ĠclearlyĠ": 8262,
      "ĠcontractĠ": 8263,
      "ĠworksĠ": 8264,
      "ĠtheĠnation": 8265,
      "standard": 8266,
      "ĠnoĠoneĠ": 8267,
      "ĠtheĠgovern": 8268,
      "roomsĠ": 8269,
      "Ġindeed": 8270,
      "ĠtheĠhouseĠ": 8271,
      "opperĠ": 8272,
      "confidenceĠ": 8273,
      "ĠtheĠfirstĠtimeĠ": 8274,
      "Ġkorea": 8275,
      "hotel": 8276,
      "letter": 8277,
      "rent": 8278,
      "sinĠ": 8279,
      "success": 8280,
      "eĠg": 8281,
      "oneĠwill": 8282,
      "ici": 8283,
      "esomeĠ": 8284,
      "itĠwith": 8285,
      "ureĠin": 8286,
      "Ġfund": 8287,
      "untĠ": 8288,
      "ĠtoĠthoseĠ": 8289,
      "sĠandĠb": 8290,
      "ĠwithĠm": 8291,
      "onĠisĠ": 8292,
      "Ġconstruction": 8293,
      "ĠofĠd": 8294,
      "ĠbutĠitĠ": 8295,
      "ĠtheseĠd": 8296,
      "ĠriseĠ": 8297,
      "innov": 8298,
      "raisedĠup": 8299,
      "ĠaĠcoupleĠ": 8300,
      "committe": 8301,
      "ĠprophetĠ": 8302,
      "ĠpaymentĠ": 8303,
      "vehicleĠ": 8304,
      "dateĠ": 8305,
      "gust": 8306,
      "histor": 8307,
      "iĠh": 8308,
      "iĠsaidĠ": 8309,
      "pok": 8310,
      "rick": 8311,
      "yĠtoĠtheĠ": 8312,
      "ĠtheĠcompanyĠ": 8313,
      "ofĠthemĠ": 8314,
      "ĠaĠperson": 8315,
      "forĠh": 8316,
      "ĠfireĠ": 8317,
      "ĠthatĠiĠam": 8318,
      "osoph": 8319,
      "Ġyouth": 8320,
      "fromĠm": 8321,
      "ĠthemĠfor": 8322,
      "ĠitĠwill": 8323,
      "googleĠ": 8324,
      "izz": 8325,
      "Ġamb": 8326,
      "ĠtheĠbibleĠsaysĠ": 8327,
      "facebook": 8328,
      "arriveĠ": 8329,
      "ĠthatĠtheyĠareĠ": 8330,
      "ĠiĠdĠ": 8331,
      "umption": 8332,
      "iĠwas": 8333,
      "ĠcorinthiansĠ": 8334,
      "breath": 8335,
      "everythingĠthatĠ": 8336,
      "mok": 8337,
      "maj": 8338,
      "nak": 8339,
      "paper": 8340,
      "teach": 8341,
      "zeĠ": 8342,
      "ĠheĠc": 8343,
      "ilm": 8344,
      "elĠandĠ": 8345,
      "chain": 8346,
      "Ġla": 8347,
      "rial": 8348,
      "agon": 8349,
      "anĠimportantĠ": 8350,
      "oneĠor": 8351,
      "away": 8352,
      "forĠeach": 8353,
      "creativeĠ": 8354,
      "sĠthatĠwereĠ": 8355,
      "helpedĠ": 8356,
      "ĠlikeĠtoĠ": 8357,
      "ĠprayerĠ": 8358,
      "earlierĠ": 8359,
      "immoralityĠ": 8360,
      "fordableĠ": 8361,
      "alternativeĠ": 8362,
      "ĠonĠtheĠotherĠhandĠ": 8363,
      "susp": 8364,
      "erĠwasĠ": 8365,
      "Ġburn": 8366,
      "icial": 8367,
      "Ġmain": 8368,
      "riend": 8369,
      "entiallyĠ": 8370,
      "exil": 8371,
      "ĠstreetĠ": 8372,
      "formedĠ": 8373,
      "accountsĠ": 8374,
      "Ġmorn": 8375,
      "previouslyĠ": 8376,
      "ateral": 8377,
      "aithful": 8378,
      "rightĠnow": 8379,
      "questionĠ": 8380,
      "anĠind": 8381,
      "areĠsom": 8382,
      "learnĠfrom": 8383,
      "ĠthankĠyouĠ": 8384,
      "Ġremov": 8385,
      "affectĠ": 8386,
      "groupsĠ": 8387,
      "imprisonmentĠ": 8388,
      "whatĠtheĠsovereignĠlordĠjehovahĠsaysĠ": 8389,
      "ĠdemocraticĠrepublicĠofĠ": 8390,
      "labor": 8391,
      "mind": 8392,
      "inspir": 8393,
      "revel": 8394,
      "esit": 8395,
      "allĠyour": 8396,
      "ropp": 8397,
      "eĠthre": 8398,
      "entire": 8399,
      "etyĠandĠ": 8400,
      "oneĠofĠthem": 8401,
      "ĠtheĠsoundĠ": 8402,
      "presentsĠ": 8403,
      "austr": 8404,
      "flex": 8405,
      "ĠdoesnĠt": 8406,
      "ĠtoĠdeathĠ": 8407,
      "implementĠ": 8408,
      "lastĠweek": 8409,
      "imagineĠ": 8410,
      "ĠtheĠpriestsĠ": 8411,
      "lightlyĠ": 8412,
      "victoryĠ": 8413,
      "occurredĠ": 8414,
      "mot": 8415,
      "nin": 8416,
      "nurs": 8417,
      "risĠ": 8418,
      "ofĠhim": 8419,
      "Ġsu": 8420,
      "Ġsim": 8421,
      "ĠwoodĠ": 8422,
      "Ġcell": 8423,
      "aclesĠ": 8424,
      "ama": 8425,
      "amend": 8426,
      "Ġdet": 8427,
      "withĠthisĠ": 8428,
      "yourĠservantĠ": 8429,
      "ĠtheĠmanĠ": 8430,
      "ĠonĠmyĠ": 8431,
      "spread": 8432,
      "spakeĠ": 8433,
      "eĠoften": 8434,
      "workingĠ": 8435,
      "ĠbeingĠa": 8436,
      "manufactur": 8437,
      "lifeĠin": 8438,
      "iĠwillĠnotĠ": 8439,
      "ifficult": 8440,
      "administrativeĠ": 8441,
      "oftenĠ": 8442,
      "salv": 8443,
      "licenseĠ": 8444,
      "writtenĠin": 8445,
      "ĠtheĠpresidentĠ": 8446,
      "beginningĠ": 8447,
      "obedientĠ": 8448,
      "ĠaddisĠz": 8449,
      "anxietyĠ": 8450,
      "alcohol": 8451,
      "cut": 8452,
      "eut": 8453,
      "host": 8454,
      "ald": 8455,
      "ilentĠ": 8456,
      "Ġpen": 8457,
      "allyĠt": 8458,
      "Ġge": 8459,
      "sheĠisĠ": 8460,
      "ĠtheĠseven": 8461,
      "loy": 8462,
      "ĠyourselvesĠ": 8463,
      "ĠitĠis": 8464,
      "ization": 8465,
      "alĠor": 8466,
      "understoodĠ": 8467,
      "ĠmakingĠ": 8468,
      "goodĠandĠ": 8469,
      "edĠforĠtheĠ": 8470,
      "location": 8471,
      "earthlyĠ": 8472,
      "innersĠ": 8473,
      "Ġanim": 8474,
      "ĠsayĠtoĠyou": 8475,
      "pectsĠ": 8476,
      "ircuitĠ": 8477,
      "needĠtoĠbeĠ": 8478,
      "handleĠ": 8479,
      "releasedĠ": 8480,
      "ĠweeksĠ": 8481,
      "orsesĠ": 8482,
      "challengesĠ": 8483,
      "worshipp": 8484,
      "aliforn": 8485,
      "emotional": 8486,
      "Ġcommitte": 8487,
      "enhanc": 8488,
      "mightyĠ": 8489,
      "pleĠ": 8490,
      "top": 8491,
      "onĠtoĠ": 8492,
      "ingsĠtoĠ": 8493,
      "Ġwo": 8494,
      "iteĠs": 8495,
      "Ġcur": 8496,
      "forĠtheĠf": 8497,
      "Ġmom": 8498,
      "itĠwouldĠbeĠ": 8499,
      "ovi": 8500,
      "ifĠw": 8501,
      "Ġreli": 8502,
      "properĠ": 8503,
      "yourĠgodĠ": 8504,
      "inĠtheĠfieldĠ": 8505,
      "jehovahĠfor": 8506,
      "hisĠpeopleĠ": 8507,
      "ĠitĠs": 8508,
      "ipal": 8509,
      "ĠweĠhadĠ": 8510,
      "ĠweĠreĠ": 8511,
      "remark": 8512,
      "helpful": 8513,
      "ĠagoĠ": 8514,
      "ĠrecentlyĠ": 8515,
      "Ġremind": 8516,
      "discussĠ": 8517,
      "central": 8518,
      "Ġbuy": 8519,
      "ĠoĠmon": 8520,
      "ĠhumanĠ": 8521,
      "ympt": 8522,
      "ĠbehindĠ": 8523,
      "ĠchristĠjesusĠ": 8524,
      "relief": 8525,
      "neck": 8526,
      "Ġob": 8527,
      "ĠtuesdayĠ": 8528,
      "inesĠandĠ": 8529,
      "anish": 8530,
      "onĠtheĠt": 8531,
      "thank": 8532,
      "Ġsha": 8533,
      "Ġwarn": 8534,
      "ilig": 8535,
      "forb": 8536,
      "ĠmilitaryĠ": 8537,
      "iseĠandĠ": 8538,
      "Ġlog": 8539,
      "ulationsĠ": 8540,
      "platform": 8541,
      "ĠjamesĠ": 8542,
      "eĠdat": 8543,
      "ĠtheĠbodyĠ": 8544,
      "ĠtheĠfound": 8545,
      "ĠhowĠlong": 8546,
      "eĠwillingĠtoĠ": 8547,
      "butĠi": 8548,
      "ĠthereĠwillĠb": 8549,
      "aĠmanĠ": 8550,
      "ĠsomeĠc": 8551,
      "placeĠandĠ": 8552,
      "exception": 8553,
      "Ġtransf": 8554,
      "amongĠyou": 8555,
      "livingĠin": 8556,
      "iversityĠ": 8557,
      "Ġwhere": 8558,
      "Ġbox": 8559,
      "forcementĠ": 8560,
      "familiar": 8561,
      "ps": 8562,
      "Ġro": 8563,
      "ĠthineĠ": 8564,
      "inch": 8565,
      "Ġsel": 8566,
      "ĠwineĠ": 8567,
      "Ġhi": 8568,
      "Ġhor": 8569,
      "Ġhonor": 8570,
      "Ġcivil": 8571,
      "ĠmeĠtoĠ": 8572,
      "amor": 8573,
      "Ġland": 8574,
      "Ġleav": 8575,
      "raid": 8576,
      "upĠfor": 8577,
      "upĠfrom": 8578,
      "ehindĠ": 8579,
      "bek": 8580,
      "Ġjeh": 8581,
      "ĠofĠt": 8582,
      "Ġhaz": 8583,
      "ĠasĠyou": 8584,
      "ĠtheĠback": 8585,
      "himĠtoĠ": 8586,
      "ĠtheĠpre": 8587,
      "likeĠm": 8588,
      "butĠnotĠ": 8589,
      "ĠmakeĠa": 8590,
      "earthĠandĠ": 8591,
      "aĠreal": 8592,
      "smok": 8593,
      "hopeĠ": 8594,
      "eĠsureĠtoĠ": 8595,
      "ĠthereĠsĠnoĠ": 8596,
      "quarter": 8597,
      "couldnĠt": 8598,
      "currentĠ": 8599,
      "hotĠ": 8600,
      "mast": 8601,
      "prem": 8602,
      "orĠofĠ": 8603,
      "think": 8604,
      "elementsĠ": 8605,
      "foret": 8606,
      "icsĠandĠ": 8607,
      "Ġpress": 8608,
      "ingĠand": 8609,
      "across": 8610,
      "edĠtheĠl": 8611,
      "ĠtoĠtell": 8612,
      "withĠour": 8613,
      "Ġfort": 8614,
      "ĠtheĠdem": 8615,
      "contact": 8616,
      "Ġadvertis": 8617,
      "Ġclin": 8618,
      "madeĠitĠ": 8619,
      "riversĠ": 8620,
      "carefullyĠ": 8621,
      "becauseĠyou": 8622,
      "aĠcertain": 8623,
      "showsĠ": 8624,
      "allowedĠtoĠ": 8625,
      "operationsĠ": 8626,
      "Ġsuper": 8627,
      "continuedĠ": 8628,
      "Ġoffspr": 8629,
      "Ġtrial": 8630,
      "heĠsaid": 8631,
      "creditĠ": 8632,
      "ternal": 8633,
      "accessĠtoĠ": 8634,
      "effortsĠtoĠ": 8635,
      "egyptiansĠ": 8636,
      "ersĠandĠsistersĠ": 8637,
      "ymptom": 8638,
      "length": 8639,
      "praiseĠ": 8640,
      "wast": 8641,
      "oneĠwith": 8642,
      "ĠtheĠyoung": 8643,
      "ĠwitnessĠ": 8644,
      "asĠandĠ": 8645,
      "ureĠof": 8646,
      "eĠthyĠ": 8647,
      "ĠyouĠmightĠ": 8648,
      "upidĠ": 8649,
      "iverĠ": 8650,
      "shotĠ": 8651,
      "oneĠdayĠ": 8652,
      "ewiseĠ": 8653,
      "eĠdist": 8654,
      "eĠdef": 8655,
      "ĠasĠweĠ": 8656,
      "ĠthereĠandĠ": 8657,
      "alĠofĠtheĠ": 8658,
      "noteĠ": 8659,
      "respondĠ": 8660,
      "reduceĠ": 8661,
      "ĠcarryĠ": 8662,
      "isĠtheĠoneĠwhoĠ": 8663,
      "oilĠ": 8664,
      "healthyĠ": 8665,
      "inĠtheĠmiddleĠ": 8666,
      "languagesĠ": 8667,
      "betterĠthan": 8668,
      "eĠmanag": 8669,
      "degre": 8670,
      "hill": 8671,
      "Ġthorough": 8672,
      "eredĠ": 8673,
      "arĠandĠ": 8674,
      "andĠisĠ": 8675,
      "youĠdoĠnotĠ": 8676,
      "irdsĠ": 8677,
      "whatĠtheĠ": 8678,
      "ationĠthatĠ": 8679,
      "osition": 8680,
      "Ġnext": 8681,
      "ĠtheyĠcan": 8682,
      "withĠtheir": 8683,
      "Ġjah": 8684,
      "fromĠgodĠ": 8685,
      "loom": 8686,
      "queen": 8687,
      "andĠtheĠb": 8688,
      "ĠtheĠmeet": 8689,
      "ĠhowĠdoesĠ": 8690,
      "icken": 8691,
      "eĠwillĠ": 8692,
      "aĠdes": 8693,
      "ĠbecauseĠof": 8694,
      "ĠremoveĠ": 8695,
      "Ġflesh": 8696,
      "ĠchangeĠ": 8697,
      "ĠhadĠtoĠ": 8698,
      "rejoiceĠ": 8699,
      "ĠjuneĠ": 8700,
      "ĠtheĠwordĠofĠjehovah": 8701,
      "joshua": 8702,
      "auc": 8703,
      "kor": 8704,
      "psĠ": 8705,
      "informationĠ": 8706,
      "recommendĠ": 8707,
      "Ġweak": 8708,
      "eleph": 8709,
      "asĠaĠresultĠ": 8710,
      "beastĠ": 8711,
      "ongo": 8712,
      "endeav": 8713,
      "ĠofĠitĠ": 8714,
      "ĠwhatĠis": 8715,
      "phereĠ": 8716,
      "attribut": 8717,
      "ĠtheĠwoman": 8718,
      "ageĠofĠtheĠ": 8719,
      "anĠint": 8720,
      "embership": 8721,
      "slaveĠ": 8722,
      "choiceĠ": 8723,
      "encourageĠ": 8724,
      "ĠpartĠofĠtheĠ": 8725,
      "individualsĠ": 8726,
      "competition": 8727,
      "effectivelyĠ": 8728,
      "struggleĠ": 8729,
      "bc": 8730,
      "callĠ": 8731,
      "hat": 8732,
      "kir": 8733,
      "mil": 8734,
      "pouredĠ": 8735,
      "ĠuntoĠ": 8736,
      "Ġtear": 8737,
      "insid": 8738,
      "initi": 8739,
      "erial": 8740,
      "ofĠtimeĠ": 8741,
      "ingĠmoreĠ": 8742,
      "Ġwrong": 8743,
      "Ġprep": 8744,
      "Ġputt": 8745,
      "illegal": 8746,
      "Ġstick": 8747,
      "ĠtheĠbattleĠ": 8748,
      "ubject": 8749,
      "ĠbutĠwhatĠ": 8750,
      "ĠtheĠcor": 8751,
      "Ġexecut": 8752,
      "lookedĠ": 8753,
      "ĠmanyĠpeopleĠ": 8754,
      "ingĠherĠ": 8755,
      "enterpriseĠ": 8756,
      "hableĠ": 8757,
      "friendship": 8758,
      "ĠsaidĠtoĠhim": 8759,
      "inĠtheĠwildernessĠ": 8760,
      "baptizedĠ": 8761,
      "ĠthisĠisĠwhatĠjehovahĠsaysĠ": 8762,
      "ĠaddisĠzemen": 8763,
      "aĠhasĠ": 8764,
      "flyĠ": 8765,
      "major": 8766,
      "vital": 8767,
      "Ġsatan": 8768,
      "Ġwash": 8769,
      "itsĠandĠ": 8770,
      "Ġbill": 8771,
      "ĠbeĠa": 8772,
      "Ġmill": 8773,
      "ofĠre": 8774,
      "ĠandĠnotĠ": 8775,
      "ĠinĠc": 8776,
      "ĠyouĠknow": 8777,
      "raĠim": 8778,
      "oneĠanother": 8779,
      "Ġforc": 8780,
      "Ġwithin": 8781,
      "inĠeveryĠ": 8782,
      "pharis": 8783,
      "contribution": 8784,
      "eĠtheyĠwereĠ": 8785,
      "guiltĠ": 8786,
      "ĠthoseĠw": 8787,
      "boyĠ": 8788,
      "explan": 8789,
      "ĠthatĠheĠmayĠ": 8790,
      "Ġgrant": 8791,
      "ofĠtheĠtribeĠ": 8792,
      "itualĠ": 8793,
      "asĠwellĠas": 8794,
      "saidĠtoĠthem": 8795,
      "ĠstatementĠ": 8796,
      "unitedĠnationsĠ": 8797,
      "reflectĠ": 8798,
      "ĠbeganĠtoĠ": 8799,
      "Ġexpect": 8800,
      "ĠpeterĠ": 8801,
      "cribeĠ": 8802,
      "hang": 8803,
      "jectiveĠ": 8804,
      "jump": 8805,
      "milesĠ": 8806,
      "Ġtempt": 8807,
      "outsĠ": 8808,
      "Ġbrok": 8809,
      "Ġmatt": 8810,
      "alleg": 8811,
      "Ġflow": 8812,
      "Ġgrad": 8813,
      "ĠtoĠteach": 8814,
      "etĠandĠ": 8815,
      "eĠheĠisĠ": 8816,
      "Ġchari": 8817,
      "egreeĠ": 8818,
      "ousĠregion": 8819,
      "displayĠ": 8820,
      "ĠmakeĠtheĠ": 8821,
      "iĠamĠnotĠ": 8822,
      "Ġregister": 8823,
      "aroundĠtheĠ": 8824,
      "ĠleadersĠ": 8825,
      "salom": 8826,
      "Ġmodern": 8827,
      "lux": 8828,
      "countriesĠ": 8829,
      "io": 8830,
      "kiĠah": 8831,
      "lingĠ": 8832,
      "natureĠ": 8833,
      "sĠbyĠ": 8834,
      "ofĠwhatĠ": 8835,
      "relyĠ": 8836,
      "ĠwonĠt": 8837,
      "esĠthrough": 8838,
      "edsĠ": 8839,
      "amuel": 8840,
      "Ġlow": 8841,
      "oversĠ": 8842,
      "etern": 8843,
      "fromĠour": 8844,
      "umn": 8845,
      "apr": 8846,
      "ĠwillĠyou": 8847,
      "ellĠ": 8848,
      "newĠworldĠ": 8849,
      "relationsĠ": 8850,
      "aĠfull": 8851,
      "ĠcommandĠ": 8852,
      "standardsĠ": 8853,
      "edĠmosesĠ": 8854,
      "Ġadvoc": 8855,
      "ĠnamedĠ": 8856,
      "eddingĠ": 8857,
      "boy": 8858,
      "mid": 8859,
      "upl": 8860,
      "Ġtrem": 8861,
      "orĠsĠ": 8862,
      "ĠweĠdoĠ": 8863,
      "elech": 8864,
      "Ġmyself": 8865,
      "ingĠjehovah": 8866,
      "accommod": 8867,
      "ureĠtheĠ": 8868,
      "eĠse": 8869,
      "umanĠ": 8870,
      "Ġstretch": 8871,
      "aps": 8872,
      "Ġchos": 8873,
      "goalsĠ": 8874,
      "Ġtaking": 8875,
      "embrac": 8876,
      "ĠnotĠonlyĠ": 8877,
      "ĠmondayĠ": 8878,
      "iahĠ": 8879,
      "ofĠtheĠtrueĠgodĠ": 8880,
      "raction": 8881,
      "ergyĠ": 8882,
      "devot": 8883,
      "officialsĠ": 8884,
      "fluenceĠ": 8885,
      "Ġtopic": 8886,
      "northern": 8887,
      "connection": 8888,
      "medit": 8889,
      "ĠcontinueĠ": 8890,
      "aĠtheĠ": 8891,
      "aanĠ": 8892,
      "courag": 8893,
      "niceĠ": 8894,
      "sitt": 8895,
      "inentĠ": 8896,
      "Ġwitness": 8897,
      "edĠour": 8898,
      "Ġhab": 8899,
      "ĠmattersĠ": 8900,
      "ĠforĠmyĠ": 8901,
      "beast": 8902,
      "conqu": 8903,
      "toĠbeĠ": 8904,
      "overcom": 8905,
      "whoĠhadĠ": 8906,
      "hisĠson": 8907,
      "orĠor": 8908,
      "ĠtheĠday": 8909,
      "ĠwhenĠiĠwasĠ": 8910,
      "contractĠ": 8911,
      "Ġorg": 8912,
      "ĠcommentsĠ": 8913,
      "ĠtheĠnational": 8914,
      "worldĠsĠ": 8915,
      "edĠfromĠtheĠ": 8916,
      "Ġbranch": 8917,
      "ĠsuchĠasĠ": 8918,
      "judgesĠ": 8919,
      "refus": 8920,
      "ĠgenerationsĠ": 8921,
      "appointmentĠ": 8922,
      "credibleĠ": 8923,
      "ĠcompleteĠ": 8924,
      "fortunatelyĠ": 8925,
      "ĠtheĠscripturesĠ": 8926,
      "sak": 8927,
      "ynam": 8928,
      "sĠusĠ": 8929,
      "edĠand": 8930,
      "edĠpeopleĠ": 8931,
      "ĠcovenantĠ": 8932,
      "isol": 8933,
      "imperfectĠ": 8934,
      "asĠpossibleĠ": 8935,
      "ĠandĠa": 8936,
      "Ġfellow": 8937,
      "Ġinc": 8938,
      "uprightĠ": 8939,
      "ĠforĠi": 8940,
      "ĠthemĠwith": 8941,
      "peedĠ": 8942,
      "ĠtheĠfather": 8943,
      "ĠonlineĠ": 8944,
      "eĠwithĠyou": 8945,
      "blow": 8946,
      "Ġprint": 8947,
      "ulti": 8948,
      "ĠmakeĠitĠ": 8949,
      "ĠherĠhusbandĠ": 8950,
      "facilit": 8951,
      "youĠwillĠnotĠ": 8952,
      "scap": 8953,
      "willĠbecom": 8954,
      "ĠdecisionsĠ": 8955,
      "grav": 8956,
      "waysĠtoĠ": 8957,
      "almightyĠ": 8958,
      "ĠdoĠnotĠbeĠ": 8959,
      "autom": 8960,
      "ĠchristmasĠ": 8961,
      "ĠtheĠpriest": 8962,
      "Ġjoin": 8963,
      "eĠafterĠ": 8964,
      "epherd": 8965,
      "ĠrelationshipĠwith": 8966,
      "ĠalongĠwith": 8967,
      "difficultĠtoĠ": 8968,
      "aiĠ": 8969,
      "kept": 8970,
      "skill": 8971,
      "window": 8972,
      "onesĠandĠ": 8973,
      "ateĠw": 8974,
      "omanĠ": 8975,
      "forum": 8976,
      "acrossĠtheĠ": 8977,
      "ĠandĠisĠ": 8978,
      "oldiersĠ": 8979,
      "ĠlessĠ": 8980,
      "entalĠ": 8981,
      "Ġstuff": 8982,
      "artistĠ": 8983,
      "ĠtheĠbroth": 8984,
      "ĠtheĠbottom": 8985,
      "ĠthenĠjehovah": 8986,
      "Ġexpress": 8987,
      "offeringĠ": 8988,
      "learnĠmoreĠ": 8989,
      "possiblyĠ": 8990,
      "statusĠ": 8991,
      "demonstr": 8992,
      "Ġconsist": 8993,
      "createĠa": 8994,
      "valuesĠ": 8995,
      "responsibleĠfor": 8996,
      "ecommunic": 8997,
      "europeĠ": 8998,
      "influenceĠ": 8999,
      "consequencesĠ": 9000,
      "inĠjehovahĠsĠ": 9001,
      "Ġpag": 9002,
      "Ġfarm": 9003,
      "ifĠyour": 9004,
[...]
