{
  "version": "1.0",
  "truncation": null,
  "padding": null,
  "added_tokens": [
    {
      "id": 0,
      "content": "[UNK]",
      "single_word": false,
      "lstrip": false,
      "rstrip": false,
      "normalized": false,
      "special": true
    },
    {
      "id": 1,
      "content": "[SOS]",
      "single_word": false,
      "lstrip": false,
      "rstrip": false,
      "normalized": false,
      "special": true
    },
    {
      "id": 2,
      "content": "[EOS]",
      "single_word": false,
      "lstrip": false,
      "rstrip": false,
      "normalized": false,
      "special": true
    },
    {
      "id": 3,
      "content": "[PAD]",
      "single_word": false,
      "lstrip": false,
      "rstrip": false,
      "normalized": false,
      "special": true
    }
  ],
  "normalizer": null,
  "pre_tokenizer": {
    "type": "ByteLevel",
    "add_prefix_space": true,
    "trim_offsets": true,
    "use_regex": true
  },
  "post_processor": null,
  "decoder": null,
  "model": {
    "type": "BPE",
    "dropout": null,
    "unk_token": "[UNK]",
    "continuing_subword_prefix": null,
    "end_of_word_suffix": null,
    "fuse_unk": false,
    "byte_fallback": false,
    "vocab": {
      "[UNK]": 0,
      "[SOS]": 1,
      "[EOS]": 2,
      "[PAD]": 3,
      "¡": 4,
      "¢": 5,
      "£": 6,
      "¤": 7,
      "¥": 8,
      "¦": 9,
      "§": 10,
      "¨": 11,
      "©": 12,
      "ª": 13,
      "«": 14,
      "¬": 15,
      "®": 16,
      "¯": 17,
      "°": 18,
      "±": 19,
      "²": 20,
      "³": 21,
      "´": 22,
      "µ": 23,
      "¶": 24,
      "·": 25,
      "¸": 26,
      "¹": 27,
      "º": 28,
      "»": 29,
      "¼": 30,
      "½": 31,
      "¾": 32,
      "¿": 33,
      "á": 34,
      "Ġ": 35,
      "Ģ": 36,
      "ģ": 37,
      "Ĥ": 38,
      "ĥ": 39,
      "Ħ": 40,
      "ħ": 41,
      "Ĩ": 42,
      "ĩ": 43,
      "Ī": 44,
      "ī": 45,
      "Ĭ": 46,
      "ĭ": 47,
      "Į": 48,
      "į": 49,
      "İ": 50,
      "ı": 51,
      "Ĳ": 52,
      "ĳ": 53,
      "Ĵ": 54,
      "ĵ": 55,
      "Ķ": 56,
      "ķ": 57,
      "ĸ": 58,
      "Ĺ": 59,
      "ĺ": 60,
      "Ļ": 61,
      "ļ": 62,
      "Ľ": 63,
      "ľ": 64,
      "Ŀ": 65,
      "ŀ": 66,
      "Ł": 67,
      "ł": 68,
      "Ń": 69,
      "áĪ": 70,
      "áĬ": 71,
      "áī": 72,
      "áĭ": 73,
      "áĮ": 74,
      "ĠáĬ": 75,
      "Ġáĭ": 76,
      "ĠáĪ": 77,
      "áĬķ": 78,
      "Ġáī": 79,
      "áīµ": 80,
      "Ġáĭ¨": 81,
      "ĠáĬ¥": 82,
      "áį": 83,
      "áĪŃ": 84,
      "áĪį": 85,
      "áĭį": 86,
      "áĪµ": 87,
      "Ġáīł": 88,
      "áĪĿ": 89,
      "áī½": 90,
      "ĠáĬł": 91,
      "áĪĪ": 92,
      "áĬĵ": 93,
      "ĠáĮ": 94,
      "áĪĺ": 95,
      "áĭŃ": 96,
      "áī°": 97,
      "áĬķáĭ": 98,
      "áĭ«": 99,
      "áĪĭ": 100,
      "áĮĪ": 101,
      "ĠáĪĺ": 102,
      "áĪ¨": 103,
      "áĮį": 104,
      "áĭİ": 105,
      "ĠáĬ¥áĬĵ": 106,
      "áĪĽ": 107,
      "áī³": 108,
      "áĪħ": 109,
      "áĬĲ": 110,
      "ĠáĪĪ": 111,
      "áĪ«": 112,
      "áī¥": 113,
      "áĭ°": 114,
      "ĠáĭŃ": 115,
      "áīł": 116,
      "ĠáĬĲ": 117,
      "áĭµ": 118,
      "áĮ¥": 119,
      "ĠáĬ¨": 120,
      "áĬŃ": 121,
      "áĪļ": 122,
      "áĪī": 123,
      "áĪ°": 124,
      "áĮł": 125,
      "áįį": 126,
      "áīĢ": 127,
      "ĠáĬ¥áĬķáĭ": 128,
      "áī£": 129,
      "Ġáĭ«": 130,
      "áĪª": 131,
      "áĭİáī½": 132,
      "áīħ": 133,
      "ĠáĭĪ": 134,
      "áĪ³": 135,
      "ĠáĪµ": 136,
      "Ġáī°": 137,
      "ĠáĪĽ": 138,
      "áĬł": 139,
      "áįĪ": 140,
      "áĬ¨": 141,
      "áĮ£": 142,
      "áĬĽ": 143,
      "áĪģ": 144,
      "ĠáĪĿ": 145,
      "áĮĭ": 146,
      "áĬ«": 147,
      "áĭĪ": 148,
      "Ġáĭį": 149,
      "áĪĨ": 150,
      "áĬ¥": 151,
      "ĠáĪĭ": 152,
      "áī¸": 153,
      "áī¶": 154,
      "ĠáĬĲáĭį": 155,
      "áĭ³": 156,
      "ĠáĪĭáĭŃ": 157,
      "áĪ®": 158,
      "Ġáĭ¨áĪļ": 159,
      "áĭļ": 160,
      "áī¸áĭį": 161,
      "Ġáī¥": 162,
      "ĠáĬ¥áĬķáĭ°": 163,
      "áī½áĬķ": 164,
      "áĭĭ": 165,
      "áĭ¨": 166,
      "áĪµáĮ¥": 167,
      "ĠáĮį": 168,
      "áīĥ": 169,
      "áĪ©": 170,
      "áĪİ": 171,
      "ĠáĭįáĪµáĮ¥": 172,
      "ĠáĮ¥": 173,
      "áī±": 174,
      "Ġáį": 175,
      "Ġáĭ¨áī°": 176,
      "áĬĲáīµ": 177,
      "ĠáĪ°": 178,
      "Ĭáĭ": 179,
      "ĠĠ": 180,
      "Ġáīµ": 181,
      "áĬĿ": 182,
      "áĭļáĪħ": 183,
      "Ĭáĭľ": 184,
      "ĠáĪĪáĪĺ": 185,
      "áĪ½": 186,
      "áĬķáĭµ": 187,
      "áī»": 188,
      "ĠáĪģ": 189,
      "áĭĿ": 190,
      "ĠáĮĬáĭľ": 191,
      "áĮĪáĪŃ": 192,
      "áĪĪáĭį": 193,
      "áī¶áī½": 194,
      "áĭĬ": 195,
      "áĬĸ": 196,
      "ĠáĪĪáĪĽ": 197,
      "ĠáĭŃáĪħ": 198,
      "ĠáĬłáĪµ": 199,
      "Ġáĭ°": 200,
      "ĠáīĢ": 201,
      "áĪ»": 202,
      "ĠáĪį": 203,
      "Ġáī£": 204,
      "áĬĶ": 205,
      "ĠáĭĪáĭ°": 206,
      "ĠáīłáĪĺ": 207,
      "áĬĳ": 208,
      "áī¢": 209,
      "áĪªáĭ«": 210,
      "Ġáĭ¨áĪĺ": 211,
      "áĮĢ": 212,
      "ĠáĬŃ": 213,
      "áĮ£áĪĿ": 214,
      "áīłáĪŃ": 215,
      "áįħ": 216,
      "áĮ¨": 217,
      "áĭŃáĪĿ": 218,
      "áĬķáĪĿ": 219,
      "ĠáīłáĮ£áĪĿ": 220,
      "ĠáĬłáĭŃ": 221,
      "áĪĢ": 222,
      "áĪĪáĪģ": 223,
      "áĭĻ": 224,
      "ĠáĮįáĬķ": 225,
      "áĬ©": 226,
      "áĭĺ": 227,
      "áįĬ": 228,
      "ĠáĮĭ": 229,
      "ĠáĬĲáĮĪáĪŃ": 230,
      "ĠáĭĪáĭŃáĪĿ": 231,
      "ĠáĪµáĪĪ": 232,
      "ĠáīłáĬł": 233,
      "áĮħ": 234,
      "áĭįáĬķ": 235,
      "áĮĥ": 236,
      "ĠáĪĬ": 237,
      "áĮī": 238,
      "áĪŀ": 239,
      "áįĭ": 240,
      "áĭ²": 241,
      "áĪĭáĪį": 242,
      "áĪ±": 243,
      "áīĤ": 244,
      "ĠáĬ¥áĬķáĭ²": 245,
      "ĠáĮĪ": 246,
      "ĠáĮĭáĪŃ": 247,
      "Ġáĭµ": 248,
      "ĠáĬ¥áĬķ": 249,
      "áĭĽ": 250,
      "áīµáĬķ": 251,
      "ĠáĬ«": 252,
      "Ġáĭ¨áĬł": 253,
      "áĪĮ": 254,
      "ĠáĪ²": 255,
      "ĠáĬłáĪĪ": 256,
      "áī¡": 257,
      "áĪĨáĬĲ": 258,
      "áī°áĬĽ": 259,
      "áīłáīµ": 260,
      "áĪĻ": 261,
      "áĮŃ": 262,
      "Ġáīłáī°": 263,
      "áĭİáī½áĬķ": 264,
      "áĭ©": 265,
      "áĪ¬": 266,
      "áīģ": 267,
      "ĠáĭŃáī½": 268,
      "áĬ®": 269,
      "áīĨ": 270,
      "áĪĨáĬķ": 271,
      "áī¤": 272,
      "áĪľ": 273,
      "áī²": 274,
      "áī¦": 275,
      "áįĪáĪį": 276,
      "ĠáĬłáĪĺ": 277,
      "áĮ«": 278,
      "áĪµáīµ": 279,
      "Ġáī¤": 280,
      "ĠáĪĢ": 281,
      "áĮİ": 282,
      "Ġáĭ¨áĬ¥": 283,
      "áĬķáĭ³": 284,
      "ĠáĬĲáīłáĪŃ": 285,
      "áī¹": 286,
      "áĭ°áĪŃ": 287,
      "Ġáī¥áĭĻ": 288,
      "áĬĺ": 289,
      "áįĥ": 290,
      "áĪĬ": 291,
      "ĠáĪħ": 292,
      "áī´": 293,
      "áĪ¨áĮĥ": 294,
      "áĪµáī°": 295,
      "ĠáīłáĬ¥": 296,
      "Ġáī³": 297,
      "áĭĭáĪį": 298,
      "áĪŃáĪµ": 299,
      "Ġáįį": 300,
      "áĭİáĬķ": 301,
      "áĬĴ": 302,
      "áĮ¡": 303,
      "áĪİáī½": 304,
      "áĪĪáĬķ": 305,
      "ĠáĪ³": 306,
      "áįķ": 307,
      "áĪŃáīµ": 308,
      "áĬķáĮį": 309,
      "Ġáĭ¨áĪĽ": 310,
      "ĠáĬ¥áĬķáĭ°áĪļ": 311,
      "áĬĵáĪį": 312,
      "áĪ²": 313,
      "áĪĪáĪĿ": 314,
      "ĠáĪģáĪī": 315,
      "áĪĪáīµ": 316,
      "áĪĽáĪª": 317,
      "áĭ±": 318,
      "ĠáīłáĪĽ": 319,
      "ĠáĬķ": 320,
      "áĪĭáĭŃ": 321,
      "áĪ«áīµ": 322,
      "áĪĭáĪī": 323,
      "áĬŀ": 324,
      "áĭµáĪ¨": 325,
      "áĭ¶": 326,
      "Ġáĭĺ": 327,
      "ĠáĮł": 328,
      "ĠáĬŃáįį": 329,
      "Ġáĭ¨áĪļáĭ«": 330,
      "áĪ®áī½": 331,
      "ĠáĮī": 332,
      "Ġáĭ¨áĪĿ": 333,
      "Ġáī¦": 334,
      "ĠáĮ¥áĪ©": 335,
      "áĬª": 336,
      "áĪĦ": 337,
      "Ġáĭ«áĪĪáĭį": 338,
      "áĬķáĭ«": 339,
      "áĪĨáĬĳ": 340,
      "áĮĢáĪĺ": 341,
      "áĬĽáĭį": 342,
      "ĠáĬłáĬķáĭµ": 343,
      "ĠáĬ¥áĭ¨": 344,
      "Ġáīħ": 345,
      "áĭ®": 346,
      "ĠáīłáĬ": 347,
      "áīłáĪ¨": 348,
      "ĠáīłáĪļ": 349,
      "Ġáĭĭ": 350,
      "áĭµáĪŃ": 351,
      "Ġáī¢": 352,
      "áĬĻ": 353,
      "áĬķáĮĪ": 354,
      "ĠáĬĵ": 355,
      "áĪ¸": 356,
      "ĠáĬ¢": 357,
      "ĠáĬłáĪģ": 358,
      "ĠáĬłáĪį": 359,
      "áĬķáĪµ": 360,
      "áī¸áĭįáĬķ": 361,
      "ĠáĬ¥áĪµ": 362,
      "ĠáĪĮ": 363,
      "áĪ´": 364,
      "áĮłáīĢ": 365,
      "ĠáĭĿ": 366,
      "áĬķáĭ±": 367,
      "Ġáī£áĪĪ": 368,
      "áĭ¨áīµ": 369,
      "áĪ¨áīµ": 370,
      "ĠáĪĿáĬŃ": 371,
      "áįİ": 372,
      "ĠáįĪ": 373,
      "áĭ°áĪ¨": 374,
      "Ġáī¦áī³": 375,
      "áī³áīµ": 376,
      "áĪĿáĬķ": 377,
      "Ġáī¥áī»": 378,
      "áĪ°áĪ«": 379,
      "ĠáĪĨ": 380,
      "ĠáĪĿáĬķáĪĿ": 381,
      "áī¶áī½áĬķ": 382,
      "ĠáĭŃáĪĺ": 383,
      "áĭļáĭ«": 384,
      "áĮĪáĬĵ": 385,
      "ĠáĪĻ": 386,
      "áī³áĪį": 387,
      "áĬ¤": 388,
      "ĠáĬ¥áĬĲ": 389,
      "ĠáĪĿáĪŃ": 390,
      "áĮĨ": 391,
      "ĭáĪĭ": 392,
      "áįĬáīµ": 393,
      "ĠáĭŃáī½áĪĭáĪį": 394,
      "áĮĪáĪį": 395,
      "ĠáĪĿáĬķ": 396,
      "ĠáĬ®": 397,
      "ĠáĬ¨áī°": 398,
      "áĬĺáīµ": 399,
      "Ġáīģ": 400,
      "ĠáĬ¥áĬķáĭ³": 401,
      "áīħáĪŃ": 402,
      "áīĭ": 403,
      "áĪ°áī¥": 404,
      "ĠáĬĵáī¸áĭį": 405,
      "áįĢ": 406,
      "ĠáĪ°áĭį": 407,
      "áĪĪáĮł": 408,
      "ĠáĪĺáĪµ": 409,
      "Ġáĭ¨áīł": 410,
      "ĠáĪµáĪ«": 411,
      "áĮĤ": 412,
      "áĭµáĪ¨áĮį": 413,
      "áĮĢáĪĺáĪªáĭ«": 414,
      "áĪ¶": 415,
      "Ġáįķ": 416,
      "ĠáĭŃáī½áĪĭáĪī": 417,
      "ĠáīłáĭļáĪħ": 418,
      "ĠáĬ¤": 419,
      "´áīµ": 420,
      "áī¢áĭ«": 421,
      "áī£áīµ": 422,
      "Ġáĭ«áĪĪ": 423,
      "áĪĺáĪŃ": 424,
      "ĠáĪļ": 425,
      "ĠáĬ¨áĪĺ": 426,
      "áĬĶáī³": 427,
      "ĠáĪĺáĮł": 428,
      "Ġáī¤áīµ": 429,
      "ĠáīłáĬĭáĪĭ": 430,
      "áĮ¨áĪĽáĪª": 431,
      "ĠáĪĺáĬķáĮĪ": 432,
      "ĠáĪ°áĭİáī½": 433,
      "áī·": 434,
      "ĠáĬłáĪµáī°": 435,
      "ĠáĪģáĬĶáī³": 436,
      "ĠáĬłáĬķáĭ³": 437,
      "áĪįáīħ": 438,
      "ĠáĭŃáĪħáĬķ": 439,
      "ĠáĬłáĬ«": 440,
      "áĮĬ": 441,
      "áĪµáī³": 442,
      "ĠáĬ¥áĭ«": 443,
      "áįĸ": 444,
      "áĬ¨áĪį": 445,
      "ĠáĮ¨": 446,
      "áĬ³": 447,
      "áĪĺáĪĪ": 448,
      "áĭ²áĪµ": 449,
      "áĪĿáĪħ": 450,
      "Ġáī½": 451,
      "ĠáĪĿáĬŃáĬķáĭ«": 452,
      "áĮįáĬĺáīµ": 453,
      "áĮĵ": 454,
      "áĪĭáī¸áĭį": 455,
      "áĬĵáīµ": 456,
      "áĬķáīł": 457,
      "ĠáĬ¥áĭµ": 458,
      "áĮłáīĥ": 459,
      "Ġáĭ°áĪ¨áĮĥ": 460,
      "Ġáĭ¨áĪµ": 461,
      "áįī": 462,
      "áĭ¬": 463,
      "áī£áī¢": 464,
      "áĬŀáī½": 465,
      "ĠáĬ¨áįį": 466,
      "ĠáĬłáĪģáĬķ": 467,
      "áĪĪáĭ«": 468,
      "ĠáīĢáĬķ": 469,
      "ĠáĬłáĬķáĭ³áĬķáĭµ": 470,
      "áĪŃáĮį": 471,
      "ĠáĬłáĭŃáĭ°": 472,
      "ĠáĮīáĭ³": 473,
      "Ġáĭ«áĪµ": 474,
      "ĠáĬ¨áĬł": 475,
      "áī½áĪį": 476,
      "áĮįáī¥": 477,
      "áĪŃáĪµáĭİ": 478,
      "ĠáĬ¥áĬĶ": 479,
      "áĬ¨áī°": 480,
      "ĠáīłáĪĭáĭŃ": 481,
      "áĪīáīµ": 482,
      "ĠáĬ¥áĬķáĭ´áīµ": 483,
      "áī³áĭĬ": 484,
      "áī°áĪŃ": 485,
      "áĭ´": 486,
      "áĪ¨áĮĭ": 487,
      "áĮĪáī£": 488,
      "Ġáī¡": 489,
      "áĬĽáĪį": 490,
      "ĠáīµáĬķ": 491,
      "áī¦áī½": 492,
      "áĮ¤": 493,
      "áĮ¨áĪ¨": 494,
      "áīĦ": 495,
      "ĠáĮĢ": 496,
      "ĠáĪµáĪĪáĭļáĪħ": 497,
      "áĪĺáĬķ": 498,
      "áĪ³áĭŃ": 499,
      "áĪīáĪĿ": 500,
      "ĠĠĠĠ": 501,
      "áī±áĬķ": 502,
      "áĪĿáĪ®": 503,
      "áĬ¬": 504,
      "áĭŃáĭĪ": 505,
      "ĠáīłáįĬáīµ": 506,
      "áĮĪáĪįáĮį": 507,
      "ĠáįķáĪ®": 508,
      "Ġáĭ¨áīłáĪĪáĮł": 509,
      "áĭİáīµ": 510,
      "Ġáī°áĪĺ": 511,
      "ĠáĬłáĭŃáĬĲáīµ": 512,
      "áįĵ": 513,
      "ĠáĪĺáĪį": 514,
      "áĪ«áĭĬ": 515,
      "ĠáĬłáĪĺáīµ": 516,
      "ĠáĪĺáĪ¨áĮĥ": 517,
      "áīĢáīµ": 518,
      "áĬķáĬĽáĭį": 519,
      "ĠáĪĺáĬķáĮĪáĭµ": 520,
      "áĬŃáĬŃ": 521,
      "áįĴ": 522,
      "áĮĪáĪįáĮįáĪİ": 523,
      "ĠáīłáīĢ": 524,
      "ĠáĪŀ": 525,
      "ĠáīĨ": 526,
      "ĠáĪģáĪīáĪĿ": 527,
      "áĪĭáīµ": 528,
      "ĠáĪĪáĬł": 529,
      "áī¤áīµ": 530,
      "áīħáĪĿ": 531,
      "áĪħáĬķ": 532,
      "ĠáĬĲáĮĪ": 533,
      "ĠáĬ¥áĪµáĬ¨": 534,
      "áįĪáĪįáĮĭ": 535,
      "áĭŃáĪį": 536,
      "áĬŃáīµ": 537,
      "áĭµáĬķ": 538,
      "áĮ¨áĪ¨áĪ»": 539,
      "áĮłáīĢáĪĿ": 540,
      "Ġáĭ¨áĪĨáĬĲ": 541,
      "áĮįáĪ«": 542,
      "áīĢáĪŃ": 543,
      "ĠáĬ¥áĬĲáĭļáĪħ": 544,
      "áĬ¢": 545,
      "áĪļáĭ«": 546,
      "ĠáĪĪáĬ¥": 547,
      "áĮįáĪŃ": 548,
      "ĠáĬŃáįįáĪį": 549,
      "ĠáĬłáĭį": 550,
      "ĠáĮ£": 551,
      "áįįáīµ": 552,
      "ĠáĬłáĬķ": 553,
      "áĬĸáī½": 554,
      "áĭŀ": 555,
      "ĠáĭµáĪ¨": 556,
      "áĬ¨áĪŃ": 557,
      "áī·áĪį": 558,
      "áĪĿáĪħáĪŃáīµ": 559,
      "Ġáī°áĮ¨áĪĽáĪª": 560,
      "ĠáĬłáĪµáįĪ": 561,
      "Ġáĭ²": 562,
      "áĭ¨áĪŃ": 563,
      "áĮ¦": 564,
      "áįĪáĪĪ": 565,
      "áĭĪáĪ°": 566,
      "áĪĿáĪŃ": 567,
      "áĬłáīµ": 568,
      "ĠáĬłáĪµáĭ°": 569,
      "ĠáĬ¦": 570,
      "áĬŃáĪµ": 571,
      "áī¼": 572,
      "ĠáĬ©": 573,
      "ĠáĬ¨áĬ¥": 574,
      "Ġáĭ«áĪī": 575,
      "Ġáĭ¶": 576,
      "ĠáĬłáĮĪáĪįáĮįáĪİ": 577,
      "áī£áī¸áĭį": 578,
      "ĠáĬ¨áįįáī°áĬĽ": 579,
      "Ġáĭ¨áĪħ": 580,
      "áĭİáī¹": 581,
      "ĠáĬ¥áĭļáĪħ": 582,
      "áĭĪáīħ": 583,
      "ĠáĮİ": 584,
      "áĭŃáīµ": 585,
      "Ġáĭ³": 586,
      "ĠáīµáĬķáĪ½": 587,
      "áĮ£áīµ": 588,
      "ĠáĬ¥áĭį": 589,
      "áĭĪáĭ³": 590,
      "áĬ³áĬķ": 591,
      "áĪ«áĪį": 592,
      "áĪŃáĭµ": 593,
      "ĠáĪµáĪŃ": 594,
      "áĪħáĪį": 595,
      "áī±áĪĿ": 596,
      "ĠáĬłáĭ²áĪµ": 597,
      "áĮįáī£": 598,
      "áĭĺáĮĭ": 599,
      "Ġáĭ¨áīµ": 600,
      "áĮłáĪŃ": 601,
      "áĬķáĭĺ": 602,
      "Ġáī°áĪµ": 603,
      "áī½áĪģ": 604,
      "áĪĭáĮĬ": 605,
      "áĪ¨áĭ³": 606,
      "áĪĪáī½": 607,
      "áĪ°áĪĽ": 608,
      "ĠáĪĻáĪī": 609,
      "áĬķáīµ": 610,
      "ĠáĬ¥áĬķáĬ³áĬķ": 611,
      "áĭ¶áī½": 612,
      "áįģ": 613,
      "áĬĿáĬĲáīµ": 614,
      "ĠáĪįáĭ©": 615,
      "áĪªáĬŃ": 616,
      "ĠáĪĮáĪİáī½": 617,
      "ĠáĬłáĭŃáĭ°áĪĪáĪĿ": 618,
      "ĠáĪ½": 619,
      "Ġáīłáīµ": 620,
      "áĪįáĬ¨": 621,
      "áĪ³áīµ": 622,
      "ĠáĪ³áĭŃ": 623,
      "ĠáĬłáĪĺáī³áīµ": 624,
      "ĠáĭµáĪŃ": 625,
      "áĮª": 626,
      "áĪĿáĬĵ": 627,
      "áĮłáīł": 628,
      "áĪŃáĭĿ": 629,
      "Ġáĭ«áĪį": 630,
      "ĠáĬłáĪĭ": 631,
      "áĬķáĬĽáĭįáĪĿ": 632,
      "ĠáĬłáĪī": 633,
      "áĮ¥áĪŃ": 634,
      "ĠáĬ¥áĪŃ": 635,
      "áĭ«áīĦ": 636,
      "áĪ»áĪ»": 637,
      "áĪµáĪį": 638,
      "ĠáĬłáī¥": 639,
      "Ġáĭ¨áĮį": 640,
      "áĮĪáĬĺ": 641,
      "ĠáĬłáĪµáįĪáĪĭáĮĬ": 642,
      "Ġáĭ¨áĭį": 643,
      "áīĢáĮ¥": 644,
      "áīª": 645,
      "Ġáįĵ": 646,
      "áĬ«áĬ¨áĪį": 647,
      "ĠáĪĽáĭµáĪ¨áĮį": 648,
      "áĮģ": 649,
      "ĠĠĠ": 650,
      "áĪªáĬ«": 651,
      "ĠáĪĺáĮłáĬķ": 652,
      "Ġáįĸ": 653,
      "ĠáĬ¥áĬķáĭ²áĪģ": 654,
      "ĠáĭĭáĮĭ": 655,
      "áī½áĪĭ": 656,
      "áī£áĪį": 657,
      "ĠáĮĪáįħ": 658,
      "áĪ¨áĭį": 659,
      "áīĤáĭ«": 660,
      "ĠáīµáĪįáīħ": 661,
      "Ġáĭ¨áĭĪ": 662,
      "áĪĬáĭ": 663,
      "ĠáĭĭáĬĵ": 664,
      "ĠáĪĢáĪ³": 665,
      "áĬķáĭĺáī¥": 666,
      "áī»áī½áĬķ": 667,
      "áī¥áĪµ": 668,
      "ĠáĪĺáĪ³": 669,
      "áĪ¯": 670,
      "áĪ®áī½áĬķ": 671,
      "ĠáĭŃáĪĨ": 672,
      "ĠáĬ¨áĪĨáĬĲ": 673,
      "ĠáĪĤ": 674,
      "ĠáīĢáĪĭáĪį": 675,
      "áī£áĬķáĭ«": 676,
      "áĭ«áĪµ": 677,
      "ĠáįĬ": 678,
      "ĠáĬ¥áĪ±": 679,
      "áįĮ": 680,
      "ĠáĮ¥áĭ«áīĦ": 681,
      "áĪĪáĬĽ": 682,
      "áĪĿáīµ": 683,
      "Ġáįħ": 684,
      "áī¥áĪŃ": 685,
      "ĠáĬ¨áĭļáĭ«": 686,
      "ĠáĪ´": 687,
      "ĠáĬłáĬķáĭ±": 688,
      "áĪ°áĪ¨": 689,
      "ĠáĪĮáĪĭ": 690,
      "ĠáĭµáĪ¨áĪµ": 691,
      "ĠáĪģáĪĪáīµ": 692,
      "áĪĭáĮİ": 693,
      "ĠáĪĽáĪĪáīµ": 694,
      "áĪ¨áī¥": 695,
      "áĭĭáī³": 696,
      "áĪŃáĬŃ": 697,
      "áĭŃáī³": 698,
      "ĠáĭĽ": 699,
      "áĮĨáī½": 700,
      "ĠáĬ¥áĬķáĭ°áĪĨáĬĲ": 701,
      "áĭ«áĬķ": 702,
      "áĪĪáĭ«áĭ©": 703,
      "ĠáĭŃáĪĺáĪµ": 704,
      "Ġáĭ¨áĪĺáĮĢáĪĺáĪªáĭ«": 705,
      "áĭ«áĭį": 706,
      "ĠáĭŃáĪħáĪĿ": 707,
      "áĮįáĬĵ": 708,
      "Ġáĭ«áĪħáĪį": 709,
      "áĬķáĭ¶": 710,
      "ĠáīłáĮ¥": 711,
      "Ġáī£áĪħ": 712,
      "áĪªáĭİáī½": 713,
      "ĠáĬ¥áī£": 714,
      "áĭŃáĭĪáīµ": 715,
      "ĠáĪŃ": 716,
      "áĮĪáĬĻ": 717,
      "áĮ£áĪį": 718,
      "ĠáĪ«": 719,
      "ĠáĪĽáĪµ": 720,
      "áĪ·": 721,
      "áĭ°áĭį": 722,
      "áīłáĪ©": 723,
      "áĪĪáĪħ": 724,
      "Ġáīĥ": 725,
      "ĠáĬłáĪĽ": 726,
      "ĠáĭįáĮ¤": 727,
      "áĪı": 728,
      "áĬķáĭ³áĬķáĭ±": 729,
      "ĠáĪ¶": 730,
      "ĠáĪĪáĪĽáĮįáĬĺáīµ": 731,
      "áī½áĪī": 732,
      "ĠáĪľ": 733,
      "Ġáĭ¨áĪ°": 734,
      "áĮĪáĭį": 735,
      "áįħáĪĢ": 736,
      "áĬ¦": 737,
      "ĠáĬłáīĢ": 738,
      "áĪ½áĬķ": 739,
      "Ġáĭ¨áī³": 740,
      "áĭ°áīµ": 741,
      "áĪĦáĭµ": 742,
      "áĮłáĬĵ": 743,
      "áĮĪáĪĪ": 744,
      "áĪ«áĪµ": 745,
      "áĭ°áĪŃáĮĭ": 746,
      "áīĤáīµ": 747,
      "ĠáĬĲáĮĪáĪ®áī½": 748,
      "áĮĬáĭľ": 749,
      "ĠáĪ¨": 750,
      "ĠáĬ¥áĬķáĭ²áĪģáĪĿ": 751,
      "ĠáĪģáĪīáĬķáĪĿ": 752,
      "ĠáīµáĪĿáĪħáĪŃáīµ": 753,
      "ĠáĪĺáĬ«áĬ¨áĪį": 754,
      "ĠáĭŃáĪħáĬķáĬķ": 755,
      "áĮłáĪ«": 756,
      "áĮĮ": 757,
      "áĪĭáĪŃ": 758,
      "ĠáĬ¥áĬķáĭµ": 759,
      "áĭĪáĪµ": 760,
      "áĪĽáīµ": 761,
      "áĭŃáĬķ": 762,
      "ĠáĪĺáĮį": 763,
      "áĪģáĪīáĪĿ": 764,
      "áįĪáĪįáĮī": 765,
      "ĠáįįáĪĭáĮİ": 766,
      "ĠáĪĽáĪħ": 767,
      "ĠáĪįáĪĿ": 768,
      "áĪŀáī½": 769,
      "áĪ°áĮįáĬĵ": 770,
      "ĠáĪĨáĬĸ": 771,
      "ĠáĭĿáĪŃáĭĿ": 772,
      "áĬĸáĪŃ": 773,
      "áĮĪáĬĽ": 774,
      "áįĪáĪįáĮį": 775,
      "áĬ¨áī³": 776,
      "Ġáįĭ": 777,
      "ĠáĬłáĪģáĬķáĪĿ": 778,
      "áĬ«áĪį": 779,
      "Ġáįİ": 780,
      "ĠáĪĺáĪ³áĪªáĭ«": 781,
      "ĠáĬ©áī£áĬķáĭ«": 782,
      "áī¥áĬĿ": 783,
      "ĠáĭĪáīħ": 784,
      "áĪµáī°áĬĽ": 785,
      "ĠáĪģáĪĪ": 786,
      "ĠáĪĬáĪĨáĬķ": 787,
      "ĠáĬĲáįĥ": 788,
      "áĪĻáĪī": 789,
      "ĠáĬłáĬ«áī£áī¢": 790,
      "ĠáĮĵ": 791,
      "ĠáĪ³áĪĿáĬķ": 792,
      "ĠáĭŃáĪĨáĬĵáĪį": 793,
      "áĪŃáĮįáĮł": 794,
      "ĠáīłáĮį": 795,
      "áĬĲáī±": 796,
      "áĬĵáīĤ": 797,
      "Ġáĭ¨áĬ¢": 798,
      "Ġáī´": 799,
      "Ġáī¤áī°": 800,
      "ĠáĬ¢áĬķ": 801,
      "ĠáĬ¥áĭ¨áī°": 802,
      "áĭ°áĬķ": 803,
      "ĠáĪģáĪį": 804,
      "Ġáīłáī³": 805,
      "áī¨": 806,
      "Ġáĭ«áĪĪáĭįáĬķ": 807,
      "áĪĤ": 808,
      "Ġáĭ¨áī£": 809,
      "áĭ¥": 810,
      "ĠáĪĺáĪĨáĬķ": 811,
      "áĪ³áĪ³áĭŃ": 812,
      "ĠáīµáĬŃáĬŃ": 813,
      "ĠáīłáĪµ": 814,
      "áĮ®": 815,
      "áĭ«áĭİáī½": 816,
      "áĮĪáĬĿ": 817,
      "Ġáĭ¨áīĢ": 818,
      "ĠáĪµáĪĿ": 819,
      "áĮĦ": 820,
      "ĠáĪĪáĪĽáĭµáĪ¨áĮį": 821,
      "ĠáĭĽáĪ¬": 822,
      "áĬªáĬĵ": 823,
      "áĬķáĮįáĭµ": 824,
      "áĭ²áĭ®": 825,
      "Ġáī°áĪµáįĭ": 826,
      "áĪŁ": 827,
      "ĠáĬłáĭµáĪŃ": 828,
      "ĠáĪµáĪį": 829,
      "ĠáĭŃáĪ°": 830,
      "ĠáĮŃ": 831,
      "áĮłáīĥáĪĭáĭŃ": 832,
      "áĭİáī³áĪį": 833,
      "Ġáĭ¶áĪĭáĪŃ": 834,
      "ĠáĬķáĮį": 835,
      "ĠáĪĺáĪĺ": 836,
      "ĠáĪª": 837,
      "áĭĽáīµ": 838,
      "ĠáįĢ": 839,
      "áīħáĪµ": 840,
      "áĬ«áīµ": 841,
      "ĠáĪĺáįħáĪĢ": 842,
      "ĠáĬª": 843,
      "áĪ¹": 844,
      "ĠáĬ¥áĬķáĭ°áĮĪáĬĵ": 845,
      "áī¾": 846,
      "Ġáī¥áĪİ": 847,
      "Ġáĭ¨áĭ°": 848,
      "Ġáĭ¨áĮĪ": 849,
      "Ġáīłáĭ¨": 850,
      "ĠáĬ¨áĭļáĪħ": 851,
      "ĠáĪĪáī°": 852,
      "Ġáīłáįį": 853,
      "áįĪáĭį": 854,
      "áĬ¨áĪĭ": 855,
      "ĠáĮ¨áĭĭáī³": 856,
      "ĠáĬ¨áī£": 857,
      "ĠáĪĺáĪŃ": 858,
      "áī°áĭį": 859,
      "ĠáĬ¥áī£áĬŃ": 860,
      "áī³áī½áĬķ": 861,
      "áĬĲáīłáĪ¨": 862,
      "ĠáĬ¥áĬķáĭ²áĭ«": 863,
      "áĬķáĭ°": 864,
      "áĬĵáĪįáī£áīµ": 865,
      "ĠáĬłáĪ³": 866,
      "Ġáĭ«áĬķ": 867,
      "áĪ±áĬķ": 868,
      "Ġáīłáī°áĪĪ": 869,
      "ĠáĪĪáĭį": 870,
      "ĠáĪĿáĬĵáĪįáī£áīµ": 871,
      "áĮ¥áĬĲáīµ": 872,
      "áĬ©áĪį": 873,
      "áĪ¨áĮĭáĮĪ": 874,
      "ĠáĪĽáĮįáĬĺáīµ": 875,
      "ĠáĮįáĬķáĬĻ": 876,
      "ĠáĪĿáĬŃáĬķáĭ«áīµ": 877,
      "áĬķáĪ°": 878,
      "ĠáĪĿáĬŃáĬķáĭ«áī±áĪĿ": 879,
      "áĪģáĬķ": 880,
      "áĬĲáĪ³": 881,
      "Ġáĭ¨áĪļáĭ«áĪµ": 882,
      "ĠáĪĺáĭ°": 883,
      "áĮłáīµ": 884,
      "Ġáī°áĬĵ": 885,
      "áįĪáĮ¥": 886,
      "ĠáĬłáĮĪáĪįáĮįáĪİáīµ": 887,
      "áĬŃáĪĿáĬĵ": 888,
      "ĠáĪµáĪľ": 889,
      "áĪŀáĬŃ": 890,
      "áĪİáī½áĬķ": 891,
      "áĮĪáī¥": 892,
      "áĭ°áĮĭ": 893,
      "ĠáĬ¨áĪĽ": 894,
      "áīħáĭµ": 895,
      "ĠáĬĲáĬĿ": 896,
      "áĪľáĪªáĬ«": 897,
      "ĠáĪĪáĪĺáĪµ": 898,
      "ĠáĪĿáĪŃáĮ¥": 899,
      "ĠáīłáĪħ": 900,
      "áī°áĭĭáĪį": 901,
      "áĮĪáĭµ": 902,
      "áīĢáĪĺ": 903,
      "Ġáĭ¨áĪĽáĭŃ": 904,
      "áĬ¨áīµ": 905,
      "áīłáĪį": 906,
      "ĠáĪĿáĪµ": 907,
      "ĠáĪĬáĭ«": 908,
      "áĪįáįį": 909,
      "áĭ³áīµ": 910,
      "áĮħáĪĿ": 911,
      "áĪĽáĪŃ": 912,
      "áīĢáĪĿ": 913,
      "áĪĺáĮ£": 914,
      "áĬŃáĪį": 915,
      "áīĥáīµ": 916,
      "ĠáĬłáĪĿ": 917,
      "áĭ®áī½": 918,
      "ĠáĪĪáĪļ": 919,
      "áĪ¯áĪį": 920,
      "ĠáĬ¨áĪļ": 921,
      "ĠáĭĪáĪŃ": 922,
      "ĠáĮĵáĭ°": 923,
      "ĠáĬłáĪĪáĪĿ": 924,
      "ĠáĬ¥áĪŃáĪµáĭİ": 925,
      "ĠáĭĿáĮį": 926,
      "Ġáĭįáĭµ": 927,
      "áĪĬáĭ®": 928,
      "áĪ³áī½": 929,
      "ĠáĪ²áĪĨáĬķ": 930,
      "ĠáĪ°áĪ«": 931,
      "áĬĲáĭį": 932,
      "ĠáīłáĬ¥áĭį": 933,
      "ĠáīłáĪŃ": 934,
      "Ġáĭ¨áĮ¥": 935,
      "ĠáĪĺáĪ°": 936,
      "áī»áĪį": 937,
      "áīłáĭ«": 938,
      "áĬ¨áįį": 939,
      "áĮ«áĭĪ": 940,
      "Ġáīª": 941,
      "ĠáĬłáĭµ": 942,
      "áīĥáĪ´": 943,
      "áīħáĪµáīĥáĪ´": 944,
      "áĭĮ": 945,
      "ĠáĬ¥áĬķáĭ³áĪĪ": 946,
      "áĪµáī³áĭĪ": 947,
      "áĪ¶áī½": 948,
      "ĠáīłáīħáĪŃ": 949,
      "áĬķáĬ«": 950,
      "ĠáĮ¥áīħáĪĿ": 951,
      "áĪĭáĭĬ": 952,
      "áĪ³áĪĮ": 953,
      "ĠáĬłáĪĪáīłáīµ": 954,
      "ĠáīłáĬłáĬķáĭµ": 955,
      "ĠáĭĪáīħáīµ": 956,
      "ĠáĬłáĮĭ": 957,
      "Ġáĭ«áĪ³": 958,
      "Ġáĭ¨áī°áĪĺ": 959,
      "ĠáĪįáĮħ": 960,
      "áĪ¨áĮ¥": 961,
      "áĮ£áĬķ": 962,
      "áī³áĪĽ": 963,
      "áĬĲáĭļáĪħ": 964,
      "ĠáĮĪáĬķáĭĺáī¥": 965,
      "ĠáĬłáĪµáĭ°áĪ³áī½": 966,
      "ĠáīłáĪ°": 967,
      "ĠáĪ°áĬłáīµ": 968,
      "áĪ¾": 969,
      "áī°áĬķ": 970,
      "áĪİáĮĤ": 971,
      "áĬ¨áĪ«": 972,
      "áĪĽáĪªáĭİáī½": 973,
      "áĪįáįħ": 974,
      "áĪ¨áĬķ": 975,
      "Ġáĭ¨áĪĢ": 976,
      "áī¥áĭĻ": 977,
      "áĮłáī¥": 978,
      "Ġáī¡áĭµáĬķ": 979,
      "Ġáĭ¨áī¤áīµ": 980,
      "áĪĺáĪµ": 981,
      "ĠáīµáĪŃ": 982,
      "ĠáĬłáĪŃ": 983,
      "ĠáĭŃáĪĺáĪµáĪĭáĪį": 984,
      "ĠáĪĽáĬķ": 985,
      "ĠáĬ¥áĬĽ": 986,
      "Ġáī°áĮįáī£": 987,
      "ĠáīłáĪĻáĪī": 988,
      "Ġáĭ¨áī°áĪĪ": 989,
      "Ġáī½áĮįáĪŃ": 990,
      "ĠáĬłáĪµáĭ°áĬĵáīĤ": 991,
      "ĠáĮĢáĪĿáĪ®": 992,
      "ĠáįħáĪģ": 993,
      "áĭĿáĬĵ": 994,
      "Ġáī³áĪªáĬŃ": 995,
      "áī³áĭį": 996,
      "áĪ°áĪ©": 997,
      "áī¥áĪ¨": 998,
      "áĪ»áĪĪ": 999,
      "áĮĢáīµ": 1000,
      "ĠáĬłáīħ": 1001,
      "áī³áī¸áĭį": 1002,
      "áĪįáĪĿ": 1003,
      "áīĢáĭį": 1004,
      "áĭ°áĪĿ": 1005,
      "ĠáĬłáĪµáī°áĭ«": 1006,
      "áĪģáĬĳ": 1007,
      "Ġáĭ©": 1008,
      "Ġáĭ°áĬķáīł": 1009,
      "Ġáĭ¨áĪµáĪ«": 1010,
      "ĠáīłáīµáĬŃáĬŃ": 1011,
      "áĪıáĪį": 1012,
      "áĪĭáĪ½": 1013,
      "áī¦áī½áĬķ": 1014,
      "ĠáĬ¥áīĥ": 1015,
      "ĠáįķáĪ®áĮįáĪ«": 1016,
      "áīłáī¥": 1017,
      "ĠáīµáĬ©": 1018,
      "áĪ°áī£": 1019,
      "áī¥áĪ¨áīµ": 1020,
      "áīŃ": 1021,
      "áī¸áĭĭáĪį": 1022,
      "ĠáĬ¥áĬķáīħáĪµáīĥáĪ´": 1023,
      "ĠáĮ£áī¢áĭ«": 1024,
      "áī°áīµ": 1025,
      "ĠáĮ¥áīĤáīµ": 1026,
      "áī§": 1027,
      "ĠáĪĺáĮ¥": 1028,
      "Ġáĭ¨áįį": 1029,
      "ĠáīĢáĬĵáīµ": 1030,
      "áĬ«áī£áī¢": 1031,
      "ĠáĪ®": 1032,
      "áīĥáĪļ": 1033,
      "ĠáĪĿáĮįáī¥": 1034,
      "áĬķáīĢ": 1035,
      "Ġáĭ¨áĬķáĮįáĭµ": 1036,
      "ĠáĮłáīĥáĪļ": 1037,
      "áįĪáĪĪáĮī": 1038,
      "ĠáĪĽáĬ¥": 1039,
      "ĠáĬ«áĪį": 1040,
      "áĪ°áĪį": 1041,
      "áĮħáīµ": 1042,
      "ĠáĬłáĬ«áĪį": 1043,
      "áĭµáĪŃáĮī": 1044,
      "ĠáĪĪáĪĿ": 1045,
      "áĪ¨áĮĭáĮį": 1046,
      "áĮĪáī¡": 1047,
      "áĪĨáĬķáĪĿ": 1048,
      "áĬķáĮįáĪµáīµ": 1049,
      "áįİáī½": 1050,
      "ĠáĪĢáĪ³áī¥": 1051,
      "áĭ«áĭĿ": 1052,
      "Ġáĭ¨áī°áĪĪáĭ«áĭ©": 1053,
      "áīĥáĪį": 1054,
      "áĪĺáīµ": 1055,
      "ĠáĪµáĪĭ": 1056,
      "áĬķáĬŃ": 1057,
      "ĠáĪµáīµ": 1058,
      "ĠáĪĺáī¥": 1059,
      "áĬ®áī½": 1060,
      "áĪĬáĭ®áĬķ": 1061,
      "ĠáĬ¥áĭµáĪį": 1062,
      "áĮłáīĢáĪĻ": 1063,
      "ĠáįįáĪĭáĮİáīµ": 1064,
      "Ġáĭ«áĭµáĪŃáĮī": 1065,
      "áĪ°áīµ": 1066,
      "áĪŃáĪµáĭİáĬķ": 1067,
      "Ġáī°áĪĺáĪ³áĪ³áĭŃ": 1068,
      "áīłáĭį": 1069,
      "áīĤáīĥ": 1070,
      "ĠáĭĿáĪŃáĭĿáĪŃ": 1071,
      "ĠáĬ¥áĭįáĬĲ": 1072,
      "ĠáĬ¨áī£áĭµ": 1073,
      "áįĨ": 1074,
      "ĠáĮįáĬķáĬĻáĬĲáīµ": 1075,
      "Ġáī¢áĭ«": 1076,
      "áĪº": 1077,
      "áĮĪáĬķ": 1078,
      "Ġáĭ«áĪįáī°": 1079,
      "áĮłáĪ©": 1080,
      "áī¤áī°": 1081,
      "ĠáĬłáī¥áĭĽ": 1082,
      "áĮłáīĥáĪļ": 1083,
      "ĠáīłáĪĺáĪµ": 1084,
      "áĪįáĬ¨áī±": 1085,
      "áīłáĪ«áĭĬ": 1086,
      "ĠáīłáīĢáĪĭáĪī": 1087,
      "áī«": 1088,
      "Ġáīłáī°áĮ¨áĪĽáĪª": 1089,
      "ĠáĪĦ": 1090,
      "ĠáīµáĬŃáĬŃáĪĪáĬĽ": 1091,
      "ĠáĬłáĭ³": 1092,
      "Ġáī£áĪĪáĭį": 1093,
      "áĪĺáĪ¨": 1094,
      "ĠáĬĽ": 1095,
      "ĠáīłáīµáĬŃáĬŃáĪį": 1096,
      "ĠáīłáĪĿ": 1097,
      "ĠáĪĺáĪĨáĬĳ": 1098,
      "áĪĪáĭįáĬķ": 1099,
      "ĠáĮīáĭŀ": 1100,
      "ĠáĪĺáīĢ": 1101,
      "ĠáĬĲáīłáĪ¨": 1102,
      "áĪ°áĮ¥": 1103,
      "áĭĿáī¥": 1104,
      "áī°áĬŀáī½": 1105,
      "Ġáĭ¨áĬ¥áĬĶ": 1106,
      "ĠáĮ¤": 1107,
      "áĬ©áīµ": 1108,
      "áĬķáīħ": 1109,
      "Ġáĭ¨áĬ¥áĬĽ": 1110,
      "ĠáĪĿáĪŃáĮ«": 1111,
      "ĠáīłáĪĮ": 1112,
      "áįĭáīµ": 1113,
      "ĠáĭŃáĪĺáĪįáĬ¨áī±": 1114,
      "áĬ«áī³": 1115,
      "áī»áĪĪáĪģ": 1116,
      "áĮĪáĪĿ": 1117,
      "ĠáĪĽáĪµáī°": 1118,
      "Ġáĭ¨áĬŃ": 1119,
      "ĠáĪĪáĪĽáĪµ": 1120,
      "Ġáī½áĪİ": 1121,
      "áĭ°áĮį": 1122,
      "áĮłáĭŃ": 1123,
      "ĠáĬ¨áī°áĪĽ": 1124,
      "ĠáĪįáĪĿáĭµ": 1125,
      "áĬĲáĪµ": 1126,
      "áī¹áĬķ": 1127,
      "ĠáĮ«": 1128,
      "áĬķáĭ¶áī½": 1129,
      "áĭ°áĪ¨áĮī": 1130,
      "Ġáī´áĬŃ": 1131,
      "Ġáįİáī¶": 1132,
      "Ġáī¥áĭ¬": 1133,
      "áĭĭáīĤ": 1134,
      "ĠáĬłáĪĽáĪ«": 1135,
      "ĠáĬłáī£": 1136,
      "áĬĵáĮĪ": 1137,
      "áįĪáĪŃ": 1138,
      "áĪįáĬŃ": 1139,
      "ĠáįĴ": 1140,
      "Ġáĭ°áīĤáīĥ": 1141,
      "Ġáĭ°áĪħáĬķ": 1142,
      "ĠáĬłáĮį": 1143,
      "áĭ³áĭ°áĪŃ": 1144,
      "áĭŃáĬĵ": 1145,
      "ĠáĬłáĪĪáī¥": 1146,
      "ĠáĪįáĬŃ": 1147,
      "áĭ«áĪį": 1148,
      "ĠáĪĪáĪĿáĬķ": 1149,
      "ĠáĪħáĭŃáĭĪáīµ": 1150,
      "ĠáĮīáĭ³áĭŃ": 1151,
      "ĠáĪ³áĪĿáĬķáīµ": 1152,
      "áĬĲáĮĭ": 1153,
      "ĠáīħáĪŃ": 1154,
      "áĭľ": 1155,
      "ĠáĪĽáĪ³": 1156,
      "Ġáĭ¨áĪĪáĪĿ": 1157,
      "Ġáĭ¨áĪį": 1158,
      "áīĢáĭµ": 1159,
      "áīĨáĮ£": 1160,
      "Ġáĭ¨áĬ«": 1161,
      "áī½áĬķáĬķ": 1162,
      "ĠáĮįáī¥": 1163,
      "ĠáĬ¥áĬķáĭ°áĪļáĭ«": 1164,
      "áįįáĮłáĪŃ": 1165,
      "ĠáĭŃáįĪáĪįáĮĭ": 1166,
      "áĭĪáĪ°áĬĲ": 1167,
      "áĭ°áĪŃáĮī": 1168,
      "áī»áī¸áĭį": 1169,
      "áĬķáĮĨ": 1170,
      "áī¦áīµ": 1171,
      "áĭ£": 1172,
      "ĠáĪĺáī°": 1173,
      "Ġáī°áĬĵáĮį": 1174,
      "ĠáĬ¨áĪĮ": 1175,
      "ĠáĭŃáĭĺ": 1176,
      "ĠáĬ¥áĬķáĭ°áī°": 1177,
      "Ġáĭ«áĪĭáī¸áĭį": 1178,
      "Ġáī°áįħ": 1179,
      "ĠáĮ¤áĬĵ": 1180,
      "áĭįáĪ°": 1181,
      "áĪ©áĬķ": 1182,
      "ĠáĬ¥áĭ«áĬķáĭ³áĬķáĭ±": 1183,
      "áĪµáīµáĪª": 1184,
      "áī³áĭİáī½": 1185,
      "Ġáī¤áī¶áī½": 1186,
      "áĪµáī²": 1187,
      "ĠáĬłáĪĪáĭį": 1188,
      "áĮĭáįį": 1189,
      "áĬ¨áī¥": 1190,
      "áĬ¥áĬĸ": 1191,
      "ĠáĮłáīħ": 1192,
      "áĭ°áĪ¨áĮį": 1193,
      "Ġáī°áīĢ": 1194,
      "áĮįáĭ³": 1195,
      "áĪĪáįį": 1196,
      "áĪĺáĪ«": 1197,
      "ĠáīłáĪĺáĮ¨áĪ¨áĪ»": 1198,
      "Ġáĭ¨áĬ®": 1199,
      "Ġáĭ¨áĪĨáĬĳ": 1200,
      "ĠáĪĢáĭŃ": 1201,
      "Ġáī¡áĭµ": 1202,
      "ĠáĭĪáĮª": 1203,
      "áįĸáĪŃáīµ": 1204,
      "ĠáĮ¨áĪĿáĪ®": 1205,
      "áĮ®áī½": 1206,
      "ĠáĪĺáĪ°áĪ¨áīµ": 1207,
      "áĪĿáĪ©": 1208,
      "áĪŃáĮįáĮ¥": 1209,
      "ĠáĪĺáĪĨáĬĳáĬķ": 1210,
      "ĠáĭĻ": 1211,
      "ĠáīłáĪĨáĬĲ": 1212,
      "áī³áĭŃ": 1213,
      "áĮĢáĪĺáĪŃ": 1214,
      "ĠáīĨáĬķáĮĨ": 1215,
      "áįģáĪĿ": 1216,
      "ĠáįĸáĪĬ": 1217,
      "ĠáĬ¥áĬĵáĪĿ": 1218,
      "áĪĽáĪĽ": 1219,
      "áĪĢáĪį": 1220,
      "áĪĺáĭį": 1221,
      "ĠáĬ¥áī£áĬŃáĭİáĬķ": 1222,
      "Ġáī°áįħáĬ¥áĬĸ": 1223,
      "áĪĿáĮĥ": 1224,
      "ĠáĬĲáĮ¥": 1225,
      "áĭĪáĮ£": 1226,
      "ĠáĪĪáĪĽáĭ¨áīµ": 1227,
      "ĠáĪ±": 1228,
      "ĠáĬ¥áĬĲáĭļáĪħáĬķ": 1229,
      "áĬ«áĬ¨": 1230,
      "ĠáĪ²áĪį": 1231,
      "Ġáĭ¨áĪĪ": 1232,
      "áĪĨáĬĵ": 1233,
      "áĪĭáĬķáĭµ": 1234,
      "Ġáīłáĭ°": 1235,
      "áĬĹ": 1236,
      "ĠáĬłáĪĪáī£áī¸áĭį": 1237,
      "áĭ²áĭ«": 1238,
      "áĪģáĪĪáīµ": 1239,
      "áĪ«áĪ³": 1240,
      "ĠáĮ¥áīħ": 1241,
      "ĠáīģáĮ¥áĪŃ": 1242,
      "ĠáĪĺáįħáĪĢáįį": 1243,
      "ĠáĪĽáĪµáī³áĭĪ": 1244,
      "áĪģáĪĪ": 1245,
      "áīłáĬĽ": 1246,
      "ĠáĬ¥áĭŃáī³": 1247,
      "áĪĭáīĢ": 1248,
      "áĪĺáĪĪáĪµ": 1249,
      "áĪĪáĪį": 1250,
      "ĠáĬłáĪĺáĪ°áĮįáĬĵ": 1251,
      "áĭĭáĪĪáĪģ": 1252,
      "áĬ¤áĪµ": 1253,
      "áįĶ": 1254,
      "áī¥áĪİ": 1255,
      "Ġáĭĺáĭ´": 1256,
      "Ġáĭ¨áĪĿáīµ": 1257,
      "ĠáĬłáĮįáĬĿ": 1258,
      "áĭ·": 1259,
      "Ġáī£áĪĪáĪĻ": 1260,
      "ĠáĪµáĪľáīµ": 1261,
      "Ġáĭ¨áĬĲ": 1262,
      "ĠáĪ´áīµ": 1263,
      "áīħáĪ¨áī¥": 1264,
      "ĠáīłáĪĺáī¶": 1265,
      "ĠáĬ¥áĬķáĭ°áĪĽ": 1266,
      "Ġáīłáī³áī½": 1267,
      "ĠáĬłáīĢáįį": 1268,
      "áĪĿáĬĲáīµ": 1269,
      "áĭįáĪµ": 1270,
      "ĠáĪĽáĭ¨áīµ": 1271,
      "ĠáĬ¥áĮħ": 1272,
      "ĠáĪĢáĭŃáĪį": 1273,
      "ĠáįķáĪ®áĮĢ": 1274,
      "áĪŃáī£": 1275,
      "ĠáĪµáĪĪáĪļ": 1276,
      "áĪħáĬĵ": 1277,
      "áīłáīĥ": 1278,
      "áĪ«áĪī": 1279,
      "Ġáĭ¨áĪĺáĮ¨áĪ¨áĪ»": 1280,
      "áĮĪáĬĽáĪī": 1281,
      "ĠáĬłáĪĺáĪ°áĮįáĬĵáĪĪáĪģ": 1282,
      "Ġáī²": 1283,
      "áĮłáĭį": 1284,
      "áĪħáĪŃ": 1285,
      "áĪ°áĬķ": 1286,
      "áĮ¥áįį": 1287,
      "ĠáīµáĬ¥": 1288,
      "áĪĿáįħ": 1289,
      "ĠáīłáĬłáĪĪáĪĿ": 1290,
      "Ġáī¢áĭ«áĬķáĪµ": 1291,
      "áĪ°áī¡": 1292,
      "áĮłáĪ¨": 1293,
      "áĬĲáĪ±": 1294,
      "ĠáĬ¬": 1295,
      "ĠáĪĺáĮĢáĪĺáĪªáĭ«": 1296,
      "áĬĸáĪ©": 1297,
      "áĬ¬áīµ": 1298,
      "ĠáĬłáĮłáīĥáĪĭáĭŃ": 1299,
      "ĠáĬ¥áĪŃáĮįáĮł": 1300,
      "áĪĪáĭĭáĪį": 1301,
      "áĪĺáĬĵ": 1302,
      "áĭ«áĭĬ": 1303,
      "áĪ«áī¸áĭį": 1304,
      "áī¨áĪŃ": 1305,
      "Ġáĭ¨áĭµ": 1306,
      "ĠáĮįáĪįáįħ": 1307,
      "Ġáĭ¨áĬ¤": 1308,
      "ĠáĪĺáĪĺáĪªáĭ«": 1309,
      "ĠáĪĺáĪĪ": 1310,
      "áīłáīħ": 1311,
      "áĪ«áĬķ": 1312,
      "áĬķáĬ«áĪ«": 1313,
      "áĬķáįĪ": 1314,
      "ĠáĬĲáīłáĪ©": 1315,
      "ĠáĭŃáĮĪ": 1316,
      "áĪĺáĭµ": 1317,
      "áĪ¨áĮĭáĮĪáĮ¥": 1318,
      "áĭ«áĬķáĭ³áĬķáĭ±": 1319,
      "ĠáĪ²áĭ«": 1320,
      "áĬĸáĪİáĮĤ": 1321,
      "áĪ¬áīµ": 1322,
      "áĪĭáīħ": 1323,
      "áĭ«áĪĪáĪģ": 1324,
      "áĪ³áī°": 1325,
      "ĠáĪĺáĮįáĪĪ": 1326,
      "ĠáĪĺáī³": 1327,
      "áĪµáī°áĪŃ": 1328,
      "áī½áĪįáĪĿ": 1329,
      "ĠáīĥáĪį": 1330,
      "ĠáĪĪáĪµ": 1331,
      "ĠáĬ¥áĪŃáĪĿáĮĥ": 1332,
      "ĠáĪģáĪįáĮĬáĭľ": 1333,
      "Ġáī½áĮį": 1334,
      "ĠáĪĺáĬªáĬĵ": 1335,
      "ĠáĪĿáĪĭáĪ½": 1336,
      "ĠáĮĨ": 1337,
      "ĠáĬłáīµ": 1338,
      "Ġáĭ¨áĮįáĪį": 1339,
      "Ġáĭľ": 1340,
      "áī°áĬĵ": 1341,
      "áĬ«áĪª": 1342,
      "ĠáĬŃáįįáĭ«": 1343,
      "áī¥áĪµáī¥": 1344,
      "ĠáĬ¥áĪŃáĮįáĮłáĬĽ": 1345,
      "ĠáĪįáĮĨáī½": 1346,
      "ĠáĪĽáĪħáīłáĪ¨": 1347,
      "áĭįáīĥ": 1348,
      "áĪ°áĮ¡": 1349,
      "Ġáĭ¨áĪĺáĪµ": 1350,
      "Ġáĭİ": 1351,
      "ĠáĬ¥áĭĪáĭ³": 1352,
      "ĠáĬłáĭ«": 1353,
      "áĮĭáīµ": 1354,
      "ĠáĮ¥áĪ«áīµ": 1355,
      "ĠáĪ°áĪŃ": 1356,
      "ĠáĭĿáīħ": 1357,
      "ĠáĭįáĮŃ": 1358,
      "ĠáīłáĬ¥áĪŃáĮįáĮ¥": 1359,
      "ĠáĪĽáĬķáĬĽáĭįáĪĿ": 1360,
      "ĠáīłáĬ©áĪį": 1361,
      "áĬŃáī¥": 1362,
      "ĠáĭµáĮĭáįį": 1363,
      "áĭĭáĬĵ": 1364,
      "Ġáĭ¨áī°áĪ»áĪĪ": 1365,
      "áī¾áī½": 1366,
      "áĪµáĬķ": 1367,
      "ĠáĪ³áĭŃáĪĨáĬķ": 1368,
      "áĪĺáĪ°áĮįáĬĵ": 1369,
      "ĠáĪħáĬŃáĪĿáĬĵ": 1370,
      "ĠáĬłáĪµáī°áĭ«áĭ¨áīµ": 1371,
      "áĪŃáī»": 1372,
      "Ġáī¦áī³áĭİáī½": 1373,
      "ĠáĭŃáīĢ": 1374,
      "Ġáīªáĭ²áĭ®": 1375,
      "ĠáĪĪáĪĺáīĢ": 1376,
      "ĠáĬ¥áĪ·": 1377,
      "áĬ«áĪĿ": 1378,
      "áĬķáĭĽ": 1379,
      "ĠáĬŃáįįáĪİáī½": 1380,
      "áī³áī¸áĭįáĬķ": 1381,
      "áĪĿáįĴ": 1382,
      "áįķáĪ®": 1383,
      "ĠáĬłáĭ°áĮĭ": 1384,
      "áįĬáĭ«": 1385,
      "Ġáī£áĪĪáįĪáĭį": 1386,
      "áĬ¥áĪĿáĪ®": 1387,
      "áĮ£áĪī": 1388,
      "áĪĺáĪ°áĮįáĬĵáĪĪáĬķ": 1389,
      "ĠáĬ¥áĬĵáĪĺáĪ°áĮįáĬĵáĪĪáĬķ": 1390,
      "áĮ¥áī³": 1391,
      "ĠáĪ¸": 1392,
      "ĠáĪĪáĭįáĮ¥": 1393,
      "Ġáī°áĪĽáĪªáĭİáī½": 1394,
      "áįĲ": 1395,
      "ĠáĪĺáĮłáīĢáĪĿ": 1396,
      "ĠáĬ¥áīħáĭµ": 1397,
      "ĠáįħáĪģáįį": 1398,
      "áĬ®áĬĸ": 1399,
      "Ġáī»": 1400,
      "Ġáĭ¨áĪŀ": 1401,
      "áĪĭáī½áĪģ": 1402,
      "Ġáĭ«áĮį": 1403,
      "áĭĪáĪŃ": 1404,
      "áī¥áĪ«": 1405,
      "Ġáĭ¨áĪĮ": 1406,
      "áĪįáĭµ": 1407,
      "áĪŃáĮįáĮłáĬĿáĬĲáīµ": 1408,
      "Ġáĭ°áĮį": 1409,
      "áĮ¤áĬĵ": 1410,
      "ĠáĪ»": 1411,
      "áĬĲáī¶áī½": 1412,
      "Ġáĭ¨áĬłáĭ¨áĪŃ": 1413,
      "ĠáīłáĬ¥áĪŃáĮįáĮłáĬĿáĬĲáīµ": 1414,
      "ĠáĪĨáĬĲ": 1415,
      "áĭįáĮ£áīµ": 1416,
      "áĪĭáĭį": 1417,
      "ĠáĪĺáĭµáĪ¨": 1418,
      "áīĭáīĭ": 1419,
      "áĭ³áĪį": 1420,
      "áĪįáīģ": 1421,
      "ĠáīłáįįáĮ¥áĬĲáīµ": 1422,
      "ĠáĪ°áĬł": 1423,
      "ĠáĪ¶áĪµáīµ": 1424,
      "ĠáĬ¨áįĪáĪĪáĮī": 1425,
      "ĠáĬ«áĪŃ": 1426,
      "áĪľáĪį": 1427,
      "áĮłáīħ": 1428,
      "Ġáī°áĪµáĪĽ": 1429,
      "Ġáĭ«áĬķáĬķ": 1430,
      "ĠáīłáĬĲ": 1431,
      "áĭ°áĪŃáĮį": 1432,
      "áįĥáįį": 1433,
      "ĠáĮīáĭ³áĭ®áī½": 1434,
      "Ġáīłáĭµ": 1435,
      "ĠáĪĺáĮ¨áĪ¨áĪ»": 1436,
      "áī´áīµ": 1437,
      "ĠáĪĤáĭ°áīµ": 1438,
      "ĠáĭĺáĪĺáĬķ": 1439,
      "áĭŃáĬĲ": 1440,
      "ĠáĪµáĪŃáĬł": 1441,
      "Ġáĭ¨áī°áĪĺáĪ°áĪ¨": 1442,
      "áįīáīµ": 1443,
      "áĭļáīĥ": 1444,
      "ĠáĭĻáĪªáĭ«": 1445,
      "áĬŃáī°áĪŃ": 1446,
      "Ġáĭ¨áĪĿáĮįáī¥": 1447,
      "ĠáīłáīĤ": 1448,
      "áĮłáīłáīħ": 1449,
      "áī¥áĪĦ": 1450,
      "áĮĪáĬĺáĭį": 1451,
      "Ġáī°áĪĪ": 1452,
      "ĠáĭĪáĪ¨": 1453,
      "áīº": 1454,
      "Ġáī½áĪİáī³": 1455,
      "áīµáĪŃ": 1456,
      "áĪ°áĭį": 1457,
      "áĬķáĭ²": 1458,
      "áĬ¨áī£": 1459,
      "áĮĪáĪĽ": 1460,
      "ĠáĪĪáĭļáĪħ": 1461,
      "áĭ¨áĪĿ": 1462,
      "Ġáĭ¨áįĪ": 1463,
      "áĪĺáĪĿ": 1464,
      "Ġáī°áĭĪáĭ³": 1465,
      "ĠáĮ¦": 1466,
      "ĠáĮįáĪĿ": 1467,
      "ĠáĬ¥áĭĪáĭ³áĪĪáĪģ": 1468,
      "áĮĭáĪª": 1469,
      "ĠáĪµáĪŃáĬłáīµ": 1470,
      "ĠáĪįáī¥": 1471,
      "ĠáĬłáĭİ": 1472,
      "áĭ¶áī½áĬķ": 1473,
      "ĠáīłáĪļáĭ«": 1474,
      "ĠáĪħáĮį": 1475,
      "áĬķáīłáī¥": 1476,
      "áĬķáĬĽáĭįáĬķáĪĿ": 1477,
      "áī³áĭĪ": 1478,
      "ĠáĭŃáĪ°áĪĽ": 1479,
      "ĠáĪĿáĪ½": 1480,
      "áĮłáĪį": 1481,
      "ĠáīłáĬłáĪģáĬĳ": 1482,
      "ĠáįĪáĮ£áĬķ": 1483,
      "áīĥáĪĪáĪģ": 1484,
      "áĪīáĬķ": 1485,
      "Ġáĭ¨áĪĻ": 1486,
      "Ġáĭ«áĪ¨áĮĭáĮį": 1487,
      "áįĪáĮ¥áĪ®": 1488,
      "áĪŃáĬķ": 1489,
      "áī°áĬĵáĪį": 1490,
      "áĪ¨áĭĭáĪį": 1491,
      "áĬŃáĪ²": 1492,
      "ĠáĭŃáĪ°áĮ£áĪį": 1493,
      "ĠáĭŃáįĪáĪįáĮĭáĪī": 1494,
      "ĠáĪĺáĮįáĪĪáĮ«": 1495,
      "áĮįáĪį": 1496,
      "Ġáī¢áĪĨáĬķáĪĿ": 1497,
      "áĪ«áĪ½": 1498,
      "áĪ«áĬķáĪµ": 1499,
      "ĠáĪĽáĬķáĬĽáĭįáĬķáĪĿ": 1500,
      "áĪ½áĬ¨áĪŃ": 1501,
      "áĭ°áĪ¨áĮĪ": 1502,
      "ĠáĪŃáĬ¥": 1503,
      "ĠáīłáĬŃ": 1504,
      "ĠáĬĲáĮĪáĪ®áī½áĬķ": 1505,
      "áĮĪáĭĭáĪį": 1506,
      "áīłáĪ¨áī³": 1507,
      "ĠáĬ¥áĭļáĭ«": 1508,
      "áĭ«áĭĻ": 1509,
      "áīĢáĬĳ": 1510,
      "ĠáįĪáīĥ": 1511,
      "áĪ³áĪį": 1512,
      "ĠáĪĪáĪĿáĪ³áĪĮ": 1513,
      "áĪĮáĬŃáīµ": 1514,
      "ĠáīłáĬ¢": 1515,
      "áįĪáĪĪáĮį": 1516,
      "áĮłáĬķ": 1517,
      "ĠáīłáĪĺáĮĢáĪĺáĪªáĭ«": 1518,
      "áĬķáĭ±áĪµáīµáĪª": 1519,
      "ĠáĮłáĬķáĬ«áĪ«": 1520,
      "ĠáĬ¥áĭµáĮĪ": 1521,
      "ĠáĪĺáĮ£": 1522,
      "áĪŀáĬ¨áĪŃ": 1523,
      "áĪ³áĬĶ": 1524,
      "ĠáĪ©": 1525,
      "áĭ²áĪ±": 1526,
      "ĠáĭŃáĪįáīħ": 1527,
      "ĠáĪļáĪĬáĭ®áĬķ": 1528,
      "áī´áĬŃ": 1529,
      "ĠáĪĪáĪĺáĪµáĪ«áīµ": 1530,
      "ĠáīłáĪ½": 1531,
      "ĠáĬ«áĪĪ": 1532,
      "ĠáĪĺáĪĿ": 1533,
      "áĮĭáĪ«": 1534,
      "áįįáīµáĪĦ": 1535,
      "ĠáīłáīħáĪŃáī¡": 1536,
      "áĮĪáĬĲ": 1537,
      "ĠáĪĪáĪĽáĪ³": 1538,
      "áĪįáĬ¨áīµ": 1539,
      "áĮįáīł": 1540,
      "áĮŃáĪŃ": 1541,
      "áĮ¡áīµ": 1542,
      "ĠáīłáĪĽáĬķáĬĽáĭįáĪĿ": 1543,
      "áīħáĪŃáī¥": 1544,
      "ĠáīĢáĭ°áĪĿ": 1545,
      "ĠáĬ¨áī³": 1546,
      "Ġáĭ°áĪµ": 1547,
      "ĠáĭĿáīħáī°áĬĽ": 1548,
      "áĪĭáĪĿ": 1549,
      "Ġáĭ«áĮįáĬĻ": 1550,
      "Ġáĭ´": 1551,
      "ĠáĬ¨áĪµ": 1552,
      "áĮįáĭļ": 1553,
      "áĪĿáīłáĪŃ": 1554,
      "áĪĽáĭį": 1555,
      "ĠáĬ¥áĬķáĭ°áĭļáĪħ": 1556,
      "Ġáīµáī½áĪĭ": 1557,
      "ĠáĬ¥áīĥáĭİáī½": 1558,
      "Ġáī¥áĪĪáĭį": 1559,
      "áĬķáĮĢ": 1560,
      "áĪ°áī¦áī½": 1561,
      "áĪªáīµ": 1562,
      "áĬĲáīµáĬķ": 1563,
      "áĬĴáĭį": 1564,
      "ĠáīģáĮ¥": 1565,
      "ĠáĬłáĭ³áĭ²áĪµ": 1566,
      "Ġáī°áĬĵáĮįáĪ¯áĪį": 1567,
      "áĪĢáĭŃ": 1568,
      "Ġáīłáī°áĮ¨áĪĽáĪªáĪĿ": 1569,
      "ĠáĬ¥áĮħáĮį": 1570,
      "ĠáĪĽáĪ»áĪ»": 1571,
      "áĪĺáĪĪáĬ¨áī°": 1572,
      "Ġáīĭ": 1573,
      "Ġáĭ¨áĮİ": 1574,
      "Ġáĭ¨áĪĿáĬķ": 1575,
      "ĠáĪµáī¥": 1576,
      "Ġáī£áĪħáĪªáĭ«": 1577,
      "áĬ¨áī³áī°": 1578,
      "ĠáĬłáĪĪáĪĺ": 1579,
      "ĠáįįáįģáĪĿ": 1580,
      "ĠáīłáĪļáīĢáĮ¥": 1581,
      "áĭ«áĭĺ": 1582,
      "ĠáīłáĪ¨": 1583,
      "Ġáĭ«áĬ«áīµ": 1584,
      "áĬĵáĬķ": 1585,
      "áĭµáĪŀ": 1586,
      "ĠáĮįáĪ«": 1587,
      "Ġáīłáī£": 1588,
      "Ġáĭ«áĪĭ": 1589,
      "áĮłáĬĵáīĢ": 1590,
      "áįĥáįĢ": 1591,
      "Ġáī£áĪħáĪª": 1592,
      "áĬĵáĮĪáĪŃ": 1593,
      "Ġáī°áĮłáīĥáĪļ": 1594,
      "áĬªáĭ«": 1595,
      "áĮłáīłáīĢ": 1596,
      "ĠáĬķáĮįáĭµ": 1597,
      "áĮłáī£": 1598,
      "áĪįáĪµ": 1599,
      "ĠáīłáĪĺáĮłáīĢáĪĿ": 1600,
      "áīĨáĪĿ": 1601,
      "áĭ°áĮĪ": 1602,
      "Ġáĭ°áĪħáĬĵ": 1603,
      "áĪļáĭİáī½": 1604,
      "áĬ¥áĪ«": 1605,
      "Ġáĭ¨áįĢ": 1606,
      "ĠáĭĪáĪ«áīµ": 1607,
      "áįĨáī½": 1608,
      "áĮ¨áĪĺáĪŃ": 1609,
      "áĪįáĬķ": 1610,
      "ĠáĮĦ": 1611,
      "áĪĢáĬķ": 1612,
      "Ġáī¥áĪŃ": 1613,
      "áįķáĪĭ": 1614,
      "ĠáĪĽáĭĪáīħ": 1615,
      "áĭ¢": 1616,
      "ĠáĪĺáĪĪáĭ«": 1617,
      "ĠáĬ¥áĪµáĬ«": 1618,
      "ĠáĪĺáįįáīµáĪĦ": 1619,
      "Ġáī°áĮ«": 1620,
      "áĪĭáĬŃ": 1621,
      "áĮ©": 1622,
      "ĠáĪĪáĬ¥áĪŃáĪµáĭİ": 1623,
      "ĠáĬ¥áįĪáĪįáĮĭ": 1624,
      "áĪ©áīµ": 1625,
      "Ġáī¥áĭĻáĭįáĬķ": 1626,
      "áĭµáĪĢ": 1627,
      "ĠáĬ¨áĭļáĭ«áĪĿ": 1628,
      "áĪĪáĬĽáĭį": 1629,
      "Ġáĭ¨áĪļáī½áĪī": 1630,
      "Ġáĭ°áĪµáī°áĬĽ": 1631,
      "Ġáī¶": 1632,
      "áĭ«áĮŃ": 1633,
      "áĪ°áīł": 1634,
      "áĭ¨áĭį": 1635,
      "ĠáĬ¥áĭįáĬĲáī°áĬĽ": 1636,
      "áĪĭáįĬ": 1637,
      "áĭ³áĪľ": 1638,
      "áĪħáĪ¨": 1639,
      "áĮİáī¥": 1640,
      "ĠáīµáĬ©áĪ¨áīµ": 1641,
      "ĠáīłáĪģáĪīáĪĿ": 1642,
      "ĠáĬ¥áįĪáĪįáĮĭáĪĪáĪģ": 1643,
      "ĠáĪĿáĬŃáĪŃ": 1644,
      "áĪĮáīµ": 1645,
      "ĠáīłáĪŃáĬ«áī³": 1646,
      "Ġáĭ¨áĬ¥áĪŃáĪµáĭİáĬķ": 1647,
      "áĪ¨áĭµ": 1648,
      "áĪĿáįķ": 1649,
      "áĬ«áī¤": 1650,
      "áī¬": 1651,
      "áĭ°áī¥": 1652,
      "áĭĭáīµ": 1653,
      "áĮ¦áī½": 1654,
      "áĬ¨áįįáī°áĬĽ": 1655,
      "ĠáĬłáĭ°áĪŃáĮĭ": 1656,
      "áĮłáĭ¨": 1657,
      "Ġáĭ¨áī£áĪħáĪŃ": 1658,
      "ĠáĪĪáĪĺáĮį": 1659,
      "Ġáĭ¨áīĨ": 1660,
      "áĬĵáĭŃáīµ": 1661,
      "Ġáĭ¨áĪļáīĨ": 1662,
      "ĠáīĢáĮ¥": 1663,
      "ĠáĪħáĭŃáĭĪ": 1664,
      "áĬĿáĪĿ": 1665,
      "áĮ«áĭĪáīµ": 1666,
      "áĬĲáĪ°": 1667,
      "Ġáī°áĬ¨áī³": 1668,
      "ĠáĭįáĪ³áĬĶ": 1669,
      "áĭ³áĬķ": 1670,
      "áĭ¬áĬķ": 1671,
      "áįĭáĮŃ": 1672,
      "áĬ¨áĪ°": 1673,
      "áĭĭáĭĪ": 1674,
      "ĠáĬłáĭ°áĪŃáĮĭáĪĪáĪģ": 1675,
      "áĪĪáĬĽáĪį": 1676,
      "áĪĪáĪĺ": 1677,
      "áĪĺáī»": 1678,
      "ĠáĪĺáĮ¥áįİ": 1679,
      "Ġáī°áĪµáĪĽáĪļ": 1680,
      "áĪŃáī²": 1681,
      "ĠáĬłáĪľáĪªáĬ«": 1682,
      "ĠáĬłáīħáĪ«": 1683,
      "ĠáĬłáī¥áĭĽáĬĽ": 1684,
      "ĠáĬ¥áĬķáĭ°áĪļáī½áĪī": 1685,
      "ĠáĬłáĭµáĪ«": 1686,
      "Ġáīłáīł": 1687,
      "áĪģáĭµ": 1688,
      "áĭ³áī³": 1689,
      "ĠáĬłáĪµáī°áĭ³áĭ°áĪŃ": 1690,
      "ĠáĬĲáĮ¥áī¥": 1691,
      "áī¶áī¹": 1692,
      "Ġáĭ¨áī°áīĢ": 1693,
      "ĠáĮĵáĭ°áĬĽ": 1694,
      "ĠáĪĺáĪįáĬ¥": 1695,
      "ĠáĪĺáĮĭ": 1696,
      "ĠáĮįáĪĿáĮĪáĪĽ": 1697,
      "áĭĪáĭ°": 1698,
      "áĭµáĪĢáĬĴ": 1699,
      "ĠáĭįáĪĢ": 1700,
      "áĪ«áĭŃ": 1701,
      "ĠáĬłáĪįáī°": 1702,
      "ĠáĪĪáĪģáĪīáĪĿ": 1703,
      "ĠáĭŃáĪ°áĪ«": 1704,
      "áĬ¨áįĭ": 1705,
      "ĠáĪĪáĪĽáĭĪáīħ": 1706,
      "áī¤áī°áĪ°áī¥": 1707,
      "áīģáĪŃ": 1708,
      "Ġáī¤áī°áĪ°áī¥": 1709,
      "Ġáīłáĭį": 1710,
      "ĠáĬłáĪĭáĪĽ": 1711,
      "ĠáĬłáīħáĪŃ": 1712,
      "ĠáĪħáįĥ": 1713,
      "ĠáĪģáĪĪáī°áĬĽ": 1714,
      "áĬŀáī½áĬķ": 1715,
      "áĭĺáĮĭáĮħ": 1716,
      "ĠáīłáĪį": 1717,
      "ĠáĬķáī¥áĪ¨áīµ": 1718,
      "Ġáī£áĪį": 1719,
      "ĠáĬ©áī£áĬķáĭ«áĭİáī½": 1720,
      "Ġáĭ¨áįĸ": 1721,
      "ĠáĬŃáĪµáī°": 1722,
      "áĮħáī¶áī½": 1723,
      "Ġáĭ¨áĭļáĪħ": 1724,
      "áĬķáī²": 1725,
      "ĠáĪ°áįĬ": 1726,
      "ĠáīģáĪįáįį": 1727,
      "áĪŃáĬĲáīµ": 1728,
      "áĬķáĭ´": 1729,
      "áĪ¨áĭ±": 1730,
      "áī£áĭŃ": 1731,
      "Ġáĭ²áĭĽ": 1732,
      "ĠáĪĺáĪ³áĪªáĭ«áĭİáī½": 1733,
      "Ġáĭ¨áĮįáī¥": 1734,
      "áĪ´áīµ": 1735,
      "ĠáĪĺáĪµáĪĺáĪŃ": 1736,
      "áĬ¨áĪĭáĬ¨": 1737,
      "ĠáįĸáĪĬáĪ²": 1738,
      "ĠáīłáĪµáī°": 1739,
      "ĠáįĮ": 1740,
      "ĠáĪĺáĪµáĪ«áīµ": 1741,
      "Ġáĭ°áĮįáĪŀ": 1742,
      "ĠáĭŃáĮĪáī£": 1743,
      "Ġáĭ¨áĬłáĪĪáĪĿ": 1744,
      "áīłáīµáĬķ": 1745,
      "ĠáĭµáĪĿáįħ": 1746,
      "áĬķáīĢáĪ³": 1747,
      "ĠáĪĺáĬķáĮįáĪµáīµ": 1748,
      "áĪ¨áĪµ": 1749,
      "ĠáĪĺáĪ°áĪ¨": 1750,
      "ĠáĮĤ": 1751,
      "áĪģáīµ": 1752,
      "Ġáīħáĭ³áĪľ": 1753,
      "áĬ¤áĪį": 1754,
      "ĠáĬ¥áĬĲáĪ±": 1755,
      "Ġáī°áĭĪ": 1756,
      "ĠáĪĪáīł": 1757,
      "Ġáī³áĭĭáīĤ": 1758,
      "Ġáĭ¨áĪļáĬ¨áī°": 1759,
      "ĠáĪ°áĪ«áī°áĬŀáī½": 1760,
      "ĠáīłáĬ¥áĭįáĬĲáī±": 1761,
      "ĠáĬ¥áĪµáĬ«áĪģáĬķ": 1762,
      "Ġáĭ¨áĭĺ": 1763,
      "ĠáĬ¥áī½áĪĭ": 1764,
      "áĬĲáĪŃ": 1765,
      "ĠáĬ¥áĬķáĬŃáī¥": 1766,
      "ĠáĮĪáīłáĭ«": 1767,
      "Ġáĭ¨áĪ°áĭį": 1768,
      "Ġáīłáī°áĪĪáĭŃ": 1769,
      "ĠáĬ¥áī½áĪĭáĪĪáĪģ": 1770,
      "áĪŀáī½áĬķ": 1771,
      "ĠáĭįáĮ¤áīµ": 1772,
      "ĠáĪµáī³": 1773,
      "ĠáĬĴ": 1774,
      "Ġáīłáĭ°áĬķ": 1775,
      "áĪ¨áĮħáĪĿ": 1776,
      "áĪ³áĪµ": 1777,
      "ĠáĮĥ": 1778,
      "áī¥áĭĽ": 1779,
      "ĠáīłáĬłáĮłáīĥáĪĭáĭŃ": 1780,
      "áĭįáĪ®": 1781,
      "áĪĿáĪħáĪŃ": 1782,
      "áĪµáĬŃ": 1783,
      "ĠáĭŃáĪ¨áĭ³": 1784,
      "Ġáĭ¨áī°áĪĪáĭ¨": 1785,
      "áĬĵáĭŃáīµáĭµ": 1786,
      "Ġáī°áĮĪ": 1787,
      "ĠáĮ£áįĭáĮŃ": 1788,
      "áĬķáīĭ": 1789,
      "áĬĸáĪªáĭ«": 1790,
      "ĠáĮ¥áĬĵáīµ": 1791,
      "áĪĪáī²": 1792,
      "ĠáĪĿáĪŃáīµ": 1793,
      "ĠáĬ¥áĬķáĭ°áĪĿ": 1794,
      "áĮįáīłáĪªáĭ«": 1795,
      "ĠáĬĲáĬķ": 1796,
      "áĭĪáĮĪáĭµ": 1797,
      "Ġáĭ¨áī°áĭĪáĪ°áĬĲ": 1798,
      "áĪĺáĪµáĪį": 1799,
      "ĠáīłáĬ¥áĭįáĬĲáīµ": 1800,
      "áĪĪáĪĽ": 1801,
      "Ġáīłáī¥": 1802,
      "ĠáįķáĪ®áĮįáĪ«áĪĿ": 1803,
      "ĠáĬ¥áĬķáĬŃáī¥áĬ«áī¤": 1804,
      "ĠáĬ¨áĮ¥": 1805,
      "áī»áĪĪ": 1806,
      "áĬĳáĬķ": 1807,
      "Ġáīłáĭ°áĬķáī¥": 1808,
      "ĠáīłáĬ®": 1809,
      "Ġáĭ«áĪīáīµ": 1810,
      "áĭįáĪ°áĭµ": 1811,
      "ĠáĪ¬": 1812,
      "áĬ®áĬĸáĪļ": 1813,
      "Ġáī£áĪī": 1814,
      "Ġáĭ¨áĬ¥áĪŃáĪµáĭİ": 1815,
      "áĬŀáī¹": 1816,
      "áī³áĪī": 1817,
      "áĮłáī¢áĭ«": 1818,
      "ĠáīģáĪŃ": 1819,
      "áīĢáĪĺáĮ¥": 1820,
      "ĠáīłáĮī": 1821,
      "ĠáĭĪáĭŃ": 1822,
      "áī½áĪĭáĪĪáĬķ": 1823,
      "ĠáĮ¥áĭ«áīĦáĭİáī½": 1824,
      "ĠáīłáĮĪ": 1825,
      "áī»áī¸áĭįáĬķ": 1826,
      "ĠáĬ¥áĬķáī½áĪĭáĪĪáĬķ": 1827,
      "Ġáĭ¨áĬłáĬ«áĪį": 1828,
      "áĭĺáĮĭáĮĢáīµ": 1829,
      "áĪ¨áįįáīµ": 1830,
      "ĠáĪĿáĪµáĪį": 1831,
      "áĮ¨áīµ": 1832,
      "áĪ¨áĪĿ": 1833,
      "ĠáĭĿáĮįáĮģ": 1834,
      "Ġáĭ¨áĭŃ": 1835,
      "áĪħáīłáĪ«áĭĬ": 1836,
      "áĪ³áĪĿáĬķ": 1837,
      "áĪ¸áĬĲ": 1838,
      "ĠáĪģáĬĶáī³áĭİáī½": 1839,
      "áĪ¾áī½": 1840,
      "ĠáĭŃáĪģáĬķ": 1841,
      "ĠáīĢáĪĪáĪĿ": 1842,
      "ĠáĪµáĬ¥": 1843,
      "ĠáĪĿáī¹": 1844,
      "Ġáĭ¨áĮĪáĬķáĭĺáī¥": 1845,
      "áĪĽáĪ½": 1846,
      "ĠáĮīáĭ³áīµ": 1847,
      "ĠáĬłáĪĭáī¸áĭį": 1848,
      "áĪªáĬķ": 1849,
      "áĬ«áĭŃ": 1850,
      "Ġáĭ«áĪ¨áĮĭáĮįáĮ¡": 1851,
      "áī£áĪĪáĪģ": 1852,
      "ĠáĪ°áĬłáī³áīµ": 1853,
      "Ġáī±": 1854,
      "Ġáĭ¨áįĭ": 1855,
      "áĭ³áĪŃ": 1856,
      "ĠáĬ³": 1857,
      "Ġáī¥áīĥáīµ": 1858,
      "ĠáĪĺáĪįáĬ«áĪĿ": 1859,
      "Ġáĭ¨áĮī": 1860,
      "Ġáĭ¨áĬłáĬ«áī£áī¢": 1861,
      "áĬ¨áĬĵ": 1862,
      "áįĬáĭİáī½": 1863,
      "ĠáĭįáĮ¤áī³áĪĽ": 1864,
      "Ġáĭ¨áīħáĪŃáī¥": 1865,
      "áĪ²áī²": 1866,
      "ĠáĪĤáĭ°": 1867,
      "áīĢáĪµ": 1868,
      "áĬķáĭĽáī¤": 1869,
      "Ġáĭ¨áĮ¤áĬĵ": 1870,
      "ĠáĮ¥áĮĪáĬĵ": 1871,
      "áĮĢáĪĿ": 1872,
      "ĠáįĬáīµ": 1873,
      "ĠáĬłáĮ¥": 1874,
      "ĠáĪµáī¥áĪµáī¥": 1875,
      "Ġáī°áĭĪáĭ³áĮħ": 1876,
      "áĬĶáīµ": 1877,
      "áĭ°áĪ¨áĮĪáĭį": 1878,
      "ĠáĪ¨áĮħáĪĿ": 1879,
      "áĪĭáī½áĬķ": 1880,
      "áī´áĬķ": 1881,
      "ĠáĬ¥áĬķáĭµáīµ": 1882,
      "áĮ¢": 1883,
      "áĪ³áī¥": 1884,
      "ĠáĪĿáĪį": 1885,
      "ĠáĪįáĮĨ": 1886,
      "ĠáĭĪáĭ²": 1887,
      "ĠáĬ¨áĬłáĬķáĭµ": 1888,
      "áĪİáīµ": 1889,
      "áĬĸáī½áĬķ": 1890,
      "ĠáĬ«áĪī": 1891,
      "ĠáīłáīĢáĮ¥áī³": 1892,
      "ĠáĬĸ": 1893,
      "ĠáīłáĪĢ": 1894,
      "Ġáī£áĪĪáī¤": 1895,
      "ĠáĭŃáĬĸ": 1896,
      "Ġáĭ¨áīħ": 1897,
      "ĠáĭŃáĮĪáĬĽáĪį": 1898,
      "ĠáĪ´áī¶áī½": 1899,
      "Ġáī´áĬŃáĬĸáĪİáĮĤ": 1900,
      "áĪ«áĪĪáĪģ": 1901,
      "áĭ°áĪ°": 1902,
      "áīłáĪĭ": 1903,
      "ĠáĭŃáĭĪ": 1904,
      "Ġáĭ¨áĪļáī½áĪį": 1905,
      "ĠáĪĺáĪµáĮłáīµ": 1906,
      "ĠáĬ¥áĭµáĪľ": 1907,
      "ĠáīłáĪĺáĪµáĪĺáĪŃ": 1908,
      "áĪµáī¡": 1909,
      "áĪĽáĪį": 1910,
      "Ġáĭ«áĭ°áĪŃ": 1911,
      "ĠáĪĺáĭ°áīłáĬĽ": 1912,
      "Ġáĭ¨áī°áĪĺáĪ°áĪ¨áī°": 1913,
      "Ġáĭ³áĪŃáī»": 1914,
      "ĠáĭĬ": 1915,
      "áĬĴáĬŃ": 1916,
      "ĠáĬłáĪµáī¸": 1917,
      "ĠáĪĽáĬķáĪĿ": 1918,
      "ĠáĪĿáĪŃáī¶áī½": 1919,
      "Ġáĭ¨áĬ¢áĬķ": 1920,
      "áĪŃáįį": 1921,
      "Ġáĭ±": 1922,
      "Ġáĭ«áīĢáĪŃ": 1923,
      "áĮĭáĪļ": 1924,
      "áĪ°áĪŃ": 1925,
      "ĠáĪ³áĪĿáĬķáī³áīµ": 1926,
      "ĠáĪĪáĪĺáĪµáĮłáīµ": 1927,
      "áĬķáī£": 1928,
      "ĠáīłáĬ¤": 1929,
      "áĪµáī¶áī½": 1930,
      "áĪ«áĪ²": 1931,
      "ĠáĪµáĪħ": 1932,
      "Ġáīłáī°áĪĪáĭŃáĪĿ": 1933,
      "áĬĭ": 1934,
      "áįįáĪį": 1935,
      "ĠáĪĢáī¥": 1936,
      "Ġáĭ¨áĭĭ": 1937,
      "ĠáīµáĪ«": 1938,
      "áĪ¹áĪ«áĬķáĪµ": 1939,
      "áĭĮáĪŃ": 1940,
      "áī£áĭĬ": 1941,
      "áĮ£áĬĿ": 1942,
      "ĠáĬķáĭµ": 1943,
      "ĠáĪĽáĪŃ": 1944,
      "ĠáĬłáī£áĪĭáīµ": 1945,
      "áĮįáĭļáĬł": 1946,
      "áĮįáĭļáĬłáī¥áĪĦ": 1947,
      "Ġáī³áĪª": 1948,
      "áĪŃáĪµáī²": 1949,
      "ĠáĭĺáĭŃ": 1950,
      "áįı": 1951,
      "áĪĬáĭĿ": 1952,
      "áĭĺáī°": 1953,
      "Ġáī°áĮ«áĭĭ": 1954,
      "Ġáī³áĪĭáīħ": 1955,
      "áĮ¥áĪ¨": 1956,
      "áįĭáĬķ": 1957,
      "ĠáĪĺáĬķáĮĪáĭ¶áī½": 1958,
      "ĠáīłáĮ¥áĪ©": 1959,
      "ĠáĬłáī£áĪį": 1960,
      "Ġáĭ«áĭ°áĪŃáĮĭ": 1961,
      "Ġáī°áīĭ": 1962,
      "áĬ¤áĪĿ": 1963,
      "ĠáīĢáĮ£": 1964,
      "ĠáĬŃáįįáĪĪ": 1965,
      "áĪ¶áī½áĬķ": 1966,
      "ĠáĬłáĭŃáĭ°áĪīáĪĿ": 1967,
      "Ġáī«": 1968,
      "áĪĺáĬķáīµ": 1969,
      "Ġáĭ¨áīµáĪĿáĪħáĪŃáīµ": 1970,
      "ĠáĬ¨áĪĨáĬĳ": 1971,
      "Ġáī°áī¥áĪİ": 1972,
      "áĪīáīµáĬķ": 1973,
      "áĪĽáĬķ": 1974,
      "ĠáĭŃáĮ¨": 1975,
      "ĠáįķáĪ¬": 1976,
      "ĠáīłáĪĮáĪĭ": 1977,
      "ĠáĮ«áĪĽ": 1978,
      "áĬ¨áĪĽ": 1979,
      "Ġáīłáī°áĪĺ": 1980,
      "ĠáĪµáī¥áĪ°áī£": 1981,
      "áĪĬáĬķ": 1982,
      "Ġáĭ°áĪħáĬķáĬĲáīµ": 1983,
      "ĠáĬ¥áĪģáĭµ": 1984,
      "áĭįáīħáĪĿ": 1985,
      "áĪ«áīħ": 1986,
      "ĠáĭĪáĭĺáī°": 1987,
      "áĪ»áĪ»áĪį": 1988,
      "Ġáĭ¨áĪ«": 1989,
      "áī»áĪĭáĪį": 1990,
      "áī»áī½áĬķáĬķ": 1991,
      "ĠáĭŃáī»áĪĭáĪį": 1992,
      "ĠáĬŃáįįáīµ": 1993,
      "áĪµáĪŃ": 1994,
      "áĪĪáĭµ": 1995,
      "áįİáī½áĬķ": 1996,
      "ĠáĬłáĭ«áĪµ": 1997,
      "Ġáĭ«áĪīáīµáĬķ": 1998,
      "Ġáĭ©áĬĴ": 1999,
      "áĬķáĪ²": 2000,
      "ĠáĪ°áĭİáī½áĬķ": 2001,
      "ĠáĭĪáĪµ": 2002,
      "áī²áĬŃ": 2003,
      "áĬķáĮĭ": 2004,
      "Ġáĭ«áĪĭáī¸áĭįáĬķ": 2005,
      "áĭĭáĭĭ": 2006,
      "áĬķáī³": 2007,
      "Ġáī°áĭ°": 2008,
      "ĠáĬłáĪĽáĪ«áĮŃ": 2009,
      "Ġáĭİáī¹": 2010,
      "áĬ¸": 2011,
      "ĠáĬłáĭ¨áĪŃ": 2012,
      "áĪ¨áĮ¡": 2013,
      "ĠáĬ¨áĪ°": 2014,
      "áĬ«áĪĦ": 2015,
      "áīģáĪĿ": 2016,
      "ĠáĬłáĪ¸": 2017,
      "ĠáĬŃáĪį": 2018,
      "ĠáĪĿáĪ½áīµ": 2019,
      "áĪŃáĭ³áīµ": 2020,
      "ĠáĪĺáĭĿ": 2021,
      "áįĸáĪŃ": 2022,
      "Ġáīµáī½áĪĭáĪĪáĪħ": 2023,
      "ĠáįįáīħáĪŃ": 2024,
      "áĮĪáĭĽ": 2025,
      "ĠáĬ¨áĪĭáĭŃ": 2026,
      "ĠáĭĪáĪĭ": 2027,
      "áī¡áī¥": 2028,
      "ĠáĪĢáĪĭáįĬ": 2029,
      "Ġáīħáĭµ": 2030,
      "ĠáĪĽáĪµáī³áĭĪáīĤáĭ«": 2031,
      "áĬķáįĥ": 2032,
      "ĠáīłáĬ«": 2033,
      "ĠáīłáĪ«áĪµ": 2034,
      "ĠáĬłáįį": 2035,
      "ĠáĪĿáĮį": 2036,
      "áĬĲáĮĭáĮĪáĪŃ": 2037,
      "ĠáĬŃáī¥": 2038,
      "ĠáĬłáįĪ": 2039,
      "áĬĵáĪī": 2040,
      "Ġáīłáĭ©": 2041,
      "ĠáĬ¥áĬķáĪµ": 2042,
      "ĠáĬłáĪµáī¸áĮĭáĪª": 2043,
      "ĠáĮįáĬķáĭĽáī¤": 2044,
      "áĪľáĬķ": 2045,
      "áĬĴáĭ«": 2046,
      "ĠáīµáĬ¥áĭĽ": 2047,
      "ĠáĪĽáĪħáīłáĪ«áĭĬ": 2048,
      "ĠáĭŃáīĨ": 2049,
      "áĬ©áĪĿ": 2050,
      "ĠáįĬáĪįáĪĿ": 2051,
      "ĠáīłáĮŃ": 2052,
      "áĮĪáĪ¨": 2053,
      "ĠáĪįáĪĽáīµ": 2054,
      "ĠáĬłáĪĪáĬĿ": 2055,
      "ĠáĬ¥áĬķáĭ³áĪį": 2056,
      "Ġáĭ¨áĭ©": 2057,
      "ĠáīłáĭĪ": 2058,
      "áĭ·áĪį": 2059,
      "áĪ°áĮ£": 2060,
      "ĠáįįáĮ¥áĬĲáīµ": 2061,
      "áĪĪáī²áĬ«": 2062,
      "áĭįáĭ«áĬķ": 2063,
      "áī§áĪį": 2064,
      "Ġáī¥áĪį": 2065,
      "ĠĠĠĠĠ": 2066,
      "ĠáīµáĪŃáĬ¢": 2067,
      "Ġáĭ¨áĪĺáĪµáĪĺáĪŃ": 2068,
      "ĠáĬ¥áĪ«áĪµ": 2069,
      "áĬ¨áįĪ": 2070,
      "ĠáĭĪáĬķáĭµ": 2071,
      "ĠáĭŃáĪĺáĪµáĪĪáĬĽáĪį": 2072,
      "áī³áĭ°": 2073,
      "ĠáĪĻáĭļáīĥ": 2074,
      "áĪĺáī±": 2075,
      "ĠáĪĿáĪįáĬŃ": 2076,
      "ĠáĭįáĭŃ": 2077,
      "ĠáĪĪáĪĺáĪĨáĬķ": 2078,
      "áĪ¶áĪµáīµ": 2079,
      "ĠáĪİ": 2080,
      "áĮįáĬķ": 2081,
      "áįķáĪª": 2082,
      "ĠáĪĪáĪĺáĮĢáĪĺáĪªáĭ«": 2083,
      "áĪ¨áĭ³áīµ": 2084,
      "Ġáĭ¨áī°áĪĪáĪĺ": 2085,
      "Ġáī¥áī¸": 2086,
      "áĬĸáĪ¨áĭį": 2087,
      "ĠáĪĬáĪĨáĬĳ": 2088,
      "ĠáĬłáĪĪáī¥áĬĿ": 2089,
      "ĠáĪŀáĭ´": 2090,
      "ĠáĭµáĪŃáĮħáīµ": 2091,
      "ĠáĬ¥áĪŃáĭ³áī³": 2092,
      "áĪ«áĮŃ": 2093,
      "ĠáĮįáĭµ": 2094,
      "ĠáĪĪáĪĽáĪµáī°": 2095,
      "áĭĪáĪ°áĬĳ": 2096,
      "Ġáĭ¨áĪĺáĮĢáĪĺáĪªáĭ«áĭį": 2097,
      "áĬ¨áĪĭáĬ¨áĪį": 2098,
      "Ġáī¥áĪıáĪį": 2099,
      "Ġáĭ¨áĭ°áĬķáīł": 2100,
      "áī¨áĪŃáĪ²áī²": 2101,
      "ĠáīłáĪļáīĢáĮ¥áĪĪáĭį": 2102,
      "ĠáĪ°áĪĭáĪĿ": 2103,
      "áĪĺáĪĪáĬ¨": 2104,
      "áĮ§": 2105,
      "ĠáĪĽáĬŃ": 2106,
      "áī¢áĭİáī½": 2107,
      "Ġáĭ¨áĪĺáĬªáĬĵ": 2108,
      "Ġáĭ¨áĪħáĭĿáī¥": 2109,
      "áįģáĪħ": 2110,
      "ĠáĬ¥áĭµáĮĪáīµ": 2111,
      "áĭįáĪį": 2112,
      "áĬĵáĪ½": 2113,
      "Ġáī¥áĪİáĮį": 2114,
      "áī°áĬ®": 2115,
      "áĬĲáīħ": 2116,
      "áī´áĪį": 2117,
      "ĠáĪĺáī°áĮįáīłáĪªáĭ«": 2118,
      "ĠáĭµáĪħáĪ¨": 2119,
      "áĭ°áĪŃáĪµ": 2120,
      "áĪ«áĪĪáĬķ": 2121,
      "ĠáĬ¨áĪĿ": 2122,
      "ĠáĮ¥áĬĵ": 2123,
      "Ġáī£áĪĪáĪĻáĭ«": 2124,
      "áī¿": 2125,
      "áĪ°áĪµ": 2126,
      "áĭĺáĪŃ": 2127,
      "ĠáĬłáĮĪáĪįáĮįáĪİáī¶áī½": 2128,
      "ĠáĪĿáĪ³áĪĮ": 2129,
      "áĮĪáĬĵáĬĺáīµ": 2130,
      "áĬķáĬ¨áī£": 2131,
      "ĠáĮ¥áīłáī¥": 2132,
      "áĮīáĪŃ": 2133,
      "ĠáįĪáī°áĬĵ": 2134,
      "Ġáĭ¨áĪħáĭŃáĭĪáīµ": 2135,
      "Ġáī°áĪĺáĪį": 2136,
      "áĮłáįĭ": 2137,
      "áīģáīµ": 2138,
      "ĠáĭľáĬĵ": 2139,
      "Ġáĭ¨áĭµáĪŃ": 2140,
      "ĠáĬĲáĮŃ": 2141,
      "ĠáĬ¥áĬĲáĭļáĭ«": 2142,
      "áĮĪáĭ°": 2143,
      "ĠáĬłáĪįáĬĲáīłáĪ¨": 2144,
      "Ġáĭ¨áĬ¦": 2145,
      "ĠáĪĺáĭĭ": 2146,
      "Ġáī°áĪĽáĪª": 2147,
      "Ġáĭ¨áĪļáįĪáĪįáĮī": 2148,
      "áĮłáĪĭ": 2149,
      "ĠáĪĪáĪĺáĮłáīĢáĪĿ": 2150,
      "ĠáĪ³áĮ¥": 2151,
      "ĠáĪĽáĬ¥áĬ¨áĪį": 2152,
      "ĠáĪĿáĬ¥áĪ«": 2153,
      "ĠáĬ¥áĬķáĭ²áĪħ": 2154,
      "ĠáĪĽáĪħáīłáĪ¨áĪ°áī¥": 2155,
      "áĬ¨áĪĭáĬ¨áĭ«": 2156,
      "áĪĺáĮ¥": 2157,
      "ĠáĪĪáĪĽáĪ¨áĮĭáĮĪáĮ¥": 2158,
      "Ġáīłáī°áĪĺáĪĪáĬ¨áī°": 2159,
      "áįķáĪ¬": 2160,
      "Ġáī¢áĪ®": 2161,
      "ĠáįķáĪ®áĮĢáĬŃáīµ": 2162,
      "áĪŃáĪ³": 2163,
      "áĪĭáĪ³": 2164,
      "ĠáĪħáĪĺáĪĿ": 2165,
      "ĠáĪµáĪĿáĪĿáĬĲáīµ": 2166,
      "Ġáĭ¨áĬķ": 2167,
      "áĮİáī½": 2168,
      "áĮ¡áĬķ": 2169,
      "ĠáĪļáĭ²áĭ«": 2170,
      "ĠáĪĺáĪįáĬ©": 2171,
      "áĭĺáĮĪ": 2172,
      "áĪ´áī¶áī½": 2173,
      "ĠáĮįáĪĿáīµ": 2174,
      "áĮ¨áĭĭáī³": 2175,
      "Ġáīłáī°áĪĪáĭ«áĭ©": 2176,
      "Ġáīłáĭļáĭ«": 2177,
      "ĠáĪĪáī¥áĭĻ": 2178,
      "ĠáĪµáĮĭ": 2179,
      "áĬ¨áĪĪ": 2180,
      "ĠáĪĿáĬķáĭµ": 2181,
      "Ġáĭ°áĮĭ": 2182,
      "Ġáĭ¨áĬłáĪľáĪªáĬ«": 2183,
      "ĠáīłáīħáĪŃáī¥": 2184,
      "áĪĺáĬĵáĭĬ": 2185,
      "Ġáĭ¨áī°áĪ³": 2186,
      "áĭĿáĮį": 2187,
      "áĬķáĪ°áĪŃ": 2188,
      "áĪĭáĪĽ": 2189,
      "áīĨáĭ¨áīµ": 2190,
      "áĮ¦áī³": 2191,
      "Ġáĭ«áīĢáĪŃáī£áĪį": 2192,
      "Ġáĭ¨áī¥": 2193,
      "ĠáĪĺáĪĦáĭµ": 2194,
      "áīĢáĭ°": 2195,
      "ĠáĪĪáĪĽáĬķáĬĽáĭįáĪĿ": 2196,
      "áĪŀáĪĭ": 2197,
      "ĠáĬ¥áĪĺ": 2198,
      "áĪµáī¥": 2199,
      "áĪĪáĮĭ": 2200,
      "ĠáĬ¥áĬķáĭ³áĭŃ": 2201,
      "áīĭáĪį": 2202,
      "áĬķáĭ³áĬķáĭµ": 2203,
      "áĪĦáĭ±": 2204,
      "áĭ°áĭįáĪī": 2205,
      "ĠáĬ¥áĬķáĮį": 2206,
      "ĠáĬłáĭįáīĥáĪĪáĪģ": 2207,
      "áĬŃáĪŃ": 2208,
      "Ġáī¥áĪĪáĭĭáĪį": 2209,
      "ĠáĮīáĪį": 2210,
      "áĪ¸áĬĲáįį": 2211,
      "ĠáĬ¥áĪŃáĪµáĭİáĬķ": 2212,
      "áī£áĪī": 2213,
      "Ġáĭ¨áĪħáĬŃáĪĿáĬĵ": 2214,
      "áīłáĪī": 2215,
      "ĠáĪĪáĬłáĬķáĭµ": 2216,
      "ĠáĮ¤áĬĵáĪĽ": 2217,
      "ĠáĭŃáĮĪáĬĽáĪī": 2218,
      "ĠáĬ«áĪĪáĭį": 2219,
      "Ġáĭ¨áĪĿáĪŃáīµ": 2220,
      "ĠáĪ½áĪį": 2221,
      "Ġáīłáĭ¨áīĢáĬĳ": 2222,
      "Ġáī°áĬ¨áī³áī³áĭŃ": 2223,
      "Ġáĭ¨áĪĪáĭį": 2224,
      "ĠáĪĿáĭµ": 2225,
      "ĠáįĪáĮłáĪ«": 2226,
      "áĭ°áĬķáīł": 2227,
      "ĠáĪĽáĭį": 2228,
      "Ġáīħáįħ": 2229,
      "áĮĪáĬķáī£áīµ": 2230,
      "ĠáĭŃáĮĪáī£áĪį": 2231,
      "áīµáĪĿ": 2232,
      "ĠáĮĪáįĨáī½": 2233,
      "Ġáĭ°áĪ¨áĮĥáĭİáī½": 2234,
      "ĠáĭĪáĭµ": 2235,
      "áĮ´": 2236,
      "áĭ³áĪļ": 2237,
      "ĠáīĭáĬķáīĭ": 2238,
      "ĠáĪĺáĪª": 2239,
      "Ġáĭ«áĮĪáĬĽáĪī": 2240,
      "ĠáīµáĪįáīģ": 2241,
      "Ġáĭ«áĭ°áĪŃáĮĪáĭĭáĪį": 2242,
      "ĠáĪĪáĪĺáįįáĮłáĪŃ": 2243,
      "Ġáĭ°áī¥": 2244,
      "ĠáĭµáĬķáīħ": 2245,
      "áĮĪáĬĵáĬĿ": 2246,
      "áī¨áĪµáīµ": 2247,
      "áĬĹáĪį": 2248,
      "ĠáĭįáĪµ": 2249,
      "ĠáĪĪáĪĮ": 2250,
      "ĠáĬłáĪµáī£áĪĪáĪģ": 2251,
      "ĠáĬłáĪĭáĭįáīħáĪĿ": 2252,
      "áĮįáĭļáĬłáī¥áĪĦáĪŃ": 2253,
      "áī£áĪŃ": 2254,
      "ĠáĪµáī´áīµ": 2255,
      "áįħáĪģ": 2256,
      "áĪ´áĬķ": 2257,
      "áī°áĪ®áī½": 2258,
      "áĪĬáĭ«": 2259,
      "ĠáĪĪáĬ¥áĬĶ": 2260,
      "ĠáĪĢáĪ³áī¦áī½": 2261,
      "áĬķáī°": 2262,
      "áĪªáĪµ": 2263,
      "áĭ°áĪŃáĮĪáĭį": 2264,
      "ĠáīłáĮİ": 2265,
      "ĠáĪĺáĭµáĪĢáĬĴ": 2266,
      "áĪģáĪĪáī°áĬĽ": 2267,
      "ĠáĪĽáĪ»áĪ»áĭ«": 2268,
      "Ġáĭ¨áĪ½": 2269,
      "ĠáĮ¥áīģáĪŃ": 2270,
      "áĪµáīµáĪ«": 2271,
      "áĪĺáĪĪáĬ¨áīµ": 2272,
      "Ġáĭ«áĪįáĪĨáĬĲ": 2273,
      "ĠáīµáĪĿáĪħáĪŃ": 2274,
      "áįĪáĪįáĮĪáĭį": 2275,
      "ĠáĬ¨áĪĮáĪİáī½": 2276,
      "áĮ´áĭĽ": 2277,
      "ĠáĭŃáĪµ": 2278,
      "ĠáĭĪáĮ£": 2279,
      "ĠáīłáĪļáĭ«áĪµ": 2280,
      "ĠáĪĽáĬķáīłáī¥": 2281,
      "áĭ³áĭ³": 2282,
      "áĭµáĪ¨áĪµ": 2283,
      "áĭĪáĮ¥": 2284,
      "Ġáĭ°áĬķáīłáĬŀáī½": 2285,
      "ĠáīĢáĪĪ": 2286,
      "Ġáī½áĮįáĪ®áī½": 2287,
      "áįĲáĪŃ": 2288,
      "áĪĮáĬŃáīµáĪªáĬŃ": 2289,
      "áĬ¨áĬĵáĭĪ": 2290,
      "ĠáĪĿáĪįáĬŃáīµ": 2291,
      "ĠáĬłáĮĪ": 2292,
      "Ġáī¥áĪ«": 2293,
      "áĮ«áĭİáī½": 2294,
      "áĬ¡": 2295,
      "ĠáīłáĬ¨áįįáī°áĬĽ": 2296,
      "áĮĪáī£áīµ": 2297,
      "áĬŃáįĪ": 2298,
      "ĠáĪĪáĪĽáīħáĪ¨áī¥": 2299,
      "áī£áĭŃáĪį": 2300,
      "áĬ¨áĪ¨": 2301,
      "ĠáĪļáĬĵ": 2302,
      "ĠáįķáĪ®áĮĢáĬŃ": 2303,
      "ĠáĪĪáīłáĪĪáĮł": 2304,
      "ĠáĪµáĬĲ": 2305,
      "Ġáĭ³áĭŃ": 2306,
      "áĭįáĪ®áįĵ": 2307,
      "áĭ°áĬĽ": 2308,
      "áĭĭáĬķ": 2309,
      "ĠáĪĪáĪħ": 2310,
      "ĠáĪĪáĪĺáĪŃáĭ³áīµ": 2311,
      "ĠáĮĪáĬĵ": 2312,
      "ĠáĬĽáĭį": 2313,
      "áīĢáĭĿ": 2314,
      "ĠáĪµáĪĪáĪĨáĬĲ": 2315,
      "ĠáĬ®áĪŃ": 2316,
      "ĠáĬłáĪĪáī¥áĭİáīµ": 2317,
      "Ġáīłáī°áĪĺáĪ³áĪ³áĭŃ": 2318,
      "ĠáĬłáĭĿ": 2319,
      "ĠáĪĺáĪĨáĬĵ": 2320,
      "ĠáĪĺáĪįáĬ¥áĬŃáīµ": 2321,
      "áīĨáī½": 2322,
      "ĠáīłáĬ¥áĭ«áĬķáĭ³áĬķáĭ±": 2323,
      "ĠáĬ¨áĬ¥áĬĲáĭļáĪħ": 2324,
      "ĠáĬłáĪ«áīµ": 2325,
      "ĠáĬ¥áĬĵáĭ°áĪŃáĮĭ": 2326,
      "ĠáĭŃáĭ°áĭįáĪī": 2327,
      "áĭĺáĬķ": 2328,
      "áĭ±áīµ": 2329,
      "ĠáĪĨáĬĸáĪĿ": 2330,
      "ĠáĬ¥áī£áĬŃáĭİ": 2331,
      "ĠáĬłáĮŃáĪŃ": 2332,
      "áĪħáīłáĪ¨": 2333,
      "áĭ²áīµ": 2334,
      "áĬĲáīłáĪ¨áĭį": 2335,
      "Ġáī£áĭŃ": 2336,
      "áĬ«áī£áī¢áĭį": 2337,
      "ĠáĬ¥áĬĵáĭ°áĪŃáĮĭáĪĪáĬķ": 2338,
      "Ġáĭ¨áįķáĪ®": 2339,
      "áĪĻáĬķ": 2340,
      "Ġáĭ«áĪ³áĭ«áĪį": 2341,
      "ĠáĬłáī¥áĭĽáĬĽáĭİáī¹": 2342,
      "Ġáĭ«áĬĲáĪ°": 2343,
      "ĠáĭĪáĭ²áĭ«áĭį": 2344,
      "Ġáĭ¨áī°áįĪ": 2345,
      "ĠáįĭáĭŃ": 2346,
      "áĪ½áĬ¨áĪŃáĬ«áĪª": 2347,
      "áĬ¨áī³áī°áĪį": 2348,
      "ĠáĬłáĪµáī°áĭĭ": 2349,
      "áĭŃáĬĵáĬķáĪµ": 2350,
      "ĠáĭŃáĪ°áĪ«áĪį": 2351,
      "ĠáĮ¥áīłáīĥ": 2352,
      "áĬĿáī³": 2353,
      "Ġáī£áĪĪáī¤áīµ": 2354,
      "áĪĪáĮ¥": 2355,
      "ĠáĪĽáĪ¨": 2356,
      "ĠáĪī": 2357,
      "ĠáĬłáĬĲ": 2358,
      "ĠáĪĺáī¼": 2359,
      "ĠáĮĪáī¢": 2360,
      "áĪĪáī¥": 2361,
      "áī¸áĭįáĪĿ": 2362,
      "ĠáĮįáĪĪ": 2363,
      "áĪĬáīµ": 2364,
      "áĮĵáĭ´": 2365,
      "ĠáĬłáĮłáīĥ": 2366,
      "áīĢáĪ¨": 2367,
      "áįĬáĬŃ": 2368,
      "áĬ®áīµ": 2369,
      "ĠáĬ¥áĪµáĬª": 2370,
      "áĮĵáĪį": 2371,
      "ĠáĪĽáĪµáī³áĭĪáĪ»": 2372,
      "ĠáīłáĪ½áī³": 2373,
      "Ġáī£áĪħáĪªáĭ«áīµ": 2374,
      "Ġáĭ¨áī¡": 2375,
      "ĠáĮĮ": 2376,
      "ĠáĬłáĪµáīĢáĭµ": 2377,
      "ĠáĪĺáī¥áīµ": 2378,
      "ĠáĬłáĪ°áĪ«": 2379,
      "áīłáĪµ": 2380,
      "ĠáĬĲáī½": 2381,
      "Ġáīłáī°áī»áĪĪ": 2382,
      "Ġáī¥áĭĻáĪĿ": 2383,
      "ĠáĪģáĪĪáī±": 2384,
      "áĪµáīµáĬĵ": 2385,
      "áĪ·áĪį": 2386,
      "ĠáĮ¨áĭĭáī³áĭİáī½": 2387,
      "ĠáĭĺáĭŃáī¤": 2388,
      "áī½áĪīáĪĿ": 2389,
      "ĠáĪĻáĬ¨áĪ«": 2390,
      "ĠáĬ¥áĭįáīĢáīµ": 2391,
      "áĪªáĭį": 2392,
      "ĠáĭĪáĮ¥": 2393,
      "ĠáĬķáįģáĪħ": 2394,
      "áĪ¨áĬķáĮĵáĭ´": 2395,
      "ĠáĬ¨áīµ": 2396,
      "áĪ³áĭĬ": 2397,
      "ĠáĬ¥áĭ¨áĪ°áĪ«": 2398,
      "ĠáĬ¥áĭįáĬĲáīµ": 2399,
      "áĪ³áīģ": 2400,
      "ĠáĪµáĬķ": 2401,
      "ĠáĬ®áĪļ": 2402,
      "áįĵáĪŃ": 2403,
      "Ġáī¡áĭµáĬĸáī½": 2404,
      "Ġáĭ¨áĪ³": 2405,
      "áĮĤáī³áĪį": 2406,
      "ĠáĪĺáĮłáīłáīħ": 2407,
      "ĠáĮ¡": 2408,
      "ĠáĪĪáĮ¥": 2409,
      "ĠáĭŃáī³": 2410,
      "áĪıáī¸áĭį": 2411,
      "áīĭáīĭáĪĿ": 2412,
      "áĮłáīĢáĪĽ": 2413,
      "Ġáĭ¨áĭįáĪĢ": 2414,
      "áĪĺáĪĪáĬ¨áī±": 2415,
      "Ġáĭ¨áĪļáĮł": 2416,
      "ĠáĪ°áĪĽ": 2417,
      "ĠáīĢáĪŃ": 2418,
      "ĠáĮīáī¥áĬĿ": 2419,
      "ĠáĬ¥áĪ±áĬķ": 2420,
      "Ġáĭ«áĬ«áīµáī³áĪį": 2421,
      "Ġáĭ¨áĬ©": 2422,
      "áĪĺáĪ©": 2423,
      "áĪĢáĭĬ": 2424,
      "áĭĪáĪµáĭµ": 2425,
      "ĠáĬłáĪĪáĬķ": 2426,
      "ĠáĪģáĪĪáī±áĪĿ": 2427,
      "ĠáĪµáĪįáĮłáĬĵ": 2428,
      "áĪĭáī½áĬķáĪĿ": 2429,
      "ĠáĬ¥áĬķáįĪáĪįáĮĭ": 2430,
      "áĬŀáī»áī½áĬķ": 2431,
      "ĠáĭŃáĮłáĭŃ": 2432,
      "ĠáĬ¥áĬķáĮĤ": 2433,
      "áĮĪáĬĵáĬĻ": 2434,
      "ĠáĬ¥áĬķáįĪáĪįáĮĭáĪĪáĬķ": 2435,
      "ĠáīłáĪ«": 2436,
      "Ġáĭ«áĪµáī°": 2437,
      "Ġáĭ¨áī°áĮłáīłáīĢ": 2438,
      "ĠáĬŃáĪ¬": 2439,
      "ĠáĪĢáĮĪ": 2440,
      "ĠáīłáĪĽáĪµ": 2441,
      "áĭĺáĮĭáĮĢ": 2442,
      "Ġáī£áĪĪáĪĻáĭ«áĭİáī½": 2443,
      "ĠáĪįáī¥áĪµ": 2444,
      "ĠáĬ«áĪīáīµ": 2445,
      "ĠáĬłáĬķáī¥": 2446,
      "ĠáįĢáĪĢ": 2447,
      "áī¥áĪį": 2448,
      "ĠáĪįáĮ¥áįį": 2449,
      "ĠáĬłáįķ": 2450,
      "ĠáĪĺáįįáĮłáĪŃ": 2451,
      "áī¡áīµ": 2452,
      "ĠáĪµáĪ«áĭİáī½": 2453,
      "áĮĵáĮĵ": 2454,
      "áĬ¨áī°áĪĽ": 2455,
      "ĠáĬłáĪµáī°áĭ«áĭ¨": 2456,
      "áĭİáī»áī½áĬķ": 2457,
      "ĠáĪĪáĪĺáĮłáīłáīħ": 2458,
      "ĠáįĬáĪį": 2459,
      "áī½áĭį": 2460,
      "áĪĭáĪĪ": 2461,
      "áĮŃáīµ": 2462,
      "ĠáĬłáĪįáįİ": 2463,
      "áĮįáī£áĪŃ": 2464,
      "áĭ³áĬķáīµ": 2465,
      "Ġáĭ¨áĪĨáĬĲáĭį": 2466,
      "ĠáĪĺáĪŃáĪĢ": 2467,
      "ĠáīłáĪĽáĭµáĪ¨áĮį": 2468,
      "áĬĸáĪ«áī¸áĭį": 2469,
      "ĠáĭįáĭµáĭµáĪŃ": 2470,
      "ĠáĬ¨áī³áī½": 2471,
      "áĭĭáĭĭáĮŃ": 2472,
      "Ġáī¥áĪĦ": 2473,
      "ĠáīĢáĭŃ": 2474,
      "ĠáĪįáĭ©áĬĲáīµ": 2475,
      "ĠáĭŃáĭĺáīµ": 2476,
      "áĭµáĪµáīµ": 2477,
      "áĪħáĬķáĬĲáīµ": 2478,
      "Ġáĭ¨áĪļáīĨáĮłáĪ©": 2479,
      "áĭ«áĪī": 2480,
      "áĬķáĭİ": 2481,
      "ĠáĪĽáĪ«": 2482,
      "áĭ®áī½áĬķ": 2483,
      "ĠáĬ³áĪµ": 2484,
      "Ġáī°áĪ³": 2485,
      "Ġáĭ¨áī°áĭ«": 2486,
      "ĠáĬłáĭµáĪ«áĪ»": 2487,
      "Ġáĭ¨áĪļáĭĪ": 2488,
      "áĭ©áīµ": 2489,
      "áī¼áĬķ": 2490,
      "Ġáī°áĮįáī£áĪŃ": 2491,
      "ĠáĪĪáĪµáĪĭáĪ³": 2492,
      "ĠáīłáĪµáī°áīĢáĪŃ": 2493,
      "áĪĮáĮħ": 2494,
      "ĠáĪĨáĬĲáĭį": 2495,
      "Ġáĭ°áĬķ": 2496,
      "ĠáĭµáĪŃáĮħáī¶áī½": 2497,
      "ĠáĬłáĪĿáĪµáīµ": 2498,
      "Ġáĭ«áĭį": 2499,
      "Ġáī¤áī±": 2500,
      "áĪµáī±": 2501,
      "ĠáĬłáĭ²áĪ±": 2502,
      "Ġáī°áĪ«": 2503,
      "áīĨáĮ£áĮłáĪŃ": 2504,
      "Ġáī°áīĥ": 2505,
      "Ġáĭ¨áī°áĪ°áĪ«": 2506,
      "áĮīáīµ": 2507,
      "Ġáĭ¨áįĬ": 2508,
      "ĠáĬłáīħáĪĿ": 2509,
      "ĠáĪĽáĪĺ": 2510,
      "ĠáĬ¢áĬķáĭ±áĪµáīµáĪª": 2511,
      "ĠáĪĿáĬŃáĬķáĭ«áī¶áī½": 2512,
      "Ġáĭ«áĪµáįĪáĪįáĮį": 2513,
      "ĠáĮĪáįħáī³": 2514,
      "ĠáĭŃáĪĨáĬĵáĪī": 2515,
      "Ġáī°áĮįáī£áĪ«áĭĬ": 2516,
      "ĠáĭŃáīħáĪŃ": 2517,
      "áī¡áĬķ": 2518,
      "Ġáĭ¨áĪļáĪĪáĭįáĬķ": 2519,
      "áįİáĪŃ": 2520,
      "áĬ¨áī°áĪį": 2521,
      "ĠáīłáĪµáĪ«": 2522,
      "Ġáĭ¨áīĢáĪ¨": 2523,
      "áĭ°áĪ°áī±": 2524,
      "ĠáĬ¥áĪ«": 2525,
      "áĪĤáī¥": 2526,
      "ĠáĭŃáīĢáĮ¥": 2527,
      "áįįáī³áīµ": 2528,
      "ĠáĪ°áĬĲ": 2529,
      "Ġáĭ¨áĭĪáĭ°": 2530,
      "ĠáĬłáĬķáĭ±áĬķ": 2531,
      "áĪĿáĮ£áīµ": 2532,
      "áĬĲáĮĪáĪŃ": 2533,
      "áĪ°áīĥ": 2534,
      "ĠáĬ¥áĬķáĭ°áĪĮ": 2535,
      "Ġáĭ¨áī°áĬĲ": 2536,
      "ĠáĮĪáī¥": 2537,
      "ĠáīłáĬ¥áĬĲáĭļáĪħ": 2538,
      "áĪĺáĮ¡": 2539,
      "áĮĭáĮł": 2540,
      "ĠáĮ¥áĪŃ": 2541,
      "ĠáĬ¥áĬķáĭ°áĪļáī½áĪį": 2542,
      "Ġáĭ¨áĪļáĭ«áĪĿáĪŃ": 2543,
      "áĪ¸áĮ¥": 2544,
      "Ġáī£áĪĪáįīáīµ": 2545,
      "áįĴáī³áĪį": 2546,
      "áĬ«áī°": 2547,
      "ĠáĭĪáĭ°áįĬáīµ": 2548,
      "áĮĪáĬĵáĬĽ": 2549,
      "áĮīáĪĿ": 2550,
      "ĠáįįáĪĭáĮİáī¶áī½": 2551,
      "ĠáĪĺáīĨ": 2552,
      "áĭ³áĮħ": 2553,
      "ĠáĬŃáĪĬ": 2554,
      "áĬ®áī½áĬķ": 2555,
      "áĭĺáĮĭáĮģ": 2556,
      "ĠáīģáĮ¥áĮ¥áĪŃ": 2557,
      "ĠáĬķáĭµáįį": 2558,
      "áĪµáī¶": 2559,
      "áĪĿáĪ¨áīµ": 2560,
      "áī°áĪĿ": 2561,
      "ĠáĪĺáĭį": 2562,
      "ĠáĬ¨áĮį": 2563,
      "Ġáī°áīĢáĪĿ": 2564,
      "Ġáĭ¨áĪļáī½": 2565,
      "Ġáĭ¨áĬ¥áĮįáĪŃ": 2566,
      "áĪĪáĪŃ": 2567,
      "áįĥáįĢáĪĿ": 2568,
      "Ġáĭ©áĬĴáī¨áĪŃáĪ²áī²": 2569,
      "ĠáĭĪáĭ²áĭ«áĭįáĬĳ": 2570,
      "ĠáĭŃáĭĪáĪµ": 2571,
      "Ġáĭ¨áĪĪáĭįáĪĿ": 2572,
      "áī³áĪĪáĪģ": 2573,
      "áīħáĪ¨": 2574,
      "ĠáĪļáĬĴ": 2575,
      "ĠáĬłáĭįáĪ®": 2576,
      "ĠáĬłáĬ¥áĪĿáĪ®": 2577,
      "áĬĵáĭ³": 2578,
      "áĪ°áĮł": 2579,
      "Ġáĭ¨áĪļáĪ°áĪ«": 2580,
      "ĠáĬłáĪĺáī±": 2581,
      "ĠáĮ¦áĪŃáĬĲáīµ": 2582,
      "ĠáĪĺáĪ°áĪ¨áī³áĭĬ": 2583,
      "áĬķáīĥ": 2584,
      "áĪªáī±": 2585,
      "Ġáĭ¨áĪļáĪį": 2586,
      "ĠáĬ¥áĬĲáĪ±áĬķ": 2587,
      "áĪµáī¡áĬŃ": 2588,
      "áī£áĪª": 2589,
      "ĠáĪĽáĭŃ": 2590,
      "ĠáĪģáĪĭáī½áĬķáĪĿ": 2591,
      "áįķáī´": 2592,
      "Ġáĭ¨áĪħáĮį": 2593,
      "áĮ§áĪį": 2594,
      "Ġáĭ°áĪµáī³": 2595,
      "Ġáīłáī¦": 2596,
      "áĮįáĪ©": 2597,
      "Ġáī°áĮł": 2598,
      "áī³áī½áĬķáĬķ": 2599,
      "áįıáĪį": 2600,
      "áįħáĪģáįį": 2601,
      "ĠáīłáĪĻ": 2602,
      "ĠáĪĺáĮĪ": 2603,
      "áĬ¥áĪĿ": 2604,
      "Ġáī¥áīħ": 2605,
      "ĠáĪ½áįĭáĬķ": 2606,
      "ĠáĪŃáīĢáīµ": 2607,
      "áĪģáĪĪáī±áĪĿ": 2608,
      "áĪĿáĪµ": 2609,
      "ĠáĭŃáĮłáīĢáĪĻ": 2610,
      "Ġáī¥áĪ©": 2611,
      "Ġáĭ²áĭĽáĭŃáĬķ": 2612,
      "ĠáĭĪáĮ£áīµ": 2613,
      "ĠáĬ¥áĬķáĭ°áĪļáĭ«áĪµ": 2614,
      "áĮĭáĮĪáī¥": 2615,
      "ĠáĬ¥áĬķáĭ°áĪĿáīµ": 2616,
      "ĠáĪĪáĪĺáĪĪ": 2617,
      "ĠáĬ¥áĬķáĭ°áĪĽáĭŃ": 2618,
      "ĠáĪĺáĭµáĪ¨áĬŃ": 2619,
      "ĠáĭĪáĬķáĭ¶áī½": 2620,
      "Ġáĭ¨áĬłáĬķáĭµ": 2621,
      "ĠáĪħáįĥáĬĵáīµ": 2622,
      "Ġáĭ®": 2623,
      "ĠáĪµáĬ¬": 2624,
      "ĠáĬ«áĪŃáĭµ": 2625,
      "Ġáĭ¨áĪĿáĪŃ": 2626,
      "ĠáĪĿáĪŃáĪĺáĪ«": 2627,
      "ĠáĬłáĭįáī¶": 2628,
      "áĪŀáĬŃáĪ©": 2629,
      "áĬŃáĪ®": 2630,
      "ĠáįķáĪĭ": 2631,
      "Ġáĭ°áĪħáĬķáĬĲáī±": 2632,
      "Ġáī°áīĢáī£áĭŃ": 2633,
      "áįķáī´áĪĿáīłáĪŃ": 2634,
      "Ġáĭ¨áįĮ": 2635,
      "áįĪáĬķ": 2636,
      "áĮĭáĬĵ": 2637,
      "ĠáĬ¥áĬķáĮįáĭ³": 2638,
      "áĮ«áĬķ": 2639,
      "Ġáī°áĮĪáī¢": 2640,
      "Ġáĭ¨áī¢": 2641,
      "áī³áĪĪáĬķ": 2642,
      "ĠáĪĽáĮ¥": 2643,
      "ĠáĪħáĬķáįĥ": 2644,
      "áĮĪáĬĵáĬĺ": 2645,
      "ĠáĬłáĪĪáī¥áĬķ": 2646,
      "ĠáĭĪáĪ¨áīĢáīµ": 2647,
      "ĠáĪĺáĬķáĮį": 2648,
      "ĠáĪĪáīµ": 2649,
      "ĠáĪµáĬŃ": 2650,
      "ĠáĬłáĭµáĪŃáĮİ": 2651,
      "ĠáĪªáįĸáĪŃáīµ": 2652,
      "áĬŃáĪįáīµ": 2653,
      "Ġáĭ«áĪµáįĪáĪįáĮįáĭİáī³áĪį": 2654,
      "áĮįáĬĺ": 2655,
      "ĠáĭŃáĪĦ": 2656,
      "ĠáīłáĬ¦": 2657,
      "ĠáĬ¥áīħ": 2658,
      "ĠáĭŃáĪĿ": 2659,
      "áī£áĪĪáĬķ": 2660,
      "Ġáīħáĭ³áĪľáĬĵ": 2661,
      "ĠáĪĪáĪĺáĮĢáĪĺáĪŃ": 2662,
      "ĠáĭŃáĪĺáĪĪ": 2663,
      "ĠáĬ®áĭµ": 2664,
      "ĠáĬłáĪĽáĪ«áĮ®áī½": 2665,
      "ĠáĪµáī´áīµáĪµ": 2666,
      "ĠáĬĭáĪĭ": 2667,
      "Ġáĭ¨áĭ³": 2668,
      "áĭŃáī·áĪį": 2669,
      "áĭĪáĮ¡": 2670,
      "ĠáĪ°áĮ¥": 2671,
      "áĬķáĮĪáĭµ": 2672,
      "ĠáīģáĪ³áīģ": 2673,
      "Ġáĭ¨áī¤áī°áĪ°áī¥": 2674,
      "Ġáīłáĭĺ": 2675,
      "ĠáīłáīµáĬķ": 2676,
      "áĮłáĪªáĭ«": 2677,
      "ĠáĪµáĪªáīµ": 2678,
      "ĠáĮĪáīł": 2679,
      "ĠáĬķáī¥áĪ¨": 2680,
      "áĪµáīłáĭį": 2681,
      "ĠáīłáĪŀ": 2682,
      "áĭ³áī¤": 2683,
      "áįĥáĪħ": 2684,
      "ĠáĬłáĪŃáī¥": 2685,
      "ĠáĬłáĪ¨áĬķáĮĵáĭ´": 2686,
      "áĮĪáĭįáĬķ": 2687,
      "ĠáĬłáĭŃáī½áĪīáĪĿ": 2688,
      "áĬķáĬ©": 2689,
      "ĠáĭĪáĬķáĮĢ": 2690,
      "ĠáĭĭáĪµáīµáĬĵ": 2691,
      "ĠáĬ¨áĬ¥áĪŃáĪµáĭİ": 2692,
      "áĭ°áĪ«": 2693,
      "ĠáĬ¨áĪģáĪīáĪĿ": 2694,
      "áĪ¬áĬķ": 2695,
      "ĠáįįáĪŃáĭµ": 2696,
      "áĬĵáĬķáĪ½": 2697,
      "áĭ³áĪī": 2698,
      "áĬķáĭ°áĪŃ": 2699,
      "Ġáĭ°áīĤáīĥáĭİáī½": 2700,
      "áĬĲáī¶áī½áĬķ": 2701,
      "ĠáĭįáĮª": 2702,
      "ĠáĪĺáĪµáįĪáĪŃ": 2703,
      "áįĪáĪįáĮįáĪĿ": 2704,
      "áĪŀáĬŃáĪ®": 2705,
      "ĠáĪĪáĪį": 2706,
      "áĪ³áĬĿ": 2707,
      "Ġáī°áĪ°áĮ¥": 2708,
      "ĠáĮĬáĭľáĭį": 2709,
      "Ġáī¥áĪŃáĪĢáĬķ": 2710,
      "ĠáīłáĪ´": 2711,
      "ĠáĮģ": 2712,
      "áĮ£áĪª": 2713,
      "ĠáīłáĬłáī¥áĭĽ": 2714,
      "Ġáĭ«áĪµáįĪáĪįáĮĭ": 2715,
      "Ġáī¡áĬĵ": 2716,
      "Ġáĭ¨áīĢáĭµáĪŀ": 2717,
      "áĮłáĭ¨áīħ": 2718,
      "ĠáĬŃáĪµáī°áīµ": 2719,
      "áīµáĪį": 2720,
      "Ġáĭ¨áī¦": 2721,
      "ĠáĮħ": 2722,
      "ĠáĮ¥áĪ¨áīµ": 2723,
      "ĠáĬłáĪµáī³áĭį": 2724,
      "áĭ±áĬķ": 2725,
      "Ġáįİáī¶áĮįáĪ«": 2726,
      "ĠáĬłáĪįáĬĲáīłáĪ¨áĪĿ": 2727,
      "Ġáĭ¨áĮĭáĪ«": 2728,
      "Ġáīłáī¥áĭĻ": 2729,
      "ĠáĬłáĪ°áĪį": 2730,
      "ĠáĪĽáĪĪ": 2731,
      "Ġáĭ¨áĪļáįĪ": 2732,
      "ĠáĪ°áĪ«áī°": 2733,
      "ĠáĪµáĪħáī°áīµ": 2734,
      "Ġáĭ¨áĪ¶": 2735,
      "áĭĿáīĥ": 2736,
      "áĮĢáĬķáĪ²": 2737,
      "ĠáĬĲáĮĪáĪŃáĮįáĬķ": 2738,
      "ĠáīĥáĪĭáīµ": 2739,
      "áĮĭáĭĬ": 2740,
      "ĠáĪĺáĪįáĪµ": 2741,
      "ĠáĪ¾": 2742,
      "áĪ¨áī³": 2743,
      "ĠáĪĪáĪ¨áĮħáĪĿ": 2744,
      "ĠáĬķáĮ¥áĪ¨": 2745,
      "áĭ®áĬķ": 2746,
      "ĠáīłáįĪ": 2747,
      "ĠáĮĪáĭ°": 2748,
      "Ġáī´áĬŃáĬĴ": 2749,
      "Ġáĭ¨áīª": 2750,
      "áĬĲáīłáĪ©": 2751,
      "áĬŃáįĪáĪį": 2752,
      "áīĥáĪī": 2753,
      "áĪµáī³áĭį": 2754,
      "áĬķáīĢáīµ": 2755,
      "áĭĭáĭĪáīħ": 2756,
      "Ġáī¦áĪŃáĪ³": 2757,
      "ĠáīµáĬ¥áĭĽáĭĿ": 2758,
      "ĠáĭĺáĪĺáī»": 2759,
      "ĠáīłáĮįáĪįáįħ": 2760,
      "Ġáĭ¨áĪļáī³": 2761,
      "Ġáī£áĪĪáĪµáĪį": 2762,
      "áįĥáĪļ": 2763,
      "áĭİáī¹áĬķ": 2764,
      "áĭĿáĬĵáĬĽ": 2765,
      "áĮįáĪª": 2766,
      "ĠáĮĪáĬķáĭ³": 2767,
      "Ġáĭ¨áīµáĬĽáĭį": 2768,
      "ĠáīģáĪŃáĮł": 2769,
      "áĭŃáĭµ": 2770,
      "áĮĪáĪ«": 2771,
      "áĭ°áĪ°áīµ": 2772,
      "Ġáīłáī°áĪ»áĪĪ": 2773,
      "ĠáĬ¨áĮ¥áīĤáīµ": 2774,
      "áĪ¨áĪĿáīµ": 2775,
      "áīĢáīħ": 2776,
      "áĮĵáĭĿ": 2777,
      "ĠáĪĺáĮ¨áĪĺáĪŃ": 2778,
      "áĭİáīµáĬķ": 2779,
      "ĠáĭŃáĮĢáĪĿ": 2780,
      "ĠáĪĽáĮ£": 2781,
      "ĠáĮįáī¥áĪŃ": 2782,
      "ĠáĪĪáĪĺáĪĿ": 2783,
      "ĠáĪįáĪĿáĪĿ": 2784,
      "ĠáĬłáīł": 2785,
      "áĪĺáĪį": 2786,
      "ĠáĬ¢áĬ®áĬĸáĪļ": 2787,
      "áĮĪáĪĪáįĢ": 2788,
      "ĠáĭĿáĮįáĮħáīµ": 2789,
      "ĠáĭįáĭŃáĭŃáīµ": 2790,
      "Ġáĭ¨áīģ": 2791,
      "ĠáīłáĭĭáĬĵ": 2792,
      "ĠáĬ¥áĪĿáĬĲáīµ": 2793,
      "ĠáĬ¨áĭį": 2794,
      "ĠáĪĪáĪĽáĪ»áĪ»áĪį": 2795,
      "Ġáĭ°áĪŃ": 2796,
      "ĠáĬ¥áī¥": 2797,
      "ĠáĬ¥áĬķáĭ°áĪĨáĬĳ": 2798,
      "áĭĽáĪĽ": 2799,
      "áĮİáīµ": 2800,
      "Ġáī¸": 2801,
      "Ġáīłáī¤áīµ": 2802,
      "áįįáĪ«": 2803,
      "ĠáĪ°áĮª": 2804,
      "áīĨáĭŃ": 2805,
      "ĠáĬłáĮĪáĪįáĮįáĪİáī¶áī½áĬķ": 2806,
      "ĠáĬłáīĢáĪ«": 2807,
      "ĠáĭĮ": 2808,
      "ĠáĪµáĮ¦áī³": 2809,
      "Ġáī³áĪĽ": 2810,
      "ĠáĪµáĪ«áĭİáī½áĬķ": 2811,
      "Ġáĭ¨áĬĽ": 2812,
      "ĠáĪĺáĬķ": 2813,
      "Ġáĭ°áĪ«áĪ²": 2814,
      "áįħáĭ³áīµ": 2815,
      "ĠáĪŃáĬ¥áĪµ": 2816,
      "ĠáĬłáĪįáī½áĪįáĪĿ": 2817,
      "ĠáĬ¢áĬķáĪ¹áĪ«áĬķáĪµ": 2818,
      "Ġáĭ¨áįįáīħáĪŃ": 2819,
      "áĭ°áĬŀáī½": 2820,
      "áĬŃáī¶": 2821,
      "ĠáĪµáĪĪáī°": 2822,
      "ĠáĪĢáĬª": 2823,
      "áįįáīµáĭĮáĪŃ": 2824,
      "Ġáĭ¨áĮĪáīłáĭ«": 2825,
      "ĠáĪĺáĬ¨áĪĭáĬ¨áĭ«": 2826,
      "ĠáĭŃáĮİáī¥": 2827,
      "ĠáĪµáĪĪáĪĽ": 2828,
      "ĠáīħáĬķ": 2829,
      "ĠáĬłáĪįáī£": 2830,
      "áĮ®áī½áĬķ": 2831,
      "ĠáĬłáīħáĮ£": 2832,
      "áĬķáĬķ": 2833,
      "ĠáĮĢáĪŃáī£": 2834,
      "áĪĺáĪµáĪ¨áīµ": 2835,
      "áĪ«áĪ³áī¸áĭįáĬķ": 2836,
      "áĬĭáĪĭ": 2837,
      "Ġáĭ¨áĪĤ": 2838,
      "ĠáĬłáĪīáīµ": 2839,
      "ĠáĪĺáĬĲ": 2840,
      "áĬ«áĪªáĭİáī½": 2841,
      "áĭĿáĮĪáī£": 2842,
      "ĠáīłáĬłáĪį": 2843,
      "ĠáīłáĬ¥áĬĶ": 2844,
      "ĠáĮłáĪ¨": 2845,
      "ĠáĬłáĪ°áĪ«áĪŃ": 2846,
      "Ġáĭ¨áįĵ": 2847,
      "ĠáĬłáĭĪ": 2848,
      "áĪ°áĮłáĭį": 2849,
      "ĠáĪĢáĮĪáĪŃ": 2850,
      "ĠáĪħáĭĿáī¥": 2851,
      "ĠáĭŃáĮİáī¥áĬĻ": 2852,
      "ĠáĬłáĬĵ": 2853,
      "áī¥áīħ": 2854,
      "áī£áī¸áĭįáĬķ": 2855,
      "Ġáĭ¨áī°áĪŀáĪĭ": 2856,
      "áĮĢáĪĿáĪ©": 2857,
      "ĠáīłáĬłáĪµ": 2858,
      "ĠĠĠĠĠĠĠĠ": 2859,
      "ĠáīµáĬ©áĪµ": 2860,
      "ĠáĮ¥áĪįáīħ": 2861,
      "áĭĿáĮĪáī¥": 2862,
      "áĪªáĭ«áĭį": 2863,
      "Ġáĭ¨áĪĿáĬĵ": 2864,
      "ĠáīłáĪħáĭŃáĭĪáīµ": 2865,
      "Ġáĭ¨áĪ°áĪ«": 2866,
      "áĪĺáĪįáĬ¨áīµ": 2867,
      "ĠáĭĪáĪ³áĬĿ": 2868,
      "ĠáĪĭáĪĪ": 2869,
      "ĠáįĶ": 2870,
      "ĠáīłáĪĺáīĢ": 2871,
      "áįĭáĪµ": 2872,
      "áĭŁ": 2873,
      "áĪįáī£": 2874,
      "ĠáĬłáĮĪáĬĺ": 2875,
      "áī¥áī¡": 2876,
      "áī£áī³": 2877,
      "ĠáĬ¥áĬķáĭ°áĪļáĪĨáĬķ": 2878,
      "áīłáĪ¨áĭ¶": 2879,
      "ĠáīĨáĪ»áĪ»": 2880,
      "ĠáīłáĮŃáĪ«áĪ½": 2881,
      "áĪįáĬ¥": 2882,
      "ĠáĬ¨áĪħ": 2883,
      "ĠáĬ¨áĭĪ": 2884,
      "Ġáĭ¨áī°áįĪáĮ¥áĪ®": 2885,
      "áĬ©áĬĿ": 2886,
      "ĠáĪĿáĬŃáĪ®áī½": 2887,
      "áĮĪáĬĻáīµ": 2888,
      "Ġáī¥áī¸áĬĽáĭį": 2889,
      "ĠáĪĿáĬķáĭµáĬķ": 2890,
      "ĠáĬłáĬĲáĪµáī°áĬĽ": 2891,
      "Ġáĭ¨áĪĨ": 2892,
      "áĬĵáī¸áĭį": 2893,
      "Ġáī°áĪŀáĬŃáĪ®": 2894,
      "ĠáĭŃáĮ¨áĪĿ": 2895,
      "ĠáīħáĭµáĪĺ": 2896,
      "Ġáĭ¨áĪ²": 2897,
      "áĬĲáīłáĪŃ": 2898,
      "ĠáĬĲáĭĭ": 2899,
      "áĪ®áĬķ": 2900,
      "Ġáī¥áīģ": 2901,
      "ĠáĮįáĭĽáīµ": 2902,
      "Ġáĭ¨áĪµáĬĲ": 2903,
      "ĠáīłáīĢáĬķ": 2904,
      "Ġáī°áĪĪáĭĭáĭĭáĮŃ": 2905,
      "ĠáĭĪáĭµáĮĦ": 2906,
      "ĠáĪĺáĭ³": 2907,
      "ĠáĭŃáĪĭ": 2908,
      "ĠáĬ¢áĬķáī¨áĪµáīµ": 2909,
      "ĠáĪĺáĪĨáĬĵáī¸áĭįáĬķ": 2910,
      "Ġáīłáĭĭ": 2911,
      "áīĢáįį": 2912,
      "áĭĪáĭ°áĭį": 2913,
      "ĠáĪĿáĬķáĮŃ": 2914,
      "áīĭáĪ¨áĮ¥": 2915,
      "ĠáĮİáĬķ": 2916,
      "ĠáīłáĪħáĭŃáĭĪ": 2917,
      "áĭįáĪĿ": 2918,
      "ĠáĬłáĭ°": 2919,
      "ĠáĬ¨áĪį": 2920,
      "áī´áĬŃáĬĸáĪİáĮĤ": 2921,
      "áĪ¼": 2922,
      "áĪ³áĬ«": 2923,
      "ĠáīłáĪĺáĭ°": 2924,
      "Ġáĭ¨áĪĺáĪ³": 2925,
      "áīĤáĬĿ": 2926,
      "ĠáĬ¥áĬķáĭ²áĪĨáĬķ": 2927,
      "Ġáĭ¨áĭ²": 2928,
      "Ġáīłáīħ": 2929,
      "áĮĪáĭĻ": 2930,
      "ĠáĪĪáĭ°áĬķáīł": 2931,
      "ĠáĬ¨áīĢ": 2932,
      "ĠáĪįáĮĥ": 2933,
      "áĮĢáĪĿáĪŃ": 2934,
      "áĮĢáĪŃáī£": 2935,
      "ĠáĬłáĭµáĪŃáĮĵáĪį": 2936,
      "áĪµáī²áĬŃ": 2937,
      "ĠáĭŃáĪ¨áĭ³áĪį": 2938,
      "áĬķáīĥáīĦ": 2939,
      "ĠáĬ¥áĪĿ": 2940,
      "áī±áīµ": 2941,
      "áĪ¸áįį": 2942,
      "Ġáĭ«áĪįáĪĨáĬĳ": 2943,
      "áĭ°áĬķáīħ": 2944,
      "Ġáĭ«áĬķáī¥áī¡": 2945,
      "ĠáĮįáī¥áĭŃáīµ": 2946,
      "áĪ«áĪ³áī¸áĭį": 2947,
      "ĠáĭŃáĪĭáĪį": 2948,
      "Ġáīłáįĸ": 2949,
      "ĠáĪĺáĭįáĪ°áĭµ": 2950,
      "Ġáī°áįĪ": 2951,
      "ĠáĪĽáīĨ": 2952,
      "áĪľáĪ«": 2953,
      "ĠáĬ¢áĪľ": 2954,
      "Ġáĭ¨áĭįáĭµ": 2955,
      "ĠáīµáĪŃáĮīáĪĿ": 2956,
      "ĠáīłáĭµáĪŃ": 2957,
      "ĠáĬłáĬŃ": 2958,
      "áĭ«áīĤ": 2959,
      "ĠáīħáĮĤ": 2960,
      "áĪĬáĪµ": 2961,
      "ĠáĪĿáĪŃáĪĿáĪŃ": 2962,
      "áĮĪáī£áĬĽáĪį": 2963,
      "áĭ¥áĬķ": 2964,
      "áĬ«áĭĬ": 2965,
      "ĠáĬłáĬķáįĥ": 2966,
      "Ġáĭ¨áĪĢáĭŃáĪį": 2967,
      "Ġáĭ³áĭŃáĪ¬": 2968,
      "áī³áĪ¨": 2969,
      "ĠáĪĽáĬ«": 2970,
      "áĮĭáī¢": 2971,
      "Ġáĭ¨áĪĺáĬķáĮįáĪµáīµ": 2972,
      "áĬķáĭ¶áī¹": 2973,
      "áĪĿáįĴáĭį": 2974,
      "áĭŃáĭĿ": 2975,
      "ĠáĪĿáīµ": 2976,
      "áĪ¨áĬķáĪ³áĭŃ": 2977,
      "Ġáī¥áĪĦáĪ«áĭĬ": 2978,
      "Ġáĭ¨áĪ«áĪµ": 2979,
      "áĭįáĬĵ": 2980,
      "áĭ«áīµ": 2981,
      "áĮĭáĬķ": 2982,
      "ĠáīłáĬ¥áĮħ": 2983,
      "Ġáįįáīµ": 2984,
      "áĭĪáĪ°áĬķ": 2985,
      "Ġáĭ¨áĬ¥áĬĽáĬķ": 2986,
      "ĠáīµáĪŃáĬ¢áīµ": 2987,
      "ĠáīłáĬĴáĭį": 2988,
      "áĪĭáīµáĬķ": 2989,
      "ĠáĬĲáĮłáĪĭ": 2990,
      "áĭįáĬķáī²": 2991,
      "áĪĭáĪįáīħ": 2992,
      "ĠáĪĺáĪįáĬŃ": 2993,
      "ĠáĪĿáĪįáĬŃáī¶áī½": 2994,
      "ĠáĬ¥áĪ¨áįįáīµ": 2995,
      "ĠáĭŃáĭĪáĭ³": 2996,
      "ĠáĬłáĪĺáĪĪ": 2997,
      "ĠáĬłáĪĺáī³áĭĬ": 2998,
      "ĠáĭĺáĪĺáĬĵáĭĬ": 2999,
      "áīĢáĪŃáī¡": 3000,
      "ĠáĭŃáīħáĪŃáī³": 3001,
      "áĭ°áĪį": 3002,
      "Ġáī³áĭįáīĥ": 3003,
      "áĪįáĬ¨áī»": 3004,
      "ĠáĬĲáįĥáĬĲáīµ": 3005,
      "ĠáĭŃáĮį": 3006,
      "ĠáĮĭáĭľ": 3007,
      "áĪ¸áīµ": 3008,
      "Ġáī°áĮłáīĥáĪļáĭİáī½": 3009,
      "ĠáįķáĪ¬áĭĿ": 3010,
      "ĠáĪĢáĪĭáįĬáĬĲáīµ": 3011,
      "ĠáīłáįĢ": 3012,
      "áĮĪáĪ©": 3013,
      "áī¥áĭİáīµ": 3014,
      "áįĬáĪį": 3015,
      "ĠáĬ¨áĪĺáĮłáĬķ": 3016,
      "Ġáĭ¨áĪĨáĬĲáĭįáĬķ": 3017,
      "Ġáĭ¨áĭŃáĮĪáī£áĬĽáĪį": 3018,
      "ĠáĬŃáĪįáĪį": 3019,
      "áĬķáĮ«": 3020,
      "áĭįáīħ": 3021,
      "ĠáīłáĬķ": 3022,
      "ĠáĪ³áĭŃáĬķáĪµ": 3023,
      "ĠáĭĪáīħáī³áĭĬ": 3024,
      "ĠáĪĿáĪµáĪİáī½": 3025,
      "ĠáĪŀáĭ´áĪį": 3026,
      "ĠáĭĪáĭµáĮĦáĭĭáĪĪáĪģ": 3027,
      "Ġáĭ¨áĬłáīµ": 3028,
      "Ġáĭ¨áĪĽáĪħáīłáĪ«áĭĬ": 3029,
      "ĠáĬ¢áĬķáī½": 3030,
      "ĠáīµáĬŃáĬŃáĪĪáĬĽáĭįáĬķ": 3031,
      "ĠáĬŃáī¥áĭ°áīµ": 3032,
      "ĠáĪĽáĪ¨áĮĭáĮĪáĮ¥": 3033,
      "ĠáĬ¤áĮĢáĬķáĪ²": 3034,
      "áĪŃáĪ±": 3035,
      "áĪĽáĬĸ": 3036,
      "áī£áī¥": 3037,
      "ĠáĪµáĮĭáīµ": 3038,
      "áĭ³áĬĵ": 3039,
      "Ġáĭ¨áĬ¥áĬķ": 3040,
      "áĮ¦áī½áĬķ": 3041,
      "Ġáĭŀ": 3042,
      "ĠáĬ¥áĬ©áĪį": 3043,
      "ĠáĬ¨áĪļáĭ«": 3044,
      "áĮĭáĭŃ": 3045,
      "áĪ½áĬĸáī½": 3046,
      "ĠáĭĺáĮĪáī£": 3047,
      "ĠáĬłáĬ«áĪĭáīµ": 3048,
      "áīĢáĪŃáī¥": 3049,
      "áĪŃáĪµáī²áĭ«áĬķ": 3050,
      "áĭįáīģ": 3051,
      "áĪĭáĪĪáĪģ": 3052,
      "áĪĭáīĤ": 3053,
      "áĪĮáĭ³": 3054,
      "áĪĻáĪµ": 3055,
      "áĮİáīł": 3056,
      "ĠáīłáĬ¥áĬĽ": 3057,
      "ĠáĪĺáĪµáĪĺ": 3058,
      "áī¾áīµ": 3059,
      "Ġáĭ¨áĭ°áĪħáĬķáĬĲáīµ": 3060,
      "áī°áĬ©": 3061,
      "ĠáĪĽáĭŃáĪį": 3062,
      "Ġáĭ°áĪ¨": 3063,
      "Ġáĭ¨áĪĺáĮ£": 3064,
      "Ġáĭ¨áĪĽáĪµ": 3065,
      "ĠáĭĺáĭŃáīµ": 3066,
      "ĠáĬ¨áī¤áīµ": 3067,
      "áĬ«áĬķ": 3068,
      "ĠáĬķáīģ": 3069,
      "ĠáĪĺáĮįáĭĽáīµ": 3070,
      "áĪŁáĪį": 3071,
      "ĠáĭŃáĪ°áĮ£áĪī": 3072,
      "Ġáĭ¨áĪļáĬ¨áī°áĪīáīµáĬķ": 3073,
      "ĠáĬ¥áĮ©": 3074,
      "áĮĭáĪį": 3075,
      "ĠáĬŃáĪĭ": 3076,
      "ĠáĬ¥áĭ¨áĮ¨": 3077,
      "ĠáĪļáĪµáī°áĪŃ": 3078,
      "ĠáĭĿáĪŃáĭĿáĪ®áī½": 3079,
      "Ġáĭ¨áĮŃ": 3080,
      "áįįáĭ«": 3081,
      "áĭ°áĪ¨áĪ°": 3082,
      "áĬ³áĪŃ": 3083,
      "áĮĪáĪĪáĮį": 3084,
      "áĬĲáĪ³áĪ½": 3085,
      "ĠáīłáĬĲáįĥ": 3086,
      "Ġáĭ¨áī°áĬĲáĭ°": 3087,
      "áĭī": 3088,
      "áĪĭáĪĪáī½": 3089,
      "áĪĽáĪĺáĬķ": 3090,
      "áįĪáįĢ": 3091,
      "ĠáĪĿáĪŃáĮ¡áĬķ": 3092,
      "áīłáĪįáĮ¥": 3093,
      "áĭĿáīĥáĭĽ": 3094,
      "ĠáĮłáĪ¨áĮ´áĭĽ": 3095,
      "áĭĪáĭµ": 3096,
      "ĠáĮīáĭµ": 3097,
      "áĪ°áĪĽáĬĿ": 3098,
      "áĪ°áī¢áĭ«": 3099,
      "Ġáī°áĮłáīħ": 3100,
      "ĠáĪĭáĪī": 3101,
      "áĭ¨áīħ": 3102,
      "áĪİáĬķ": 3103,
      "ĠáĬ¥áĬķáīħ": 3104,
      "ĠáīłáĪĽáĭŃ": 3105,
      "ĠáĭĺáĮį": 3106,
      "ĠáĪµáĪįáĬŃ": 3107,
      "áĬķáī³áĭĬ": 3108,
      "áĪ³áĪ°áī¥": 3109,
      "áĮ«áĬĳ": 3110,
      "áĬķáĮįáī°áĬķ": 3111,
      "Ġáĭ²áĮįáĪª": 3112,
      "áĮ¦áīµ": 3113,
      "áĪŁáĪĭ": 3114,
      "áįĥáĪħáįįáīµ": 3115,
      "Ġáīº": 3116,
      "ĠáĬ¥áĪŃáĪµ": 3117,
      "Ġáī£áĪŃ": 3118,
      "áĬ®áīµáĬķ": 3119,
      "áĭįáīĥáĪī": 3120,
      "áĭ«áĭ£": 3121,
      "Ġáī¥áĪĪáĬķ": 3122,
      "áĪ»áĬķ": 3123,
      "áįİáī¶": 3124,
      "ĠáīµáĬŃáĬŃáĪį": 3125,
      "ĠáĬ«áĪįáĪĨáĬĲ": 3126,
      "ĠáĬłáĮłáīĥáīĢáĪĿ": 3127,
      "ĠáĬ¥áĪº": 3128,
      "ĠáĬ¤áĪĿ": 3129,
      "ĠáīłáĪĮáĪİáī½": 3130,
      "Ġáĭ«áĭ°áĪŃáĮĭáĪį": 3131,
      "áĬĵáįĬ": 3132,
      "áĬ«áĪļ": 3133,
      "ĠáīĢáĭµáĪŀ": 3134,
      "ĠáĮĪáĪį": 3135,
      "áĪĨáĬķáĬŃ": 3136,
      "áĬĲáĮį": 3137,
      "ĠáĪ°áĪĮáĭ³": 3138,
      "áĪĻáĬĵ": 3139,
      "ĠáĪĺáĪĭ": 3140,
      "ĠáĪĽáī¥": 3141,
      "áĮĭáĮ¥": 3142,
      "ĠáĮĪáįĢ": 3143,
      "áĮĪáĪįáĮįáĪİáīµ": 3144,
      "ĠáĪ½áĭ«áĮŃ": 3145,
      "áĪĤáĭ±": 3146,
      "ĠáĬªáĬķáĮį": 3147,
      "áĬ«áĬ¨áĪĪáĬĽ": 3148,
      "áĬļ": 3149,
      "ĠáĬ¥áīµáĪĿ": 3150,
      "ĠáĪĺáĬķáįĪ": 3151,
      "ĠáĪĺáĬĿáī³": 3152,
      "ĠáĪĬáĭ«áĪµ": 3153,
      "áĪ¬áĭį": 3154,
      "Ġáĭ¨áĪļáĭ«áĪ³": 3155,
      "ĠáĪĻáīĢáīµ": 3156,
      "ĠáĪļáĪµáĮ¥": 3157,
      "áĪĽáĪĽáĬĿ": 3158,
      "ĠáĬłáįĪáįĥáįĢáĪĿ": 3159,
      "ĠáĪĽáĪ¨áįĬáĭ«": 3160,
      "ĠáĪĬáĬĸáĪŃ": 3161,
      "ĠáĪĺáĪ¨áĮĥáĬķ": 3162,
      "Ġáĭ¨áĪļáĭ«áĪµáī½áĪį": 3163,
      "áĪĮáĬŃáīµáĪ®": 3164,
      "ĠáĬłáīħáĪ«áī¢": 3165,
      "áĪ³áĪĿáĬķáīµ": 3166,
      "ĠáĪĺáĪŀáĬ¨áĪŃ": 3167,
      "áĮłáīģ": 3168,
      "ĠáīµáĬĵáĬķáĪ½": 3169,
      "áĮİáĭ³": 3170,
      "ĠáīłáĪ³": 3171,
      "áĬ«áĪ½": 3172,
      "ĠáĪµáĪĪáĪĺ": 3173,
      "Ġáĭ¨áĪĽáĪµáī°": 3174,
      "Ġáĭ¨áĮ¥áĪŃáĪµ": 3175,
      "ĠáĬłáĮĭáĮ£": 3176,
      "áĭŃáĬķáīµ": 3177,
      "Ġáī°áĬķ": 3178,
      "áĭĺáĪĿ": 3179,
      "áĪĻáīµ": 3180,
      "ĠáĮĵáĭ°áĬŀáī½": 3181,
      "ĠáįĪáīĥáĭµ": 3182,
      "áįķáĪªáĪį": 3183,
      "ĠáĮ¥áĬĵáī¶áī½": 3184,
      "Ġáī°áīĢáī£áĭŃáĬĲáīµ": 3185,
      "áĪµáĪĽáĪĽ": 3186,
      "áĭ°áĪŃáĪ±": 3187,
      "ĠáīħáĬĵáĪ½": 3188,
      "áĭ®áĪŃáĬŃ": 3189,
      "áĮĪáĪįáĮĪ": 3190,
      "ĠáĬ¥áī£áĬ®áīµáĬķ": 3191,
      "Ġáĭ¨áī°áĪĪáĪĺáĭ°": 3192,
      "ĠáįĪáĪį": 3193,
      "Ġáĭ¨áĪľ": 3194,
      "áĪĺáĭ±": 3195,
      "ĠáĬ¨áĮł": 3196,
      "ĠáĮ¥áīĥáīµ": 3197,
      "ĠáĬłáĪµáī°áĭ³áĭ³": 3198,
      "ĠáĭµáĪŃáĮĬ": 3199,
      "ĠáįĵáĪŃáī²": 3200,
      "ĠáĪĮáĪĭáĭį": 3201,
      "ĠáĬ¥áĬķáĭµáĬķ": 3202,
      "Ġáĭ¨áĪĺáĮ¨áĪ¨áĪ»áĭį": 3203,
      "ĠáĪ³áĮ¥áĬķ": 3204,
      "ĠáĪ¹": 3205,
      "áĪ¨áĬķáĪµ": 3206,
      "ĠáĭŃáĪģáĬĳ": 3207,
      "ĠáĪµáĬ¬áīµ": 3208,
      "áĭĪáĭ«": 3209,
      "áĪ»áĭİáī½": 3210,
      "ĠáĭĪáĭ°áĪļ": 3211,
      "ĠáĬłáĭŃáī½áĪįáĪĿ": 3212,
      "áĭĽáĪį": 3213,
      "ĠáĬłáĪįáī»áĪį": 3214,
      "áĬ¤áįį": 3215,
      "Ġáĭ¶áĬŃáī°áĪŃ": 3216,
      "Ġáĭ¨áĭįáĮŃ": 3217,
      "áĮĬáĭľáĭį": 3218,
      "áĭ°áĪŃáĮīáīµ": 3219,
      "ĠáĬłáĬķáĭ´": 3220,
      "áĪ³áĪī": 3221,
      "áĪİáī¹": 3222,
      "áī»áĭŃáĬĵ": 3223,
      "ĠáĬłáĪµáīĤáĬĿ": 3224,
      "áī´áĮĤ": 3225,
      "ĠáīłáĬ¢áĪľáĪį": 3226,
      "áĭ°áĮĪáįį": 3227,
      "ĠáĬĶ": 3228,
      "áĭįáĬķáĭµ": 3229,
      "ĠáĬłáĭ²": 3230,
      "Ġáĭ«áĬĲáĮĭ": 3231,
      "Ġáĭ«áĭįáīĥáĪī": 3232,
      "áĪĪáĪģáĪĿ": 3233,
      "áĭĺáĭĿ": 3234,
      "Ġáĭ¨áĬłáĪµáī°": 3235,
      "ĠáĬ¥áĬĲáĪĨ": 3236,
      "áĬķáĭ°áĬķ": 3237,
      "Ġáĭ¨áĭĪáĭ°áįĬáīµ": 3238,
      "áįĭáĪį": 3239,
      "Ġáĭµáī¥": 3240,
      "áī¡áĪŃ": 3241,
      "ĠáĪħáĭĿ": 3242,
      "ĠáĬłáĭŃáĭ°áĪĪáĪģáĪĿ": 3243,
      "ĠáĪĪáĭįáĮ¦áī½": 3244,
      "ĠáĪĪáĪĽáĪµáĭĪáĮĪáĭµ": 3245,
      "ĠáīłáĭŃáĬĲ": 3246,
      "ĠáĪĪáīĢ": 3247,
      "Ġáĭ¨áī°áĪ»": 3248,
      "ĠáĬłáīħáĮ£áĮ«": 3249,
      "ĠáĪĺáĪ¬áīµ": 3250,
      "áīĥáĭĪ": 3251,
      "ĠáĮ¥áĪª": 3252,
      "ĠáĭĭáĬĵáĭį": 3253,
      "ĠáĪĪáĪĺáĮįáĭĽáīµ": 3254,
      "ĠáīĢáĮ£áĭŃ": 3255,
      "Ġáīłáĭ²": 3256,
      "ĠáĬ¥áĬĵáīĢáĪŃ": 3257,
      "áĬ¨áĪĿ": 3258,
      "ĠáīłáĬłáĬ«áī£áī¢áĭį": 3259,
      "Ġáĭ¨áĬłáĬ¥áĪĿáĪ®": 3260,
      "áĬķáĭ³áīµ": 3261,
      "Ġáĭ¨áĪħáįĥ": 3262,
      "ĠáĬ¥áĬķáĪµáĪ³áīµ": 3263,
      "Ġáĭ«áĪĺ": 3264,
      "Ġáī¥áĭĽáīµ": 3265,
      "áįĵáĪŃáīµ": 3266,
      "Ġáĭ¨áįĪáĮłáĪ«": 3267,
      "ĠáĬ¥áĮįáĭļáĬłáī¥áĪĦáĪŃ": 3268,
      "ĠáĬłáĪĢ": 3269,
      "ĠáĪĺáĮ¨": 3270,
      "áĬ¨áĪ°áīµ": 3271,
      "áĮ£áįĭ": 3272,
      "áĭ¨áĪģ": 3273,
      "áĪ»áĪ½": 3274,
      "ĠáĪįáĬķ": 3275,
      "áĪĢáī¥": 3276,
      "ĠáĪĪáĪĺáīĢáĬĲáĪµ": 3277,
      "áĮĪáĮį": 3278,
      "áĮħáī±": 3279,
      "Ġáĭ¨áĬ¥áĭį": 3280,
      "ĠáĭĺáĪŃ": 3281,
      "áĪħáīłáĪ¨áĪ°áī¥": 3282,
      "ĠáīłáĬ©": 3283,
      "ĠáĬ¨áīĢáĬĳ": 3284,
      "áĭ³áĭŃ": 3285,
      "ĠáĬŃáĪħ": 3286,
      "áįħáĬ¦": 3287,
      "ĠáĮİáĪį": 3288,
      "áĪ¨áĮĭáĮĪáĮ«": 3289,
      "áĮłáī¥áīģ": 3290,
      "ĠáĭŃáįĪáĪįáĮĭáĪį": 3291,
      "ĠáīłáĪĺáĮ¨áĪ¨áĪ»áĪĿ": 3292,
      "ĠáĪĿáĮįáī¦áī½": 3293,
      "áĪŃáīħ": 3294,
      "áĪĺáī³áīµ": 3295,
      "ĠáĪĺáĬĸáĪŃ": 3296,
      "ĠáĪĪáĭĪ": 3297,
      "ĠáĭĪáī³áĭ°": 3298,
      "ĠáĪĽáĪ°": 3299,
      "ĠáĪĪáĬ¥áĭ«áĬķáĭ³áĬķáĭ±": 3300,
      "ĠáĭįáĮ¤áī¶áī½": 3301,
      "Ġáĭ¨áī£áĪĪ": 3302,
      "ĠáĭŃáĪ°áĪĽáĬĽáĪį": 3303,
      "áĮłáĬĵáīĢáīħ": 3304,
      "ĠáĬĴáĭį": 3305,
      "áĭİáī³áĪĪáĬķ": 3306,
      "Ġáĭ¨áĪļáĮĪáī£": 3307,
      "áī»áī½áĪģ": 3308,
      "ĠáĬłáĪįáĮĭ": 3309,
      "ĠáĪĿáĬĵáĪįáī£áīµáĪĿ": 3310,
      "ĠáĪĺáĪĿáĪ¨áĮ¥": 3311,
      "áĮİáī¥áĬĺáīµ": 3312,
      "áĪ³áĪ½": 3313,
      "ĠáĪįáī¦": 3314,
      "áī´áĪĮ": 3315,
      "Ġáĭ°áī¥áĭ³áī¤": 3316,
      "Ġáĭ¨áĬ¥áĭµ": 3317,
      "áĪ²áī¥": 3318,
      "áĪ³áī°áįį": 3319,
      "Ġáĭ¨áįĭáĭŃáĬĵáĬķáĪµ": 3320,
      "Ġáĭ¨áĪļáįĪáĪįáĮīáīµáĬķ": 3321,
      "ĠáĪĽáīĨáĪļáĭ«": 3322,
      "Ġáĭ¨áĭįáĭµáĭµáĪŃ": 3323,
      "Ġáī¬": 3324,
      "áī½áĪĪáĭį": 3325,
      "áĭ°áĭµ": 3326,
      "áĮ¥áĪ¨áīµ": 3327,
      "ĠáĬ¨áĪģáĪĪáīµ": 3328,
      "áĮłáĭĭáĪį": 3329,
      "Ġáī£áĪħáĪį": 3330,
      "ĠáĮ¥áĭ«áīĦáĭİáī½áĬķ": 3331,
      "áĭ°áĪ¨áĮīáīµ": 3332,
      "áīµáĪĺáīµ": 3333,
      "ĠáĬ¥áįħ": 3334,
      "Ġáīłáī¡": 3335,
      "áĪĪáīĢ": 3336,
      "áĮĢáĪŃ": 3337,
      "áĬķáĭ³áĬķáĭ³": 3338,
      "ĠáĬłáĬķáī¥áī¥": 3339,
      "ĠáĬłáĪ¨": 3340,
      "ĠáĭŃáī°": 3341,
      "áī»áĪī": 3342,
      "ĠáīĢáĮł": 3343,
      "áīłáĪŃáĬ«áī³": 3344,
      "ĠáĮįáĬķáī£áī³": 3345,
      "ĠáĬłáĬķáī°": 3346,
      "ĠáĪĢáĭŃáĪĪáĬĽ": 3347,
      "ĠáĪĺáī³áĮłáī¢áĭ«": 3348,
      "áĬĽáĪĪáĪģ": 3349,
      "Ġáĭ¨áĪĺáĬĸáĪªáĭ«": 3350,
      "ĠáĬ©áī£áĬķáĭ«áĭį": 3351,
      "áĪĭáĮŃ": 3352,
      "áĭĪáĪį": 3353,
      "ĠáĪĪáĪĺáĮ¨áĪĺáĪŃ": 3354,
      "ĠáĬłáĭŃáĬĲáī¶áī½": 3355,
      "áĪ¸áĪ«": 3356,
      "ĠáĬłáĪŃáī²": 3357,
      "ĠáĬłáĭİáĬķ": 3358,
      "áĪĭáĪĭ": 3359,
      "ĠáĪĺáįĪáĪĪáĮį": 3360,
      "ĠáĪĪáįĬáīµ": 3361,
      "áĬłáĪį": 3362,
      "áįĪáĪ«": 3363,
      "ĠáĬ¢áĪľáĪį": 3364,
      "ĠáĪĨáĪµ": 3365,
      "áįĵáĬķ": 3366,
      "ĠáĮ£áĬ¥áĪĿ": 3367,
      "ĠáĪľáīµáĪŃ": 3368,
      "ĠáĬłáīĢáĪĽ": 3369,
      "ĠáĪĺáĮįáī¢áĭ«": 3370,
      "áĭįáĭį": 3371,
      "ĠáĪĺáĪĺáĪĪáĪµ": 3372,
      "ĠáīłáĬłáĪĽ": 3373,
      "Ġáįįáīĥ": 3374,
      "áĪ«áīµáĬķ": 3375,
      "áĪ®áĭį": 3376,
      "Ġáĭ¨áĪļáīĢ": 3377,
      "ĠáĬ¥áĬķáĭ°áĪļáī»áĪį": 3378,
      "Ġáī¢áĪĬáĭ®áĬķ": 3379,
      "ĠáĬ¨áĬ¥áĬĽ": 3380,
      "ĠáĬłáĭĺáĮĭáĮħ": 3381,
      "ĠáĪĪáĭĺ": 3382,
      "Ġáĭ¨áī°áī£": 3383,
      "áĭĿáĪĿ": 3384,
      "ĠáĭµáĮį": 3385,
      "áĪ²áĭ«": 3386,
      "áĮĬáĭ«": 3387,
      "áĮłáīłáīģ": 3388,
      "ĠáĬłáī¥áĪ®": 3389,
      "ĠáĬ¥áĭ«áĬķáĭ³áĬķáĭ±áĬķ": 3390,
      "áī¥áĪİáĮį": 3391,
      "Ġáĭ¨áĮīáĭŀ": 3392,
      "Ġáī£áĪĪáĪµáĪįáĮ£": 3393,
      "Ġáĭ¨áĪ®": 3394,
      "áĬĵáĭĬ": 3395,
      "áĮĪáĪĺ": 3396,
      "ĠáĪ°áĬĶ": 3397,
      "Ġáīµáĭį": 3398,
      "ĠáīĢáĪµ": 3399,
      "áĭ©áĬķ": 3400,
      "ĠáĪľáĭ³": 3401,
      "ĠáĭįáĪµáī¥áĪµáī¥": 3402,
      "áĭŁáĪį": 3403,
      "ĠáĪĺáīģ": 3404,
      "áĬĲáīł": 3405,
      "áĭ³áĪĪáĬķ": 3406,
      "ĠáĬ¨áĪĺáĮĢáĪĺáĪªáĭ«": 3407,
      "ĠáįĭáĭŃáĪį": 3408,
      "ĠáĪµáīµáĪ«": 3409,
      "ĠáĭĪáĪĭáĮĨáī½": 3410,
      "Ġáĭ¨áĮĭ": 3411,
      "ĠáĬ¥áĬĵáīµ": 3412,
      "áĬ¨áĬķ": 3413,
      "áĬ«áĪĽ": 3414,
      "ĠáĪļáĭĽ": 3415,
      "ĠáįķáĪ®áįĮ": 3416,
      "ĠáįĵáĪŃáĬŃ": 3417,
      "ĠáĬłáĪĪáī¥áĪħ": 3418,
      "ĠáĮ¥áīĥ": 3419,
      "áįħáĪĦ": 3420,
      "áĪĪáĮłáįį": 3421,
      "ĠáĬ¥áĭµáĪİáī½": 3422,
      "Ġáĭ«áĪµáīĢáĪĿ": 3423,
      "ĠáĬłáīħáĪŃáī¦áīµ": 3424,
      "ĠáįĢáĪĢáįĬ": 3425,
      "áĪµáĬ®": 3426,
      "Ġáī°áĪ³áīµ": 3427,
      "áĭ¨áĬķ": 3428,
      "ĠáīłáĪĺáī°": 3429,
      "ĠáĭµáĬķ": 3430,
      "ĠáĬłáĪ³áĪį": 3431,
      "ĠáĮīáī¥áĬĿáīµ": 3432,
      "áĪĭáĪµ": 3433,
      "ĠáĪĪáī³": 3434,
      "ĠáīłáĪĺáĪĺáĪµáĪ¨áīµ": 3435,
      "ĠáīģáĪĿ": 3436,
      "áĭŀáī½": 3437,
      "ĠáĪŃáĬ¥áĪ°": 3438,
      "Ġáĭ¨áįħáĪģáįį": 3439,
      "ĠáĬłáĪ³áĭŃ": 3440,
      "ĠáĪĺáįį": 3441,
      "Ġáĭ¨áĪļáĮĪáĬĺáĭį": 3442,
      "ĠáĪĬáī³": 3443,
      "ĠáĪħáĮĭáĭĬ": 3444,
      "ĠáĮīáĭ³áĭ®áī½áĬķ": 3445,
      "ĠáįĢáĮīáĪŃ": 3446,
      "áĭ°áĮĭáĮĭáĪļ": 3447,
      "áĬ¨áĪĽáī»": 3448,
      "Ġáī°áĮłáĭ«áīĤ": 3449,
      "Ġáĭ¨áĭ±": 3450,
      "Ġáĭ¨áĮĬáĭľ": 3451,
      "áĬĲáĭļáĭ«": 3452,
      "ĠáĬ¨áīł": 3453,
      "Ġáĭ¨áĪļáĪĺáĪµ": 3454,
      "ĠáĮĪáįģ": 3455,
      "áĬ³áī¸áĭį": 3456,
      "áĪªáĬ«áĭĬ": 3457,
      "Ġáīłáĭ¨áĬł": 3458,
      "ĠáĬĲáīłáĪ¨áĭį": 3459,
      "Ġáĭ¨áĬ¤áĪĮáĬŃáīµáĪªáĬŃ": 3460,
      "Ġáĭ«áĬ«áīµáī³áĪī": 3461,
      "ĠáīłáĪľ": 3462,
      "Ġáĭ¨áĬ¥áĮħ": 3463,
      "ĠáįįáĪ¬": 3464,
      "Ġáĭ°áĬķáīłáĬĽ": 3465,
      "ĠáĪº": 3466,
      "Ġáĭ¨áĬª": 3467,
      "ĠáĪĺáĪ«": 3468,
      "áĭµáĪ©": 3469,
      "áī£áī¢áĭ«": 3470,
      "áĬłáĭŃ": 3471,
      "áĭ³áīłáĪŃ": 3472,
      "áīĥáĪ½": 3473,
      "áĪ½áĬĵ": 3474,
      "áī·áĬķ": 3475,
      "áĪµáī³áĭĪáĪµ": 3476,
      "ĠáĪŃáĬ«áĪ½": 3477,
      "áĮĪáĬĲáĭĺ": 3478,
      "ĠáĭŃáĮĢáĪĿáĪ«áĪį": 3479,
      "ĠáīłáĪĿáīµ": 3480,
      "ĠáĪĺáįĥáįį": 3481,
      "áĬ«áįį": 3482,
      "ĠáĪĪáĪĺáĬ¨áĪĭáĬ¨áĪį": 3483,
      "ĠáĪįáĮĦ": 3484,
      "ĠáĭµáĪĿ": 3485,
      "áĬķáĮĪáīµ": 3486,
      "ĠáĬ¥áĬķáīħáĪµáīĥáĪ´áĭİáī½": 3487,
      "ĠáĭŃáĭĪáīģ": 3488,
      "áĪµáīµáĪ«áĪĬáĭ«": 3489,
      "ĠáĪĺáĭ³áĪ¨": 3490,
      "Ġáīłáįĵ": 3491,
      "ĠáĪĺáĬĸáĪªáĭ«": 3492,
      "áĪĽáĪļáĭ«": 3493,
      "ĠáĬ¨áī¥áĭĻ": 3494,
      "áīĢáĭ±": 3495,
      "Ġáĭ¨áī°áĭĪáĪ°áĬĳ": 3496,
      "Ġáĭ¨áĪĺáī°": 3497,
      "áĮ¨áĪĿáĪŃ": 3498,
      "áĭĺáĪ¨": 3499,
      "ĠáĮĪáįĥ": 3500,
      "ĠáįįáĪĪáĮĭ": 3501,
      "Ġáī¢áĪĨáĬķ": 3502,
      "ĠáĬ¥áĬĶáĪĿ": 3503,
      "áī°áĪŃáĬĶáīµ": 3504,
      "ĠáĬłáĬķáī£áī¢": 3505,
      "ĠáĬłáĪµáī°áĭ«áĭ¨áī¶áī½": 3506,
      "ĠáĭŃáĮ¨áĪĿáĪ«áĪį": 3507,
      "ĠáĬ¥áĭ¨áĮ¨áĪĺáĪ¨": 3508,
      "áĪŃáĪĽ": 3509,
      "áĪĿáĪ¯áĪį": 3510,
      "ĠáīłáĬłáĪľáĪªáĬ«": 3511,
      "ĠáĬ«áĭįáĬķáī²": 3512,
      "Ġáĭ¨áĬłáĪį": 3513,
      "áĬ¨áī°áĪĽáĭį": 3514,
      "ĠáĪĿáĬ¥áĪ«áįį": 3515,
      "ĠáĪĺáĮĪáĪįáĮĪ": 3516,
      "áī¸áĪŃ": 3517,
      "áĭĺáĮį": 3518,
      "Ġáī°áĮįáī£áĪ«áīµ": 3519,
      "ĠáĬłáīĢáĪ«áĪ¨áī¥": 3520,
      "Ġáĭ¨áĬĴáĭį": 3521,
      "áī°áĬĿáĬĲáīµ": 3522,
      "áĮĪáī¢áĭ«": 3523,
      "ĠáĪĺáĪ¸": 3524,
      "Ġáī°áĮĭ": 3525,
      "Ġáī°áĭĺáĮĭáĮħ": 3526,
      "ĠáĪĿáĬĵ": 3527,
      "ĠáĭµáĬķáĮĭ": 3528,
      "áĪĪáĪĿáĭ¶": 3529,
      "ĠáĬ¥áĬķáĭ³áĪī": 3530,
      "áĪĭáīĢáĪį": 3531,
      "ĠáĬłáĬķáįĥáĪŃ": 3532,
      "áĭ°áīł": 3533,
      "ĠáĭĪáĭ³": 3534,
      "ĠáĬ¥áĬķáĭ°áĪĿáĬķ": 3535,
      "Ġáĭ¨áī°áĭĪ": 3536,
      "áįīáĬķ": 3537,
      "ĠáĬ«áĪįáī°": 3538,
      "áīĨáĮ£áĮłáĪªáĭ«": 3539,
      "áĪŃáĮĭ": 3540,
      "Ġáīłáī¤": 3541,
      "ĠáīłáĪĤ": 3542,
      "áĪªáįį": 3543,
      "áĭĪáīģ": 3544,
      "ĠáĪĪáĪĺáĭ«áĭĿ": 3545,
      "ĠáīĢáĭĿáīĥáĭĽ": 3546,
      "ĠáĪĢáĪ³áī¦áī½áĬķ": 3547,
      "ĠáĬłáĬ«áī£áī¢áĭİáī½": 3548,
      "Ġáĭĺáĭ´áĭİáī½": 3549,
      "áĪµáĬĵ": 3550,
      "ĠáīµáĪĭáĪįáīħ": 3551,
      "ĠáĪ¨áĭµ": 3552,
      "ĠáīµáĬŃáĬŃáĪĪáĬĽáĭį": 3553,
      "Ġáĭ¨áĪĢáĮĪáĪŃ": 3554,
      "ĠáĬ¥áĬĵáīĢáĪŃáī£áĪĪáĬķ": 3555,
      "ĠáĬłáĭ«áĭį": 3556,
      "ĠáĪĺáĮ«áĭĪáīµ": 3557,
      "áĬĲáįĥáįĢ": 3558,
      "áįĪáīĢáĭ°": 3559,
      "ĠáīłáĪĺáĮį": 3560,
      "ĠáĪµáĪĪáĪļáĭ«": 3561,
      "Ġáīłáī°áĪĪáĪĿáĭ¶": 3562,
      "Ġáĭ²áĮĤáī³áĪį": 3563,
      "áĭ¥áĪĿ": 3564,
      "ĠáĬ¥áĭįáĬĲáī³": 3565,
      "ĠáĬ¥áĬķáĭ°áĪļáĭ«áĪ³": 3566,
      "áĪ³áĪĿáĬķáī±": 3567,
      "ĠáīłáĪĨ": 3568,
      "Ġáīłáī¢": 3569,
      "áīĢáĪį": 3570,
      "áĪªáįķ": 3571,
      "áīħáĬĵ": 3572,
      "Ġáĭ¨áī°áĭ°áĪ¨áĮĪ": 3573,
      "áĮĢáĪĺáĪ¨": 3574,
      "ĠáĭĪáĮªáĭİáī½": 3575,
      "Ġáĭ¨áįĸáĪĪáī²áĬ«": 3576,
      "Ġáĭ¨áĮįáī¥áĭŃáīµ": 3577,
      "ĠáīłáĮīáĮīáīµ": 3578,
      "ĠáīłáĪģáĪĪáīµ": 3579,
      "Ġáĭ¨áĪļáĪ°áĪ©": 3580,
      "áĭĭáī±": 3581,
      "áĭĭáĪĢ": 3582,
      "Ġáĭ«áĪĪáįĪ": 3583,
      "ĠáĪĺáĪ³áĪªáĭ«áĭİáī½áĬķ": 3584,
      "Ġáĭ¨áĪª": 3585,
      "Ġáĭ¨áĬ¨áī°áĪĽ": 3586,
      "áĪŃáĪ»": 3587,
      "ĠáĪĺáĪĽáĪŃ": 3588,
      "áī³áĪŃ": 3589,
      "ĠáĬĲáĭİáīµ": 3590,
      "ĠáĭĺáĪĭáīĤ": 3591,
      "ĠáĮłáĭĭáīµ": 3592,
      "ĠáĬłáĪįáīł": 3593,
      "áĭ¨áīµáĬĽáĭį": 3594,
      "Ġáĭ¨áĭ°áĪĿ": 3595,
      "áĬķáĬ«áĪ¬": 3596,
      "Ġáĭ¨áĬłáīµáĬŃáĪįáīµ": 3597,
      "ĠáīłáįķáĪ®": 3598,
      "ĠáĪĺáĪµáī°": 3599,
      "ĠáĪĺáĮĪáĪĪ": 3600,
      "áĬĲáĬĽ": 3601,
      "áī¥áĬķ": 3602,
      "áĭĿáĬķ": 3603,
      "áĭĿáĬĲáĪµ": 3604,
      "ĠáĮĪáĬķ": 3605,
      "ĠáĮĪáĬķáĭĺ": 3606,
      "áī°áĬĽáĭį": 3607,
      "áīħáĭµáĪĺ": 3608,
      "áĬķáīĢáĪ³áīĢáĪµ": 3609,
      "Ġáĭ¨áĭĭáĮĭ": 3610,
      "ĠáĬłáĭĿáĪĽáĪļáĭ«": 3611,
      "ĠáĬłáĪµáī°áĭĭáįħáĬ¦": 3612,
      "Ġáĭ¨áī²": 3613,
      "Ġáĭ¨áįĬáīµ": 3614,
      "ĠáīłáĪ²": 3615,
      "áĪĪáīħ": 3616,
      "áĪ«áī½": 3617,
      "ĠáĭĪáĪ°": 3618,
      "ĠáīłáĪĺáĪ°áĪ¨": 3619,
      "ĠáĬ¥áĬķáĭ²áĭ«áĭį": 3620,
      "ĠáĬ¥áĬķáĭ³áĪĪáĭį": 3621,
      "ĠáĪĺáĮłáĭŃ": 3622,
      "ĠáįħáĬķáĪ°": 3623,
      "ĠáĬ¥áĪ«áĪµáĭİáĬķ": 3624,
      "áĪ°áĪ³": 3625,
      "Ġáĭ«áĪµáī³áĭį": 3626,
      "ĠáĪĿáī¾áīµ": 3627,
      "áĭ¨áĪ±": 3628,
      "áĭĿáĪŃáĭĿ": 3629,
      "áĬķáĪµáĪ³áīµ": 3630,
      "ĠáĪĨáī´áĪį": 3631,
      "ĠáĪĿáĪŃáī¶áī½áĬķ": 3632,
      "áĬ¨áī°áĪīáīµ": 3633,
      "ĠáĬłáī¥áĭĽáĬĽáĭį": 3634,
      "áĪĿáįĴáĭ©": 3635,
      "ĠáĬłáĪ¸áĬĵáįĬ": 3636,
      "áįĳ": 3637,
      "áĪŃáĪĢ": 3638,
      "áĪĺáĭĭáĪį": 3639,
      "áĪĺáĪ¨áī¥": 3640,
      "Ġáĭ¨áĪļáĪĪáĭį": 3641,
      "Ġáĭ¨áĪĽáĭŃáī³": 3642,
      "ĠáĭŃáĪĺáĮ£áĪį": 3643,
      "ĠáĪĪáĪĽáĪ³áĭ¨áīµ": 3644,
      "ĠáĪ½áĪįáĪĽáīµ": 3645,
      "Ġáĭ³áĭŃáĪ¬áĬŃáī°áĪŃ": 3646,
      "Ġáĭ¨áĪĭáīĢ": 3647,
      "ĠáĬ¥áĮįáĪŃ": 3648,
      "ĠáīłáįĮ": 3649,
      "ĠáĬłáī³": 3650,
      "áĪĭáĪĪáįį": 3651,
      "Ġáī°áĮ¨": 3652,
      "áĪ½áĬĳ": 3653,
      "ĠáīłáĪĺáĪĿ": 3654,
      "Ġáĭ¨áĪĺáĪ¨áĮĥ": 3655,
      "ĠáīłáĬ¥áĪŃáĪµáĭİ": 3656,
      "ĠáĬłáĪĽáĬ«": 3657,
      "áĭĽáĪĽáĮħ": 3658,
      "áī®": 3659,
      "áĪįáĬĿ": 3660,
      "ĠáīłáĪµáĪį": 3661,
      "áĪĿáĪµáīµ": 3662,
      "áĪ½áīµ": 3663,
      "ĠáīłáĬłáĬķáĭ³áĬķáĭµ": 3664,
      "Ġáĭ«áĪįáī°áĪĪáĪĺ": 3665,
      "ĠáĮįáĭµáĮįáĭ³": 3666,
      "ĠáĪĪáĪĺáĪĺáĪĪáĪµ": 3667,
      "áĪªáĭ«áĭİáī½": 3668,
      "ĠáĪµáĪŃáĬłáī¶áī½": 3669,
      "Ġáĭ¨áĪĻáīĢáīµ": 3670,
      "ĠáįĪáīĥáĭ°áĬĽ": 3671,
      "ĠáĪĺáĭįáĮ£áīµ": 3672,
      "ĠáĭŃáįĪáĮ¥": 3673,
      "ĠáĬ¥áĬķáĭĪ": 3674,
      "áī£áīłáĪŃ": 3675,
      "ĠáĪĽáī³": 3676,
      "ĠáĪĪáĪĺáįįáī³áīµ": 3677,
      "áĬ®áĪį": 3678,
      "ĠáīłáĪļáĭ«áĪµáĭ°áĬķáīħ": 3679,
      "ĠáīłáīĨ": 3680,
      "áĭ«áī¸áĭį": 3681,
      "áĮĪáĪªáī±": 3682,
      "áĪ°áĬŀ": 3683,
      "ĠáĪĭáĪĪáĭį": 3684,
      "áĬķáĮįáĪĬáĭĿ": 3685,
      "Ġáīħáĭ±": 3686,
      "ĠáĬ¨áĬ¥áĬĶ": 3687,
      "Ġáĭ¨áĬ¥áĬĶáĬķ": 3688,
      "ĠáįķáĪ¬áĭĿáĭ³áĬķáīµ": 3689,
      "áĪŃáĮħ": 3690,
      "ĠáĪĺáī¶": 3691,
      "áĭİáī»áī¸áĭį": 3692,
      "ĠáĭŃáįĪ": 3693,
      "ĠáīĢáĪ¨": 3694,
      "Ġáĭ¨áĬłáĭŃ": 3695,
      "áĪĬáįİáĪŃ": 3696,
      "ĠáĪ¶áĪµáī°áĬĽ": 3697,
      "áĮłáī£áīłáīħ": 3698,
      "ĠáĭŃáĪĿáĪ¨áĮ¡": 3699,
      "Ġáįİáī¶áĮįáĪ«áįį": 3700,
      "áĬķáĮłáĪ¨": 3701,
      "ĠáĪĺáĪ¨": 3702,
      "ĠáĪĺáĪĢáĪį": 3703,
      "áīłáĭĭáĪį": 3704,
      "áĪ³áĪ«": 3705,
      "áī¶áī¹áĬķ": 3706,
      "ĠáĮĪáĭ°áī¥": 3707,
      "Ġáĭ¨áĬłáĭįáĪ®áįĵ": 3708,
      "ĠáĬłáĭįáī³áĪ¨": 3709,
      "ĠáīłáįįáįģáĪĿ": 3710,
      "ĠáĪĺáīĢáĬĲáĪµ": 3711,
      "ĠáĪ±áīħ": 3712,
      "ĠáĭŃáīĢáĬķ": 3713,
      "Ġáĭ¨áĪŀáī£áĭŃáĪį": 3714,
      "Ġáĭ¨áĭ°áĬķáīłáĬĽ": 3715,
      "ĠáĬ¥áĬĲáĭļáĭ«áĬķ": 3716,
      "ĠáĪµáĬ¬áī³áĪĽ": 3717,
      "Ġáī³áĭįáīĥáĪĪáĪħ": 3718,
      "áĪĪáįħ": 3719,
      "ĠáĪĺáīħ": 3720,
      "ĠáĭŃáĪĤáĭ±": 3721,
      "Ġáī°áĪ½áĬ¨áĪŃáĬ«áĪª": 3722,
      "ĠáĪĺáĮłáĭ¨áīħ": 3723,
      "ĠáīĥáĪĪ": 3724,
      "ĠáįĢáĪ¨": 3725,
      "ĠáĮĵáĭ°áĬŀ": 3726,
      "Ġáī°áĬĵáĮįáĪ¨áĭĭáĪį": 3727,
      "áĭįáĪ°áĭ±": 3728,
      "ĠáīłáĪĺáĭ°áīłáĬĽ": 3729,
      "ĠáĭŃáĭį": 3730,
      "ĠáĬ¥áĬķáĭ°áĪĺ": 3731,
      "ĠáĮįáĪĭáĭĬ": 3732,
      "Ġáī¦áī³áĭİáī½áĬķ": 3733,
      "áĪ°áī¥áĬ©": 3734,
      "ĠáĪĿáĬŃáĬķáĭ«áī³áĭĬ": 3735,
      "Ġáī°áĪĺáĪ«": 3736,
      "ĠáĪĽáĪ«áĬª": 3737,
      "Ġáĭ¨áĬĶ": 3738,
      "áī¥áī¥áĪŃ": 3739,
      "áī£áĬ¤": 3740,
      "áĪ³áĪĪáĪģ": 3741,
      "áĮ¦áĪŃ": 3742,
      "áīªáĪį": 3743,
      "ĠáįĸáĪĬáĪµ": 3744,
      "ĠáĬłáīĢáĪĽáĪĺáĮ¥": 3745,
      "áĭįáĪī": 3746,
      "áĪĿáįĵ": 3747,
      "ĠáĪµáĭµáĪµáīµ": 3748,
      "Ġáĭ¨áĪļáĪĨáĬĳ": 3749,
      "Ġáĭ¨áĪļáĮĪáĬĻ": 3750,
      "áĪ½áĬĵáĪį": 3751,
      "áīłáīµáĪĿ": 3752,
      "ĠáĪĻáĭļ": 3753,
      "ĠáĬ®áĬ¨áī¥": 3754,
      "áĪ¨áĮĭáĮĭ": 3755,
      "ĠáĪĽáĪµáĪ¨áĮĥ": 3756,
      "áĪŁáĪĭáīµ": 3757,
      "ĠáĬłáĭµáĪŃáĮĪáĭį": 3758,
      "áĪ¾áī½áĬķ": 3759,
      "ĠáĬ¥áīĥáĭİáī½áĬķ": 3760,
      "ĠáĬ¥áĪħ": 3761,
      "áĬĲáī±áĬķ": 3762,
      "Ġáĭ«áī°áĬ®": 3763,
      "Ġáī°áĬĲáĪ³áĪ½": 3764,
      "Ġáĭ¨áĬłáĭį": 3765,
      "ĠáĪŀáī°áĪŃ": 3766,
      "ĠáĬłáī¥áĪ¨áĭį": 3767,
      "ĠáĬ¬áĬŃ": 3768,
      "áīĢáĭĿáīĢ": 3769,
      "ĠáĪµáīµáĪ«áī´áĮĤ": 3770,
      "Ġáĭ¨áĪ³áĭŃ": 3771,
      "Ġáĭ¨áīłáĪ¨áĭ¶": 3772,
      "áĮ¥áīħ": 3773,
      "ĠáĭĪáĪ°áĬķ": 3774,
      "ĠáĬķáĮįáĭ¶áī½": 3775,
      "Ġáĭ©áĬĵáĭŃáīµáĭµ": 3776,
      "Ġáī°áĮ«áĭĭáī½": 3777,
      "ĠáĭŃáĭĪáĭ³áĪī": 3778,
      "áīĢáĭĿáīĢáĭ£": 3779,
      "ĠáīłáĭŃ": 3780,
      "ĠáĪĺáĬ«áĬ¨áĪĪáĬĽ": 3781,
      "áī¥áĪĬ": 3782,
      "Ġáī°áĪ¸": 3783,
      "áĮ£áįį": 3784,
      "áĬ«áĬ¨áīµ": 3785,
      "ĠáĬķáĮįáĮįáĪŃ": 3786,
      "ĠáīłáĪ°áĭį": 3787,
      "ĠáįķáĪ®áĮįáĪ«áĪŀáī½": 3788,
      "ĠáĪµáĪĭáĪĪáĭį": 3789,
      "Ġáī£áĪįáĭ°áĪ¨": 3790,
      "Ġáī£áĪĪáī¤áī¶áī½": 3791,
      "ĠáĬ¥áĬķáĪµáĪ³": 3792,
      "ĠáĪĪáĬķáĮįáĭµ": 3793,
      "áĪ®áĮ¥": 3794,
      "Ġáĭ¨áĪļáĪĺ": 3795,
      "ĠáĮįáĭĽ": 3796,
      "áĬĸáĪµ": 3797,
      "Ġáĭ°áĬ«áĪĽ": 3798,
      "ĠáĪ²áĪī": 3799,
      "Ġáī³áĭ³": 3800,
      "ĠáĪĻáĭ«áĭĬ": 3801,
      "áĪĺáĪĪáĬŃ": 3802,
      "áĪĺáĪĪáĪ±": 3803,
      "ĠĠĠĠĠĠ": 3804,
      "ĠáĪŀáīµ": 3805,
      "ĠáīłáĮįáĪį": 3806,
      "áĮĪáĪĿáĮĪáĪĿ": 3807,
      "ĠáĪ½áĪįáĪĽ": 3808,
      "áĪĬáįİáĪŃáĬĴáĭ«": 3809,
      "ĠáĬłáĪ«": 3810,
      "ĠáĪĺáĪĨ": 3811,
      "áĬĲáīłáī¥": 3812,
      "ĠáĪĪáĪģáĪĪáīµ": 3813,
      "ĠáĬ¨áĮĵ": 3814,
      "áīħáĪ«": 3815,
      "áĬ¥áĪĪáīµ": 3816,
      "Ġáĭ¨áĪĺáĮį": 3817,
      "Ġáĭ¨áĪĺáĮĢáĪĺáĪªáĭ«áĭįáĬķ": 3818,
      "Ġáī¼": 3819,
      "áĪĭáīģ": 3820,
      "ĠáĪĺáīĨáĮ£áĮłáĪªáĭ«": 3821,
      "ĠáĭĪáĬª": 3822,
      "áĭĭáĪĪáĬķ": 3823,
      "ĠáĮįáĮ¥": 3824,
      "ĠáįĪáĮĪáĮį": 3825,
      "ĠáĬłáĪµáī°áĪ³áĪ°áī¥": 3826,
      "áĭŀáĪŃ": 3827,
      "ĠáĮ¦áĪŃ": 3828,
      "áįĵáĪŃáī³áĪĽ": 3829,
      "ĠáĪĢáĮĪáĪ«áīµ": 3830,
      "áĪįáĬ¥áĬ®": 3831,
      "Ġáīłáĭ¨áĬłáĪĺáī±": 3832,
      "Ġáĭ¨áĭ¶": 3833,
      "Ġáī°áĬ¥áĪĪáīµ": 3834,
      "ĠáĮįáĭ¢": 3835,
      "áįĭáĭŃ": 3836,
      "áįĭáĪī": 3837,
      "ĠáĬ«áĪĭ": 3838,
      "ĠáĬ«áĪľáĪ«": 3839,
      "ĠáĬ¤áĬŃáĪµ": 3840,
      "ĠáĬłáĬķáīĢ": 3841,
      "ĠáĭĪáĪ¨áīĢ": 3842,
      "Ġáĭ¨áĭľ": 3843,
      "ĠáĪĺáĪ¨áī¥": 3844,
      "áĪĽáĪŃáīµ": 3845,
      "áĮłáĬķáīĢ": 3846,
      "ĠáĪĿáĭĿáĮĪáī£": 3847,
      "áī¶áĬķ": 3848,
      "ĠáĬŃáĪŃáĬŃ": 3849,
      "ĠáĪĿáĪµáĮĭáĬĵ": 3850,
      "Ġáĭ°áĮĭáįĬ": 3851,
      "áĮĵáĮĵáĭ£": 3852,
      "ĠáĪĺáĪµáįĪáĪŃáī¶áī½": 3853,
      "ĠáīłáĪĨáĬĳ": 3854,
      "áĭ°áĭŃ": 3855,
      "áĭĪáĭĿ": 3856,
      "áĪĭáĭŃáĬķ": 3857,
      "ĠáĬ¥áĭ«áĬķáĭ³áĬķáĭ³": 3858,
      "ĠáīĨáĭŃáī³": 3859,
      "ĠáĮİáĭ³áĬĵ": 3860,
      "ĠáīłáīµáĪĿáĪħáĪŃáīµ": 3861,
      "ĠáīµáĪŃáįį": 3862,
      "áĬĵáĮĪáĪ©": 3863,
      "ĠáīħáĪŃáī¥": 3864,
      "áĮĪáĬĲáī£": 3865,
      "ĠáĪĺáĭµáĪĢáĬĴáīµ": 3866,
      "Ġáĭ¨áĪ½áĭ«áĮŃ": 3867,
      "ĠáĬłáĮĪáĪ®áī½": 3868,
      "ĠáĬłáĭįáĪ®áįķáĪĭ": 3869,
      "ĠáĬłáĪįáī»áĪįáĬ©áĪĿ": 3870,
      "ĠáĬĳ": 3871,
      "ĠáĬłáĮĪáĪį": 3872,
      "áĪ¨áīĥ": 3873,
      "áĪĽáĪ©": 3874,
      "Ġáĭ«áĪĪáĬķ": 3875,
      "ĠáĭĪáĪĪáĪį": 3876,
      "ĠáĪ°áĬŀ": 3877,
      "áĪľáīµ": 3878,
      "áī²áīµ": 3879,
      "ĠáĬ¥áĪµáī´áīµ": 3880,
      "áįİáĬķ": 3881,
      "ĠáĬłáĪµáī°áĪĽáĪĽáĬĿ": 3882,
      "ĠáįĵáĭįáĬķáĭµ": 3883,
      "Ġáīłáī°áĪĪáĭ¨": 3884,
      "ĠáĬ¥áĬķáĭ³áĪĪáīłáīµ": 3885,
      "áĬķáįĪáĪ¨áĬķáĪµ": 3886,
      "áĬķáī§": 3887,
      "Ġáĭ¨áĮł": 3888,
      "áī¥áī»": 3889,
      "ĠáĪĪáĪĺáĪ¨áĭ³áīµ": 3890,
      "áĮŃáīłáĪŃ": 3891,
      "Ġáĭ¨áīłáĮĭ": 3892,
      "ĠáĬ¥áĮĪáĪĿ": 3893,
      "áĪĽáĭİáī½": 3894,
      "áĪ«áĪŃ": 3895,
      "áīĢáĭĭáĪį": 3896,
      "ĠáĬ¤áĪį": 3897,
      "ĠáĮĢáĪĺáĪŃ": 3898,
      "áĭĪáĪµáĭ±": 3899,
      "áĪµáī²áĬŃáĪµ": 3900,
      "ĠáĬ¥áĮĪáĪĿáī³áĪĪáĪģ": 3901,
      "Ġáĭ¨áĬĲáīłáĪ¨": 3902,
      "ĠáĬłáĮł": 3903,
      "áĪĭáĮħ": 3904,
      "Ġáī°áĪŃ": 3905,
      "Ġáĭįáīłáīµ": 3906,
      "ĠáĪĪáĪĺáĭµáĪ¨áĪµ": 3907,
      "áī¢áĭ«áĭį": 3908,
      "Ġáĭ¨áĭįáĪµáĮ¥": 3909,
      "ĠáĮŃáĬķáīĢáīµ": 3910,
      "áīĢáĪĺáĮ«": 3911,
      "ĠáĬ¥áĬķáĭ°áĪĽáĪµáīłáĭį": 3912,
      "ĠáĪĽáĪĺáĪįáĬ¨áī»": 3913,
      "ĠáĪĺáĬķáĮįáĪµ": 3914,
      "Ġáĭ¨áī¤": 3915,
      "Ġáĭ¨áĮ¨áĭĭáī³": 3916,
      "ĠáīłáĪ¶": 3917,
      "ĠáĬłáīĭ": 3918,
      "áĪ«áĭį": 3919,
      "ĠáĭŃáĪŀáĬŃáĪ©": 3920,
      "ĠáĬ¨áĪ¨": 3921,
      "Ġáī°áĭĭáĬĵ": 3922,
      "áĪİáĪª": 3923,
      "ĠáĪĪáĪĺáĮĪáĬķáī£áīµ": 3924,
      "ĠáĪħáĮİáī½": 3925,
      "ĠáĮłáįį": 3926,
      "Ġáī£áĪħáĪĭáĭĬ": 3927,
      "ĠáĪ¨áĮĪáĭµ": 3928,
      "áĬ¨áĬĵáĭĪáĬķ": 3929,
      "áĮĪáĪĪáįĢáĭį": 3930,
      "ĠáĬłáĭĿáĬĵ": 3931,
      "áī¥áĮ¥": 3932,
      "áįĪáī°": 3933,
      "ĠáīĢáĪį": 3934,
      "Ġáĭ¨áĪĺáĪ¬áīµ": 3935,
      "áĬ®áĪĮáīµ": 3936,
      "ĠáĮłáĭ¨": 3937,
      "ĠáĬŃáįįáĭ«áĭİáī½": 3938,
      "áīĭáĪļ": 3939,
      "ĠáĬ¦áįķáĪ¬": 3940,
      "ĠáĪĺáĮįáī£áīµ": 3941,
      "Ġáī¤áī°áĪ°áī¦áī½": 3942,
      "Ġáĭ¨áĪįáī¥": 3943,
      "ĠáĮ¥áīħáĪŀáī½": 3944,
      "ĠáīłáĬłáī¥áĭĽáĬĽáĭį": 3945,
      "ĠáīĢáĭµáĪŀáĭį": 3946,
      "ĠáĬłáĭ²áĪ±áĬķ": 3947,
      "áĪµáĪ«": 3948,
      "ĠáĪĺáĮĢáĪĺáĪŃ": 3949,
      "áĬłáĭĬ": 3950,
      "ĠáĬŃáī¥áĪŃ": 3951,
      "áĬ©áīłáīµ": 3952,
      "ĠáįįáĪ«": 3953,
      "ĠáĮ¥áĪ©áĭį": 3954,
      "ĠáĬłáĪįáī»": 3955,
      "ĠáĪĺáĪµáĬŃ": 3956,
      "ĠáĮ¥áīħáĪį": 3957,
      "áīµáĪ®": 3958,
      "ĠáĬłáĪĿáĬĵ": 3959,
      "áī³áĬķ": 3960,
      "áī³áĪĪáī½": 3961,
      "áĪ®áĮĮ": 3962,
      "Ġáĭ¨áįĢáĪĢáĭŃ": 3963,
      "ĠáĪĪáĪĮáĪİáī½": 3964,
      "áĬķáĭĿ": 3965,
      "ĠáĬłáĭŃáĪĨáĬķáĪĿ": 3966,
      "Ġáĭ¨áĪĿáī³": 3967,
      "ĠáĬłáĭįáĮ¥": 3968,
      "ĠáĬ¥áĪ±áĪĿ": 3969,
      "ĠáĪĽáĪĪáīµáĪĿ": 3970,
      "ĠáĮĬ": 3971,
      "áī£áīĤ": 3972,
      "áī¸áīµ": 3973,
      "Ġáĭ¨áĪļáī°": 3974,
      "áĪĬáĬ¬": 3975,
      "áĮĪáĪįáįħ": 3976,
      "ĠáĬłáĪµáįĪáįĥáĪļ": 3977,
      "Ġáĭ¨áĭįáĪĤáī¥": 3978,
      "ĠáĪĪáĪļáįĪáĪįáĮī": 3979,
      "áī¥áĪĦáĪ«áĭĬ": 3980,
      "ĠáīģáĪŃáĮłáĬĿáĬĲáīµ": 3981,
      "ĠáĪįáĪĿáĪĿáĭµ": 3982,
      "ĠáĪµáįĶ": 3983,
      "Ġáī°áĭĽáĪĽáĮħ": 3984,
      "ĠáĪĽáĪ°áī¥": 3985,
      "ĠáĪĽáīħáĪ¨áī¥": 3986,
      "áįĪáĭĭáĪį": 3987,
      "ĠáĪĪáĪĺáĭ°áĮĪáįį": 3988,
      "áĪŀáĬķ": 3989,
      "ĠáĮĪáī£": 3990,
      "ĠáĬ®áĬķ": 3991,
      "ĠáĬłáĬķáĭ³áĬķáĭ¶áī¹": 3992,
      "áĮĮáĮ¥": 3993,
      "áīĢáĪĺáĮ¡": 3994,
      "ĠáĪĿáĪµáĪ«áīħ": 3995,
      "Ġáĭ¨áīĨáĪ»áĪ»": 3996,
      "ĠáĮįáĪĪáĪ°áī¦áī½": 3997,
      "áĪªáĮħ": 3998,
      "áĬĽáĭİáī¹": 3999,
      "Ġáī¥áĮģ": 4000,
      "Ġáĭ¨áī°áĪ¸": 4001,
      "Ġáīłáī°áįĪáĮ¥áĪ®": 4002,
      "áįĪáĪįáĮĪáĭįáĬķ": 4003,
      "ĠáĬ®áĪĿáįĴáĭį": 4004,
      "ĠáĬ¤áĪµ": 4005,
      "áīĢáĮ¥áī³": 4006,
      "ĠáĪĺáīĢáīłáĪį": 4007,
      "ĠáīłáĭµáĮĭáĪļ": 4008,
      "ĠáĬłáī¥áĭĽáĬĽáĭįáĬķ": 4009,
      "áĬ«áĪĦáĭ°áĭį": 4010,
      "ĠáįķáĪ®áĮĢáĬŃáī¶áī½": 4011,
      "ĠáĭŃáīĢáĮ¥áĪī": 4012,
      "áĮĪáīµ": 4013,
      "áĬĲáīĥ": 4014,
      "ĠáĬĲáįį": 4015,
      "ĠáĭĪáĭ°áĭļáĪħ": 4016,
      "ĠáĪµáĪĪáĬ¥": 4017,
      "ĠáīłáĬłáĪµáī°": 4018,
      "ĠáīłáĪĽáĪµáī°": 4019,
      "ĠáīħáĬĵ": 4020,
      "ĠáĪĮáĪİáī½áĬķ": 4021,
      "ĠáĬłáĪīáĬķ": 4022,
      "ĠáĪĺáįħáĪĢáįįáīµ": 4023,
      "Ġáĭ¨áĪļáĮłáĮī": 4024,
      "ĠáĬłáĪĿáĬĵáĪĪáĪģ": 4025,
      "Ġáĭ¨áĮĤ": 4026,
      "ĠáĬłáĮĪáĪŃ": 4027,
      "ĠáĪĺáįħáĪĦ": 4028,
      "ĠáĪĪáĮĪ": 4029,
      "ĠáĬ¨áĪĢ": 4030,
      "áĬŃáī°áĪ®áī½": 4031,
      "áĮłáĬĿ": 4032,
      "áīĢáĪļáĭ«": 4033,
      "ĠáĭĪáĭŃáĬķ": 4034,
      "ĠáĪĽáĮĪ": 4035,
      "áĮĭáī½áĪģ": 4036,
      "Ġáĭ¨áĪļáĪĨáĬķ": 4037,
      "Ġáĭ°áī¡áī¥": 4038,
      "ĠáĭĿáĪŃ": 4039,
      "ĠáĬłáĪµáįĪáĪª": 4040,
      "ĠáĪ«áĪ´áĬķ": 4041,
      "ĠáĬ¥áĬĽáĬķ": 4042,
      "Ġáįİáī¶áĭİáī½": 4043,
      "ĠáīłáĪļáīĢáĮ¥áĪīáīµ": 4044,
      "ĠáĭŃáĭĪáĪµáĭ³áĪį": 4045,
      "Ġáī¥áĪ©áĪħ": 4046,
      "áĭ¨áĪ±áĪµ": 4047,
      "áĪĽáī¾áī½": 4048,
      "áĬĴáĬŃáĪµ": 4049,
      "ĠáīłáĪĽáĪħáīłáĪ«áĭĬ": 4050,
      "ĠáĪĿáĬŃáĪ®áī½áĬķ": 4051,
      "Ġáĭ«áĪĪáĪĽ": 4052,
      "ĠáĪĺáĪ¨áĮĥáĭİáī½áĬķ": 4053,
      "ĠáĬłáĭµáĬĵáīĤ": 4054,
      "áĪµáī³áĭĪáīĤáĭ«": 4055,
      "áĪºáĭİáī½": 4056,
      "áĪŃáĭ±": 4057,
      "ĠáĬłáĪıáī¸áĭį": 4058,
      "áĪĪáĪµ": 4059,
      "ĠáĪ°áĪĿ": 4060,
      "áī¢áĭį": 4061,
      "ĠáĬŃáĪĪáī¥": 4062,
      "áįĬáī±": 4063,
      "áīĨáīµ": 4064,
      "áĪµáī°áĬķ": 4065,
      "áĬķáĮĪáī°áĬĽ": 4066,
      "Ġáĭ¨áĪµáĪŃ": 4067,
      "ĠáīĨáĭ³": 4068,
      "áĪ¯áĭĬ": 4069,
      "ĠáĪªáįĸáĪŃ": 4070,
      "ĠáīħáĪŃáįħ": 4071,
      "Ġáĭ¨áī°áĭ«áĭ«áĭĻ": 4072,
      "ĠáĪĺáĪĭáĬŃ": 4073,
      "ĠáĭŃáįĪáĪįáĮī": 4074,
      "ĠáĭŃáīłáĪī": 4075,
      "ĠáĭŃáĭ°áĪ°áī±": 4076,
      "áĭĪáĮį": 4077,
      "ĠáĮįáĭĻ": 4078,
      "Ġáī³áĭŃ": 4079,
      "Ġáĭ«áĪµáī½": 4080,
      "áįĪáĪįáĮĭáī¸áĭį": 4081,
      "áĮįáĪ«áĪĿ": 4082,
      "áĭĺáĮĭáĮĥ": 4083,
      "Ġáī¤áī°áĪ°": 4084,
      "áĪ¨áĮĭáĮĪáĮł": 4085,
      "ĠáīµáĬ©áĪ¨": 4086,
      "ĠáĪĺáĪªáĭİáī½": 4087,
      "ĠáĪĺáįĥáĪħáįįáīµ": 4088,
      "ĠáĬ¨áĬŃ": 4089,
      "ĠáĪĽáĪ¨áĮĭáĮĪáĮ«": 4090,
      "áĪ½áĬķáĮįáī°áĬķ": 4091,
      "ĠáĬłáĪµáĪŃ": 4092,
      "ĠáĪįáĪĽ": 4093,
      "ĠáĬłáĪĪáī¦áīµ": 4094,
      "áī²áĬķ": 4095,
      "áī²áīŃ": 4096,
      "áĮİáĪį": 4097,
      "ĠáĪĺáĪŃáĭ³áīµ": 4098,
      "áĪŀáĬŃáĪŃ": 4099,
      "áĬ®áĬĸáĪļáĭ«": 4100,
      "Ġáĭ¨áĮĪáĬĵ": 4101,
      "áĬĲáī°áĬĽ": 4102,
      "ĠáĪĪáĪĨáĬĳ": 4103,
      "áĬ¥áĪĪ": 4104,
      "áī¸áĭĭáĪĪáĪģ": 4105,
      "ĠáĪĪáĪĽáĪĿáĮ£áīµ": 4106,
      "áĮįáĪ«áĪĪáī½": 4107,
      "áĬ¨áĪĭáĭĬ": 4108,
      "ĠáĪĽáĬķáĪ³áīµ": 4109,
      "ĠáįįáīµáĪĢáĭĬ": 4110,
      "ĠáĪļáĪµáĮ¥áĪ«áĭĬ": 4111,
      "ĠáĬ¥áĮį": 4112,
      "áī½áĬĭ": 4113,
      "áĪ¨áĬĿ": 4114,
      "ĠáĬĲáĪħ": 4115,
      "ĠáĬ¨áĬ®": 4116,
      "áĬłáĪŃ": 4117,
      "ĠáĭįáĪ»": 4118,
      "Ġáī¥áĪ¨áīµ": 4119,
      "ĠáĪĪáĪĽáĭĺáĮĭáĮĢáīµ": 4120,
      "ĠáĪĬáīĢ": 4121,
      "áĪ±áīµ": 4122,
      "ĠáĪ²áĪĨáĬĳ": 4123,
      "áīĨáĭ©": 4124,
      "ĠáĪĨáī´": 4125,
      "áĮłáĪ«áīĢáĪļáĭ«": 4126,
      "ĠáĪµáĪĿáĪĿ": 4127,
      "ĠáĪĺáĪįáĬ¥áĬŃ": 4128,
      "ĠáĪĢáĬªáĪĿ": 4129,
      "ĠáīłáĭįáĪµ": 4130,
      "áĬĵáĮĪáĭµ": 4131,
      "áĮĪáĬĽáĪį": 4132,
      "ĠáĭŃáĭŃ": 4133,
      "ĠáĭŃáĬ¨áī°": 4134,
      "Ġáĭįáī¥": 4135,
      "Ġáĭ¨áĪļáĮĪáĬĿ": 4136,
      "ĠáĪ°áĬķáĮłáĪ¨": 4137,
      "ĠáĮłáĪŃ": 4138,
      "Ġáĭ«áĪĪáīłáīµ": 4139,
      "áĪĺáĮ£áĭį": 4140,
      "ĠáĪ°áĪ«áī°áĬĽ": 4141,
      "ĠáīģáĪŃáĮ¥": 4142,
      "áĬķáī£áī³": 4143,
      "ĠáĪµáĪħáī°": 4144,
      "ĠáĬłáįķáĪĬáĬ¬": 4145,
      "ĠáĬ¨áĮłáĭĭáī±": 4146,
      "Ġáĭ¨áĭĽ": 4147,
      "áī¥áĭ±": 4148,
      "ĠáĪĿáĪħ": 4149,
      "ĠáĮ¥áīĤ": 4150,
      "Ġáĭ¨áī°áĮłáīĥáĪļ": 4151,
      "ĠáĪĪáĪĽáĪĪáīµ": 4152,
      "áĬ¨áī°áĪĪáĭį": 4153,
      "ĠáĬ¥áĭįáīħáĬĵ": 4154,
      "áīłáĪ©áīµ": 4155,
      "ĠáĬłáĮĭáĪŃ": 4156,
      "ĠáĮ«áįį": 4157,
      "ĠáīĢáĮ¥áī°áĬĽ": 4158,
      "ĠáĪĽáĬŃáĪ°áĬŀ": 4159,
      "Ġáĭ¨áī¡áĭµáĬķ": 4160,
      "Ġáĭ¨áīªáĭ²áĭ®": 4161,
      "ĠáīłáĪĭ": 4162,
      "ĠáīłáĭĻ": 4163,
      "ĠáīłáĪĿáĪŃ": 4164,
      "áīħáĬķ": 4165,
      "áī±áĭ²áĭ®": 4166,
      "ĠáĬ¥áĬķáĭ²áīĢ": 4167,
      "ĠáĬ«áĪ¬": 4168,
      "ĠáĮłáĭŃ": 4169,
      "áĪ°áĪ«áĭį": 4170,
      "ĠáĬłáĪīáī³áĭĬ": 4171,
      "áīĢáĮ¥áĪĪáĭį": 4172,
      "ĠáīłáĪĺáĪµáĪ«áīµ": 4173,
      "áĪ½áĬ¨áĪŃáĬ«áĪªáĭİáī½": 4174,
      "ĠáĬłáĭµáĪ«áĮİáīµ": 4175,
      "áįĵáĪŃáīµáĪĺáĬķáīµ": 4176,
      "ĠáĭŃáĬ¸": 4177,
      "ĠáĮ¥áĬķáĬ«áĪ¬": 4178,
      "áĭĬáī°áĪŃ": 4179,
      "ĠáĪ²áĪµáī°": 4180,
      "Ġáĭ¨áĪļáĭ«áĪ³áĭŃ": 4181,
      "Ġáĭ«áĪµáįĪáĪį": 4182,
      "ĠáĪĺáĭ°áī¥": 4183,
      "Ġáī°áĮ«áĭĭáī¾áī½": 4184,
      "Ġáīłáĭ©áĬĵáĭŃáīµáĭµ": 4185,
      "Ġáĭ¨áįķáĪ®áĮĢ": 4186,
      "ĠáĬłáĭİáĬķáī³áĭĬ": 4187,
      "Ġáĭ¨áĪģáĪĪáīµ": 4188,
      "ĠáĬłáĭĺáĮĪ": 4189,
      "áĪĪáīłáīµ": 4190,
      "áĬĲáīĢ": 4191,
      "Ġáī°áĪ°": 4192,
      "ĠáīłáĬłáĭį": 4193,
      "Ġáĭ¨áĪµáĪį": 4194,
      "ĠáĬłáĪĽáĬ«áĪª": 4195,
      "Ġáī°áĬĵáĮįáĪ«áĪĪáī½": 4196,
      "áĪĺáĪµáĪįáĪĿ": 4197,
      "Ġáĭ«áĪµáįĪáĪįáĮĭáĪį": 4198,
      "áĪĿáįĴáĭ©áī°áĪŃ": 4199,
      "áĮ¿": 4200,
      "ĠáīłáĮĬáĭľ": 4201,
      "ĠáĪĺáĮ¡": 4202,
      "áĮ¥áįİáī½": 4203,
      "áĪļáĭĿ": 4204,
      "ĠáĪµáī¥áĪµ": 4205,
      "Ġáī°áĪįáĬ¥áĬ®": 4206,
      "áĬ®áĬķ": 4207,
      "Ġáĭ¨áĪĿáĪµ": 4208,
      "áĪ°áī¥áĪ°áī¥": 4209,
      "ĠáĪĺáĪµáĪİ": 4210,
      "ĠáĪĺáĬķáĮĪáĭ¶áī½áĬķ": 4211,
      "ĠáĪ¶áįįáīµáĭĮáĪŃ": 4212,
      "áįħáĪĢáįį": 4213,
      "ĠáĪĿáĪµáĪİáī½áĬķ": 4214,
      "áĭĪáĭ«áĭ¨áīµ": 4215,
      "ĠáĬłáĭĺáĮĪáĮĥ": 4216,
      "Ġáĭ¨áī½": 4217,
      "Ġáĭ¨áĪ±": 4218,
      "áĪĪáįĢ": 4219,
      "áĪĽáĪī": 4220,
      "áĬĲáī³áī¸áĭį": 4221,
      "ĠáĪĪáĮį": 4222,
      "ĠáĪĪáĭĪáĭ°": 4223,
      "ĠáĪĪáĪĽáĬķáīłáī¥": 4224,
      "áī¥áĪ¨áī°": 4225,
      "ĠáĭŃáĪµáĮ¡": 4226,
      "áĬķáĭİáĬķ": 4227,
      "Ġáĭ¨áĪ¸": 4228,
      "ĠáĬłáįħ": 4229,
      "áĭŃáĭĻ": 4230,
      "áĬķáĭĭ": 4231,
      "áĪĽáī¸áĭį": 4232,
      "áĭ°áī£": 4233,
      "Ġáĭ«áĮĪáĬĺ": 4234,
      "ĠáĪ°áĭ¶": 4235,
      "áĪªáĭ«áĬķ": 4236,
      "Ġáīłáī°áĭ«": 4237,
      "Ġáī°áĪĺáĪįáĬ¨áīµ": 4238,
      "ĠáīĨáĭŃ": 4239,
      "ĠáĪĽáĪµáĮĪáī£áīµ": 4240,
      "ĠáĪĽáĪħáīłáĪ¨áĪ°áī¦áī½": 4241,
      "Ġáī¥áĪįáĪħ": 4242,
      "áĬķáĬ¨áī£áĬ¨áī¥": 4243,
      "Ġáĭ¨áĬ©áī£áĬķáĭ«": 4244,
      "áĮĪáĪ«áĪļ": 4245,
      "áĪĺáī¶áī½": 4246,
      "áĭ«áĭİáī½áĬķ": 4247,
      "áĮ¥áĮ¥áĪŃ": 4248,
      "áĬ¨áĬķáĭµ": 4249,
      "áĮ£áĭĬ": 4250,
      "áĪ©áĪĿ": 4251,
      "ĠáĮ¥áĪĭ": 4252,
      "Ġáĭ¨áī°áĪ°": 4253,
      "ĠáĬŃáīµ": 4254,
      "áĪµáī°áĬ«áĬ¨": 4255,
      "ĠáĪŀáĬŃ": 4256,
      "ĠáīµáĬ¥áĭŃáĬķáīµ": 4257,
      "áĪĽáĭįáĭ«áĬķ": 4258,
      "ĠáĬłáĮłáĮĪáī¥": 4259,
      "ĠáĬ¡": 4260,
      "áĪįáĬ«": 4261,
      "ĠáĭŃáīłáĪįáĮ¥": 4262,
      "ĠáĬ¨áĬ¢": 4263,
      "Ġáī°áĭ°áĪŃ": 4264,
      "áĬ«áĪļáĭİáī½": 4265,
      "áĭ³áĪª": 4266,
      "ĠáĪĪáĪĽáĬ«": 4267,
      "Ġáĭ¨áĪĺáĪĺ": 4268,
      "ĠáĬ¥áĬķáĭ²áĪ°áĪĽ": 4269,
      "áĪĻáĪĭáīµ": 4270,
      "Ġáĭ¨áĬ¥áĪ³áīµ": 4271,
      "ĠáįĪáī³": 4272,
      "ĠáīłáĪĨáĬĲáĭį": 4273,
      "Ġáĭ¨áĪĪáĬĿáĪĿ": 4274,
      "áĪĭáīĢáĪī": 4275,
      "Ġáĭ¨áĭµáĪĿáįħ": 4276,
      "áįĲáī¥áĪĬ": 4277,
      "ĠáīłáĮ£": 4278,
      "ĠáĬłáĪ¨áĮĭáĮį": 4279,
      "áĪĺáĮĭáĮĪáī¥": 4280,
      "ĠáĪµáįįáĪ«": 4281,
      "áĮ£áĪªáĭİáī½": 4282,
      "áĭĺáĭį": 4283,
      "ĠáĬłáĪĪáĪħ": 4284,
      "Ġáĭ¨áĬ¥áĪ±": 4285,
      "ĠáīłáĬ¥áĪ±": 4286,
      "ĠáĬ¥áĭµáĪī": 4287,
      "ĠáĪĽáĪħáīłáĪŃ": 4288,
      "Ġáī¥áĪİáĬĽáĪį": 4289,
      "áĮłáĭŃáīħ": 4290,
      "áĭįáīĥáĪĪáĬķ": 4291,
      "áĬķáĮĢáĪį": 4292,
      "Ġáĭ¨áĪ°áĭįáĬĲáīµ": 4293,
      "Ġáī³áĪªáĬ®áī½": 4294,
      "ĠáĬłáĪĺáĪĪáĬ«áĬ¨áīµ": 4295,
      "ĠáĬªáĬķáĮįáĭ°áĪĿ": 4296,
      "ĠáīłáĪĺáĪ°áĪ¨áī±": 4297,
      "ĠáĪĪáĪļáĭ«": 4298,
      "ĠáĬĲáīł": 4299,
      "áĬŃáīłáĪŃ": 4300,
      "áĮ£áĪĪáĪģ": 4301,
      "áīĥáĪĪáĬķ": 4302,
      "ĠáĪįáīµ": 4303,
      "áĭĺáĮĪáī¡": 4304,
      "áįĭáĭĬ": 4305,
      "ĠáĬ¥áĬķáĭ°áĪļáĪ°áĪ«": 4306,
      "ĠáĬ®áĪĮáĮħ": 4307,
      "ĠáĪµáĬ¥áĪį": 4308,
      "Ġáĭ«áĪµáī³áĭįáĪ±": 4309,
      "áĪįáīĢáīµ": 4310,
      "áĪĪáĬĵáĪį": 4311,
      "Ġáī°áĮİ": 4312,
      "ĠáĪĽáĪĺáĬķ": 4313,
      "ĠáĪĽáĭįáĮ£áīµ": 4314,
      "Ġáī¥áĭµáĪŃ": 4315,
      "áĬĿáĬķ": 4316,
      "ĠáĮĬáĭľáĭ«áīµ": 4317,
      "ĠáĬłáĪµáĮĪáĪ«áĪļ": 4318,
      "áĪĢáĪ´": 4319,
      "áī²áĬķáĮį": 4320,
      "ĠáĭŃáĪ°áĮ¥": 4321,
      "ĠáĪĺáīĢáĭ¨áĪŃ": 4322,
      "áĭĭáīĤáĭİáī½": 4323,
      "Ġáĭ¨áĪĪáĪ½": 4324,
      "áĪ³áī°áįī": 4325,
      "áĬŃáĪ²áĭ®áĬķ": 4326,
      "ĠáĪĢáī¥áīµ": 4327,
      "Ġáī°áĪ³áī³": 4328,
      "Ġáĭ«áĪĪáĪĽáīĭáĪ¨áĮ¥": 4329,
      "Ġáĭ¨áĪ©": 4330,
      "Ġáĭ¨áī´áĬŃáĬĸáĪİáĮĤ": 4331,
      "áĪµáī´": 4332,
      "áĪļáĬķ": 4333,
      "Ġáī°áĬķáīĢáĪ³": 4334,
      "ĠáĪĪáĪĺáĭįáĪ°áĭµ": 4335,
      "Ġáī¤áī¶áī½áĬķ": 4336,
      "ĠáĬĲáīłáĪŃáĬ©": 4337,
      "áĪĬáĭ«áĬķ": 4338,
      "Ġáīħáī¤": 4339,
      "ĠáĭµáĪŃáĮħ": 4340,
      "Ġáī°áĭ°áĪ«áĪ½": 4341,
      "ĠáīĢáĪĪáĪŀáī½": 4342,
      "ĠáĪ°áĪĽáĭ«áĭĬ": 4343,
      "Ġáī£áĪĪáĪµáĪįáĮ£áĬĵáīµ": 4344,
      "ĠáīłáĪ³áĪĿáĬķáīµ": 4345,
      "áĬĵáįĪ": 4346,
      "áįĪáĮłáĪŃ": 4347,
      "ĠáīĢáĭ¶": 4348,
      "Ġáī£áĬķáĬŃ": 4349,
      "áī¡áīłáīµ": 4350,
      "ĠáĭĿáĬĵ": 4351,
      "ĠáĬ®áĪŃáĪµ": 4352,
      "ĠáĮĢáĪŃ": 4353,
      "áĮ«áĭĪáī±": 4354,
      "Ġáĭ¨áĬ«áĪŃ": 4355,
      "ĠáĬłáīħáĪ«áī¢áĭ«": 4356,
      "ĠáĬ®áĪļáī´": 4357,
      "Ġáĭ¨áī°áĭ«áĭ«áĭĺ": 4358,
      "ĠáĬ¥áĪ«áĪ±áĬķ": 4359,
      "ĠáĮħáĪĿáĪŃ": 4360,
      "ĠáĬ¨áĪĺáĮĢáĪĺáĪªáĭ«áĭį": 4361,
      "ĠáĪ¼": 4362,
      "áĪ¨áĮł": 4363,
      "ĠáĪµáĪĭáĪį": 4364,
      "Ġáī£áĭ¶": 4365,
      "áĪĮáĭŃ": 4366,
      "áĮİáĬķ": 4367,
      "ĠáĬ¦áįĬ": 4368,
      "ĠáĪ½áĬķáĬ©": 4369,
      "ĠáĪ«áĪµáĬķ": 4370,
      "Ġáĭ¨áĬ¢áĪľáĪį": 4371,
      "ĠáĬłáĮĭáĪĽáĪ½": 4372,
      "ĠáĪĿáĪŃáĮ«áĭİáī½": 4373,
      "ĠáīĢáĮłáĪ®": 4374,
      "Ġáĭ¨áĪ´": 4375,
      "Ġáī°áĬ¨áīµ": 4376,
      "ĠáĭĺáįĪ": 4377,
      "ĠáĬ¤áįķáĪªáĪį": 4378,
      "ĠáĬ¥áĭµáĪİáī½áĬķ": 4379,
      "ĠáĮİáīł": 4380,
      "áĪĭáĮİáīµ": 4381,
      "ĠáĪŃáĭĿ": 4382,
      "ĠáĭĿáĪŃáĭĿáĪ®áī½áĬķ": 4383,
      "ĠáĬ¥áĬķáīħáĪįáįį": 4384,
      "ĠáĪĬáĭ": 4385,
      "áīµáĪµ": 4386,
      "Ġáĭ¨áĮ£": 4387,
      "áĬĵáĮĭ": 4388,
      "Ġáī°áīĨáĮ£": 4389,
      "ĠáĪĽáĭµáĪ¨": 4390,
      "Ġáĭ¨áĪĽáĮįáĬĺáīµ": 4391,
      "Ġáĭ¨áĪĽáĪħáīłáĪ¨áĪ°áī¥": 4392,
      "ĠáĪĤáĪ³": 4393,
      "áĮ«áĭĪáī»": 4394,
      "ĠáĬĲáĭĭáĪªáĭİáī½": 4395,
      "áīĢáīµáĬķ": 4396,
      "ĠáīłáĬłáĪĺáīµ": 4397,
      "ĠáĬ¥áĬķáīģ": 4398,
      "Ġáĭ¨áĬłáĮĪáĪįáĮįáĪİáīµ": 4399,
      "ĠáĪħáĭ³áĪŃ": 4400,
      "áĬĴáĬ«áĭĬ": 4401,
      "ĠáĮłáīłáīĥ": 4402,
      "ĠáįķáĪª": 4403,
      "ĠáĮŃáĬķáīħ": 4404,
      "áĬŃáĪįáĪį": 4405,
      "ĠáĬłáī¥áĭĽáĬŀáī¹": 4406,
      "ĠáĪģáĪĪáī±áĬķáĪĿ": 4407,
      "ĠáĪµáĬŃáĪªáĬķ": 4408,
      "ĠáĪĪáī¥": 4409,
      "ĠáĭŃáĭ°áĪŃ": 4410,
      "áīłáĪ³": 4411,
      "Ġáĭ«áīĢ": 4412,
      "ĠáĪĽáĮį": 4413,
      "áĮ£áĮł": 4414,
      "Ġáĭ¨áī°áĪ°áĪ©": 4415,
      "ĠáĪĪáĪĺáĪĺ": 4416,
      "áĪ¸áĬķ": 4417,
      "ĠáĪµáĪ«áĭįáĬķ": 4418,
      "ĠáĬ¥áĭ«áĪĪ": 4419,
      "ĠáĬ¨áĬ¥áĪ±": 4420,
      "áĮĪáĬĺáĭįáĬķ": 4421,
      "ĠáĬłáĮįáĬĿáī·áĪį": 4422,
      "ĠáĬłáĮįáĬĿáī»áĪĪáĪģ": 4423,
      "ĠáĬŃáĪµáī°áī¶áī½": 4424,
      "ĠáĪ¬áĪµáī¶": 4425,
      "ĠáĪµáĬ¥áĪİáī½": 4426,
      "áĬ¡áĪµ": 4427,
      "áĬĲáįĥáįĢáĪŃ": 4428,
      "ĠáīłáĮĭ": 4429,
      "áī°áįį": 4430,
      "ĠáĬ¢áĬ®áĬĸáĪļáĭ«": 4431,
      "ĠáįĭáĪ½áĬķ": 4432,
      "ĠáĬªáĪİ": 4433,
      "ĠáĭĿáĮįáĮħáī¶áī½": 4434,
      "ĠáĬłáĪªáįį": 4435,
      "áī³áĭ©": 4436,
      "áĪ«áī¶áī½": 4437,
      "Ġáī°áĬ¨áĪĭ": 4438,
      "ĠáĪĽáĮłáī¢áĭ«": 4439,
      "áī¶áī»áī½áĬķ": 4440,
      "Ġáĭ¨áī°áĪ«": 4441,
      "ĠáīłáĬłáĭ¨áĪŃ": 4442,
      "áĪŀáīµ": 4443,
      "Ġáī³áī½": 4444,
      "ĠáĬ¥áĭ¨áįĪáĪĪáĮī": 4445,
      "áĬ¤áĬķ": 4446,
      "áĮįáī¥áĪŃ": 4447,
      "Ġáĭ¨áĪĮáĪĭáī¸áĭį": 4448,
      "ĠáĪĪáĪĽáĪ³áĭ°áĮį": 4449,
      "áĬŃáįĪáīµ": 4450,
      "áĮ¿áĪį": 4451,
      "Ġáĭ¨áĪīáĪĿ": 4452,
      "Ġáĭ¨áĬ¬": 4453,
      "Ġáĭ¨áīĢáĮ¥áī³": 4454,
      "áĭįáīĢáĭį": 4455,
      "Ġáīłáīģ": 4456,
      "áĬĵáī½áĬķ": 4457,
      "ĠáĭŃáĭįáĪ°áĭ±": 4458,
      "áĮ¥áįĭáīµ": 4459,
      "áĬ«áī£áī¢áĭ«": 4460,
      "ĠáīłáĪĺáĪĨáĬķ": 4461,
      "ĠáīłáĬłáĭ²áĪ±": 4462,
      "ĠáĬ«áĪİáīµ": 4463,
      "áĪĿáĬķáīµ": 4464,
      "áĭĪáĪ°áĭµ": 4465,
      "ĠáīłáĮ¥áĬķáīĥáīĦ": 4466,
      "áĪ·áĬķ": 4467,
      "ĠáĪĺáĪĪáĭĭáĭĪ": 4468,
      "ĠáĬ¨áĪµáĪ«": 4469,
      "áĬĲáĪŃáĮĤ": 4470,
      "ĠáĬŃáĪ¬áĭ²áīµ": 4471,
      "Ġáī³áĪĽáĬĿ": 4472,
      "ĠáĬ¥áĪ«áīµ": 4473,
      "ĠáīłáĪģáĪĪáī±áĪĿ": 4474,
      "ĠáĬłáįĵáĪŃáī³áĪĽ": 4475,
      "ĠáĬ¨áĪĨáĬķáĬŃ": 4476,
      "áī£áĪĽ": 4477,
      "áĬłáīĢáįį": 4478,
      "áįĪáīµ": 4479,
      "ĠáĪĿáĭµáĪŃ": 4480,
      "áĬ«áĬŃ": 4481,
      "ĠáīłáĪĺáĪĨáĬĳ": 4482,
      "ĠáīłáĬłáĭ²áĪµ": 4483,
      "ĠáĬ«áĪĭáī¸áĭį": 4484,
      "ĠáĬŃáįįáĪİáī½áĬķ": 4485,
      "ĠáīłáĪļáĮĪáĬĺáĭį": 4486,
      "Ġáī½áĪĭ": 4487,
      "ĠáĪĽáĪµáĭĪáĮĪáĭµ": 4488,
      "Ġáĭ¨áĬĲáįĥ": 4489,
      "ĠáĬłáĭ°áĮĪáĬĽ": 4490,
      "Ġáĭ¨áĪĺáĪ³áĪ°": 4491,
      "Ġáįįáīĥáĭµ": 4492,
      "ĠáĪĺáĬķáĮįáĪµáī³áīµ": 4493,
      "Ġáĭ¨áī¥áĪŃ": 4494,
      "ĠáīłáĮł": 4495,
      "ĠáīłáįĬ": 4496,
      "ĠáĪĪáĬŃ": 4497,
      "ĠáĭŃáĬĵáĮĪ": 4498,
      "áįįáĪ¨áīµ": 4499,
      "Ġáī£áīµ": 4500,
      "ĠáĪĢáĪĻáĪµ": 4501,
      "ĠáīłáĪĽáĮįáĬĺ": 4502,
      "Ġáī£áĪħáĪŃ": 4503,
      "áĪ°áī£áĪ°áī¥": 4504,
      "áįĨáī½áĬķ": 4505,
      "ĠáĭŃáĪ°áĪ«áĪī": 4506,
      "Ġáĭ¨áĮįáī¥áĪŃ": 4507,
      "Ġáī°áīĭáĪĽáīµ": 4508,
      "áĬķáĮ¦áīµ": 4509,
      "Ġáĭ¨áĮ¨": 4510,
      "ĠáĬ¥áĮĪáĭĽ": 4511,
      "ĠáīłáĭĪáĪŃ": 4512,
      "ĠáĪĺáĬĵáĮĪáĪŃ": 4513,
      "áĮ¥áĪį": 4514,
      "ĠáĪĽáĬ¨áĪĽáī»": 4515,
      "ĠáįĨ": 4516,
      "ĠáĪĪáĪĽáĬķ": 4517,
      "Ġáĭ¨áĪĺáĪŃ": 4518,
      "ĠáĬŃáĪµ": 4519,
      "ĠáĪµáĪĪáĪĮ": 4520,
      "ĠáīłáĬłáĬ«áĪį": 4521,
      "ĠáĪħáī¥áĪ¨áīµ": 4522,
      "áĪĺáĪŃáĮ¡": 4523,
      "áįĪáĪĪáĮĪ": 4524,
      "ĠáĬ©áĬª": 4525,
      "áīĢáĮ¥áĪį": 4526,
      "áĮłáīĢáĪĻáīłáīµ": 4527,
      "Ġáĭ¨áĪĨáĬĳáīµ": 4528,
      "Ġáĭ¨áĭµáĪ®": 4529,
      "ĠáĮĨáĬķ": 4530,
      "ĠáĭŃáĪĦáĭ³áĪį": 4531,
      "Ġáĭ¨áĪ¨": 4532,
      "áĪĺáĬĿ": 4533,
      "áĪ¨áĬĵáĪį": 4534,
      "áĪ«áįĴ": 4535,
      "ĠáĪĽáĪ½áĬķ": 4536,
      "áĬ¨áĪ©": 4537,
      "Ġáĭ¨áī°áĬ¨": 4538,
      "ĠáīłáĪĺáĪĭáĭį": 4539,
      "ĠáĭĺáĬķáĭµ": 4540,
      "ĠáĬ¥áĭ¨áĪ°áĪ©": 4541,
      "ĠáĬłáĬ«áĪĭáĭĬ": 4542,
      "áĬ¬áī¶áī½": 4543,
      "Ġáĭ¨áĬ¢áĬķáĭ±áĪµáīµáĪª": 4544,
      "ĠáĮ¥áīħáĪĽ": 4545,
      "ĠáĪĪáĪĺáĮįáī£áīµ": 4546,
      "Ġáĭ±áīĦ": 4547,
      "ĠáīłáīµáĬķáĪ½": 4548,
      "Ġáĭ¨áĪħáįĥáĬĵáīµ": 4549,
      "ĠáĮįáĭĻáįį": 4550,
      "áī°áĪĢáĪį": 4551,
      "áĪĽáĪªáĭ«": 4552,
      "ĠáĪĪáįį": 4553,
      "áĪ«áĪĪáī½": 4554,
      "áīłáī³áĪį": 4555,
      "ĠáĬ¨áĭĽ": 4556,
      "ĠáĪĽáĮłáĪ«áīĢáĪļáĭ«": 4557,
      "ĠáĮįáī¥áĪ¨": 4558,
      "áĪĮáĪĿ": 4559,
      "ĠáĬłáĭµáĪŃáĮĮ": 4560,
      "Ġáĭ¨áĮ¥áīłáī¥": 4561,
      "Ġáī£áĪħáĪªáĭ«áīµáĬķ": 4562,
      "ĠáĬ¥áĬķáĭ³áĪįáĪĨáĬĲ": 4563,
      "ĠáīłáĪ«áĪ±": 4564,
      "Ġáī°áĬĲáĪ³áĪ½áĬĲáīµ": 4565,
      "áĮ¬": 4566,
      "Ġáīłáįĭ": 4567,
      "áĭ«áĭŃ": 4568,
      "áĬĲáīģ": 4569,
      "ĠáĪĪáĭļáĭ«": 4570,
      "ĠáĬ¨áĭ°": 4571,
      "áįįáĪŃ": 4572,
      "ĠáĮįáī¦áī½": 4573,
      "Ġáī³áĪªáĬ«áĭĬ": 4574,
      "ĠáĬ¢áĪĭáĪĽ": 4575,
      "áĪµáī³áĬķ": 4576,
      "ĠáĬ¨áĬłáĪģáĬķ": 4577,
      "ĠáīĨáĪŃ": 4578,
      "ĠáīĨáĮ£": 4579,
      "ĠáĮ¨áĭĭáī³áĭİáī½áĬķ": 4580,
      "áĭĿáĬĵáĬĵáīµ": 4581,
      "Ġáĭ¨áĪįáĮħ": 4582,
      "ĠáĭŃáĭĺáĭį": 4583,
      "ĠáĪĢáĭŃáĪĽáĬĸ": 4584,
      "ĠáĬłáīħáĪ«áī¢áĭİáī½": 4585,
      "Ġáĭµáī¥áĪįáīħ": 4586,
      "áĭ¨áīµáĬĽáĭįáĪĿ": 4587,
      "ĠáĪ°áĬķáĮłáĪ¨áĭ¥": 4588,
      "ĠáĪ½áĬķáĬ©áĪŃáīµ": 4589,
      "Ġáĭ¨áĮĥ": 4590,
      "ĠáīłáĭĽ": 4591,
      "áī½áīµ": 4592,
      "áĪĪáĭļáĪħ": 4593,
      "áĬķáĭĪ": 4594,
      "áĭİáī¼": 4595,
      "áĭ°áĪµ": 4596,
      "ĠáĭŃáī³áĭĪ": 4597,
      "áĬ¨áĪī": 4598,
      "Ġáĭ¨áĪļáĮĪáĪŃ": 4599,
      "ĠáĮĬáĭľáĬķ": 4600,
      "ĠáīłáĪĺáĬªáĬĵ": 4601,
      "áĪĨáĬĲáĭį": 4602,
      "ĠáįĪáįħ": 4603,
      "Ġáĭ¨áĬ¢áĬ®áĬĸáĪļ": 4604,
      "Ġáĭ¨áĪĨáĬĳáīµáĬķ": 4605,
      "ĠáĪĺáįįáīµáĪĦáĭİáī½áĬķ": 4606,
      "ĠáĮĵáĭ°áĬĽáĭ¬": 4607,
      "ĠáĪĤáĭ°áī¶áī½": 4608,
      "áĪģáĪĪáī°áĬĽáĭį": 4609,
      "ĠáĪĺáĭ³áĪ¨áĪ»": 4610,
      "ĠáīłáĮĥ": 4611,
      "áĬĵáīµáĬķ": 4612,
      "ĠáĬ¥áĬĵáĭįáīĥáĪĪáĬķ": 4613,
      "ĠáĪĪáĪ°": 4614,
      "áī¢áīµ": 4615,
      "ĠáĬłáĪĺáĮĭáĮĪáī¥": 4616,
      "Ġáĭ¨áĪĽáĭ«": 4617,
      "ĠáĭĺáĪŃáįį": 4618,
      "ĠáĬłáĪµáī°áĪĽáĪª": 4619,
      "ĠáĪĺáĪ¨áĮĥáĭİáī½": 4620,
      "áĮģáĬķ": 4621,
      "ĠáĬĲáīłáĪ¨áī½": 4622,
      "Ġáī½áĮįáĪ®áī½áĬķ": 4623,
      "ĠáĪ©áī¥": 4624,
      "Ġáĭ¨áĬ¢áĬķáĪ¹áĪ«áĬķáĪµ": 4625,
      "ĠáĬ¢áĪľáĭŃáĪį": 4626,
      "ĠáĪĺáĪµáĪĺáĪ®áī½": 4627,
      "ĠáīłáĮ¨áĭĭáī³": 4628,
      "Ġáī°áįĪáĮ¥": 4629,
      "ĠáĪĽáīłáĪ¨áī³": 4630,
      "Ġáĭ¨áī°áĮĭ": 4631,
      "ĠáĪ°áĬķáĪ°": 4632,
      "ĠáĬ¥áĭ¨áīĢ": 4633,
      "ĠáįķáĪ®áĮĦ": 4634,
      "áĬ¦áīµ": 4635,
      "ĠáīłáĪļáĭ«áĪ³": 4636,
      "Ġáĭ¨áĪĻáĭļáīĥ": 4637,
      "ĠáĭŃáĬĸáĪ¨áĭĭáĪį": 4638,
      "Ġáĭ«áĭ°áĪŃáĮĭáĪī": 4639,
      "ĠáĮīáĪįáīłáīµ": 4640,
      "ĠáĬłáĪµáīĢáĭµáĪĺáĭį": 4641,
      "ĠáįĪáĪįáĮĮ": 4642,
      "ĠáĪĽáĮ£áīµ": 4643,
      "ĠáĪĪáĪĺáįĥáįį": 4644,
      "áīłáĪŃáĮį": 4645,
      "áįĭáĪª": 4646,
      "ĠáĬłáĪĪáī½": 4647,
      "Ġáĭ¨áĬ¥áĪ¨áįįáīµ": 4648,
      "ĠáĮīáī£áĬ¤": 4649,
      "áĪĺáĪŃáĪĺáĪŃ": 4650,
      "áĮłáīĥáĪį": 4651,
      "ĠáĮĢáĪįáī£": 4652,
      "ĠáĪ«áĪµ": 4653,
      "áĮĪáĪĪáĮįáĪį": 4654,
      "áĭµáĪĢáĬĴáīµ": 4655,
      "ĠáĪĿáĮįáī¦áī½áĬķ": 4656,
      "ĠáĭŃáįĪáĮ¥áĪ«áĪį": 4657,
      "Ġáĭ¨áĪ¨áĮħáĪĿ": 4658,
      "áĪŃáĮĤ": 4659,
      "áĪįáīµ": 4660,
      "ĠáīłáĪĿáĬķ": 4661,
      "áĪĭáĮĨáī½": 4662,
      "áĪ¨áįĪ": 4663,
      "ĠáĪĪáĪĻáĪī": 4664,
      "Ġáī°áįĪáĮ¥áĪ®": 4665,
      "Ġáĭ¨áī°áįĥ": 4666,
      "Ġáĭ¨áī°áĮĪáĭ°": 4667,
      "ĠáĬłáĪµáī¤": 4668,
      "áįĭáįĭ": 4669,
      "áĪ¬áĪ½áĬķ": 4670,
      "ĠáīłáĪĽáĪ³": 4671,
      "áĭĪáĭ³áĭ°áĪŃ": 4672,
      "Ġáĭ¨áĭįáĮª": 4673,
      "ĠáĪĺáĭ°áī¥áĪŃ": 4674,
      "ĠáĬ«áĪŃáī³": 4675,
      "ĠáĭĪáĮ£áī¶áī½": 4676,
      "Ġáī°áĪ³áīµáįİ": 4677,
      "ĠáįĪáī³áĬĿ": 4678,
      "Ġáĭ¨áĪİ": 4679,
      "Ġáĭ¨áī±": 4680,
      "Ġáĭ¨áĬĲáīłáĪ¨áĭį": 4681,
      "áĮĪáĪµáīµ": 4682,
      "áīħáĭ±": 4683,
      "áĬ«áĭį": 4684,
      "áĭ³áĭį": 4685,
      "ĠáĪ°áĬ¨áĬķáĭµ": 4686,
      "áĪĬáĬķáĮį": 4687,
      "áĮĢáĪĺáĪ¨áĭį": 4688,
      "áĮįáĪ«áįĬ": 4689,
      "ĠáĬ¦áĪħ": 4690,
      "áĪ¹áĬķ": 4691,
      "ĠáīłáĪ°áĪľáĬķ": 4692,
      "áĪŃáĪµáī²áĭ«": 4693,
      "ĠáīħáĭµáĪļáĭ«": 4694,
      "Ġáĭ¨áĪŃ": 4695,
      "ĠáīłáĪŃáĪµ": 4696,
      "ĠáĪĺáĭĿáĬĵáĬĽ": 4697,
      "áĬĲáĮĪ": 4698,
      "áĪ«áĬĴ": 4699,
      "áĬŃáĪ½áĬķ": 4700,
      "Ġáī°áĭĭ": 4701,
      "Ġáĭ¨áī°áĮ£": 4702,
      "áĪ¬áĭ«áĪĪáĪģ": 4703,
      "áĬ®áĪŃ": 4704,
      "ĠáĪħáĮĪ": 4705,
      "áĬķáĪµáī³": 4706,
      "ĠáįĪáĬķáĭµ": 4707,
      "áĭĪáīħáī±": 4708,
      "ĠáĪµáĪľáī³áĭĬ": 4709,
      "ĠáĪĪáĪĿáĬķáĭµ": 4710,
      "Ġáĭ¨áĪĪáīłáīµáĪĿ": 4711,
      "ĠáīłáĬŃáįįáĪį": 4712,
      "ĠáĪĺáĮ£áĮ¥áįį": 4713,
      "Ġáĭ¨áĪĿáĪŃáĪĿáĪŃ": 4714,
      "ĠáĬŃáĪĭáĪ²": 4715,
      "ĠáĭŃáĪ¸": 4716,
      "áĮłáĪ¨áĭį": 4717,
      "Ġáī°áī£": 4718,
      "áĮ£áĮ£áĬĿ": 4719,
      "áĪ®áĭŃáĭµ": 4720,
      "áĬŀáī»áī¸áĭį": 4721,
      "Ġáī¦áī³áĭį": 4722,
      "áĮłáĬĵáīĢáīĢ": 4723,
      "ĠáīłáĪĽáĪµáĮĪáī£áīµ": 4724,
      "Ġáĭ«áĭįáīĥáĪį": 4725,
      "áĪŃáĮ¥": 4726,
      "ĠáĪĺáĪĢ": 4727,
      "áįįáĪ¬": 4728,
      "áĮĭáĭį": 4729,
      "áĭ³áī¸áĭį": 4730,
      "ĠáĮįáĪĽáĪ½": 4731,
      "Ġáĭ¨áī°áĪ»áĪ»": 4732,
      "áĪĮáĪŃ": 4733,
      "ĠáĪ²áĭ²": 4734,
      "Ġáĭ¨áĬ¥áĬķáĪµáĪ³áīµ": 4735,
      "ĠáįįáĪ«áĬķ": 4736,
      "áĬªáĬķáĮį": 4737,
      "ĠáĪĺáĪµáĪĽáīµ": 4738,
      "áī«áĪį": 4739,
      "áĪŃáī»áĪ®": 4740,
      "Ġáĭ«áĪĺáĮ£áĪį": 4741,
      "ĠáīłáĪĺáĭ°áīłáĬĽáĬĲáīµ": 4742,
      "ĠáĬ¢áĬ®áĬĸáĪļáĭ«áĭĬ": 4743,
      "Ġáĭ¨áĪĭ": 4744,
      "Ġáĭ¨áĭĬ": 4745,
      "ĠáīłáĮĢáīµ": 4746,
      "áĪ¨áįį": 4747,
      "áĪ«áĮ®áī½": 4748,
      "ĠáĪµáįĸ": 4749,
      "Ġáī°áĮĪáĬĿ": 4750,
      "áĬĽáĭįáĬķ": 4751,
      "ĠáĪĪáĪĺáĮłáĭ¨áīħ": 4752,
      "áĬķáĭµáįį": 4753,
      "ĠáĪĬáĬĸáĪ©": 4754,
      "ĠáĭĺáĬĵ": 4755,
      "ĠáĪĨáĬĹáĪį": 4756,
      "ĠáĪĪáī°áĮ¨áĪĽáĪª": 4757,
      "ĠáĭįáĭµáīĢáīµ": 4758,
      "áĪĨáĬĵáī¸áĭį": 4759,
      "ĠáĬ¥áĪŃáĪĿáĮĥáĭİáī½": 4760,
      "ĠáĪĪáĪĺáīĢáīłáĪį": 4761,
      "ĠáĭŃáĮłáĭŃáīģ": 4762,
      "áĭĺáĪ¨áĭĺ": 4763,
      "ĠáĭŃáĪ°áĮ¥áĭİáī³áĪį": 4764,
      "Ġáĭ¨áĮĨ": 4765,
      "áī°áĮĪ": 4766,
      "áĪĭáĪĪáĬķ": 4767,
      "ĠáĪĺáĪĿáĪħ": 4768,
      "áĪħáĪĿ": 4769,
      "ĠáĭŃáĮ«áĬĳ": 4770,
      "ĠáĬ¨áĮĬáĭľ": 4771,
      "ĠáĭĪáĮĪ": 4772,
      "áĭ³áĪĿ": 4773,
      "ĠáĪĪáĪĺáī°": 4774,
      "ĠáĬłáĭŃáĪĺáĪµ": 4775,
      "ĠáĪĪáĬ¥áĬĽ": 4776,
      "ĠáĬłáĪĽáĪ«áĮ®áī½áĬķ": 4777,
      "Ġáĭ¨áĪĮáĪĪáĭį": 4778,
      "ĠáĬ¨áĪ°áĬłáīµ": 4779,
      "Ġáī°áĪĺáĪįáĬ«": 4780,
      "Ġáĭ¨áįķáĪĭ": 4781,
      "áī³áĬĶ": 4782,
      "áĪªáī³": 4783,
      "ĠáĮ¥áīł": 4784,
      "ĠáīĢáĪļ": 4785,
      "ĠáīłáĬłáīħáĪ«": 4786,
      "Ġáĭ¨áĬ¥áĪĪáīµ": 4787,
      "ĠáĪħáĪį": 4788,
      "ĠáĬ¥áĭ¨áĪŀ": 4789,
      "ĠáīģáĪ«áĮŃ": 4790,
      "ĠáĮ¨áĭĭ": 4791,
      "Ġáī°áĪĺáĮ£áĮ£áĬĿ": 4792,
      "ĠáīłáĮįáĬķ": 4793,
      "áĭĮáĭŃ": 4794,
      "ĠáĬĲáīłáĪ¨áĬĿ": 4795,
      "áĬ«áĬ¨áĪĪáĬĽáĭį": 4796,
      "Ġáĭ²áĭĽáĭŃáĬĲ": 4797,
      "Ġáĭ«áĬĲáĮĭáĮįáĪ©": 4798,
      "ĠáĬŃáĪħáĪİ": 4799,
      "ĠáĬłáĮĪáĬĵáĬĿ": 4800,
      "áĪ®áī¹": 4801,
      "ĠáīłáĬłáĮĪáĪŃ": 4802,
      "ĠáĮĢáī¥áĭ±": 4803,
      "ĠáĪĮáĪİáī½áĪĿ": 4804,
      "ĠáįĸáĪĪáī²áĬ«": 4805,
      "ĠáĬ¬áĪļ": 4806,
      "ĠáĪĺáĪĿáĮ£áīµ": 4807,
      "ĠáĭŃáīĢáĬķáĪ³áĪį": 4808,
      "ĠáĪĪáīµáĪŃ": 4809,
      "ĠáĭŃáĪįáīģ": 4810,
      "áī£áĮŃ": 4811,
      "Ġáĭ«áĭ°áĪ¨": 4812,
      "Ġáī£áĬķ": 4813,
      "Ġáĭ¨áĪĺáīĢ": 4814,
      "ĠáĬ¥áĬķáĭ²áĪĨáĬĳ": 4815,
      "Ġáī³áĬŃáĪµ": 4816,
      "ĠáĬ¥áĭ«áĭ°áĮĪ": 4817,
      "ĠáĬ¥áĪŃáĮ¥": 4818,
      "Ġáĭ¨áĭĪáĮ£": 4819,
      "ĠáĪĤáĪ³áī¥": 4820,
      "áĬķáĭ¶áĭįáĪµ": 4821,
      "ĠáĬªáĪ³áĪ«": 4822,
      "áĬĲáĪ³áĪ³áīµ": 4823,
      "Ġáī¡áĭµáĬĳ": 4824,
      "ĠáīĨáĮ£áī¢": 4825,
      "Ġáĭ¨áįİáī¶": 4826,
      "áī°áĪħ": 4827,
      "áī³áĪĿ": 4828,
      "ĠáĭĪáĪĪáĭµ": 4829,
      "ĠáĪĽáįħ": 4830,
      "áĮĭáĪ«áīµ": 4831,
      "ĠáĭįáĪĤáī¥": 4832,
      "Ġáĭ¨áĪļáĪĪ": 4833,
      "ĠáĪģáĪĮáĪĿ": 4834,
      "áįķáĪµ": 4835,
      "áįİáĪŃáĭµ": 4836,
      "ĠáīµáĬķáī°áĬĵ": 4837,
      "ĠáĪ´áįķáī´áĪĿáīłáĪŃ": 4838,
      "ĠáĪĽáĪµáĭ«áĭĿ": 4839,
      "ĠáĪµáĪįáĮ£áĬķ": 4840,
      "ĠáĮŃáī¥áĮ¥": 4841,
      "ĠáĪĺáĪĺáĪįáĬ¨áīµ": 4842,
      "ĠáĪĪáī°áĭĪáĪ°áĬĲ": 4843,
      "ĠáĬ¥áĬķáĭ²áĭ«áĮĪáĬĻ": 4844,
      "ĠáĬ¥áĪ·áĬķ": 4845,
      "ĠáĭŃáĮłáĭŃáīĥáĪį": 4846,
      "áĬķáĪ½": 4847,
      "áĪŃáĪ½": 4848,
      "áĪĪáī£": 4849,
      "áĪĺáĬĳ": 4850,
      "ĠáĪĪáī£": 4851,
      "áĪ«áī¸áĭįáĬķ": 4852,
      "ĠáĭŃáī£": 4853,
      "áīłáĪĪ": 4854,
      "áįĪáĪµ": 4855,
      "áĭĪáīĤáĭ«": 4856,
      "ĠáĮĬáĭľáĭİáī½": 4857,
      "Ġáī¥áĭĻáĭİáī¹": 4858,
      "ĠáĮłáĬķáĬŃ": 4859,
      "Ġáī¦áĪŃáĭµ": 4860,
      "Ġáĭ«áĪĪáī¥áĭİáīµ": 4861,
      "áī¾áī½áĬķ": 4862,
      "ĠáĬ¥áĬķáĭ³áĪĪáī¥áĬĿ": 4863,
      "ĠáĪĺáī¥áī¶áī½": 4864,
      "ĠáīħáĪŃáįĢ": 4865,
      "ĠáĪģáĪĪáī°áĬĽáĭį": 4866,
      "ĠáĬ¥áĪĺáĬŃ": 4867,
      "ĠáĪĺáĮłáĭŃáīħ": 4868,
      "Ġáĭ¨áįĴ": 4869,
      "ĠáĬ¥áĭ³": 4870,
      "ĠáĬłáĪŃáīµ": 4871,
      "áī¥áĪªáĬ«": 4872,
      "áĪªáī²": 4873,
      "áįĪáĮłáĪ¨": 4874,
      "ĠáĪĪáĪĺáĪĽáĪŃ": 4875,
      "áĮ¨áĬĵ": 4876,
      "áĪĦáĭ°": 4877,
      "ĠáĬ®áĬķáįĪáĪ¨áĬķáĪµ": 4878,
      "áįĢáī£": 4879,
      "áįĸáī½": 4880,
      "Ġáĭ¨áĮįáĭµ": 4881,
      "ĠáįĵáĪŃ": 4882,
      "Ġáĭ¨áī³áī°": 4883,
      "ĠáĬłáĮĭáĮ¥": 4884,
      "Ġáī£áĪĪáī¤áī´": 4885,
      "ĠáĬłáĭ«áĭįáīħáĪĿ": 4886,
      "áĭ«áīµáĪŃ": 4887,
      "ĠáĪĪáĬĲ": 4888,
      "ĠáĭŃáĮłáīł": 4889,
      "ĠáĬ¨áĬĭáĪĭ": 4890,
      "áĬŃáĬķ": 4891,
      "áĪ°áĭĭáĪį": 4892,
      "áīĢáĬĿ": 4893,
      "áįĪáĬĲ": 4894,
      "áĭ³áĪĺáĮ¥": 4895,
      "Ġáī£áĭ®": 4896,
      "áįĬáĭį": 4897,
      "ĠáĬ¥áĬķáĭ²áĪ¨áĭ³": 4898,
      "ĠáĮĪáĪĪáĪį": 4899,
      "ĠáĬ«áĬĵáĭ³": 4900,
      "Ġáĭ¨áĬłáĭ°áĮĭ": 4901,
      "áĮİáī½áĬķ": 4902,
      "ĠáĪµáĪ«áĭį": 4903,
      "Ġáĭ«áĪµáī£áĪī": 4904,
      "ĠáįĢáĪĢáĭŃ": 4905,
      "ĠáĮ£áī¢áĭ«áĭİáī½": 4906,
      "ĠáīĭáĪļ": 4907,
      "áī°áĬ®áĪŃ": 4908,
      "ĠáĮĪáĪįáĮ¿áĪį": 4909,
      "Ġáī®": 4910,
      "Ġáĭ¨áĪ«áĪ³áī¸áĭįáĬķ": 4911,
      "áĪĭáī¸áĭįáĬķ": 4912,
      "áĪħáĪ³áĪµ": 4913,
      "ĠáĪĪáĬ¢": 4914,
      "Ġáĭ«áĪĿ": 4915,
      "áĮĭáĭ´": 4916,
      "ĠáĮįáĬĿ": 4917,
      "áĪĢáĪĿ": 4918,
      "ĠáĬ«áĬķáĪ°áĪŃ": 4919,
      "ĠáĬķáĬŃ": 4920,
      "ĠĠĠĠĠĠĠ": 4921,
      "Ġáī°áĪĺáĪĭáĪ½": 4922,
      "ĠáĬ¥áĬķáĭµáī³": 4923,
      "ĠáĪĺáĪĺáĪªáĭ«áĭİáī½": 4924,
      "ĠáĪħáĭŃáĭĪáīµáĬķ": 4925,
      "áĬ¨áĪ°áī±": 4926,
      "ĠáĬłáĭ«áĪµáįĪáĪįáĮįáĪĿ": 4927,
      "ĠáįĬáĪįáĪŀáī½": 4928,
      "ĠáĬ¥áĭ«áĬķáĭ³áĬķáĭ³áī¸áĭį": 4929,
      "Ġáĭ¨áĭ«áĭĺ": 4930,
      "ĠáīłáĪºáĭİáī½": 4931,
      "áĪĽáīĤ": 4932,
      "ĠáĬ¨áĬ«": 4933,
      "ĠáĪģáĪĭáī½áĪģ": 4934,
      "Ġáī£áĪīáīµ": 4935,
      "ĠáīłáĪĺáĬķáĮĪáĭµ": 4936,
      "ĠáĬŃáĪ¨áĪĿáīµ": 4937,
      "Ġáī³áĭ²áĭ«": 4938,
      "ĠáĬ¥áĭ¨áĪŀáĬ¨áĪŃ": 4939,
      "Ġáĭ¨áīĢáĬķ": 4940,
      "Ġáĭ¨áīħáĬķáĮ¦áīµ": 4941,
      "ĠáĬłáĮĭáĮ£áĪļ": 4942,
      "áīĥáĭĪáĪĿ": 4943,
      "Ġáīłáī¤áī°": 4944,
      "ĠáĬłáĪħ": 4945,
      "ĠáĪĺáĬŃáįĪáĪį": 4946,
      "áĬĲáĭĭáĪį": 4947,
      "áĪ«áĭİáī½": 4948,
      "Ġáĭ¨áĪļáĪ¨áĭ³": 4949,
      "ĠáĪĪáĪĺáĪĦáĭµ": 4950,
      "ĠáĬłáĪµáīĢáĪĿ": 4951,
      "Ġáīłáī°áĭĪáĪ°áĬĲ": 4952,
      "ĠáĪħáĪįáĪĿ": 4953,
      "ĠáįįáĬķ": 4954,
      "Ġáĭ¨áĪļáĭ«áĭ°áĪŃáĮį": 4955,
      "Ġáĭ¨áīłáĮİ": 4956,
      "áĪĭáī¸áĭįáĪĿ": 4957,
      "áĮłáĬĵáīħ": 4958,
      "ĠáĬĲáīłáĪ¨áī¥áĬĿ": 4959,
      "áĬĵáĮĪáĪ©áīµ": 4960,
      "áĭŃáĬĵáĬķ": 4961,
      "ĠáĬ¨áĪĮáĪĪ": 4962,
      "Ġáīłáĭ°áī¡áī¥": 4963,
      "ĠáĪ»áĭŃ": 4964,
      "áī¿áĬķ": 4965,
      "ĠáĬłáĪµáīĢáĭµáĪŀ": 4966,
      "ĠáĪĽáĭŃáĬŃáĪ®": 4967,
      "ĠáĬłáĭĿáĬĵáĬĿ": 4968,
      "Ġáĭļ": 4969,
      "ĠáĪĺáĮĪáĬķáī£áīµ": 4970,
      "ĠáĭĪáī°áīµ": 4971,
      "ĠáĪĽáĭĺ": 4972,
      "ĠáĭįáĪħ": 4973,
      "ĠáĪĪáĪĽáĪ¸áĬĲáįį": 4974,
      "ĠáĬłáĭŃáī»áĪĪáĪģ": 4975,
      "ĠáĬłáĪĺáī·": 4976,
      "ĠáĪĢáĭįáĪµ": 4977,
      "ĠáĪĿáĬķáĮ®áī½": 4978,
      "ĠáĪĺáĮłáĮ¥": 4979,
      "ĠáĪĪáĬ¥áĪ±": 4980,
      "ĠáĮİáī¥áĬĿ": 4981,
      "ĠáĭĿáĮįáĮħ": 4982,
      "ĠáĭŃáĮ¨áĪĿáĪ©": 4983,
      "ĠáĬłáĪ°áĪįáĮ£áĬĿ": 4984,
      "ĠáĪįáĮĥáĮĪáĪ¨": 4985,
      "áĮ£áī±": 4986,
      "áĪİáĪĿ": 4987,
      "ĠáĬŃáĪŃáĪµáī²áĭ«áĬķ": 4988,
      "ĠáĬĵáĪĻáĬĵ": 4989,
      "Ġáī£áĪĪáĪĢáī¥": 4990,
      "Ġáĭ«áĪµáī½áĪĭ": 4991,
      "ĠáĪ¨áīĤ": 4992,
      "ĠáĪĽáĪµáī°áĬ«áĬ¨áĪį": 4993,
      "ĠáīµáĬ¥áĭŃáĬķ": 4994,
      "Ġáī°áĭ°áĪµ": 4995,
      "ĠáĭŃáī³áĭ«áĪį": 4996,
      "Ġáĭ«áĪįáī°áĪĪáĪĺáĭ°": 4997,
      "Ġáĭ«áī°áĬ®áĪ¨": 4998,
      "Ġáĭ¨áī´áĪĮ": 4999,
      "ĠáĪĺáĭ«áĭĿ": 5000,
      "ĠáĬĲáĮĭáĭ´": 5001,
      "ĠáĭĪáĮĪáĬķ": 5002,
      "ĠáīµáįĪáĪįáĮĭ": 5003,
      "Ġáĭ°áĪ´áīµ": 5004,
      "ĠáĮĭáĭĿ": 5005,
      "ĠáĪĬáĪ¨áĭ³": 5006,
      "ĠáĪ²áīĢ": 5007,
      "ĠáīłáĬ¥áĮįáĪŃ": 5008,
      "ĠáĬłáĬķáĭµáĬķ": 5009,
      "ĠáīħáĪ¬": 5010,
      "ĠáĬ¨áī°áĪĪáĭ«áĭ©": 5011,
      "áįĢáĭ³": 5012,
      "áĮĪáĬĺáĪģ": 5013,
      "ĠáĪĺáĪŃáĬ¨": 5014,
      "Ġáĭ«áĭµáĪŃáĮīáīµ": 5015,
      "ĠáĪĽáĪ³áĭ«": 5016,
      "áĬŃáĪ²áĭ®": 5017,
      "Ġáĭ¨áī°áĪĪáĪĺáĭ±": 5018,
      "ĠáĪĿáĭµáĮĥ": 5019,
      "áĪŃáĮĭáĬĴáĬŃ": 5020,
      "áĮŃáīłáĪŃáīłáĪŃ": 5021,
      "ĠáĬ¥áĪ«áĪ³áī¸áĭįáĬķ": 5022,
      "ĠáīłáĪ©": 5023,
      "áĪĪáĪ°áī¥": 5024,
      "ĠáĪĺáĭ«áĭ£": 5025,
      "áīħáĭ«": 5026,
      "áī¶áĪµ": 5027,
      "ĠáīłáĪĽáīħáĪ¨áī¥": 5028,
      "áĭİáīµáĪĿ": 5029,
      "áĪ°áĪĽáĭį": 5030,
      "ĠáĬłáĪīáĬĿ": 5031,
      "ĠáĭįáĮ¤áī¶áī½áĬķ": 5032,
      "áĪŁáĪī": 5033,
      "ĠáĬ¥áĪĺáĬĽáĪĪáĪģ": 5034,
      "ĠáĬ¥áī¥áĭµ": 5035,
      "ĠáĬłáĬķáĭ°": 5036,
      "ĠáĪĺáĬ¨áī³áī°áĪį": 5037,
      "ĠáĬ¥áĬĵáī´": 5038,
      "ĠáĬ¨áĬ¤": 5039,
      "áĬŃáī°": 5040,
      "áĪ³áī¢": 5041,
      "Ġáī°áĬ¨": 5042,
      "Ġáī°áĪ¨áĭµ": 5043,
      "ĠáĪĽáĭĺáĮĭáĮĢáīµ": 5044,
      "ĠáĮįáĭ´": 5045,
      "ĠáĪĪáĪĺáĮĪáĬĵáĬĺáīµ": 5046,
      "ĠáĪįáī³": 5047,
      "áī¦áĪį": 5048,
      "ĠáīģáĪį": 5049,
      "ĠáĬ¥áĬķáĭ³áĪīáīµ": 5050,
      "ĠáĬ¤áĬķ": 5051,
      "ĠáĬ¥áĭµáĪĪáĬĽ": 5052,
      "Ġáĭ«áĪµáĮĪáī¡": 5053,
      "ĠáĪĪáĬłáĪĺáī³áīµ": 5054,
      "áĭĪáĪ°áĭ±": 5055,
      "áĭĪáĭ³áī¸áĭį": 5056,
      "Ġáĭ¨áĭĪáĪ²áī¥": 5057,
      "áĬĹáĬĹ": 5058,
      "ĠáīłáĪ´áįķáī´áĪĿáīłáĪŃ": 5059,
      "Ġáĭ¨áĪĤáĪ³áī¥": 5060,
      "ĠáĭŃáĬ¸áĭįáĬĵ": 5061,
      "Ġáĭ¨áĪ»": 5062,
      "áĮįáīłáĪŃ": 5063,
      "áĪ«áī½áĬķ": 5064,
      "áĭ°áī±": 5065,
      "áĭµáĪµ": 5066,
      "áĬ«áĭ³áĪļ": 5067,
      "ĠáĮ¥áĪ¨": 5068,
      "ĠáĪĪáĪĺáĮĪ": 5069,
      "Ġáī£áĬķáĭµ": 5070,
      "áįħáĪŃ": 5071,
      "áĭĽáĬĿ": 5072,
      "áī²áĬŃáĪµ": 5073,
      "Ġáĭ¨áĬ¥áĪŃ": 5074,
      "ĠáīłáĪĽáĪĪáīµ": 5075,
      "áĪ´áĪĿáīłáĪŃ": 5076,
      "áĮłáĪ«áĭį": 5077,
      "Ġáįİáīħ": 5078,
      "ĠáĬªáĪ«áĭŃ": 5079,
      "ĠáīłáĪħáĭĿáī¥": 5080,
      "ĠáīłáĪĺáĮ¨áĪ¨áĪ»áĭį": 5081,
      "áĮłáĪ¨áĮ´áĭĽ": 5082,
      "ĠáīłáĪ¨áĭ¶": 5083,
      "ĠáĪħáįĥáĬķ": 5084,
      "Ġáĭ¨áĮįáī¥áĪ¨": 5085,
      "ĠáĭŃáĭ°áĭįáĪīáĪįáĬķ": 5086,
      "ĠáīĢáĮ£áĭŃáĬĲáīµ": 5087,
      "áĬĵáĬķáīµ": 5088,
      "ĠáĪĺáī»áĪį": 5089,
      "áĮįáĪĿ": 5090,
      "ĠáĪĪáĪ½": 5091,
      "áīłáĭĽ": 5092,
      "ĠáĪµáī±áĭ²áĭ®": 5093,
      "ĠáĪĽáĪ½": 5094,
      "Ġáĭ¨áĪļáĭ°áĪ¨áĮį": 5095,
      "ĠáīĢáĬĳáĬķ": 5096,
      "ĠáĮĪáĭ¥": 5097,
      "Ġáīłáī°áīĥ": 5098,
      "áĬĴáĪµ": 5099,
      "ĠáĭĺáįĪáĬķ": 5100,
      "áĪĨáĬĳáĪĿ": 5101,
      "ĠáĮŃáĪĽáīĤ": 5102,
      "ĠáĬ¨áĪĽáĬķáĬĽáĭįáĪĿ": 5103,
      "Ġáĭ«áĪ³áĭįáīģ": 5104,
      "ĠáĬĸáĪ®": 5105,
      "áĬ«áĪĦáĭ°": 5106,
      "áĪ°áīĥáīĤ": 5107,
      "áĮłáĬķáīĢáīĤáĭ«": 5108,
      "ĠáĬŃáĪŃáĬŃáĪŃ": 5109,
      "áĪŃáĮĮ": 5110,
      "áĪµáĪĽ": 5111,
      "Ġáīłáī²": 5112,
      "áī½áĪīáīµ": 5113,
      "áīłáĪ¬": 5114,
      "ĠáĬłáĪµáĬ¨": 5115,
      "ĠáīłáĪĺáī£áĪį": 5116,
      "áĬªáĬķ": 5117,
      "ĠáĭĿáĪĿ": 5118,
      "ĠáĮīáĭ³áĭ©": 5119,
      "ĠáĬ¥áĬĶáĬķ": 5120,
      "ĠáĮ£áĪį": 5121,
      "Ġáĭ¨áīµáĪŃáįį": 5122,
      "áĪ«áĪ³áī½áĬķáĬķ": 5123,
      "Ġáī¥áī¸áĬĽ": 5124,
      "ĠáĮīáĪįáĪħ": 5125,
      "áĬķáĭĭáĪª": 5126,
      "ĠáĪĪáīµáĪŃáįį": 5127,
      "ĠáĮĪáĪĪáĪįáī°áĬĽ": 5128,
      "ĠáīłáĬ¨": 5129,
      "ĠáĪĽáīĢáĭĿáīĢáĭ£": 5130,
      "ĠáĪĭáĭŃáĪĨáĬķ": 5131,
      "Ġáĭ¨áĪļáĪĺáĪ«": 5132,
      "ĠáĪĪáĪĺáīĨáĮ£áĮłáĪŃ": 5133,
      "ĠáīłáĬłáĭįáĪ®áįĵ": 5134,
      "áĪŀáīĤáĭ«": 5135,
      "ĠáĬ¥áĬķáĭ³áĭ«": 5136,
      "Ġáĭ²áįĵáĪŃáīµáĪĺáĬķáīµ": 5137,
      "áĭĪáĪ°áĭ°": 5138,
      "Ġáĭ³áī³": 5139,
      "ĠáĮĪáįħáī³áĭİáī½": 5140,
      "ĠáĬ¥áĬķáĭ²áĭ«áĭ°áĪŃáĮī": 5141,
      "áįĪáĮ¥áĪ©": 5142,
      "áĮħáĪĿáĪĭ": 5143,
      "ĠáĬłáĮĭáĭ¥": 5144,
      "ĠáĪģáĪįáĮĬáĭľáĪĿ": 5145,
      "ĠáįĮáĪµáī²": 5146,
      "ĠáīµáĪ«áĪĿáįķ": 5147,
      "ĠáīµáĪ«áįĬáĬŃ": 5148,
      "Ġáĭ¨áįĬáĪįáĪĿ": 5149,
      "áĬŃáī¶áīłáĪŃ": 5150,
      "ĠáĪĨáĪµáįĴáī³áĪį": 5151,
      "Ġáĭ¨áĭ±áĪŃ": 5152,
      "áĭŃáĬĵáĬķáĪº": 5153,
      "áĪįáĪįáīħ": 5154,
      "ĠáĪĺáĮĪáĬĵáĬĺáīµ": 5155,
      "ĠáĪĽáīĨáĪĿ": 5156,
      "ĠáĭįáĪį": 5157,
      "ĠáĪĪáĪĺáĪŀáĬ¨áĪŃ": 5158,
      "áĭĿáĮĪáī¡": 5159,
      "áĪĬáĭį": 5160,
      "áĬĻáĬĲáīµ": 5161,
      "Ġáĭ¨áīłáĪĪáįĢ": 5162,
      "áĮĪáĪĪáįħ": 5163,
      "ĠáĪĺáĪĺáĭĿáĮĪáī¥": 5164,
      "Ġáĭ¨áĮĪáī¢": 5165,
      "áĬķáĭ°áĭļáĪħ": 5166,
      "áĭ·áī¸áĭį": 5167,
      "ĠáĪĺáĭĭáīħáĪŃ": 5168,
      "ĠáĬłáĬķáīĢáįħ": 5169,
      "áįĪáī°áĪ½": 5170,
      "Ġáī°áĬķáīĢáĪ³áīĥáĪ½": 5171,
      "ĠáįĪáįħáĪŀ": 5172,
      "Ġáĭ«áĪµáī½áĪĭáī¸áĭĭáĪį": 5173,
      "áĮįáĪŀ": 5174,
      "ĠáĪĪáĪ«": 5175,
      "ĠáĭŃáĮįáī£": 5176,
      "áīłáĭįáĬķ": 5177,
      "áĭµáĮī": 5178,
      "áĪ³áĬķ": 5179,
      "áĪ®áīµ": 5180,
      "Ġáĭ¨áĪļáĬĸáĪ©": 5181,
      "áĭĭáīĢáĪŃ": 5182,
      "áĭĬáĬķ": 5183,
      "ĠáĬłáĪĪáĭİáīµ": 5184,
      "Ġáĭ¨áĪļáĭ«áĭ°áĪŃáĮī": 5185,
      "Ġáīłáĭ¨áĮĬáĭľáĭį": 5186,
      "Ġáĭİáī½": 5187,
      "ĠáīģáĮ¥áĪ®áī½": 5188,
      "Ġáī°áīĭáĪĿ": 5189,
      "ĠáĪĿáĬ¥áĪ«áī¥": 5190,
      "ĠáīłáīµáĬķáĪ¹": 5191,
      "Ġáī°áįĪáĮ¥áĪ¯áĭĬ": 5192,
      "Ġáĭ¨áĮ¦áĪŃ": 5193,
      "ĠáīłáĮĭáĪ«": 5194,
      "ĠáĪĺáĬķáĭ³áīµ": 5195,
      "áī³áī½áĪģ": 5196,
      "áĪ³áī±": 5197,
      "ĠáĪĿáĬŀ": 5198,
      "áĭĽáĪī": 5199,
      "áĪ¬áĭ²áīµ": 5200,
      "ĠáĪĿáĪŃáĮ¡": 5201,
      "ĠáĬ¨áī°áĪĺ": 5202,
      "áĪĪáĮłáįĪ": 5203,
      "Ġáĭ¨áĪµáĪįáĬŃ": 5204,
      "ĠáĪ«áĪ³": 5205,
      "ĠáĬ¢áĬķáī°áĪŃ": 5206,
      "Ġáī½áĪİáī³áĭİáī½": 5207,
      "ĠáĪĺáī°áĪĽáĪĺáĬķ": 5208,
      "Ġáīµáī½áĪĭáĪĭáī½áĪģ": 5209,
      "ĠáĬłáĪľáĪªáĬ«áĭįáĭ«áĬķ": 5210,
      "ĠáĪĪáĪĺáĪĪáĭ¨áīµ": 5211,
      "Ġáĭ®áĪŃáĬŃ": 5212,
      "ĠáĮĢáĪĺáĪŃáĬ©": 5213,
      "áĭŃáĬĵáĬķáĪºáĭ«áĪį": 5214,
      "Ġáĭ¨áī»": 5215,
      "Ġáĭ¨áĪĬ": 5216,
      "ĠáīłáĪ®": 5217,
      "ĠáĬłáĭ°áĬķ": 5218,
      "áĪ¨áīĢáīµ": 5219,
      "ĠáĪĪáĭµáĪŃ": 5220,
      "áĮłáĮ¥": 5221,
      "Ġáĭ«áĮĪáĪĪáĮį": 5222,
      "Ġáĭ¨áĪļáĮĪáĬĺáĭįáĬķ": 5223,
      "Ġáĭ¨áī°áĪĽáĪª": 5224,
      "ĠáĪįáĬĵ": 5225,
      "Ġáĭ¨áĬłáĪ³": 5226,
      "áīĨáĮ¥": 5227,
      "áĪĺáĪĪáĪ°": 5228,
      "ĠáĬłáĪµáįĪáĪĭáĮĬáĬĲáīµ": 5229,
      "áĬĵáĮĪáĪ¨áĭį": 5230,
      "ĠáĬłáīħáĪŃáī¦": 5231,
      "áĬķáīĢáĪ³áīĢ": 5232,
      "ĠáĬ¥áĬķáĭ°áĪĿáī½áĪį": 5233,
      "ĠáĬłáīłáī£": 5234,
      "ĠáĪĺáĬķáįĪáĪµ": 5235,
      "áĮĢáĪŃáĪĺáĬķ": 5236,
      "áĪµáĪĪáĭļáĪħ": 5237,
      "áĪĺáĬŃ": 5238,
      "áī³áĭ¨áĭį": 5239,
      "áĪ«áī¾áī½": 5240,
      "ĠáĭŃáįį": 5241,
      "ĠáĬ¨áĬ¦": 5242,
      "Ġáī°áĮĵ": 5243,
      "ĠáĪĽáī¥áĪ«": 5244,
      "ĠáĬ¨áī°áĪŀáī½": 5245,
      "áĪĺáĪĪáĬ¨áī³": 5246,
      "ĠáīłáĮ¥áīĤáīµ": 5247,
      "áĪ«áĪµáĭİ": 5248,
      "ĠáĬłáĪĿáĪĭáĬŃ": 5249,
      "ĠáīłáĪĿáĪµ": 5250,
      "áĮĪáĬĲáī¡": 5251,
      "Ġáĭ¨áįĢáĮīáĪŃ": 5252,
      "ĠáĭĪáĭŃáĪµ": 5253,
      "áĬ«áī°áī°": 5254,
      "ĠáīĢáĪ¨áįĥ": 5255,
      "ĠáĪĪáĪĿáĬķáĭµáĬĲáĭį": 5256,
      "ĠáĪ¨áīĤáīħ": 5257,
      "Ġáĭ¨áĪ´áī¶áī½": 5258,
      "áĪįáĭİ": 5259,
      "áĮĪáĪī": 5260,
      "áĮĪáĭĿ": 5261,
      "áī³áī½": 5262,
      "áĬ¨áįĪáĪį": 5263,
      "Ġáĭ¨áĬ¥áĬĲáĭļáĪħ": 5264,
      "ĠáīłáĪĽáĪ°áī¥": 5265,
      "áįĴáī³": 5266,
      "Ġáĭ¨áīĢáĪĪáĪĿ": 5267,
      "ĠáĬłáĮįáĬĿáī°áĬĵáĪį": 5268,
      "Ġáĭ´áīª": 5269,
      "ĠáĪĽáĭįáĪ¨áĭµ": 5270,
      "ĠáĬłáĪµáī°áĭ³áĭ³áĪª": 5271,
      "Ġáīłáīª": 5272,
      "áĭ°áĪ«áĪį": 5273,
      "ĠáĭŃáĮłáīĢ": 5274,
      "áĬłáī°": 5275,
      "ĠáĪĿáĪĭ": 5276,
      "áĭĪáĮĪ": 5277,
      "áī¶áįķ": 5278,
      "Ġáĭ¨áī°áīĨ": 5279,
      "ĠáĪ°áī£áīµ": 5280,
      "áĬ©áĬķ": 5281,
      "ĠáĪµáĪĪáĬĲáīłáĪŃ": 5282,
      "ĠáīłáĬłáĬķáįĥ": 5283,
      "ĠáĪĬáĬķáĬŃ": 5284,
      "ĠáĬ¥áĬķáĭ²áĬĸáĪŃ": 5285,
      "áī²áĪµáī²áĬŃáĪµ": 5286,
      "áī¦áĬķ": 5287,
      "ĠáĪ³áĬķáī²": 5288,
      "ĠáĬ¥áĬķáĭ°áĪļáįĪáĪįáĮī": 5289,
      "áĮĪáĪįáĮĪáĪį": 5290,
      "ĠáĬ¨áĪĺáĮį": 5291,
      "ĠáĬłáĪĽáĬ«áĭŃ": 5292,
      "Ġáĭ«áĪ¨áĮĭáĮįáĮ£áĪį": 5293,
      "ĠáĪĽáĪ»áĪ»áĪį": 5294,
      "Ġáĭ¨áīĨáĭ³": 5295,
      "áĭĭáĭĪáīĤáĭ«": 5296,
      "Ġáĭ¨áĭŃáĪĪáįį": 5297,
      "áĬĭáī¸áĭį": 5298,
      "ĠáĭįáĭŃáĭŃ": 5299,
      "Ġáĭ¨áī°áĪ³áĪ³áī°": 5300,
      "ĠáĭĪáĬķáĮĢáĪį": 5301,
      "áĪ»áĬķáĮī": 5302,
      "áĪŃáĪĢáīµ": 5303,
      "ĠáĮįáĭĽáī¶áī½": 5304,
      "áĭįáĪ¨áĭµ": 5305,
      "áī¶áĪª": 5306,
      "áĭ³áĭ°": 5307,
      "Ġáĭ¨áĪļáī³áĭĪ": 5308,
      "Ġáĭ¨áĪļáĪ¨áĭ±": 5309,
      "áĪİáĪµ": 5310,
      "áĪ»áĪį": 5311,
      "ĠáĮĢáĪĺáĪ¨": 5312,
      "ĠáĭµáĪŃáī¥": 5313,
      "ĠáĭŃáĪĺáĪµáĪĭáĪī": 5314,
      "ĠáĬĲáĮ¥áī¦áī½": 5315,
      "Ġáī²áīª": 5316,
      "Ġáī°áĪµáĪĽáĪĿ": 5317,
      "áĬ¨áī£áĭµ": 5318,
      "Ġáīłáī£áĪħáĪŃ": 5319,
      "áĬŃáįĪáī»": 5320,
      "Ġáī°áĬ¨áīµáĪİ": 5321,
      "áĮĪáĪļáĭ«": 5322,
      "ĠáĪĽáīĢ": 5323,
      "áĬ¨áĭį": 5324,
      "áĭĪáĪ©": 5325,
      "ĠáĮ¥áĬķáĭ¶áī½": 5326,
      "ĠáĪĪáĪĺáĪį": 5327,
      "ĠáĪĪáĪĺáĬĵáĮĪáĪŃ": 5328,
      "ĠáĪįáĭįáĭį": 5329,
      "áĪĨáĬķáĬ©": 5330,
      "Ġáĭ«áĪĪáī£áī¸áĭį": 5331,
      "ĠáįĵáĬĲ": 5332,
      "ĠáĪĪáĭįáĮ¦áī½áĬķ": 5333,
      "ĠáīłáĮĪáīłáĭ«": 5334,
      "áīłáĪĭáĪ¹": 5335,
      "Ġáĭ¨áī°áĪ»áĪī": 5336,
      "ĠáĬ¥áĪĺáĬŃáĪ«áĪĪáĪģ": 5337,
      "áĬĹáĬĹáĪŃ": 5338,
      "Ġáĭ¨áĮĦ": 5339,
      "ĠáīłáĪ¶áĪµáīµ": 5340,
      "ĠáĬłáīĥ": 5341,
      "áĪĪáĬĿ": 5342,
      "ĠáĪĪáĭ°": 5343,
      "ĠáĪĪáī¤áīµ": 5344,
      "áĭ°áĪµáīµ": 5345,
      "áĮ£áĮĮáĮ¥": 5346,
      "áī¶áī»áī¸áĭįáĬķ": 5347,
      "Ġáī¥áĪµ": 5348,
      "ĠáĬ¥áĬķáĭ°áĪĿáĬĵ": 5349,
      "Ġáĭ¨áī°áĪŁáĪĭ": 5350,
      "ĠáīłáĪĺáĮ¥": 5351,
      "ĠáīłáĬłáĬķáĭ±": 5352,
      "áĪĻáĭ«": 5353,
      "áįĪáĪįáĮĵ": 5354,
      "ĠáĪ³áĪį": 5355,
      "ĠáĬķáĬ¡áĪµ": 5356,
      "áĮ¨áĪ¨áĪµ": 5357,
      "áĭ«áĭįáīģ": 5358,
      "ĠáĮįáĬķáĬĻáĬĲáī¶áī½": 5359,
      "Ġáĭ°áĬķáīłáĬŀáī½áĬķ": 5360,
      "áīĭáīĭáĪĺ": 5361,
      "Ġáĭ¨áī°áĪĺáĪ°áĪ¨áī±": 5362,
      "ĠáīĢáĮ£áĭ©": 5363,
      "ĠáĬłáįįáĪªáĬ«": 5364,
      "áĬķáĪ³áĭĬ": 5365,
      "ĠáīłáĪ±": 5366,
      "ĠáīłáĬª": 5367,
      "ĠáīłáĬķáĮįáĭµ": 5368,
      "ĠáĪĪáĮĭ": 5369,
      "ĠáĭŃáĭĪáĪ°": 5370,
      "áīłáī£": 5371,
      "ĠáĭĪáĬķ": 5372,
      "áĮ£áĮ£": 5373,
      "áĪ®áĪµ": 5374,
      "ĠáĮ¥áī¥áīħ": 5375,
      "ĠáīµáĪĭ": 5376,
      "Ġáīµáī¥áī¥áĪŃ": 5377,
      "ĠáĬłáĪµáĬªáĭ«": 5378,
      "Ġáĭ¨áĪĺáĪį": 5379,
      "Ġáĭ¨áĪĺáĭĭ": 5380,
      "ĠáīłáĬłáĬ¥áĪĿáĪ®": 5381,
      "ĠáĬ«áĪµ": 5382,
      "Ġáĭ¨áĪĿáĭĪáĭ°áĭį": 5383,
      "áĪĪáĭ«áĭ¨": 5384,
      "áĮĪáĪĪáįģ": 5385,
      "ĠáĮŃáĪĽáĪª": 5386,
      "áĭĿáĬĵáĬĳ": 5387,
      "áĮłáĭ¨áīģ": 5388,
      "ĠáīłáĭįáĪĢ": 5389,
      "ĠáĪĿáĭµáī¥": 5390,
      "ĠáĭĺáĮįáĭŃ": 5391,
      "ĠáīµáĭįáĪįáĭµ": 5392,
      "áĪªáįķáīµ": 5393,
      "Ġáĭ¨áī¤áī°": 5394,
      "ĠáīłáĭµáĪ¨": 5395,
      "ĠáĪĺáĬ¨áĪĭáĬ¨áĪį": 5396,
      "áĪ¨áĪ±": 5397,
      "áĪĽáĭĬ": 5398,
      "áĭİáī½áĭİ": 5399,
      "Ġáĭ¨áĪļáĮĪáī¡": 5400,
      "ĠáĮįáįĬáīµ": 5401,
      "áĬĶáĬķ": 5402,
      "ĠáīłáĬłáĭŃ": 5403,
      "ĠáĬ¥áĬķáĭ²áĭ«áĪµ": 5404,
      "áīĨáĪĻ": 5405,
      "áĮłáĭŃáīģ": 5406,
      "Ġáĭ¨áĪļáī½áĪīáīµ": 5407,
      "ĠáĪĭáĪĪáįīáīµ": 5408,
      "Ġáĭ¨áĪģáĪīáĪĿ": 5409,
      "Ġáīłáĭ³": 5410,
      "áī³áĮłáī¢áĭ«": 5411,
      "ĠáĭŃáĬĸáĪŃ": 5412,
      "ĠáĬĲáĪŃ": 5413,
      "áĬŃáĪĮáĪŃ": 5414,
      "áīĢáĭįáĬķ": 5415,
      "Ġáĭ«áīł": 5416,
      "áĬ¨áī£áī¢": 5417,
      "ĠáĪĭáĪį": 5418,
      "Ġáĭ¨áĪļáĪ°áĮ¥": 5419,
      "Ġáįī": 5420,
      "áĬ©áĪµ": 5421,
      "ĠáįįáĪ°áīµ": 5422,
      "Ġáī¢áĪ«": 5423,
      "ĠáĬ¢áĭ¨áĪ±áĪµ": 5424,
      "ĠáĮ¨áĪŃ": 5425,
      "ĠáīĨáĭŃáī·áĪį": 5426,
      "áĬ¨áī³áī³áĭŃ": 5427,
      "ĠáįĭáĭŃáĬĵáĬķáĪµ": 5428,
      "ĠáįİáĪŃ": 5429,
      "áĪĺáĮ£áĮ£áĬĿ": 5430,
      "ĠáĪ¸áĪĽáī¾áī½": 5431,
      "ĠáĪĪáĭļáĪħáĪĿ": 5432,
      "ĠáĪĺáįįáīµáĪĦáĭİáī½": 5433,
      "áī³áĭ°áĪį": 5434,
      "ĠáĪĪáĪĮáĪĭ": 5435,
      "ĠáĬłáĭįáĪ®áįĵ": 5436,
      "áĪĮáĬŃáīµáĪ®áĬĴáĬŃáĪµ": 5437,
      "Ġáīħáĭ±áĪµ": 5438,
      "ĠáĪ°áĭ¶áĪĽáĭįáĭ«áĬķ": 5439,
      "ĠáĪŃáĭĿáĪĺáīµ": 5440,
      "ĠáĭŃáĮłáīłáīĥáĪį": 5441,
      "ĠáĬłáī£áīµ": 5442,
      "áĮĪáĪµ": 5443,
      "áĪ¨áĮį": 5444,
      "ĠáĭŃáĮĢáĪĿáĪ©": 5445,
      "ĠáĬ¨áīĨ": 5446,
      "ĠáĬ¨áĭ°áĬķáīł": 5447,
      "Ġáī°áĭŃ": 5448,
      "ĠáĪĪáĪĺáĬ¨áī³áī°áĪį": 5449,
      "ĠáĪĪáĪĽáĪŁáĪĭáīµ": 5450,
      "áĪĮáī¶áī½": 5451,
      "Ġáī³áĮĪáĬĽ": 5452,
      "ĠáīłáĪĽáĮ£": 5453,
      "Ġáĭ¨áĪļáĭ«áĪµáī°": 5454,
      "ĠáĪĺáĪµáĬ®": 5455,
      "áĮįáĭļáī¢": 5456,
      "ĠáĬłáĪĪáĪĺáī³áĭ°áĪį": 5457,
      "ĠáĪĽáĪŃáī½": 5458,
      "ĠáįķáĪ¬áĭļ": 5459,
      "Ġáĭ¨áī°áĬĲáĭ°áįĪ": 5460,
      "ĠáĬ¥áĮ¥áĪ¨áīµ": 5461,
      "áĪĭáĬķ": 5462,
      "áĪĭáĪĪáĪĿ": 5463,
      "ĠáĬ¨áįĭ": 5464,
      "áĬŃáī´": 5465,
      "ĠáĪĪáĪĺáĭĪáĭ«áĭ¨áīµ": 5466,
      "ĠáĪĪáĪĽáĬŃáīłáĪŃ": 5467,
      "áĮĵáĭĻ": 5468,
      "ĠáĬ¨áįįáī°áĬĽáĭį": 5469,
      "ĠáĪ³áĭŃáĬķáī²": 5470,
      "Ġáĭ¨áĮįáĬķ": 5471,
      "ĠáĭĭáĮĭáĭİáī½": 5472,
      "Ġáĭįáĭµáīħ": 5473,
      "ĠáīłáĪļáĭ«áĪĿáĪŃ": 5474,
      "Ġáī«áĭŃ": 5475,
      "ĠáĭĪáī³áĭ°áĪ«áĭĬ": 5476,
      "ĠáĪĺáĪµáī°áĮĭ": 5477,
      "Ġáĭ¨áĪĻáĪī": 5478,
      "Ġáĭ¨áĭĿáĮį": 5479,
      "ĠáĬłáĪĭáīµ": 5480,
      "áĪĺáĬĲ": 5481,
      "áĮĪáįį": 5482,
      "áĮłáĬĽ": 5483,
      "Ġáī°áĬ¨áī°áĪį": 5484,
      "Ġáĭ¨áĪļáĪµáī¥": 5485,
      "Ġáī¥áīµ": 5486,
      "ĠáīµáĪª": 5487,
      "Ġáĭ¨áĪĺáĪĨáĬķ": 5488,
      "ĠáĬŃáĪĪ": 5489,
      "ĠáĬ«áĪĿáįķ": 5490,
      "áĮ«áĭį": 5491,
      "Ġáī³áĬ«áĪļáĭİáī½": 5492,
      "ĠáĮłáī¥": 5493,
      "ĠáĬ¥áĭ¨áĪĨáĬĲ": 5494,
      "ĠáĮīáĭ³áī¶áī½": 5495,
      "ĠáĪĺáĪįáĪ¶": 5496,
      "ĠáĪĪáĬłáĪĪáĪĿ": 5497,
      "ĠáĭµáĪŃáĪ»": 5498,
      "áīªáĭ¥áĬķ": 5499,
      "ĠáĭĽáįį": 5500,
      "áĬ¨áįįáĪī": 5501,
      "Ġáĭ¨áįįáĪĪáĮĭ": 5502,
      "ĠáīłáĪĺáī¶áĭį": 5503,
      "ĠáĬłáĭ«áĭ«áĭĿ": 5504,
      "Ġáĭ¨áĬķáī¥áĪ¨áīµ": 5505,
      "Ġáī¸áĬ®áĪĮáīµ": 5506,
      "ĠáĬłáĮĪáĬĺáĪģ": 5507,
      "ĠáĬłáĪŃáĬŃ": 5508,
      "ĠáĪĺáĭµ": 5509,
      "áĭ°áĭ°": 5510,
      "ĠáĭįáĪ¾áī½": 5511,
      "Ġáĭ¨áī°áĬĲáĪ³": 5512,
      "ĠáĪ°áī¥": 5513,
      "ĠáĪĪáĪĺáĭįáĮ£áīµ": 5514,
      "áīłáĪŃáīµ": 5515,
      "Ġáĭ¨áĬłáĬķ": 5516,
      "áĪ¨áĮĭáĮĭáīµ": 5517,
      "ĠáĬķáĮįáĮį": 5518,
      "ĠáĪ®áĭĿ": 5519,
      "ĠáĬ¥áĭŃáī³áĭİáī½": 5520,
      "ĠáīłáĪĺáī¶áĭİáī½": 5521,
      "Ġáĭ¨áĬ¢áĬķáī°áĪŃáĬĶáīµ": 5522,
      "ĠáĪĺáĭĿáĮĪ": 5523,
      "Ġáī°áĮĭáĪĭáĮŃ": 5524,
      "ĠáĬłáĪįáī»áĪĪáĪĿ": 5525,
      "Ġáĭ¨áī«": 5526,
      "ĠáīłáĭĬ": 5527,
      "ĠáīłáīģáĪĿ": 5528,
      "ĠáĬłáĪ²": 5529,
      "áĬĲáī³áī¸áĭįáĬķ": 5530,
      "ĠáĭŃáĪĨáĬķ": 5531,
      "ĠáĭŃáĪĭáĪī": 5532,
      "ĠáĭŃáĮłáīĢáĪĽ": 5533,
      "ĠáĭŃáĭŁáĪį": 5534,
      "ĠáĪĪáĪĺáĭĪáĪ°áĬķ": 5535,
      "áīĨáĪį": 5536,
      "áįĥáĪľ": 5537,
      "áĪĬáĬĵ": 5538,
      "áĪĦáĭ³": 5539,
      "áĪ°áĪ«áĪĿ": 5540,
      "áįĢáī£áĪŃ": 5541,
      "Ġáī¤áīµáĭİ": 5542,
      "ĠáĬ¥áĭ«áĪ³": 5543,
      "ĠáĬłáĬķáĮĢ": 5544,
      "ĠáĪ³áĭŃáīĨáĭŃ": 5545,
      "áĮłáī¥áīħ": 5546,
      "ĠáīłáĪĺáĪµáĮłáīµ": 5547,
      "ĠáĪĦáĭŃ": 5548,
      "Ġáī»áĪŃ": 5549,
      "ĠáĬ«áĪŃáĭ¶áī½": 5550,
      "áīłáĪ¨áī³áī³": 5551,
      "Ġáĭ¨áĭļáĪħáĬķ": 5552,
      "ĠáĭĪáĭ²áĪħ": 5553,
      "Ġáĭ¨áĭ©áĬ¤áĪµ": 5554,
      "ĠáīłáĪĿáīµáĬ©": 5555,
      "ĠáĬłáĮĪáĪįáĮĭáĭŃ": 5556,
      "ĠáīłáĪļáĭ«áĪ³áĭĿáĬķ": 5557,
      "áĮĩ": 5558,
      "Ġáĭ¨áĬ¨áįĭ": 5559,
      "ĠáĬłáĪ®áĮĮ": 5560,
      "áĪĪáĬĿáĪĿ": 5561,
      "áĬŃáĪī": 5562,
      "ĠáĪĽáĮįáĬĺ": 5563,
      "ĠáĮ¥áĬķáĭµ": 5564,
      "ĠáīµáĬķáīł": 5565,
      "ĠáĬłáĪµáī¥": 5566,
      "Ġáĭ°áĪĿ": 5567,
      "áīĨáĮłáĪ©": 5568,
      "Ġáĭ¨áĬ¥áĭŃáī³": 5569,
      "áĪµáī°áĬŀáī½": 5570,
      "áĮĨáī½áĬķ": 5571,
      "ĠáĬ®áĬķáĮį": 5572,
      "ĠáĪĺáĪµáĬ®áīµ": 5573,
      "áīħáĪĿáīµ": 5574,
      "ĠáĬłáĭįáĪ«": 5575,
      "Ġáĭ¨áĮįáĬķáī£áī³": 5576,
      "ĠáĮĵáĮī": 5577,
      "ĠáįķáĪ®áĮįáĪ«áĪŀáī½áĬķ": 5578,
      "ĠáĪĺáĭĿáĮĪáī¥": 5579,
      "áī¨áĪµáīµáĪĺáĬķáīµ": 5580,
      "ĠáĪĺáĭµáĪĢáĬĴáī¶áī½": 5581,
      "ĠáĪĬáĭ«áĪµáĬ¨áīµ": 5582,
      "áĪİáĪªáĭ³": 5583,
      "Ġáīłáīĥ": 5584,
      "Ġáīłáĭ´": 5585,
      "áĪĪáĭ°": 5586,
      "áĪĽáī²áĬŃ": 5587,
      "áīłáĪ«": 5588,
      "ĠáĪµáĬ³áĪŃ": 5589,
      "áĪĨáĬĶ": 5590,
      "Ġáĭ¨áĪĺáĬķáĮĪáĭµ": 5591,
      "Ġáĭ¨áĬłáĪĺáĮĭáĮĪáī¥": 5592,
      "ĠáįĪáĪĪ": 5593,
      "ĠáĭŃáĪĺáĭĿáĮĪáī¡": 5594,
      "ĠáĬ¨áĬłáĪĪáĪĿ": 5595,
      "ĠáĬ¨áĭļáĭ«áĬķ": 5596,
      "Ġáĭ¨áī³áĪ¸": 5597,
      "ĠáĪµáīµáĪį": 5598,
      "Ġáĭ¨áĬĲáĭ³áĮħ": 5599,
      "ĠáĪļáĬĴáĪµáīµ": 5600,
      "ĠáĭŃáĪĺáĪĪáĬ¨": 5601,
      "ĠáĬłáĪįáīłáĪĿ": 5602,
      "ĠáĭŃáĮłáīĢáĪĽáĪī": 5603,
      "ĠáĬ¥áĪŀáĬŃ": 5604,
      "áĪĪáĪī": 5605,
      "áĬķáĭ®": 5606,
      "ĠáĪĺáĪ¨áĭ³áīµ": 5607,
      "ĠáĪĺáīĢáĪĺáĮ«": 5608,
      "áĪ¨áĬĽ": 5609,
      "áĭµáĬĳ": 5610,
      "ĠáĬ¨áĭĭáĬĵ": 5611,
      "ĠáĬ¨áĪ¶áĪµáīµ": 5612,
      "áĬ«áĪĤ": 5613,
      "Ġáĭ°áĪµáī°áĬŀáī½": 5614,
      "Ġáĭ¨áĪĺáĭµáĪĢáĬĴáīµ": 5615,
      "ĠáĮįáĬķáī¦áīµ": 5616,
      "áĮīáĬķ": 5617,
      "ĠáĮĪáĭĽ": 5618,
      "ĠáĭµáĪ«": 5619,
      "áīµáĬķáĪ½": 5620,
      "ĠáĪ²áĬĲáįĥáįĢáĪŃ": 5621,
      "Ġáĭ¨áĪĽáĪ³": 5622,
      "áĮĢáĪĺáĪ©": 5623,
      "Ġáĭ¨áīłáĬłáĪį": 5624,
      "ĠáĬ¥áĬĶáĬĵ": 5625,
      "ĠáĮİáĮįáĪį": 5626,
      "ĠáįħáĪģáįİáī½": 5627,
      "Ġáīłáĭ°áĪµáī³": 5628,
      "Ġáĭ¨áĪĺáĮ¨áĪ¨áĪ»áĭįáĬķ": 5629,
      "ĠáĪĺáĪĪáĬªáĭ«": 5630,
      "ĠáĬ¥áĬķáĮįáĪĬáĭĿ": 5631,
      "ĠáĪļáĬĴáĪµáī´": 5632,
      "ĠáĪĪáĪĺáĪĿáĪ¨áĮ¥": 5633,
      "ĠáĪĿáĬĵáī£áĭĬ": 5634,
      "ĠáĭŃáĭŃáĭĽáĪį": 5635,
      "áĬ«áĭ³áĪļáĬŃ": 5636,
      "Ġáĭ¨áĬĵ": 5637,
      "áĪįáĬ®": 5638,
      "ĠáīłáĪª": 5639,
      "áĪĺáī½": 5640,
      "áĭ°áĬĿáĬĲáīµ": 5641,
      "ĠáĭŃáĪĪáĬĽáĪį": 5642,
      "áĪļáĬĴ": 5643,
      "áīĢáĪ»": 5644,
      "ĠáĭĪáĬķáīł": 5645,
      "Ġáī°áĮłáīĢáĪĿ": 5646,
      "áĭĭáĭŃ": 5647,
      "ĠáĮ¥áĪĿáĪ¨áīµ": 5648,
      "áĭįáĬķáīµ": 5649,
      "ĠáĪ²áĪĺáĮ£": 5650,
      "Ġáīłáī°áĭ°áĮĭáĮĭáĪļ": 5651,
      "ĠáĪ³áĬķ": 5652,
      "áĬķáĭ±áĪµáīµ": 5653,
      "áĮĪáĪįáįģ": 5654,
      "ĠáĬ¨áĪĺáĪµ": 5655,
      "áīĢáĪŃáīłáĭį": 5656,
      "ĠáĬ¥áĭįáĬĲáī±": 5657,
      "áĬķáĪ°áĬķ": 5658,
      "áīĢáĪĺáĮł": 5659,
      "ĠáĪ®áĬŃ": 5660,
      "ĠáĪĽáĪ³áĭ°áĮį": 5661,
      "ĠáĭŃáĪ°áĪĽáĭİ": 5662,
      "Ġáĭ«áĮįáĬĻáĬķ": 5663,
      "ĠáĪĤáĭ°áī±áĬķ": 5664,
      "Ġáī°áĪĽáĪªáĭİáī½áĬķ": 5665,
      "ĠáĭŃáīĢáĮ¥áĪĭáĪį": 5666,
      "ĠáĭŃáĮįáĭĻ": 5667,
      "ĠáĬĶáīµ": 5668,
      "Ġáĭ¨áĬłáĪµáī°áĭ³áĭ°áĪŃ": 5669,
      "ĠáįķáĪ®áįĮáĪ½áĬĵáĪį": 5670,
      "ĠáīłáĪµáĪįáĬŃ": 5671,
      "Ġáĭ¨áĭľáĬĵ": 5672,
      "Ġáĭ¨áįķáĪ®áĮĢáĬŃáīµ": 5673,
      "Ġáĭ¨áĪµáĪįáĮłáĬĵ": 5674,
      "ĠáĪ°áĬķáĪ°áĪĪáīµ": 5675,
      "ĠáĭŃáĮłáīĢáĪĽáĪį": 5676,
      "ĠáĬ¥áĪŀáĬŃáĪ«áĪĪáĪģ": 5677,
      "ĠáĬłáĮłáī£áīłáīħ": 5678,
      "áĬĵáĮį": 5679,
      "ĠáĪĺáĬķáĪµ": 5680,
      "áī¥áĪ°áī£": 5681,
      "áĭµáĮį": 5682,
      "áĮłáĬĲ": 5683,
      "ĠáĪµáĬĵ": 5684,
      "ĠáĪµáī´": 5685,
      "ĠáĮ¥áįĭ": 5686,
      "ĠáĪĪáĪĺáĬŃáįĪáĪį": 5687,
      "áĬķáĭµáĪµáĬĵ": 5688,
      "ĠáĬłáĭŃáĪĺáĪµáĪįáĪĿ": 5689,
      "Ġáīłáī°áĪĺáĮ£áĮ£áĬĿ": 5690,
      "Ġáĭ¨áĬ¥áĬķáĮį": 5691,
      "ĠáĮłáī£áīĤ": 5692,
      "ĠáĬ¦áįį": 5693,
      "ĠáĬ©áī£": 5694,
      "ĠáĬłáĪĭáĪµ": 5695,
      "ĠáĪĽáĪµáīĢáĪĺáĮ¥": 5696,
      "ĠáĬłáĪ³áĭĽáĬĿ": 5697,
      "Ġáī°áīĢáī¥": 5698,
      "ĠáĭŃáīĢáīł": 5699,
      "ĠáĪĪáĪĺáīĢáĭ¨áĪŃ": 5700,
      "ĠáĬłáĭ°áĮĭáĭİáī½": 5701,
      "ĠáīłáĭµáĬķáĮĪáīµ": 5702,
      "Ġáī£áĪĪáī¤áīµáĬĲáīµ": 5703,
      "ĠáĬłáĮłáīĥáīĢ": 5704,
      "ĠáīłáĬłáī¥áĭĽáĬĽáĭİáī¹": 5705,
      "ĠáīłáĪħáĭŃáĭĪáī´": 5706,
      "Ġáĭ°áĪ¨áĪ°": 5707,
      "áĭĿáĪŃáĭĿáĪŃ": 5708,
      "Ġáĭ¨áĪļáĪĨáĬĳáīµ": 5709,
      "ĠáīĢáĪįáĮ£áįĭ": 5710,
      "áĭįáĬķáĭ´": 5711,
      "ĠáīłáįĴ": 5712,
      "ĠáĬłáĮĪáĬĵ": 5713,
      "áĪ³áĪ°": 5714,
      "ĠáĪµáįĵ": 5715,
      "ĠáĪµáįĸáĪŃ": 5716,
      "ĠáĮ¥áĪ«": 5717,
      "ĠáĬłáĭŃáī¥": 5718,
      "ĠáĬłáĭŃáĬĲáī±": 5719,
      "áįĭáĪŃ": 5720,
      "ĠáĬ¥áĬķáĭ²áĪ°áĪ«": 5721,
      "Ġáīłáī°áĪ³áĬ«": 5722,
      "áĮ«áĭĬ": 5723,
      "ĠáĬ®áĬķáīµ": 5724,
      "áĮįáī£áī£áīµ": 5725,
      "Ġáĭ¨áĭĪáĬķáĮĢáĪį": 5726,
      "ĠáĪªáįĲáī¥áĪĬ": 5727,
      "ĠáįĢáĮ¥": 5728,
      "Ġáįİáī¶áĭİáī½áĬķ": 5729,
      "ĠáĪ°áĪŃáī·áĪį": 5730,
      "áĬ¨áĪ°áī°": 5731,
      "áįĪáįĢáĪĿ": 5732,
      "Ġáĭ±áīĦáīµ": 5733,
      "áĪµáĪĽáĪĻ": 5734,
      "áĬķáĪĭáĭŃáĬķ": 5735,
      "áĭįáĪŀ": 5736,
      "ĠáĬłáĮĪáĬĽ": 5737,
      "ĠáĪĪáĮįáĪį": 5738,
      "áĬŃáĪİáī½": 5739,
      "Ġáī°áĭĺ": 5740,
      "áĬłáĪĪáĪģ": 5741,
      "Ġáĭ¨áĪļáĬĲ": 5742,
      "Ġáī¥áĪĭ": 5743,
      "Ġáĭ¨áī°áĪ¨áĮĭáĮĪáĮł": 5744,
      "ĠáīµáĬĵáĬķáīµ": 5745,
      "ĠáĭĪáĭ°áĭļáĭ«": 5746,
      "ĠáĬłáĭŃáĬķ": 5747,
      "ĠáĮĪáĭ³áĭŃ": 5748,
      "áī°áĬĽáīµ": 5749,
      "ĠáĭŃáĪĺáĮ£áĪī": 5750,
      "ĠáīģáĪŃáĪµ": 5751,
      "áīħáĪŃáī¡": 5752,
      "ĠáĬłáĪµáī°áĬĵáĮĭ": 5753,
      "ĠáĬłáĬķáī½áĪįáĪĿ": 5754,
      "áī¥áĪµáĬŃ": 5755,
      "Ġáĭ¨áĬŃáįįáĭ«": 5756,
      "ĠáĬłáĮįáĬĿáī°áĭĭáĪį": 5757,
      "ĠáĪĺáĪĪáĭĪáĮ¥": 5758,
      "ĠáĪĪáĪĺáīĢáĮłáĪį": 5759,
      "Ġáī¶áĪİ": 5760,
      "ĠáĪĺáĮĭáī¢áīµ": 5761,
      "ĠáĭĬáĪį": 5762,
      "ĠáĬŃáĪ¬áĪĿ": 5763,
      "ĠáīłáĬłáĪĽáĬ«áĭŃ": 5764,
      "ĠáĪºáĪħ": 5765,
      "Ġáĭ¨áĪĭáī¸áĭįáĪĿ": 5766,
      "ĠáĬłáĪ°áĮ£": 5767,
      "ĠáĬ¨áīħáĪŃáī¥": 5768,
      "ĠáĬ¨áįĬáĪį": 5769,
      "áī£áīł": 5770,
      "ĠáĪµáįĸáĪŃáīµ": 5771,
      "áī¶áī»áī½áĬķáĬķ": 5772,
      "Ġáī¥áĪµáĬŃ": 5773,
      "ĠáĮĬáĭľáĭ«áĭĬ": 5774,
      "áįĥáįī": 5775,
      "ĠáĬķáįĭáĪµ": 5776,
      "ĠáįĪáĮ£áĪª": 5777,
      "ĠáĬ¨áĪĺáī¼": 5778,
      "ĠáĪĻáĪīáĭįáĬķ": 5779,
      "áĮłáīłáīĢáĭį": 5780,
      "ĠáĪĽáĪµáĮłáĬķáīĢáīĤáĭ«": 5781,
      "Ġáĭ¨áĬŃáįįáĪį": 5782,
      "Ġáīłáĭ°áĪ¨áĮĥ": 5783,
      "Ġáī»áĭŃáĬĵ": 5784,
      "ĠáįĸáĪĬáĪ²áĭİáī½": 5785,
      "ĠáĭŃáīĨáĮ¥": 5786,
      "Ġáĭ¨áī°áĪ³áĬ«": 5787,
      "ĠáĬ¥áĬķáĮįáĭ¶áī½": 5788,
      "áĭĺáĮĭáĮĢáĭį": 5789,
      "ĠáīģáĪ³áīģáĪµ": 5790,
      "ĠáĬķáī¥áĪ¨áī¶áī½": 5791,
      "ĠáĬĲáĭĭáĪª": 5792,
      "ĠáĬ¢áĪľáĭŃ": 5793,
      "Ġáĭ«áĪµáīĢáĪĿáĮ¡": 5794,
      "ĠáĮĵáĭ°áĬŀáī¼": 5795,
      "Ġáĭ¨áĮ¡": 5796,
      "ĠáīłáĮ¤áĬĵ": 5797,
      "áĬĲáī´": 5798,
      "ĠáĪĪáĪĢ": 5799,
      "áī¥áĪħ": 5800,
      "áĭ°áīħ": 5801,
      "ĠáĬ¨áĭ©": 5802,
      "Ġáĭ«áĬĲáĪ³": 5803,
      "ĠáĪĿáĪ³": 5804,
      "ĠáĮ¥áĭĭáīµ": 5805,
      "ĠáĪĪáĪĺáīħ": 5806,
      "áĭĺáīµ": 5807,
      "ĠáĭŃáĪĺáĪŃ": 5808,
      "ĠáĬ¥áĬķáĭ³áĪĭáī¸áĭį": 5809,
      "ĠáĮ¨áĭį": 5810,
      "áĮłáīĥáĪĪáĭ«": 5811,
      "ĠáĪĪáĬ¥áĬĲáĪ±": 5812,
      "áįįáīµáĭĮ": 5813,
      "ĠáĬ¥áĪŃáĬ«áī³": 5814,
      "Ġáĭ¨áĪ°áĪŃáĮį": 5815,
      "Ġáī´áĪĮ": 5816,
      "ĠáĬ¥áĬķáīħáĪµáīĥáĪ´áĭİáī½áĬķ": 5817,
      "ĠáįĴáĬ¤áĪĿ": 5818,
      "ĠáĭĻáĪŃ": 5819,
      "ĠáĪĿáīµáĬŃ": 5820,
      "ĠáĮİáīłáĭĿ": 5821,
      "ĠáĬłáĭŃáĪĺáĪµáĪĪáĬĿáĪĿ": 5822,
      "ĠáīłáĬ¨áī°áĪĽáĭį": 5823,
      "áī½áĪĪáĭįáĬķ": 5824,
      "áįįáĪµ": 5825,
      "Ġáī°áĮį": 5826,
      "ĠáĮ¥áĬķáīĥáīĦ": 5827,
      "ĠáĬŃáĪªáĪµ": 5828,
      "ĠáĬ¥áĬķáĪ°áĪ«": 5829,
      "Ġáī¤áī±áĬķ": 5830,
      "Ġáī¥áĭĻáĭİáī½": 5831,
      "ĠáĪŀáĮģ": 5832,
      "ĠáĭµáĪŃáĭµáĪŃ": 5833,
      "ĠáįĵáĬ¬": 5834,
      "Ġáĭ¨áĪįáī¥áĪµ": 5835,
      "Ġáĭ¨áĭµáĮĭáįį": 5836,
      "ĠáĪĺáĮįáĪĪáĮ«áĭİáī½": 5837,
      "ĠáĬ¥áĭµáĮĪáīµáĬķ": 5838,
      "ĠáĬ¥áīħáĭ¶áī½": 5839,
      "ĠáĮĭáĭľáĮ£": 5840,
      "ĠáĭĺáĪŃáįİáī½": 5841,
      "ĠáĭŃáī³áĭĪáīĥáĪį": 5842,
      "ĠáĪĽáīłáĪ¨áī³áī»": 5843,
      "ĠáĪįáĮĥáĮĪáĪ¨áĭ¶áī½": 5844,
      "Ġáī°áĭ°áĪµáī»áĪĪáĪģ": 5845,
      "ĠáĪĺáĬķáĪµáĬ¤": 5846,
      "áĪĿáī¥": 5847,
      "ĠáĬłáĭĽ": 5848,
      "ĠáĮ©": 5849,
      "áĭ«áĪĪáĬķ": 5850,
      "ĠáĪĺáĬª": 5851,
      "ĠáĪĺáĮ«áĬķ": 5852,
      "áī¥áĪ©": 5853,
      "ĠáĬ¨áĪŀ": 5854,
      "ĠáĪµáįĭáīµ": 5855,
      "áįĪáĮ¥áĪŃ": 5856,
      "Ġáĭ¨áĪļáĪµáĪĽáĪĽ": 5857,
      "ĠáĮ¥áīħáĪµ": 5858,
      "áĬĲáīµáĭİ": 5859,
      "ĠáĬłáĪµáĪ«": 5860,
      "Ġáĭ¨áĪĺáĮ¡": 5861,
      "áĬ©áīµáĬķ": 5862,
      "ĠáĭµáĬķáĮĪáī°áĬĽ": 5863,
      "ĠáĬłáĪĪáĪĿáĬķ": 5864,
      "áī¡áĪµ": 5865,
      "ĠáĪĮáĪĬáīµ": 5866,
      "áĪ´áĪĭáĭĬ": 5867,
      "ĠáįĪáĪŃ": 5868,
      "ĠáīµáĬķáī³áĬĶ": 5869,
      "ĠáĪĪáĬ¥áĬĲáĭļáĪħ": 5870,
      "ĠáĬ¦áĮĪáĪµáīµ": 5871,
      "Ġáĭ³áĪ«": 5872,
      "ĠáĪ½áĮī": 5873,
      "ĠáĪ«áĪ±áĬķ": 5874,
      "ĠáĬ¨áī£áĪĪ": 5875,
      "áĬĲáīłáĪ¨áīłáīµ": 5876,
      "ĠáĪĺáīĢáĮłáĪį": 5877,
      "ĠáĬ¥áĪŃáĪĿáĮĥáĭİáī½áĬķ": 5878,
      "Ġáĭ¨áĮİáĭ°": 5879,
      "Ġáīłáī£áĪĪ": 5880,
      "áĭįáĪ®áįķáĪĭ": 5881,
      "Ġáī³áĪªáĬ®áī½áĬķ": 5882,
      "ĠáĪĪáĪĽáĪµáī°áĬ«áĬ¨áĪį": 5883,
      "ĠáĪ°áĬĲáĭ¶áī½": 5884,
      "Ġáīłáī¦áī³áĭį": 5885,
      "Ġáĭ¨áĪ«áĪµáĭİáĬķ": 5886,
      "ĠáĪĺáĮĪáĪįáĮĪáĭ«áĭİáī½": 5887,
      "Ġáĭ«áĪµáįĪáĪįáĮĪáĭĭáĪį": 5888,
      "áĪªáī³áĬķáĭ«": 5889,
      "áīħáĭ«áĬĸáĪµ": 5890,
      "áĬľ": 5891,
      "áĪµáĮĭ": 5892,
      "áĪĪáįĬáĭ«": 5893,
      "áĬĲáī¥": 5894,
      "ĠáĭŃáĪ¸áįį": 5895,
      "ĠáĪµáĪĽáĪŃáīµ": 5896,
      "ĠáĪĽáĬ¨áĪį": 5897,
      "áĬłáī±": 5898,
      "áīĥáī³áĪĽ": 5899,
      "Ġáĭ¨áī°áīł": 5900,
      "ĠáĪĪáĪĺáĪ¸": 5901,
      "ĠáĭµáĪįáĭµ": 5902,
      "ĠáĬ¢áĬķáĭ±áĪµáīµ": 5903,
      "áĮĪáĪįáįĥ": 5904,
      "áĭ´áĪ«áĪį": 5905,
      "ĠáĬłáĭįáĪİ": 5906,
      "ĠáĬłáĭįáĮª": 5907,
      "ĠáĬ¨áĬ¥áĬĲáĪ±": 5908,
      "ĠáĪµáĪŃáĮŃáīµ": 5909,
      "áĬĸáĪŃáĪĿ": 5910,
      "ĠáĪµáĪŃáĬłáī±": 5911,
      "áĬŃáĪ²áĬ®": 5912,
      "ĠáĮįáĪĿáĮĪáĪĽáĭİáī½": 5913,
      "ĠáįĭáĭŃáĪİáī½": 5914,
      "ĠáĪ°áĪĽáĭŃ": 5915,
      "ĠáĮİáĪįáĪĽ": 5916,
      "ĠáīłáįĮáĪµáī¡áĬŃ": 5917,
      "ĠáĭŃáĭįáĪĭáĪį": 5918,
      "ĠáīłáĮįáĬķáī¦áīµ": 5919,
      "ĠáĮ£áĪįáīĥ": 5920,
      "ĠáĬ¨áĪĺáī¼áĭįáĪĿ": 5921,
      "áĬķáī°áĪŃ": 5922,
      "Ġáĭ¨áĭ´": 5923,
      "Ġáĭ¨áĭµáĬķ": 5924,
      "Ġáĭ¨áĪ¶áĪµáīµ": 5925,
      "ĠáĬ¥áĪŃáĮįáĮ¥": 5926,
      "ĠáĬ¥áĪ´áīµ": 5927,
      "ĠáīłáĮ¨": 5928,
      "Ġáīłáī»áĭŃáĬĵ": 5929,
      "ĠáĪĺáĬŃ": 5930,
      "áĪħáĪĭáĭĬ": 5931,
      "áī¥áĪ¯": 5932,
      "Ġáĭ«áĬĶ": 5933,
      "Ġáĭ«áĮłáīĥáĪį": 5934,
      "ĠáĪµáĭį": 5935,
      "Ġáī°áĬ¨áĪ«": 5936,
      "Ġáī°áĪĺáĪĪáĪµ": 5937,
      "áįĪáĪŃáīµ": 5938,
      "áĮ£áĪĪáĬķ": 5939,
      "áĬ«áĭ®áī½": 5940,
      "áĪ®áĭµ": 5941,
      "ĠáĮįáī¤áīµ": 5942,
      "Ġáįĳ": 5943,
      "ĠáīµáĭĿ": 5944,
      "ĠáĬłáĪµáĪĺ": 5945,
      "ĠáĪįáĭ°áīµ": 5946,
      "ĠáĬŃáĪŃ": 5947,
      "ĠáĬłáĪĺáī±áĬķ": 5948,
      "ĠáīħáĮ£áīµ": 5949,
      "ĠáĬłáĭµáĪŃáĮį": 5950,
      "ĠáĪªáĬ¨áĪŃ": 5951,
      "áĪ°áī£áī½áĬķ": 5952,
      "Ġáĭĺáĭ´áĭİáī½áĬķ": 5953,
      "Ġáĭ¨áĪĻáĬ¨áĪ«": 5954,
      "Ġáĭ¨áī°áīĢáĬĵ": 5955,
      "áĬ¨áįĭáįĪ": 5956,
      "ĠáĪĿáĪįáĬŃáī¶áī½áĬķ": 5957,
      "Ġáĭ¨áīµáĬĽáĭįáĪĿ": 5958,
      "ĠáĬłáĪ³áĭŃáī·áĪį": 5959,
      "ĠáĬ¥áĬķáĭĪáĭ³áĪĪáĬķ": 5960,
      "ĺáĬĽ": 5961,
      "ĠáĬ¥áĪĪáīµ": 5962,
      "ĠáīłáĬĸ": 5963,
      "ĠáīłáĮįáĪ«": 5964,
      "áĪĺáĭĪáĭĿ": 5965,
      "áĮĪáĪ³": 5966,
      "ĠáĪĽáīĨáĭ¨áīµ": 5967,
      "ĠáĪĪáĪĺáĮĪáĪĿáĮĪáĪĿ": 5968,
      "áĭĿáīħ": 5969,
      "ĠáĪħáīµ": 5970,
      "Ġáĭ¨áĪĽáĪµáī³áĭĪáīĤáĭ«": 5971,
      "ĠáĬ¨áī°áīĢ": 5972,
      "áĭŀáĬķ": 5973,
      "ĠáĬ¦áĬŃáī¶áīłáĪŃ": 5974,
      "áĪĬáĭĺáĬĽ": 5975,
      "ĠáīłáįįáīħáĪŃ": 5976,
      "ĠáĭŃáĮĪáĬĲ": 5977,
      "ĠáĭĪáĪĭáĮħ": 5978,
      "Ġáĭ¨áĭµáĪŃáĮħáīµ": 5979,
      "ĠáĮ¡áĪ¨áī³": 5980,
      "Ġáĭ¨áįĮáĭ°áĪ«áĪį": 5981,
      "ĠáĬłáĮĭáĮ£áĪļáĭİáī½": 5982,
      "ĠáĭµáĮįáĪµ": 5983,
      "ĠáĬłáĪĽáĬ«áĬĿ": 5984,
      "Ġáĭ¨áĪ¨áĭ¥áĪĿ": 5985,
      "ĠáĭĪáĮĪáĬĸáī½": 5986,
      "ĠáĬłáĮ«": 5987,
      "áĪĽáĮŃ": 5988,
      "áĪĽáĪĽáīµ": 5989,
      "ĠáĭŃáĭ°áĮį": 5990,
      "Ġáī°áĮįáĭ³": 5991,
      "ĠáĬ¥áĬķáĭ°áĭļáĭ«": 5992,
      "ĠáīłáĪĺáĬķáĮįáĪµáīµ": 5993,
      "ĠáĮįáĬķáī£áĪŃ": 5994,
      "ĠáĬ¥áĬķáĭ²áĪ°áĮ¡": 5995,
      "Ġáĭ¨áĬłáįį": 5996,
      "Ġáĭ¨áĬłáīłáī£": 5997,
      "áĭ©áī¥": 5998,
      "ĠáĬķáįħ": 5999,
      "Ġáĭ«áĪµáĬ¨áīµ": 6000,
      "ĠáĪµáĪĪáĭļáĪħáĪĿ": 6001,
      "áĪ«áĭĬáīµ": 6002,
      "Ġáĭ¨áĭįáĪ¸áīµ": 6003,
      "ĠáĪĪáī°áĮłáīĥáĪļ": 6004,
      "áĪĺáĪµáĪī": 6005,
      "áĬķáīħáĪįáįį": 6006,
      "ĠáĮ«áĬĵ": 6007,
      "ĠáĮįáī¥áĬł": 6008,
      "ĠáĪĺáĪĺáĪªáĭ«áĭİáī½áĬķ": 6009,
      "ĠáīłáĬ¢áĬķáĭ±áĪµáīµáĪª": 6010,
      "ĠáīłáĪįáĭ©": 6011,
      "ĠáĮįáĬķáĭĽáī¤áĬķ": 6012,
      "áĪ°áĮ£áī¸áĭį": 6013,
      "ĠáĪĺáī¼áĪĿ": 6014,
      "ĠáĪĺáĮĪáĪĺáīµ": 6015,
      "ĠáĪļáĭĽáĬķ": 6016,
      "Ġáĭ¨áĪĺáĮįáī¢áĭ«": 6017,
      "ĠáīłáĭĿáĮį": 6018,
      "ĠáĬłáĬŃáĪ²áĭ®": 6019,
      "áĪ¨áĬ¨": 6020,
      "áĭ°áĭ±": 6021,
      "Ġáī°áĪĿ": 6022,
      "ĠáĪĽáĪĢ": 6023,
      "ĠáĮįáĪ©áĪĿ": 6024,
      "áī¶áī½áĭİ": 6025,
      "ĠáĪĬáĬĸáĪ¨áĭį": 6026,
      "áįĭáįĭáīµ": 6027,
      "Ġáĭ¨áĬłáĬĹáĬĹáĪŃ": 6028,
      "áĪľáĪ½áĬķ": 6029,
      "áįĥáįĥáįį": 6030,
      "ĠáĪ³áĪİáĬķ": 6031,
      "Ġáĭ¨áĪĽáĬķ": 6032,
      "ĠáĪļáĪĬ": 6033,
      "Ġáĭ¨áīµáĪĿ": 6034,
      "Ġáĭ¨áĭĪáĬķáĭµ": 6035,
      "ĠáĪĺáĪ³áī°áįį": 6036,
      "áī¨áĬķ": 6037,
      "Ġáĭ¨áĪĢáĭŃ": 6038,
      "ĠáĬłáĭ³áĪ«áĪ½": 6039,
      "Ġáīłáī¥áīĥáīµ": 6040,
      "ĠáĭŃáĬĸáĪ«áĪį": 6041,
      "ĠáĪĪáĪĽáĪµáī°áĭĭáĭĪáīħ": 6042,
      "ĠáĬ®áĪŃáįĸ": 6043,
      "Ġáĭ¨áįĮáĪµáī¡áĬŃ": 6044,
      "ĠáĬ¤áĮĢáĬķáĪ²áĭİáī½": 6045,
      "áĮİáīłáĬĻ": 6046,
      "ĠáĪĪáīĢáĮ£": 6047,
      "Ġáĭ¨áĪ³áĭŃáĬķáĪµ": 6048,
      "Ġáī°áĪ³áī³áįĬáĭİáī½": 6049,
      "ĠáĭĿáĬĵáī¥": 6050,
      "ĠáįĨáī³": 6051,
      "ĠáīłáĬłáĬķáįĥáĪ«áĭĬ": 6052,
      "áĭ¦": 6053,
      "Ġáĭ¨áĪ´áīµ": 6054,
      "Ġáĭ¨áĬĭáĪĭ": 6055,
      "ĠáĬ¨áĮĪ": 6056,
      "ĠáĬ¨áĪĿáĪŃ": 6057,
      "ĠáĪĿáĮįáī£áĪŃ": 6058,
      "áĭ³áī¸áĭįáĬķ": 6059,
      "ĠáĪĪáĪĺáĮł": 6060,
      "ĠáĬŃáĪĿ": 6061,
      "áįħáĭĭáīµ": 6062,
      "áĮŃáĬķ": 6063,
      "áĮ«áīµ": 6064,
      "ĠáĪĢáĪŃáĭµ": 6065,
      "Ġáĭ¨áīµáĪ«": 6066,
      "ĠáįĸáĪµáīµ": 6067,
      "ĠáĬ¥áĬķáĭµáĬĵ": 6068,
      "ĠáĮ¨áĭĭáī³áĭį": 6069,
      "ĠáĬĲáīłáĪ¨áīłáīµ": 6070,
      "ĠáĪĽáĪµáī°áĬ«áĬ¨": 6071,
      "ĠáĪĽáĪ³áĪ°áī¢áĭ«": 6072,
      "Ġáī°áĭĪáĭ³áĭ³áĪª": 6073,
      "ĠáĪĺáĪ°áĪ¨áī°": 6074,
      "ĠáĬ«áĪīáĭİáīµ": 6075,
      "ĠáĮīáĪįáīł": 6076,
      "ĠáĮ¥áĪŃáĮ¥áĪŃ": 6077,
      "Ġáĭ¨áĬ¥áĬķáĮ¨áīµ": 6078,
      "ĠáīłáĪĺáī°áī£áīłáĪŃ": 6079,
      "ĠáīłáĭŃáįĭ": 6080,
      "ĠáįĪáĮĪáĮįáī³": 6081,
      "áī¥áĪ¯áĪª": 6082,
      "Ġáĭ¨áĬķáĭµáįį": 6083,
      "ĠáĬłáĬĵáīµ": 6084,
      "ĠáĪĺáīµ": 6085,
      "ĠáĪĺáīĭáīĭáĪĿ": 6086,
      "áĪ¨áĪŃ": 6087,
      "ĠáĬ¥áĬĵáĪµ": 6088,
      "ĠáĭŃáĮłáī¥": 6089,
      "áĪļáĬŃ": 6090,
      "áĪ°áĪĪ": 6091,
      "áī£áī½áĬķ": 6092,
      "ĠáīµáĪįáĪįáīħ": 6093,
      "áĪ½áī³": 6094,
      "Ġáĭ°áĪĺáĬĵ": 6095,
      "ĠáīĢáĭ°": 6096,
      "ĠáĬ¥áĬķáĮ¨áīµ": 6097,
      "ĠáĪĢáĪĿ": 6098,
      "áĬĴáī¨áĪŃáĪ²áī²": 6099,
      "áĮĬáīµ": 6100,
      "ĠáĪ°áĮ¥áī·áĪį": 6101,
      "ĠáīłáĬĴáĭįáĭ®áĪŃáĬŃ": 6102,
      "ĠáīłáĭįáĪµáĮ¡": 6103,
      "ĠáĪ²áĪµáī°áĪĿ": 6104,
      "ĠáĬ¥áĬķáĪ°áĪ«áĪĪáĬķ": 6105,
      "áĬŁ": 6106,
      "Ġáĭ¨áĪģáĪĪáī°áĬĽ": 6107,
      "áĪĺáī³": 6108,
      "áī°áĪ»": 6109,
      "áĪ¨áĪ³": 6110,
      "ĠáĪĪáĬ«": 6111,
      "áįįáĪī": 6112,
      "Ġáĭ«áīħáĪŃáī¡": 6113,
      "ĠáĪĽáĪ¸áĬĲáįį": 6114,
      "ĠáĮ¥áĮį": 6115,
      "ĠáĪ°áĪª": 6116,
      "ĠáĪĪáĪĺáīĭáīĭáĪĿ": 6117,
      "áĭĬáĪµ": 6118,
      "áĬĸáī¹": 6119,
      "ĠáīłáĬłáįį": 6120,
      "Ġáĭ¨áĬłáĪĿ": 6121,
      "Ġáī³áĭŃáī·áĪį": 6122,
      "áĬĴáĬ«áĪį": 6123,
      "ĠáĪ³áĪħáĬķ": 6124,
      "ĠáīħáĬĲáĪ³": 6125,
      "ĠáĪģáĬĶáī³áĭİáī½áĬķ": 6126,
      "ĠáīłáĮįáĪĿáīµ": 6127,
      "ĠáĮŃáĬķáīĢ": 6128,
      "ĠáĪĺáĮ¨áĪ¨áĪ»áĭį": 6129,
      "ĠáĮĥáĬŃ": 6130,
      "Ġáĭ¨áĭ©áĬĵáĭŃáīµáĭµ": 6131,
      "Ġáĭ°áĬķáī¦áī½": 6132,
      "Ġáĭ¨áĬĽáĬķ": 6133,
      "Ġáĭ¨áĪ°áĪ«áī°áĬĽ": 6134,
      "ĠáĭŀáĪ®": 6135,
      "Ġáĭ¨áĬ¥áĭµáĮĪáīµ": 6136,
      "ĠáĮĪáįĥáī½áĬķ": 6137,
      "ĠáĮĪáĬķáī¢": 6138,
      "ĠáĬ¥áĬķáĭ²áĭ«áĭįáĪĿ": 6139,
      "ĠáĪĻáĭļáĭ¨áĪĿ": 6140,
      "ĠáįķáĪªáĪļ": 6141,
      "ĠáĪĺáĪĿáĪħáĪ«áĬķ": 6142,
      "Ġáĭ¨áĮĢáĪĺáĪ¨áĭį": 6143,
      "ĠáĬ¥áĮłáīĢáĪĽ": 6144,
      "ĠáīłáĮ¥áĪŃ": 6145,
      "áī½áĭįáĬķ": 6146,
      "áĪĭáĪĭáīħ": 6147,
      "áĮįáĪ©áĬķ": 6148,
      "ĠáĭŃáĪĻáĪī": 6149,
      "áĮłáĪĪ": 6150,
      "áĭĪáĮł": 6151,
      "ĠáĪĭáĪĪáĪĺ": 6152,
      "ĠáĪ°áĪĭ": 6153,
      "ĠáĪĪáĪĽáĭįáĮ£áīµ": 6154,
      "ĠáĮĪáĪĪ": 6155,
      "áīģáĪ¨áĮ¥": 6156,
      "áī¦áī¹": 6157,
      "ĠáīłáĬ¬": 6158,
      "ĠáįĪáĮ¥": 6159,
      "ĠáĪŀáī£áĭŃáĪį": 6160,
      "ĠáĬłáī¥áĭ®": 6161,
      "Ġáī¤áī°áĪĺ": 6162,
      "ĠáĪĽáĬ¥áĬ¨áĪĭáĭĬ": 6163,
      "ĠáĪĺáī¥áĪĭáīµ": 6164,
      "ĠáĪ±áįĲáĪŃ": 6165,
      "áĪ«áĪ³áī½áĬķ": 6166,
      "áĪ½áĬ¨áĪŃáĬ¨áĪŃ": 6167,
      "ĠáĪįáĮĨáī½áĬķ": 6168,
      "ĠáĪħáĬķáįĥáĭİáī½": 6169,
      "ĠáĮĪáĭ°áĪĽ": 6170,
      "ĠáĬŃáīµáīµáĪį": 6171,
      "ĠáĬŃáĪĭáĪ²áĬŃ": 6172,
      "ĠáīĢáĪļáĪµ": 6173,
      "ĠáĬ¥áĪĭáĪĪáĪģ": 6174,
      "ĠáĬłáĬķáĭ²": 6175,
      "ĠáĭŃáĬ¨áĪ°": 6176,
      "ĠáĬ¨áĭĭ": 6177,
      "ĠáĪĽáĪŀáīĤáĭ«": 6178,
      "áĮ£áĪļ": 6179,
      "ĠáĪ°áĪľáĬķ": 6180,
      "áĪ½áī±": 6181,
      "ĠáĬłáĪĺáĪ«áĪŃ": 6182,
      "ĠáĮłáīł": 6183,
      "áĮįáī£áī¥": 6184,
      "Ġáĭ¨áĪĺáĮĢáĪĺáĪªáĭ«áĭİáī¹": 6185,
      "ĠáĪ¶áįįáīµáĭĮ": 6186,
      "ĠáĮįáĬķáĬĻáĬĲáī¶áī½áĬķ": 6187,
      "Ġáĭ°áĬķáīłáĬŀáī»áī½áĬķ": 6188,
      "ĠáĬłáĭĪáĬķáī³áĭĬ": 6189,
      "ĠáĮįáĮ¥áĪļáĭ«": 6190,
      "ĠáĪĺáįħáĪĦáīµ": 6191,
      "Ġáī§": 6192,
      "Ġáĭ¨áīħáĪŃ": 6193,
      "áī°áĪĪ": 6194,
      "ĠáĪĺáįĪ": 6195,
      "ĠáĬ¨áĭĪáĭ°": 6196,
      "áĮłáĪ«áĪį": 6197,
      "ĠáĪµáĪĭáĪī": 6198,
      "áĭĪáĭĽ": 6199,
      "áĬ¥áĬĵ": 6200,
      "ĠáĬ¥áĬķáĭ°áĬĲáīłáĪŃ": 6201,
      "ĠáĮĬáĭľáĭįáĬķ": 6202,
      "ĠáĬłáĪµáĪŃáīµ": 6203,
      "áĪĬáĭµ": 6204,
      "ĠáĬ©áĪ½áĬĵ": 6205,
      "Ġáĭ³áĪŃ": 6206,
      "áįĮáĪŃ": 6207,
      "ĠáĬ¥áī£áĬŃáĪħ": 6208,
      "ĠáĭĪáĪŃáīħ": 6209,
      "ĠáĭĪáĪŃáĪĢáĭĬ": 6210,
      "Ġáĭ¨áĪįáĭ°áīµ": 6211,
      "ĠáĬłáĮįáĬĿáī¼": 6212,
      "ĠáĬłáĪľáĪªáĬ«áĭĬ": 6213,
      "Ġáĭ°áĮĭáįĬáĭİáī½": 6214,
      "áĪĭáĪĽáĭĬ": 6215,
      "ĠáīģáĪ³áīģáĪ¶áī½": 6216,
      "ĠáīłáĪĺáīĢáĮłáĪį": 6217,
      "ĠáĬłáĭįáĪ®áįķáĪĭáĬķ": 6218,
      "áī¥áĪ¨áī°áĪ°áī¡": 6219,
      "ĠáĬłáĪµáĬªáĭ«áĮħ": 6220,
      "ĠáĮ©áĬ¸": 6221,
      "Ġáīłáī½": 6222,
      "ĠáīłáĪ³áĭŃ": 6223,
      "ĠáĪĺáĭĽ": 6224,
      "áĪ«áĬķáīµ": 6225,
      "ĠáĭŃáĪĪ": 6226,
      "ĠáĬĲáįĭ": 6227,
      "áīĢáĪ³": 6228,
      "áīĢáĭ°áĭį": 6229,
      "ĠáĪĽáĪª": 6230,
      "ĠáĪĪáĪĺáĪ³áī°áįį": 6231,
      "ĠáĪµáĪĪáĪĿ": 6232,
      "Ġáĭ¨áĬłáĪģáĬĳ": 6233,
      "ĠáĪ³áĪĪ": 6234,
      "Ġáī¦áī³áĬķ": 6235,
      "Ġáĭ°áĪ¨áĮĥáĭİáī½áĬķ": 6236,
      "Ġáĭ¨áĪµáĬ³áĪŃ": 6237,
      "ĠáīµáĬķáĬķáĪ½": 6238,
      "áĮģáĪĭáĭŃ": 6239,
      "ĠáīĥáĪĭ": 6240,
      "ĠáĬªáīµ": 6241,
      "ĠáĬłáĭµáĬĵ": 6242,
      "Ġáī°áĮįáī£áĪ«áīµáĬķ": 6243,
      "áĭĪáĮ£áĭį": 6244,
      "ĠáįĪáīĥáĭ°áĬŀáī½": 6245,
      "ĠáĪ©áĮ«": 6246,
      "Ġáī°áĮ«áĭį": 6247,
      "Ġáĭ¨áĪļáī½áĪīáīµáĬķ": 6248,
      "áī¬áĪĿáīłáĪŃ": 6249,
      "áĪĪáĪĺáĭ°áĭį": 6250,
      "ĠáīłáĪµáī°áĮĢáĪŃáī£": 6251,
      "ĠáĪĿáĪ³áĪĮáĭİáī½": 6252,
      "ĠáĪĽáĬ«áī°áīµ": 6253,
      "ĠáĪĪáĭĺáĪĭáĪĪáĪĿ": 6254,
      "ĠáĬłáĮĭáĮ¥áĪŀ": 6255,
      "Ġáĭ«áĮłáīĥáĪįáĪĭáĪį": 6256,
      "ĠáĪĺáĮİáī¥áĬĺáīµ": 6257,
      "áĭİáī»áī½áĬķáĬķ": 6258,
      "áĪĽáĬĶ": 6259,
      "ĠáĪĪáĮī": 6260,
      "áīĢáī½": 6261,
      "ĠáĪµáĪĿáĬķáīµ": 6262,
      "ĠáĪĽáĪĪáįį": 6263,
      "áĬ¥áĭĽ": 6264,
      "ĠáĮįáĪ¬": 6265,
      "Ġáĭ¨áī°áĮĪáĬĺ": 6266,
      "áīłáĪŃáĬķ": 6267,
      "ĠáĬ«áĮĭáĮł": 6268,
      "áī²áĭ©áī¥": 6269,
      "Ġáī³áĭŃáĪĿ": 6270,
      "ĠáīłáĪĽáĭĺáĮĭáĮĢáīµ": 6271,
      "áĪ¸áĮ¡": 6272,
      "ĠáĪĺáĪµáįĪáĪŃáīµ": 6273,
      "ĠáĪļáĪľ": 6274,
      "ĠáĪŀáī°": 6275,
      "áįĪáĪĪáĮĭáī½áĪģ": 6276,
      "áĪ°áĪĽáĭİáīµ": 6277,
      "ĠáĪ³áĭŃáĬķáĪ³áĭĬ": 6278,
      "áĮłáīłáĪ°": 6279,
      "áįĮáĭ«áĪĪáĪģ": 6280,
      "Ġáĭ¨áī£áĪħáĪį": 6281,
      "áĮĪáĬĿáĪĿ": 6282,
      "ĠáĮŃáĬĲáīµ": 6283,
      "ĠáĪªáĪį": 6284,
      "ĠáĪĺáĪŃáĪĨ": 6285,
      "ĠáĬłáĪĿáĪ«áī¾áī½": 6286,
      "Ġáĭ¨áĬ®áĪĮáĮħ": 6287,
      "ĠáīłáĪĺáĮĢáĪĺáĪªáĭ«áĭį": 6288,
      "ĠáĪĺáĪĪáĭ«áĭİáī½": 6289,
      "Ġáĭ¨áĪļáĬ¨áī°áĪĪáĭįáĬķ": 6290,
      "ĠáĬ®áĪŃáĪ¶áī½": 6291,
      "ĠáĪĪáĮ¥áīĤáīµ": 6292,
      "ĠáĮģáĪĭáĭŃ": 6293,
      "ĠáĪĺáĬĲáĪ»": 6294,
      "ĠáĪįáī¦áĪĪáĭµ": 6295,
      "áĪªáī²áĪ½": 6296,
      "ĠáĪĺáįįáī³áīµ": 6297,
      "áĪ¨áĮ¡áīµ": 6298,
      "ĠáĪĪáĭĽ": 6299,
      "áĭ°áĬĵáīĤ": 6300,
      "ĠáĭŃáĬĲ": 6301,
      "ĠáĭŃáĬ¨áįį": 6302,
      "áĭµáĮĵ": 6303,
      "ĠáĬ¨áĬķ": 6304,
      "áĮłáĪĺ": 6305,
      "ĠáĪµáĮ¦": 6306,
      "Ġáī°áĬĲ": 6307,
      "áĪ½áĬ¨áĪ¨": 6308,
      "ĠáīĢáĪįáĭµ": 6309,
      "ĠáĬŃáĪŃáĪµáī²áĭ«": 6310,
      "ĠáĬ¥áĬķáĭ²áĪ°áĪ©": 6311,
      "ĠáĮĪáĭ¢": 6312,
      "áī¤áĬķ": 6313,
      "áĭ°áĪŃáĭ°": 6314,
      "ĠáĪħáĭĭ": 6315,
      "ĠáīłáĬ¥áĬķáĮįáĪĬáĭĿ": 6316,
      "ĠáĬķáĮī": 6317,
      "ĠáīģáĮłáī£": 6318,
      "ĠáĬ¤áįį": 6319,
      "ĠáĬłáĭŃáĭ°áĪį": 6320,
      "áĮłáīĢáĪĿáīłáīµ": 6321,
      "Ġáĭ¨áī£áĬķáĬŃ": 6322,
      "Ġáīłáĭ¨áĪ³áĪĿáĬķáī±": 6323,
      "Ġáĭ¨áĪļáĭ«áĪµáįĪáĪįáĮį": 6324,
      "ĠáīłáĪ°áĬłáīµ": 6325,
      "áīŃáĭ¥áĬķ": 6326,
      "ĠáĪĺáĪĪáĭ¨áīµ": 6327,
      "ĠáĪĺáĭµáĪ¨áĬ®áī½": 6328,
      "ĠáĭŃáĬĸáĪ«áĪī": 6329,
      "Ġáī°áĪĺáĪįáĪ¶": 6330,
      "áĭĺáĮĪáīłáĭį": 6331,
      "ĠáĮįáĪĪáĪ°áī¥": 6332,
      "ĠáĬłáĭµáĪŃáĮİáĬĽáĪį": 6333,
      "ĠáĬłáĪµáī³áĭįáĪ³áĪĪáĪģ": 6334,
      "Ġáī³áĪĽáĬĿáĬĲáīµ": 6335,
      "ĠáĭŃáĮįáī¡": 6336,
      "ĠáĮīáĭµáĮĵ": 6337,
      "ĠáĬ¨áĪ¨áĮ¢": 6338,
      "ĠáĬłáĭĺáĮĪáĮĥáĮĢáīµ": 6339,
      "ĠáĬ©áī£áĭ«": 6340,
      "Ġáĭ¨áįķáĪ¬": 6341,
      "áĭįáĮ£": 6342,
      "áĪĺáĪ°": 6343,
      "áī³áĭİáī½áĬķ": 6344,
      "áĭ°áĮĥ": 6345,
      "ĠáĭŃáĭŀ": 6346,
      "ĠáĬĲáĪĢáĪ´": 6347,
      "áĭµáĬ©": 6348,
      "Ġáī°áĪ°áĪĽáĬĿ": 6349,
      "ĠáĪĽáĮ¨": 6350,
      "áĪ®áĭİáī½": 6351,
      "áĭĬáīµ": 6352,
      "áĪ»áĪĬ": 6353,
      "ĠáīłáĪĺáĪ¨áĮĥ": 6354,
      "áī¢áĬĶ": 6355,
      "áįĬáĭ«áĭİáī½": 6356,
      "áĮİáĭ±": 6357,
      "áīĭáĬķáīĭ": 6358,
      "ĠáĬ¥áĭ«áĪ°áī¥áĬ©": 6359,
      "ĠáĮ¨áĪĿáĪ¯áĪį": 6360,
      "ĠáīłáīĢáĪŃ": 6361,
      "Ġáĭ³áĬķáĪµ": 6362,
      "Ġáĭ¨áĮįáĭ¢": 6363,
      "ĠáĪ¨áĭĺáĪĿ": 6364,
      "Ġáįĭáī¥áĪªáĬ«": 6365,
      "ĠáīłáĪ¨áĬķáĭ³": 6366,
      "Ġáīłáĭ©áĬ¤áĪµ": 6367,
      "áĭł": 6368,
      "Ġáĭ¨áĬŃáĪįáĪį": 6369,
      "áĪįáī°áĬķ": 6370,
      "ĠáĪĺáĬĸ": 6371,
      "áī³áĭįáĬķ": 6372,
      "áĪ«áĪª": 6373,
      "áĪ«áīĤ": 6374,
      "ĠáĬ¨áĪ±": 6375,
      "Ġáī°áĭ°áĮĭáĮĭáĪļ": 6376,
      "ĠáĪĭáĪĭáī¸áĭį": 6377,
      "Ġáĭ¨áĪļáĮĪáĪįáįħ": 6378,
      "ĠáĪĪáĪĺáīħáĪ¨": 6379,
      "ĠáĪįáĮ¥áįİáī½": 6380,
      "Ġáĭ¨áĪĺáĬ¨áĪĭáĬ¨áĭ«": 6381,
      "áĪĢáĪĪáĪģ": 6382,
      "áĮĥáĭİáī½": 6383,
      "áĭ²áĪħ": 6384,
      "ĠáĬ«áĮĪáĬĺ": 6385,
      "ĠáĬ¥áĬķáĭ°áĪļáīĢ": 6386,
      "ĠáīłáĪĽáĬķ": 6387,
      "ĠáĭĺáĪĺ": 6388,
      "áĬ¤áī½": 6389,
      "áī¤áīµáĬĲáīµ": 6390,
      "ĠáĬłáĪµáįĪáĪĭáĮĬáĭį": 6391,
      "ĠáĭĭáĮĭáĭį": 6392,
      "áįĪáĪįáĮīáīµ": 6393,
      "Ġáī´áĪ«áįĴ": 6394,
      "áĬķáĭ°áĪµáīµáĪª": 6395,
      "áĪĭáĭĬáĬĲáīµ": 6396,
      "áĪµáī²áĬķ": 6397,
      "ĠáĭĪáĮªáĭİáī½áĬķ": 6398,
      "Ġáĭ¨áĪŀáīµ": 6399,
      "áĭŃáĬĲáĪĺáĪ¨áī¥": 6400,
      "áĪ«áĬķáĪµáįĸáĪŃáīµ": 6401,
      "ĠáĬłáĪĭáĪĽáĭİáī½": 6402,
      "ĠáĮĪáīłáĭ«áĭİáī½": 6403,
      "Ġáĭ¨áĪļáĭ«áĪ³áĭ©": 6404,
      "ĠáĬķáĬŃáĬª": 6405,
      "ĠáĪĺáĪµáī°áĮĭáī¥áĪŃ": 6406,
      "Ġáĭ¨áĭ°áĪ¨": 6407,
      "Ġáĭ¨áįĶ": 6408,
      "Ġáĭ¨áī»áĭŃáĬĵ": 6409,
      "ĠáĬ¥áĮĪ": 6410,
      "ĠáĬ¥áĪĺáĪŃ": 6411,
      "ĠáĬ¥áĮłáī¥": 6412,
      "ĠáīłáĪĬ": 6413,
      "áĭŃáĪµ": 6414,
      "áĭ«áĪĿ": 6415,
      "ĠáĪĺáĮĪáī£": 6416,
      "áĭİáī»áī¸áĭįáĬķ": 6417,
      "áĭµáĪĿ": 6418,
      "áĪ°áī¦áī½áĬķ": 6419,
      "Ġáĭ«áĮĪáĪĪ": 6420,
      "Ġáĭ«áī¥áĪ«": 6421,
      "Ġáī°áĬķáĬ¨áī£": 6422,
      "Ġáĭ¨áĪļáĭ°áĪ¨áĮī": 6423,
      "Ġáĭ¨áī°áĮłáīĢ": 6424,
      "ĠáĪĪáĪĺáĪĭáĬŃ": 6425,
      "ĠáĪĬáĪĪ": 6426,
      "áĪŀáĪī": 6427,
      "Ġáī³áĪµ": 6428,
      "ĠáĬ¥áĭ¨áī³": 6429,
      "ĠáĬĵáīµ": 6430,
      "ĠáĬ¥áĪµáĬ«áĪį": 6431,
      "ĠáīłáĪµáĪŃ": 6432,
      "áĬ«áīµáīµ": 6433,
      "áĪŀáĬŃáĪ«áĪ²": 6434,
      "áī«áĬķ": 6435,
      "Ġáĭ¨áįĪáĪ¨áĬķáĪ³áĭŃ": 6436,
      "ĠáīłáĪ¨áĪ«": 6437,
      "ĠáīĢáĮ¥áĪİ": 6438,
      "ĠáĪµáī¥áĪ°áī£áĭİáī½": 6439,
      "ĠáĭįáĪµáĮ£áĭĬ": 6440,
      "ĠáĪ°áĬĲáĭµ": 6441,
      "Ġáī¡áĬĵáĪĽ": 6442,
      "ĠáĬłáĪµáī°áĭ³áĭ³áĪªáĭİáī½": 6443,
      "Ġáī³áĭ³áĮĬ": 6444,
      "áĪªáĮħáĬĵáĪį": 6445,
      "ĠáĬ¥áĭ¨áĪŀáĬ¨áĪŃáĬ©": 6446,
      "ĠáĬłáĪµáĬ¨áįĬ": 6447,
      "ĠáīµáĪĭáĬķáīµ": 6448,
      "áī¥áĪµáĬŃáĪĮáīµ": 6449,
      "ĠáĪĺáĮĪáī£áĭ°áĮĥ": 6450,
      "áĪŃáĬĵáĪį": 6451,
      "ĠáĬłáĬĲáĪ³": 6452,
      "ĠáĬłáĭ°áĪ¨áĮį": 6453,
      "ĠáĬłáīłáĪ¨áī³": 6454,
      "áĭŃáĭŃáīµ": 6455,
      "ĠáĭŃáĪĪáĭ«": 6456,
      "áīħáĪį": 6457,
      "ĠáĪµáĪŀáī½": 6458,
      "ĠáĪĪáĪĺáĭ°áĪ°áīµ": 6459,
      "ĠáīłáĬłáĮĭ": 6460,
      "ĠáīłáĬłáĬ«áī£áī¢": 6461,
      "ĠáĪĢáĭ«": 6462,
      "Ġáīħáĭ°áĪĿ": 6463,
      "ĠáĪĺáĪµáī³áĭĪ": 6464,
      "ĠáĪµáĪ«áĬķ": 6465,
      "ĠáĬ¤áĪĮáĬŃáīµáĪªáĬŃ": 6466,
      "ĠáĪļáĪµáīµ": 6467,
      "Ġáī¤áīµáĭİáĬķ": 6468,
      "áī·áī¸áĭĭáĪį": 6469,
      "ĠáĬłáĬ«áĪĦáĭµ": 6470,
      "ĠáĬ¦áĪŃ": 6471,
      "áī½áĪģáĬķ": 6472,
      "ĠáīłáĪŃáīłáĪ¬": 6473,
      "ĠáĪĪáĪµáĪ«": 6474,
      "ĠáĪĺáĭµáĪ¨áĪµ": 6475,
      "ĠáĪĺáĮ£áĭ«": 6476,
      "ĠáĬ«áĪĪáįĪáĭį": 6477,
      "ĠáīłáīłáĪĪáĮł": 6478,
      "ĠáīłáĭįáĮ¤": 6479,
      "Ġáĭ¨áįĸáĪĬáĪµ": 6480,
      "ĠáĬłáĪ¸áĬķ": 6481,
      "ĠáĭĪáĪĭáĮĨ": 6482,
      "ĠáĬ¥áĪ«áĪµáĪħáĬķ": 6483,
      "ĠáĬłáĭįáī¶áĪĽáī²áĬŃ": 6484,
      "ĠáĬłáĭµáĪŃáĮİáī³áĪį": 6485,
      "áĭĪáĮįáĭ±": 6486,
      "ĠáĪįáĭįáĭįáĮ¥": 6487,
      "Ġáī°áĮįáĭ³áĪ®": 6488,
      "ĠáĬ¥áĮłáīĢáĪĽáĪĪáĪģ": 6489,
      "Ġáī§áĬķáī§": 6490,
      "Ġáĭ¨áīĥ": 6491,
      "Ġáĭ¨áī¥áĪİáĮį": 6492,
      "ĠáĬ¥áĮ£": 6493,
      "ĠáĬ¥áĪ´áī¶áī½": 6494,
      "áī¥áĪĭáīµ": 6495,
      "ĠáĭŃáįĭ": 6496,
      "ĠáĬ¨áĬĲ": 6497,
      "ĠáĪĽáĭ«": 6498,
      "ĠáĪĽáĮłáīĥáĪĪáĭ«": 6499,
      "áįĪáĮłáĪ©": 6500,
      "áĮ£áī¥": 6501,
      "Ġáĭ¨áĪļáĭĪáĪµ": 6502,
      "Ġáĭ¨áĪļáĭ°áĮį": 6503,
      "ĠáĬ¥áĬķáĭ°áĬĲáīłáĪ¨": 6504,
      "ĠáĪĪáĪĽáīĨáĪĿ": 6505,
      "ĠáīłáĪĺáĮł": 6506,
      "Ġáĭ¨áĪĺáĪĽáĪªáĭ«": 6507,
      "ĠáĬ«áĪ®": 6508,
      "áīģáĬķ": 6509,
      "áĬ®áĪ«": 6510,
      "áĪµáīµáĪ®": 6511,
      "áĬĴáĭ¨áĪŃ": 6512,
      "ĠáīłáĪļáĪį": 6513,
      "Ġáĭĭáĭį": 6514,
      "áįİáĪĬáĭ®": 6515,
      "ĠáįĪáĪ¨áĬķáĪ³áĭŃ": 6516,
      "áīĢáĮ¥áĪī": 6517,
      "áĪ¯áī¸áĭį": 6518,
      "ĠáĪĺáįħáĪĢáįİáī½": 6519,
      "Ġáĭ«áĪ³áĭµ": 6520,
      "áĮįáĭ³áĪį": 6521,
      "Ġáīłáĭ°áĪħáĬĵ": 6522,
      "áĪĺáĪĪáĬ¨áī°áĭį": 6523,
      "ĠáĭŃáĪ¨áĭ³áĭİáī³áĪį": 6524,
      "ĠáĬłáĮ¥áī¥": 6525,
      "Ġáĭ¨áĭ°áĬķáīłáĬŀáī½": 6526,
      "ĠáĮĪáī¥áī·áĪį": 6527,
      "ĠáĪ°áĪ«áī°áĬŀáī½áĬķ": 6528,
      "ĠáĭŃáĪĭáĬ©": 6529,
      "ĠáĪ¶áĪµáī°áĬĽáĭį": 6530,
      "ĠáĭĪáĪ°áĬķáĬ©": 6531,
      "ĠáĬ¨áĮĵáĭ°áĬŀáī½": 6532,
      "ĠáĪĨáī´áĪİáī½": 6533,
      "ĠáĬłáĮĪáĬĽáĪĪáĪģ": 6534,
      "ĠáīĢáĭ°áĪĿáīµ": 6535,
      "ĠáĬ¥áĪ°áĪ«": 6536,
      "ĠáĬ¥áĮ¥áįį": 6537,
      "ĠáīłáĮĵ": 6538,
      "ĠáĬłáĪ»áĬķáĮī": 6539,
      "áĪĽáĪµ": 6540,
      "ĠáĪĪáĮĵ": 6541,
      "áĪ°áīłáĭį": 6542,
      "áī£áī¸áĭĭáĪį": 6543,
      "Ġáĭ«áĭ°áĪ¨áĮī": 6544,
      "áĪªáĬķáĮį": 6545,
      "áĬ«áĬĿ": 6546,
      "áĬ«áįĪáĪį": 6547,
      "áī¶áī³áĪį": 6548,
      "ĠáĪĪáĪĺáĮ¨áĪ¨áĪ»": 6549,
      "ĠáĪįáĬ¡": 6550,
      "ĠáĪµáĪĪáĪĨáĬĳ": 6551,
      "ĠáĭµáĪ«áĭŃ": 6552,
      "ĠáĬ«áĪĬáįİáĪŃáĬĴáĭ«": 6553,
      "Ġáĭ¨áĬłáĭŃáĬķ": 6554,
      "Ġáīłáī°áĬ¨áī³áī³áĭŃ": 6555,
      "áīłáĪ¨áĪ«": 6556,
      "ĠáĪĨáĬĵ": 6557,
      "áĪŃáĮįáĭĿáĬĵ": 6558,
      "ĠáīłáĮ¥áīħáĪĿáīµ": 6559,
      "Ġáĭ¨áĪĽáĭŃáī»áĪį": 6560,
      "ĠáĬłáĪĪáĪĿáĬłáīĢáįį": 6561,
      "áįĨáī³": 6562,
      "áĪģáĪĪáī±": 6563,
      "Ġáī½áĮįáĪ©": 6564,
      "áĪĺáī»áī¸áīµ": 6565,
      "ĠáīłáĪįáĮħ": 6566,
      "Ġáĭ¨áĪļáĬ¨áī°áĪīáīµ": 6567,
      "áīĢáĪ¨áīł": 6568,
      "Ġáĭ°áĪµáī³áĬķ": 6569,
      "ĠáĪĺáĮĪáĬĺáīµ": 6570,
      "ĠáĪĪáĪĺáĪĪáĭĪáĮ¥": 6571,
      "ĠáĮĪáĭ°áī¦áī½": 6572,
      "Ġáĭ¨áĮŃáĬĲáīµ": 6573,
      "áī»áī½áĪģáĬķ": 6574,
      "Ġáĭ¨áĬ¥áĭµáĪľ": 6575,
      "áĭĭáĪĢáĭµ": 6576,
      "ĠáĪµáī¥áĪµáī¦áī½": 6577,
      "Ġáī°áĮİáĮĤ": 6578,
      "ĠáĮ¥áīħáĪĽáĮ¥áīħ": 6579,
      "ĠáįįáĬķáĮŃ": 6580,
      "ĠáįĮáĪµáī²áī«áĪį": 6581,
      "ĠáĪļáĬĴáĪµáī´áĪŃ": 6582,
      "áīµáĬĵ": 6583,
      "Ġáĭ¨áĪ¬": 6584,
      "Ġáĭ¨áĮįáĪ«": 6585,
      "ĠáĪĺáīĨáĮ£áĮłáĪŃ": 6586,
      "ĠáĬ¨áĭĺ": 6587,
      "Ġáĭ«áĪĪáĪĿ": 6588,
      "Ġáĭ«áĭĺáĮĭáĮģ": 6589,
      "áĪ³áīµáĬķ": 6590,
      "áĮ£áī¸áĭį": 6591,
      "ĠáĮįáĪį": 6592,
      "Ġáĭ¨áī°áĪ¨áĮĭáĮĭ": 6593,
      "ĠáĪĪáĪĺáĭĭ": 6594,
      "ĠáĪĪáĪĺáĮ«áĭĪáīµ": 6595,
      "ĠáĪĪáĪĺáĮİáī¥áĬĺáīµ": 6596,
      "ĠáĪĪáĪĽáĭ³áīłáĪŃ": 6597,
      "ĠáīłáĬ¥áĭµ": 6598,
      "ĠáĪ³áĭ«": 6599,
      "ĠáĪģáĪīáĬķ": 6600,
      "ĠáįĪáĪ¨": 6601,
      "ĠáĬ®áĬ¨": 6602,
      "ĠáīłáĭļáĪħáĪĿ": 6603,
      "ĠáĬ¤áī½": 6604,
      "áĭ«áĭįáīħ": 6605,
      "Ġáĭ¨áī³áī½": 6606,
      "áĬ©áĪįáĬķ": 6607,
      "áī§áĬķáī§": 6608,
      "Ġáīłáĭ°áĬķáīł": 6609,
      "ĠáĪĨáĬĲáĭĭáĪį": 6610,
      "áīłáĪ¨áī³áī³áīµ": 6611,
      "áĬ¨áī³áī°áĪī": 6612,
      "Ġáĭ¨áĬ¢áĬķáī¨áĪµáīµáĪĺáĬķáīµ": 6613,
      "áĬķáĬ¨áī£áĬ¨": 6614,
      "Ġáĭ¨áĭ³áĪ°áĪ³": 6615,
      "ĠáĪĪáĪįáĮĨáī½": 6616,
      "Ġáĭ¨áĪļáĪĺáĪµáĪī": 6617,
      "ĠáĪĺáĮĪáĪĪáĮ«": 6618,
      "ĠáĪĺáĭ°áī¥áĪ®áī½": 6619,
      "Ġáīłáī°áĭ«áĭ«áĭĺ": 6620,
      "ĠáĬĲáīłáĪ«áī¸áĭį": 6621,
      "ĠáįķáĪ®áĮĦáĬŃ": 6622,
      "ĠáĪ³áĬķáī²áĪĿ": 6623,
      "ĠáĬłáĪ°áĮ£áĮ¥": 6624,
      "ĠáīłáĪ«áĪ³áī¸áĭį": 6625,
      "ĠáĬłáĬĲáĮĭáĮĪáĪŃ": 6626,
      "ĠáĬłáĪ°áīĥáīĤ": 6627,
      "ĠáĪĺáĬķáĭ°áĪŃ": 6628,
      "áĪ¨áĬ«": 6629,
      "ĠáĪĪáįĪ": 6630,
      "ĠáĭŃáĮłáī¥áīģ": 6631,
      "áī£áĪªáĭİáī½": 6632,
      "Ġáĭ«áĭ°áĪ¨áĮį": 6633,
      "ĠáĪµáĬķáīµ": 6634,
      "ĠáĪµáĪļáĭĿ": 6635,
      "Ġáī°áĮŃ": 6636,
      "ĠáĪĽáĪŃáĬŃ": 6637,
      "ĠáĪĽáĮĪáĬĵáĬĽ": 6638,
      "Ġáĭ¨áĪļáĪ°áĮ¡": 6639,
      "Ġáĭ¨áĪĺáĪĪ": 6640,
      "áĮ¨áĬĲáīģ": 6641,
      "áĭĺáĭĭáĪį": 6642,
      "ĠáĪ²áĪĦáĭµ": 6643,
      "áĮŃáīĨ": 6644,
      "ĠáīłáĬ¥áĬķ": 6645,
      "áĬĵáĪįáĭµ": 6646,
      "Ġáī¢áīµ": 6647,
      "áįİáĭŃáī³": 6648,
      "ĠáĪļáĭ²": 6649,
      "Ġáĭ«áĪµáĭ°": 6650,
      "áī£áĬķáĭ«áĭį": 6651,
      "ĠáĪľáĭŃ": 6652,
      "Ġáĭ¨áī£áī¡áĪŃ": 6653,
      "Ġáĭ©áĬ¤áĪµ": 6654,
      "ĠáĬ¥áĬķáīħáĪµáīĥáĪ´áĬķ": 6655,
      "ĠáīłáĪĿáĬ¥áĪ«": 6656,
      "ĠáĪĪáĪĽáĪµáīĢáĪĺáĮ¥": 6657,
      "ĠáĬŃáĪįáĪİáī½": 6658,
      "Ġáī£áĭŃáĪĨáĬķáĪĿ": 6659,
      "Ġáī°áīĥáĭįáĪŀ": 6660,
      "ĠáĮłáįįáĮ£áįĭ": 6661,
      "Ġáĭ¨áįķáĪĭáĪµáī²áĬŃ": 6662,
      "ĠáĬ¬áĪļáĬ«": 6663,
      "áįĢáĭ³áĮĥ": 6664,
      "Ġáĭ«áĪµáĬ¨áīµáĪĭáĪį": 6665,
      "Ġáĭ¨áĪĭáĭŃ": 6666,
      "ĠáīłáĪ®áī½": 6667,
      "ĠáīłáĪģáĪĪáī°áĬĽáĭį": 6668,
      "áĪĿáĮĪáĪĽ": 6669,
      "áĪĪáĪª": 6670,
      "ĠáĪĺáĪ»áĪ»áĪį": 6671,
      "áĬĲáĪ»": 6672,
      "ĠáĪĪáī¤áī°áĪ°áī¥": 6673,
      "ĠáĬ¨áīģ": 6674,
      "ĠáĬ¨áī¤áī°": 6675,
      "áĪ³áī¸áĭį": 6676,
      "áĮĭáĪ©": 6677,
      "ĠáĪįáĮĪáĪ³": 6678,
      "ĠáīłáĬłáīµ": 6679,
      "ĠáĪħáĪĬáĬĵ": 6680,
      "Ġáĭ¨áĪĽáĬ¥": 6681,
      "ĠáĪŀáīħ": 6682,
      "ĠáĪĪáĬłáĬķáĭ³áĬķáĭµ": 6683,
      "áįģáĬķ": 6684,
      "ĠáįĸáĪŃ": 6685,
      "ĠáįĸáĪŃáīµ": 6686,
      "ĠáįĭáĭįáĬķáĭ´": 6687,
      "ĠáĪįáĮħáĭİ": 6688,
      "ĠáĪĽáĬ¥áĬ¨": 6689,
      "ĠáįĮáĪµáī¡áĬŃ": 6690,
      "ĠáĪ°áĮªáĭİáī½": 6691,
      "Ġáī°áĪĺáĪ«áĪĽáĪªáĭİáī½": 6692,
      "ĠáĭĪáĬªáĪį": 6693,
      "ĠáĬ®áĪĿáįĴáĭįáī°áĪŃ": 6694,
      "ĠáĪĪáĪĽáĬķáĪ³áīµ": 6695,
      "Ġáĭ¨áĮĢ": 6696,
      "áĪµáĪĬ": 6697,
      "Ġáīłáĭ¶": 6698,
      "Ġáīłáī´áĬŃ": 6699,
      "ĠáīłáĪĢáĭŃ": 6700,
      "áĭŃáĪ©": 6701,
      "áĪĭáĪ°áĪį": 6702,
      "ĠáĪĺáĪĪáĮłáįį": 6703,
      "ĠáĪĪáĭµ": 6704,
      "áī¥áĬļ": 6705,
      "ĠáĭŃáĪŀáĬŃ": 6706,
      "ĠáĭŃáĮ«áĭĪ": 6707,
      "ĠáĬĲáĭ³áĮħ": 6708,
      "ĠáĭĪáĬķáĭĿ": 6709,
      "ĠáĪĪáĪĺáĭ°": 6710,
      "ĠáĪĪáĪĺáīĨ": 6711,
      "ĠáĪĪáĪĺáīĨáĭ¨áīµ": 6712,
      "ĠáĪĬáĪ°áĮ¥": 6713,
      "áįĭáĪĪáĪģ": 6714,
      "ĠáĬ¥áĬķáĭ²áĬĸáĪ«áī¸áĭį": 6715,
      "Ġáĭ¨áĬłáĬŃáĪ²áĭ®áĬķ": 6716,
      "Ġáĭ¨áĪµáįĸáĪŃáīµ": 6717,
      "ĠáīłáīĢáĪµ": 6718,
      "áĪħáĬķáįĥ": 6719,
      "Ġáĭ²áĪ²": 6720,
      "ĠáĬ¥áĬķáĭ³áĪĪáī£áī¸áĭį": 6721,
      "ĠáĪĽáĪµáī°áĪĽáĪŃ": 6722,
      "Ġáĭ¨áĪįáĮĨáī½": 6723,
      "Ġáī²áĭ«áīµáĪŃ": 6724,
      "ĠáĬŃáįįáĭ«áĭİáī½áĬķ": 6725,
      "ĠáĪµáĪŃáĬłáī°": 6726,
      "ĠáĮĤáĪĿ": 6727,
      "ĠáĪĺáī°áĮįáīłáĪªáĭ«áĭİáī½": 6728,
      "ĠáīłáĬ¥áĮħáĮī": 6729,
      "Ġáĭ°áĪ¨áīħ": 6730,
      "ĠáĭµáĪŃáĮĬáīµ": 6731,
      "ĠáĬ¥áĬķáĭ°áĪĿáĬķáī½áĪį": 6732,
      "Ġáĭ¨áĪªáĪį": 6733,
      "Ġáĭ¨áįįáīµ": 6734,
      "áĪįáīłáīµ": 6735,
      "áĮĪáĬĵáĪį": 6736,
      "ĠáĪĪáĪ«áĪµ": 6737,
      "áĪ«áĪĺáĭµ": 6738,
      "ĠáĭŃáĪ»": 6739,
      "áįįáĬĵ": 6740,
      "Ġáĭ«áĪħ": 6741,
      "Ġáī°áĭĺáĮį": 6742,
      "ĠáĪĽáįħáĭ³áīµ": 6743,
      "ĠáĭįáĪİáī½": 6744,
      "ĠáīłáĪĺáĮĪ": 6745,
      "Ġáī³áĬ«áĪļ": 6746,
      "áĬªáĭį": 6747,
      "ĠáĬ¥áĪµáĪĽáĪĽ": 6748,
      "ĠáĬłáĪµáī°áĪĽáĪªáĭİáī½": 6749,
      "ĠáĬłáĬķáĭ³áĬķáĭ¶áī½": 6750,
      "Ġáĭ²áĭ«": 6751,
      "ĠáĪľáĬ«": 6752,
      "áĪµáī°áĬĽáĭį": 6753,
      "ĠáīłáĪµáĬĲ": 6754,
      "ĠáīłáĪħáĮį": 6755,
      "Ġáĭ¨áĭĺáĪŃ": 6756,
      "ĠáĪµáī³áī²áĪµáī²áĬŃáĪµ": 6757,
      "áĪĭáĪĪáįĬáĭ«": 6758,
      "áĬ«áī°áī±": 6759,
      "Ġáī°áĮ¨áī£áĮŃ": 6760,
      "ĠáĭŃáĬ¨áī°áĪī": 6761,
      "ĠáĪĪáĪ½áĭ«áĮŃ": 6762,
      "Ġáĭ¨áĮįáĬķáĬĻáĬĲáīµ": 6763,
      "ĠáĬ¥áĪµáĪĽáĪĽáĪĪáĪģ": 6764,
      "áĬķáī´": 6765,
      "Ġáĭ¨áĭµáĪ¨": 6766,
      "ĠáĬłáĪ°": 6767,
      "áĪĺáĪįáĪµ": 6768,
      "áĭ«áī¸áĭįáĬķ": 6769,
      "áĪħáįĪáīµ": 6770,
      "ĠáĭŃáĬķáĮĪ": 6771,
      "áĪªáĪµáīµ": 6772,
      "ĠáĪĽáĪĿ": 6773,
      "ĠáĪĽáĪĿáĮ£áīµ": 6774,
      "Ġáĭ¨áī°áĮįáī£áĪŃ": 6775,
      "Ġáī£áĪĭáī¸áĭį": 6776,
      "ĠáīłáĪĺáĪĺ": 6777,
      "áĬĳáīµ": 6778,
      "ĠáĪĬáĭĪáĪµáĭµ": 6779,
      "ĠáĬ¥áĬķáĪ°áĮ£": 6780,
      "áĪŃáĪµáī¶áĪµ": 6781,
      "ĠáĬłáĬķáĭµáĪĿ": 6782,
      "ĠáĬ®áĪľ": 6783,
      "ĠáĪŀáīĥáī³áĪĽ": 6784,
      "ĠáĬ¦áĪŃáĮĭáĬĴáĬŃ": 6785,
      "ĠáĬ¦áĪªáĮħáĬĵáĪį": 6786,
      "ĠáĪ½áĭ«": 6787,
      "ĠáĬłáī¥áĪ¨áĬķ": 6788,
      "ĠáĪ´áĬķáīµ": 6789,
      "ĠáĪ«áĪ±": 6790,
      "ĠáĪµáĪľáīµáĬķ": 6791,
      "áĭĿáĬĵáī¥": 6792,
      "ĠáīłáīµáĬŃáĬŃáĪĪáĬĽáĭį": 6793,
      "ĠáĮīáĭŀáĭİáī½": 6794,
      "ĠáĬ¥áĬķáĭ°áī°áĬĵáĮĪáĪ©áīµ": 6795,
      "ĠáĪ±áīĨáī½": 6796,
      "Ġáĭ¨áĬĲáĪŃ": 6797,
      "ĠáĪĺáĮįáĪĪáįħ": 6798,
      "ĠáĪĪáĪĽáĪ³áĬ«áīµ": 6799,
      "ĠáĮįáĪ«áĪĿ": 6800,
      "áĮłáī£áīłáīĥ": 6801,
      "Ġáīłáī¥áĭĽáīµ": 6802,
      "ĠáīłáĮĪáĬķáĭĺáī¥": 6803,
      "Ġáī±áī¦": 6804,
      "ĠáĪµáĮĭáī¶áī½": 6805,
      "ĠáīĭáĬķáīĭáĭİáī½": 6806,
      "Ġáī°áīĢáĪĿáĮ§áĪį": 6807,
      "ĠáĪµáĪħáī°áī¶áī½": 6808,
      "ĠáĬłáįķáĪĬáĬ¬áĪ½áĬĸáī½": 6809,
      "ĠáĬ¦áįĬáĪ´áĪĭáĭĬ": 6810,
      "ĠáĬłáĬķáĮĢáĪĪáĪµ": 6811,
      "ĠáĬ¢áĬķáĭ±áĪµáīµáĪªáĭİáī½": 6812,
      "ĠáĬ¥áĪ«áĪ³áī½áĬķáĬķ": 6813,
      "áĪĪáīĨ": 6814,
      "áĭŃáĪŃ": 6815,
      "áī°áĬĲ": 6816,
      "ĠáĪĺáĬ«": 6817,
      "ĠáĪĺáĬ¨áī°áĪį": 6818,
      "áĪ¨áĭįáĬķ": 6819,
      "áĪĽáĪĿáĪ©": 6820,
      "áī³áīµáĬķ": 6821,
      "ĠáĪĪáĬ®": 6822,
      "áī¥áĭİ": 6823,
      "ĠáĪĽáĮŃáīłáĪŃáīłáĪŃ": 6824,
      "Ġáī¥áĪ¬": 6825,
      "ĠáĮįáĮŃáīµ": 6826,
      "áĪİáĮį": 6827,
      "Ġáĭ¨áī°áĭĺ": 6828,
      "ĠáĪĪáĪĽáĪµáī³áĭĪáĪµ": 6829,
      "ĠáĪĪáĪĽáĮĪáĭĿ": 6830,
      "Ġáĭ¨áĪĺáįħáĪĢáįį": 6831,
      "ĠáĮĭáī¥áī»": 6832,
      "áī¤áī±": 6833,
      "ĠáĪħáĬķáĭµ": 6834,
      "ĠáīłáĬ¥áĬĲáĭļáĭ«": 6835,
      "Ġáĭ¨áĪĽáĮ£": 6836,
      "ĠáĪĨáĬķ": 6837,
      "ĠáĪģáĬĶáī³áĬķ": 6838,
      "ĠáīłáīĢáĬĿ": 6839,
      "ĠáĮ£áĪªáĭ«": 6840,
      "ĠáĮİáĪ¨": 6841,
      "ĠáĬ¥áĪ·áĪĿ": 6842,
      "ĠáĪ»áĪĿáįĴ": 6843,
      "áĬ¨áĬĵáĭį": 6844,
      "Ġáĭ¨áĪ«áĪ´áĬķ": 6845,
      "ĠáīłáĪ«áĪµáĭİ": 6846,
      "ĠáīµáĪŃáĬ¢áī¶áī½": 6847,
      "ĠáįĪáī°áĬĵáĭİáī½": 6848,
      "áĬ®áīµáĪĭáĬķáĭµ": 6849,
      "áĪĺáĪįáĮ¥": 6850,
      "áĮĭáī¢áīµ": 6851,
      "ĠáīĢáĭµáĪŀáĭįáĬĳ": 6852,
      "ĠáīħáĪ¬áī³": 6853,
      "ĠáĪµáĮ¦áī³áĭİáī½": 6854,
      "Ġáĭ¨áĬķáĮį": 6855,
      "áĪŃáĪŀ": 6856,
      "ĠáīłáĮĨ": 6857,
      "ĠáĬłáĭĭ": 6858,
      "ĠáĬłáĪŀ": 6859,
      "áĪĪáĪ½": 6860,
      "áĪĺáī°": 6861,
      "áĬķáĭ·": 6862,
      "ĠáĭŃáĪŀ": 6863,
      "ĠáĭŃáīĢáĪŃ": 6864,
      "ĠáĬ¨áĮī": 6865,
      "ĠáĬ¨áī¡": 6866,
      "ĠáĬ¨áįĪáĪĪáĮį": 6867,
      "ĠáĬ¨áīłáĪŃáĬ«áī³": 6868,
      "Ġáĭ«áĭ°áĪŃáĮī": 6869,
      "áĪİáĬĴ": 6870,
      "ĠáĮ¥áĬķáī³áĭĬ": 6871,
      "ĠáĪĪáĪĺáįĪáĪĪáĮį": 6872,
      "Ġáī£áĬĲáĪ°": 6873,
      "ĠáĭĪáĭ°áī¥": 6874,
      "ĠáĪĬáĬĸáĪ«áī¸áĭį": 6875,
      "ĠáĮĪáįĨáī½áĬķ": 6876,
      "ĠáĪħáīµáĪĺáīµ": 6877,
      "áĪ²áĪµ": 6878,
      "ĠáĪĨáĬľ": 6879,
      "áĮĨáī³": 6880,
      "áĪ°áī¥áĬłáĭĬ": 6881,
      "ĠáĬ¤áĮįáĭļáī¢": 6882,
      "ĠáĬ¥áĭµáĪĭáī¸áĭį": 6883,
      "ĠáĬ¥áĭµáĪīáĬķ": 6884,
      "Ġáĭ¨áĪµáĮ¦áī³": 6885,
      "áĬ¬áī¶áī½áĬķ": 6886,
      "ĠáĬłáĬķáįĢáī£": 6887,
      "áĭ°áĪŃáĮĭáī¸áĭį": 6888,
      "ĠáįĢáĮī": 6889,
      "áĭĿáĬĵáĬĵ": 6890,
      "Ġáĭ°áĬķáīłáĬĽáĭį": 6891,
      "ĠáĬ«áĪįáĪĨáĬĳ": 6892,
      "ĠáĪĦáĭ°": 6893,
      "áĪ°áĮ¥áĪĿ": 6894,
      "ĠáĮįáī¥áĭ£": 6895,
      "Ġáīªáĭ²áĭ®áĭİáī½áĬķ": 6896,
      "ĠáĪĿáĪ½áī±": 6897,
      "ĠáīłáĮīáĭŀ": 6898,
      "ĠáĬłáįįáīĥ": 6899,
      "ĠáĬŃáī¥áĭ°": 6900,
      "ĠáĪĽáĮ¥áįĭáīµ": 6901,
      "ĠáīģáĪ³áīģáĪ¶áī½áĬķ": 6902,
      "Ġáī´áĬŃáĬĴáĬ«áĪį": 6903,
      "ĠáīģáĪŃáĮłáĬĽ": 6904,
      "Ġáĭ¨áĪŃáīĢáīµ": 6905,
      "Ġáī£áĬķáĬ®áī½": 6906,
      "Ġáī£áĪĪáĪĢáī¥áī¶áī½": 6907,
      "ĠáĪĺáĪµáī³áĭĪáīµ": 6908,
      "ĠáĬłáĬķáįĢáī£áĪ«áīĤ": 6909,
      "ĠáīłáĭĪáīħáī±": 6910,
      "ĠáĬłáĭ¨": 6911,
      "áĭŃáī°áĭį": 6912,
      "ĠáĭŃáĮĭ": 6913,
      "áĬŃáĪŃáĪµáī²áĭ«áĬķ": 6914,
      "áīĢáīłáĪį": 6915,
      "Ġáī°áī¥": 6916,
      "áī¶áī¼": 6917,
      "Ġáĭ¨áĪļáĪĺáĮ¡": 6918,
      "ĠáĮ¥áĪĿáĪŃ": 6919,
      "ĠáĬŃáĪª": 6920,
      "áĪĬáī²": 6921,
      "áĪµáī°áĬĵáĮĪ": 6922,
      "ĠáīłáĪĽáĬ¥": 6923,
      "ĠáĬłáĪįáĬĲáīłáĪ©": 6924,
      "ĠáĬ¥áĪµáĬŃ": 6925,
      "Ġáĭ«áĪµáĭĪ": 6926,
      "Ġáĭ³áī¦": 6927,
      "áĮªáĭį": 6928,
      "Ġáĭ¨áī³áĪ°áīł": 6929,
      "áĮłáĬĵáĬ¨áĪŃ": 6930,
      "áĬ«áīµáī±": 6931,
      "ĠáĬłáĮĭáĪ®áī½": 6932,
      "ĠáįĴáĪ²": 6933,
      "ĠáĪŀáĭ´áĪİáī½": 6934,
      "ĠáĮ¥áĬĵáī±": 6935,
      "Ġáīłáĭļáĭ«áĬķ": 6936,
      "ĠáĮĮáī³": 6937,
      "Ġáīłáī¡áĭµáĬķ": 6938,
      "ĠáĬłáĬķáī£áī¢áĭİáī½": 6939,
      "Ġáī°áĭĺáĮĭáĮħáī·áĪį": 6940,
      "ĠáĭĪáĭ³áĮĥ": 6941,
      "ĠáĪĺáĪĢáĬķáĭ²": 6942,
      "ĠáĪģáĪĭáī½áĪģáĪĿ": 6943,
      "ĠáīłáĬ¨áįĬáĪį": 6944,
      "Ġáī°áĮįáī£áī¢": 6945,
      "áĭ¦áī½": 6946,
      "Ġáī³áĭŃáĪĿáĪµ": 6947,
      "ĠáĬ¥áĮłáī¥áīĥáĪĪáĪģ": 6948,
      "áĪµáĭ«": 6949,
      "ĠáīłáĪ°áĪ«": 6950,
      "ĠáīłáįķáĪĭ": 6951,
      "ĠáīłáįħáĪģáįį": 6952,
      "áī³áĬ¢": 6953,
      "ĠáĭŃáĮİ": 6954,
      "áĮłáįī": 6955,
      "áīĥáī¸áĭį": 6956,
      "ĠáĪĪáĪĽáĪĿáĪ¨áīµ": 6957,
      "ĠáīłáĪĺáĪĺáĪįáĬ¨áīµ": 6958,
      "ĠáĬ«áįĮ": 6959,
      "ĠáĬłáĪĪáĪĽ": 6960,
      "áī¡áīµáĬķ": 6961,
      "áįķáĪ¨áĪµ": 6962,
      "áĬķáĮįáĪį": 6963,
      "ĠáĬ¥áĬķáĭ°áĪļáĪĺáĪµáĪį": 6964,
      "áĬŀáī¹áĬķ": 6965,
      "Ġáĭĺáįĭ": 6966,
      "Ġáĭ¨áīłáĪĭáĭŃ": 6967,
      "áĪµáī³áĭįáĪµ": 6968,
      "ĠáĪ¨áĭ³áīµ": 6969,
      "ĠáĬłáĭµáĪŃáĮĪáĭĭáĪį": 6970,
      "ĠáĪĢáĭŃáīħ": 6971,
      "Ġáĭ¨áĪ«áĪ±": 6972,
      "áįķáĪªáĬķáĮį": 6973,
      "ĠáĮįáĭµáĭ«": 6974,
      "ĠáĬ¨áīµáĪĿáĪħáĪŃáīµ": 6975,
      "ĠáĬ¥áĭ¨áĪ°áĪ«áĪģ": 6976,
      "ĠáĬ¨áĮįáĪĿáīµ": 6977,
      "Ġáĭ¨áĪ¶áįįáīµáĭĮáĪŃ": 6978,
      "Ġáĭ°áĪŃáĪ·áĪį": 6979,
      "ĠáĪĪáĭ°áĬķáīłáĬŀáī½": 6980,
      "ĠáĬłáĪŃáī²áĪµáīµ": 6981,
      "ĠáīµáĭįáĪµáī³": 6982,
      "ĠáīłáĭĻáĪªáĭ«": 6983,
      "áīłáĪĪáĭļáĭ«": 6984,
      "áĭĿáīħáī°áĬĽ": 6985,
      "ĠáĬ¥áįİáĭŃáī³": 6986,
      "áĪĪáī³áĭĬ": 6987,
      "áĬ¥áĪį": 6988,
      "Ġáī¥áĪī": 6989,
      "áįĬáĬķ": 6990,
      "ĠáĬ«áĪĿ": 6991,
      "Ġáĭ¨áĬłáĪŃ": 6992,
      "áĪ¬áĭİáī½": 6993,
      "áĪµáī°áĬ«áĬŃ": 6994,
      "ĠáįįáĪįáĪµ": 6995,
      "áī¢áĭ«áĬķ": 6996,
      "ĠáĪŀáĬ¨áĪŃ": 6997,
      "ĠáĬ¦áī£áĪĽ": 6998,
      "ĠáĬ¥áĬķáĭ²áĭ«áĪ³": 6999,
      "ĠáĮĵáĭ°áĬĿáĬĲáīµ": 7000,
      "ĠáĬ¥áĬķáĭ³áĪĪáī¦áīµ": 7001,
      "ĠáĪĽáĪ³áĪĪáįį": 7002,
      "ĠáĬłáįķáĪį": 7003,
      "ĠáĬłáĪ°áĪįáīº": 7004,
      "Ġáĭ¨áĪĺáĪ³áĪªáĭ«": 7005,
      "ĠáĪįáī¦áĬĵ": 7006,
      "ĠáĬłáĪĽáĬ«áĬĿáĬĲáīµ": 7007,
      "ĠáīģáĪŃáĮ¥áĪ«áĮ®áī½": 7008,
      "ĠáīłáĮ¨áĭĭáī³áĭį": 7009,
      "ĠáĭŃáįįáĮłáĪ©": 7010,
      "ĠáĪĽáī¥áĪ«áĪªáĭ«": 7011,
      "ĠáĬ¥áĪĺáĪŃáĮ£áĪĪáĪģ": 7012,
      "ĠáįĭáĭįáĬķáĭ´áĪ½áĬķ": 7013,
      "Ġáĭ¨áĭļáĭ«": 7014,
      "Ġáĭ¨áīħáĭµáĪĺ": 7015,
      "ĠáīłáĪĿáĬĵ": 7016,
      "ĠáĬłáĮĢ": 7017,
      "ĠáĬłáĬķáĪµ": 7018,
      "áĪĪáĬķáĭ°áĬķ": 7019,
      "ĠáĭŃáĮłáīģ": 7020,
      "áĭµáĬ©áīµ": 7021,
      "ĠáĬ¨áĭ¨áīµ": 7022,
      "ĠáĬ¨áįĬáīµ": 7023,
      "áįĪáĬĳ": 7024,
      "áĬ«áĮİ": 7025,
      "áĭĪáĪ«": 7026,
      "Ġáĭ¨áĪļáĪĦáĭ±": 7027,
      "áĭ¨áĪµ": 7028,
      "Ġáĭ¨áī°áĮĪ": 7029,
      "Ġáĭ¨áī°áĮĪáĬĲáī£": 7030,
      "ĠáĪ°áĪŃáĮį": 7031,
      "ĠáīµáĪµ": 7032,
      "Ġáĭ°áįĭáĪŃ": 7033,
      "ĠáīłáĪĺáĬķáĮĪ": 7034,
      "áĭĺáĭĻ": 7035,
      "áĪŀáīħ": 7036,
      "ĠáĬ«áĪ³": 7037,
      "ĠáīłáĬ¥áĬĲáĪ±": 7038,
      "áįķáĪį": 7039,
      "Ġáĭ¨áĪĽáĪĺ": 7040,
      "Ġáī¢áĪĨáĬĳáĪĿ": 7041,
      "áįİáĬ«": 7042,
      "Ġáī°áĪĺáĪįáĬŃ": 7043,
      "Ġáĭ³áĬķ": 7044,
      "ĠáĬ©áī£áĬķáĭ«áĭİáī½áĬķ": 7045,
      "Ġáĭ¨áĪļáĭ«áĪµáįĪáĪįáĮĪáĭį": 7046,
      "ĠáĪĿáĪµáĮ¢": 7047,
      "ĠáĪĽáĪµáī°áĭĭáĭĪáīħ": 7048,
      "ĠáĪĽáĪ³áĭ¨áīµ": 7049,
      "Ġáīªáĭ²áĭ®áĭİáī½": 7050,
      "áĬ¨áįĭáįĪáĪį": 7051,
      "ĠáĭĪáĭŃáĬķáĪµ": 7052,
      "Ġáī°áĪ«áĪ«": 7053,
      "ĠáĬŃáĪĬáĬĴáĬ«áĭĬ": 7054,
      "Ġáī°áĪ°áĮ¥áĬ¦": 7055,
      "Ġáĭ«áĪµáįĪáĪįáĮĭáī¸áĭĭáĪį": 7056,
      "Ġáīłáī¤áīµáĭİ": 7057,
      "Ġáĭ¨áĪĺáī°áĪĽáĪĺáĬķ": 7058,
      "ĠáĪĮáĪİáī½áĬķáĪĿ": 7059,
      "ĠáĭĿáĪŃáĭ«áĭİáī½": 7060,
      "Ġáĭ¨áī½áĪŃáī»áĪ®": 7061,
      "ĠáĬłáĭµáĬĵáīĨáīµ": 7062,
      "Ġáīłáī¥áĪİáĮį": 7063,
      "áĬĵáįį": 7064,
      "áĭ«áī½áĬķ": 7065,
      "ĠáĬ¥áĬĵáĪĿáĬĵ": 7066,
      "ĠáĪĪáĬķáĭ°áĬķ": 7067,
      "ĠáĭŃáĮłáīħ": 7068,
      "ĠáĬ¨áĭµ": 7069,
      "ĠáĬ¨áĮİ": 7070,
      "ĠáĪĽáĪ¸": 7071,
      "ĠáĪĽáĪ°áĪµ": 7072,
      "áĬ¨áĪ»": 7073,
      "áī¶áī»áī¸áĭį": 7074,
      "áĪ®áī¥": 7075,
      "Ġáĭ¨áĪļáįĪáĪįáĮį": 7076,
      "Ġáĭ¨áĪļáĮłáīĢáĪĻ": 7077,
      "ĠáĮįáĪª": 7078,
      "áĮĪáĪŃáĪĿ": 7079,
      "ĠáīłáĪĺáįįáĮłáĪŃ": 7080,
      "Ġáĭ¨áĪĺáĭĿáĬĵáĬĽ": 7081,
      "ĠáīłáĬłáĬ«áī£áī¢áĭ«": 7082,
      "áĪĮáĬķ": 7083,
      "Ġáĭ¨áĪĿáĪ½áīµ": 7084,
      "áįĢáĭį": 7085,
      "ĠáĬłáĪµáī°áĭį": 7086,
      "ĠáĬ¨áįįáī°áĬĽáĭįáĬķ": 7087,
      "Ġáĭ¨áĪħáĬķáĭµ": 7088,
      "ĠáĪįáĭ©áĬĲáī¶áī½": 7089,
      "ĠáĭµáĪŃáĪ°áīµ": 7090,
      "ĠáĬ¥áĪŃáĪ»": 7091,
      "áĮĪáĬĻáĪĿ": 7092,
      "ĠáĬłáĬ«áī£áī¢áĭį": 7093,
      "ĠáĪµáĪįáīµ": 7094,
      "ĠáĪĪáī°áĪĪáĭ«áĭ©": 7095,
      "Ġáĭ°áĪħáĬķáĬĲáīµáĬķ": 7096,
      "áįĶáĬķ": 7097,
      "Ġáĭ´áĪµáĬŃ": 7098,
      "áĪ°áīłáĪ°áī¡": 7099,
      "Ġáĭ¨áĪļáīĨáĭŃ": 7100,
      "ĠáĭĪáĪµáĭ·áĪį": 7101,
      "Ġáĭ¨áĪļáĭĪáĭ±": 7102,
      "Ġáī°áīĥáĭĭ": 7103,
      "Ġáĭ¨áĪļáĪ°áĪ«áĭį": 7104,
      "ĠáĪĺáĪµáįĪáĪŃáī¶áī½áĬķ": 7105,
      "ĠáĬłáĪµáī³áĭįáĪµ": 7106,
      "ĠáĪĽáĮ£áĪªáĭ«": 7107,
      "ĠáĬłáĪĺáĪĪáĬ«áĬ¨": 7108,
      "ĠáĪĽáī¥áĪ°áĪį": 7109,
      "ĠáĬłáĪŃáī²áĪµáī¶áī½": 7110,
      "Ġáĭ¨áĪĺáĪĺáĮĪáī¢áĭ«": 7111,
      "ĠáĬŃáĪĿáī½áīµ": 7112,
      "ĠáĭµáĪ«áĭŃáīŃ": 7113,
      "ĠáĬ¥áĬĵáĪĿáĬĵáĪĪáĬķ": 7114,
      "Ġáĭ¨áī´áĬŃ": 7115,
      "áĪĭáĭİáī½": 7116,
      "ĠáĪĺáī°áĭį": 7117,
      "ĠáĪĺáĪ¸áĮ¥": 7118,
      "áĪħáĬĲáīµ": 7119,
      "áĬĲáĭįáĬķ": 7120,
      "ĠáĭŃáĬ«áĪĦ": 7121,
      "áĬŃáĪĿ": 7122,
      "áĮłáįį": 7123,
      "Ġáī°áĪ¨áīµ": 7124,
      "áįĪáĮį": 7125,
      "ĠáĪĿáĪ¨áīĥ": 7126,
      "áĬ«áĪŃ": 7127,
      "ĠáĭįáĮ«áĭĬ": 7128,
      "áī¶áĬĽáĪį": 7129,
      "Ġáĭ¨áĪļáĪĨáĬĲáĭį": 7130,
      "Ġáįĥ": 7131,
      "Ġáĭ¨áī°áĬ¨áĪĪ": 7132,
      "ĠáĪĪáĪĺáĬŃáįĪáīµ": 7133,
      "Ġáī£áĭ°áĪ¨áĮĪáĭį": 7134,
      "ĠáīłáĬłáĪĭáīµ": 7135,
      "Ġáī³áĪĭáĪĭáīħ": 7136,
      "ĠáīłáĪļáĪĪáĭį": 7137,
      "ĠáīģáĪĺáīµ": 7138,
      "áīĭáĪŃáĮ¥": 7139,
      "áĮĤáĬķáĮį": 7140,
      "áĪ¶áįįáīµ": 7141,
      "Ġáĭ«áĪµáī¡": 7142,
      "ĠáĬ©áĪ«áīµ": 7143,
      "áĪ°áĪĽáī¸áĭį": 7144,
      "ĠáīłáĮ¥áĭŃáīµ": 7145,
      "ĠáĪįáĪĿáĭ¶áī½": 7146,
      "áĬķáĪ°áĮ¥": 7147,
      "áĪĺáĮ£áĮłáĬķ": 7148,
      "ĠáīłáĪĿáĮįáī¥": 7149,
      "Ġáĭ¨áĬŃáĪ¬áĭ²áīµ": 7150,
      "ĠáĬ¨áĪĮáĪĭ": 7151,
      "Ġáī¡áĭµáĬĵáī½áĬķ": 7152,
      "ĠáĭĪáĮªáĬķ": 7153,
      "ĠáĭŃáĮĪáĪĺ": 7154,
      "áĬĵáĬķáī°": 7155,
      "Ġáī°áĭĪáĬ«áĭŃ": 7156,
      "Ġáĭ¨áĭŃáĭĺáīµ": 7157,
      "ĠáĪįáĮĨáī¹": 7158,
      "áīłáĪĭáĪ¸": 7159,
      "ĠáĪ°áĪ«áī°áĬŀáī¹": 7160,
      "Ġáī°áįĪáįĥáĪļ": 7161,
      "ĠáĮ¥áīĥáīħáĬķ": 7162,
      "Ġáī°áĭĭáĬĵáĭŃ": 7163,
      "áĪµáĪ«áĬ¤áĪį": 7164,
      "ĠáīłáĭĻáĪªáĭ«áĭį": 7165,
      "Ġáĭ¨áĪĿáĪµáĮĭáĬĵ": 7166,
      "Ġáĭ«áīĢáįĪ": 7167,
      "ĠáĬķáĮįáĮįáĪ®áī½": 7168,
      "ĠáĪ½áĮīáĮ¥": 7169,
      "ĠáĮ©áĬ¸áīµ": 7170,
      "Ġáĭ¨áī´": 7171,
      "áĪįáĪĽáīµ": 7172,
      "ĠáīłáĮĤ": 7173,
      "ĠáīłáĭĮ": 7174,
      "ĠáīłáĬ¨áī°áĪĽ": 7175,
      "áĬĵáĬĲáīħ": 7176,
      "ĠáĪĺáĬĸáĪ©": 7177,
      "áĬĲáī³áī½áĬķ": 7178,
      "ĠáĪĪáĬ¤": 7179,
      "Ġáĭ«áĮĪáĬĻ": 7180,
      "Ġáĭ«áĭ°áĪ¨áĮĪ": 7181,
      "áĭĪáĪĪáĭµ": 7182,
      "ĠáĮ¥áĪįáīĢáīµ": 7183,
      "ĠáĪĪáĪĺáĬķ": 7184,
      "áĪ»áĭ¨áĪŃ": 7185,
      "Ġáī£áī¡áĪŃ": 7186,
      "áĪŀáī¹": 7187,
      "ĠáĮĪáĪĿ": 7188,
      "ĠáĬ¥áĬķáĮłáīĢáĪĽ": 7189,
      "ĠáĪħáĪĺ": 7190,
      "Ġáī³áĪĭáīģ": 7191,
      "ĠáĬķáī£áī¥": 7192,
      "ĠáĮłáīĭáĪļ": 7193,
      "Ġáĭ¨áĪĿáĪµáĬŃ": 7194,
      "áĮįáĪ«áįį": 7195,
      "Ġáĭ¨áĭĪáĪŃáīħ": 7196,
      "Ġáĭ¨áĪ°áĪĪáĮł": 7197,
      "ĠáĪĽáĪµáī°áĭ³áĭ°áĪŃ": 7198,
      "áīĨáĮ£áĮłáĪ©": 7199,
      "ĠáĮĨáĪŃáĬĵáĪį": 7200,
      "ĠáĪįáī¥áĪ¶áī½": 7201,
      "ĠáĬ«áĪĪáĭİáīµ": 7202,
      "áĪĪáĪĽáĪĺáĭµ": 7203,
      "Ġáĭ¨áĪ«áĪ±áĬķ": 7204,
      "ĠáĪĽáĭįáĪ«áīµ": 7205,
      "ĠáĪĪáĪħáĭĿáī¥": 7206,
      "Ġáĭ¨áĪļáĮłáĮĭ": 7207,
      "áĮĪáĪ«áī½áĬķ": 7208,
      "Ġáĭ«áĬĲáĮĭáĮįáĪ©áĬķ": 7209,
      "ĠáĪĺáĮ¨áĬĵáĬĲáīħ": 7210,
      "ĠáĮĢáĪŃáĪĺáĬķ": 7211,
      "ĠáĭŃáĬĵáĮĪáĪ«áĪį": 7212,
      "ĠáīµáįĪáĪįáĮĭáĪĪáĪħ": 7213,
      "ĠáĪĺáĬªáĬĸáī½": 7214,
      "ĠáĬ¥áĬķáĪ°áĮ£áĪĪáĬķ": 7215,
      "ĠáĬ¥áĬķáĮłáīĢáĪĽáĪĪáĬķ": 7216,
      "Ġáĭ¨áĬĳ": 7217,
      "ĠáīłáīłáĪŃáĬ«áī³": 7218,
      "áįįáīĢáĭµ": 7219,
      "ĠáĪĽáĪ°áĪį": 7220,
      "áĭ³áĭ²áĪµ": 7221,
      "ĠáĪĪáĪĺáĪ¸áĮ¥": 7222,
      "ĠáīłáĪĺáĪŃ": 7223,
      "áĮ¨áĬĲáīħ": 7224,
      "ĠáĭµáĪį": 7225,
      "áĭ°áĪŃáĮĪáĭįáĬķ": 7226,
      "áĪµáī°áĭĭ": 7227,
      "áĬĴáĬ¬": 7228,
      "ĠáĮ¥áĪ©áĭįáĬķ": 7229,
      "ĠáĬłáĪįáįĪáĪįáĮįáĪĿ": 7230,
      "ĠáĬłáĬķáĭ³áī¸áĭįáĪĿ": 7231,
      "áįīáīµáĬķ": 7232,
      "áĮĪáī£áĪĿ": 7233,
      "ĠáĮĢáĪĿ": 7234,
      "áįĪáĪįáĮīáĪĿ": 7235,
      "áĪŁáī¸áĭį": 7236,
      "ĠáĪĺáįħáĪĢáįİáī½áĬķ": 7237,
      "Ġáĭ¨áĪļáĭ«áĪµáįĪáĪįáĮī": 7238,
      "áīħáĭµáĪļáĭ«": 7239,
      "ĠáīłáīħáĪŃáīłáīµ": 7240,
      "ĠáĪ²áĭ«áĭ°áĪŃáĮī": 7241,
      "ĠáīĢáĮ¥áĪıáĪį": 7242,
      "ĠáĬłáīħáĪŃáī§áĪį": 7243,
      "ĠáĭŃáĭĪáĬŃ": 7244,
      "Ġáĭ°áĮĭáĮį": 7245,
      "ĠáĪĺáīĨáĮłáī¥": 7246,
      "ĠáĭŃáĪĿáĮ¡": 7247,
      "ĠáĭĪáĪ¨áīĢáī¶áī½": 7248,
      "ĠáĮŃáĬķáīħáĪĭáīµ": 7249,
      "ĠáĪĪáĪĺáĪĺáĭĿáĮĪáī¥": 7250,
      "ĠáĬłáĪįáĬĲáīłáĪ©áĪĿ": 7251,
      "ĠáĬ¥áĮ¦áīµ": 7252,
      "ĠáĬłáĭĪáĮ£": 7253,
      "áĪĪáī±": 7254,
      "áĪĪáĬŀáī½": 7255,
      "ĠáĪĺáĭµáĬķ": 7256,
      "áĮ¥áīłáī¥": 7257,
      "Ġáī°áĪ°áī¥": 7258,
      "áįĪáįħ": 7259,
      "áĮĭáĮĪáĪŃ": 7260,
      "Ġáĭ¨áī°áĭ°áĪ¨áĮĪáĭį": 7261,
      "Ġáĭ¨áī°áĪĪáĭ«áĭ¨": 7262,
      "áĬĸáĪ¨áĬķ": 7263,
      "ĠáīĢáĬĵ": 7264,
      "ĠáīłáĪĺáĪĨáĬĵáī¸áĭį": 7265,
      "áįħáįį": 7266,
      "ĠáĬ¥áĬķáĭ²áī½áĪī": 7267,
      "ĠáĮĪáĪĺáĭµ": 7268,
      "Ġáīłáī°áīĢ": 7269,
      "Ġáī³áĭ°áĪŃáĮĭ": 7270,
      "ĠáĮīáĮīáīµ": 7271,
      "áĭ®áĪ½": 7272,
      "Ġáī¢áĬĸáĪ©": 7273,
      "ĠáįĪáĪ³áĪ½": 7274,
      "áĪ¶áī¹": 7275,
      "ĠáĮīáĭ³áĭ©áĬķ": 7276,
      "Ġáĭ«áĪµáī½áĪį": 7277,
      "ĠáĬ¨áĬłáĬķáĭ³áĬķáĭµ": 7278,
      "áĪ¨áĮĭáĭįáĭ«áĬķ": 7279,
      "áĬ¬áĭµ": 7280,
      "áĬ¨áįįáĪį": 7281,
      "ĠáįħáĪģáįİáī½áĬķ": 7282,
      "ĠáīłáĪĿáĬķáĪĿ": 7283,
      "Ġáī£áĪĪáĪĻáĭ«áĭİáī½áĬķ": 7284,
      "ĠáīłáĪ«áĪ´": 7285,
      "ĠáīłáįĢáĪĢáĭŃ": 7286,
      "ĠáĪĺáĮ¨áĬĲáīħ": 7287,
      "Ġáĭ¨áĬªáĪ«áĭŃ": 7288,
      "ĠáĬ¥áĬķáĭ°áĪļáĭ«áĪ³áĭ¨áĭį": 7289,
      "ĠáįįáĪ«áįįáĪ¬": 7290,
      "ĠáĪ¬áĪµáī¶áĪ«áĬķáīµ": 7291,
      "ĠáīłáĮłáĬķáĬ«áĪ«": 7292,
      "Ġáĭ¨áīłáĪĪáįĢáĮĪ": 7293,
      "ĠáĬłáĭ°áĬķáīĥáĪĪáĪģ": 7294,
      "ĠáĬłáĪŃáĬŃáī´áĬŃ": 7295,
      "áĬŁáī¸áĭį": 7296,
      "ĠáĭĪáĭ³áĮĥáĭĬ": 7297,
      "Ġáĭ¨áĪĦ": 7298,
      "Ġáĭ¨áī¥áĭĻ": 7299,
      "áĪĺáĭįáĬķ": 7300,
      "áĭŃáĪ«": 7301,
      "áĪĭáĪĭáĭį": 7302,
      "áĪĽáĪ¨": 7303,
      "ĠáĪĪáĪ°áĪ«": 7304,
      "áĪļáĬķáĮį": 7305,
      "ĠáĪĽáĭ³áīłáĪŃ": 7306,
      "áįĪáįĥáįĢáĪĿ": 7307,
      "áĮ£áĭį": 7308,
      "áĮĭáī¸áĭį": 7309,
      "áĭĪáĪ¨": 7310,
      "áĭĪáĪŃáĬŃ": 7311,
      "ĠáĪĪáĪĺáĭĿ": 7312,
      "ĠáĪĪáĪĽáĮ¥áįĭáīµ": 7313,
      "ĠáīĢáĭ³áĭ³": 7314,
      "ĠáīłáĪĺáĪĭ": 7315,
      "ĠáĬŃáĬķ": 7316,
      "ĠáĬłáĭŃáī³": 7317,
      "ĠáĮĭáĪ«": 7318,
      "ĠáĪĬáĮį": 7319,
      "áįĭáĪĪáī½": 7320,
      "áĪ¬áĪĿ": 7321,
      "ĠáĪ³áĭ«áĪµ": 7322,
      "áįķáĪ«áĭŃ": 7323,
      "Ġáĭ¨áĪļáĭ«áĮĪáĬĻ": 7324,
      "ĠáīħáĪį": 7325,
      "ĠáĭĭáĪ½áĬķáĮįáī°áĬķ": 7326,
      "Ġáĭ«áĪĪáĬĿ": 7327,
      "Ġáĭ²áĪ´áĪĿáīłáĪŃ": 7328,
      "ĠáĮİáī¥áĬļ": 7329,
      "Ġáĭ¨áīµáĬĽáĭįáĬķ": 7330,
      "ĠáĪ½áįĭ": 7331,
      "ĠáĪ´áĪļ": 7332,
      "Ġáĭ¨áī³áĬŃáĪµ": 7333,
      "áĮĦáĪªáĭ«": 7334,
      "ĠáĬ¨áī£áĪħáĪŃ": 7335,
      "ĠáĬłáĪ³áĪ³áī¢": 7336,
      "ĠáĬłáĪĿáī£": 7337,
      "ĠáīµáĪŃáįĭ": 7338,
      "áĪĺáĪ¨áĮ¡": 7339,
      "ĠáīħáĪŃáĬķáĮ«": 7340,
      "ĠáĬ¥áĬķáĭ°áī°áĮĪáĪĪáįĢáĭį": 7341,
      "ĠáĪ±áĪµ": 7342,
      "ĠáĮ¥áīħáĪŀáī½áĬķ": 7343,
      "áī³áĭĪáīĢ": 7344,
      "Ġáī°áĭĪáĪĭáĮĨáī½": 7345,
      "ĠáĪĤáĭ°áī¶áī½áĬķ": 7346,
      "ĠáĪ°áĮ¥áī°áĭĭáĪį": 7347,
      "ĠáīłáįĸáĪµáī³": 7348,
      "Ġáĭ¨áī°áĮĪáĭ°áīł": 7349,
      "áĪİáĪĿáī¢áĭ«": 7350,
      "ĠáĭĪáĬķáīłáĪŃ": 7351,
      "ĠáĮłáīłáīĨáī½": 7352,
      "ĠáĬłáĮįáĬĿáī¼áĭĭáĪĪáĪģ": 7353,
      "áĬ¥áĭĽáĭĿ": 7354,
      "ĠáĬ¥áĭįáĬķ": 7355,
      "áī½áīłáīµ": 7356,
      "áĭ«áįĬ": 7357,
      "áĪ¨áīł": 7358,
      "ĠáĪĪáĪĻ": 7359,
      "áĪ«áĬŃ": 7360,
      "áĪ«áī½áĪģ": 7361,
      "áĮ¥áįİáī½áĬķ": 7362,
      "ĠáĬ¨áĮŃ": 7363,
      "áĮłáī¡": 7364,
      "Ġáī°áĭį": 7365,
      "Ġáī°áĬ®áĪŃ": 7366,
      "áĬ¨áĪµ": 7367,
      "áĬ«áī½áĪģ": 7368,
      "áĬ«áĬ¤áĪį": 7369,
      "Ġáĭ¨áĪļáĪ°áĮłáĭį": 7370,
      "ĠáĮ¥áīĨ": 7371,
      "ĠáĪĪáĪĺáĮĵáĭĿ": 7372,
      "ĠáĪĪáĪĺáĪĺáĪįáĬ¨áīµ": 7373,
      "Ġáĭ°áĪŀ": 7374,
      "áįĬáĪįáĭµ": 7375,
      "ĠáīłáĬłáĮŃáĪŃ": 7376,
      "ĠáĪĬáĪ°áĪ«": 7377,
      "Ġáī¤áĭĿ": 7378,
      "Ġáĭ¨áĬ¥áĭ«áĬķáĭ³áĬķáĭ±": 7379,
      "áĬĺáĭį": 7380,
      "Ġáĭ¨áĪļáĭ«áīĢáĪŃáī¡": 7381,
      "áĭ®áĪİáĮĤ": 7382,
      "Ġáī¢áĮ«": 7383,
      "Ġáī£áĪĪáī¥áĭĻ": 7384,
      "áįĢáĭ«áįĬ": 7385,
      "ĠáĪĺáĪµáĪªáĭ«": 7386,
      "áĮĤáĬķ": 7387,
      "ĠáĪĺáĮłáĪĪáĭ«": 7388,
      "ĠáĪĺáĮłáĬĸáī½": 7389,
      "ĠáĬ¥áĭ«áĪ°áī¡": 7390,
      "ĠáĬłáĭįáĪµáīµáĪ«áĪĬáĭ«": 7391,
      "ĠáĮİáĮĨ": 7392,
      "ĠáĪ«áĬ¥": 7393,
      "ĠáīłáĬ¥áĭįáĬĲáī°áĬĽ": 7394,
      "ĠáīłáĪ°áįĬáĭį": 7395,
      "Ġáĭ©áĪ®": 7396,
      "ĠáĮ£áī¢áĭ«áĭİ": 7397,
      "áĬ«áĬ¨áĪĭáī¸áĭį": 7398,
      "áĬķáĭĽáĭ¥": 7399,
      "Ġáĭ¨áįĢáĭ°áĭŃ": 7400,
      "ĠáĪĪáĪĺáĮįáĪĪáįħ": 7401,
      "ĠáĬ¨áĪĿáĪ½áī±": 7402,
      "ĠáĬ¥áĬķáĭ°áĪĮáĪĪáĭį": 7403,
      "ĠáĬ¥áĬķáĭ°áĪļáĭ«áĪµáįĪáĪįáĮį": 7404,
      "ĠáīłáĭŃáĬĲáĮĪ": 7405,
      "ĠáįķáĪ®áįĮáĪ°áĪŃ": 7406,
      "ĠáĪ½áĪįáĪĽáī¶áī½": 7407,
      "ĠáĬłáīĭáĪĿ": 7408,
      "ĠáĬłáĭµáĬĵáīĤáĭİáī½": 7409,
      "ĠáĪĪáĭĪáĭ°áįĬáī±": 7410,
      "Ġáĭ¨áĪĺáĪ³áĪ°áĪī": 7411,
      "Ġáī£áīµáĪª": 7412,
      "ĠáĪĬáĭ«áĪµáĬ¨áīµáĪį": 7413,
      "áĪįáĬ©": 7414,
      "ĠáĪĺáĬĲáĪ³": 7415,
      "ĠáĪĺáĮĵáĭĿ": 7416,
      "áĭ°áĮī": 7417,
      "ĠáĭŃáĭ°áĪ¨": 7418,
      "áīłáĬķ": 7419,
      "ĠáĬ¨áĭµáĪŃ": 7420,
      "Ġáĭ«áĬ«áī°áī°": 7421,
      "áĪ³áĪĪáĬķ": 7422,
      "ĠáĪµáĪª": 7423,
      "áĭĪáīĢ": 7424,
      "Ġáĭ¨áĪļáĭ²áĭ«": 7425,
      "Ġáĭ¨áĪļáįĪáĪįáĮĵ": 7426,
      "Ġáī¥áĬķ": 7427,
      "áĪ©áīµáĬķ": 7428,
      "ĠáĮ¥áįĭáīµ": 7429,
      "Ġáĭ¨áī°áĭ°áĮĪ": 7430,
      "ĠáĬłáĭŃáĬĸáī½": 7431,
      "áĪŀáĪŃ": 7432,
      "ĠáĬ«áįĴáī³áĪį": 7433,
      "ĠáĬłáĪĺáĪįáĬ«": 7434,
      "Ġáĭ¨áĪļáĭ«áĭ°áĪŃáĮĪáĭį": 7435,
      "ĠáĪĿáĬŃáīµáĪį": 7436,
      "ĠáĬ®áĪĮ": 7437,
      "ĠáĪľáīµ": 7438,
      "Ġáĭ¨áĮ¥áĮĪáĬĵ": 7439,
      "ĠáīłáĪ°áĭİáī½": 7440,
      "áĪºáįķ": 7441,
      "áĬķáīħáĪĭ": 7442,
      "Ġáĭ¨áīĨáĭ©": 7443,
      "Ġáĭ²áĭĽáĭŃ": 7444,
      "ĠáĪĢáī¥áī¶áī½": 7445,
      "ĠáĬ¨áĪĨáĬĳáīµ": 7446,
      "ĠáĪĽáĪµáī³áĭĪáīĤáĭ«áĭİáī½": 7447,
      "áĭĺáĮĪáīł": 7448,
      "áĪħáīłáĪ¨áĪ°áī¡": 7449,
      "Ġáĭ¨áī¢áĪ®": 7450,
      "Ġáĭ¨áī¢áĭĿáĬĲáĪµ": 7451,
      "Ġáĭ¨áīģáĮ¥áĮ¥áĪŃ": 7452,
      "áĪĽáĬĸáīµ": 7453,
      "ĠáĪĺáīģáĮłáĪªáĭ«": 7454,
      "ĠáĪĽáĮĪáĮĪáĪļáĭ«": 7455,
      "ĠáĪ¬áĪµáī¶áĪ«áĬķ": 7456,
      "ĠáĭŃáĪįáīģáĬķáĪĿ": 7457,
      "ĠáĭŃáī£áĪĭáĪį": 7458,
      "ĠáĮįáĭ´áī³": 7459,
      "Ġáĭ«áĮĪáĪĪáĮįáĪĭáĪį": 7460,
      "ĠáĪªáĬ¨áĪŃáĭµ": 7461,
      "Ġáĭ¨áī¥áĪĦáĪ«áĭĬ": 7462,
      "ĠáĬłáĭĺ": 7463,
      "ĠáĪĪáĪģ": 7464,
      "ĠáĪĪáī¤áī°": 7465,
      "ĠáĬ¨áĪĿáĬķ": 7466,
      "ĠáĬ¨áįĢ": 7467,
      "ĠáĬ¨áĬĲáīłáĪ¨áĭį": 7468,
      "áĬŃáĪĭ": 7469,
      "áĪ°áįĭ": 7470,
      "áįĪáĪĭáĮĬ": 7471,
      "áĬ«áĪ«": 7472,
      "áĬ«áī°áīµ": 7473,
      "ĠáĭįáĪŃ": 7474,
      "áīĥáĮłáĪį": 7475,
      "ĠáĮ¥áĪ¬": 7476,
      "ĠáĪ°áįĭ": 7477,
      "ĠáīµáĪĨáĬĵ": 7478,
      "ĠáĪĪáĪĺáĬĸáĪŃ": 7479,
      "ĠáĬłáĭŃáĪŃáĪ±": 7480,
      "ĠáĬ¥áĬķáĪ¨áĭ³": 7481,
      "ĠáĬ«áĪĿáįĵ": 7482,
      "Ġáĭ¨áĬłáĪµ": 7483,
      "Ġáĭ¨áĬłáĬ«áĭ³áĪļáĬŃ": 7484,
      "áĪĬáĪ²": 7485,
      "áįķáĪİ": 7486,
      "ĠáĪĻáĭ«": 7487,
      "ĠáĪĺáĪµáĪ«áī½": 7488,
      "Ġáĭ«áĪĪáĪĺ": 7489,
      "áīĦáĭ«áĪĪáĪģ": 7490,
      "áĪŃáĬŃáĪ¾": 7491,
      "ĠáīłáĮįáĪĽáĪ½": 7492,
      "ĠáĪĺáįħáĪĢáįī": 7493,
      "ĠáĪĺáĪŃáįĮ": 7494,
      "ĠáĪĺáĪŃáĬ¨áī¥": 7495,
      "ĠáĪĺáĭ°áĮĪáįį": 7496,
      "ĠáīłáĪħáĬŃáĪĿáĬĵ": 7497,
      "áī¥áĪ¨áī±": 7498,
      "ĠáĪĽáĪµáī°áĪĭáĪĪáįį": 7499,
      "ĠáĮłáīħáĪĭáĭŃ": 7500,
      "ĠáĪĢáĭŃáĪİáī½": 7501,
      "Ġáĭ¨áĭµáĪħáĪ¨": 7502,
      "ĠáĭŃáīĢáĪĭáīĢáĪī": 7503,
      "Ġáī»áĬĵáĪį": 7504,
      "ĠáĪĺáĭµáĪ¨áĪ»": 7505,
      "ĠáĪĿáĪ½áī¶áī½": 7506,
      "áĮįáĭļáĬłáī¥áĪĦáĪŃáĬķ": 7507,
      "ĠáįĢáĪĢáįĬáĭİáī½": 7508,
      "ĠáĬ¥áĬķáĭ°áĪĮáĪĪ": 7509,
      "ĠáīłáĭĭáĬĵáĬĲáīµ": 7510,
      "áįįáĪ«áĪĿ": 7511,
      "Ġáĭ¨áĪļáĮĪáī£áĭį": 7512,
      "áĪ¸áĪ«áī°": 7513,
      "áĬ«áįįáĪī": 7514,
      "ĠáīħáĬĵáĪ¾áī½": 7515,
      "ĠáĪĪáĭĪáĭ°áįĬáīµ": 7516,
      "Ġáĭ¨áī°áĮ£áĪ«": 7517,
      "Ġáĭ²áĭĽáĭŃáĬĲáĪŃ": 7518,
      "Ġáĭ´áīªáĭµ": 7519,
      "Ġáĭ¨áĮ¡áĪ¨áī³": 7520,
      "ĠáĭŃáĮĪáĬĲáĭĺ": 7521,
      "ĠáĬ§": 7522,
      "Ġáĭ¨áī¥áĪ¨áīµ": 7523,
      "ĠáīłáĮłáīħ": 7524,
      "ĠáĪĺáĪ¬": 7525,
      "áĬĲáī³": 7526,
      "ĠáĪĪáĪģáĪĪáī±áĪĿ": 7527,
      "áĪ«áī¸áĭĭáĪį": 7528,
      "ĠáĭŃáĬ¨áįĪ": 7529,
      "ĠáĬ¨áĪ³": 7530,
      "ĠáĬ¨áįĪ": 7531,
      "áĪ°áĪª": 7532,
      "Ġáī°áĪ½áĬ¨áĪŃáĬ«áĪªáĭİáī½": 7533,
      "ĠáĪĽáĪµáī³áĭĪáĪµ": 7534,
      "áĭ³áĮĬ": 7535,
      "Ġáĭ¨áĪļáĭĪáĪµáĭµ": 7536,
      "Ġáī¥áĬŃ": 7537,
      "ĠáĮįáī¢": 7538,
      "ĠáīłáĪĺáĭ«áĭĿ": 7539,
      "Ġáĭ¨áĪĺáĬĿáī³": 7540,
      "ĠáĬłáĭŃáįĪ": 7541,
      "áī¡áĬ¥": 7542,
      "áī¦áī³áĭį": 7543,
      "áĮ«áĭĭ": 7544,
      "áĮ«áĪĪáĪģ": 7545,
      "ĠáĬŃáįįáī°áīµ": 7546,
      "Ġáīħáĭł": 7547,
      "ĠáīłáĪļáĬ¨áī°áĪīáīµ": 7548,
      "Ġáī¢áĪį": 7549,
      "ĠáĭŃáĪĺáĪį": 7550,
      "Ġáĭ°áĪ¨áĮĥáĬķ": 7551,
      "ĠáĬ¨áĬłáĬ«áī£áī¢áĭį": 7552,
      "áīĦáĪĭ": 7553,
      "Ġáīłáĭ¨áĭĪáĪ©": 7554,
      "ĠáĮ£áī¢áĭ«áĭį": 7555,
      "ĠáĬĲáĮ¥áī¦áī½áĬķ": 7556,
      "áĪĭáīĢáĪīáĬķ": 7557,
      "Ġáī½áĮįáĪ©áĬķ": 7558,
      "ĠáĪĽáĪ»áĪ»áĭ«áĭİáī½": 7559,
      "ĠáīłáĪĢáĮĪáĪªáī±": 7560,
      "Ġáī´áĬŃáĬĸáĪİáĮĤáĭİáī½": 7561,
      "Ġáī¥áĪįáĮŃ": 7562,
      "ĠáīµáĪįáīģáĬķ": 7563,
      "ĠáīµáĪĿáĪħáĪŃáī¶áī½": 7564,
      "Ġáī¥áĪ«áĬķáĭµ": 7565,
      "Ġáĭ°áĬķáī¥": 7566,
      "Ġáī°áĮĪáī¢áĭįáĬķ": 7567,
      "ĠáĬ¢áĬķáī¨áĪµáīµáĪĺáĬķáīµ": 7568,
      "ĠáĬłáĪĢáĭ¶áī½": 7569,
      "ĠáĭĿáĮįáĮħáī¶áī½áĬķ": 7570,
      "ĠáīµáĬķáīłáĭ«": 7571,
      "ĠáĮĪáĪĪáįĥ": 7572,
      "Ġáĭ«áĪĪáĪĿáĬķáĪĿ": 7573,
      "Ġáĭ¨áĪĿáĪµáĬŃáĪŃ": 7574,
      "Ġáī¨": 7575,
      "Ġáĭ¨áĮĢáĪŃáī£": 7576,
      "áĬķáĭļ": 7577,
      "áĪĭáĪļ": 7578,
      "ĠáĪĺáīĨáĭ¨áīµ": 7579,
      "áĪ¨áīħ": 7580,
      "áĪ¨áī¶áī½": 7581,
      "áĮįáĮįáĪŃ": 7582,
      "áĪĽáīħ": 7583,
      "áĬĲáĮ£": 7584,
      "ĠáĭŃáĪĪáĭį": 7585,
      "ĠáĭĪáĪĪ": 7586,
      "ĠáĪµáī¶": 7587,
      "áĬĽáĭİáī½": 7588,
      "Ġáĭ¨áĪļáĪ¸áįį": 7589,
      "Ġáī¥áĪĪáĪħ": 7590,
      "Ġáĭ¨áī°áĪ°áĮł": 7591,
      "ĠáĪ°áĪį": 7592,
      "ĠáīµáĭĬáī°áĪŃ": 7593,
      "ĠáĪĪáĪĽáĭµáĪ¨áĪµ": 7594,
      "áĮ¨áĬĵáīĤ": 7595,
      "áĭ²áĭ¨áĪĿ": 7596,
      "Ġáīłáī°áĮįáī£áĪŃ": 7597,
      "Ġáĭ¨áĬ¥áĬķáĮįáĪĬáĭĿ": 7598,
      "ĠáįįáĬķáĭ³": 7599,
      "ĠáįįáįĥáĪľ": 7600,
      "ĠáīłáĪĽáĭ¨": 7601,
      "ĠáĭĭáĭŃ": 7602,
      "ĠáĭĿáĪĺáĬĵ": 7603,
      "ĠáĭŃáĪĺáĪµáĪį": 7604,
      "ĠáĬ¥áĬķáĭ³áīµ": 7605,
      "ĠáĮ¨áĪĿ": 7606,
      "ĠáīĢáĬķáĪ·áĪį": 7607,
      "ĠáĮĢáĪĿáĪ¯áĪį": 7608,
      "áī£áī¸áĭįáĪĿ": 7609,
      "ĠáīłáĮ¥áĪįáīĢáīµ": 7610,
      "ĠáĪģáĪĪáī±áĬķ": 7611,
      "ĠáĬłáĬ«áī£áī¢áĬķ": 7612,
      "ĠáĬ¢áĬķáįĮ": 7613,
      "ĠáīłáĪ½áī³áĭİáī½": 7614,
      "Ġáī¶áĬķ": 7615,
      "áī¬áĬķ": 7616,
      "ĠáĬłáĪµáī°áĭ«áĭ¨áī¶áī½áĬķ": 7617,
      "Ġáĭ¨áĪĺáĮ£áĭį": 7618,
      "ĠáĪĬáĬĸáĪŃáĭİáīµ": 7619,
      "áĪµáī°áĬ«áĬ¨áĪĪ": 7620,
      "ĠáĭŃáĭ°áĪŃáĪ³áĪį": 7621,
      "ĠáĪµáįĸáĬķáĪ°áĪŃ": 7622,
      "ĠáĬłáĬķáĭ²áīµ": 7623,
      "ĠáīłáĬĶ": 7624,
      "ĠáīłáīĭáĪļ": 7625,
      "ĠáĬłáĭĭáīĤ": 7626,
      "ĠáĮ®": 7627,
      "ĠáĪĺáĪĿáĪħáĪŃ": 7628,
      "ĠáĪĺáĭĪáĪ°áĬķ": 7629,
      "ĠáĪĺáĪ®áĮ¥": 7630,
      "ĠáĬ¥áĬĵáĬķáī°": 7631,
      "áĪĽáĪŃáĬŃ": 7632,
      "ĠáĭŃáĮĪáĪįáįĥ": 7633,
      "áīłáĪĭáĪ½": 7634,
      "ĠáĬĲáī£áĪª": 7635,
      "áĬŃáĪ«áĪį": 7636,
      "áĪ°áĭįáĬķ": 7637,
      "áī£áĪĪ": 7638,
      "áĪ³áĪ°áĪį": 7639,
      "Ġáī°áĪĺáĪŃ": 7640,
      "Ġáī°áĬ³": 7641,
      "ĠáĪĭáĪĪáĪĽ": 7642,
      "ĠáĪĭáĭŃáĪĿ": 7643,
      "Ġáĭ¨áĪļáīĢáĮ¥áĪĪáĭį": 7644,
      "Ġáĭ¨áī°áĭĭ": 7645,
      "Ġáĭ¨áī°áĮĪáĬĵáĬĺ": 7646,
      "ĠáĪ°áĮŃ": 7647,
      "ĠáĪĪáĪĺáī³": 7648,
      "ĠáĪĪáĪĽáįħáĭ³áīµ": 7649,
      "ĠáīĢáĬĿ": 7650,
      "áĭĺáĪĺáĬķ": 7651,
      "ĠáĮłáīģ": 7652,
      "ĠáĬ¥áĭ¨áįĪáĪĪáĮį": 7653,
      "ĠáĭĿáĬķáī£": 7654,
      "Ġáĭ«áĪĪáĭİáīµáĬķ": 7655,
      "ĠáĪĺáĬķáĮĪáĭ±áĬķ": 7656,
      "ĠáĬ¨áĬłáĪµáĪŃ": 7657,
      "áĪļáĭ«áĭİáī½": 7658,
      "ĠáĪµáĪįáī³áĭĬ": 7659,
      "áī¾áĪİáĬĴ": 7660,
      "ĠáĪĺáĭ°áĪĿ": 7661,
      "ĠáĪĬáĭ«áĪ³": 7662,
      "Ġáĭ«áĪ³áĭ«áĪī": 7663,
      "áīĭáīĭáĪĻ": 7664,
      "Ġáĭ¨áī¥áĭµáĪŃ": 7665,
      "ĠáĪĽáĪ»áĪ»áĭ«áĭİáī½áĬķ": 7666,
      "ĠáĪĻáĬ¨áĪ«áĭİáī½": 7667,
      "ĠáĬłáĬķáī¥áī¤": 7668,
      "ĠáĬ¨áĪļáĭ«áĪµ": 7669,
      "ĠáĬ¥áĮ©áĭİáī½": 7670,
      "ĠáĭĺáĮįáī§áĪį": 7671,
      "Ġáīłáī°áĭ«áĭ«áĭĻ": 7672,
      "ĠáĪĺáĬŃáĪ°áĪµ": 7673,
      "ĠáĬłáĮĢáĬķáĭ³": 7674,
      "áĬķáī»": 7675,
      "Ġáīłáī¶": 7676,
      "ĠáīłáĮĢ": 7677,
      "áī½áĬĿ": 7678,
      "ĠáĬłáĬĴ": 7679,
      "áĪĺáĮĥ": 7680,
      "áĪĽáī¸áĭįáĬķ": 7681,
      "ĠáĪĪáīĨ": 7682,
      "ĠáĪĪáįĢ": 7683,
      "áĭµáĬ«": 7684,
      "ĠáĬ¨áī¤áī°áĪ°áī¥": 7685,
      "ĠáĬ¨áĪ¨áĮħáĪĿ": 7686,
      "Ġáĭ«áī°áĬ©": 7687,
      "Ġáĭ«áĭĺáĮĭáĮĥ": 7688,
      "áĪªáĭ®": 7689,
      "ĠáĭĪáĮ¥áĬĲáīµ": 7690,
      "áĭļáĬŃáĪµ": 7691,
      "Ġáĭ¨áī°áĮ¨": 7692,
      "Ġáĭ¨áī°áĭ«áĭĻ": 7693,
      "ĠáĪĪáĪĺáĭĿáĬĵáĬĵáīµ": 7694,
      "ĠáĪģáĬķ": 7695,
      "áĪ»áĪĪáĪģ": 7696,
      "áĮ¨áĪĿáĪ©": 7697,
      "ĠáĬłáĭŃáĬĸ": 7698,
      "áįĬáĭ«áĭį": 7699,
      "ĠáĪĬáī°": 7700,
      "ĠáĭµáĪĺáīµ": 7701,
      "ĠáĬ«áĭ¨": 7702,
      "áĬªáĪµáī³áĬķ": 7703,
      "ĠáĭĭáĬķáĮ«": 7704,
      "áĪ°áĪ«áīłáīµ": 7705,
      "áĪ°áĪ«áĮ¨áīµ": 7706,
      "ĠáĬłáĭįáĭ°": 7707,
      "Ġáĭ³áĮįáĪĿ": 7708,
      "áĪ°áĪ¨áī°": 7709,
[...]
