{
  "version": "1.0",
  "truncation": null,
  "padding": null,
  "added_tokens": [
    {
      "id": 0,
      "content": "[UNK]",
      "single_word": false,
      "lstrip": false,
      "rstrip": false,
      "normalized": false,
      "special": true
    },
    {
      "id": 1,
      "content": "[SOS]",
      "single_word": false,
      "lstrip": false,
      "rstrip": false,
      "normalized": false,
      "special": true
    },
    {
      "id": 2,
      "content": "[EOS]",
      "single_word": false,
      "lstrip": false,
      "rstrip": false,
      "normalized": false,
      "special": true
    },
    {
      "id": 3,
      "content": "[PAD]",
      "single_word": false,
      "lstrip": false,
      "rstrip": false,
      "normalized": false,
      "special": true
    }
  ],
  "normalizer": null,
  "pre_tokenizer": {
    "type": "ByteLevel",
    "add_prefix_space": true,
    "trim_offsets": true,
    "use_regex": true
  },
  "post_processor": {
    "type": "ByteLevel",
    "add_prefix_space": true,
    "trim_offsets": true,
    "use_regex": true
  },
  "decoder": {
    "type": "ByteLevel",
    "add_prefix_space": true,
    "trim_offsets": true,
    "use_regex": true
  },
  "model": {
    "type": "BPE",
    "dropout": null,
    "unk_token": "[UNK]",
    "continuing_subword_prefix": null,
    "end_of_word_suffix": null,
    "fuse_unk": false,
    "byte_fallback": false,
    "vocab": {
      "[UNK]": 0,
      "[SOS]": 1,
      "[EOS]": 2,
      "[PAD]": 3,
      "¡": 4,
      "¢": 5,
      "£": 6,
      "¤": 7,
      "¥": 8,
      "¦": 9,
      "§": 10,
      "¨": 11,
      "©": 12,
      "ª": 13,
      "«": 14,
      "¬": 15,
      "®": 16,
      "¯": 17,
      "°": 18,
      "±": 19,
      "²": 20,
      "³": 21,
      "´": 22,
      "µ": 23,
      "¶": 24,
      "·": 25,
      "¸": 26,
      "¹": 27,
      "º": 28,
      "»": 29,
      "¼": 30,
      "½": 31,
      "¾": 32,
      "¿": 33,
      "Â": 34,
      "á": 35,
      "Ġ": 36,
      "Ģ": 37,
      "ģ": 38,
      "Ĥ": 39,
      "ĥ": 40,
      "Ħ": 41,
      "ħ": 42,
      "Ĩ": 43,
      "ĩ": 44,
      "Ī": 45,
      "ī": 46,
      "Ĭ": 47,
      "ĭ": 48,
      "Į": 49,
      "į": 50,
      "İ": 51,
      "ı": 52,
      "Ĳ": 53,
      "ĳ": 54,
      "Ĵ": 55,
      "ĵ": 56,
      "Ķ": 57,
      "ķ": 58,
      "ĸ": 59,
      "Ĺ": 60,
      "ĺ": 61,
      "Ļ": 62,
      "ļ": 63,
      "Ľ": 64,
      "ľ": 65,
      "Ŀ": 66,
      "ŀ": 67,
      "Ł": 68,
      "ł": 69,
      "Ń": 70,
      "ሀ": 71,
      "ሁ": 72,
      "ሂ": 73,
      "ሃ": 74,
      "ሄ": 75,
      "ህ": 76,
      "ሆ": 77,
      "ሇ": 78,
      "ለ": 79,
      "ሉ": 80,
      "ሊ": 81,
      "ላ": 82,
      "ሌ": 83,
      "ል": 84,
      "ሎ": 85,
      "ሏ": 86,
      "ሐ": 87,
      "ሑ": 88,
      "ሒ": 89,
      "ሓ": 90,
      "ሔ": 91,
      "ሕ": 92,
      "ሖ": 93,
      "ሗ": 94,
      "መ": 95,
      "ሙ": 96,
      "ሚ": 97,
      "ማ": 98,
      "ሜ": 99,
      "ም": 100,
      "ሞ": 101,
      "ሟ": 102,
      "ሠ": 103,
      "ሡ": 104,
      "ሢ": 105,
      "ሣ": 106,
      "ሤ": 107,
      "ሥ": 108,
      "ሦ": 109,
      "ሧ": 110,
      "ረ": 111,
      "ሩ": 112,
      "ሪ": 113,
      "ራ": 114,
      "ሬ": 115,
      "ር": 116,
      "ሮ": 117,
      "ሯ": 118,
      "ሰ": 119,
      "ሱ": 120,
      "ሲ": 121,
      "ሳ": 122,
      "ሴ": 123,
      "ስ": 124,
      "ሶ": 125,
      "ሷ": 126,
      "ሸ": 127,
      "ሹ": 128,
      "ሺ": 129,
      "ሻ": 130,
      "ሼ": 131,
      "ሽ": 132,
      "ሾ": 133,
      "ሿ": 134,
      "ቀ": 135,
      "ቁ": 136,
      "ቂ": 137,
      "ቃ": 138,
      "ቄ": 139,
      "ቅ": 140,
      "ቆ": 141,
      "ቇ": 142,
      "ቈ": 143,
      "ቊ": 144,
      "ቋ": 145,
      "ቌ": 146,
      "ቍ": 147,
      "በ": 148,
      "ቡ": 149,
      "ቢ": 150,
      "ባ": 151,
      "ቤ": 152,
      "ብ": 153,
      "ቦ": 154,
      "ቧ": 155,
      "ቨ": 156,
      "ቩ": 157,
      "ቪ": 158,
      "ቫ": 159,
      "ቬ": 160,
      "ቭ": 161,
      "ቮ": 162,
      "ቯ": 163,
      "ተ": 164,
      "ቱ": 165,
      "ቲ": 166,
      "ታ": 167,
      "ቴ": 168,
      "ት": 169,
      "ቶ": 170,
      "ቷ": 171,
      "ቸ": 172,
      "ቹ": 173,
      "ቺ": 174,
      "ቻ": 175,
      "ቼ": 176,
      "ች": 177,
      "ቾ": 178,
      "ቿ": 179,
      "ኀ": 180,
      "ኁ": 181,
      "ኂ": 182,
      "ኃ": 183,
      "ኄ": 184,
      "ኅ": 185,
      "ኆ": 186,
      "ኇ": 187,
      "ኈ": 188,
      "ኊ": 189,
      "ኋ": 190,
      "ኌ": 191,
      "ኍ": 192,
      "ነ": 193,
      "ኑ": 194,
      "ኒ": 195,
      "ና": 196,
      "ኔ": 197,
      "ን": 198,
      "ኖ": 199,
      "ኗ": 200,
      "ኘ": 201,
      "ኙ": 202,
      "ኚ": 203,
      "ኛ": 204,
      "ኜ": 205,
      "ኝ": 206,
      "ኞ": 207,
      "ኟ": 208,
      "አ": 209,
      "ኡ": 210,
      "ኢ": 211,
      "ኣ": 212,
      "ኤ": 213,
      "እ": 214,
      "ኦ": 215,
      "ኧ": 216,
      "ከ": 217,
      "ኩ": 218,
      "ኪ": 219,
      "ካ": 220,
      "ኬ": 221,
      "ክ": 222,
      "ኮ": 223,
      "ኯ": 224,
      "ኰ": 225,
      "ኲ": 226,
      "ኳ": 227,
      "ኴ": 228,
      "ኵ": 229,
      "ኸ": 230,
      "ኹ": 231,
      "ኺ": 232,
      "ኻ": 233,
      "ኼ": 234,
      "ኽ": 235,
      "ኾ": 236,
      "ወ": 237,
      "ዉ": 238,
      "ዊ": 239,
      "ዋ": 240,
      "ዌ": 241,
      "ው": 242,
      "ዎ": 243,
      "ዐ": 244,
      "ዑ": 245,
      "ዒ": 246,
      "ዓ": 247,
      "ዔ": 248,
      "ዕ": 249,
      "ዖ": 250,
      "ዘ": 251,
      "ዙ": 252,
      "ዚ": 253,
      "ዛ": 254,
      "ዜ": 255,
      "ዝ": 256,
      "ዞ": 257,
      "ዟ": 258,
      "ዠ": 259,
      "ዡ": 260,
      "ዢ": 261,
      "ዣ": 262,
      "ዤ": 263,
      "ዥ": 264,
      "ዦ": 265,
      "ዧ": 266,
      "የ": 267,
      "ዩ": 268,
      "ዪ": 269,
      "ያ": 270,
      "ዬ": 271,
      "ይ": 272,
      "ዮ": 273,
      "ደ": 274,
      "ዱ": 275,
      "ዲ": 276,
      "ዳ": 277,
      "ዴ": 278,
      "ድ": 279,
      "ዶ": 280,
      "ዷ": 281,
      "ጀ": 282,
      "ጁ": 283,
      "ጂ": 284,
      "ጃ": 285,
      "ጄ": 286,
      "ጅ": 287,
      "ጆ": 288,
      "ጇ": 289,
      "ገ": 290,
      "ጉ": 291,
      "ጊ": 292,
      "ጋ": 293,
      "ጌ": 294,
      "ግ": 295,
      "ጎ": 296,
      "ጏ": 297,
      "ጠ": 298,
      "ጡ": 299,
      "ጢ": 300,
      "ጣ": 301,
      "ጤ": 302,
      "ጥ": 303,
      "ጦ": 304,
      "ጧ": 305,
      "ጨ": 306,
      "ጩ": 307,
      "ጪ": 308,
      "ጫ": 309,
      "ጬ": 310,
      "ጭ": 311,
      "ጮ": 312,
      "ጯ": 313,
      "ጰ": 314,
      "ጱ": 315,
      "ጲ": 316,
      "ጳ": 317,
      "ጴ": 318,
      "ጵ": 319,
      "ጶ": 320,
      "ጷ": 321,
      "ጸ": 322,
      "ጹ": 323,
      "ጺ": 324,
      "ጻ": 325,
      "ጼ": 326,
      "ጽ": 327,
      "ጾ": 328,
      "ጿ": 329,
      "ፀ": 330,
      "ፁ": 331,
      "ፂ": 332,
      "ፃ": 333,
      "ፄ": 334,
      "ፅ": 335,
      "ፆ": 336,
      "ፇ": 337,
      "ፈ": 338,
      "ፉ": 339,
      "ፊ": 340,
      "ፋ": 341,
      "ፌ": 342,
      "ፍ": 343,
      "ፎ": 344,
      "ፏ": 345,
      "ፐ": 346,
      "ፑ": 347,
      "ፒ": 348,
      "ፓ": 349,
      "ፔ": 350,
      "ፕ": 351,
      "ፖ": 352,
      "áĪ": 353,
      "áĬ": 354,
      "áĭ": 355,
      "áī": 356,
      "áĮ": 357,
      "ĠáĬ": 358,
      "ĠáĪ": 359,
      "Ġáĭ": 360,
      "áĬķ": 361,
      "Ġáī": 362,
      "áīµ": 363,
      "áĭį": 364,
      "áĪĿ": 365,
      "Ġáĭ¨": 366,
      "áĪŃ": 367,
      "áį": 368,
      "áĪį": 369,
      "ĠáĬ¥": 370,
      "Ġáīł": 371,
      "áĪµ": 372,
      "ĠáĬł": 373,
      "áī½": 374,
      "áĪĪ": 375,
      "áĬĵ": 376,
      "áĪĺ": 377,
      "ĠáĮ": 378,
      "áĬķáĭ": 379,
      "áĭŃ": 380,
      "áī°": 381,
      "áĭ«": 382,
      "áĪĭ": 383,
      "áĪħ": 384,
      "áĮĪ": 385,
      "ĠáĪĺ": 386,
      "áĬĲ": 387,
      "áĪ¨": 388,
      "áĮį": 389,
      "áīł": 390,
      "áĪ«": 391,
      "áĭ°": 392,
      "áī¥": 393,
      "ĠáĬ¨": 394,
      "áĪĽ": 395,
      "ĠáĭŃ": 396,
      "áī³": 397,
      "áĭµ": 398,
      "ĠáĬĲ": 399,
      "áĪļ": 400,
      "ĠáĪĪ": 401,
      "áĪ°": 402,
      "ĠáĬ¥áĬķáĭ": 403,
      "áĬŃ": 404,
      "áĮ¥": 405,
      "áī£": 406,
      "áĭİ": 407,
      "áĪī": 408,
      "Ġáĭ«": 409,
      "áįį": 410,
      "ĠáĭĪ": 411,
      "áĮł": 412,
      "áīĢ": 413,
      "áĪ³": 414,
      "áĪĨ": 415,
      "áī¸": 416,
      "áĬł": 417,
      "áĪģ": 418,
      "áīħ": 419,
      "ĠáĪµ": 420,
      "Ġáī°": 421,
      "áįĪ": 422,
      "áĬ¨": 423,
      "áī¸áĭį": 424,
      "áĬ¥": 425,
      "ĠáĬ¥áĬĵ": 426,
      "áĭİáī½": 427,
      "áĭĪ": 428,
      "áĪª": 429,
      "áĮ£": 430,
      "Ġáĭ¨áĪļ": 431,
      "ĠáĪĿ": 432,
      "ĠáĪĽ": 433,
      "áĮĭ": 434,
      "áĭ³": 435,
      "áĬĽ": 436,
      "áĬ«": 437,
      "áĭļ": 438,
      "ĠáĪ°": 439,
      "áĭĭ": 440,
      "ĠáĪĭ": 441,
      "áī¶": 442,
      "ĠáĬĲáĭį": 443,
      "áī±": 444,
      "ĠáĬ¥áĬķáĭ°": 445,
      "ĠáĪĭáĭŃ": 446,
      "áĪ©": 447,
      "áĭ¨": 448,
      "áĪ®": 449,
      "áĪ±": 450,
      "Ġáĭį": 451,
      "Ġáī¥": 452,
      "áīĥ": 453,
      "Ġáĭ¨áī°": 454,
      "áĪİ": 455,
      "áī½áĬķ": 456,
      "ĠáĬ¥áĬķáĭ²": 457,
      "áĬķáĭµ": 458,
      "áĬĲáīµ": 459,
      "áĬĿ": 460,
      "áĬĸ": 461,
      "áįħ": 462,
      "ĠáĪģ": 463,
      "áĪĢ": 464,
      "ĠáĮį": 465,
      "áĬĳ": 466,
      "áĭĿ": 467,
      "áĭįáĬķ": 468,
      "ĠáĪį": 469,
      "Ĭáĭ": 470,
      "áĭļáĪħ": 471,
      "Ġáīµ": 472,
      "áĪŀ": 473,
      "áĭĬ": 474,
      "ĠáĮ¥": 475,
      "Ĭáĭľ": 476,
      "Ġáĭ°": 477,
      "áī»": 478,
      "áĪµáĮ¥": 479,
      "ĠáīłáĪĺ": 480,
      "ĠáĭĪáĭ°": 481,
      "Ġáį": 482,
      "Ġáī£": 483,
      "ĠáĬĲáĮĪ": 484,
      "áĪĪáĭį": 485,
      "ĠáĭįáĪµáĮ¥": 486,
      "áīłáĪŃ": 487,
      "áĭĺ": 488,
      "ĠáĮĬáĭľ": 489,
      "áĬĶ": 490,
      "áĬķáĪĿ": 491,
      "áĮħ": 492,
      "áīłáīµ": 493,
      "ĠáĪĪáĪĺ": 494,
      "ĠáĭŃáĪħ": 495,
      "áĪ½": 496,
      "ĠáĬłáĪµ": 497,
      "áĮī": 498,
      "ĠáīĢ": 499,
      "ĠáĬłáĭŃ": 500,
      "áįĭ": 501,
      "áĪĨáĬĲ": 502,
      "ĠáĪµáĪĪ": 503,
      "áĪĮ": 504,
      "áĪĻ": 505,
      "ĠáīłáĬł": 506,
      "ĠáĪ²": 507,
      "ĠáĬŃ": 508,
      "ĠáĮĭ": 509,
      "áī¢": 510,
      "áĭĽ": 511,
      "áĬ©": 512,
      "ĠáĬ¥áĬķ": 513,
      "ĠáĪĪáĪĽ": 514,
      "áĪªáĭ«": 515,
      "Ġáĭ¨áĪĺ": 516,
      "áī¡": 517,
      "áī¶áī½": 518,
      "Ġáĭµ": 519,
      "ĠáĪĢ": 520,
      "áĭ±": 521,
      "áĪĨáĬķ": 522,
      "Ġáĭ¨áĬł": 523,
      "áĪ»": 524,
      "áī¹": 525,
      "ĠáĪħ": 526,
      "áī½áĪģ": 527,
      "ĠáĬĲáīłáĪŃ": 528,
      "ĠáĮĭáĪŃ": 529,
      "ĠáĬĲáĮĪáĪŃ": 530,
      "áįĬ": 531,
      "áĪĪáĪģ": 532,
      "ĠáĮįáĬķ": 533,
      "ĠáĪĬ": 534,
      "áīµáĬķ": 535,
      "áĭŃáĪĿ": 536,
      "áĮ¨": 537,
      "áīĨ": 538,
      "ĠáĪģáĪī": 539,
      "ĠáĪĨ": 540,
      "ĠáĮĪ": 541,
      "áĮĢ": 542,
      "ĠáĬłáĪĪ": 543,
      "Ġáīłáī°": 544,
      "áĭĻ": 545,
      "áĪĭáĪį": 546,
      "áĭ°áĪŃ": 547,
      "áĬ¤": 548,
      "Ġáĭĺ": 549,
      "ĠáīłáĬ¥": 550,
      "áĪ¬": 551,
      "áĪĨáĬĳ": 552,
      "Ġáī¤": 553,
      "Ġáī³": 554,
      "ĠáĭĪáĭŃáĪĿ": 555,
      "áĭ²": 556,
      "áīģ": 557,
      "áĭĭáĪį": 558,
      "áĪµáīµ": 559,
      "áĪĦ": 560,
      "áĭµáĪŃ": 561,
      "áĪĪáīµ": 562,
      "áī°áĬĽ": 563,
      "áĮĥ": 564,
      "áĭ©": 565,
      "Ġáĭ¨áĪļáĭ«": 566,
      "ĠáĪĺáĬķ": 567,
      "áĪĿáĪĭ": 568,
      "áī¤": 569,
      "ĠáĬ«": 570,
      "Ġáīħ": 571,
      "ĠáĬłáĪĺ": 572,
      "ĠáĬ¢": 573,
      "Ġáįį": 574,
      "áĭ®": 575,
      "áĭļáĭ«": 576,
      "áĪµáĪ«": 577,
      "áĭĮ": 578,
      "áī¦": 579,
      "áĬĺ": 580,
      "áĪľ": 581,
      "ĠáĬķ": 582,
      "ĠĠ": 583,
      "Ġáĭ¨áĪĿ": 584,
      "áĮİ": 585,
      "áīĤ": 586,
      "áĮ¡": 587,
      "ĠáĪ³": 588,
      "áī´": 589,
      "áįĥ": 590,
      "áī²": 591,
      "áĪĿáĪĭáĬŃ": 592,
      "ĠáĪ°áĭİáī½": 593,
      "ĠáīłáĪĽ": 594,
      "áĭ°áĪ¨": 595,
      "áįĢ": 596,
      "áī¸áĭįáĬķ": 597,
      "Ġáĭ¨áĬ¥": 598,
      "ĠáĬ¥áĬĲ": 599,
      "ĠáīłáĬ": 600,
      "áĬĵáĪį": 601,
      "ĠáĪ°áĭį": 602,
      "ĠáĮł": 603,
      "áĮ£áĪĿ": 604,
      "áĪµáī°": 605,
      "áĪĬ": 606,
      "áĪ®áī½": 607,
      "áĮŃ": 608,
      "áīłáĪ¨": 609,
      "ĠáĬłáĬķáĭµ": 610,
      "áĪħáĭĮ": 611,
      "áĮĨ": 612,
      "áĪŃáĪµ": 613,
      "áįĪáĪį": 614,
      "ĠáĬ¥áĬķáĭ°áĪļ": 615,
      "ĠáīłáĮ£áĪĿ": 616,
      "áĬķáĭ³": 617,
      "Ġáĭ¨áĪĽ": 618,
      "áĬ®": 619,
      "áĪĪáĪĿ": 620,
      "áĬķáī°": 621,
      "ĠáĬ¥áĬķáĭ³": 622,
      "áĪ¨áīµ": 623,
      "áĮĪáĪį": 624,
      "ĠáīłáĪļ": 625,
      "Ġáī¢": 626,
      "áĭµáĪ¨": 627,
      "áĪ´": 628,
      "ĠáĭŃáī½": 629,
      "áĪĪáĬķ": 630,
      "áĮ«": 631,
      "ĠáįĪ": 632,
      "áĬŀ": 633,
      "ĠáĪĮ": 634,
      "ĠáĬłáĪį": 635,
      "ĠáĮī": 636,
      "áĪİáī½": 637,
      "áĭ¶": 638,
      "ĠáĪĿáĬķ": 639,
      "áĭ«áĬķ": 640,
      "áĪĭáī¸áĭį": 641,
      "Ġáĭ«áĪĪ": 642,
      "Ġáī¥áĭĻ": 643,
      "ĠáĬ¨áī°": 644,
      "ĠáĬ¥áĪµ": 645,
      "áīĭ": 646,
      "áĭİáī½áĬķ": 647,
      "áĭįáĪĿ": 648,
      "áĬķáĭ«": 649,
      "áĪģáĬķ": 650,
      "áĮĪáĭµ": 651,
      "ĭáĪĭ": 652,
      "ĠáĬ¥áĭ¨": 653,
      "ĠáĪĿáĬŃ": 654,
      "áĪĺáĪĪ": 655,
      "áĪ¸": 656,
      "ĠáĬĵ": 657,
      "áĬĴ": 658,
      "áĮĪáī£": 659,
      "ĠáĬ¨áĬ¥": 660,
      "ĠáĬ¥áĬķáĭ²áĪħ": 661,
      "áĪŃáīµ": 662,
      "áĬ«áĬ¨": 663,
      "ĠáīłáĭļáĪħ": 664,
      "áĪ¶": 665,
      "ĠáĪµáĪ«": 666,
      "áĪ²": 667,
      "áĬĻ": 668,
      "áĪĽáĪª": 669,
      "áĪĭáĭŃ": 670,
      "ĠáĭŃáĪĨ": 671,
      "Ġáī¦": 672,
      "áĬķáĮį": 673,
      "ĠáīłáĬĭáĪĭ": 674,
      "áĪĿáĬķ": 675,
      "Ġáī¤áīµ": 676,
      "áĪ¨áĮĥ": 677,
      "ĠáĬ¨áĪĺ": 678,
      "áī³áĪį": 679,
      "ĠáĬ¥áĪŃ": 680,
      "Ġáī£áĪĪ": 681,
      "ĠáĬłáĪĿáĪĭáĬŃ": 682,
      "áįī": 683,
      "áĬ¨áī°": 684,
      "´áīµ": 685,
      "áįİ": 686,
      "ĠáĬ¨áĬł": 687,
      "ĠáĪĺáĪį": 688,
      "ĠáĪĻ": 689,
      "áī±áĬķ": 690,
      "áīħáĪŃ": 691,
      "áĪ°áĪ«": 692,
      "áĬª": 693,
      "ĠáĭŃáĪħáĬķ": 694,
      "ĠáĬ¥áĬĶ": 695,
      "ĠáĬ¤": 696,
      "áĮĢáĪĺ": 697,
      "áĮĪáĪŃ": 698,
      "áĪ«áīµ": 699,
      "áĪ°áī¥": 700,
      "ĠáĪļ": 701,
      "áĭµáĪ¨áĮį": 702,
      "áĪµáī³": 703,
      "ĠáĬ¥áĬķáĭ²áĪģ": 704,
      "Ġáĭ«áĪħáĭĮ": 705,
      "áĬ³": 706,
      "áĪīáīµ": 707,
      "Ġáĭ°áĮį": 708,
      "áī·": 709,
      "áĮĬ": 710,
      "áĪĭáĪī": 711,
      "ĠáĬłáĬķ": 712,
      "áĭŃáĭĪ": 713,
      "Ġáĭ¨áĪĨáĬĲ": 714,
      "ĠáĬŃáįį": 715,
      "áĪħáĬķ": 716,
      "áĪ°áĪĽ": 717,
      "áįħáĪĢ": 718,
      "Ġáīģ": 719,
      "áĮłáīĢ": 720,
      "áĭ¨áīµ": 721,
      "ĠáĪįáĮĨ": 722,
      "ĠáīĢáĬķ": 723,
      "áĬķáĭ±": 724,
      "ĠáĭĿ": 725,
      "áĬĶáī³": 726,
      "ĠáĪĺáĪµ": 727,
      "Ġáīĥ": 728,
      "áįĬáīµ": 729,
      "áĮĤ": 730,
      "Ġáĭ°áĮįáĪŀ": 731,
      "áī£áīµ": 732,
      "áįķ": 733,
      "Ġáī¦áī³": 734,
      "ĠáĬ¥áĭ«": 735,
      "ĠáĬ¥áĬķáĭ²áĪģáĪĿ": 736,
      "áīłáĪ©": 737,
      "Ġáĭĭ": 738,
      "ĠáĬ¨áĭļáĭ«": 739,
      "Ġáī¥áī»": 740,
      "ĠáĪģáĬĶáī³": 741,
      "áĪĺáĪį": 742,
      "áīĢáĪŃ": 743,
      "áĬ¤áĪį": 744,
      "ĠáĬĵáī¸áĭį": 745,
      "ĠáĭŃáī½áĪĭáĪį": 746,
      "áĭ«áĪµ": 747,
      "ĠáĪĿáĬŃáĬķáĭ«": 748,
      "áī£áī¸áĭį": 749,
      "ĠáĪ«": 750,
      "áĬĵáīµ": 751,
      "ĠáĬ¥áĪ±": 752,
      "áĪ¨áĭį": 753,
      "ĠáĮ¥áĪ©": 754,
      "Ġáīħáĭ±": 755,
      "ĠáĪĪáĬ¥": 756,
      "Ġáĭ³": 757,
      "áįħáĪĢáįį": 758,
      "áĪįáīħ": 759,
      "áī³áīµ": 760,
      "áĮĪáĬĺ": 761,
      "áī½áĪį": 762,
      "Ġáĭ«áĪĪáĭį": 763,
      "áĭįáĭ«áĬķ": 764,
      "áĪ±áĪµ": 765,
      "ĠáĬłáĬ«": 766,
      "áĭ¨áĪ±áĪµ": 767,
      "áĭİáĬķ": 768,
      "áĮĵ": 769,
      "ĠáĬłáĪĭ": 770,
      "áĪĺáĬķ": 771,
      "ĠáĬłáĬķáĭ³": 772,
      "ĠáĬłáĭµáĪŃ": 773,
      "ĠáĪĨáĬĸ": 774,
      "ĠáĪĪáĬł": 775,
      "ĠáĪĿáĬķáĪĿ": 776,
      "áĬłáīµ": 777,
      "áĬŀáī½": 778,
      "áĮ¦": 779,
      "áĬĸáĪŃ": 780,
      "ĠáĬłáĪµáī°": 781,
      "áī¥áĪŃ": 782,
      "ĠáĪĺáĬķáĮĪáĭµ": 783,
      "ĠáĪĽáĬķ": 784,
      "áĬĲáĪ³": 785,
      "áĭ«áĭį": 786,
      "Ġáī½": 787,
      "ĠáĬ¨áįį": 788,
      "ĠáĬ¥áĬķáĭµ": 789,
      "áĬ¢": 790,
      "ĠáĬ¥áĬķáĭ´áīµ": 791,
      "ĠáĬłáĮĪáĪį": 792,
      "áĬ«áĬ¨áĪį": 793,
      "áĮĢáĪĺáĪªáĭ«": 794,
      "Ġáīħáĭ±áĪµ": 795,
      "ĠáĪįáĮħ": 796,
      "áĬĺáīµ": 797,
      "Ġáĭ¨áĪ°": 798,
      "ĠáĮīáĭ³": 799,
      "Ġáĭ¨áĬĲ": 800,
      "áĭ¬": 801,
      "áĪ¨áĪµ": 802,
      "ĠáĬ®": 803,
      "ĠáĪĺáĮł": 804,
      "áĪ³áĪĮ": 805,
      "áĮ¨áĪĽáĪª": 806,
      "ĠáĪĨáĬĲ": 807,
      "áĪ«áĭĬ": 808,
      "áĮĪáĬĵ": 809,
      "Ġáĭ¨áīł": 810,
      "áī±áĪĿ": 811,
      "áĪĭáīµ": 812,
      "ĠáĬ¥áĬĲáĭļáĪħ": 813,
      "ĠáīłáĪĿ": 814,
      "áĮįáī£": 815,
      "áĪĿáĪħ": 816,
      "ĠáĮĢ": 817,
      "ĠáĪŀ": 818,
      "ĠáįĬ": 819,
      "ĠáĪħáĭĿ": 820,
      "ĠáīĨ": 821,
      "áĭİáī¹": 822,
      "áĪĺáĪŃ": 823,
      "Ġáĭ«áĪµ": 824,
      "ĠáĪĺáĪ°": 825,
      "áī¢áĭ«": 826,
      "ĠáĬ¥áĭį": 827,
      "áīĦ": 828,
      "áĬ¨áīµ": 829,
      "áĭ´": 830,
      "áī¶áī½áĬķ": 831,
      "ĠáĬ¥áĪµáĬ¨": 832,
      "áĬĵáĮĪ": 833,
      "áĪĺáĪµ": 834,
      "ĠáĪĺáĬ«áĬ¨áĪį": 835,
      "áĬķáĪµ": 836,
      "áĬ¦": 837,
      "áĪħáĪį": 838,
      "ĠáĬłáĪĺáīµ": 839,
      "ĠáĪĿáĪŃ": 840,
      "áĪĪáī½": 841,
      "ĠáĬłáĭŃáĭ°": 842,
      "áĬĸáī½": 843,
      "áĮįáī¥": 844,
      "áĭĪáĪ°": 845,
      "áĪĪáĪħ": 846,
      "áĪ¨áĭ³": 847,
      "áĪ«áĪį": 848,
      "áī¦áī½": 849,
      "áĪ³áĭŃ": 850,
      "áĭ«áĪħáĭĮ": 851,
      "ĠáĬ¥áĬķáĭ°áĪĨáĬĲ": 852,
      "áĮ¤": 853,
      "ĠáĮ¨": 854,
      "ĠáĬ¢áĭ¨áĪ±áĪµ": 855,
      "Ġáįķ": 856,
      "áī¼": 857,
      "áĪĭáī½áĪģ": 858,
      "áĮįáĬĺáīµ": 859,
      "áĮĪáĪĪ": 860,
      "áĬĽáĪį": 861,
      "áĮ£áīµ": 862,
      "ĠáīĥáĪį": 863,
      "ĠáĬłáī£": 864,
      "áĭµáĬķ": 865,
      "ĠáĬłáĭį": 866,
      "áĪ¨áĮĭ": 867,
      "ĠáĬłáī¥": 868,
      "áĬĿáĬĲáīµ": 869,
      "áī£áī¢": 870,
      "áĬŃáīµ": 871,
      "áĮĪáĭį": 872,
      "ĠáĪµáĪŃ": 873,
      "ĠáĪįáĮĨáī½": 874,
      "áīłáĪį": 875,
      "áĬķáĭ¶": 876,
      "áįĸ": 877,
      "áĬłáī¥": 878,
      "ĠáĪĮáĪĭ": 879,
      "áĮįáĪİ": 880,
      "ĠáĪ³áĭŃ": 881,
      "áįģ": 882,
      "áĪ±áĪĿ": 883,
      "ĠáĭµáĪŃ": 884,
      "ĠáĬ¨áĭļáĭ«áĪĿ": 885,
      "ĠáĭµáĪ¨áĪµ": 886,
      "Ġáĭ¨áĭĪ": 887,
      "áĭ²áĪµ": 888,
      "áĪı": 889,
      "áĮĪáĬĻ": 890,
      "áĪĺáĮ£": 891,
      "áĮģ": 892,
      "áĭŃáĭĪáīµ": 893,
      "áīħáĪĿ": 894,
      "áĮĮ": 895,
      "ĠáĬłáĭŃáĬĲáīµ": 896,
      "ĠáīłáįĬáīµ": 897,
      "ĠáĪµáĪĪáĭļáĪħ": 898,
      "áĪ¯": 899,
      "áĬķáĬķ": 900,
      "Ġáįħ": 901,
      "ĠáĪŃ": 902,
      "áĪīáĪĿ": 903,
      "ĠáĬĲáĮĪáĪ®áī½": 904,
      "áĪĿáĪ®": 905,
      "ĠáĬłáĪģáĬķ": 906,
      "ĠáīłáĪĭáĭŃ": 907,
      "áī³áĭĬ": 908,
      "áĪŃáĭµ": 909,
      "áĪĿáĬĵ": 910,
      "áĪĪáĭ«": 911,
      "ĠáīłáĪĻ": 912,
      "ĠáĬ¥áĬķáĭ²áĭ«": 913,
      "áĪŀáī½": 914,
      "áī°áĭį": 915,
      "áĪĪáĮł": 916,
      "ĠáįĢ": 917,
      "ĠáĬ¨áĭļáĪħ": 918,
      "áĪĦáĪŃ": 919,
      "ĠáĬłáĬķáĭ³áĬķáĭµ": 920,
      "ĠáĭŃáī½áĪĭáĪī": 921,
      "ĠáĬ¥áĭµ": 922,
      "ĠáĪĢáĭŃ": 923,
      "áĭĪáīħ": 924,
      "áī½áĬķáĬķ": 925,
      "ĠáĪĺáįħáĪĢáįį": 926,
      "áĬŃáĪį": 927,
      "áĮįáĪŃ": 928,
      "áī·áĪį": 929,
      "áĭŀ": 930,
      "áĮ¨áĪ¨": 931,
      "Ġáĭ«áĪī": 932,
      "áī¸áĭĭáĪį": 933,
      "áĪµáĪ«áĬ¤áĪį": 934,
      "ĠáĭŃáĪĨáĬĵáĪį": 935,
      "áīĢáīµ": 936,
      "ĠáĬ¨áĪĨáĬĲ": 937,
      "áĮ¥áĪŃ": 938,
      "áī³áī¸áĭį": 939,
      "áĬĽáĭį": 940,
      "ĠáĭŃáĪģáĬķ": 941,
      "áĭĺáĮĭ": 942,
      "ĠáĪ¨": 943,
      "áĪļáĭ«": 944,
      "áĮįáĭļ": 945,
      "ĠáĭĪáĬķáĭµ": 946,
      "ĠáĬ¥áĬķáĬ³": 947,
      "áĪ±áĬķ": 948,
      "ĠáīµáĬķ": 949,
      "áĮĪáĬĿ": 950,
      "ĠáĬłáĪ³": 951,
      "Ġáĭ¨áĪħ": 952,
      "áĬĽáĭįáĪĿ": 953,
      "ĠáīłáĬ¥áĪŃ": 954,
      "Ġáĭ°áĪ¨áĮĥ": 955,
      "Ġáī°áĪµ": 956,
      "ĠáīłáīĢ": 957,
      "áĬķáĭĺ": 958,
      "áĪ°áĮł": 959,
      "ĠáĪĺáĬķáĮį": 960,
      "ĠáĪĿáĪµ": 961,
      "ĠáĪĽáĭµáĪ¨áĮį": 962,
      "áĪ³áīµ": 963,
      "ĠáĬłáīµ": 964,
      "Ġáĭ¨áĪļáĭ«áĪµ": 965,
      "áĪĿáĪŃ": 966,
      "ĠáĪĽáĪĪáīµ": 967,
      "áĮįáĪį": 968,
      "Ġáĭ¨áĬ¢": 969,
      "áĮ¨áĪ¨áĪ»": 970,
      "ĠáĬķáĮī": 971,
      "ĠáīłáĪħ": 972,
      "áĮįáĭļáĬłáī¥": 973,
      "áĮįáĭļáĬłáī¥áĪĦáĪŃ": 974,
      "ĠáĪĮáĪİáī½": 975,
      "áĮįáĪ«": 976,
      "ĠáĮİ": 977,
      "ĠáĬłáĪµáįĪ": 978,
      "Ġáĭ¨áīµ": 979,
      "áī»áī¸áĭį": 980,
      "ĠáĪµáĪĿ": 981,
      "áī£áĪį": 982,
      "ĠáĪ½": 983,
      "Ġáĭ«áĪħáĪį": 984,
      "ĠáĬłáĮĪáĪįáĮįáĪİ": 985,
      "ĠáĬłáĪĽ": 986,
      "ĠáĬłáĪĪáĭį": 987,
      "ĠáĭĽ": 988,
      "áĮ£áĬķ": 989,
      "Ġáĭ«áĪį": 990,
      "áĮłáĪŃ": 991,
      "áĮłáīĥ": 992,
      "áĬ¬": 993,
      "ĠáīłáĪĻáĪī": 994,
      "áĪ·": 995,
      "ĠáĬłáĬķáī°": 996,
      "áĪĿáĪħáĪŃáīµ": 997,
      "áĪĦáĭµ": 998,
      "ĠáĪĪáĪĿ": 999,
      "ĠáĭŃáĪĨáĭĭ": 1000,
      "ĠáĪĢáĪ³": 1001,
      "áĭ°áĪŃáĮĭ": 1002,
      "Ġáīłáīµ": 1003,
      "ĠáĬŃáĪŃáĪµ": 1004,
      "ĠáĬłáĭŃáĭ°áĪĪáĪĿ": 1005,
      "áĭĪáĮ£": 1006,
      "áįįáīµ": 1007,
      "áĭ°áĭį": 1008,
      "áī½áĪĭ": 1009,
      "áĮĬáĭľ": 1010,
      "Ġáī¡": 1011,
      "áĮłáīł": 1012,
      "ĠáīłáĪ°": 1013,
      "ĠáĪ´": 1014,
      "áįĪáĪĪ": 1015,
      "áįĪáĪįáĮĭ": 1016,
      "áĬķáīµ": 1017,
      "Ġáīłáĭļáĭ«": 1018,
      "Ġáī¤áī°": 1019,
      "ĠáĬłáĪĿ": 1020,
      "áĪĨáĬĳáĪĿ": 1021,
      "áī³áĭį": 1022,
      "ĠáĬ¨áĪļ": 1023,
      "ĠáĬ¥áĮħ": 1024,
      "áĪªáĬ«": 1025,
      "ĠáĮ£": 1026,
      "áĮ¢": 1027,
      "áįĮ": 1028,
      "áī°áĪŃ": 1029,
      "áĬķáĬĵ": 1030,
      "áĮłáīĢáĪĿ": 1031,
      "Ġáī¥áĪİ": 1032,
      "Ġáī°áīĢ": 1033,
      "ĠáĬ¨áįįáī°áĬĽ": 1034,
      "ĠáĪĦ": 1035,
      "áī¤áīµ": 1036,
      "áĭ«áīĦ": 1037,
      "áĪ«áī¸áĭį": 1038,
      "Ġáĭ¨áīĢ": 1039,
      "áįĴ": 1040,
      "áĪ¨áī¥": 1041,
      "ĠáĪĿáĭµáĪŃ": 1042,
      "áĪĭáĮĬ": 1043,
      "Ġáĭ¨áĪµ": 1044,
      "áĪ©áīµ": 1045,
      "ĠáĪģáĪīáĪĿ": 1046,
      "ĠáĭĪáīħ": 1047,
      "ĠáīłáĪŃ": 1048,
      "ĠáĪģáĪĪáīµ": 1049,
      "ĠáĬŃáįįáĪį": 1050,
      "ĠáĪ²áĪĨáĬķ": 1051,
      "ĠáĭµáĬķ": 1052,
      "áįĵ": 1053,
      "ĠáĪ¶": 1054,
      "áĪªáĭİáī½": 1055,
      "áĭ®áī½": 1056,
      "ĠáĬ¥áĭ¨áī°": 1057,
      "áĪĿáĬĲáīµ": 1058,
      "áĭŃáīµ": 1059,
      "Ġáĭ¨áĪĿáīµ": 1060,
      "ĠáĪĻáĪī": 1061,
      "Ġáīłáĭ°": 1062,
      "áĮįáĮ¥": 1063,
      "áĬ¸": 1064,
      "ĠáĬ¦": 1065,
      "áĬĭ": 1066,
      "áĬķáĭĺáī¥": 1067,
      "áĬķáĭ¶áī½": 1068,
      "ĠáįĬáīµ": 1069,
      "Ġáĭ¨áĪĽáĭŃ": 1070,
      "ĠáĮĮ": 1071,
      "áĭ¶áī½": 1072,
      "Ġáĭ²": 1073,
      "ĠáįķáĪ®": 1074,
      "áĬĲáĭį": 1075,
      "ĠáĭĺáĬķáĭµ": 1076,
      "áĪĽáīµ": 1077,
      "áĪ°áĮ£": 1078,
      "ĠáĬ¥áĬĽ": 1079,
      "áįĪáįĢ": 1080,
      "ĠáĪĺáĪ°áĪ¨áīµ": 1081,
      "áĭĪáĪµ": 1082,
      "ĠáĪĺáĪ¨áĮĥ": 1083,
      "ĠáĬłáĪī": 1084,
      "ĠáĮ¥áĭ«áīĦ": 1085,
      "áīłáī¥": 1086,
      "ĠáĪĬáĭ«": 1087,
      "áįĭáīµ": 1088,
      "áĬĲáīłáĪ¨": 1089,
      "ĠáĪĪáĪļ": 1090,
      "ĠáīłáĮ¥": 1091,
      "áĬ©áĪį": 1092,
      "ĠáĪĺáĪĨáĬĳ": 1093,
      "áĪĺáĪ°": 1094,
      "Ġáī£áĪħ": 1095,
      "ĠáĬłáĪĺáī³áīµ": 1096,
      "áĮłáĬĵ": 1097,
      "Ġáīłáĭ¨": 1098,
      "ĠáīłáĪµ": 1099,
      "ĠáĪįáī¥": 1100,
      "áī¹áĬķ": 1101,
      "áī³áī½áĬķ": 1102,
      "Ġáĭ«áĪĪáĭįáĬķ": 1103,
      "ĠáĪµáĪį": 1104,
      "ĠáĭŃáĪħáĪĿ": 1105,
      "ĠáĪĺáĪ³": 1106,
      "áĪŁ": 1107,
      "ĠáĬłáĪµáįĪáĪĭáĮĬ": 1108,
      "ĠáĬłáĬķáĭ±": 1109,
      "ĠáĪĽáĪµ": 1110,
      "Ġáĭ®": 1111,
      "áĪªáĬŃ": 1112,
      "áĪ°áĭį": 1113,
      "ĠáĪĺáĮ¥": 1114,
      "Ġáĭ¨áī³": 1115,
      "áĬ¨áĪŃ": 1116,
      "ĠáĬłáĭ²áĪµ": 1117,
      "áīµáĪĿ": 1118,
      "ĠáĪĤ": 1119,
      "áĪ°áī£": 1120,
      "Ġáī°áĪµáįĭ": 1121,
      "ĠáĬłáĪµáĭ°": 1122,
      "áĭ¨áĪŃ": 1123,
      "ĠáĬ¨áī°áĪĽ": 1124,
      "ĠáĪįáĭ©": 1125,
      "Ġáīłáī°áĮ¨áĪĽáĪª": 1126,
      "Ġáįĸ": 1127,
      "áĪĺáĪ¨": 1128,
      "áįĪáĭį": 1129,
      "ĠáĪĺáī¥": 1130,
      "áĮª": 1131,
      "ĠáĪĿáĬŃáĬķáĭ«áīµ": 1132,
      "Ġáĭ¨áĬłáĪĿáĪĭáĬŃ": 1133,
      "Ġáĭ¨áĭį": 1134,
      "ĠáĪģáĪĪ": 1135,
      "Ġáĭ¨áīłáĪĪáĮł": 1136,
      "ĠáĪĨáĭŃ": 1137,
      "Ġáĭ¨áĪĨáĬĳ": 1138,
      "áĮłáĪ«": 1139,
      "áĬĲáĪ±": 1140,
      "ĠáĬłáĪĪáĪĿ": 1141,
      "áĭŃáĬķ": 1142,
      "áĭĪáĭ³": 1143,
      "áĪ®áī½áĬķ": 1144,
      "áĬ¨áĪ«": 1145,
      "ĠáĪĿáĬŃáĬķáĭ«áī±áĪĿ": 1146,
      "ĠáĭĪáīħáīµ": 1147,
      "ĠáĪĺáĮį": 1148,
      "áīµáĬĵ": 1149,
      "áĬŃáĪŃ": 1150,
      "ĠáĭĪáĪŃ": 1151,
      "áĪĢáĪį": 1152,
      "áĪĨáĬĵ": 1153,
      "áīĢáĭį": 1154,
      "áĪµáī°áĬĽ": 1155,
      "ĠáĬłáīĢ": 1156,
      "áīłáĭį": 1157,
      "ĠáĬª": 1158,
      "áĬķáĭ°": 1159,
      "áĮłáī¥": 1160,
      "ĠáĮŃ": 1161,
      "áĭ°áĪĿ": 1162,
      "ĠáĪĺáĪĨáĬķ": 1163,
      "ĠáĬ©": 1164,
      "áĭ°áĪ¨áĮĪ": 1165,
      "ĠáĪĺáĬķáįĪ": 1166,
      "áĬŃáĪµ": 1167,
      "Ġáīłáī³": 1168,
      "ĠáĪ²áĪį": 1169,
      "áī½áĪī": 1170,
      "áĪĪáĬĽ": 1171,
      "áĭ°áĪŃáĮį": 1172,
      "ĠáĬ¥áĬĵáĬķáī°": 1173,
      "Ġáī°áĪĺ": 1174,
      "áĪ°áĮ¥": 1175,
      "ĠáĪħáĭŃáĭĪáīµ": 1176,
      "ĠáīłáĪĮ": 1177,
      "ĠáīµáĪĿáĪħáĪŃáīµ": 1178,
      "áĮĪáĬĺáĭį": 1179,
      "áĪŃáĪµáĭİ": 1180,
      "Ġáī°áĮ¨áĪĽáĪª": 1181,
      "áĪįáĬķ": 1182,
      "Ġáī°áĬĵ": 1183,
      "ĠáĪĺáĮłáĬķ": 1184,
      "ĠáĪĺáĪĺ": 1185,
      "ĠáĪĺáĬķáĮįáĪµáīµ": 1186,
      "áīĤáĭ«": 1187,
      "ĠáĪĺáĪŃ": 1188,
      "áĬ¨áī³": 1189,
      "ĠáĬ¥áĬķáĭ°áī°": 1190,
      "áĪĺáĭį": 1191,
      "áĭĽáīµ": 1192,
      "áīĢáĮ¥": 1193,
      "Ġáĭ¨áĪĢ": 1194,
      "ĠáīµáĪįáīħ": 1195,
      "ĠáĬ¨áĪĽ": 1196,
      "áī¤áī°": 1197,
      "ĠáĪ°áĪ«": 1198,
      "Ġáĭ¶": 1199,
      "ĠáīłáĪĺáĪĨáĬĳáĪĿ": 1200,
      "ĠáĬĲáīłáĪ©": 1201,
      "ĠáĬ¥áĬķáĮĤ": 1202,
      "áĪŃáĭ«": 1203,
      "áĮ®": 1204,
      "ĠáĬĲáįĥ": 1205,
      "ĠáĪµáĪľ": 1206,
      "áĪĿáīµ": 1207,
      "ĠáĬ¨áī£": 1208,
      "ĠáĪĺáĭĿ": 1209,
      "áĪıáĪį": 1210,
      "áĬĲáī±": 1211,
      "áĪĭáĭĬ": 1212,
      "áĮłáīµ": 1213,
      "áĪ¹": 1214,
      "áĪ½áĬķ": 1215,
      "Ġáĭ¨áĭ«áĪħáĭĮ": 1216,
      "ĠáīłáĬ¢": 1217,
      "ĠáĪĪáĪĽáĮįáĬĺáīµ": 1218,
      "ĠáįĪáīĥ": 1219,
      "áĮĪáĬĽ": 1220,
      "Ġáīłáįį": 1221,
      "ĠĠĠĠ": 1222,
      "ĠáĪĨáĬĸáĪĿ": 1223,
      "áĪĪáĭ«áĭ©": 1224,
      "ĠáĬķáĮīáĪµ": 1225,
      "áįĪáĪŃ": 1226,
      "Ġáĭ¨áĬĲáīłáĪ¨": 1227,
      "áĪįáĪĿ": 1228,
      "ĠáĬłáĬ«áī£áī¢": 1229,
      "áĬķáĭ³áĬķáĭ±": 1230,
      "Ġáĭ¨áī£": 1231,
      "ĠáĬ¥áĭļáĪħ": 1232,
      "Ġáĭ¨áĮĪ": 1233,
      "ĠáĬłáĮĭ": 1234,
      "ĠáĭĭáĬĵ": 1235,
      "áĬķáīł": 1236,
      "áĪĭáīħ": 1237,
      "áĬĸáĪ©": 1238,
      "ĠáĬłáĮĪáĪįáĮįáĪİáīµ": 1239,
      "ĠáĪĺáĪ³áĪªáĭ«": 1240,
      "ĠáĭĽáĪ¬": 1241,
      "ĠáĪµáī¥": 1242,
      "áī»áī½áĬķ": 1243,
      "ĠáĬŃáĪŃáĪµáī²": 1244,
      "ĠáĪĿáĪ³áĪĮ": 1245,
      "ĠáīµáĬķáĪ½": 1246,
      "ĠáĭĺáĪĺáĬķ": 1247,
      "ĠáĮĵ": 1248,
      "áĭĬáīµ": 1249,
      "ĠáĪĪáĪĽáĭµáĪ¨áĮį": 1250,
      "áĭ°áĮĭ": 1251,
      "ĠáįįáĪĭ": 1252,
      "Ġáĭ«áĪ³": 1253,
      "áĪĽáĪŃ": 1254,
      "áĭ²áĭ«": 1255,
      "áĬķáĭµáĬķ": 1256,
      "áįĪáĪįáĮį": 1257,
      "áĬķáīĢ": 1258,
      "Ġáįĵ": 1259,
      "áĪģáĭ³": 1260,
      "áĬ«áĪĿ": 1261,
      "áĪµáĪį": 1262,
      "áī¶áĪµ": 1263,
      "áī½áĬĭ": 1264,
      "ĠáĪĢáĪ³áī¥": 1265,
      "áīª": 1266,
      "ĠáĪµáĪĭ": 1267,
      "Ġáĭ¨áĪĺáĮĢáĪĺáĪªáĭ«": 1268,
      "áīĢáĪĺ": 1269,
      "ĠáĬ¥áĬķáĭ³áĪĪ": 1270,
      "áīĥáĪį": 1271,
      "áĬĲáĭļáĪħ": 1272,
      "áĪŃáĭĿ": 1273,
      "ĠáīłáĬ¥áĪŃáĮįáĮ¥": 1274,
      "Ġáī°áĮįáī£": 1275,
      "áī°áĭĭáĪį": 1276,
      "Ġáĭ¨áĪĿáĬķ": 1277,
      "ĠáĬłáĭµ": 1278,
      "ĠáĪľ": 1279,
      "áĭ¥": 1280,
      "áĪĤ": 1281,
      "ĠáĪĪáī°": 1282,
      "áįĪáĪįáĮī": 1283,
      "áĭ°áĪŃáĮī": 1284,
      "ĠáĭŃáĪĭáĪį": 1285,
      "áĭİáīµ": 1286,
      "ĠáĪĬáĪĨáĬķ": 1287,
      "ĠáīłáĬłáĬķáĭµ": 1288,
      "ĠáīµáĬŃ": 1289,
      "áĭ°áīµ": 1290,
      "áĪ¾": 1291,
      "áĭ°áĪ¨áĮį": 1292,
      "ĠáĬłáīħ": 1293,
      "áĭįáĬķáĪĿ": 1294,
      "áĮµ": 1295,
      "ĠáĭŃáĪįáīħ": 1296,
      "áīĥáīµ": 1297,
      "ĠáĪĺáĪĨáĬĳáĬķ": 1298,
      "ĠáĭŃáĪĺáĪµ": 1299,
      "áĮĪáī¥": 1300,
      "áĪ³áĭĬ": 1301,
      "ĠáĬ¥áĮįáĭļáĬłáī¥áĪĦáĪŃ": 1302,
      "áĪĭáĭį": 1303,
      "áĮĦ": 1304,
      "ĠáĭĭáĮĭ": 1305,
      "áĪ»áĪ»": 1306,
      "ĠáĭµáĪŃáĮħ": 1307,
      "áĪĭáĪĿ": 1308,
      "áĮĪáĬķ": 1309,
      "áĪµáī¥": 1310,
      "ĠáĭįáĮ¤": 1311,
      "áīĤáīµ": 1312,
      "ĠáĬ¥áĭįáĬĲ": 1313,
      "Ġáīłáī°áĮ¨áĪĽáĪªáĪĿ": 1314,
      "áī£áĬ¤": 1315,
      "Ġáī¥áĪŃ": 1316,
      "Ġáī°áĪĺáĪį": 1317,
      "áĮįáĬĵ": 1318,
      "áĪµáĪ«áīµ": 1319,
      "ĠáĪ¸": 1320,
      "ĠáĬłáĭ³": 1321,
      "áĬ¨áĬĵ": 1322,
      "ĠáĬłáĪģ": 1323,
      "áī°áĬĽáĭį": 1324,
      "ĠáĪ²áĭ«": 1325,
      "áĪĪáĭįáĬķ": 1326,
      "áĪĨáĬķáĪĿ": 1327,
      "áī§": 1328,
      "Ġáīłáĭį": 1329,
      "áĭľ": 1330,
      "áĬķáī¥": 1331,
      "ĠáĮīáĭ³áĭŃ": 1332,
      "ĠáĮĮáī³": 1333,
      "áī¥áĬĿ": 1334,
      "ĠáĬĲáīłáĪ¨": 1335,
      "áĭ°áĪ¨áĮī": 1336,
      "ĠáĬ¥áī£": 1337,
      "ĠáīłáĬ©áĪį": 1338,
      "ĠáįįáĪĭáĮİ": 1339,
      "ĠáīłáĮį": 1340,
      "ĠáīµáĬ¥": 1341,
      "áĭ³áĬķ": 1342,
      "áĬ¨áī±": 1343,
      "áīłáīµáĬķ": 1344,
      "áĮĪáī¡": 1345,
      "ĠáĪĪáĭį": 1346,
      "ĠáĮĪáįħ": 1347,
      "ĠáĬłáĪģáĬķáĪĿ": 1348,
      "ĠáĪĺáĪĪ": 1349,
      "áĪİáĪµ": 1350,
      "áĪįáĬŃ": 1351,
      "áĪĺáĪ«": 1352,
      "áįįáĪ«": 1353,
      "ĠáĪ´áīµ": 1354,
      "áīħáĪµ": 1355,
      "áĪ¯áĪį": 1356,
      "áĪĺáĪĪáĬ¨áī°": 1357,
      "áĪ¶áī½": 1358,
      "áĭ«áĭ«": 1359,
      "áĪľáĪªáĬ«": 1360,
      "ĠáĬķáĮį": 1361,
      "áĪĭáĪĪ": 1362,
      "áĪ¨áĬķ": 1363,
      "ĠáīłáĬĲ": 1364,
      "ĠáĬĲáĬĿ": 1365,
      "áĬ«áī³": 1366,
      "ĠáĪĽáĪħ": 1367,
      "ĠáįįáīħáĪŃ": 1368,
      "ĠáĬ¥áĬķáĬ³áĬķ": 1369,
      "ĠáĬłáĪĭáī¸áĭį": 1370,
      "áĪ«áĪµ": 1371,
      "áĭ³áīµ": 1372,
      "ĠáīĢáĪĭáĪį": 1373,
      "Ġáīłáī¥": 1374,
      "áĪ¨áĮĭáĮĪ": 1375,
      "ĠáĪħáĭĿáī¥": 1376,
      "ĠáīłáĪĽáĪĪáīµ": 1377,
      "Ġáįĭ": 1378,
      "ĠáīłáĪį": 1379,
      "ĠáīµáĪŃ": 1380,
      "áĪħáĪĿ": 1381,
      "áĬĵáĮĪáĪŃ": 1382,
      "ĠáĮįáī¥": 1383,
      "ĠáĪħáĮį": 1384,
      "ĠáĪµáīµ": 1385,
      "ĠáīłáĪĨáĬĲ": 1386,
      "áĮłáĭį": 1387,
      "áĪģáĪīáĪĿ": 1388,
      "Ġáĭ¨áĪµáĪ«": 1389,
      "Ġáĭ¨áĪĪáĪĿ": 1390,
      "áī³áī¸áĭįáĬķ": 1391,
      "áī½áĪģáĬķ": 1392,
      "áĮĨáī½": 1393,
      "Ġáĭ¨áĮ¥": 1394,
      "áĪĿáĮĥ": 1395,
      "Ġáī°áĮĪ": 1396,
      "áĮ¡áīµ": 1397,
      "áĪħáĬĵ": 1398,
      "áĪİáī½áĬķ": 1399,
      "ĠáĪª": 1400,
      "Ġáĭ¨áĪĮ": 1401,
      "áĭ°áĬĽ": 1402,
      "áĪĺáĬĵ": 1403,
      "áĪ°áī¡": 1404,
      "áĪŃáĪ±": 1405,
      "áĭŃáĪį": 1406,
      "áįĨ": 1407,
      "áĭŃáĪĨ": 1408,
      "áī°áĬŀáī½": 1409,
      "ĠáĬ¥áĮħáĮį": 1410,
      "ĠáĬłáĪŃ": 1411,
      "ĠáĬ¥áĬķáĮį": 1412,
      "áĭŃáĪĨáĭĭ": 1413,
      "áĬĹ": 1414,
      "áĬ¨áī¥": 1415,
      "Ġáĭ¨áī°áĬĲáĪ³": 1416,
      "ĠáĮįáĬķáĬĻ": 1417,
      "áĮįáĮł": 1418,
      "áĬķáįĪ": 1419,
      "ĠáĬłáĪĪáīłáīµ": 1420,
      "áĬĵáĬķáī°": 1421,
      "áīµáĭ®": 1422,
      "áĪĽáĬĿ": 1423,
      "áĪ°áīł": 1424,
      "áĪĭáįĬ": 1425,
      "áĬ«áĪį": 1426,
      "ĠáĬłáĭĭ": 1427,
      "ĠáĪ®": 1428,
      "ĠáĬ¥áĪ±áĪĿ": 1429,
      "áīħáĭµ": 1430,
      "ĠáĪµáĪĪáĪļ": 1431,
      "áīĨáĮ£": 1432,
      "áĪ³áĬĶ": 1433,
      "áī½áĭį": 1434,
      "ĠáĪĽáĮįáĬĺáīµ": 1435,
      "áĬ¨áĪį": 1436,
      "ĠáĪĺáĪĺáĪªáĭ«": 1437,
      "áī¥áĬķ": 1438,
      "ĠáĮĪáĬķáĭĺáī¥": 1439,
      "áĪĬáĭ": 1440,
      "áĪŀáĬŃ": 1441,
      "ĠáĬ¥áĬķáĭ°áĪļáĭ«": 1442,
      "áĮłáįĭ": 1443,
      "ĠáĬĸ": 1444,
      "áĪįáįį": 1445,
      "ĠáĬłáĮĪáĪįáĮĭ": 1446,
      "Ġáĭ¨áĮį": 1447,
      "Ġáĭ¨áĪĨáĬĲáĭį": 1448,
      "Ġáī°áĮł": 1449,
      "ĠáĮ¦": 1450,
      "áīµáĭ®áĮµ": 1451,
      "áĭ¨áĭį": 1452,
      "ĠáĭĪáĬķáĭ¶áī½": 1453,
      "ĠáĮ¥áīħáĪĿ": 1454,
      "ĠáĪĽáĪ³": 1455,
      "ĠáįħáĪģ": 1456,
      "ĠáĬłáĮĪ": 1457,
      "áĭĭáĪĪáĪģ": 1458,
      "ĠáĭµáĪĿ": 1459,
      "áīĢáĭµ": 1460,
      "ĠáĪĿáĬŃáĪŃ": 1461,
      "áĬĲáĮĭ": 1462,
      "áĪ©áĬķ": 1463,
      "áĪ³áĪ³áĭŃ": 1464,
      "ĠáĬłáĬķáīĢ": 1465,
      "áĭ«áĭĬ": 1466,
      "áĬķáĮįáĭµ": 1467,
      "Ġáīĭ": 1468,
      "ĠáĬłáĭ«": 1469,
      "ĠáĮĢáĪĿáĪ®": 1470,
      "áĭĪáĪŃ": 1471,
      "ĠáĭįáĪĢ": 1472,
      "áĪ¨áĮ¥": 1473,
      "áī£áĬķáĭ«": 1474,
      "áĮłáĪ©": 1475,
      "ĠáīµáĬ©": 1476,
      "áĪ°áĪ©": 1477,
      "Ġáīłáī°áĪĪ": 1478,
      "ĠáĪĽáĬķáĬĽáĭįáĪĿ": 1479,
      "áĪµáī¶": 1480,
      "áįİáī½": 1481,
      "áĪŀáīµ": 1482,
      "ĠáĭĿáĮį": 1483,
      "ĠáīłáĪĢ": 1484,
      "ĠáĪģáĪīáĬķáĪĿ": 1485,
      "Ġáĭ¨áįį": 1486,
      "áĬ¨áįį": 1487,
      "áīłáĪįáĮ¥": 1488,
      "Ġáĭ¨áĪĪ": 1489,
      "Ġáī°áĬĵáĮį": 1490,
      "ĠáĬ¥áĬķáĭ°áĪĽ": 1491,
      "ĠáĪģáĪį": 1492,
      "áĬŃáī¥": 1493,
      "áĮ¥áĪ®": 1494,
      "ĠáĪĿáĮįáī¥": 1495,
      "áĮłáĭŃ": 1496,
      "áī¸áĭįáĪĿ": 1497,
      "áĪĪáĭĭáĪį": 1498,
      "áĪ«áĪī": 1499,
      "ĠáĪĪáĪĽáĪµ": 1500,
      "Ġáĭįáĭµ": 1501,
      "ĠáĬ¨áī£áĭµ": 1502,
      "ĠáĪ³áĭŃáĪĨáĬķ": 1503,
      "áĭĺáĭį": 1504,
      "áĭ·": 1505,
      "ĠáĭįáĪ³áĬĶ": 1506,
      "ĠáĪĽáĪµáī°": 1507,
      "ĠáīħáĪŃ": 1508,
      "ĠáĪĢáĭŃáĪį": 1509,
      "ĠáĬłáĬ«áĪį": 1510,
      "Ġáĭ¨áĭ°": 1511,
      "ĠáĬ¥áĬķáĭµáīµ": 1512,
      "áĭŃáī³": 1513,
      "áĪ°áĪį": 1514,
      "áĬ¨áĪĭ": 1515,
      "Ġáī£áĪĪáĭį": 1516,
      "áĬĵáīĤ": 1517,
      "ĠáĬ¥áĪŃáĪĿáĮĥ": 1518,
      "Ġáĭ°áĮįáĪŀáĪĿ": 1519,
      "Ġáī´": 1520,
      "áī¨": 1521,
      "áĪŃáĬĲáīµ": 1522,
      "áīłáīĥ": 1523,
      "áĭĺáĮĭáĮĢ": 1524,
      "Ġáī½áĮįáĪŃ": 1525,
      "ĠáĬ¥áĬķáĭ°áĮĪáĬĵ": 1526,
      "áĪµáĬķ": 1527,
      "áĪĿáĭµ": 1528,
      "áĬķáĬ«": 1529,
      "áĪ°áīµ": 1530,
      "Ġáī½áĪİ": 1531,
      "Ġáĭ¨áĪį": 1532,
      "ĠáĪĺáĪįáĬ«áĪĿ": 1533,
      "ĠáĬ¥áīĥ": 1534,
      "áĬķáĭ²": 1535,
      "áĬ©áīµ": 1536,
      "áĪĿáĬķáīµ": 1537,
      "áĭ«áĪį": 1538,
      "áĪģáĬĳ": 1539,
      "ĠáĪ°áĬłáīµ": 1540,
      "áĪ«áĪ«": 1541,
      "Ġáĭ«áĪĭáī¸áĭį": 1542,
      "áĪĬáĭ®": 1543,
      "áĭįáĪį": 1544,
      "ĠáĬ¥áĬĲáĭļáĪħáĬķ": 1545,
      "ĠáĬ¥áĬķáĭ³áĭŃ": 1546,
      "ĠáĭŃáĪħáĬķáĬķ": 1547,
      "ĠáĭĿáĪŃáĭĿ": 1548,
      "ĠáīłáīħáĪŃ": 1549,
      "áĮĪáĬĲ": 1550,
      "ĠáĭŃáĬ¸": 1551,
      "ĠáĬ¨áĪĮ": 1552,
      "áīłáĪ©áīµ": 1553,
      "Ġáĭ¨áĪ°áĭį": 1554,
      "ĠáĪµáĪŃáĬłáīµ": 1555,
      "Ġáĭ¨áī°áĪĪ": 1556,
      "Ġáĭ¨áĬ¥áĪµáĪ«áĬ¤áĪį": 1557,
      "ĠáĬ«áĪį": 1558,
      "áĬķáīĭ": 1559,
      "áīĢáĪ¨": 1560,
      "ĠáĭĻ": 1561,
      "ĠáĪĢáĮ¢": 1562,
      "ĠáĮ³": 1563,
      "ĠáĬłáĪĽáĬ«": 1564,
      "áĪŃáĬŃ": 1565,
      "áī³áĭ°": 1566,
      "ĠáĪĻáĪ´": 1567,
      "áĪ°áĮłáĭį": 1568,
      "áĭįáĪİáĪµ": 1569,
      "ĠáĪĪáĪĿáĬķ": 1570,
      "áīħáĪ¨áī¥": 1571,
      "ĠáĭĪáĭ³": 1572,
      "áĬ¨áī°áĪĽ": 1573,
      "ĠáĪĺáĬķáĮĪ": 1574,
      "áĪ¬áīµ": 1575,
      "ĠáĮįáĬķáĬĻáĬĲáīµ": 1576,
      "áīµáĭ®áĮµáĭ«": 1577,
      "Ġáĭľ": 1578,
      "Ġáī°áī¥": 1579,
      "áĭ¨áĪ©": 1580,
      "ĠáĭŃáĪģáĬķáĬĵ": 1581,
      "ĠáĪĽáĬ¥": 1582,
      "ĠáĪĺáīĢ": 1583,
      "áī¥áĪ¨áīµ": 1584,
      "áĪ«áĪ³": 1585,
      "Ġáĭ©": 1586,
      "Ġáĭ¨áĬŃ": 1587,
      "áĪµáĪ«áĬ¤": 1588,
      "ĠáĬ¥áĪĿáĬĲáīµ": 1589,
      "áĬŃáĪĿáĬĵ": 1590,
      "ĠáīłáĪ¨": 1591,
      "áĪº": 1592,
      "áĬ«áīµ": 1593,
      "áĮłáīĥáĪĭáĭŃ": 1594,
      "áĪµáī³áĭĪ": 1595,
      "áĭ²áĪħ": 1596,
      "ĠĠĠ": 1597,
      "áĮłáĪį": 1598,
      "ĠáīµáĬŃáĬŃ": 1599,
      "ĠáĬ¥áĬĲáĪ±áĪĿ": 1600,
      "áĬªáĬĵ": 1601,
      "Ġáĭ¨áī°áī£": 1602,
      "Ġáĭ°áĪµ": 1603,
      "áī°áīµ": 1604,
      "ĠáĬłáĭµáĪŃáĮİ": 1605,
      "ĠáĪĢáĪĭáįĬ": 1606,
      "áī¾": 1607,
      "ĠáĪĺáĮ£": 1608,
      "áĭ«áĭİáī½": 1609,
      "áīłáĪ¨áī³": 1610,
      "ĠáĬłáĬķáīĢáįħ": 1611,
      "Ġáĭ«áĭ°áĪŃáĮĭ": 1612,
      "áĬĵáĪįáī£áīµ": 1613,
      "áĪĺáĪĪáĪµ": 1614,
      "ĠáĬłáĮ¥": 1615,
      "Ġáįİ": 1616,
      "ĠáĪĿáĬĵáĪįáī£áīµ": 1617,
      "áīĥáĪ´": 1618,
      "áī»áĪį": 1619,
      "áīħáĪµáīĥáĪ´": 1620,
      "ĠáīĢáĬĵáīµ": 1621,
      "Ġáĭ¨áĬ¤": 1622,
      "ĠáĬ¥áī£áĬŃ": 1623,
      "áīĭáĪĿ": 1624,
      "áĬķáĬĽáĭįáĪĿ": 1625,
      "ĠáīłáĪļáĭ«": 1626,
      "ĠáĪĺáĭ°": 1627,
      "ĠáĪ°áĪĽ": 1628,
      "ĠáĬłáī¥áĭĽ": 1629,
      "áĮĭáīµ": 1630,
      "áĪģáĪĪ": 1631,
      "áĭ³áĪį": 1632,
      "áĪĭáĭįáĭ«áĬķ": 1633,
      "áĭ°áĪ¨áĮĪáĭį": 1634,
      "Ġáī³áĪĭáīħ": 1635,
      "áĪ»áĪĪ": 1636,
      "ĠáĮįáĪį": 1637,
      "áī½áĪĪáĭį": 1638,
      "áĪĺáīµ": 1639,
      "áĪĭáĪŃ": 1640,
      "ĠáīģáĮ¥áĪŃ": 1641,
      "ĠáĬ¥áĬĲáĪ±": 1642,
      "áīº": 1643,
      "áī½áĪįáĪĿ": 1644,
      "Ġáī°áįĪ": 1645,
      "áĭĪáĪ°áĬĲ": 1646,
      "ĠáĬŃáĪŃáĪµáī²áĭ«": 1647,
      "áĭ£": 1648,
      "ĠáīµáĬ¥áĭĽ": 1649,
      "Ġáī°áįħ": 1650,
      "ĠáĬ©áī£áĬķáĭ«": 1651,
      "Ġáī£áĪį": 1652,
      "ĠáĭŃáĮĪáī£": 1653,
      "ĠáĪµáĪľáīµ": 1654,
      "ĠáĮ¥áĪ¨áīµ": 1655,
      "áĪĻáĪŃ": 1656,
      "áĭ³áĭ°áĪŃ": 1657,
      "ĠáĪħáĭĿáī¡": 1658,
      "áĭĭáĬ¥": 1659,
      "ĠáĪĺáĪįáĬ¥": 1660,
      "Ġáī¢áĪĨáĬķ": 1661,
      "áĭ²áĭ®": 1662,
      "áĮħáĪĿ": 1663,
      "áī³áĭŃ": 1664,
      "ĠáīłáĬ¥áĭį": 1665,
      "ĠáĭŃáĪ°áĮ£": 1666,
      "ĠáĮ¨áĭĭ": 1667,
      "áĪīáĬķ": 1668,
      "ĠáĪįáĬŃ": 1669,
      "Ġáī³áĪªáĬŃ": 1670,
      "áĬŀáī¹": 1671,
      "áĪ³áĪį": 1672,
      "ĠáĬłáĮĪáĪŃ": 1673,
      "áĭ¨áĪ©áĪ³áĪĮ": 1674,
      "ĠáĮ³áĭįáĪİáĪµ": 1675,
      "ĠáĪĺáĭį": 1676,
      "áĪ°áĪŃ": 1677,
      "áĮ¥áĬĲáīµ": 1678,
      "ĠáĪĪáĪĿáĪ³áĪĮ": 1679,
      "áĪµáī±": 1680,
      "ĠáĭŃáīłáĪįáĮ¥": 1681,
      "ĠáĪ¶áĪµáīµ": 1682,
      "áĪĺáĭµ": 1683,
      "áī»áī¸áĭįáĬķ": 1684,
      "áĭ³áĪŃ": 1685,
      "áī¦áīµ": 1686,
      "ĠáĬłáĮį": 1687,
      "ĠáĪħáĭŃáĭĪ": 1688,
      "áĬĳáĬķ": 1689,
      "áĭ«áĭĿ": 1690,
      "áī³áĭİáī½": 1691,
      "ĠáĪĺáī£": 1692,
      "ĠáĮ«": 1693,
      "áĪĽáĪªáĭİáī½": 1694,
      "áī¥áĪ«": 1695,
      "áīłáĭ«": 1696,
      "áīĥáĪļ": 1697,
      "áĮĪáīµ": 1698,
      "áĭĭáĬķ": 1699,
      "ĠáĬ¥áĬķáīħáĪµáīĥáĪ´": 1700,
      "áĭįáīĥ": 1701,
      "ĠáĭĪáĮ£": 1702,
      "áĬĲáĮĪ": 1703,
      "áĪ³áī½": 1704,
      "áī¥áĪ¨": 1705,
      "ĠáīłáĭĪ": 1706,
      "áĪµáĬĵ": 1707,
      "ĠáĬ¥áĭįáĬĲáīµ": 1708,
      "ĠáĬ¨áĭĪ": 1709,
      "ĠáĪŃáĬ¥": 1710,
      "áĭŃáĬĵ": 1711,
      "áĭ³áī³": 1712,
      "ĠáĮłáīĥáĪļ": 1713,
      "áĭĿáī¥": 1714,
      "ĠáĭŃáĪ°áĪĽ": 1715,
      "ĠáĬ¥áĬĶáĪĿ": 1716,
      "áĪ°áĬķ": 1717,
      "áĪĬáĭ®áĬķ": 1718,
      "Ġáī¢áĪĨáĬķáĪĿ": 1719,
      "áĮ§": 1720,
      "áĪĭáī¸áĭįáĬķ": 1721,
      "áīĢáīł": 1722,
      "áĪĭáĪ½": 1723,
      "áī³áĪĽ": 1724,
      "ĠáĮ¥áīĤáīµ": 1725,
      "Ġáĭ¨áĭĺ": 1726,
      "áĮĪáĭ°": 1727,
      "ĠáĬĽ": 1728,
      "ĠáĪµáįįáĪ«": 1729,
      "Ġáī¥áĪĪáĭį": 1730,
      "áįģáĪĿ": 1731,
      "Ġáī¡áĭµáĬķ": 1732,
      "áĪ¨áĭĭáĪį": 1733,
      "Ġáĭ¨áĬ«": 1734,
      "áī¶áī¹": 1735,
      "ĠáįįáĪĭáĮİáīµ": 1736,
      "áĬķáĮĢ": 1737,
      "Ġáĭ¨áī°áĪĪáĭ«áĭ©": 1738,
      "ĠáĮłáīħ": 1739,
      "Ġáĭ«áĪįáī°": 1740,
      "áīĢáĪĿ": 1741,
      "áĪµáĪ«áĬ¤áĪĭáĭįáĭ«áĬķ": 1742,
      "Ġáĭ¨áĪĨáĬĲáĭįáĬķ": 1743,
      "áĪ³áĬķ": 1744,
      "ĠáīłáĪĺáĪµ": 1745,
      "ĠáīłáĪµáī°": 1746,
      "áĪ°áĮ¡": 1747,
      "ĠáĪĺáī³": 1748,
      "áī°áĬķ": 1749,
      "áĮłáīłáīħ": 1750,
      "ĠáĬ¥áĭ«áĬķáĭ³áĬķáĭ±": 1751,
      "áĭ°áĪŃáĪµ": 1752,
      "ĠáĬłáĪĭáĪĽ": 1753,
      "ĠáĬ¥áĪŃáĪµ": 1754,
      "ĠáĪ°áĭİáī½áĬķ": 1755,
      "ĠáīłáĪŃáĬ«áī³": 1756,
      "áĮłáĪ¨": 1757,
      "ĠáĬ¥áĪ·": 1758,
      "ĠáĪµáī¥áĪ°áī£": 1759,
      "áĭ°áĮį": 1760,
      "Ġáĭ¨áĪĺáįħáĪĢáįį": 1761,
      "áĮ«áĭĪ": 1762,
      "ĠáĪĺáīħ": 1763,
      "ĠáĭŃáĬĸ": 1764,
      "ĠáīłáĬŃ": 1765,
      "Ġáī¥áĪıáĪį": 1766,
      "áįĪáįĢáĪĿ": 1767,
      "ĠáĮ¤": 1768,
      "áĬ«áī£áī¢": 1769,
      "Ġáī£áĪĪáĪµáĪį": 1770,
      "ĠáĭĺáĪŃ": 1771,
      "Ġáī½áĮį": 1772,
      "áĮĪáĭĽ": 1773,
      "áĭĪáĭµ": 1774,
      "Ġáĭ¨áĬķáĮįáĭµ": 1775,
      "áīŃ": 1776,
      "áĪĢáĬķ": 1777,
      "Ġáĭ¶áĪĭáĪŃ": 1778,
      "áī¦áī½áĬķ": 1779,
      "Ġáĭ¨áįĪ": 1780,
      "áĭŃáĪģáĭ³": 1781,
      "áĪ®áĬķ": 1782,
      "ĠáīµáĬŃáĬŃáĪĪáĬĽ": 1783,
      "ĠáīłáĪĺáĮ¨áĪ¨áĪ»": 1784,
      "áĬ¡": 1785,
      "áĪĽáĪį": 1786,
      "Ġáī°áĬĲ": 1787,
      "ĠáĬ¥áĬĲáĪĨ": 1788,
      "áĬ¨áĬĵáĭĪ": 1789,
      "ĠáĬłáĪµáĭ°áĪ³áī½": 1790,
      "ĠáīĢáĭ°áĪĿ": 1791,
      "áĪ«áĬķ": 1792,
      "áĪ¨áĭ±": 1793,
      "áīłáīħ": 1794,
      "áī½áĪĭáĪĪáĬķ": 1795,
      "ĠáĬ¥áĬķáī½áĪĭáĪĪáĬķ": 1796,
      "áĭ°áĬķ": 1797,
      "Ġáĭ¨áĪļáĪį": 1798,
      "áĪ°áĭµ": 1799,
      "ĠáĮ¥áīħ": 1800,
      "ĠáĭŃáĬĸáĪŃ": 1801,
      "ĠáĬłáĪµáĭ°áĬĵáīĤ": 1802,
      "ĠáĬ¢áĬķ": 1803,
      "ĠáĪĨáĬĲáĭį": 1804,
      "ĠáĭįáĮŃ": 1805,
      "ĠáĮĨ": 1806,
      "ĠáĪĿáĭµ": 1807,
      "Ġáīłáī£": 1808,
      "áĪĭáĪĪáĪĿ": 1809,
      "ĠáĪ°áĪŃ": 1810,
      "áī£áĭŃ": 1811,
      "ĠáĭµáĪĿáįħ": 1812,
      "ĠáĪĺáĮĢáĪĺáĪªáĭ«": 1813,
      "ĠáĪĺáĬķáįĪáĪµ": 1814,
      "ĠáĭĪáĮ¥": 1815,
      "áĪĺáĪįáĬ¨áīµ": 1816,
      "áĮ£áĪį": 1817,
      "ĠáĮĪáĪį": 1818,
      "Ġáīµáī½áĪĭ": 1819,
      "Ġáī³áĪĽáĬĿ": 1820,
      "ĠáĪĿáĪŃáĮ¥": 1821,
      "áĪģáĪĪáīµ": 1822,
      "áĮłáīĢáĪĻ": 1823,
      "áī´áĬķ": 1824,
      "Ġáī°áĪĺáĪ³áĪ³áĭŃ": 1825,
      "ĠáĬłáįį": 1826,
      "áĬ¥áĬĸ": 1827,
      "ĠáįĪáįħ": 1828,
      "áĭ¨áĪ©áĪ³áĪĮáĪĿ": 1829,
      "áī»áĪĪáĪģ": 1830,
      "ĠáĮĪáĭ°": 1831,
      "ĠáĮįáĪįáįħ": 1832,
      "Ġáĭ¨áĪĻ": 1833,
      "ĠáĬłáĪįáī°": 1834,
      "ĠáīłáĮİ": 1835,
      "áĭĺáĬķ": 1836,
      "ĠáįķáĪ®áĮįáĪ«": 1837,
      "ĠáĮ¨áĪĿáĪ®": 1838,
      "áĪĦáĭ±": 1839,
      "ĠáĮīáī£áĬ¤": 1840,
      "áĬªáĭ«": 1841,
      "ĠáīĭáĬķáīĭ": 1842,
      "áĬķáĮįáĪµáīµ": 1843,
      "ĠáīĢáĮ¥": 1844,
      "ĠáĪĺáĮ¥áįİ": 1845,
      "ĠáĪ´áī¶áī½": 1846,
      "ĠáĪĺáĮįáĪĪ": 1847,
      "áĪįáĪµ": 1848,
      "ĠáĪĿáĪŃáĮ«": 1849,
      "ĠáĭĪáĪµ": 1850,
      "Ġáī°áįħáĬ¥áĬĸ": 1851,
      "Ġáĭ«áĪīáīµ": 1852,
      "Ġáī¥áĭ¬": 1853,
      "ĠáĭĪáĪĭ": 1854,
      "áĪİáĮĤ": 1855,
      "ĠáĪĺáĪµáĭĭáĬ¥": 1856,
      "Ġáī°áĭĪ": 1857,
      "ĠáīłáĪĮáĪĭ": 1858,
      "ĠáĪµáĪĪáĪĨáĬĲ": 1859,
      "ĠáĬŃáįī": 1860,
      "áī¥áĭĻ": 1861,
      "ĠáĪ°áĪĭáĪĿ": 1862,
      "ĠáĪ«áĪ³": 1863,
      "ĠáĬłáĪµáī°áĭ«": 1864,
      "ĠáĪĪáĭĺ": 1865,
      "ĠáĭŃáĬ¸áĭįáĪĿ": 1866,
      "ĠáĬ¥áĬķáĭµáĬķ": 1867,
      "áĪĽáĪĽ": 1868,
      "ĠáĬłáĪĺáĪĪ": 1869,
      "áĪ¨áĭµ": 1870,
      "áĪĭáī½áĬķ": 1871,
      "ĠáĭĪáĭŃ": 1872,
      "áĪĪáĪį": 1873,
      "ĠáĬłáĭ°áĮĭ": 1874,
      "ĠáĪĪáĭļáĪħ": 1875,
      "Ġáī³áĭ²áĭ«": 1876,
      "áĭİáī³áĪį": 1877,
      "ĠáĪĺáī¥áīµ": 1878,
      "Ġáīª": 1879,
      "ĠáīłáīµáĬŃ": 1880,
      "Ġáī¤áī±": 1881,
      "ĠáįĪáīĥáĭµ": 1882,
      "áįīáīµ": 1883,
      "áĮĭáįį": 1884,
      "ĠáīłáĪĿáĭµáĪŃ": 1885,
      "ĠáĬłáĮįáĬĿ": 1886,
      "áīµáĪŃ": 1887,
      "áī»áī½áĪģ": 1888,
      "áĪŃáī£": 1889,
      "ĠáīłáĬłáĪĪáĪĿ": 1890,
      "Ġáīłáī°áĪĺáĪĪáĬ¨áī°": 1891,
      "Ġáĭ³áĭĬáīµ": 1892,
      "ĠáĭŃáĪĺáĪµáĪĭáĪį": 1893,
      "Ġáĭ¨áĪŀ": 1894,
      "ĠáĪĪáĪĿáĬķáĭµáĬķ": 1895,
      "ĠáīłáĪĺáĮĢáĪĺáĪªáĭ«": 1896,
      "Ġáī¤áī¶áī½": 1897,
      "Âł": 1898,
      "áĭĿáĬĵ": 1899,
      "áī½áĬĭáĪį": 1900,
      "áĬĲáīłáĪŃ": 1901,
      "ĠáĪĪáĪĺáĪµ": 1902,
      "áĬķáĮī": 1903,
      "áĬĿáĪĿ": 1904,
      "ĠáĬ¢áĭ®": 1905,
      "ĠáĬłáī£áĪĭáīµ": 1906,
      "áī³áī½áĪģ": 1907,
      "ĠáĬĲáĮĪáĪ®áī½áĬķ": 1908,
      "Ġáĭ¨áĬ®": 1909,
      "áĪĭáīĢ": 1910,
      "áĪļáĭİáī½": 1911,
      "ĠáĪĽáĬķáĪĿ": 1912,
      "ĠáĪĪáĭįáĮ¥": 1913,
      "ĠáĭĻáĪªáĭ«": 1914,
      "ĠáĪĺáī°": 1915,
      "áĮłáĬķ": 1916,
      "áĪįáĬŃáīµ": 1917,
      "ĠáĬłáĪĪáĪĺ": 1918,
      "áī³áĭĪ": 1919,
      "ĠáįĸáĪĬ": 1920,
      "ĠáīłáĮįáĪį": 1921,
      "ĠáĪĢáī¥": 1922,
      "ĠáĪ°áĮ¥": 1923,
      "Ġáī¥áĪĦ": 1924,
      "áįĬáĭ«": 1925,
      "áĪľáĬķ": 1926,
      "ĠáĬłáĪĺáĪĪáĬ«áĬ¨": 1927,
      "áĭ²áĭ«áĭį": 1928,
      "ĠáĬ¥áĪŃáĭ³áī³": 1929,
      "áīĢáĪŃáī¥": 1930,
      "Ġáĭ®áĪĢ": 1931,
      "Ġáĭ¨áĪ°áĪ«": 1932,
      "ĠáĮ¥áīłáī¥": 1933,
      "ĠáīłáĮī": 1934,
      "ĠáĭĪáĪ¨": 1935,
      "Ġáĭ³áĪŃ": 1936,
      "ĠáĬ¥áĬķáĭ³áĪį": 1937,
      "ĠáĬ¥áĭįáĬĲáī°áĬĽ": 1938,
      "ĠáĪĪáĪħ": 1939,
      "Ġáīłáĭµ": 1940,
      "áĬ¥áĪ«": 1941,
      "ĠáįĢáĪĢ": 1942,
      "ĠáĪĿáĪµáĪ«": 1943,
      "ĠáĬ¨áĪĿ": 1944,
      "ĠáĪ±": 1945,
      "Ġáĭ¨áĪļáĬ¨áī°": 1946,
      "áĭ¢": 1947,
      "áĬĸáĪ¨áĭį": 1948,
      "Ġáīłáī³áī½": 1949,
      "ĠáĬłáĭĭáĮħ": 1950,
      "Ġáĭ¨áī¤áīµ": 1951,
      "Ġáī°áī¥áĪİ": 1952,
      "áĮīáĪĿ": 1953,
      "áĪĻáĬķ": 1954,
      "Ġáī½áĪİáī³": 1955,
      "ĠáįįáĪŃáĭµ": 1956,
      "áīĢáĭ°": 1957,
      "áĮĭáĪª": 1958,
      "Ġáīłáīł": 1959,
      "ĠáĭµáĬķáĮĭ": 1960,
      "áĪħáĪŃ": 1961,
      "áįı": 1962,
      "áĬķáĬŃ": 1963,
      "áī¿": 1964,
      "ĠáĬŃáĪŃáĪµáī¶áĪµ": 1965,
      "ĠáĭŃáīħáĪŃ": 1966,
      "áīłáī³áĪį": 1967,
      "áĪµáī°áĪŃ": 1968,
      "ĠáĪ©": 1969,
      "áīłáĬĽ": 1970,
      "ĠáĪĪáĪĮ": 1971,
      "áįĸáĪŃáīµ": 1972,
      "ĠáīłáĪ½": 1973,
      "ĠáĬ¥áĭµáĪľ": 1974,
      "ĠáĭµáĪŃáĮħáīµ": 1975,
      "ĠáĪģáĪįáĮĬáĭľ": 1976,
      "áĪįáīģ": 1977,
      "Ġáĭ¨áĭļáĪħ": 1978,
      "Ġáĭ¨áī°áįĪ": 1979,
      "ĠáĭŃáĭĺ": 1980,
      "áĬĽáĭįáĬķáĪĿ": 1981,
      "áĬ¨áī£": 1982,
      "áĭµáĪŀ": 1983,
      "ĠáĪ°áĭŃ": 1984,
      "áĪªáī±": 1985,
      "Ġáĭ¨áĪĺáĮ¨áĪ¨áĪ»": 1986,
      "áĬ¨áįĭ": 1987,
      "ĠáĬ¨áĪ°": 1988,
      "áĪĿáĪ©": 1989,
      "ĠáĬłáī³": 1990,
      "áĭµáīħ": 1991,
      "ĠáĪĽáĭ¨áīµ": 1992,
      "áįĪáĪĪáĮī": 1993,
      "ĠáĭĺáĪĺ": 1994,
      "áĬĲáĪµ": 1995,
      "áĬ®áī½": 1996,
      "áĮ®áī½": 1997,
      "áĬķáĬ«áĪ«": 1998,
      "áįĶ": 1999,
      "ĠáĪµáĪŃáĬł": 2000,
      "áĪĽáĭĬ": 2001,
      "ĠáĬ¥áĬĲáĭļáĭ«": 2002,
      "ĠáĬ¥áĬķáĭ²áĪĨáĬķ": 2003,
      "ĠáīµáĬ©áĪ¨áīµ": 2004,
      "ĠáĪº": 2005,
      "Ġáī£áĪĪáĪĻ": 2006,
      "ĠáĭĪáĬķáĭµáĪŀáī½": 2007,
      "Ġáī°áĬĵáĮįáĪ¯áĪį": 2008,
      "ĠáĭĿáĪŃáĭĿáĪŃ": 2009,
      "áĭĪáĭ°": 2010,
      "ĠáĬłáīł": 2011,
      "áĪĬáĭ«": 2012,
      "ĠáīłáīĢáĪĭáĪī": 2013,
      "áĪĽáĮį": 2014,
      "ĠáĪ»": 2015,
      "Ġáīłáĭ«áĪħáĭĮ": 2016,
      "Ġáī°áĭ°": 2017,
      "ĠáĪļáĬĴ": 2018,
      "ĠáĪĺáĪįáĪµ": 2019,
      "áĪħáĬķáĬĲáīµ": 2020,
      "ĠáĪĺáįĥ": 2021,
      "áĪĽáĬĸ": 2022,
      "áīĨáĪĿ": 2023,
      "ĠáĬłáĪįáĬĲáīłáĪ¨": 2024,
      "Ġáī¦áī³áĭİáī½": 2025,
      "ĠáĬłáīĢáįį": 2026,
      "áī«": 2027,
      "ĠáĬ¥áĪŃáĪµáĭİ": 2028,
      "ĠáīłáĪ«": 2029,
      "áĭ°áĪŃáĮĪ": 2030,
      "ĠáĮīáĭŀ": 2031,
      "ĠáĭŃáĮĪ": 2032,
      "áĪĪáī²": 2033,
      "áĪĺáĪ°áĪ¨": 2034,
      "áī£áĪŃ": 2035,
      "Ġáĭ¨áĬ¥áĬĶ": 2036,
      "áĪİáīµ": 2037,
      "áĪģáīµ": 2038,
      "ĠáĭŃáīĢ": 2039,
      "ĠáĭŃáįĪáĪįáĮĭ": 2040,
      "Ġáĭ°áĪµáī³": 2041,
      "áĭ°áĪŃáĮĪáĭį": 2042,
      "áĪ©áĪĿ": 2043,
      "Ġáĭ«áĪħáĭĮáĬķ": 2044,
      "ĠáĬ¥áĪ±áĬķ": 2045,
      "ĠáĮīáĭ³áĭ®áī½": 2046,
      "áĬĵáĬķ": 2047,
      "áĪ³áī°": 2048,
      "ĠáīłáĬłáĪģáĬĳ": 2049,
      "ĠáĬ¥áĪŃáĮįáĮł": 2050,
      "áĪ¨áĮĭáĮį": 2051,
      "ĠáĬŃáĪŃáĪµáī²áĭ«áĬĸáī½": 2052,
      "áĪ¬áĭį": 2053,
      "ĠáĪĺáĮ¨áĪ¨áĪ»": 2054,
      "ĠáĭĿáĮįáĮħ": 2055,
      "áĮłáĭ¨": 2056,
      "ĠáĪĺáĭĽ": 2057,
      "ĠáĪĽáĪµáī³áĭĪ": 2058,
      "ĠáĭŃáĪĺáĪį": 2059,
      "áĪĭáĬķ": 2060,
      "ĠáĭµáĮĭáįį": 2061,
      "ĠáĭµáĪŃáĮĬ": 2062,
      "ĠáĪµáĮĭ": 2063,
      "ĠáĬłáĭİ": 2064,
      "ĠáĪĿáĪĭáĪ½": 2065,
      "ĠáīłáīµáĬŃáĬŃáĪį": 2066,
      "ĠáīłáĪ°áĪĽ": 2067,
      "ĠáĬ¥áĬķáĪµ": 2068,
      "áĬĵáĮĪáĪ¨áĭį": 2069,
      "ĠáĪĺáĪª": 2070,
      "Ġáĭĺáĭ´": 2071,
      "ĠáĬłáĪĿáĪĭ": 2072,
      "ĠáĪĺáĬķáįĪáĪ³áĭĬ": 2073,
      "áĬ¨áĪ°": 2074,
      "áĪĪáĭįáĪĿ": 2075,
      "ĠáĪĺáĪĭ": 2076,
      "áĬĵáĭį": 2077,
      "áĬĵáī¸áĭį": 2078,
      "áĬ¥áīĨ": 2079,
      "Ġáĭ¨áī°áĪ»áĪĪ": 2080,
      "ĠáĬĲáĮ¥": 2081,
      "áĪĪáĪĽ": 2082,
      "áĬķáĭĿ": 2083,
      "Ġáĭ«áĭµáĪŃ": 2084,
      "ĠáĭŃáĪ¨áĭ³": 2085,
      "áīłáĪĭ": 2086,
      "áĮĪáĪĪáĮį": 2087,
      "ĠáĪĪáĪĺáīĢ": 2088,
      "ĠáīłáĪħáĭŃáĭĪáīµ": 2089,
      "ĠáĪĺáĪĿ": 2090,
      "ĠáĭŃáįĪ": 2091,
      "áĪĺáĪĪáĬ¨áīµ": 2092,
      "áĭ«áĬķáĭ³áĬķáĭ±": 2093,
      "ĠáĮĪáī¥": 2094,
      "ĠáĭĪáī³áĭ°": 2095,
      "ĠáĪĪáĪĽáĭ¨áīµ": 2096,
      "áĪĢáĪĿ": 2097,
      "áĪĻáīµ": 2098,
      "áįģáĪħ": 2099,
      "ĠáĬłáĪĽáĬ«áĬĿáĬĲáīµ": 2100,
      "ĠáĪĽáĪŃ": 2101,
      "Ġáĭ¨áī¤áī°": 2102,
      "Ġáī¶": 2103,
      "áīłáĪ«áĭĬ": 2104,
      "Ġáĭ¨áĪļáīĨ": 2105,
      "Ġáĭ«áĭ°áĪŃáĮĭáĪį": 2106,
      "Ġáĭ¨áī¥": 2107,
      "áĭ«áĭ«áĭĺ": 2108,
      "áĪ¨áĮĭáĮĪáĮ¥": 2109,
      "áīħáĬĵ": 2110,
      "ĠáĬ¬": 2111,
      "áĮĪáĪ¨": 2112,
      "ĠáĪµáĮ¦": 2113,
      "Ġáĭ«áĪīáīµáĬķ": 2114,
      "ĠáĭŃáĮĪáī£áĪį": 2115,
      "Ġáī»": 2116,
      "áĭ«áīµ": 2117,
      "áĬ¥áĪĿáĪ®": 2118,
      "Ġáī£áĭŃ": 2119,
      "ĠáĪ³áĪĿáĬķáīµ": 2120,
      "ĠáĪĿáĪµáĬŃ": 2121,
      "áĪĽáĮįáĪĮ": 2122,
      "ĠáĮ¤áĬĵ": 2123,
      "ĠáĬŃáĪį": 2124,
      "ĠáĮĵáĭ°áĬĽ": 2125,
      "ĠáĪĺáĮįáĪĪáĮ«": 2126,
      "Ġáĭ¨áĮİ": 2127,
      "ĠáĬ¥áĭļáĭ«": 2128,
      "ĠáĪĺáĪ°áĪ¨": 2129,
      "áĪµáī³áīµ": 2130,
      "áĬ¨áĪĪ": 2131,
      "Ġáīłáĭĺ": 2132,
      "áĪ«áĮŃ": 2133,
      "áĭ¬áĬķ": 2134,
      "ĠáįķáĪ¬": 2135,
      "Ġáī²": 2136,
      "ĠáīłáĬłáĪĿáĪĭáĬŃ": 2137,
      "áĬ¨áĭį": 2138,
      "ĠáīłáĬ¤": 2139,
      "ĠáĬ¨áĮ¥": 2140,
      "áĪ¨áĭ³áīµ": 2141,
      "ĠáĪĺáĪĨáĬĵ": 2142,
      "áī³áĬķ": 2143,
      "ĠáĬłáĪĪáī£áī¸áĭį": 2144,
      "áĪĪáįį": 2145,
      "ĠáĪµáĬķ": 2146,
      "áįĪáĪ«": 2147,
      "ĠáĬłáĮł": 2148,
      "Ġáī°áĭĭ": 2149,
      "áĬĵáĪī": 2150,
      "ĠáīģáĮ¥": 2151,
      "Ġáĭ¨áĪĿáī³": 2152,
      "áįįáĮłáĪŃ": 2153,
      "ĠáĬ¥áĪµáĬ«": 2154,
      "áīħáĬķ": 2155,
      "ĠáĭŃáĮł": 2156,
      "ĠáīĢáĪŃ": 2157,
      "ĠáĬ¥áĪµáĪ«áĬ¤áĪĭáĭįáĭ«áĬķ": 2158,
      "áĪĺáĭ°": 2159,
      "Ġáī£áĪªáĭ«": 2160,
      "áĮ¥áī³": 2161,
      "ĠáĪĽáĭĪáīħ": 2162,
      "áĮ¦áĪŃ": 2163,
      "Ġáĭ°áĬķáīł": 2164,
      "ĠáĮĪáĬĵ": 2165,
      "ĠáĪģáĬĶáī³áĭİáī½": 2166,
      "áĪ°áī¦áī½": 2167,
      "ĠáĭĪáĮª": 2168,
      "ĠáĪµáĪįáĮ£áĬķ": 2169,
      "ĠáĬ¨áĪį": 2170,
      "áĮĪáĪĿ": 2171,
      "ĠáĮīáĭ³áīµ": 2172,
      "ĠáĬłáīħáĪŃ": 2173,
      "ĠáĪĺáī¶": 2174,
      "áī³áī½áĬķáĬķ": 2175,
      "ĠáīłáĪĽáĭµáĪ¨áĮį": 2176,
      "ĠáĪĢáĮ¢áĬłáīµ": 2177,
      "áĮĭáĮ¥": 2178,
      "ĠáĪī": 2179,
      "áĪİáĬķ": 2180,
      "ĠáĬ¥áĭµáĪį": 2181,
      "Ġáĭ¨áĪļáĮł": 2182,
      "Ġáī¤áī°áĪ°áī¥": 2183,
      "ĠáįħáĪģáįį": 2184,
      "ĠáĭŃáĪ°áĮ£áĪį": 2185,
      "ĠáĮłáĬķáĬ«áĪ«": 2186,
      "ĠáīłáĪĺáī¶": 2187,
      "ĠáĬ«áĪĪ": 2188,
      "Ġáĭ¨áĪļáĮĪáĬĻ": 2189,
      "áĬĵáĮĪáĪ¨": 2190,
      "ĠáīµáĬ¥áĭĽáĭĿ": 2191,
      "áĭµáĪĢ": 2192,
      "Ġáī°áīĥ": 2193,
      "áĪŃáĬķ": 2194,
      "ĠáĬ¥áĪħ": 2195,
      "Ġáīłáĭ³": 2196,
      "Ġáĭ¨áīĨ": 2197,
      "ĠáĪĽáĬķáĬĽáĭįáĬķáĪĿ": 2198,
      "ĠáĬ¨áĬĲ": 2199,
      "Ġáī´áĬŃ": 2200,
      "Ġáĭ¨áįĢ": 2201,
      "áĪĺáĮ¡": 2202,
      "Ġáĭ¨áĬ¥áĬĽ": 2203,
      "Ġáĭ¨áįĸ": 2204,
      "ĠáīłáĮĪ": 2205,
      "áĪĺáĪĿ": 2206,
      "Ġáī¡áĭµ": 2207,
      "áĭĪáĮ¡": 2208,
      "áĮĪáĬĽáĪī": 2209,
      "Ġáĭ¨áĪ«": 2210,
      "áĬ¨áī°áĪį": 2211,
      "áĬ¨áī³áī°": 2212,
      "áĬ¨áĪ¨": 2213,
      "áĪĿáįĴ": 2214,
      "áĪªáĭį": 2215,
      "ĠáįįáĪ¬": 2216,
      "áīĤáīĥ": 2217,
      "ĠáĬ¨áĬ¥áĪ±": 2218,
      "áĪĽáĬķ": 2219,
      "áīģáĪĿ": 2220,
      "ĠáĮ£áī¢áĭ«": 2221,
      "áįĪáĪĪáĮį": 2222,
      "áĮ©": 2223,
      "ĠáĬłáĭ°áĪŃáĮĭ": 2224,
      "ĠáįĴ": 2225,
      "áĬŀáī½áĬķ": 2226,
      "ĠáĬ¥áĬķáĭ°áĪĿ": 2227,
      "Ġáĭ¨áĪĿáĬĵ": 2228,
      "ĠáĪĪáĪĽáĪ³": 2229,
      "áĮįáī£áĪŃ": 2230,
      "ĠáĪĺáĪµáĭĭáĬ¥áīµ": 2231,
      "ĠáĬłáĪĺáĪĪáĬ«áĬ¨áīµ": 2232,
      "ĠáĪĺáĬ¨áĪ«": 2233,
      "áĭ°áĮĪ": 2234,
      "Ġáī¥áīµ": 2235,
      "ĠáįĪáįħáĪŀ": 2236,
      "áįĲ": 2237,
      "áī°áĬĵ": 2238,
      "ĠáĪĿáĬķáĭµáĬķ": 2239,
      "ĠáĮĵáĭ°": 2240,
      "ĠáīłáīħáĪŃáī¡": 2241,
      "áĪ´áīµ": 2242,
      "áĭ«áĬķáĪµ": 2243,
      "áīģáīµ": 2244,
      "áĪŃáĪĿ": 2245,
      "áī¡áī¥": 2246,
      "áĭ«áĪĪáĪģ": 2247,
      "áĮ¨áīµ": 2248,
      "ĠáĬ¥áĪµáĬª": 2249,
      "ĠáĬłáĬŃ": 2250,
      "áĮ¥áįį": 2251,
      "Ġáī¥áĪį": 2252,
      "ĠáĪ¨áĮĪáĭµ": 2253,
      "Ġáĭ¨áĮįáĪį": 2254,
      "áĮ¤áĬĵ": 2255,
      "áĪĪáī²áĬ«": 2256,
      "ĠáĬŃáī¥áĪŃ": 2257,
      "áī¤áī±": 2258,
      "áĬ¥áīĨáī¥": 2259,
      "ĠáĪĪáĪĺáĮį": 2260,
      "Ġáĭ¨áĬĲáīłáĪ¨áĭį": 2261,
      "áĪµáī²": 2262,
      "áĪ³áī¥": 2263,
      "áĪĿáĪħáĪŃ": 2264,
      "Ġáĭ¨áĭ«": 2265,
      "ĠáĪĽáī´": 2266,
      "áĪĭáĬķáĭµ": 2267,
      "ĠáĬŃáįįáĪİáī½": 2268,
      "áĪµáĪŃ": 2269,
      "ĠáĪµáĪħ": 2270,
      "áĬķáĭĽ": 2271,
      "áĬ®áĬĸ": 2272,
      "ĠáīłáīĤ": 2273,
      "áīĥáĪĪáĪģ": 2274,
      "ĠáĪįáĪĿáĭµ": 2275,
      "áī£áī¸áĭįáĬķ": 2276,
      "Ġáĭ«áĭį": 2277,
      "áĪ¨áīł": 2278,
      "ĠáĪĺáĪµáĮłáīµ": 2279,
      "ĠáĬŃáįįáĭ«": 2280,
      "Ġáĭ´": 2281,
      "áĪ«áĪ²": 2282,
      "Ġáįİáī¶": 2283,
      "áīĨáī½": 2284,
      "Ġáī°áĪĪ": 2285,
      "áĮ¥áĪ¨áīµ": 2286,
      "áįĪáĪįáĮĪ": 2287,
      "ĠáĬĲáįį": 2288,
      "ĠáĪĺáĪįáĬ¥áĬŃáīµ": 2289,
      "Ġáī£áĪĪáĪµáĪįáĮ£": 2290,
      "áĪĪáĭ°": 2291,
      "Ġáī°áĮĪáī¢": 2292,
      "Ġáĭ¨áĬłáĪĪáĪĿ": 2293,
      "áĬķáī£": 2294,
      "ĠáĬ¥áĪµáĪ«áĬ¤áĪį": 2295,
      "áĪµáīµáĬĵ": 2296,
      "áĭİáī¹áĬķ": 2297,
      "áĪĽáī¸áĭį": 2298,
      "Ġáĭ«áĭµáĪŃáĮī": 2299,
      "áī¡áīµ": 2300,
      "ĠáĭĪáĭ²áĭ«áĭį": 2301,
      "Ġáĭİ": 2302,
      "áĬĵáĭĬ": 2303,
      "Ġáĭ¨áĬłáĪĿáĪĭáĬŃáĬķ": 2304,
      "Ġáĭ¨áĪļáĭ«áĪ³": 2305,
      "áĭĺáĮĭáĮħ": 2306,
      "Ġáĭ«áĪµáī°": 2307,
      "ĠáįįáįģáĪĿ": 2308,
      "ĠáĬ¨áī°áĪŀáī½": 2309,
      "ĠáĬłáįĪ": 2310,
      "áĭĪáĮ¥": 2311,
      "áĪŀáĬķ": 2312,
      "ĠáĮ´": 2313,
      "áĪ´áįį": 2314,
      "ĠáĪįáĮģ": 2315,
      "ĠáĪµáĪĪáī°": 2316,
      "áĪ°áĪ¨": 2317,
      "ĠáĮ¥áĭ«áīĦáĭİáī½": 2318,
      "áĭī": 2319,
      "áĭ°áĪ¨áĪ°": 2320,
      "ĠáĪ½áĪĽáĮįáĪĮ": 2321,
      "ĠáĮįáĪĪ": 2322,
      "áī´áīµ": 2323,
      "Ġáī£áĪĪáįĪáĭį": 2324,
      "áĭĿáī¡": 2325,
      "ĠáĭĿáīħ": 2326,
      "Ġáĭ¨áĪļáī½áĪį": 2327,
      "Ġáĭ°áīĤáīĥ": 2328,
      "ĠáĬ¥áĬķáĭ°áĪĽáĭŃ": 2329,
      "áĪĬáīµ": 2330,
      "áĮįáī¥áįħ": 2331,
      "áĪīáīµáĬķ": 2332,
      "ĠáĪ«áĪµ": 2333,
      "Ġáĭ¨áĮī": 2334,
      "ĠáĮ¦áĪŃáĬĲáīµ": 2335,
      "áįĢáĭį": 2336,
      "áĬĲáī¶áī½": 2337,
      "Ġáĭ°áī¥": 2338,
      "ĠáĬ®áĪļ": 2339,
      "ĠáĪĪáĭĺáĪĭáĪĪáĪĿ": 2340,
      "ĠáĬ¥áĪŃáĮįáĮłáĬĽ": 2341,
      "ĠáĬ¥áīħáĭµ": 2342,
      "Ġáī°áĬ¨áī³": 2343,
      "ĠáīłáĬ¥áĪ±": 2344,
      "ĠáĪĺáĮĭ": 2345,
      "áĮ¥áĪ¨": 2346,
      "áĬłáĪį": 2347,
      "áī¾áī½": 2348,
      "ĠáĮįáĪ«": 2349,
      "ĠáĬ¥áĪŃáĪ±": 2350,
      "ĠáĭŃáĬĵáĮĪ": 2351,
      "ĠáĬ¥áĬĵáĪĿ": 2352,
      "áĮĢáīµ": 2353,
      "ĠáĪļáĪĬáĭ®áĬķ": 2354,
      "áĭµáĪĢáĬĴ": 2355,
      "ĠáĬĲáĬķ": 2356,
      "áĭĭáīµ": 2357,
      "Ġáĭ¨áī°áĪĺáĪ°áĪ¨": 2358,
      "ĠáĬłáĭ°áĪŃáĮĭáĪĪáĪģ": 2359,
      "ĠáĬłáĪĺáĪ°": 2360,
      "Ġáī¢áĭ«áĬķáĪµ": 2361,
      "áĮłáīłáīĢ": 2362,
      "ĠáĬ¨áī³": 2363,
      "áī£áĭĬ": 2364,
      "ĠáĭŃáĪĨáĬķ": 2365,
      "ĠáĬ«áĪħ": 2366,
      "ĠáīµáĪŃáĮīáĪĿ": 2367,
      "Ġáĭ¨áĭµ": 2368,
      "áĪįáĬĿ": 2369,
      "áĬĲáĪŃ": 2370,
      "ĠáĪħáĭĿáī¦áī½": 2371,
      "ĠáĬłáĪµáī³áĭį": 2372,
      "áĪ«áĪ½": 2373,
      "áĬĸáĪªáĭ«": 2374,
      "áī¨áĪŃ": 2375,
      "ĠáĪĿáĪµáĬŃáĪ®áī½": 2376,
      "ĠáĬłáī£áīµ": 2377,
      "ĠáĪĿáĪ½": 2378,
      "áĮĭáĪ«": 2379,
      "ĠáĮĢáĪĺáĪŃ": 2380,
      "ĠáĪĤáĭ°áīµ": 2381,
      "áĪ«áĪŃ": 2382,
      "áī£áĪī": 2383,
      "áįĪáįħ": 2384,
      "ĠáĬ¥áĪ¨": 2385,
      "áīĢáĪµ": 2386,
      "áĮĢáĪĺáĪŃ": 2387,
      "Ġáĭ¨áĭĭ": 2388,
      "ĠáĪĺáĮłáīĢáĪĿ": 2389,
      "áĭ±áīµ": 2390,
      "ĠáĪĦáĭ°": 2391,
      "ĠáĪĺáĬªáĬĵ": 2392,
      "Ġáĭ¨áĪĺáĪµ": 2393,
      "áĪĺáĪ©": 2394,
      "áī¢áīµ": 2395,
      "ĠáīłáįĬ": 2396,
      "Ġáīµáī½áĪĭáĪĪáĪħ": 2397,
      "ĠáīłáĮįáĪįáįħ": 2398,
      "ĠáĪ°áĪ«áī°áĬŀáī½": 2399,
      "áĪıáī¸áĭį": 2400,
      "Ġáī¥áĪĭ": 2401,
      "áĮİáī½": 2402,
      "ĠáĭŃáĪĺáĪįáĬ¨áī±": 2403,
      "ĠáĬłáĪµáī°áĭ«áĭ¨áīµ": 2404,
      "ĠáĬķáī¥áĪ¨áīµ": 2405,
      "Ġáĭ¨áĬĲáīłáĪ©": 2406,
      "áĪĢáĪĪáĪģ": 2407,
      "ĠáĬ¤áĪį": 2408,
      "áĭ²áĪ±": 2409,
      "ĠáĬłáĪĿáĪĭáĬŃáĬķ": 2410,
      "áĭİáĪµ": 2411,
      "áĬŃáī¶": 2412,
      "ĠáīłáĭĽ": 2413,
      "áĭįáĪµ": 2414,
      "áĭ·áĪį": 2415,
      "áĭŁ": 2416,
      "áĪŀáĪĭ": 2417,
      "áĮĭáĪļ": 2418,
      "ĠáīłáĪĿáīµ": 2419,
      "ĠáĭŃáĪĺ": 2420,
      "áĬĲáīµáĬķ": 2421,
      "ĠáĪĪáĪĽáĭĪáīħ": 2422,
      "áīĢáīħ": 2423,
      "Ġáĭ¨áĪļáī½áĪī": 2424,
      "ĠáĭįáĮ¤áīµ": 2425,
      "áĭįáĮ£áīµ": 2426,
      "áī°áĬĵáĪį": 2427,
      "áĮĪáī£áĭį": 2428,
      "Ġáī°áĪĽáĪªáĭİáī½": 2429,
      "áĭĭáīĤ": 2430,
      "ĠáĬķáįģáĪħ": 2431,
      "ĠáĬŃáĪŃáĪµáī²áĭ«áĬķ": 2432,
      "ĠáīłáĪµáĪ«": 2433,
      "ĠáĬłáī£áĪį": 2434,
      "ĠáĪħáįĥ": 2435,
      "áįķáĪ®": 2436,
      "ĠáĬłáĪľáĪªáĬ«": 2437,
      "áĮ£áĭį": 2438,
      "áįħáĬĵ": 2439,
      "Ġáĭ¨áĬłáĭ¨áĪŃ": 2440,
      "Ġáīħáĭ±áĪµáĬķ": 2441,
      "Ġáī°áĪµáĪĽ": 2442,
      "ĠáĭµáĬķáĬ³": 2443,
      "áĬ¦áĬķ": 2444,
      "ĠáĪĪáĪµ": 2445,
      "áĭ¨áĪĿ": 2446,
      "ĠáĬłáĪįáĬĲáīłáĪ¨áĪĿ": 2447,
      "áĪĽáĭįáĭ«áĬķ": 2448,
      "áĬĸáĪİáĮĤ": 2449,
      "áīħáĪŃáī¥": 2450,
      "áĬķáĮĨ": 2451,
      "áĭĪáĮĪáĭµ": 2452,
      "áĭĺáĭĿ": 2453,
      "ĠáĬłáĪ³áĪį": 2454,
      "ĠáĬłáĪ«áīµ": 2455,
      "áĬķáĭ´": 2456,
      "ĠáĭŃáī³": 2457,
      "ĠáĬłáĮĭáĮ£": 2458,
      "ĠáĪµáĮ¦áī³": 2459,
      "Ġáĭ«áĪĿ": 2460,
      "ĠáĪįáīµ": 2461,
      "ĠáĮ¥áĪŃ": 2462,
      "áĬ¨áĪĭáĬ¨": 2463,
      "ĠáĬłáĪīáīµ": 2464,
      "ĠáįķáĪ®áĮĢ": 2465,
      "Ġáįĥ": 2466,
      "ĠáĮĦ": 2467,
      "áĪ«áī½áĪģ": 2468,
      "ĠáĬłáĪµáī°áĭĭ": 2469,
      "ĠáĬłáĪµáī°áĭ³áĭ°áĪŃ": 2470,
      "Ġáĭ¨áĪĪáĭįáĪĿ": 2471,
      "áĪµáīµáĪª": 2472,
      "áĮŃáĪŃ": 2473,
      "ĠáĬ¨áĬ¥áĬĲáĭļáĪħ": 2474,
      "Ġáī£áĪħáĪŃ": 2475,
      "áĪĪáĬĽáĭį": 2476,
      "áįĥáįĢ": 2477,
      "áīĢáĪĺáĮ¥": 2478,
      "ĠáĬ¨áĪĢ": 2479,
      "áĪĺáĪĪáĬ¨áī±": 2480,
      "ĠáĪĢáĪĭáįĬáĬĲáīµ": 2481,
      "ĠáĮ¨áĭĭáī³": 2482,
      "Ġáīłáĭĭ": 2483,
      "áĬŃáī°áĪŃ": 2484,
      "áĬ¬áīµ": 2485,
      "áī½áĬĭáĪĪáĪģ": 2486,
      "ĠáĬłáĪĿáĪµáīµ": 2487,
      "Ġáĭ°áĪµáī°áĬĽ": 2488,
      "ĠáĪĺáĭµáĪ¨": 2489,
      "áĮĪáĪįáĮįáĪİ": 2490,
      "ĠáīģáĪŃ": 2491,
      "ĠáĬłáĬķáī¥": 2492,
      "ĠáĬ¨áĪħ": 2493,
      "áīłáīµáĪĿ": 2494,
      "ĠáĪ°áĪ«áĭĬ": 2495,
      "ĠáĬłáĪĪáĬĿ": 2496,
      "ĠáīłáįįáĮ¥áĬĲáīµ": 2497,
      "ĠáĭĪáĭ°áĪļ": 2498,
      "ĠáĬ¤áĪµ": 2499,
      "Ġáĭ«áĪĭáī¸áĭįáĬķ": 2500,
      "ĠáīłáĬ¥áĬĶ": 2501,
      "áĬĵáĭŃáīµ": 2502,
      "áįĪáīµ": 2503,
      "Ġáĭ°áīĢ": 2504,
      "áīĭáīĭáĪĿ": 2505,
      "áĮĬáĭ«": 2506,
      "áįįáīµáĪĦ": 2507,
      "ĠáĪĺáĬķáĮĪáĭ¶áī½": 2508,
      "ĠáĭĪáĪ«áīµ": 2509,
      "áĮłáĪĭ": 2510,
      "áĪģáĭµ": 2511,
      "ĠáĪĽáĪħáīłáĪ¨": 2512,
      "áĪĺáī±": 2513,
      "Ġáī°áĪ«áĪ«": 2514,
      "áĪ«áĪĪáĪģ": 2515,
      "ĠáīłáĪĺáĬķáįĪ": 2516,
      "áĬķáīħ": 2517,
      "ĠáĬłáĭ°": 2518,
      "ĠáĭĪáĪ°": 2519,
      "ĠáįĮ": 2520,
      "ĠáĪļáĪµáīµ": 2521,
      "áĮĵáĪį": 2522,
      "Ġáī¥áĪĪáĭĭáĪį": 2523,
      "Ġáĭ¨áĭŃáĪĨáĭĭ": 2524,
      "ĠáĬłáĭ°áĪ¨áĮĪ": 2525,
      "ĠáĭŃáī»": 2526,
      "ĠáĪµáī³": 2527,
      "Ġáī°áĪ°": 2528,
      "ĠáīłáĬ¥áĪµáĪ«áĬ¤áĪį": 2529,
      "ĠáĭŃáĪĨáĬĵáĪī": 2530,
      "ĠáĬłáĪ¸": 2531,
      "ĠáĪĿáĬ¥áĪ«": 2532,
      "ĠáīĨáĬķáĮĨ": 2533,
      "áĪ³áī¸áĭį": 2534,
      "Ġáĭ¨áĬłáĪľáĪªáĬ«": 2535,
      "Ġáĭ¨áī°áĪĪáĭ¨": 2536,
      "áīħáĭ±": 2537,
      "áĪĬáĭĿ": 2538,
      "ĠáĬłáĪµáīĢáĭµ": 2539,
      "ĠáĭŃáīł": 2540,
      "ĠáĪĢáĭĭ": 2541,
      "ĠáĬłáĮłáīĥáĪĭáĭŃ": 2542,
      "ĠáĭľáĬĵ": 2543,
      "ĠáĪħáĬŃáĪĿáĬĵ": 2544,
      "áī¥áĭĽ": 2545,
      "áĬ«áĪĦ": 2546,
      "ĠáĭŃáī»áĪĭáĪį": 2547,
      "ĠáĪĿáĪįáĬŃáīµ": 2548,
      "ĠáĭĪáĭ°áįĬáīµ": 2549,
      "áī¡áĬķ": 2550,
      "áĪĺáĮ£áĪį": 2551,
      "áĬĲáĮĭáĮĪáĪŃ": 2552,
      "ĠáĪŃáĬ¥áĪµ": 2553,
      "áĮĪáĪįáĮĪáĪį": 2554,
      "ĠáīłáĬłáĪį": 2555,
      "áĭµáĪµáīµ": 2556,
      "ĠáĪĺáįĥáĪħ": 2557,
      "ĠáĪĪáĭ«áĪħáĭĮ": 2558,
      "Ġáī°áĭĪáĭ³": 2559,
      "áĭ©áīµ": 2560,
      "ĠáīłáĪĽáĬķáĬĽáĭįáĪĿ": 2561,
      "áĬļ": 2562,
      "ĠáĬ¨áĬłáĬķáĭµ": 2563,
      "ĠáĪµáĪĿáĪĿáĬĲáīµ": 2564,
      "Ġáīłáī°áĪĪáĭŃ": 2565,
      "áĭįáĪ®": 2566,
      "ĠáĬĲáĭĭ": 2567,
      "áĮ¦áī½": 2568,
      "ĠáĬłáĪĺáĪ°áĮįáĬĵ": 2569,
      "áīĭáĪį": 2570,
      "áī¥áĪħ": 2571,
      "ĠáĬ¨áĬ¥áĬĶ": 2572,
      "áĬĲáįį": 2573,
      "áĪĨáĬĳáīµ": 2574,
      "Ġáĭ¨áĭ©": 2575,
      "ĠáĪĪáĪĺáĪµáĪ«áīµ": 2576,
      "áĮįáĭ³": 2577,
      "áĪŀáī½áĬķ": 2578,
      "ĠáĪĪáĪĺáĪµáĮłáīµ": 2579,
      "ĠáĭĪáĭ²áĭ«áĭįáĬĳ": 2580,
      "áĬĽáĭįáĬķ": 2581,
      "ĠáĬĴ": 2582,
      "áįĬáĭİáī½": 2583,
      "Ġáī£áĪī": 2584,
      "Ġáĭ¨áįħ": 2585,
      "ĠáĪĺáī¼": 2586,
      "ĠáĬ¥áĭįáīĢáīµ": 2587,
      "ĠáĮłáī¥": 2588,
      "áĪ¶áĪµáīµ": 2589,
      "ĠáĭŃáĪµ": 2590,
      "Ġáĭ«áĬķ": 2591,
      "áĬĲáīłáĪ¨áĭį": 2592,
      "ĠáĪįáī¥áĪµ": 2593,
      "áĪįáĭµ": 2594,
      "Ġáĭ³áĪŃáī»": 2595,
      "áĭ¶áī½áĬķ": 2596,
      "ĠáĬ¥áĪĪáīµ": 2597,
      "ĠáĭŃáĪ°áĪ«": 2598,
      "áĮĲ": 2599,
      "áĬĸáĪµ": 2600,
      "ĠáĬ¨áĪµ": 2601,
      "ĠáĬ¥áīĥáĭİáī½": 2602,
      "áĪŃáĭ³áīµ": 2603,
      "ĠáīłáįĪ": 2604,
      "ĠáĬłáĬķáĭ²": 2605,
      "áįĥáĪļ": 2606,
      "áĪ´áĬķ": 2607,
      "ĠáĪĺáīħáĭ°": 2608,
      "ĠáĬłáĪµáī¸": 2609,
      "Ġáīłáī°áĭ«áĭ«áĭĺ": 2610,
      "Ġáĭ±": 2611,
      "ĠáĪĺáĪµáĪ«áīµ": 2612,
      "áĬĲáĮį": 2613,
      "ĠáĬłáĪįáįİ": 2614,
      "Ġáĭ¨áī°áĭĪáĪ°áĬĲ": 2615,
      "ĠáĪ°áī¥": 2616,
      "áĬķáīĢáĪ³": 2617,
      "ĠáĬłáĪĺáĪ°áĮįáĬĵáĪĪáĪģ": 2618,
      "áĬķáīĥ": 2619,
      "áĪ«áīħ": 2620,
      "áĪŃáĪµáī¶áĪµ": 2621,
      "ĠáĮ¥áĬĵáīµ": 2622,
      "ĠáĬłáĮĪáĪ®áī½": 2623,
      "ĠáĮ¥áĪ«áīµ": 2624,
      "Ġáī¢áĪ®": 2625,
      "áĮłáī£": 2626,
      "áī»áĪĪ": 2627,
      "ĠáīłáĪĺáĬ«áĬ¨": 2628,
      "Ġáĭ¨áĪĿáĮįáī¥": 2629,
      "ĠáĪĺáĪ¬áīµ": 2630,
      "ĠáīłáĪĺáĮłáīĢáĪĿ": 2631,
      "ĠáĬłáĪĭáĪħ": 2632,
      "ĠáĭĪáĮ£áīµ": 2633,
      "áįıáĪį": 2634,
      "áĭ°áĪį": 2635,
      "áĪªáīµ": 2636,
      "ĠáĪ°áĪĭ": 2637,
      "áĮĪáĬĻáīµ": 2638,
      "ĠáĬ¥áĭŃáī³": 2639,
      "ĠáīłáĪģáĪĪ": 2640,
      "áĬĲáĪ°": 2641,
      "ĠáĬ¥áī£áĬŃáĭİáĬķ": 2642,
      "ĠáĬ«áĪŃ": 2643,
      "áĬĵáĮĪáĪ©": 2644,
      "Ġáīłáī°áĪĺ": 2645,
      "ĠáĪĽáĭµáĪ¨": 2646,
      "áīĢáĮ¥áĪĪáĭį": 2647,
      "ĠáĬ¥áĬķáĭ°áĪļáĭ«áĪµ": 2648,
      "Ġáī°áĮįáī£áĪ«áĭĬ": 2649,
      "áĪµáī´": 2650,
      "áĭįáĬĵ": 2651,
      "áĬĸáĪ«áī¸áĭį": 2652,
      "áĭĪáĪ°áĬĳ": 2653,
      "ĠáĬłáĪ°": 2654,
      "áĬĵáĭŃáīµáĭµ": 2655,
      "ĠáĮĭáĭľ": 2656,
      "ĠáĬ«áĪĪáĭį": 2657,
      "Ġáīłáįħ": 2658,
      "ĠáĪĺáĭĭ": 2659,
      "ĠáĪĪáĬ¥áĬĶ": 2660,
      "ĠáĬłáĭµáĪ«": 2661,
      "ĠáīłáĪģáĪīáĪĿ": 2662,
      "ĠáĭŃáĮ¨": 2663,
      "Ġáĭ«áīĢáĪŃ": 2664,
      "áīĢáĬĳ": 2665,
      "ĠáĬ¥áĬķáĭ°áĪĿáīµ": 2666,
      "ĠáĪĺáĭĿáĪĻáĪŃ": 2667,
      "áĭ³áī¤": 2668,
      "áįĪáĪ©": 2669,
      "áĭļáīĥ": 2670,
      "ĠáĪ°áĬł": 2671,
      "Ġáĭ¨áī£áĪħáĪŃ": 2672,
      "áĬķáī³": 2673,
      "ĠáĬłáīħáĪ«": 2674,
      "Ġáĭ¨áĮ¦áĪŃ": 2675,
      "ĠáĪ«áĬ¥": 2676,
      "ĠáĬ¨áĪĮáĪİáī½": 2677,
      "ĠáĪ¬": 2678,
      "Ġáĭ¨áĭ³": 2679,
      "áĪĪáĭµ": 2680,
      "ĠáīłáĪĽáĪµ": 2681,
      "ĠáĪĺáįįáīµáĪĦ": 2682,
      "ĠáĬ¥áĪĿ": 2683,
      "ĠáĪĪáĭĪ": 2684,
      "áĪ³áĪµ": 2685,
      "ĠáĪ°áįĬ": 2686,
      "áĭĺáĪŃ": 2687,
      "Ġáī³áĪĭ": 2688,
      "ĠáĪĺáĪįáĬŃ": 2689,
      "áĬķáĮ«": 2690,
      "ĠáĪĺáĬĸáĪŃ": 2691,
      "Ġáī¢áĭ«": 2692,
      "ĠáĬłáĭµáĪŃáĮĪáĭį": 2693,
      "ĠáĬ¥áĬķáĭ°áĭļáĪħ": 2694,
      "Ġáī°áĮįáī£áĪŃ": 2695,
      "áī£áĪ¨": 2696,
      "áįĭáĬķ": 2697,
      "áĬ¤áĪµ": 2698,
      "ĠáĬ¥áĭĪáĭ³": 2699,
      "áĪĨáĬĲáĭį": 2700,
      "áĪŃáīħ": 2701,
      "áĬ¨áįĪ": 2702,
      "Ġáī°áīĭ": 2703,
      "ĠáĬ¨áīł": 2704,
      "ĠáĭŃáīĨ": 2705,
      "áī»áī½áĬķáĬķ": 2706,
      "Ġáī°áīĢáĪĿ": 2707,
      "áĬ¨áįįáī°áĬĽ": 2708,
      "Ġáī±": 2709,
      "ĠáĬłáĭ«áĪµ": 2710,
      "ĠáĬ¨áĬ¢": 2711,
      "áĬłáĪĿ": 2712,
      "ĠáĬ¨áĬ¥áĬĲáĪ±": 2713,
      "áĮĪáĬĲáĭĺ": 2714,
      "áĭ«áī¸áĭį": 2715,
      "áī¥áĪŃáĪĢáĪĿ": 2716,
      "ĠáīłáĭįáĪµ": 2717,
      "ĠáĬłáĭ³áĭ²áĪµ": 2718,
      "ĠáĬķáĮįáĭµ": 2719,
      "Ġáĭ¨áĬ¦": 2720,
      "Ġáĭ«áĬķáĬķ": 2721,
      "ĠáīłáĬ¥áĪŃáĮįáĮł": 2722,
      "áĭįáĭ«": 2723,
      "ĠáĮĥ": 2724,
      "Ġáĭ°áĪĿ": 2725,
      "Ġáī£áĪĪáī¤": 2726,
      "ĠáĭŃáĭŀ": 2727,
      "ĠáĪĪáīł": 2728,
      "ĠáĬĲáĭįáĬĵ": 2729,
      "ĠáĭĪáĬķáĭµáĪĿ": 2730,
      "ĠáĬ¥áĬķáĭ°áĪļáī½áĪį": 2731,
      "ĠáĬ¥áĪµáĬ«áĪģáĬķ": 2732,
      "áĪ»áĪ»áĪį": 2733,
      "ĠáĪĪáĪĺáĪĨáĬķ": 2734,
      "ĠáīłáĬ¥áĪŃáĮįáĮłáĬĿáĬĲáīµ": 2735,
      "ĠáĪµáĪĪáĪĽ": 2736,
      "Ġáĭ«áĪĪáĬķ": 2737,
      "ĠáĪĪáĪį": 2738,
      "áĮ¥áĬķ": 2739,
      "áī´áĬŃ": 2740,
      "Ġáĭ¨áĮĪáĬķáĭĺáī¥": 2741,
      "ĠáĮ¥áīĥáīµ": 2742,
      "áī§áĪį": 2743,
      "áĪĿáĪ«áĪį": 2744,
      "áĪ®áīµ": 2745,
      "áīĥáĪī": 2746,
      "áĪĮáĬŃáīµ": 2747,
      "áīĭáīĭ": 2748,
      "ĠáĪŀáīµ": 2749,
      "Ġáĭ¨áĪħáĭĿáī¥": 2750,
      "áī¶áī»áī¸áĭį": 2751,
      "ĠáĪĺáĪ³áĪªáĭ«áĭİáī½": 2752,
      "áĪ«áĬķáĪµ": 2753,
      "áĭ°áĪ°": 2754,
      "ĠáįĪáī°áĬĵ": 2755,
      "ĠáīłáĬłáĮłáīĥáĪĭáĭŃ": 2756,
      "Ġáī½áĮįáĪ®áī½": 2757,
      "Ġáĭ®áĪĢáĬķáĪµ": 2758,
      "áĭ³áĬĵ": 2759,
      "ĠáīłáĬ®": 2760,
      "áĪįáĬ®": 2761,
      "áįĪáĪįáĮĪáĭį": 2762,
      "ĠáĬ¥áĬĽáĪĿ": 2763,
      "Ġáīªáĭ²áĭ®": 2764,
      "Ġáĭ°áĪħáĬķáĬĲáīµ": 2765,
      "áĬĹáĪį": 2766,
      "áīĨáĮ£áĮłáĪŃ": 2767,
      "ĠáĪ²áĪī": 2768,
      "Ġáĭ¨áĪĺáĬķáĮįáĪµáīµ": 2769,
      "Ġáī°áĮłáīĥ": 2770,
      "áĬĳáĪĿ": 2771,
      "ĠáĬłáĭĺ": 2772,
      "áĮ£áĮ«": 2773,
      "ĠáĬ¢áĭ«": 2774,
      "áĬĲáīħ": 2775,
      "áĬ¨áĪĽ": 2776,
      "Ġáĭ¨áī°áīĢ": 2777,
      "Ġáī¥áīĥáīµ": 2778,
      "áĪİáī¹": 2779,
      "ĠáĭŃáįĪáĪįáĮĭáĪī": 2780,
      "ĠáīłáĪĭ": 2781,
      "ĠáīłáĬ¥áĬĲáĭļáĪħ": 2782,
      "áĬ«áī£áī¢áĭį": 2783,
      "áĭ±áĬķ": 2784,
      "áįĨáī½": 2785,
      "Ġáĭ¨áĪļáĪĪáĭį": 2786,
      "ĠáĬłáĪĪáīĥ": 2787,
      "Ġáĭ°áĪŃ": 2788,
      "áĭĺáĮĭáĮĢáīµ": 2789,
      "áī³áĪī": 2790,
      "áī´áĪį": 2791,
      "áĪŃáĪµáī²": 2792,
      "áĪįáĪµáĮ¤": 2793,
      "áĬĲáī±áĬķ": 2794,
      "áī£áī½áĪģ": 2795,
      "Ġáī°áĬĲáĪ³": 2796,
      "áĮ£áĪª": 2797,
      "áĮĭáĪį": 2798,
      "áĪĺáĪĪáĪ±": 2799,
      "ĠáĪ«áĪ±áĬķ": 2800,
      "ĠáĬłáĬķáī°áĪĿ": 2801,
      "Ġáī¥áĭĻáĭįáĬķ": 2802,
      "Ġáĭ¨áĪļáī³": 2803,
      "áĪ«áĪĿ": 2804,
      "Ġáīħáĭµ": 2805,
      "ĠáĮ´áĮ¥áĪ®": 2806,
      "Ġáĭ«áĪ¨áĮĭáĮį": 2807,
      "áĬ¡áĪµ": 2808,
      "Ġáĭ¨áĬ¨áī°áĪĽ": 2809,
      "ĠáĬ¥áĬĲáĪ±áĬķ": 2810,
      "Ġáĭ¨áįĭ": 2811,
      "ĠáĬ¥áĬķáĮįáĭ²áĪħ": 2812,
      "áī¸áĭĭáĪĪáĪģ": 2813,
      "ĠáĪĢáĭŃáĪĽáĬĸ": 2814,
      "ĠáĪĪáĪĽáĪµáī°": 2815,
      "ĠáĮ¦áĪŃ": 2816,
      "ĠáĪµáĪħáī°áīµ": 2817,
      "áĬ©áĪĿ": 2818,
      "Ġáįįáīµ": 2819,
      "ĠáĬ¥áĭµáĮĪáīµ": 2820,
      "Ġáĭ¨áĪĨáĬĳáīµ": 2821,
      "áĪĪáīłáīµ": 2822,
      "Ġáĭ¨áĪļáĭĪ": 2823,
      "áĪĺáĪ°áĮįáĬĵ": 2824,
      "áĬķáįĥ": 2825,
      "áĪŃáī²": 2826,
      "áĮ£áī¸áĭį": 2827,
      "Ġáī°áīĢáī£áĭŃ": 2828,
      "ĠáĪĪáĪ°": 2829,
      "áĬ¦áĪį": 2830,
      "ĠáĬłáĪµáī¸áĮĭáĪª": 2831,
      "áĪħáĪ¨": 2832,
      "áĭ°áĪ«": 2833,
      "ĠáĪµáĬ¥": 2834,
      "áįĪáĬķ": 2835,
      "áĮłáĪĺ": 2836,
      "áĪ½áĬ¨áĪŃ": 2837,
      "ĠáīłáĬ¥áĭįáĬĲáīµ": 2838,
      "áĮ¿": 2839,
      "ĠáĪĽáĪĪáīµáĪĿ": 2840,
      "Ġáĭ«áĮį": 2841,
      "ĠáįĪáĮ£áĬķ": 2842,
      "áĮĭáĭĬ": 2843,
      "Ġáī¥áĪŃáĪĢáĬķ": 2844,
      "áīģáĪŃ": 2845,
      "Ġáĭ¨áĪĺáĮĢáĪĺáĪªáĭ«áĭį": 2846,
      "ĠáĬłáĮĪáĪįáĮĭáĭ®áī½": 2847,
      "áĪĪáĬĽáĪį": 2848,
      "ĠáįĪáīĥáĭ°áĬĽ": 2849,
      "áĭµáĮĵ": 2850,
      "ĠáĪĿáĪŃáīµ": 2851,
      "ĠáĬ¥áĬķáĭ³áĪĪáĭį": 2852,
      "áĪ¾áī½": 2853,
      "ĠáĬĽáĭį": 2854,
      "Ġáĭ¨áĬĲáīłáĪ©áīµ": 2855,
      "Ġáīłáī¥áĭĻ": 2856,
      "ĠáĪģáĪĪáī±": 2857,
      "Ġáĭ¨áĮ¤áĬĵ": 2858,
      "Ġáī°áĪ«": 2859,
      "ĠáīłáĭµáĬķ": 2860,
      "ĠáĬ¥áĪŃáĪ±áĪĿ": 2861,
      "ĠáĮįáĪĿ": 2862,
      "áĬ®áĬĸáĪļ": 2863,
      "ĠáĭŃáĭĪ": 2864,
      "ĠáĭŃáĪĦ": 2865,
      "ĠáīłáĪħáĭŃáĭĪ": 2866,
      "ĠáĪĺáĪ°áĪ¨áī³áĭĬ": 2867,
      "ĠáĪİ": 2868,
      "áĭ³áĬķáīµ": 2869,
      "ĠáĪĺáĬŃ": 2870,
      "áĪªáĬķ": 2871,
      "ĠáĮįáĭµ": 2872,
      "áĭ®áĬķ": 2873,
      "áĬķáĭ³áĬķáĭ³": 2874,
      "Ġáĭ¨áĪļáĪĪáĭįáĬķ": 2875,
      "ĠáĬ¥áĬķáĭ²áĭ«áĭįáĪĿ": 2876,
      "áĬĲáīł": 2877,
      "ĠáĪ°áī£áīµ": 2878,
      "ĠáīµáĪĿáĪħáĪŃ": 2879,
      "áī¼áĬķ": 2880,
      "áĮĪáĪ©": 2881,
      "ĠáĪĪáĪģáĪīáĪĿ": 2882,
      "áĪ®áī¹": 2883,
      "Ġáĭ¨áī°áĭĪ": 2884,
      "ĠáĬłáĬķáĪµáī¶": 2885,
      "ĠáĬķáĮīáĪ±": 2886,
      "ĠáĭµáĪ¨": 2887,
      "áĪ¨áĮħáĪĿ": 2888,
      "áĭ³áī¸áĭį": 2889,
      "ĠáīłáĮŃ": 2890,
      "áĪ¯áī¸áĭį": 2891,
      "ĠáĪµáĬĲ": 2892,
      "ĠáĬ¥áĬķáĭ°áĪĮ": 2893,
      "ĠáĪµáĪ«áĭİáī½": 2894,
      "áĬķáĪ°": 2895,
      "áĪŃáĭ«áīµ": 2896,
      "áĭĿáĮį": 2897,
      "áĪĮáīµ": 2898,
      "áĪ«áĪĪáĬķ": 2899,
      "áĪ±áīµ": 2900,
      "áĮ£áĪī": 2901,
      "áĭ©áĬķ": 2902,
      "ĠáĬłáĪĿáĪĭáĬ«": 2903,
      "Ġáĭ¨áĪļáįĪ": 2904,
      "áĪŀáĬ¨áĪŃ": 2905,
      "áĮĮáī³": 2906,
      "áĭ«áīĤ": 2907,
      "áĪĢáīµ": 2908,
      "ĠáĭĪáĬķáĮĢ": 2909,
      "áĬĸáī½áĬķ": 2910,
      "áĬ¨áĪĭáĬ¨áĭ«": 2911,
      "áĬķáĪ²": 2912,
      "áĮĭáī½áĪģ": 2913,
      "áĭ®áī¹": 2914,
      "ĠáĬłáĮłáĮĪáī¥": 2915,
      "áĬķáīĢáīµ": 2916,
      "áĮĪáĪµ": 2917,
      "ĠáĬłáĬķáĭ²áīµ": 2918,
      "ĠáĬ¥áĭĪáĭ³áĪĪáĪģ": 2919,
      "ĠáĬ¥áĬķáĭ°áĪĨáĬĳ": 2920,
      "ĠáĬ¥áĬķáĭ°áĪļáī½áĪī": 2921,
      "ĠáĬłáĭµáĪŃáĮĪ": 2922,
      "Ġáīłáĭ°áĬķáī¥": 2923,
      "ĠáĬ¥áĬĵáĪĺáĪ°áĮįáĬĵ": 2924,
      "ĠáĬĸáĪ®": 2925,
      "ĠáīłáĪµáī°áīĢáĪŃ": 2926,
      "ĠáįķáĪ®áĮįáĪ«áĪĿ": 2927,
      "ĠáįĸáĪĬáĪ²": 2928,
      "áįĪáĪ¨": 2929,
      "ĠáĬłáĭŃáĭ°áĪīáĪĿ": 2930,
      "ĠáĬłáĬķáī¥áī¥": 2931,
      "ĠáĭĪáĬķáĭµáĪŀ": 2932,
      "ĠáĬłáĮĭáĮ£áĪļ": 2933,
      "ĠáĬ¥áĬĵáĪĺáĪ°áĮįáĬĵáĪĪáĬķ": 2934,
      "Ġáĭ³áĭĬ": 2935,
      "ĠáĪģáĪĪáī°áĬĽ": 2936,
      "ĠáĮłáĭ¨": 2937,
      "ĠáĪĽáĪµáĪ¨áĮĥ": 2938,
      "áĭĪáīĢ": 2939,
      "ĠáĭĪáĪĭáĮĨáī½": 2940,
      "ĠáĪĺáĪįáĪ¶": 2941,
      "ĠáĬłáĭŃáī½áĪįáĪĿ": 2942,
      "Ġáĭ¨áĪħáĭŃáĭĪáīµ": 2943,
      "ĠáĪĺáĭĽáĪĻáĪŃ": 2944,
      "Ġáī°áĮ«": 2945,
      "Ġáĭ¨áĪ³": 2946,
      "ĠáĬ¥áī¥": 2947,
      "áĪŃáīµáĪ«": 2948,
      "ĠáīłáĭĽáĪ¬áĭį": 2949,
      "áĪĪáĪĺ": 2950,
      "áĮĭáĬĵ": 2951,
      "ĠáĪ¨áĮħáĪĿ": 2952,
      "áĮ¿áĪį": 2953,
      "ĠáĭĺáĮĪáī£": 2954,
      "áĬ¨áĪĭáĬ¨áĪį": 2955,
      "áĪĭáī½áĬķáĪĿ": 2956,
      "áĪĽáĪ½": 2957,
      "áĬķáī²": 2958,
      "ĠáĭŃáĭĪáĪµ": 2959,
      "áīĨáĭŃ": 2960,
      "Ġáĭ¨áĪļáīĨáĮłáĪ©": 2961,
      "ĠáīłáĬ«": 2962,
      "ĠáīłáĭĻ": 2963,
      "áĭļáĪģ": 2964,
      "Ġáĭ°áĪ¨": 2965,
      "áįĸáĪŃ": 2966,
      "áĮĬáĭľáĪĿ": 2967,
      "áĬ«áī¤": 2968,
      "ĠáĪĪáĬłáĪĿáĪĭáĬŃ": 2969,
      "áī¢áĭİáī½": 2970,
      "Ġáĭ«áĪ³áĭ«áĪį": 2971,
      "ĠáĪĢáĮ¢áĬł": 2972,
      "ĠáĬ¨áĬ¥áĬĵáĬķáī°": 2973,
      "áĭįáĪįáĭµ": 2974,
      "ĠáĭĿáĮįáĮħáīµ": 2975,
      "ĠáĬ¨áįĪáĪĪáĮī": 2976,
      "Ġáĭ¨áĪļáĮĪáĪį": 2977,
      "áĪ´áī¶áī½": 2978,
      "ĠáĬĲáĪħ": 2979,
      "ĠáĭĪáĮĪ": 2980,
      "Ġáĭ¨áĪĭ": 2981,
      "ĠáĪĿáĪµáĬŃáĪŃ": 2982,
      "áĪ·áĪį": 2983,
      "ĠáĪĺáĮ¨": 2984,
      "ĠáĭŃáĮĪáĬĽáĪį": 2985,
      "ĠáīłáįĢ": 2986,
      "ĠáĪĽáĬŃ": 2987,
      "ĠáĬķáĬ¡áĪµ": 2988,
      "áĭ³áĪľ": 2989,
      "áĪµáī¶áī½": 2990,
      "áĭ°áĭµ": 2991,
      "ĠáĪįáĬķ": 2992,
      "ĠáīłáĪĺáįħáĪĢáįį": 2993,
      "ĠáĮĤ": 2994,
      "ĠáĬ«áĪī": 2995,
      "ĠáĬ¥áįĪáĪįáĮĭ": 2996,
      "áĮĪáĪĽ": 2997,
      "ĠáĪ³áĪĿáĬķ": 2998,
      "ĠáĬ¨áĮĬáĭľ": 2999,
      "áĪ°áī¢áĭ«": 3000,
      "Ġáī¥áĭĻáĪĿ": 3001,
      "ĠáĪĮáĪĭáĭį": 3002,
      "Ġáĭ«áĪįáĪĨáĬĲ": 3003,
      "ĠáĪ³áĪĪ": 3004,
      "ĠáĬłáĭ¨áĪŃ": 3005,
      "áĬĳáīµ": 3006,
      "Ġáīłáĭļáĭ«áĬķ": 3007,
      "ĠáĬĳ": 3008,
      "ĠáĪĽáĪĪ": 3009,
      "áĮĪáĬĺáĭįáĬķ": 3010,
      "Ġáĭ¨áī°áĪ³": 3011,
      "Ġáĭ¨áĬłáĬ«áĪį": 3012,
      "áĬķáī°áĪŃ": 3013,
      "ĠáĬłáīħáĮ£áĮ«": 3014,
      "áĪ¨áĮĪ": 3015,
      "ĠáĪĽáĮ¥": 3016,
      "ĠáĬŃáī¥": 3017,
      "ĠáĬłáĭĿ": 3018,
      "áī½áĪīáĪĿ": 3019,
      "áĪľáĪį": 3020,
      "ĠáĭįáĮ¤áī³áĪĽ": 3021,
      "áĪĪáī¥": 3022,
      "Ġáīłáĭļáĭ«áĪĿ": 3023,
      "ĠáīµáĬŃáĬŃáĪį": 3024,
      "áĬŃáī¥áĬ«áī¤": 3025,
      "Ġáĭ¨áĭŃ": 3026,
      "Ġáĭ«áĬ«áīµ": 3027,
      "áĬĸáĪ¨": 3028,
      "ĠáĬ¥áįĪáĪįáĮĭáĪĪáĪģ": 3029,
      "ĠáĪĿáĬķáĮĬáĭľáĪĿ": 3030,
      "ĠáĬ¥áĬĶáĬķ": 3031,
      "ĠáĮ¥áįĭáīµ": 3032,
      "áĭĺáĮĭáĮģ": 3033,
      "ĠáĬŃáĪįáĪį": 3034,
      "ĠáĬ¥áĬķáĭµáī³": 3035,
      "áĬķáĭ¶áī¹": 3036,
      "ĠáĮłáĪĭ": 3037,
      "Ġáĭ°áī¥áĭ³áī¤": 3038,
      "ĠáĪĺáĭµáĪĢáĬĴ": 3039,
      "ĠáĪĪáĪĺáĪŃáĭ³áīµ": 3040,
      "Ġáĭ¨áĭ«áĪħáĭĮáĬķ": 3041,
      "áī¬": 3042,
      "ĠáĬ¨áĭļáĪħáĪĿ": 3043,
      "áī°áĬ®": 3044,
      "ĠáīłáĪĮáĪİáī½": 3045,
      "áĭ³áĪī": 3046,
      "áįĭáĪµ": 3047,
      "ĠáĭĿáĮįáĮģ": 3048,
      "áĪ«áĪ³áī¸áĭį": 3049,
      "ĠáĭµáĪŃáĮĬáīµ": 3050,
      "áĪĺáĭĺ": 3051,
      "áĪ¶áī½áĬķ": 3052,
      "ĠáĬłáĪ«": 3053,
      "Ġáĭ°áĮĭ": 3054,
      "ĠáĬ¥áĪµáī²": 3055,
      "ĠáīłáīĢáĮ¥áī³": 3056,
      "Ġáĭ©áĬĴ": 3057,
      "áĪĺáĬĽ": 3058,
      "áĮįáĬķ": 3059,
      "áĬĶáīµ": 3060,
      "ĠáĪįáĮĥ": 3061,
      "ĠáĪĺáįĥáĪħáįįáīµ": 3062,
      "ĠáĬłáĬĲ": 3063,
      "áĪ³áĭį": 3064,
      "Ġáī°áĪ¸": 3065,
      "ĠáĪįáĪĽáīµ": 3066,
      "áĪ¬áĬķ": 3067,
      "ĠáįįáĪŃ": 3068,
      "áĭĪáĪ°áĬķ": 3069,
      "ĠáĬªáĭ³áĬķ": 3070,
      "ĠáĪĺáĪįáĬ©": 3071,
      "áĮ«áĭĪáīµ": 3072,
      "ĠáĪĽáĪ°": 3073,
      "áīĢáĪŃáī¡": 3074,
      "áĬ¨áĬķ": 3075,
      "Ġáĭ¨áĬ¥áĮįáĭļáĬłáī¥áĪĦáĪŃ": 3076,
      "ĠáĬłáĭįáĪ«": 3077,
      "áĮłáīħ": 3078,
      "ĠáįĬáĪį": 3079,
      "áī²áĬŃ": 3080,
      "ĠáĪĿáĪµáĪį": 3081,
      "ĠáĭµáĪŃáĮħáī¶áī½": 3082,
      "ĠáĪµáĪįáĮłáĬĵ": 3083,
      "ĠáĮ¢": 3084,
      "ĠáĪĿáĪįáĬŃ": 3085,
      "ĠáĭįáĭŃ": 3086,
      "Ġáĭ¨áī°áĪ°áĪ«": 3087,
      "ĠáĬłáĭµáĪŃáĮĵáĪį": 3088,
      "áĪµáĬŃ": 3089,
      "ĠáĪĮáĪİáī½áĬķ": 3090,
      "Ġáī£áĪĪáī¤áīµ": 3091,
      "ĠáĬĲáĮ¥áī¥": 3092,
      "ĠáĮ¥áīłáīĥ": 3093,
      "ĠáīłáĪļáĭ«áĪµ": 3094,
      "áĮĪáĬĵáĬĽ": 3095,
      "áĭ«áĮŃ": 3096,
      "áĬ«áĪª": 3097,
      "áĬĴáĬŃ": 3098,
      "ĠáīłáĪ½áī³": 3099,
      "ĠáĬ¥áĪ³áīµ": 3100,
      "Ġáī°áī£": 3101,
      "áĪµáī³áĭį": 3102,
      "áĮĪáĪįáĮįáĪİáīµ": 3103,
      "ĠáĪĪáĬłáĬķáĭµ": 3104,
      "Ġáīłáī¤áī°": 3105,
      "áĪ«áĭŃ": 3106,
      "Ġáī°áĬķ": 3107,
      "áīĥáĭĪ": 3108,
      "áįĭáĮŃ": 3109,
      "áįİáī½áĬķ": 3110,
      "áĪĿáīłáĪŃ": 3111,
      "Ġáĭ¨áī°áĪĺáĪ°áĪ¨áī°": 3112,
      "ĠáĮ´áĮ¥áĪ®áĪµ": 3113,
      "áĪĺáĮ¥": 3114,
      "ĠáĬĵáīµ": 3115,
      "áĬ¨áĬĵáĭĪáĬķ": 3116,
      "Ġáĭİáī¹": 3117,
      "ĠáĬłáĭ¨": 3118,
      "Ġáĭ°áĪħáĬĵ": 3119,
      "áĬķáĭĽáī¤": 3120,
      "áĬĭáĪĭ": 3121,
      "ĠáĪĺáĪĪáĭ«": 3122,
      "áĮ£áĬĿ": 3123,
      "ĠáĬķáĭµ": 3124,
      "Ġáī°áĮłáīħ": 3125,
      "ĠáĭĪáĮĪáĬķ": 3126,
      "ĠáĪ°áĪĿ": 3127,
      "Ġáīłáī°áĪĪáĭŃáĪĿ": 3128,
      "áĪĿáĮ£áīµ": 3129,
      "áĬķáĭ±áĪµáīµáĪª": 3130,
      "Ġáīłáĭ©": 3131,
      "Ġáĭ®áĪ´áįį": 3132,
      "ĠáĬ¥áī½áĪĭ": 3133,
      "ĠáĬ¥áī½áĪĭáĪĪáĪģ": 3134,
      "ĠáĬłáĪ°áĪ«": 3135,
      "ĠáĪ«áĬ¥áĭŃ": 3136,
      "áĪ¨áī¡": 3137,
      "áįįáĪ¨áīµ": 3138,
      "ĠáĪĬáĭ«áĪµ": 3139,
      "ĠáĪ°áĪ«áī°áĬĽ": 3140,
      "ĠáĪĺáĪªáĭİáī½": 3141,
      "áįįáĬķ": 3142,
      "ĠáĪģáĪĪáī±áĪĿ": 3143,
      "ĠáīłáĭŃáĪĨáĭĭ": 3144,
      "ĠáĬ¨áīµ": 3145,
      "áĪ³áĪī": 3146,
      "ĠáĬ¨áĪĭáĭŃ": 3147,
      "áĭĪáĮį": 3148,
      "áĭ®áī½áĬķ": 3149,
      "Ġáī£áĪĪáĪĻáĭ«": 3150,
      "áī£áī¸áĭĭáĪį": 3151,
      "ĠáīĥáĪĭáīµ": 3152,
      "ĠáĬłáī¥áĪ¨áĭį": 3153,
      "áĭįáĪ°áĭµ": 3154,
      "ĠáĪįáĪĽ": 3155,
      "áĪĿáĪĿ": 3156,
      "ĠáīłáĭŃ": 3157,
      "ĠáĪĺáĪĦáĭµ": 3158,
      "áĪĬáĬķ": 3159,
      "ĠáĮīáĪį": 3160,
      "Ġáī°áĪĺáĪįáĬ¨áīµ": 3161,
      "Ġáī°áĪµáĪĽáĪļ": 3162,
      "ĠáĪĪáī¥áĭĻ": 3163,
      "ĠáīłáĪĺáĪĨáĬĳ": 3164,
      "ĠáĪµáĪĪáĬĲáīłáĪŃ": 3165,
      "áĪ°áĮ£áī¸áĭį": 3166,
      "Ġáī³áĭįáīĥ": 3167,
      "áĪ²áī²": 3168,
      "ĠáĬ¨áĬłáĪĿáĪĭáĬŃ": 3169,
      "áĭ°áĪ¨áĮīáīµ": 3170,
      "Ġáĭ¨áīħáĪŃáī¥": 3171,
      "ĠáĬłáĪħ": 3172,
      "ĠáĮĪáīłáĭ«": 3173,
      "ĠáĪ°áĬĲ": 3174,
      "áīłáĪªáĭ«": 3175,
      "ĠáĪĺáĪĨáĬĵáī¸áĭįáĬķ": 3176,
      "áĮīáīµ": 3177,
      "Ġáĭ¨áĭĪáĭŃáĬķ": 3178,
      "ĠáīłáĪĺáĬķ": 3179,
      "ĠáĮ¥áĬĵ": 3180,
      "Ġáĭ¨áĪļáĭ«áĪµáī½áĪį": 3181,
      "ĠáĭĬ": 3182,
      "ĠáĬŃáĪµáī°": 3183,
      "ĠáĪ½áĪĽáĮįáĪĮáĭİáī½": 3184,
      "Ġáĭ¨áī°áĪ°": 3185,
      "ĠáĭĺáĭŃáīµ": 3186,
      "ĠáįĪáĪŃ": 3187,
      "Ġáĭ¨áĪħáĬŃáĪĿáĬĵ": 3188,
      "ĠáĭŃáĬĸáĪŃáī¥": 3189,
      "ĠáĪģáĪĭáī½áĬķáĪĿ": 3190,
      "ĠáĬ¨áĬłáĬķáī°": 3191,
      "ĠáĪĪáĬ¥áĬĵáĬķáī°": 3192,
      "ĠáĪĺáĮłáīłáīħ": 3193,
      "ĠáĬłáĭĪ": 3194,
      "áĪĪáĮ¥": 3195,
      "áĬĵáĭ³": 3196,
      "ĠáĪĺáįį": 3197,
      "Ġáĭ¨áĪļáĮĪáĬĺáĭį": 3198,
      "ĠáĬłáĭįáĪ®": 3199,
      "áĪŁáĪį": 3200,
      "ĠáĪı": 3201,
      "ĠáĬ¨áĭ«áĪħáĭĮ": 3202,
      "Ġáĭ«áĭ°áĪŃáĮĪ": 3203,
      "Ġáĭ«áĬ¥áīĨáī¥": 3204,
      "Ġáīłáī°áĪĪáĭ«áĭ©": 3205,
      "áĮİáī¥": 3206,
      "Ġáĭ¨áĭįáĪĢ": 3207,
      "ĠáīłáĪĨáĬĲáĭį": 3208,
      "ĠáĬłáĬķáįĥ": 3209,
      "áī³áĪĪáĪģ": 3210,
      "Ġáĭ¨áĬ¢áĭ¨áĪ±áĪµ": 3211,
      "Ġáĭ¨áĬ¢áīµáĭ®áĮµáĭ«": 3212,
      "ĠáīłáĪ³": 3213,
      "áī£áĪĪáĪģ": 3214,
      "ĠáĪ°áĪĪ": 3215,
      "áĭµáĪŃáĮħ": 3216,
      "ĠáĪĿáĪ½áīµ": 3217,
      "ĠáĪĺáĪ¸": 3218,
      "Ġáī³áĪª": 3219,
      "áĪµáī°áĭį": 3220,
      "áĪµáĪĽáĪĽ": 3221,
      "áĬ¥áĪĿ": 3222,
      "Ġáĭ¨áĬ¥áĭį": 3223,
      "áĪ«áī½áĬķ": 3224,
      "ĠáĬ¥áĬķáĬŃáī¥áĬ«áī¤": 3225,
      "ĠáĬłáĭįáīĥáĪĪáĪģ": 3226,
      "ĠáĮ¥áĪįáīħ": 3227,
      "ĠáīłáĪĺáīĢ": 3228,
      "ĠáĬ¨áĬ¥áĬĽ": 3229,
      "ĠáīģáĪįáįį": 3230,
      "ĠáĪıáĪĭáĭĬ": 3231,
      "ĠáĪĢáī¥áīµ": 3232,
      "ĠáĪµáī´áīµ": 3233,
      "ĠáĪ³áĪĻ": 3234,
      "áĮŃáīµ": 3235,
      "ĠáĬłáĪĪáĬķ": 3236,
      "ĠáĪĺáīĨ": 3237,
      "áĬŃáĪ²": 3238,
      "ĠáĬ¥áĮį": 3239,
      "áĬĵáĭįáĭ«áĬķ": 3240,
      "Ġáĭ¨áĪļáĬĸáĪ©": 3241,
      "Ġáĭ«áĮįáĬĻ": 3242,
      "áī½áĪīáīµ": 3243,
      "ĠáīłáĪĺáĮį": 3244,
      "áĮīáĪŃ": 3245,
      "ĠáīłáĬ¥áĮħ": 3246,
      "áįķáĪ¬": 3247,
      "ĠáĪĪáĪĮáĪİáī½": 3248,
      "ĠáĭĿáīħáī°áĬĽ": 3249,
      "ĠáĪĪáĮ¥": 3250,
      "ĠáĮłáī£": 3251,
      "áĮĵáĭĿ": 3252,
      "ĠáĪ½áĪį": 3253,
      "ĠáĬłáĮĪáĪįáĮĭáĭŃ": 3254,
      "ĠáīłáĬ¨áī°áĪĽ": 3255,
      "ĠáĬ¨áĬŃ": 3256,
      "áĪ¨áįį": 3257,
      "ĠáĬ¨áī¥": 3258,
      "ĠáĪĪáĭ°": 3259,
      "ĠáĭĪáĭµ": 3260,
      "áī¸áĭĭ": 3261,
      "áĭ³áĪĿ": 3262,
      "áĪĭáī¸áĭįáĪĿ": 3263,
      "áĮ´": 3264,
      "áĪĽáĬĿáĬĲáīµ": 3265,
      "ĠáĮĢáĪĺáĪ¨": 3266,
      "Ġáī°áīĢáī£áĭŃáĬĲáīµ": 3267,
      "áĪŃáĪ±áĪĿ": 3268,
      "áĪĭáĪħ": 3269,
      "ĠáĪĺáĪįáĬ¥áĬŃ": 3270,
      "Ġáĭ¨áĬĲáīłáĪ¨áĭįáĬķ": 3271,
      "áĬ©áĪµ": 3272,
      "ĠáĪĪáī¥": 3273,
      "Ġáĭ¨áĭĪáĭ°": 3274,
      "Ġáī°áĪ³": 3275,
      "Ġáĭ¨áĬ¥áĪŃáĪµ": 3276,
      "ĠáĬ¥áĭ«áĪĪ": 3277,
      "áī·áĬķ": 3278,
      "ĠáīĨáĭŃ": 3279,
      "ĠáĬ¨áĭ°": 3280,
      "Ġáĭ¨áĪļáĪ°áĪ«": 3281,
      "ĠáĮĪáīł": 3282,
      "ĠáīłáĪ«áĪµ": 3283,
      "ĠáĭŃáĮłáī¥": 3284,
      "ĠáĬŃáĪŃ": 3285,
      "ĠáĬŃáĬķáĭµ": 3286,
      "ĠáĮ£áįĭáĮŃ": 3287,
      "áĭĪáĪµáĭµ": 3288,
      "áĬ¨áĬĵáĭį": 3289,
      "ĠáĬłáĬķáĭ°": 3290,
      "áįįáĪ¬": 3291,
      "Ġáĭ¨áĪļáĮĪáī£": 3292,
      "Ġáī³áĭĭáīĤ": 3293,
      "áĮįáī£áī¥": 3294,
      "Ġáī°áĪĽáĪª": 3295,
      "ĠáĬ¥áĬķáīħ": 3296,
      "Ġáī£áĪħáĪªáĭ«": 3297,
      "áĪµáīłáĭį": 3298,
      "ĠáĪĪáĪĺáĮĢáĪĺáĪªáĭ«": 3299,
      "ĠáīĢáĪĪáĪĿ": 3300,
      "áĮĪáī£áīµ": 3301,
      "áĪĽáĪī": 3302,
      "ĠáĮįáĭ´": 3303,
      "ĠáīłáĪĺáĪĨáĬķ": 3304,
      "Ġáīħáĭ³áĪľ": 3305,
      "Ġáĭ¨áĪĽáĪħ": 3306,
      "ĠáĬĲáĮŃ": 3307,
      "ĠáīłáĪ«áĪ±": 3308,
      "ĠáĪĿáĮį": 3309,
      "ĠáĪĺáĪµáĪĺáĪŃ": 3310,
      "áīłáĪµ": 3311,
      "áįįáĪį": 3312,
      "áĪģáĪī": 3313,
      "áĪĢáĭŃ": 3314,
      "ĠáĪħáĪĺáĪĿ": 3315,
      "áĪĺáĪµáĪį": 3316,
      "áĪĿáĪ¨": 3317,
      "ĠáĭŃáĪ°": 3318,
      "ĠáĪĿáĪħ": 3319,
      "ĠáĪĿáĮįáī£áĪŃ": 3320,
      "Ġáĭ¨áĪļáĭ«áĭ°áĪŃáĮī": 3321,
      "ĠáĬ¨áĪĺáĪĨáĬĳáĪĿ": 3322,
      "Ġáĭ¨áĪħáĮį": 3323,
      "áĮ¢áĬłáīµ": 3324,
      "Ġáĭ¨áĪĿáĬķáī½áĪĪáĭį": 3325,
      "Ġáĭŀ": 3326,
      "áĭµáĪ¨áĪµ": 3327,
      "ĠáĬ¥áĭ«áĬķáĭ³áĬķáĭ³": 3328,
      "áĭ«áĪī": 3329,
      "ĠáĬĲáĭĭáĪªáĭİáī½": 3330,
      "áĪŃáĭ³": 3331,
      "áĭ°áĪªáĭ«": 3332,
      "áĪ³áĪ°": 3333,
      "ĠáĮįáĪĿáīµ": 3334,
      "ĠáīłáĬĭáĪĭáĪĿ": 3335,
      "Ġáĭ«áĪĭ": 3336,
      "áĪ¼": 3337,
      "áĪİáĪĿ": 3338,
      "ĠáīłáĬ¥áĬĽ": 3339,
      "Ġáĭ³áĮį": 3340,
      "áĮ§áĪį": 3341,
      "ĠáĬłáĪµáĪŃ": 3342,
      "ĠáĬłáĭŃáĪģáĭ³": 3343,
      "ĠáĪ°áĪ«áĭĬáīµ": 3344,
      "Ġáĭ¨áĪļáĪĺ": 3345,
      "Ġáĭ«áīĢáĪŃáī£áĪį": 3346,
      "Ġáĭ¨áįĮ": 3347,
      "áĪŃáĪ³": 3348,
      "áĪµáī¡": 3349,
      "ĠáīĢáĭŃ": 3350,
      "ĠáīłáĬ¢áĭ¨áĪ©áĪ³áĪĮáĪĿ": 3351,
      "ĠáĪ°áĭŃáĮ£áĬķ": 3352,
      "áĬ«áįĪáĪį": 3353,
      "áĬķáĮīáĪ±": 3354,
      "ĠáĪºáĪħ": 3355,
      "áĪµáī±áĬķ": 3356,
      "ĠáĬ©áī£áĬķáĭ«áĭİáī½": 3357,
      "ĠáĬłáĬŃáī¥": 3358,
      "Ġáĭ¨áĪļáĪĨáĬķ": 3359,
      "ĠáĪįáĮĨáī¹": 3360,
      "áĮĭáĭŃ": 3361,
      "Ġáī´áĬŃáĬĸáĪİáĮĤ": 3362,
      "ĠáĬ¨áįĬ": 3363,
      "ĠáĮĪáī£": 3364,
      "ĠáĮįáĬķáĭĽáī¤": 3365,
      "áī¤áĪį": 3366,
      "áįĥáįį": 3367,
      "ĠáĭĽáįį": 3368,
      "ĠáīłáĪ°áĭį": 3369,
      "áĬĲáĪŃáĪ±": 3370,
      "áĪ«áĮ®áī½": 3371,
      "áĬķáĭ³áĬķáĭµ": 3372,
      "Ġáīłáīģ": 3373,
      "Ġáĭ¨áĪļáįĪáĪįáĮī": 3374,
      "ĠáĪįáĮĦ": 3375,
      "ĠáĮłáĭŃ": 3376,
      "ĠáĪĺáĬķáĮįáĪµáī³áīµ": 3377,
      "Ġáĭ¨áīĢáĭµáĪŀ": 3378,
      "áĪģáįį": 3379,
      "ĠáĬĲáĮĪáĭµ": 3380,
      "ĠáĪĪáĪĽáīħáĪ¨áī¥": 3381,
      "Ġáĭ¨áĪĺáĮ£": 3382,
      "ĠáĬ«áĪīáīµ": 3383,
      "Ġáĭ¨áīµáĪĿáĪħáĪŃáīµ": 3384,
      "ĠáĪĺáĭ°áīłáĬĽ": 3385,
      "ĠáĭĪáĭŃáĪµ": 3386,
      "áĪĬáĭ«áĪĿ": 3387,
      "ĠáĭŃáĪ¸": 3388,
      "ĠáĪĽáĪ¨": 3389,
      "áĬĽáĭİáī¹": 3390,
      "Ġáī¥áī¸": 3391,
      "ĠáĬłáĪµáī°áĭ³": 3392,
      "ĠáīłáĮ¥áĪ©": 3393,
      "áĪ«áĭį": 3394,
      "Ġáī¥áĪĪáĬķ": 3395,
      "Ġáĭ¨áĭŃáĪģáĭ³": 3396,
      "ĠáĬłáĭŃáĬķ": 3397,
      "áĪ«áī¸áĭįáĬķ": 3398,
      "ĠáĪĽáĭį": 3399,
      "ĠáīĢáĮ£": 3400,
      "áĪŁáĪĭ": 3401,
      "ĠáĬĭáĪĭ": 3402,
      "áĭ³áĪª": 3403,
      "ĠáĪĪáĬ¥áĪŃáĪµáĭİ": 3404,
      "ĠáĪĽáĪµáī³áĭĪáīĤáĭ«": 3405,
      "ĠáĪĤáĭ°": 3406,
      "áī¨áĪŃáĪ²áī²": 3407,
      "áīĢáĪį": 3408,
      "ĠáĪĪáĪĺáĮłáīłáīħ": 3409,
      "Ġáī«": 3410,
      "ĠáĬ¨áĪļáĭ«": 3411,
      "Ġáĭ¨áĪĽáĭ«": 3412,
      "ĠáīłáĪļáīĢáĮ¥áĪĪáĭį": 3413,
      "ĠáĮĪáĪįáĮ¿áĪį": 3414,
      "ĠáĪĽáĮį": 3415,
      "Ġáĭ¨áĪ½": 3416,
      "áĪĺáĬĳ": 3417,
      "áĬłáĭĬ": 3418,
      "áĪ¸áĬĲáįį": 3419,
      "áĮĪáĪªáī±": 3420,
      "áīĥáĪµ": 3421,
      "ĠáĪĬáĪĨáĬĳ": 3422,
      "áĬĸáĪŃáĪĿ": 3423,
      "ĠáĭŃáĬĸáĪ«áĪį": 3424,
      "ĠáĭŃáĮłáĭŃ": 3425,
      "ĠáĭĺáĭŃ": 3426,
      "ĠáĪ°áĮł": 3427,
      "Ġáĭ¨áĪļáĭ«áĪ³áĭŃ": 3428,
      "áĮĪáĬĵáĬĺáīµ": 3429,
      "ĠáĭĪáĭ²áĪħ": 3430,
      "ĠáĪĽáĪ»áĪ»": 3431,
      "áĪŀáĬŃáĪ®": 3432,
      "ĠáīģáĮ¥áĮ¥áĪŃ": 3433,
      "áĪŃáįį": 3434,
      "áĪ°áĪµ": 3435,
      "áĭĪáĮ£áĭį": 3436,
      "áĪĺáĪĪáĬŃ": 3437,
      "áĪ²áĭ«": 3438,
      "Ġáī¸": 3439,
      "ĠáĬ¨áĭį": 3440,
      "áĭ³áĮħ": 3441,
      "ĠáĮĬáĭľáĪĿ": 3442,
      "áĪµáīµáĪ«": 3443,
      "áĮĪáĪĪáįĢáĭį": 3444,
      "ĠáĬłáĪ®": 3445,
      "ĠáĬĲáįĥáĬĲáīµ": 3446,
      "áĭ°áĪŃáĪ±": 3447,
      "ĠáīłáĬ¨áįįáī°áĬĽ": 3448,
      "áī±áīµ": 3449,
      "ĠáīĢáĮł": 3450,
      "ĠáĪĺáĪµáįĪáĪŃ": 3451,
      "Ġáī£áĪĪáĪµáĪįáĮ£áĬĵáīµ": 3452,
      "ĠáĪĺáĮĪ": 3453,
      "ĠáĪĺáįħáĪĢ": 3454,
      "ĠáĬ¥áĬķáĭ°áĬĲáīłáĪŃ": 3455,
      "Ġáĭĺáįį": 3456,
      "áĪĭáĪµ": 3457,
      "ĠáĬ¨áīĢ": 3458,
      "áĮłáĪ¨áĭį": 3459,
      "Ġáī°áĪŃ": 3460,
      "ĠáĪĢáĪ³áī¦áī½": 3461,
      "Ġáĭ¨áĬ¥áĪŃáĪµáĭİáĬķ": 3462,
      "ĠáĬłáĮĪáĬĺ": 3463,
      "áįħáĬ¦": 3464,
      "áįĭáĪį": 3465,
      "Ġáī¥áĪĦáĪ«áĭĬ": 3466,
      "ĠáĬłáīłáī£": 3467,
      "ĠáĪļáĬĵ": 3468,
      "ĠáĬ¥áĬĵáĬķáī°áĪĿ": 3469,
      "áĮłáĭ¨áīħ": 3470,
      "ĠáĬ³": 3471,
      "Ġáĭ³áĭŃ": 3472,
      "ĠáĬłáĪĽáĪ«áĮŃ": 3473,
      "ĠáĮ«áĪĽ": 3474,
      "Ġáī°áĭĪáĭ³áĮħ": 3475,
      "Ġáĭ¨áī¦": 3476,
      "áī°áĪ®áī½": 3477,
      "áĬķáīĥáīĦ": 3478,
      "ĠáĬłáĭĽ": 3479,
      "áĬĲáī³áī¸áĭį": 3480,
      "Ġáĭ¨áī°áĮłáīĢ": 3481,
      "áīµáĬķáĬĵ": 3482,
      "ĠáĪĽáĬķáīłáī¥": 3483,
      "áĮ³": 3484,
      "Ġáĭ¨áĪ°áĪĽ": 3485,
      "Ġáĭ¨áĪļáĪ°": 3486,
      "ĠáĪļáĬĴáĪµáīµ": 3487,
      "ĠáĭŃáĪĭáĪī": 3488,
      "ĠáĭĪáĪĪáĭ°": 3489,
      "ĠáĪ³áĪĿáĬķáī³áīµ": 3490,
      "ĠáĬ¨áĪ°áĪĽ": 3491,
      "ĠáĬĲáī¢": 3492,
      "Ġáĭ¨áĪµáĬĲ": 3493,
      "áĭĿáĬķ": 3494,
      "ĠáĭŃáĭį": 3495,
      "ĠáĪĬáīĢ": 3496,
      "ĠáįĢáĪĢáįĬ": 3497,
      "ĠáĪĺáĪĢ": 3498,
      "ĠáĭµáĬķáīħ": 3499,
      "áįĪáįĢáĪĺ": 3500,
      "ĠáĬłáĬķáįĥáĪŃ": 3501,
      "ĠáĬ¥áĪģáĭµ": 3502,
      "ĠáĬłáĬ¥áĪĿáĪ®": 3503,
      "áĪĪáįħ": 3504,
      "áī¥áĭİáīµ": 3505,
      "ĠáīħáĬķ": 3506,
      "ĠáĬŃáįįáīµ": 3507,
      "áī¢áĭ«áĭį": 3508,
      "Ġáĭ¨áĬłáĬķáĭµ": 3509,
      "ĠáĪĺáĮłáĭ¨": 3510,
      "ĠáĮįáĪĿáĮĪáĪĽ": 3511,
      "áĪĢáĭĬ": 3512,
      "ĠáīłáĪĺáĮ¨áĪ¨áĪ»áĪĿ": 3513,
      "áī³áĪĿ": 3514,
      "áĪµáī°áĬĽáĭį": 3515,
      "ĠáīłáĬ¥áĭįáĬĲáī±": 3516,
      "áĪŃáĭ«áĭį": 3517,
      "ĠáĬ¨áĮį": 3518,
      "ĠáĪĿáĪŃáĪĺáĪ«": 3519,
      "ĠáīłáĪ°áĪĽáĭŃ": 3520,
      "áī¢áĭį": 3521,
      "áĮ¡áĬķ": 3522,
      "áĬĴáĭ«": 3523,
      "Ġáĭ¨áĭ°áĪ¨": 3524,
      "áī°áĪħ": 3525,
      "áĭ³áĪļ": 3526,
      "Ġáĭ¨áĭįáĮŃ": 3527,
      "ĠáīłáĬ©": 3528,
      "ĠáĪĿáī¹": 3529,
      "ĠáĪµáĪĪáĪĺ": 3530,
      "Ġáĭ¨áīłáĪĭáĭŃ": 3531,
      "áĮłáĬĵáīĢ": 3532,
      "ĠáĪ«áĪ³áī¸áĭįáĬķ": 3533,
      "ĠáĪ¨áĭµ": 3534,
      "ĠáĮ¤áĬĵáĪĽ": 3535,
      "ĠáĪīáīĥáĪµ": 3536,
      "ĠáīłáĭĻáĪªáĭ«": 3537,
      "áĭ«áĭĻ": 3538,
      "ĠáĪ«áĪ±": 3539,
      "Ġáīłáĭ¨áĬł": 3540,
      "ĠáĬ¥áĬķáĪµáĪ³": 3541,
      "ĠáĮ¡": 3542,
      "áĭĭáĭĭ": 3543,
      "áįīáĬķ": 3544,
      "ĠáĬłáĪ³áĭŃ": 3545,
      "ĠáĪĺáĬĸáĪªáĭ«": 3546,
      "ĠáĬ¥áĬĵáĭ°áĪŃáĮĭ": 3547,
      "ĠáĮ¥áĪĭ": 3548,
      "ĠáĪħáĮĭáĭĬ": 3549,
      "áīĨáīµ": 3550,
      "ĠáĬłáĪĺáĪ«áĪŃ": 3551,
      "ĠáĬķáī¥áĪ¨": 3552,
      "ĠáĮİáĬķ": 3553,
      "ĠáĭĪáĮ£áī¶áī½": 3554,
      "áĬĿáĬķ": 3555,
      "ĠáĬłáĭŃáī½áĪīáĪĿ": 3556,
      "áĮĪáĬķáī£áīµ": 3557,
      "ĠáĪ¹": 3558,
      "áĪ³áĪ°áī¥": 3559,
      "ĠáĪĪáĪĽáĪ¨áĮĭáĮĪáĮ¥": 3560,
      "ĠáĬ¥áĬķáĭ°áĪļáĪĨáĬķ": 3561,
      "ĠáīłáĪļáĮĪáī£": 3562,
      "áīĥáī¸áĭį": 3563,
      "ĠáĮ¥áĮĪáĬĵ": 3564,
      "ĠáĬłáĬķáĭ±áĬķ": 3565,
      "áĪŃáī¶": 3566,
      "ĠáĭŃáĮĪáĬĽáĪī": 3567,
      "ĠáĪĿáĬķáĮŃ": 3568,
      "ĠáīłáĭļáĪħáĪĿ": 3569,
      "Ġáĭ²áĭĽ": 3570,
      "ĠáīłáĬ¥áĪŃáĮįáĮ¥áĪĿ": 3571,
      "ĠáĪ®áĪĿ": 3572,
      "áĪµáįĭ": 3573,
      "ĠáĭŃáĪĺáĮ£áĪį": 3574,
      "ĠáĪµáĪĻ": 3575,
      "Ġáī°áĪŀáĬŃáĪ®": 3576,
      "áĪĢáī¥": 3577,
      "ĠáĮĪáĭ¢": 3578,
      "Ġáĭ¨áĪĿáĭµáĪŃ": 3579,
      "ĠáĪļáĪµáī°áĪŃ": 3580,
      "Ġáĭ¨áĪĤ": 3581,
      "áīħáĪį": 3582,
      "ĠáĪµáĭµáĪµáīµ": 3583,
      "ĠáĬ¢áīµáĭ®áĮµáĭ«": 3584,
      "ĠáĪªáįĸáĪŃáīµ": 3585,
      "áĪŀáĬŃáĪ«áĪ²": 3586,
      "áĭ°áĪ°áīµ": 3587,
      "ĠáĪµáĪĭáĪį": 3588,
      "ĠáĬłáĪĪáī¥áĬķ": 3589,
      "ĠáĬ¢áĭ¨áĪ©áĪ³áĪĮáĪĿ": 3590,
      "áįĥáĪľ": 3591,
      "ĠáĪĺáĪ°áĭĬ": 3592,
      "Ġáī°áĪ°áĮ¥": 3593,
      "áīĥáĮł": 3594,
      "ĠáīħáĮ£áīµ": 3595,
      "Ġáĭ«áĪµáįĪáĪįáĮĭ": 3596,
      "áĬĵáĪ½": 3597,
      "Ġáī£áĪħáĪª": 3598,
      "áĬĢ": 3599,
      "áĭµáĪľ": 3600,
      "áīĥáĮłáĪį": 3601,
      "áīłáĪ³": 3602,
      "ĠáĪĺáĪįáĬł": 3603,
      "áĭ«áĭįáīģ": 3604,
      "ĠáĪµáī´áīµáĪµ": 3605,
      "ĠáĮ¢áĪŀ": 3606,
      "ĠáīłáĪŀ": 3607,
      "áĪĺáĬĲ": 3608,
      "áīłáĭĭáĪį": 3609,
      "áĪĽáĪĺáĬķ": 3610,
      "ĠáĬ¥áĬĵáĭ°áĪŃáĮĭáĪĪáĬķ": 3611,
      "áīĢáĭĭáĪį": 3612,
      "Ġáĭ¨áĪ°áĮł": 3613,
      "ĠáīłáĬĲáįĥ": 3614,
      "Ġáĭ¨áī¤áī°áĪ°áī¥": 3615,
      "Ġáĭ«áĭ°áĪ¨áĮĪ": 3616,
      "ĠáĪįáĪĿ": 3617,
      "áĭĪáīħáī±": 3618,
      "ĠáĮįáĭĽáīµ": 3619,
      "ĠáīłáĪĺáĪĭáĭį": 3620,
      "ĠáįįáĮ¥áĬĲáīµ": 3621,
      "ĠáīłáĪĽáĭŃ": 3622,
      "ĠáĭŃáĪĺáĪĪ": 3623,
      "áĪĺáĬĵáĭĬ": 3624,
      "ĠáĭŃáĪ°áĪ«áĪį": 3625,
      "áĭĭáĭĪ": 3626,
      "ĠáĬ¥áĪŃáĮįáĮ¥": 3627,
      "áĮĪáĬĵáĬĿ": 3628,
      "ĠáĪ°áĬłáī³áīµ": 3629,
      "áīĢáīłáĪį": 3630,
      "áĭ³áĭį": 3631,
      "Ġáĭ°áĬķ": 3632,
      "áĮİáīµ": 3633,
      "ĠáĪįáĭ©áĬĲáīµ": 3634,
      "Ġáīłáī°áĪĺáĪ³áĪ³áĭŃ": 3635,
      "áĪŃáĪĽ": 3636,
      "áīĭáĪ¨áĮ¥": 3637,
      "áĮģáĬķ": 3638,
      "ĠáĬŃáįįáĪĪ": 3639,
      "ĠáĬ¥áĬķáĭµáĬĵ": 3640,
      "áĪĭáĪĪáĪģ": 3641,
      "áĬĲáīłáĪ©": 3642,
      "Ġáĭ¨áĬłáī£": 3643,
      "ĠáīłáĪļáĮĪáĬĺáĭį": 3644,
      "Ġáī£áĪĪáĪĻáĭ«áĭİáī½": 3645,
      "ĠáĪĺáĮ¡": 3646,
      "ĠáīłáĬłáĬķáī°": 3647,
      "áĪ¨áĮĭáĮĪáĮ«": 3648,
      "áĪŃáĭ±": 3649,
      "ĠáĬ¥áĬķáĭ°áĪĿáĬķ": 3650,
      "áĪĬáĬŃ": 3651,
      "ĠáĬłáįĪáįĥáįĢ": 3652,
      "áĬķáĭĪ": 3653,
      "Ġáī£áĪīáīµ": 3654,
      "ĠáĭŃáĬĵáĮĪáĪ«áĪį": 3655,
      "ĠáĭŃáĭĺáĭį": 3656,
      "ĠáĬłáĪĭáĭį": 3657,
      "ĠáĬłáĭµáĪŃáĮĮ": 3658,
      "ĠáĬłáĪµáī°áĭĭáįħáĬ¦": 3659,
      "ĠáĪĽáĪħáīłáĪ¨áĪ°áī¥": 3660,
      "áĮłáī¢áĭ«": 3661,
      "áĮĭáĭį": 3662,
      "áĪ¸áīµ": 3663,
      "Ġáīłáĭ¨áīĢáĬĳ": 3664,
      "ĠáīłáīħáĪŃáī¥": 3665,
      "ĠáĪħáĭĿáī¡áĬķ": 3666,
      "Ġáī¥áĪĦáĪ«áīµ": 3667,
      "Ġáĭ¨áī¥áĪŃ": 3668,
      "áĪįáĬ¥": 3669,
      "áĭ¨áĬķ": 3670,
      "ĠáīłáĬ¥áĮįáĭļáĬłáī¥áĪĦáĪŃ": 3671,
      "áĪ¨áĮį": 3672,
      "áĮĭáī¸áĭį": 3673,
      "ĠáĬ¥áĮįáĭļáĬłáī¥áĪĦáĪŃáĪĿ": 3674,
      "ĠáīłáīµáĬķ": 3675,
      "áĬ«áĬķ": 3676,
      "ĠáĭĭáĪµáīµáĬĵ": 3677,
      "áĪĺáĪµáĪ¨áīµ": 3678,
      "áĮĭáĮł": 3679,
      "áĪ»áĪį": 3680,
      "ĠáĬłáĬ«áĪĭáīµ": 3681,
      "áĬ¨áī³áī°áĪį": 3682,
      "ĠáĬ¨áĬķ": 3683,
      "Ġáī¥áĭĻáĭİáī½": 3684,
      "áĮĵáĮĵ": 3685,
      "ĠáĮİáĭ³áĬĵ": 3686,
      "ĠáīłáĬ¨": 3687,
      "áĪĭáĪĽ": 3688,
      "ĠáĬłáĭµáĪŃáĮį": 3689,
      "ĠáĪĽáĪħáīłáĪ«áĭĬ": 3690,
      "ĠáĭµáĪį": 3691,
      "ĠáĭĪáĪ¨áīĢáīµ": 3692,
      "ĠáĭĪáĮĪáĬĸáī½": 3693,
      "áĬĲáĭļáĭ«": 3694,
      "ĠáīłáĬ¥áĪ³áīµ": 3695,
      "áĬ®áīµ": 3696,
      "Ġáĭ«áĮĪáĬĽáĪī": 3697,
      "áĭ³áīłáĪŃ": 3698,
      "ĠáĬłáĬķáĭ³áĬķáĭ¶áī¹": 3699,
      "ĠáįķáĪ¬áĭļ": 3700,
      "áĭ«áĭ£": 3701,
      "ĠáĬ¨áĪĨáĬĳ": 3702,
      "ĠáĪĪáĬ¥áĬĽ": 3703,
      "áĮłáĬķáīĢ": 3704,
      "ĠáĪĿáĪŃáī¶áī½": 3705,
      "Ġáĭ¨áĮĭ": 3706,
      "ĠáĬłáĬķáĭ³áĬķáĭ¶áī½": 3707,
      "ĠáĪĻáĪ´áĬķ": 3708,
      "ĠáĬłáīħáĪĿ": 3709,
      "ĠáĮħ": 3710,
      "áĬĲáīĢ": 3711,
      "áĪĪáīĨ": 3712,
      "áĭ«áĪħ": 3713,
      "áĮįáīłáĪªáĭ«": 3714,
      "ĠáĮĪáī¢": 3715,
      "áĮĬáĭľáĭį": 3716,
      "ĠáĪ¾": 3717,
      "ĠáĬ¥áĬķáĪĺáĪįáĬ¨áīµ": 3718,
      "áīģáĬķ": 3719,
      "áī£áĪª": 3720,
      "ĠáĪĿáīµ": 3721,
      "ĠáĪĿáĪµáĪ«áīħ": 3722,
      "áī³áĬĿ": 3723,
      "ĠáĮ¥áīł": 3724,
      "Ġáĭ°áĬķáī¥": 3725,
      "ĠáĪĿáĬŃáĬķáĭ«áī¶áī½": 3726,
      "áī¥áīħ": 3727,
      "áī£áĪĪ": 3728,
      "Ġáĭ«áĭ°áĪ¨": 3729,
      "áīĥáĭŃ": 3730,
      "áĮĢáĬķáĪ²": 3731,
      "ĠáĬłáĭįáĮ¥": 3732,
      "ĠáīµáĬķáī¢áīµ": 3733,
      "ĠáīłáĪ¶": 3734,
      "ĠáĪĺáįħ": 3735,
      "ĠáĪĨáĬĵ": 3736,
      "áĪĺáĬķáīµ": 3737,
      "ĠáĬłáīĭ": 3738,
      "áĭİáī½áĬĵ": 3739,
      "ĠáĬłáĮŃáĪŃ": 3740,
      "ĠáĪĪáĪĺáĮłáīĢáĪĿ": 3741,
      "áĬ¤áĪĿ": 3742,
      "Ġáĭ¨áĪļáĭ«áĭį": 3743,
      "áĬ¨áī°áĪĪáĭį": 3744,
      "Ġáĭ³áĬķ": 3745,
      "ĠáĭŃáĬĸáĪŃáī¥áĬĵáĪį": 3746,
      "áīµáĪį": 3747,
      "áĪ³áĬ«": 3748,
      "áĭ«áĭ«áĭĻ": 3749,
      "ĠáĬłáĭĭáīĤ": 3750,
      "ĠáĪĿáĬŀ": 3751,
      "ĠáĪĪáĬ¥áĪ±": 3752,
      "Ġáī¡áĭµáĬĸáī½": 3753,
      "áĭŃáĭĿ": 3754,
      "ĠáĪĪáĬ¢": 3755,
      "Ġáĭ¨áĬłáĬ«áī£áī¢": 3756,
      "Ġáĭ¨áĬ¥áĪŃáĪµáĭİ": 3757,
      "áĪĭáīĤ": 3758,
      "ĠáīłáĬ¥áĬĲáĪ±": 3759,
      "áĬķáĬ©": 3760,
      "Ġáĭ«áĭĺ": 3761,
      "áĬ«áĭŃ": 3762,
      "áī¶áī»áī½áĬķ": 3763,
      "ĠáīłáĬ¥áĭ«áĬķáĭ³áĬķáĭ±": 3764,
      "áĮĪáĪĪáĮįáĪį": 3765,
      "áīĢáĮ¥áĪį": 3766,
      "Ġáĭ¨áįķáĪ®": 3767,
      "áĪĭáī¸áĭĭáĪį": 3768,
      "ĠáīĢáĭµáĪŀ": 3769,
      "ĠáīłáĬ¥áĬĵáĬķáī°": 3770,
      "Ġáī°áĮ«áĭĭ": 3771,
      "ĠáĬ¥áĬķáĭ°áĪĺ": 3772,
      "Ġáĭ¨áĪĿáĪŃ": 3773,
      "ĠáĬ¥áĪŃáĪ»": 3774,
      "ĠáĬ¢áĭ¨áĪ±áĪµáĪĿ": 3775,
      "áįĪáĪįáĮįáĪĿ": 3776,
      "áĪĺáĪĪáĬ¨áī°áĭį": 3777,
      "ĠáĪįáī³": 3778,
      "ĠáīģáĮ£": 3779,
      "áĪĺáĮ£áĭį": 3780,
      "ĠáĭŃáĪĺáĪµáĪĪáĬĽáĪį": 3781,
      "áĭŃáĬĵáĬķáĪµ": 3782,
      "Ġáĭ¨áįĬ": 3783,
      "áįķáĪĭ": 3784,
      "áĭįáĪ®áįĵ": 3785,
      "Ġáĭ«áĪ¨áĮĭáĮįáĮ¡": 3786,
      "Ġáīłáī¦": 3787,
      "áĪĪáĮĭ": 3788,
      "ĠáĪĪáĪĢ": 3789,
      "áĬłáĭĽ": 3790,
      "ĠáĪĻáĬ¨áĪ«": 3791,
      "ĠáĬ®áĪļáī´": 3792,
      "ĠáĬłáĪ¨": 3793,
      "áĬłáĪĪáĪģ": 3794,
      "áīĢáĪ¨áīł": 3795,
      "ĠáĪĽáĬ¥áĬ¨áĪį": 3796,
      "ĠáĪµáī¥áĪµáī¥": 3797,
      "Ġáĭ¨áī»": 3798,
      "ĠáĬłáĬķáĭµáĪĿ": 3799,
      "áĬĵáī¥": 3800,
      "áĮĪáĭ±": 3801,
      "Ġáī¥áĭĽáīµ": 3802,
      "áĮĢáĪĿáĪŃ": 3803,
      "ĠáĭŃáīħáĪŃáī³": 3804,
      "ĠáĬłáĪĬáĭ«áĪĿ": 3805,
      "áī¶áī¹áĬķ": 3806,
      "ĠáĬ¥áĬķáĭ²áĪĨáĬĳ": 3807,
      "ĠáĬłáĪĭáĭįáīħáĪĿ": 3808,
      "áĪįáĭ«": 3809,
      "áī°áĬĿáĬĲáīµ": 3810,
      "áĪĬáĬĵ": 3811,
      "ĠáĬ¨áĬ¥áĬķáĮį": 3812,
      "ĠáĭŃáĪģáĭ³": 3813,
      "áĬ³áī¸áĭį": 3814,
      "áĪĺáĪįáĬ¨": 3815,
      "áĬŃáĪįáīµ": 3816,
      "Ġáĭ¨áĪ¶": 3817,
      "áĪĭáĪ³": 3818,
      "ĠáĪĪáįĬáīµ": 3819,
      "ĠáĮ¥áīģáĪŃ": 3820,
      "áįĪáĪĪáĮĪ": 3821,
      "ĠáĬłáĪ°áĪ«áĪŃ": 3822,
      "áĪĭáĪįáīħ": 3823,
      "áĮĨáī¹": 3824,
      "Ġáĭ¨áĪ®": 3825,
      "áī£áĪĪáĭį": 3826,
      "Ġáĭ«áĭ°áĪ¨áĮĪáĭį": 3827,
      "áĭĺáī°": 3828,
      "Ġáī£áĪĪáįīáīµ": 3829,
      "Ġáī°áĮłáĭ«áīĤ": 3830,
      "Ġáĭ«áĭ°áĪŃáĮĪáĭĭáĪį": 3831,
      "ĠáīłáĪŃáĪµ": 3832,
      "ĠáĬłáī¶": 3833,
      "ĠáĪĻáĭļáīĥ": 3834,
      "ĠáĪļáĭ²áĭ«": 3835,
      "ĠáĪļáĬĴáĪµáī´": 3836,
      "ĠáĬłáī¥áĪŃáĪĢáĪĿ": 3837,
      "ĠáĬ¥áĬķáĭ³áĭ«": 3838,
      "áįĴáī³áĪį": 3839,
      "ĠáĬķáĮįáĮįáĪŃ": 3840,
      "ĠáĬłáĭ«áĭį": 3841,
      "áĬĲáĮĪáĪŃ": 3842,
      "áĪ¨áĬĽ": 3843,
      "ĠáĪ°áī£": 3844,
      "Ġáĭ¨áĪļáĭ«áĭ°áĪŃáĮį": 3845,
      "Ġáĭ¨áĪ«áĪµ": 3846,
      "ĠáĪĽáī³": 3847,
      "ĠáĪĨáĬĳ": 3848,
      "áĪ¹áĪ«áĬķáĪµ": 3849,
      "áĬľ": 3850,
      "ĠáīĤ": 3851,
      "Ġáĭ¨áī¡": 3852,
      "ĠáīłáĬłáĪµ": 3853,
      "ĠáīłáĬ¦": 3854,
      "Ġáĭ¨áĪĽáĪµ": 3855,
      "ĠáĬ¥áĬĵáīµ": 3856,
      "áī½áĪģáĪĿ": 3857,
      "áīĢáĪŃáĪĿ": 3858,
      "ĠáĪĽáĪµáī³áĭĪáĪ»": 3859,
      "ĠáĬłáĬĵ": 3860,
      "áĪĪáĬĿ": 3861,
      "ĠáĪĺáĬĵáĮĪáĪŃ": 3862,
      "Ġáĭ¨áī°áĪŀáĪĭ": 3863,
      "áĮħáĬĲáīµ": 3864,
      "ĠáĭµáĪŃáĪ»": 3865,
      "Ġáĭ¨áįĸáĪĪáī²áĬ«": 3866,
      "áĬķáĪ°áĪŃ": 3867,
      "áĪ³áĬĿ": 3868,
      "ĠáĪħáĭ«áĭį": 3869,
      "ĠáĬłáĪĺáī±": 3870,
      "áįįáĪŃ": 3871,
      "Ġáī°áĭ°áĪŃ": 3872,
      "áī½áĭįáĬķ": 3873,
      "áĬŃáĬķ": 3874,
      "ĠáĪ°áĮª": 3875,
      "áĮĢáĪĺáĪ¨": 3876,
      "ĠáĬ¥áĬķáĭ²áĪħáĪĿ": 3877,
      "ĠáĬ¨áĪŀáīµ": 3878,
      "áĪĽáĪ¨": 3879,
      "Ġáĭ¨áĪĿáĪŃáīµ": 3880,
      "ĠáĬłáĪįáī»": 3881,
      "Ġáī°áĬĵáĮįáĪ¨áĭĭáĪį": 3882,
      "Ġáīłáīħ": 3883,
      "áĭİáī»áī¸áĭį": 3884,
      "ĠáĭĪáĭĺáī°": 3885,
      "ĠáĭįáĮª": 3886,
      "áĭĮáĪŃ": 3887,
      "ĠáĭįáĭŃáĭŃáīµ": 3888,
      "ĠáīłáĪ´": 3889,
      "áĪĽáĪ©": 3890,
      "Ġáī°áīĨ": 3891,
      "áĪĭáĪĪáįį": 3892,
      "ĠáīłáĪĿáĬķ": 3893,
      "áĮĪáĭĻ": 3894,
      "ĠáīµáĪįáīģ": 3895,
      "áįĥáįĪ": 3896,
      "áĪĨáĬĵáī¸áĭį": 3897,
      "ĠáĬłáī¥áĭĽáĬŀáī¹": 3898,
      "ĠáĪ²áĪĨáĬĳ": 3899,
      "ĠáĪĮáĪĬáīµ": 3900,
      "ĠáīłáĪĺáĪµáĪĺáĪŃ": 3901,
      "ĠáĪĺáĬĵ": 3902,
      "áĭµáĬĵ": 3903,
      "ĠáįĬáĪįáĪĿ": 3904,
      "ĠáĬłáĪµáīĢáĭµáĪŀ": 3905,
      "Ġáĭ¨áĮĪáī£": 3906,
      "ĠáīłáĭĪáīħáī±": 3907,
      "áĪ«áīµáĬķ": 3908,
      "áĭĺáĪ¨": 3909,
      "Ġáĭ¨áĪĺáĬªáĬĵ": 3910,
      "ĠáĬłáĮĪáĪįáĮįáĪİáī¶áī½": 3911,
      "áĪĪáīħ": 3912,
      "ĠáĬ¨áĭĭ": 3913,
      "Ġáĭ¨áĪļáĮĪáĬĿ": 3914,
      "ĠáĪĺáĮįáī¢áĭ«": 3915,
      "áĮ´áĭĽ": 3916,
      "áĬķáįĢ": 3917,
      "áĪįáī£": 3918,
      "ĠáīłáĭĿ": 3919,
      "ĠáĬłáĮłáīĥ": 3920,
      "ĠáĪħáĮĪ": 3921,
      "ĠáīłáĮ¨": 3922,
      "áĭ²áīµ": 3923,
      "ĠáĪĽáĪ³áĭ¨áīµ": 3924,
      "Ġáīłáī¤": 3925,
      "áĬ¨áĪĿ": 3926,
      "ĠáĬ¥áĬķáĪµáĪ³áīµ": 3927,
      "ĠáīĢáĪĪ": 3928,
      "ĠáĮĪáĪĪ": 3929,
      "ĠáĬ¥áĬĲáĪŃáĪ±": 3930,
      "Ġáīłáĭ°áĪµáī³": 3931,
      "áĭŁáĪį": 3932,
      "ĠáĪĢáĭĭáĪŃáĭ«áĭį": 3933,
      "Ġáĭ¨áīħ": 3934,
      "Ġáĭ¨áįĵ": 3935,
      "ĠáĬłáĭ²áĪ±": 3936,
      "áĪ°áĪĻ": 3937,
      "áįįáī³": 3938,
      "áĬ¨áĪ©": 3939,
      "ĠáįĪáĪ¨": 3940,
      "ĠáĬ¥áĪ·áĪĿ": 3941,
      "Ġáī£áĪĪáĪµáĪįáĮ£áĬķ": 3942,
      "Ġáīłáī¤áīµ": 3943,
      "ĠáĬłáĮįáī£áī¥": 3944,
      "áī°áĪĿ": 3945,
      "ĠáīłáĬłáĭŃ": 3946,
      "ĠáĬ¥áī£áĬŃáĪħ": 3947,
      "áĪĪáīĢ": 3948,
      "áĪĪáĬĵáĪį": 3949,
      "ĠáĬ¨áĪģáĪīáĪĿ": 3950,
      "ĠáĮ¥áĪª": 3951,
      "ĠáĬ«áĪįáĪĨáĬĲ": 3952,
      "ĠáĪĺáĭ³": 3953,
      "ĠáĭŃáī°": 3954,
      "áĪ³áĬ¤": 3955,
      "ĠáĪĽáīĨ": 3956,
      "ĠáįįáįĥáĪľ": 3957,
      "áĭ°áĬŀáī½": 3958,
      "Ġáī¥áĪ©": 3959,
      "áĬĸáĪ©áīµ": 3960,
      "ĠáīłáĬłáī¥áĭĽ": 3961,
      "Ġáīħáĭ±áĪ³áĬķ": 3962,
      "ĠáĪ°áĪĽáĭŃ": 3963,
      "áĪĪáī±": 3964,
      "áĪªáĪµ": 3965,
      "ĠáĪĽáĪ¨áĮĭáĮĪáĮ«": 3966,
      "Ġáī¥áĪ«": 3967,
      "áĪ³áĭŃáĭ«áĪµ": 3968,
      "Ġáĭ¨áĪĨáĬĳáīµáĬķ": 3969,
      "ĠáĪľáīµáĪŃ": 3970,
      "áĭİáī»áī½áĬķ": 3971,
      "áĪĺáĪĪáĪ°": 3972,
      "Ġáĭ¨áīĢáĪ¨": 3973,
      "ĠáĪĺáĭįáĪ°áĭµ": 3974,
      "Ġáī°áĬ¨áī³áī³áĭŃ": 3975,
      "Ġáįįáīħ": 3976,
      "áĮłáī¥áīħ": 3977,
      "ĠáĬłáĬĲáĪµáī°áĬĽ": 3978,
      "Ġáĭ¨áī¢": 3979,
      "áī»áī½áĪģáĬķ": 3980,
      "ĠáĬŃáĪĬ": 3981,
      "ĠáĪĺáĭĽáĪĻáĪŃáī±": 3982,
      "áĪĺáī»": 3983,
      "ĠáĬ¥áĬķáĭ°áĪĨáĬķ": 3984,
      "Ġáīħáįħ": 3985,
      "áĮĪáĬĵáĬĺ": 3986,
      "ĠáĭĪáī³áĭ°áĪ«áĭĬ": 3987,
      "áĪ³áĪĪáĪģ": 3988,
      "ĠáĪĪáĪĺáĪĪ": 3989,
      "áĭ°áĮĭáĮĭáĪļ": 3990,
      "ĠáĪľáĭ³": 3991,
      "ĠáĪĪáīĢ": 3992,
      "ĠáĪĪáĪĺáįįáĮłáĪŃ": 3993,
      "ĠáĪļáĭĽ": 3994,
      "Ġáī°áĮłáīĥáĪļ": 3995,
      "ĠáĬķáĭµáįį": 3996,
      "áĬķáĬĲáīµ": 3997,
      "ĠáĭŃáĮĢ": 3998,
      "ĠáĬĲáīł": 3999,
      "ĠáĮįáī¥áĪŃ": 4000,
      "ĠáĪĪáĪĺáĪĿ": 4001,
      "ĠáĪĪáĪĽáĬķáĬĽáĭįáĪĿ": 4002,
      "Ġáĭ«áĮĪáĬĺ": 4003,
      "Ġáīłáī°áī»áĪĪ": 4004,
      "áĪĬáĪµ": 4005,
      "ĠáĭĪáĪ°áĬķ": 4006,
      "ĠáĬłáĭŃáĮĪáī£": 4007,
      "ĠáĬ¥áĬķáĭ³áĪįáĪĨáĬĲ": 4008,
      "Ġáĭ¨áĪĭáīĢ": 4009,
      "ĠáīµáĪĨáĬĵ": 4010,
      "ĠáįĭáĭŃ": 4011,
      "ĠáĭĪáī³áĭ°áĪ®áī½": 4012,
      "áĬĲáĬĽ": 4013,
      "áĮįáĪ©": 4014,
      "áĪ®áĪµ": 4015,
      "ĠáĬłáĪĪáī¥áĬĿ": 4016,
      "ĠáĬłáĪµáī°áĪ³áĪ°áī¥": 4017,
      "ĠáĮĪáĭ°áĪĽ": 4018,
      "áĮĪáĪĪáĮįáĪī": 4019,
      "áĪĿáįĴáĭį": 4020,
      "ĠáĬ¥áĪ¨áįįáīµ": 4021,
      "Ġáĭ¨áĮ¨": 4022,
      "Ġáĭ¨áĮįáī¥": 4023,
      "ĠáĬ¨áĬ¤": 4024,
      "Ġáī°áĮĭ": 4025,
      "áĭĭáĪĿ": 4026,
      "ĠáĬłáĪĪáīĨáī½": 4027,
      "Ġáĭ«áĪįáĪĨáĬĳ": 4028,
      "Ġáĭ«áĭįáīĥáĪį": 4029,
      "Ġáĭ¨áĬ©": 4030,
      "áī³áĪĪáī½": 4031,
      "Ġáī³áĭŃ": 4032,
      "ĠáīłáĪĨáĬĳ": 4033,
      "ĠáīłáīĢáĪŃ": 4034,
      "ĠáĬłáĭĺáĮĭáĮħ": 4035,
      "Ġáĭ¨áĪĿáĪµ": 4036,
      "ĠáĬ¥áĬķáĮįáĭ³": 4037,
      "ĠáīłáĪĺáĬķáįĪáĪµ": 4038,
      "ĠáĮįáĭ´áī³": 4039,
      "áĬĲáĭįáĬķ": 4040,
      "Ġáĭ¨áĪļáĪ°áĪĽ": 4041,
      "áī´áĪĮ": 4042,
      "áĬķáĭ°áĪŃ": 4043,
      "áī§áĬķ": 4044,
      "ĠáĬ¥áĬ©áĪį": 4045,
      "áĪĺáĭĭáĪį": 4046,
      "ĠáĪĽáĪ»áĪ»áĭ«": 4047,
      "ĠáĬ¨áī¤áīµ": 4048,
      "ĠáĪĽáīħáĪ¨áī¥": 4049,
      "ĠáĪµáĪĪáĪĨáĬĲáĪĿ": 4050,
      "ĠáĪĺáĪµáī°": 4051,
      "áī£áī½áĬķ": 4052,
      "ĠáĬ¥áĭ¨áĪ°áĪ«": 4053,
      "áĮĪáĬĵáĬĻ": 4054,
      "ĠáīµáĪŃáĬ¢": 4055,
      "áĮĩ": 4056,
      "áĭ«áĭŃ": 4057,
      "áĬĲáĬ«": 4058,
      "ĠáĬ¨áĪµáĪ«": 4059,
      "ĠáĬłáĪĭáīµ": 4060,
      "ĠáīłáĪĿáĭµ": 4061,
      "ĠáĪŃáīĢáīµ": 4062,
      "Ġáīłáįĸ": 4063,
      "ĠáĪµáĮĭáīµ": 4064,
      "ĠáĪħáĬķáįĥ": 4065,
      "áĪĦáĭ³": 4066,
      "ĠáĬłáī¤áī±": 4067,
      "ĠáīµáĪĭ": 4068,
      "ĠáĬ¥áĭ¨áĮ¨": 4069,
      "áįĪáįĢáĪĻ": 4070,
      "áĬ¥áĭµ": 4071,
      "ĠáĬĲáĮĪáĪµáī³áīµ": 4072,
      "Ġáī°áĪĺáĪįáĬ«": 4073,
      "ĠáĬłáī¢": 4074,
      "ĠáĭŃáīĢáĮ¥": 4075,
      "áĭİáī½áĪĿ": 4076,
      "ĠáĬłáĬķáĭµáĬĲáīµ": 4077,
      "áįķáĪª": 4078,
      "Ġáīłáĭ°áĪį": 4079,
      "ĠáĬĲáīłáĪ¨áī½": 4080,
      "ĠáīłáĪĺáĮĢáĪĺáĪªáĭ«áĭį": 4081,
      "ĠáįķáĪ®áĮĢáĬŃáīµ": 4082,
      "Ġáĭ¨áĬ¥áĪ±": 4083,
      "Ġáĭ¨áĭ®": 4084,
      "Ġáĭ¨áĪ²": 4085,
      "ĠáĬłáĭŃáīĢáĪŃáĪĿ": 4086,
      "ĠáĬ¥áĬķáįĪáĪįáĮĭ": 4087,
      "áī¤áĬķ": 4088,
      "ĠáĪµáĪ«áĭįáĬķ": 4089,
      "Ġáī¥áĪĭáĪĪáī½": 4090,
      "ĠáĪĪáĪļáĭ«": 4091,
      "Ġáī¥áĪĪáĪħ": 4092,
      "ĠáĭĪáĭ°áĭļáĪħ": 4093,
      "áĭĺáĪĿ": 4094,
      "ĠáĬŃáĪħ": 4095,
      "ĠáĬķáīģ": 4096,
      "ĠáĪŀáĭ´": 4097,
      "ĠáĪĿáĪŃáĪĿáĪŃ": 4098,
      "ĠáĪĺáĪŃáĬ¨": 4099,
      "ĠáĪĿáĬĵáĪįáī£áīµáĪĿ": 4100,
      "ĠáīłáĪĺáĪµáĮłáīµ": 4101,
      "Ġáĭ¨áĬ¨": 4102,
      "ĠáīłáĭŃáĪģáĭ³": 4103,
      "áĪ³áīģ": 4104,
      "ĠáĮłáĮħ": 4105,
      "Ġáĭ¨áĪĨ": 4106,
      "ĠáīĨáĪŃ": 4107,
      "ĠáĪŃáĪµáīµ": 4108,
      "Ġáī¤áī°áĪ°áī¦áī½": 4109,
      "ĠáĬ¥áĪ«áĪµ": 4110,
      "ĠáĪĢáĮĪáĪŃ": 4111,
      "áī²áĬķ": 4112,
      "áĪĭáī½áĪģáĪĿ": 4113,
      "ĠáįĢáĪİáīµ": 4114,
      "ĠáĪĢáĭŃáĪĪáĬĽ": 4115,
      "áĮłáĭŃáīħ": 4116,
      "áĭįáĭį": 4117,
      "áĬ«áĪĦáĭµ": 4118,
      "áĭĿáĮĪáī£": 4119,
      "áĮ£áī±": 4120,
      "Ġáĭ¨áĪĽáĪµáī°": 4121,
      "ĠáĮīáī¥áĬĿ": 4122,
      "ĠáīłáĪħáĮį": 4123,
      "ĠáĮŃáĬķáīĢáīµ": 4124,
      "ĠáĪĽáĪµáī°áĭĭáĪį": 4125,
      "ĠáĬłáĮ¥áī¥": 4126,
      "ĠáĬ¨áĮ¥áīĤáīµ": 4127,
      "áĪĮáĬŃáīµáĪªáĬŃ": 4128,
      "ĠáĬ¥áĬķáįĪáĪįáĮĭáĪĪáĬķ": 4129,
      "áĬ«áī°": 4130,
      "ĠáīµáĭįáĪįáĭµ": 4131,
      "ĠáĬ¥áĬķáĭ³áĪī": 4132,
      "ĠáīłáįįáįģáĪĿ": 4133,
      "áĪŃáĪ»": 4134,
      "áĭĪáīģ": 4135,
      "Ġáĭ¨áĪļáī°": 4136,
      "áĬĴáĭį": 4137,
      "ĠáĬĲáīłáĪ¨áĭį": 4138,
      "Ġáĭ¨áĪ¸": 4139,
      "ĠáĬ¨áī¤áī°": 4140,
      "ĠáĪĪáīµ": 4141,
      "áĮ¥áĪ©": 4142,
      "Ġáī°áĬ¨áīµ": 4143,
      "áįĢáĪį": 4144,
      "ĠáĪĺáĪĭáĬ¥": 4145,
      "ĠáįķáĪ®áĮĢáĬŃ": 4146,
      "ĠáĮłáī£áīĤ": 4147,
      "ĠáĪĪáĪ¨áĮħáĪĿ": 4148,
      "Ġáĭ°áĪ¨áĮĥáĭİáī½": 4149,
      "áīĢáĪĺáĮ«": 4150,
      "áįĨáī³": 4151,
      "ĠáĪħáįĥáĬĵáīµ": 4152,
      "ĠáĭĪáĬķ": 4153,
      "Ġáĭ¨áĪļáī½áĪĪáĭį": 4154,
      "áĬĿáī³": 4155,
      "ĠáĪŃáĭĿ": 4156,
      "áĪĺáĭ±": 4157,
      "áī£áĪĪáĬķ": 4158,
      "áīĢáĪŃáīłáĭį": 4159,
      "áĭĽáī¥": 4160,
      "áįĥáįĪáĭį": 4161,
      "Ġáĭ¨áĪĺáĪµáĪĺáĪŃ": 4162,
      "áĪĿáĪ¨áīµ": 4163,
      "ĠáĭŃáī£": 4164,
      "ĠáĭĺáĪĺáī»": 4165,
      "áįĪáĪįáĮĪáĭįáĬķ": 4166,
      "ĠáĪ³áĪĻáĬ¤áĪį": 4167,
      "Ġáīłáĭ°áĪ¨": 4168,
      "ĠáĪĺáĪĢáĪį": 4169,
      "ĠáĪĺáįįáĮłáĪŃ": 4170,
      "ĠáĬĲáī½": 4171,
      "ĠáĪŀáī°": 4172,
      "ĠáĭµáĬķáĮĭáĮĮ": 4173,
      "Ġáĭ³áĮįáĪĺáĬĽ": 4174,
      "ĠáĪĭáĪĪ": 4175,
      "ĠáĬ«áĪįáī°": 4176,
      "áĪµáĪĿ": 4177,
      "ĠáĪĪáĪĽáĮ¥": 4178,
      "ĠáĪħáĮİáī½": 4179,
      "áĬķáĬ¨áī£": 4180,
      "Ġáĭ¨áĭ²": 4181,
      "áī°áĬŀáī½áĬķ": 4182,
      "ĠáĭŃáĮĪáĪį": 4183,
      "áī£áī¥": 4184,
      "ĠáĬłáĬķáī°áĬķ": 4185,
      "ĠáĭŃáĪĨáĭĭáĬķ": 4186,
      "ĠáĮĭáĭľáĮ£": 4187,
      "Ġáĭ©áĬĴáī¨áĪŃáĪ²áī²": 4188,
      "áĪĭáīµáĬķ": 4189,
      "ĠáĭĪáĪŃáīħ": 4190,
      "Ġáĭ¨áĭ°áĬķáīł": 4191,
      "ĠáīłáīĨ": 4192,
      "áī·áī¸áĭĭáĪį": 4193,
      "ĠáĭĪáĪ³áĬĿ": 4194,
      "Ġáĭ¨áĪļáĮĪáĬĺáĭįáĬķ": 4195,
      "ĠáĬłáĬķáĭµáĬķ": 4196,
      "áĬ®áĬķ": 4197,
      "ĠáĪĪáĬłáĬķáī°": 4198,
      "Ġáĭ¨áĪ«áĪ³": 4199,
      "áĪĪáĭŃ": 4200,
      "áĭĪáĪį": 4201,
      "ĠáīłáĪĽáĪħ": 4202,
      "Ġáĭ³áĭŃáĪ¬": 4203,
      "ĠáĪĺáĪ°áĭĬáĭ«": 4204,
      "ĠáĬ¨áįĪ": 4205,
      "áĭĽáĪį": 4206,
      "ĠáĪĢáĬª": 4207,
      "ĠáĮįáĬķáī£": 4208,
      "ĠáĪĬáĪ¨áĭ³": 4209,
      "ĠáĮĪáįĨáī½": 4210,
      "áĭįáīĥáĪī": 4211,
      "ĠáĪĪáĪĽáĬķ": 4212,
      "áĭ¥áĬķ": 4213,
      "áĪ°áĭĭáĪį": 4214,
      "ĠáĬŃáĪµ": 4215,
      "áįĲáĪŃ": 4216,
      "áĪĭáĪĭ": 4217,
      "ĠáĬ¨áĪģáĪī": 4218,
      "ĠáĬłáĭµáĪŃáĮī": 4219,
      "ĠáĬłáĪµáī°áĭ«áĭ¨": 4220,
      "Ġáĭ¨áīģ": 4221,
      "áĪģáĪĿ": 4222,
      "Ġáī£áĪįáĬķ": 4223,
      "Ġáĭ«áĭ°áĪŃáĮĭáĪī": 4224,
      "ĠáĪ²áī£áĪį": 4225,
      "áĪ¨áī³": 4226,
      "Ġáĭ¨áĪļáĪ¨áĭ³": 4227,
      "áįĭáĭĬ": 4228,
      "ĠáĭįáĭµáĭµáĪŃ": 4229,
      "áī¨áĪµáīµ": 4230,
      "Ġáĭ¨áĪįáī¥": 4231,
      "ĠáĪĺáĭĿáĪĻ": 4232,
      "ĠáĬ¢áĭ®áī¥": 4233,
      "ĠáĬ¥áĮįáĪŃ": 4234,
      "ĠáĪĺáīĥ": 4235,
      "áĪĽáĪĽáĬĿ": 4236,
      "ĠáĪĪáĭŃáĪĨáĭĭ": 4237,
      "áĮłáĬĿ": 4238,
      "Ġáĭ¨áĪļáĪĨáĬĳ": 4239,
      "ĠáĭµáĪħáĪ¨": 4240,
      "Ġáī³áĪµ": 4241,
      "ĠáĪ°áĭİáī½áĪĿ": 4242,
      "ĠáĪµáĪ«áĭİáī½áĬķ": 4243,
      "ĠáīĨáĪ®": 4244,
      "ĠáįĢáĮĭ": 4245,
      "ĠáĪĿáĬŃáĬķáĭ«áī³áĭĬ": 4246,
      "áĬĲáīłáĪ¨áīłáīµ": 4247,
      "ĠáĪĺáī°áĮįáīłáĪªáĭ«": 4248,
      "ĠáĭµáĬķáĮĭáĭŃ": 4249,
      "Ġáĭ«áĬ«áīµáī³áĪį": 4250,
      "ĠáĪµáĬ¬": 4251,
      "áĭĪáĭĿ": 4252,
      "Ġáĭ¨áĬłáĪµáī°": 4253,
      "Ġáī¥áĪİáĮį": 4254,
      "Ġáī°áĬĲáĪµáī¶": 4255,
      "áĪµáĪĢ": 4256,
      "áĪħáĬķáĪĿ": 4257,
      "Ġáĭ¨áī°áĪ°áĮł": 4258,
      "áī´áĭİáĪµ": 4259,
      "áĮĪáĪ°": 4260,
      "Ġáī°áīĨáĮ£": 4261,
      "Ġáĭ°áī¡áī¥": 4262,
      "ĠáĭĿáĪĿ": 4263,
      "ĠáĬłáĭŃáĪĨáĬķáĪĿ": 4264,
      "ĠáĬłáī¥áĪ®": 4265,
      "ĠáĪĺáĮįáĭĽáīµ": 4266,
      "Ġáĭ¨áī°áĭĪáĪ°áĬĳ": 4267,
      "áĬ¨áī°áĪīáīµ": 4268,
      "áī£áī¸áĭįáĪĿ": 4269,
      "ĠáĪŀáĮĪáĪµ": 4270,
      "áĬĵáĮĪáĪ©áīµ": 4271,
      "ĠáĭŃáįĪáĪįáĮĭáĪį": 4272,
      "ĠáĪĿáĬ¥áĪ«áįį": 4273,
      "Ġáī£áĪįáĬķáĮĢ": 4274,
      "ĠáĬłáīĭáĪĿ": 4275,
      "ĠáĬ¨áĪŀ": 4276,
      "ĠáĪĽáĪ«": 4277,
      "áĬĶáĬķ": 4278,
      "áīłáīµáĬĵ": 4279,
      "ĠáĬłáĪµáī£áĪĪáĪģ": 4280,
      "ĠáĬłáĪįáī£": 4281,
      "ĠáĪıáĪĭáĭĬáĭį": 4282,
      "áĬķáī³áĭĬ": 4283,
      "áī½áĪĿ": 4284,
      "ĠáĮĬ": 4285,
      "áĪĭáĬŃ": 4286,
      "ĠáĭĺáĮį": 4287,
      "ĠĠĠĠĠĠĠĠ": 4288,
      "áīĨáĮ£áĮł": 4289,
      "ĠáĭŃáĭĺáīµ": 4290,
      "ĠáĬ«áĪħáĬĵáīµ": 4291,
      "ĠáĬłáīĥ": 4292,
      "ĠáĬ®áĪŃ": 4293,
      "ĠáĪĺáįħáĪĦ": 4294,
      "Ġáĭ¨áĭµáĬķ": 4295,
      "áĪĪáī³áĪį": 4296,
      "ĠáĭĪáĬķáĭĿ": 4297,
      "ĠáĭĪáĭ°áĭļáĭ«": 4298,
      "Ġáīłáī°áįĪ": 4299,
      "ĠáĬ¢áĪ³áĭŃáĭ«áĪµ": 4300,
      "áĪµáī³áĭĪáĪµ": 4301,
      "ĠáĬ¢áĭ¨áĪ±áĪµáĬķ": 4302,
      "ĠáĬĲáĮĭ": 4303,
      "ĠáĮĪáĬķáĭĺ": 4304,
      "áĪ°áĪ«áĭį": 4305,
      "Ġáĭ¨áĪĮáĪĪáĭį": 4306,
      "áĮłáĬķáīĢáīĤáĭ«": 4307,
      "áĬķáīłáīµ": 4308,
      "áĭĪáĪ¨": 4309,
      "áī¦áī¹": 4310,
      "ĠáĬłáĭµáĪ«áĪ»": 4311,
      "ĠáĪĺáĪ¨áĭ³áīµ": 4312,
      "Ġáĭ«áĭįáīĥáĪī": 4313,
      "ĠáĪ³áĬ¦áĪį": 4314,
      "ĠáīĢáĪµ": 4315,
      "áĮĪáĬĺáīµ": 4316,
      "Ġáĭ¨áīĢáĪ¨áīł": 4317,
      "Ġáĭ«áĭĪáĮ£": 4318,
      "Ġáĭ«áĬĲáĪ°": 4319,
      "ĠáĮĬáĭľáĭį": 4320,
      "ĠáīĢáĬĵ": 4321,
      "ĠáīłáĪĽáĪ³": 4322,
      "Ġáĭ¨áĮĭáĪ«": 4323,
      "áĬĲáī¥": 4324,
      "áī³áĪĪáĬķ": 4325,
      "Ġáī°áĬ¨": 4326,
      "áĭ³áĭŃ": 4327,
      "áī¡áĪŃ": 4328,
      "áĮ¨áĪĿáĪŃ": 4329,
      "ĠáīłáĭįáĪĢ": 4330,
      "ĠáīħáĪŃáĬķáĮ«": 4331,
      "ĠáĬ¨áĬ¥áĬķáĮįáĭ²áĪħ": 4332,
      "ĠáĬĶ": 4333,
      "ĠáĭįáĪµ": 4334,
      "ĠáīµáĪ«": 4335,
      "áĭĺáĭĻ": 4336,
      "ĠáĬ¥áĬķáĭ³áīµ": 4337,
      "ĠáĪļáĪµáĮ¥": 4338,
      "Ġáĭ¨áĮİáĭ°": 4339,
      "áĪŃáĪĿáĭ«áĪµ": 4340,
      "Ġáĭ¨áĭ«áĭĺ": 4341,
      "áĭįáĪŀ": 4342,
      "ĠáĬ¨áĪģáĪĪáīµ": 4343,
      "áĬŃáĪ®": 4344,
      "Ġáĭ°áĪħáĬķ": 4345,
      "ĠáīłáĬ¢áīµáĭ®áĮµáĭ«": 4346,
      "ĠáĪĽáī´áĭİáĪµ": 4347,
      "ĠáĪĽáĪ°áī¥": 4348,
      "ĠáĪĺáĪĺáĪªáĭ«áĭİáī½": 4349,
      "Ġáĭ¨áĪļáĬ¨áī°áĪīáīµáĬķ": 4350,
      "ĠáĪµáĪŃáĬłáī¶áī½": 4351,
      "ĠáĮ¥áĪŃáĮ¥áĪŃ": 4352,
      "ĠáĪĿáĪħáĪ¨áīµ": 4353,
      "ĠáĪĭáĪĪáĭį": 4354,
      "áĭĿáīĥ": 4355,
      "áĪ½áĬĳ": 4356,
      "áĬ¨áī°áĪī": 4357,
      "áĬĵáĬķáĪ½": 4358,
      "áĭ°áĪ°áī±": 4359,
      "ĠáĬłáĭİáĬķ": 4360,
      "áįĬáĬŃ": 4361,
      "ĠáĪģáĪīáĬķ": 4362,
      "ĠáĪĺáĪįáĬłáĬŃ": 4363,
      "áĬķáī¶": 4364,
      "áĪįáĪħ": 4365,
      "áĭŃáĪĽáĬĸ": 4366,
      "Ġáĭ¨áĪļáĪ°áĮłáĭį": 4367,
      "Ġáĭ¨áĪĺáĬķáĮį": 4368,
      "ĠáĬ¥áĬĽáĬķ": 4369,
      "ĠáĬŃáĬķ": 4370,
      "ĠáĬ¤áĮĢáĬķáĪ²": 4371,
      "ĠáĬłáĬ«áī£áī¢áĭİáī½": 4372,
      "áĪ¨áĬķáĪ³áĭŃ": 4373,
      "áĪĪáĪ½": 4374,
      "áĭĪáĭ«": 4375,
      "ĠáĪĢáĭ«": 4376,
      "ĠáīłáĪ²": 4377,
      "ĠáĬłáī¥áĭĽáĬĽáĭįáĬķ": 4378,
      "áīłáĪŃáĬ«áī³": 4379,
      "áįĭáĪī": 4380,
      "áĭ«áĭįáīħ": 4381,
      "ĠáĬłáĭµáĬĵ": 4382,
      "áī£áĭŃáĪį": 4383,
      "Ġáī£áĪħáĪį": 4384,
      "ĠáĪĪáĬ¥áĬĲáĪ±": 4385,
      "ĠáĪĿáĪµáĮĭáĬĵ": 4386,
      "ĠáĬ¥áįħ": 4387,
      "ĠáĪħáĪĬáĬĵ": 4388,
      "áī£áĭį": 4389,
      "ĠáĪĺáĬ¨áĪĭáĬ¨áĭ«": 4390,
      "áĭ°áī¥": 4391,
      "ĠáĮįáĪ©áĪĿ": 4392,
      "ĠáĬłáī£áī´": 4393,
      "áīĢáīłáĪī": 4394,
      "ĠáĭĪáĪµáĭ¶": 4395,
      "áĬĵáįĬ": 4396,
      "áĮĪáĪįáĮĪ": 4397,
      "ĠáįĪáĮłáĪ«": 4398,
      "Ġáĭ«áĪĪáįĪ": 4399,
      "Ġáĭ«áĪµáī½": 4400,
      "ĠáīłáĬ¥áĪŃáĪ±": 4401,
      "áīĢáĪĺáĮ¡": 4402,
      "áĪĭáī½áĬĭáĪĪáĪģ": 4403,
      "Ġáĭ¨áĪļáĪ°áĮ¥": 4404,
      "ĠáĮ¨áĪŃ": 4405,
      "áĭ°áĭįáĪī": 4406,
      "ĠáĬłáĪĿáĪįáĬ®": 4407,
      "ĠáĪĺáĪŃáĭ³áīµ": 4408,
      "ĠáĭŃáĮ¨áĪĿáĪ«áĪį": 4409,
      "ĠáĮĬáĭľáĭ«áīµ": 4410,
      "áĭ©áĪĿ": 4411,
      "ĠáīħáĮĤ": 4412,
      "ĠáīłáĪĽáĮį": 4413,
      "ĠáĬłáĪĿáĪĭáĬŃáĪħ": 4414,
      "Ġáĭ¨áĬ¢áĬķ": 4415,
      "áĮłáīłáīģ": 4416,
      "ĠáĪĿáĪįáĬŃáī¶áī½": 4417,
      "áĪŃáĪĺáĬķ": 4418,
      "ĠáĪĺáĪ¬": 4419,
      "áīłáĪī": 4420,
      "áĭĪáĪ°áĭ°": 4421,
      "Ġáī¤áī°áĪ°": 4422,
      "Ġáĭ¨áĪ°áĪ«áĭĬáīµ": 4423,
      "áĬ«áĪĦáĭ°áĭį": 4424,
      "áĭŃáī±": 4425,
      "áĬŀáī»áī½áĬķ": 4426,
      "Ġáĭ«áĪĪáīłáīµ": 4427,
      "ĠáĮĢáĪŃáī£": 4428,
      "Ġáī°áīĢáī¥": 4429,
      "áįĪáĬĲ": 4430,
      "ĠáĪĮáĭĭ": 4431,
      "áĪįáĬĵáĪį": 4432,
      "Ġáĭ«áĬĲáĪ³": 4433,
      "áĪªáī±áĬķ": 4434,
      "ĠáĭĺáĪĭáīĤ": 4435,
      "ĠáĬ¨áĬ¥áĪŃáĪ±": 4436,
      "ĠáĬ¥áĪŃáĪµáĭİáĬķ": 4437,
      "ĠáĬłáĭŃáĪģáĭ³áĭįáĭ«áĬķ": 4438,
      "ĠáĪĽáĮ£": 4439,
      "áĭĽáī¸áĭį": 4440,
      "ĠáīłáĮīáī£áĬ¤": 4441,
      "ĠáīłáĪĪ": 4442,
      "ĠáĭŃáĭĪáĭ³": 4443,
      "áĬłáĬķ": 4444,
      "ĠáĪ³áĭ«": 4445,
      "áįĢáĭĭáĪį": 4446,
      "ĠáĮĪáįħáī³": 4447,
      "ĠáĬłáįįáĪªáĬ«": 4448,
      "Ġáĭ°áĬķáīłáĬŀáī½": 4449,
      "Ġáĭ¨áīłáĪ¨": 4450,
      "ĠáĬ¥áĪį": 4451,
      "ĠáĬłáĭ²": 4452,
      "áĮĪáĬĽáĪį": 4453,
      "áĪ¨áĪĿ": 4454,
      "ĠáĮīáĭµáĮĵ": 4455,
      "áĬ³áĪŃ": 4456,
      "áĪĺáĪŃáĪĺáĪŃ": 4457,
      "ĠáĪĿáĭµáĪŃáĬķ": 4458,
      "áĭ°áĪŃáĮīáīµ": 4459,
      "ĠáĬ¢áĭ«áĪ±": 4460,
      "Ġáī£áĪŃ": 4461,
      "ĠáīłáĬłáĬ«áī£áī¢áĭį": 4462,
      "ĠáĬ«áĪĿ": 4463,
      "ĠáįĵáĪŃáī²": 4464,
      "Ġáĭ¨áĭ±": 4465,
      "ĠáĬłáĪ°áĪį": 4466,
      "ĠáĪĺáĬĲ": 4467,
      "áĭµáĪ©": 4468,
      "ĠáĪĪáĪĺáįį": 4469,
      "ĠáĪĨáĬĹáĪį": 4470,
      "ĠáĬłáĪįáī½áĪįáĪĿ": 4471,
      "ĠáīĭáĪļ": 4472,
      "áī¿áĬķ": 4473,
      "Ġáĭ¨áī°áįĪáĮ¥áĪ®": 4474,
      "áĭ°áĮĪáįį": 4475,
      "ĠáĪĺáĮłáĭ¨áīħ": 4476,
      "ĠáīłáĮįáī¥áįħ": 4477,
      "ĠáĬ¨áĬ¥áĪµáĪ«áĬ¤áĪį": 4478,
      "ĠáĪĪáĬ¥áĭ«áĬķáĭ³áĬķáĭ±": 4479,
      "ĠáįĢáĪĢáĭŃ": 4480,
      "ĠáĪĺáĪĨ": 4481,
      "ĠáĪĪáĪ°áĭį": 4482,
      "áĪ³áī½áĪģ": 4483,
      "áĮĵáĭ´": 4484,
      "Ġáĭ¨áĪĪáīłáīµáĪĿ": 4485,
      "ĠáīłáĪ¨áĬ¨áīµ": 4486,
      "ĠáīłáĪģáĪĪáīµ": 4487,
      "áī°áĬ©": 4488,
      "áĮįáĪª": 4489,
      "Ġáĭ¨áĪļáĪ¸": 4490,
      "ĠáĪ°áĪľáĬķ": 4491,
      "áĪĮáĮħ": 4492,
      "ĠáĬ¥áĭįáīħáĬĵ": 4493,
      "áĪŀáĬŃáĪ©": 4494,
      "ĠáĬłáī¥áĭĽáĬĽáĭİáī¹": 4495,
      "ĠáĪĽáĭŃ": 4496,
      "áĮĭáĬķ": 4497,
      "ĠáĬ³áĪµ": 4498,
      "Ġáī°áĮ¨": 4499,
      "ĠáīłáĪĺáī°": 4500,
      "áįİáĪŃ": 4501,
      "ĠáīłáĪħáĭĿáī¥": 4502,
      "ĠáĮłáīħáĪĭáĭŃ": 4503,
      "ĠáĪĪáīłáĪĪáĮł": 4504,
      "Ġáĭ¨áĬĵ": 4505,
      "áĮĪáīł": 4506,
      "ĠáĬ¨áĮįáī¥áįħ": 4507,
      "ĠáĭŃáĮłáīĢáĪĻ": 4508,
      "ĠáĭŃáĪįáīģ": 4509,
      "áīĢáĭĿ": 4510,
      "áįĬáī±": 4511,
      "áĮĪáĪĪáįģ": 4512,
      "áĪĪáĭ«áĭ¨": 4513,
      "ĠáĪ°áĮ¥áī¶": 4514,
      "Ġáī°áĭĭáĮĬ": 4515,
      "ĠáĬłáĭ°áĪ¨": 4516,
      "ĠáĪĺáĪ¨": 4517,
      "áīłáĪ«": 4518,
      "áĬŃáĪĿ": 4519,
      "Ġáī°áĭĽ": 4520,
      "ĠáīłáīĢáĬķ": 4521,
      "Ġáĭ¨áįįáīħáĪŃ": 4522,
      "ĠáĪĪáĪĽáĪµáĭĪáĮĪáĭµ": 4523,
      "ĠáĬ¨áī³áī½": 4524,
      "áĮłáįī": 4525,
      "áĭĪáĭ°áĭį": 4526,
      "ĠáĪĭáĬ¨": 4527,
      "Ġáī¥áīģ": 4528,
      "Ġáĭ¨áī°áĭ°áĪ¨áĮĪ": 4529,
      "ĠáĪħáĪį": 4530,
      "Ġáĭ¨áĪļáĭ«áĪµáī°": 4531,
      "Ġáįħáĭµáīħ": 4532,
      "áĪ¨áĬķáĮĵáĭ´": 4533,
      "áĮ§áī¸áĭį": 4534,
      "Ġáīłáĭ¨áīµ": 4535,
      "ĠáĬ¢áĬ®áĬĸáĪļ": 4536,
      "ĠáĮīáĭ³áĭ©": 4537,
      "ĠáĬłáįĪáįĥáįĢáĪĿ": 4538,
      "ĠáĪĽáĪĢ": 4539,
      "ĠáĪĽáīłáĪ¨áī³": 4540,
      "ĠáīłáĬĴ": 4541,
      "Ġáĭ¨áĭĪáĮ£": 4542,
      "ĠáĪŃáĬ¥áĪ°": 4543,
      "áīĢáĪ°": 4544,
      "ĠáĪĿáĪµáĪİáī½": 4545,
      "ĠáīłáĪµáī¥": 4546,
      "áĪ¨áĮĭáĮĪáĮł": 4547,
      "Ġáĭ¨áĮīáī£áĬ¤": 4548,
      "ĠáĪĺáĪµáįĪáĪŃáī¶áī½": 4549,
      "ĠáĬ¨áī¥áĭĻ": 4550,
      "ĠáĭŃáĪ°áĮł": 4551,
      "ĠáĪĬáĬĸáĪŃ": 4552,
      "ĠáĬ¥áĬķáĭ³áĪĪáīłáīµ": 4553,
      "áįĲáī¥": 4554,
      "áĭ°áĬĲ": 4555,
      "Ġáĭ¨áī°áĮłáīłáīĢ": 4556,
      "áĬķáĮįáī°áĬķ": 4557,
      "ĠáĬłáĭ°áĪ¨áĮī": 4558,
      "áįĪáĮłáĪŃ": 4559,
      "ĠáĬłáĪµáĬ¨": 4560,
      "áĬķáĮįáĪĬáĭĿ": 4561,
      "ĠáĬłáĪ¨áĮĭ": 4562,
      "Ġáĭ¨áĪĺáĮį": 4563,
      "áįĢáĭ«": 4564,
      "ĠáĪĺáĮ¥áī¶": 4565,
      "ĠáĮ¨áĭĭáī³áĭİáī½": 4566,
      "ĠáĪĪáĪĽáĪ³áĭ¨áīµ": 4567,
      "ĠáĭĪáĬķáĮĢáĪį": 4568,
      "ĠáĬłáĪŀ": 4569,
      "áĪħáįĪáīµ": 4570,
      "Ġáĭ¨áĪļáī½áĪīáīµ": 4571,
      "áĬ«áĪĽ": 4572,
      "Ġáĭ¨áĬłáīµ": 4573,
      "ĠáĬ¤áĪĿ": 4574,
      "Ġáī¥áĪĦáĪŃ": 4575,
      "Ġáĭ¨áĬ¥áĮįáĪŃ": 4576,
      "ĠáĪĺáĪµáįĪ": 4577,
      "ĠáįĸáĪĬáĪµ": 4578,
      "Ġáĭ¨áī°áĪ°áĪ©": 4579,
      "ĠáĬ¢áĬķáĭ±áĪµáīµáĪª": 4580,
      "ĠáĬłáĪĭáĪħáĪĿ": 4581,
      "ĠáīłáĭµáĮĭáĪļ": 4582,
      "Ġáĭ¨áĪ³áĭŃ": 4583,
      "áĭ³áī½áĪģ": 4584,
      "ĠáįĶ": 4585,
      "ĠáĬ¥áĬķáĮ¨áīµ": 4586,
      "áįķáĪĭáĬķ": 4587,
      "Ġáīµáī½áĪĭáĪĭáī½áĪģ": 4588,
      "ĠáĮ©": 4589,
      "ĠáĪµáĪĪáĪļáĭ«": 4590,
      "áĪĦáĭ°": 4591,
      "ĠáĬłáĪĺáĪµ": 4592,
      "ĠáĬłáĪŃáī¥": 4593,
      "áįĢáĭ«áįĬ": 4594,
      "ĠáīłáĪĭáī¸áĭį": 4595,
      "áĭ«áĭĺ": 4596,
      "ĠáĪĺáĭ«áĭĿ": 4597,
      "áī³áĪŃ": 4598,
      "áĭĽáĭĿ": 4599,
      "Ġáī³áĭį": 4600,
      "ĠáĬ«áĪħáĬĵ": 4601,
      "áĪ°áī¥áĬ©": 4602,
      "Ġáĭ¶áĬŃáī°áĪŃ": 4603,
      "áĮ¥áĪį": 4604,
      "áĭĿáĮĪáī¥": 4605,
      "áĬ®áī½áĬķ": 4606,
      "ĠáĪµáĪ«áĭį": 4607,
      "ĠáĬ¨áĪĺáĮĢáĪĺáĪªáĭ«": 4608,
      "ĠáĬ¨áĬłáī£": 4609,
      "ĠáĪįáĮĨáī½áĬķ": 4610,
      "ĠáĪĺáĪµáĪªáĭ«": 4611,
      "Ġáĭ¨áĭĪáĪŃáīħ": 4612,
      "áĪŃáĪµáī²áĭ«áĬķ": 4613,
      "áĭ°áĭ°": 4614,
      "áī¥áī»": 4615,
      "áįĪáĭĭáĪį": 4616,
      "áīĥáĭµ": 4617,
      "Ġáīłáī°áĪ»áĪĪ": 4618,
      "ĠáīłáĪ°áĭŃ": 4619,
      "ĠáĮĮáī³áĭ¬": 4620,
      "Ġáĭ¨áĪ©": 4621,
      "áĪ°áĭĬ": 4622,
      "áĮłáīģ": 4623,
      "áīĢáįį": 4624,
      "áīħáĭ«áĪµ": 4625,
      "ĠáĭĪáĪĭáĮĨ": 4626,
      "áīħáĪ¨": 4627,
      "ĠáĬ¥áĬĲáĪŃáĪ±áĪĿ": 4628,
      "ĠáĪĺáĭµáĪĢáĬĴáīµ": 4629,
      "ĠáĬłáĬŃáī¥áĪ®áīµ": 4630,
      "ĠáĪĪáĪĻ": 4631,
      "ĠáĭĪáĭŃáĬķ": 4632,
      "ĠáĬłáĪĪáī¥áĭİáīµ": 4633,
      "ĠáĬłáĪĺáĮ£": 4634,
      "ĠáĪĺáĪĽáĪŃ": 4635,
      "ĠáĪµáĬĵ": 4636,
      "Ġáī°áĪįáĬ¥": 4637,
      "ĠáĬłáĪµáĪ«": 4638,
      "ĠáĮłáĪ¨": 4639,
      "áĬŃáĪįáĪį": 4640,
      "Ġáĭ¨áī£áĪĪ": 4641,
      "ĠáĪ¸áĪĪáīĨ": 4642,
      "ĠáĬĲáįįáĪµ": 4643,
      "áĪĺáĪįáĬ¨áī»": 4644,
      "áĬĲáī³áī¸áĭįáĬķ": 4645,
      "áĬ«áī¸áĭį": 4646,
      "áĭĿáĪĿ": 4647,
      "ĠáĬłáĪĪáī½": 4648,
      "áĮĵáĭĻ": 4649,
      "ĠáĪĦáĭ±": 4650,
      "ĠáĪĺáĪŃáĪĢ": 4651,
      "ĠáĬ¥áī£áĬŃáĭİ": 4652,
      "ĠáĬ¥áĭ¨áĮ¨áĪĺáĪ¨": 4653,
      "Ġáĭ¨áĪľ": 4654,
      "ĠáĭŃáĭ°áĭįáĪī": 4655,
      "ĠáĬ¥áĬķáĭ²áĪ°áĪĽ": 4656,
      "ĠáĪĪáĪĽáĮĪáĪįáĮĪáĪį": 4657,
      "áĪŃáĭ«áĪĿ": 4658,
      "Ġáĭ³áĬķáĬ¤áĪį": 4659,
      "ĠáīłáĪľ": 4660,
      "ĠáĪĪáįį": 4661,
      "ĠáĬ¡": 4662,
      "áĪµáĬ®": 4663,
      "áĪĪáĪŃ": 4664,
      "ĠáĬ¨áĮł": 4665,
      "áī±áĬĵ": 4666,
      "ĠáĬłáĬķáīº": 4667,
      "Ġáĭ«áĪµáįĪáĪįáĮį": 4668,
      "ĠáĬłáĭŃáĭ°áĪĪáĪģ": 4669,
      "ĠáĬłáīħáĬļ": 4670,
      "ĠáĭŃáĪ°áĪĽáĬĽáĪį": 4671,
      "ĠáĮģ": 4672,
      "áĬĸáī¹": 4673,
      "ĠáĪįáĬĵ": 4674,
      "ĠáīµáĪĭáĪįáīħ": 4675,
      "ĠáĪ°áĪĪáĪŀáĬķ": 4676,
      "áĪ«áĪ¨áī¥": 4677,
      "ĠáĭŃáĪģáĬĳ": 4678,
      "Ġáĭ«áĪµáī³áĭį": 4679,
      "áĮ¨áĪĺáĪŃ": 4680,
      "ĠáĪĺáĮ¥áī°áĭį": 4681,
      "Ġáī³áĭįáīĥáĪĪáĪħ": 4682,
      "ĠáīłáĪ¬": 4683,
      "Ġáĭ¨áī°áĬĵáĮĪáĪ¨áĭį": 4684,
      "áĮĪáĪĪáįĢ": 4685,
      "ĠáĬłáĭįáī¶": 4686,
      "áĬĵáī¸áĭįáĪĿ": 4687,
      "ĠáĮĪáĬķáĭ³": 4688,
      "áĬ¸áĭį": 4689,
      "ĠáīłáĪĺáĬķáįĪáĪ³áĭĬ": 4690,
      "ĠáĪĽáĪ¨áįĬáĭ«": 4691,
      "áĪĺáĪĭáĪĪ": 4692,
      "ĠáĪħáĮī": 4693,
      "áĪįáĪµáĮ¤áĪĽáĭįáĭ«áĬķ": 4694,
      "áĮįáĪµáīµ": 4695,
      "ĠáĪĢáĮĪ": 4696,
      "Ġáĭ¨áĪļáĭ«áĪĿáĪŃ": 4697,
      "ĠáĮīáĭ³áĭ®áī½áĬķ": 4698,
      "Ġáī£áĪħáĪªáĭ«áīµ": 4699,
      "áĪĿáĪµ": 4700,
      "áī¥áĪį": 4701,
      "áĪĽáī¸áĭįáĬķ": 4702,
      "Ġáī°áĪ°áĪĽ": 4703,
      "áĮĤáī³áĪį": 4704,
      "áĪ°áīłáĪ°áī¡": 4705,
      "áĭ°áīł": 4706,
      "ĠáĪĽáĪ¨áĮĭáĮĪáĮ¥": 4707,
      "ĠáĬ¥áĬķáĭ²áĬĸáĪŃ": 4708,
      "ĠáĬ¤áĪŃáĪĿáĭ«áĪµ": 4709,
      "ĠáīłáĬ¢áĭ¨áĪ±áĪµ": 4710,
      "áĪ®áĬķáī¶áĪµ": 4711,
      "ĠáĬ¥áĪħáīµ": 4712,
      "Ġáįİáī¶áĮįáĪ«": 4713,
      "ĠáĭĮ": 4714,
      "áĪĿáĪĪ": 4715,
      "Ġáĭ¨áī´áĬŃ": 4716,
      "ĠáĪĪáī¤áī°": 4717,
      "áĮłáĬĲ": 4718,
      "áĮłáĭĭáĪį": 4719,
      "áĬ«áĪŃ": 4720,
      "ĠáĪĪáĪĽáĪ»áĪ»áĪį": 4721,
      "ĠáįħáįıáĪį": 4722,
      "ĠáĪĽáĪħáīłáĪŃ": 4723,
      "ĠáĮĪáĭ°áī¥": 4724,
      "ĠáĪĺáĭµáĪ¨áĬŃ": 4725,
      "Ġáĭ¨áĭĽ": 4726,
      "Ġáĭ¨áĮŃ": 4727,
      "Ġáī°áĮĪáĬĿ": 4728,
      "ĠáĮłáĭĭáīµ": 4729,
      "Ġáĭ¨áī°áī£áĪĪáĭį": 4730,
      "Ġáī°áįĪáįĥáĪļ": 4731,
      "ĠáĪ°áĭŃáįį": 4732,
      "ĠáĪįáĮģáĬķ": 4733,
      "ĠáĬłáĪ³áĪįáįİ": 4734,
      "Ġáīłáĭ¨áĬłáĪĺáī±": 4735,
      "ĠáįĪáĪį": 4736,
      "ĠáĬłáįķ": 4737,
      "áĪŀáī¹": 4738,
      "ĠáĬŃáĪ¬": 4739,
      "ĠáįįáĮ¥áĪ¨": 4740,
      "áĬķáī°áĬķ": 4741,
      "ĠáĬ¥áĬķáĭ°áĪļáĭ«áĪ³": 4742,
      "ĠáĭŃáĬĵáĮĪáĪ«áĪī": 4743,
      "Ġáĭ¨áĬĲáīłáĪ©áīµáĬķ": 4744,
      "Ġáĭ¨áī°áĪ»": 4745,
      "áĪĻáĪµ": 4746,
      "ĠáĪŃáĬ©áĪµ": 4747,
      "ĠáĪµáī¥áĪ°áī£áĭİáī½": 4748,
      "ĠáīĢáĮ¥áĪİ": 4749,
      "ĠáĬĴáĭį": 4750,
      "ĠáĪ½áĪįáĪĽáīµ": 4751,
      "áĪŃáĭ³áĬĸáĪµ": 4752,
      "áĮįáĪĿ": 4753,
      "áĪ«áĪª": 4754,
      "áī£áīłáĪŃ": 4755,
      "Ġáī°áīĭáĪĿ": 4756,
      "ĠáĬ¥áĬķáĭ²áĭ«áĭ°áĪŃáĮī": 4757,
      "ĠáīłáīµáĬ¥": 4758,
      "ĠáĪĪáĪµáĪĭáĪ³": 4759,
      "áĬķáįĢáī£áĪ¨": 4760,
      "ĠáĬ¥áĪ«": 4761,
      "ĠáĮ®": 4762,
      "áĭ°áĭ±": 4763,
      "ĠáĬ¨áĭĺ": 4764,
      "ĠáĭĭáĬĵáĭį": 4765,
      "ĠáīµáĬ©áĪ¨": 4766,
      "ĠáĮĨáĪ®": 4767,
      "Ġáĭ«áĭ°áĪ¨áĮį": 4768,
      "ĠáĪĺáĪµáĬŃ": 4769,
      "Ġáī½áĪĭ": 4770,
      "áĪĿáĪ¨áĭį": 4771,
      "ĠáĬ¥áĭ³": 4772,
      "áĪ¨áĮ¡": 4773,
      "Ġáī¥áīħ": 4774,
      "ĠáĭŃáĪ°áĮ£áĪī": 4775,
      "ĠáīłáĮİáī½": 4776,
      "áĪĿáĬĳ": 4777,
      "áĪ¨áĬ¨": 4778,
      "áĪ³áĪ½": 4779,
      "ĠáīłáĪĺáĬķáĮįáĪµáīµ": 4780,
      "áĭĺáĮĭáĮĥ": 4781,
      "áĬĲáī¶áī½áĬķ": 4782,
      "áĪ½áĬĵ": 4783,
      "Ġáĭ¨áĬłáĭį": 4784,
      "Ġáĭ«áĪµáįĪáĪįáĮĪ": 4785,
      "Ġáī¡áĬĵ": 4786,
      "áĭįáīĥáĪĪáĬķ": 4787,
      "ĠáĭĪáĮ¥áī¶": 4788,
      "áĪ½áĬ¨áĪŃáĬ«áĪª": 4789,
      "ĠáĬ¨áĮĪ": 4790,
      "ĠáįĨ": 4791,
      "ĠáĪĪáĪĺáĬ¨áĪĭáĬ¨áĪį": 4792,
      "ĠáīĢáĬĿ": 4793,
      "áĪĻáĬĵ": 4794,
      "ĠáĪģáĪĪáī°áĬĽáĭį": 4795,
      "ĠáĪĺáīĢáīłáĪį": 4796,
      "ĠáĭŃáĪĦáĭ³áĪį": 4797,
      "ĠáĬ¨áĭ¨áīµ": 4798,
      "áĭĭáĭĪáīħ": 4799,
      "ĠáĮłáįį": 4800,
      "áīłáĪ¨áĪ°áī¥": 4801,
      "áĭįáĭ«áĬķáĬķ": 4802,
      "áĮ®áī½áĬķ": 4803,
      "Ġáĭ¨áī°áĪĪáĪĺáĭ°": 4804,
      "áī¥áĪ¨áī°": 4805,
      "ĠáĬłáĭŃáĭ°áĪĪáĪģáĪĿ": 4806,
      "áĪĿáĪ¯áĪį": 4807,
      "áĪ³áī¢": 4808,
      "ĠáīµáĬĵáĬķáĪ½": 4809,
      "ĠáĭĺáĪĺáĬĵáĭĬ": 4810,
      "Ġáĭ¨áĬ¥áĬķ": 4811,
      "áĪ°áĮłáĬķ": 4812,
      "áĭ·áī¸áĭį": 4813,
      "Ġáĭ¨áĬŃáĪŃáĪµáī¶áĪµ": 4814,
      "áĭĭáĭĭáĮŃ": 4815,
      "Ġáīį": 4816,
      "áĪĿáĪµáīµ": 4817,
      "áĬ«áĪļ": 4818,
      "ĠáĬłáĪµáįĪáįĥáĪļ": 4819,
      "ĠáĬªáĪİ": 4820,
      "áĮłáī¥áīģ": 4821,
      "ĠáĬłáĭ°áĪ¨áĮį": 4822,
      "áĭ°áĪ©": 4823,
      "ĠáĪĭáĪī": 4824,
      "Ġáī¥áī³": 4825,
      "áĭĪáĪ°áĭµ": 4826,
      "ĠáĮĪáĪįáįĢáĭĭáĪį": 4827,
      "ĠáīħáĭµáĪĺ": 4828,
      "Ġáĭ¨áįĨáī³": 4829,
      "Ġáīłáįĵ": 4830,
      "áĪħáīµáĬĵ": 4831,
      "Ġáĭ«áīĢ": 4832,
      "ĠáĪĪáĪĺáĪ¸": 4833,
      "ĠáĬ«áĪŃáĭµ": 4834,
      "Ġáī£áĪĪáĪĺ": 4835,
      "ĠáĪ½áįĭáĬķ": 4836,
      "Ġáĭ¨áĮĪáĭĽ": 4837,
      "Ġáĭ¨áĮĪáīłáĭ«": 4838,
      "áįĪáįħáĪĿ": 4839,
      "áĪŃáĬĵ": 4840,
      "ĠáĬ¥áĪº": 4841,
      "áĪµáĪĽ": 4842,
      "ĠáĪĽáī¥": 4843,
      "Ġáĭ¨áī°áĪ¸": 4844,
      "ĠáĮ¥áīħáĪµ": 4845,
      "ĠáīģáĪ³áīģ": 4846,
      "ĠáĪĽáĬ¥áĬ¨": 4847,
      "Ġáĭ¨áĪ»": 4848,
      "ĠáĬĲáī¢áĭ«": 4849,
      "ĠáĪ³áĮ¥áĬķ": 4850,
      "ĠáĬłáīħáĪ«áī¢áĭ«": 4851,
      "áĬ©áīłáīµ": 4852,
      "áĮİáĭ³": 4853,
      "áįĥáĪį": 4854,
      "ĠáīłáĪĽáĪµáī°": 4855,
      "áĮ¦áī½áĬķ": 4856,
      "ĠáĬłáĪµáī°áĪĽáĪĽáĬĿ": 4857,
      "ĠáĮĢáĪĺáĪ©": 4858,
      "ĠáĬłáĭ³áĪĿ": 4859,
      "ĠáīłáĬķ": 4860,
      "ĠáĬłáįħ": 4861,
      "ĠáĭŃáĭ°áĪŃ": 4862,
      "ĠáĪĪáī³": 4863,
      "ĠáĪĪáĪĺáĬĸáĪŃ": 4864,
      "ĠáĬłáĪµáī¥": 4865,
      "Ġáĭ¨áĬłáĮĪáĪįáĮįáĪİáīµ": 4866,
      "ĠáĬķáĮ¥áĪ¨": 4867,
      "áĭ´áĪ«áĪį": 4868,
      "Ġáĭ¨áīµáĭ³áĪŃ": 4869,
      "ĠáĪµáĪĿáĪĿ": 4870,
      "Ġáī°áĮįáī£áĪ«áīµ": 4871,
      "ĠáĪĺáĪĪáĪ°": 4872,
      "ĠáĭŃáĬĸáĪ¨áĭĭáĪį": 4873,
      "Ġáįĥáĭµáīħ": 4874,
      "áĪŀáĬŃáĪ«áĪ²áĭ«áĭĬ": 4875,
      "ĠáĪĪáī£": 4876,
      "Ġáĭ¨áĪĺáī°": 4877,
      "ĠáĪĨáĬľ": 4878,
      "ĠáįĸáĪĪáī²áĬ«": 4879,
      "Ġáĭ¨áĭ°áĪħáĬķáĬĲáīµ": 4880,
      "áīĢáĬķ": 4881,
      "Ġáĭ¨áī°áĬ¨": 4882,
      "ĠáĪĪáĪĺáĪ¨áĭ³áīµ": 4883,
      "ĠáĮĵáĭ°áĬŀáī½": 4884,
      "ĠáĭµáĬķáĬ³áĬĳ": 4885,
      "áĬ«áĭ®áī½": 4886,
      "ĠáĮ¥áīĥ": 4887,
      "ĠáĮ«áįį": 4888,
      "ĠáīłáįĮ": 4889,
      "Ġáī¥áĬķ": 4890,
      "ĠáĪįáĮ¥áįį": 4891,
      "Ġáĭ¨áĬ¥áĪĿáĬĲáīµ": 4892,
      "Ġáĭ¨áĭĪáĬķáĭµ": 4893,
      "ĠáįķáĪ®áįĮ": 4894,
      "ĠáĪµáĪĭáĪĪáĭį": 4895,
      "ĠáĪĺáīħáĭ°áĪµ": 4896,
      "áĬĲáĭĺ": 4897,
      "áįįáĪªáĬ«": 4898,
      "áĪŁáĪĭáīµ": 4899,
      "ĠáĪĿáĪµáĪ«áī½": 4900,
      "Ġáī°áīĥáĭįáĪŀ": 4901,
      "ĠáĬłáĪµáĮĪ": 4902,
      "Ġáĭ¨áĬłáĭŃ": 4903,
      "ĠáĬłáĬĲáĪ³": 4904,
      "áĪĽáĪµ": 4905,
      "ĠáĪ°áĬĶ": 4906,
      "áĪ®áĭį": 4907,
      "Ġáĭ¨áī°áĬĲ": 4908,
      "ĠáĭŃáĪħáī½": 4909,
      "Ġáī³áĪĽáĬĿáĬĲáīµ": 4910,
      "ĠáĪĺáĮįáī£áīµ": 4911,
      "ĠáĭĺáĭŃáī¤": 4912,
      "Ġáĭ¨áĭľ": 4913,
      "ĠáĬłáĭŃáĪĺáĪµ": 4914,
      "Ġáĭ¨áĪļáĭ«áĪ°": 4915,
      "ĠáĬ«áĪĭ": 4916,
      "áįĵáĬķ": 4917,
      "áĬķáĭİ": 4918,
      "Ġáĭ¨áī°áĪ¨": 4919,
      "áĪ°áī¥áĪ°áī¥": 4920,
      "ĠáĬłáĪĽáĪ«áĮ®áī½": 4921,
      "ĠáīµáĬŃáĬŃáĪĪáĬĽáĭįáĬķ": 4922,
      "Ġáīłáīĥ": 4923,
      "ĠáĪĪáĪ«": 4924,
      "Ġáĭ¨áī°áĭ«áĭ«áĭĻ": 4925,
      "ĠáĪĺáīħáĭ°áĪ±": 4926,
      "áĭįáĭ«áĬĳ": 4927,
      "áĪĿáįħ": 4928,
      "Ġáī°áĪ°áī¥": 4929,
      "áįĪáĪįáĮĭáī¸áĭį": 4930,
      "ĠáĬ¥áĮįáĭļáĬłáī¥áĪĦáĪŃáĬķ": 4931,
      "Ġáĭ¨áĪĮáĪĭáī¸áĭį": 4932,
      "ĠáĭµáĬķáĬ³áĬķ": 4933,
      "ĠáĬ¨áĬķáī±": 4934,
      "ĠáīłáĪī": 4935,
      "Ġáĭ«áĪ°": 4936,
      "ĠáĪ°áĭİáī¹": 4937,
      "áīĥáĬķ": 4938,
      "áī»áĪĪáĭį": 4939,
      "Ġáīłáī°áĭ°áĮĭáĮĭáĪļ": 4940,
      "Ġáĭ¨áĬ¥áĮħ": 4941,
      "ĠáĬ¨áĪĺáĮłáĬķ": 4942,
      "áĭĪáĪ°áĭ±": 4943,
      "ĠáĬ¥áĮ£": 4944,
      "ĠáĬ¥áĪħáĪį": 4945,
      "ĠáīłáĪŀáīµ": 4946,
      "ĠáĬ¥áĬĵáĭįáīĥáĪĪáĬķ": 4947,
      "áĪİáĮį": 4948,
      "ĠáĭĿáĬĵáī¥": 4949,
      "ĠáĪĪáĬ¥áĪµáĪ«áĬ¤áĪį": 4950,
      "Ġáĭ«áĪµáĭ°": 4951,
      "ĠáīłáĮ¥áĬķáīĥáīĦ": 4952,
      "ĠáīģáĪŃáĮ¥": 4953,
      "Ġáī°áĪįáĬ¥áĬ®": 4954,
      "áĬĲáī´": 4955,
      "áĬĲáī³áī½áĬķ": 4956,
      "Ġáĭ¨áĭļáĪħáĬķ": 4957,
      "ĠáīłáĪĺáĪĿ": 4958,
      "ĠáĬĵáī½áĪģ": 4959,
      "áī£áī¢áĪİáĬķ": 4960,
      "ĠáĪ³áĭŃáīĨáĭŃ": 4961,
      "ĠáĪĽáĪµáĮłáĬķáīĢáīĤáĭ«": 4962,
      "ĠáĪĺáĪĪáĪµ": 4963,
      "ĠáĬ¥áĬķáīħáĪµáīĥáĪ´áĭİáī½": 4964,
      "ĠáĭŃáĪ¨áĭ³áĬĵáĪį": 4965,
      "ĠáįķáĪ¬áĭĿ": 4966,
      "Ġáĭ¨áī¤": 4967,
      "ĠáĪĺáĪĺáĪįáĬ¨áīµ": 4968,
      "ĠáĪĪáĪģáĪĪáīµ": 4969,
      "ĠáĬłáĪĽáĪįáĬŃáīµ": 4970,
      "Ġáĭ¨áĪĽáĭŃáī³": 4971,
      "Ġáĭ¨áĪĢáĭŃáĪį": 4972,
      "ĠáįįáĪĭáĮİáī¶áī½": 4973,
      "ĠáĬŃáĪµáī°áīµ": 4974,
      "Ġáīłáĭ²": 4975,
      "áĪĪáĪµ": 4976,
      "ĠáĪĿáĬĵ": 4977,
      "áĭ³áī¥": 4978,
      "áĮĢáĪŃáī£": 4979,
      "ĠáĭŃáĪ¨áĭ³áĪį": 4980,
      "ĠáĪĺáĪĺáĪĪáĪµ": 4981,
      "áĪ¨áĪĿáīµ": 4982,
      "ĠáĭŃáĪĭ": 4983,
      "áĮĭáĮĪáī¥": 4984,
      "ĠáĬłáĪµáįĢáĭ«áįĬ": 4985,
      "ĠáīłáĬłáĬķáĭ³áĬķáĭµ": 4986,
      "áĮĪáĪįáįħ": 4987,
      "ĠáĬ¥áĬĶáĬĵ": 4988,
      "áĬ¦áīµ": 4989,
      "ĠáīħáĭµáĪļáĭ«": 4990,
      "ĠáĮłáĪ¨áĮ´áĭĽ": 4991,
      "áī½áĪĪáĭįáĬķ": 4992,
      "áĭŃáĭµ": 4993,
      "ĠáĭŃáĮłáīĢ": 4994,
      "áĬŃáĪĭ": 4995,
      "áĮłáĬĽ": 4996,
      "ĠáĪĪáĪĺáĭ«áĭĿ": 4997,
      "ĠáīłáĪļáĪį": 4998,
      "áĮ«áĬķ": 4999,
      "ĠĠĠĠĠ": 5000,
      "áĬĲáī°áĬĽáĭį": 5001,
      "áĪ°áĬŀ": 5002,
      "áĪĨáĬķáĬŃ": 5003,
      "ĠáĮ¨áĪĪáĪĽ": 5004,
      "ĠáĪ³áĭŃáĬķáĪµ": 5005,
      "Ġáī¥áĪŃáī±": 5006,
      "ĠáĪļáĬĴáĪµáī´áĪŃ": 5007,
      "ĠáīłáĪ©": 5008,
      "áĭŃáĭĻ": 5009,
      "áĪ³áĪ³": 5010,
      "áī½áĪģáīµ": 5011,
      "ĠáĬłáĪĺáī³áĭĬ": 5012,
      "áĬ³áĬķáĬķ": 5013,
      "ĠáĮ¨áĪ¨": 5014,
      "ĠáĪĺáĭįáĮ£áīµ": 5015,
      "ĠáĬłáĭ°áĮĪáĬĽ": 5016,
      "ĠáĮįáĬķáī£áī³": 5017,
      "áĭ°áĬĿáĬĲáīµ": 5018,
      "Ġáĭ¨áĪļáĬĸáĪŃ": 5019,
      "ĠáīłáĪĺáī³": 5020,
      "ĠáĪĪáĪĺáĮĢáĪĺáĪŃ": 5021,
      "ĠáįĢáĮīáĪŃ": 5022,
      "ĠáĬĲáĮĭáĭ´": 5023,
      "áįĳ": 5024,
      "áĬĲáĪ±áĪĿ": 5025,
      "ĠáĭŃáĭĪáĮ£": 5026,
      "áĭ¨áĭįáĬķ": 5027,
      "Ġáĭ°áĬ«áĪĽ": 5028,
      "áī»áĪī": 5029,
      "ĠáĮįáĬķáī£áĪŃ": 5030,
      "Ġáī¤áī±áĬķ": 5031,
      "áĮ¦áĪŃáĬĲáīµ": 5032,
      "áĮłáīĢáĪĿáīłáīµ": 5033,
      "áĮłáĪ«áĭį": 5034,
      "ĠáĮįáī¥áĭ£": 5035,
      "ĠáĪĪáĪĺáĮįáĭĽáīµ": 5036,
      "Ġáĭ³áĭĬáīµáĪĿ": 5037,
      "ĠáĬłáĪ¨áĬķáĮĵáĭ´": 5038,
      "ĠáĬ¥áĬķáĭ²áĭ«áĪµ": 5039,
      "Ġáĭ¨áĬ¥áĪ±áĬķ": 5040,
      "áĬĲáī°áĬĽ": 5041,
      "áįįáĬĵ": 5042,
      "áĪ»áĪ½": 5043,
      "ĠáĪĬáī³": 5044,
      "ĠáĪ«áĪ´áĬķ": 5045,
      "áĬ¨áīµáĪį": 5046,
      "Ġáī°áīĥáĭĭ": 5047,
      "áĪŃáĬ©": 5048,
      "áī¥áī¥áĪŃ": 5049,
      "ĠáĮ¥áįĭ": 5050,
      "ĠáĪĪáĬ¥áĮįáĭļáĬłáī¥áĪĦáĪŃ": 5051,
      "Ġáīłáĭ°áī¡áī¥": 5052,
      "ĠáĭŃáĬĸáĪŃáīłáī³áĪį": 5053,
      "ĠáĪĪáĪħáĭĿáī¡": 5054,
      "Ġáĭ¨áĪĺáĮ¨áĪ¨áĪ»áĭį": 5055,
      "Ġáĭ¨áĪ¨": 5056,
      "ĠáĪįáī¦": 5057,
      "áįĭáī¸áĭį": 5058,
      "ĠáĮĪáĪĭ": 5059,
      "áĭ°áĬķáīħ": 5060,
      "ĠáĪĪáĪĺáīĢáīłáĪį": 5061,
      "Ġáīłáī¢": 5062,
      "ĠáĬ¨áīĨ": 5063,
      "ĠáīłáĬłáĭ²áĪµ": 5064,
      "ĠáīĥáĪĪ": 5065,
      "ĠáĮįáĪĪáĪ°áī¦áī½": 5066,
      "Ġáĭ±áīĦ": 5067,
      "ĠáĪĺáĮ¨áĪĺáĪŃ": 5068,
      "ĠáĬŃáī¥áĭ°áīµ": 5069,
      "áĭ°áī£": 5070,
      "áī¶áī¼": 5071,
      "Ġáĭįáī¥": 5072,
      "ĠáĮįáĪŃ": 5073,
      "áĪªáĭ«áĭİáī½": 5074,
      "áĪĿáĪĭáĬ«": 5075,
      "Ġáĭ¨áĭĺáĪĭáĪĪáĪĿ": 5076,
      "áĬķáī£áĪĮ": 5077,
      "ĠáĬ¥áĭ«áĬķáĭ³áĬķáĭ³áī¸áĭį": 5078,
      "ĠáīµáĬĵ": 5079,
      "áĬ®áĪį": 5080,
      "ĠáĪĻáīĢáīµ": 5081,
      "ĠáĭĿáĪŃáĭ«": 5082,
      "ĠáĬ¥áĬĲáĭļáĭ«áĬķ": 5083,
      "Ġáī¥áī¸áĬĽáĭį": 5084,
      "ĠáīłáĬłáī¥áĭĽáĬĽáĭį": 5085,
      "Ġáī°áĪ³áīµ": 5086,
      "áĬĸáĪ¨áĬķ": 5087,
      "áĪŀáĬŃáĪŃ": 5088,
      "Ġáī°áĪĺáĪ«": 5089,
      "áĬĵáĮĪáĪ¨áĭįáĬķ": 5090,
      "ĠáĬłáĪ¸áĬĵáįĬ": 5091,
      "ĠáĬłáĭŃáĮĪáī£áĪĿ": 5092,
      "ĠáĪĺáĪµáĪ«": 5093,
      "ĠáĭŃáī³áĭĪ": 5094,
      "ĠáĪĪáĪĺáĪĺáĪĪáĪµ": 5095,
      "ĠáĭĿáĬķáī£áĪĮ": 5096,
      "áĪĺáĮ£áĪī": 5097,
      "ĠáīħáĪŃáįħ": 5098,
      "Ġáĭ°áĪħáĬķáĬĲáī±": 5099,
      "ĠáĬ¥áīµáĪĿ": 5100,
      "ĠáīłáĮĭ": 5101,
      "áĪĺáī³áīµ": 5102,
      "áĮĪáĪĺ": 5103,
      "áĬĲáīłáī¥": 5104,
      "áįĪáīĢáĭ°": 5105,
      "áĬ¨áĪ°áīµ": 5106,
      "ĠáĮįáĬķáī¥": 5107,
      "áĮİáīł": 5108,
      "ĠáĬ¦áĪŃ": 5109,
      "Ġáĭ²áĭ«": 5110,
      "ĠáĪĤáĭµ": 5111,
      "áĪĤáĭ±": 5112,
      "ĠáĭĺáĪŃáįį": 5113,
      "ĠáĪĺáĪĭáĬ¥áĬŃáīµ": 5114,
      "Ġáĭ¨áĪģáĪĪ": 5115,
      "ĠáĬ¥áĪĺ": 5116,
      "áĪ«áĪļ": 5117,
      "Ġáĭ«áīĢáĪ¨": 5118,
      "áĭĪáĪ©": 5119,
      "ĠáĬłáĪµáĪĺáĪį": 5120,
      "ĠáĪĻáĭ«": 5121,
      "ĠáĮ£áĪį": 5122,
      "Ġáĭ¨áĭĪáĭ°áįĬáīµ": 5123,
      "ĠáĪµáĬŃ": 5124,
      "Ġáīłáī³áĪĭáīħ": 5125,
      "Ġáĭ¨áī°áī£áĪĪ": 5126,
      "ĠáĬ¥áĭ«áĬķáĭ³áĬķáĭ±áĬķ": 5127,
      "ĠáĬ¥áīħ": 5128,
      "ĠáĪĪáĬŃ": 5129,
      "Ġáĭ¨áĪļáī£áĪį": 5130,
      "áī¶áī»áī½áĪģ": 5131,
      "Ġáĭ°áĪĺáĬĵ": 5132,
      "ĠáĬ¤áĬķ": 5133,
      "ĠáĪĺáĪµáĪĽáīµ": 5134,
      "Ġáĭ¨áī³áĭĪáīĢ": 5135,
      "áĪĮáĬŃáīµáĪ®": 5136,
      "ĠáīłáĮŃáĪ«áĪ½": 5137,
      "Ġáīħáĭ³áĪľáĬĵ": 5138,
      "ĠáĮ©áĬ¸": 5139,
      "Ġáĭ¨áĬª": 5140,
      "áīĢáĭ±": 5141,
      "ĠáīĢáĪ¨": 5142,
      "ĠáĮ¥áĬĵáī¶áī½": 5143,
      "ĠáĬĲáĮłáĪĭ": 5144,
      "ĠáĮįáĭĽ": 5145,
      "áĬŀáī¹áĬķ": 5146,
      "áĪĺáĪĪáĬ¨": 5147,
      "áįķáī´": 5148,
      "áįģáĬķ": 5149,
      "áīłáĪ¨áī³áī³": 5150,
      "Ġáĭ¨áĪ´": 5151,
      "áĪ¨áĮł": 5152,
      "áįįáĭ«": 5153,
      "ĠáĪĪáĪĺáĪĦáĭµ": 5154,
      "ĠáĪĪáĪĺáĭµáĪ¨áĪµ": 5155,
      "ĠáĪ²áĪĺáĮ£": 5156,
      "áĪĿáĬķáī±": 5157,
      "ĠáīłáĪĿáĭµáĪ¨": 5158,
      "ĠáīĨáĪ»áĪ»": 5159,
      "áĭŀáī½": 5160,
      "ĠáĪĪáĭįáĮ¦áī½": 5161,
      "Ġáī£áĪįáĭ°áĪ¨": 5162,
      "Ġáĭ¨áĪļáĮĪáĪįáįħ": 5163,
      "Ġáĭ¨áĮĬáĭľ": 5164,
      "ĠáĬłáĪıáī¸áĭį": 5165,
      "ĠáĭŃáĪ»": 5166,
      "áĮ¥áīħ": 5167,
      "Ġáĭ¨áī°áĪĺáĪ¨": 5168,
      "Ġáĭ¨áī°áĭĺáĮĭáĮĢ": 5169,
      "ĠáīłáĬłáĪĽ": 5170,
      "ĠáĭĪáīħáī³áĭĬ": 5171,
      "Ġáĭ¨áīª": 5172,
      "áĪįáĪĢáĪį": 5173,
      "áįĭáĭŃ": 5174,
      "áĮ¨áĬĲ": 5175,
      "áī´áĮĤ": 5176,
      "ĠáīłáīµáĪĿáĪħáĪŃáīµ": 5177,
      "áĮłáĬĵáĬ¨áĪŃ": 5178,
      "ĠáĮ¥áīħáĪį": 5179,
      "Ġáī´áĬŃáĬĴ": 5180,
      "áĬķáī°áĪŃáĬĶáīµ": 5181,
      "ĠáĪļáĬĴáĪµáīµáĪŃ": 5182,
      "ĠáĭŃáĮį": 5183,
      "áĮłáĪ©áīµ": 5184,
      "ĠáĬ¥áĬķáĭ³áĪĭáī¸áĭį": 5185,
      "ĠáĬłáĪįáĮĭ": 5186,
      "Ġáī¥áĭĻáĭİáī¹": 5187,
      "áĪ¶áĬķ": 5188,
      "ĠáĬ¨áĪĨáĬĲáĭį": 5189,
      "áĬķáĭ°áĬķ": 5190,
      "ĠáĮįáĪĪáĪ°áī¥": 5191,
      "Ġáĭ¨áįĭáĭŃáĬĵáĬķáĪµ": 5192,
      "áĬķáĮİ": 5193,
      "ĠáĮįáĭĻ": 5194,
      "ĠáĪ²áĬĵáĮĪáĪŃ": 5195,
      "Ġáĭµáī¥": 5196,
      "Ġáĭ³áī¦": 5197,
      "Ġáĭ¨áĪ°áĮłáĭį": 5198,
      "ĠáĬ®áĭµ": 5199,
      "áĬŃáĪįáĪī": 5200,
      "áĬĭáī¸áĭį": 5201,
      "áĪħáĬĲáīµ": 5202,
      "áĭĪáīµáĪŃ": 5203,
      "Ġáĭ¨áĪļáĪĺáĪ«": 5204,
      "ĠáĪĪáĬłáī£": 5205,
      "ĠáīµáĬķáĪ³áĬ¤": 5206,
      "áĮłáīĥáĪļ": 5207,
      "ĠáĪµáĪįáĬŃ": 5208,
      "ĠáĪĺáĪ³áĪªáĭ«áĭİáī½áĬķ": 5209,
      "Ġáĭ¨áĭŃáĪĨáĭĭáĬķ": 5210,
      "áĭĿáīĥáĭĽ": 5211,
      "áĪŃáĮ¥": 5212,
      "áĬ¨áīłáĪŃ": 5213,
      "Ġáĭ¨áĪļáĪĺáĪµ": 5214,
      "áĬ«áĭĬ": 5215,
      "áĭ¨áĪį": 5216,
      "Ġáī¥áĪ¨áīµ": 5217,
      "Ġáĭ°áīĤáīĥáĭİáī½": 5218,
      "áĪµáīµáĪ«áĪĬáĭ«": 5219,
      "áĪ¨áįįáīµ": 5220,
      "áī£áīł": 5221,
      "Ġáĭ¨áĪļáĪ°áĪ©": 5222,
      "áī½áĬķáĪĿ": 5223,
      "ĠáĪĪáĪĺáĭįáĪ°áĭµ": 5224,
      "áĪµáĪ«áīħ": 5225,
      "Ġáĭ¨áĪµáī¥": 5226,
      "Ġáī°áĭĪáĪĭ": 5227,
      "áĪĿáįĴáĭ©": 5228,
      "Ġáī°áĪĪáĭŃ": 5229,
      "ĠáĬ¨áĪ°áĪĽáĭŃ": 5230,
      "Ġáĭ²áĭĽáĭŃáĬķ": 5231,
      "áĭŃáĪĽáĬĸáīµ": 5232,
      "áĭµáĪµ": 5233,
      "áĬŃáīłáĪŃ": 5234,
      "áīĢáĭįáĬķ": 5235,
      "áī²áīµ": 5236,
      "ĠáĪĿáĬķáĮ®áī½": 5237,
      "ĠáĪĢáĪ³áī¦áī½áĬķ": 5238,
      "áĪĤáī¥": 5239,
      "ĠáĪĪáĪ°áĭİáī½": 5240,
      "áĪµáī¡áĬŃ": 5241,
      "Ġáĭ¨áĪļáĭĪáĪµ": 5242,
      "ĠáĪĿáĭĿáĮĪáī£": 5243,
      "ĠáĪ°áīħáĪį": 5244,
      "áĪŀáī±": 5245,
      "Ġáĭ¨áĬłáĬ¥áĪĿáĪ®": 5246,
      "ĠáīłáĪĽáĬķ": 5247,
      "áĪµáī°áĬŀáī½": 5248,
      "ĠáĪĢáĭŃáĪİáī½": 5249,
      "ĠáĪĺáīģ": 5250,
      "Ġáī°áĬĵáĮĪáĪ¨": 5251,
      "Ġáī°áĭĺáĮĭáĮħ": 5252,
      "ĠáĬłáĭŃáĬĸáĪŃáĪĿ": 5253,
      "ĠáĭĺáĪ®áī½": 5254,
      "ĠáĪĺáĪµáĪİ": 5255,
      "ĠáĪĺáī¥áī¶áī½": 5256,
      "ĠáĪĿáĬ¥áĪ«áī¥": 5257,
      "áįķáī´áĪĿáīłáĪŃ": 5258,
      "áĬķáīº": 5259,
      "Ġáīłáī¡": 5260,
      "ĠáīłáĭĪáĪŃ": 5261,
      "ĠáĪĺáīł": 5262,
      "ĠáĪĺáĭµ": 5263,
      "ĠáĪĺáĬĸáĪ©": 5264,
      "ĠáĮ¥áĬķáĬ«": 5265,
      "ĠáīłáĬłáĪľáĪªáĬ«": 5266,
      "áĪªáĭ«áĭį": 5267,
      "Ġáĭ¨áĬ¥áĪ³áīµ": 5268,
      "áī·áī¸áĭį": 5269,
      "áĪĺáĮ£áĮ£áĬĿ": 5270,
      "Ġáĭ¨áĪĤáĪ³áī¥": 5271,
      "ĠáĪĿáīµáĬŃ": 5272,
      "áĮ¥áĮ¥áĪŃ": 5273,
      "áĪ³áĪ«": 5274,
      "ĠáĬ¥áĬķáĭ°áĬĲáīłáĪ¨": 5275,
      "ĠáīłáĬłáīħ": 5276,
      "áĮĪáĪįáĮĭ": 5277,
      "ĠáĪªáįĲáī¥": 5278,
      "ĠáĭŃáĭĪáĪµáĭ³áĪį": 5279,
      "ĠáįķáĪ¬áĭļáĭ³áĬķáīµ": 5280,
      "ĠáĮ¥áīĤ": 5281,
      "ĠáīłáĪĺáĭ°": 5282,
      "ĠáĮŃáĪĿáĪŃ": 5283,
      "ĠáĬłáĮłáīĥáīĢáĪĿ": 5284,
      "ĠáīłáĬĴáĭį": 5285,
      "ĠáĬ¥áĮģáĬķ": 5286,
      "áĬĵáī¸áĭįáĬķ": 5287,
      "áīĥáĪ½": 5288,
      "Ġáī£áĬķáĬŃ": 5289,
      "ĠáĪĢáĪĿ": 5290,
      "ĠáĬłáĪĺáįħ": 5291,
      "Ġáĭ®áĬĵ": 5292,
      "ĠáĪĪáĭŃ": 5293,
      "áĮĭáī¢": 5294,
      "ĠáĬ¥áĬķáīģ": 5295,
      "ĠáĮłáĪŃ": 5296,
      "ĠáĪĿáĬŃáĪ®áī½": 5297,
      "áĮłáĬĵáīĢáīħ": 5298,
      "ĠáĪµáīµáĪį": 5299,
      "ĠáĮĢáĪĺáĪŃáĬ©": 5300,
      "Ġáī£áĪħáĪŃáĭŃ": 5301,
      "ĠáīłáĪĺáĬ«áĬ¨áĪĭáī¸áĭį": 5302,
      "ĠáįįáīµáĪħ": 5303,
      "Ġáĭ«áĪµáįĪáĪįáĮįáĭİáī³áĪį": 5304,
      "áīłáĭĽ": 5305,
      "áĪ°áĭ±": 5306,
      "ĠáĪµáĪĽ": 5307,
      "ĠáĪ°áĪ¨áĮĪ": 5308,
      "Ġáī£áĪĭáī¸áĭį": 5309,
      "Ġáĭ¨áĪļáĭ«áĭ°áĪŃáĮĪáĭį": 5310,
      "ĠáįĢáĪ¨": 5311,
      "áĪ·áĬķ": 5312,
      "ĠáĪ¶áĪµáī°áĬĽ": 5313,
      "ĠáĬ¥áĭįáĬĲáī°áĬĽáĭį": 5314,
      "ĠáĬ¥áĬķáīħáĪįáįį": 5315,
      "Ġáĭ¨áĭ°áĪĿ": 5316,
      "áĪįáĪĽ": 5317,
      "ĠáīłáĪ®": 5318,
      "áĪĪáĪ°áī¥": 5319,
      "áĪĢáĭµ": 5320,
      "áĪĮáĪĿ": 5321,
      "ĠáĬ¥áĬķáĮĢ": 5322,
      "Ġáī³áĭĽ": 5323,
      "áĪľáī³": 5324,
      "áĪµáī°áĬķ": 5325,
      "ĠáĬłáĪĿáī£": 5326,
      "áīĢáĪĺáĮł": 5327,
      "Ġáĭ©áĬĵáĭŃáīµáĭµ": 5328,
      "ĠáĪĢáĭŃáĪĽáĬĸáīµ": 5329,
      "ĠáĬłáĭµáĬĵáīĨáīµ": 5330,
      "Ġáĭ¨áĮ£": 5331,
      "ĠáĬłáĬķáĭ´": 5332,
      "áĮĪáĮĥ": 5333,
      "ĠáĪĺáĭ«áĭ£": 5334,
      "áī¶áī»áī¸áĭįáĬķ": 5335,
      "ĠáĪ¶áįįáīµ": 5336,
      "Ġáĭ²áĮįáĪª": 5337,
      "ĠáĮįáī¥áĭŃáīµ": 5338,
      "áĬ«áĪĦáĭ°": 5339,
      "Ġáĭ¨áĮł": 5340,
      "ĠáīłáĪº": 5341,
      "ĠáĬĲáįĭáĪµ": 5342,
      "ĠáĭĪáĪ¬": 5343,
      "ĠáĬ¥áĬĵáī´": 5344,
      "áĪ½áĬĸáī½": 5345,
      "ĠáīłáĬłáĭį": 5346,
      "ĠáĮįáī¥áįħ": 5347,
      "ĠáĭŃáīłáĪī": 5348,
      "áĪĺáĭĺáĮĪáī¡": 5349,
      "ĠáĪĺáīĢáĪĺáĮ«": 5350,
      "ĠáĪµáĪªáīµ": 5351,
      "Ġáĭ¨áĪļáīĢ": 5352,
      "ĠáĪĿáĪį": 5353,
      "ĠáĬłáĪįáī»áĪį": 5354,
      "ĠáīģáĪĿ": 5355,
      "ĠáĪĻáĪ´áĪĿ": 5356,
      "Ġáīłáī£áĪħáĪŃ": 5357,
      "ĠáĬ«áĪħáĬĳ": 5358,
      "áĪĿáĪ«": 5359,
      "Ġáĭ¨áĬķ": 5360,
      "ĠáĬ¥áĬ©": 5361,
      "áĪĭáĪĪáĬķ": 5362,
      "ĠáĪĺáīĭáīĭáĪĿ": 5363,
      "Ġáĭ¨áĪļáĬ¨áī°áĪĪáĭįáĬķ": 5364,
      "ĠáĬ¨áĪįáī¥": 5365,
      "ĠáĬ¤áĪįáĭ«áĪµ": 5366,
      "Ġáĭ¨áĬłáīµáĬŃáĪįáīµ": 5367,
      "áī³áĪ¨": 5368,
      "áĬ¥áĪĪáīµ": 5369,
      "ĠáĪ³áĬ¦": 5370,
      "ĠáĪ½áĭ«áĮŃ": 5371,
      "ĠáĪĪáĪĺáīĢáĬĲáĪµ": 5372,
      "ĠáīĢáĮ£áĭŃ": 5373,
      "Ġáĭ¨áĭµáĪŃáĮħ": 5374,
      "ĠáĬ¥áĪ°áĮ£": 5375,
      "ĠáĬłáĮ£": 5376,
      "áĮłáĮ¥": 5377,
      "áįĪáĪī": 5378,
      "ĠáĭįáĪį": 5379,
      "ĠáĬ¨áĬ¥áĪŃáĪµáĭİ": 5380,
      "ĠáĬłáĮĪáĪįáĮįáĪİáī¶áī½áĬķ": 5381,
      "ĠáĪĪáĪĺáįįáī³áīµ": 5382,
      "ĠáīłáĮĪáĭĽ": 5383,
      "ĠáĭŃáĪŀ": 5384,
      "áĬłáĭŃ": 5385,
      "áīĤáĬĿ": 5386,
      "ĠáĬ¥áĭįáĬĲáī³": 5387,
      "áĪ°áī¡áĬķ": 5388,
      "ĠáįħáĪģáįİáī½": 5389,
      "Ġáĭ¨áĬ¥áĪµáĪ«áĬ¤áĪįáĬķ": 5390,
      "Ġáĭ¨áĪļáĬ¨áī°áĪīáīµ": 5391,
      "ĠáĭĺáįįáĮ¥áĪ¨áīµ": 5392,
      "ĠáīłáĬĲáīłáĪ¨áīłáīµ": 5393,
      "ĠáĪĺáĬ«áĬ¨": 5394,
      "áĭ¨áĪģ": 5395,
      "Ġáĭ¨áī°áĪĺ": 5396,
      "ĠáĪĪáĪĺáĬŃ": 5397,
      "áĪľáīµ": 5398,
      "ĠáĪ«áĪµáĬķ": 5399,
      "ĠáĪŀáĬŃ": 5400,
      "ĠáĬłáī£áī±": 5401,
      "ĠáīłáĪĨ": 5402,
      "áĮĪáĮį": 5403,
      "Ġáĭ¨áĪļáĭ°áĪ¨áĮį": 5404,
      "Ġáĭ°áĪ«áĪ²": 5405,
      "áīĨáĭ¨áīµ": 5406,
      "áĭ¶áĪĿ": 5407,
      "Ġáī¦áĪŃáĪ³": 5408,
      "ĠáĬ¥áĬķáĭ²áĭ«áĮĪáĬĻ": 5409,
      "ĠáĪ°áĪĽáĭ«áĭĬ": 5410,
      "Ġáĭĺáĭ´áĭİáī½": 5411,
      "Ġáī°áĪ°áĪĿ": 5412,
      "Ġáĭ¨áĪļáĪĨáĬĲáĭį": 5413,
      "áįĭáĪŃ": 5414,
      "Ġáī³áĭ°áĪŃáĮĭ": 5415,
      "ĠáįĪáĮ¥": 5416,
      "ĠáĮīáĭµ": 5417,
      "ĠáīµáĪŃáįį": 5418,
      "ĠáĪ°áĮ¥áī·áĪį": 5419,
      "Ġáī°áĭ°áĪŃáĮİ": 5420,
      "ĠáĪĿáĭµáĪ¨": 5421,
      "ĠáĭįáĪµáī¥": 5422,
      "áĬ®áĪŃ": 5423,
      "áīĭáĪļ": 5424,
      "ĠáĮīáĭ³áĭ©áĬķ": 5425,
      "ĠáĬķáĮīáĪ±áĪĿ": 5426,
      "áĬĹáĬĹ": 5427,
      "Ġáī°áīĭáĪĽáīµ": 5428,
      "áĭįáĭ«áĬķáĪĿ": 5429,
      "ĠáīłáĪĺáĬķáĮĪáĭµ": 5430,
      "ĠáīłáĪĤ": 5431,
      "ĠáĬ¨áįĢ": 5432,
      "ĠáĭĪáĬª": 5433,
      "ĠáĪĪáĪĽáĪĪáīµ": 5434,
      "ĠáĬĲáĮĪáĪŃáĮįáĬķ": 5435,
      "Ġáĭ¨áĬ¥áĬĲáĭļáĪħ": 5436,
      "ĠáĮłáīłáīĥ": 5437,
      "ĠáįĪáĪª": 5438,
      "ĠáīłáĪ°áĪľáĬķ": 5439,
      "Ġáī°áĬĵáĮįáĪ«": 5440,
      "ĠáĪªáįĸáĪŃ": 5441,
      "ĠáīĭáĬķáīĭáĭİáī½": 5442,
      "áĪ³áī°áįį": 5443,
      "Ġáĭ¨áĬĽ": 5444,
      "áī½áīłáīµ": 5445,
      "ĠáĪĺáįĢ": 5446,
      "áĮįáĬĲáīµ": 5447,
      "ĠáĬ¥áĬķáĭĪ": 5448,
      "ĠáĮĪáĬĲáīµ": 5449,
      "áĪªáĬ«áĭĬ": 5450,
      "ĠáĮ¥áĭ«áīĦáĭİáī½áĬķ": 5451,
      "ĠáĭŃáĪįáīģáĬķáĪĿ": 5452,
      "áĪŃáī¥": 5453,
      "ĠáīłáĪ°áĪ«": 5454,
      "Ġáĭ¨áĪļáĪ¨áĭ±": 5455,
      "ĠáĬ¥áĬķáĭ³áĪīáīµ": 5456,
      "áĬķáĪµáĪ³áīµ": 5457,
      "Ġáī°áĮłáīĥáĪļáĭİáī½": 5458,
      "áĪĿáįĴáĭįáī°áĪŃ": 5459,
      "ĠáĬ¥áĮ©": 5460,
      "ĠáĬ¨áĪ¨": 5461,
      "ĠáĬ¥áĬķáĭ²áįĪ": 5462,
      "áĬ©áīµáĬķ": 5463,
      "Ġáĭ«áĪĪáĪĽ": 5464,
      "ĠáįķáĪĭ": 5465,
      "ĠáīħáĪŃáī¥": 5466,
      "Ġáĭ¨áĬ¥áĬĽáĬķ": 5467,
      "áĭµáĪĿ": 5468,
      "ĠáĪĪáĪµáĪ«": 5469,
      "ĠáĪµáĬ¬áīµ": 5470,
      "ĠáĪĨáĪµ": 5471,
      "Ġáī¦áĪŃáĭµ": 5472,
      "áĪĭáī½áĪģáĬķ": 5473,
      "ĠáĬ¨áī°áĪĽáĭĭ": 5474,
      "áĮĪáĬĽáĪĪáĬķ": 5475,
      "áĬĲáī³áī½áĬķáĬķ": 5476,
      "áī¥áĪİáĪµ": 5477,
      "áĪĽáĭį": 5478,
      "ĠáĪĪáĬ«": 5479,
      "Ġáī°áĭĺ": 5480,
      "Ġáī°áĬłáĪĿ": 5481,
      "ĠáĪĽáĮĪáĪįáĮĪáĪį": 5482,
      "ĠáīłáĬłáī£": 5483,
      "ĠáįĪáĪĪ": 5484,
      "Ġáī£áĪħáĪŃáĭ«áīµ": 5485,
      "áĪĿáĭµáĬĵ": 5486,
      "ĠáīłáĬŃáĪŃáĪµáī¶áĪµ": 5487,
      "ĠáĪµáĬ¬áī³áĪĽ": 5488,
      "áĪ°áĭĬáĭ«áĭį": 5489,
      "ĠáĪĺáĬ¨áī°áĪį": 5490,
      "áĭĪáĮ£áīµ": 5491,
      "Ġáĭ°áĪµáī°áĬŀáī½": 5492,
      "ĠáįįáĪĪáĮĭ": 5493,
      "ĠáĪ°áĭįáĭ¨áĭį": 5494,
      "ĠáĪħáĭĿáī¡áĪĿ": 5495,
      "ĠáĮĵáĭ°áĬŀ": 5496,
      "áĬķáĮĭ": 5497,
      "ĠáĪĺáĬĿáī³": 5498,
      "ĠáĭŃáĭŃ": 5499,
      "Ġáī°áĮį": 5500,
      "Ġáĭ¨áī°áĪ°áĮłáĭį": 5501,
      "áĪĦáĪ«áĭĬ": 5502,
      "ĠáĪĤáĪ³áī¥": 5503,
      "ĠáĪĺáĭĿáĬĵ": 5504,
      "ĠáĭŃáĬĸáĪ«áĪī": 5505,
      "ĠáĪĿáĪµáĪ«áī¹áĬķ": 5506,
      "ĠáĪĺáĪĿáĪ¨áĮ¥": 5507,
      "ĠáīµáĬĵáĬķáīµ": 5508,
      "Ġáĭ¨áĭµáĪŃ": 5509,
      "ĠáĪĪáĮį": 5510,
      "áĪĻáĪŃáīµ": 5511,
      "ĠáīĥáĪīáĬķ": 5512,
      "Ġáĭ«áĪĪáĬķáĬķ": 5513,
      "ĠáĭŃáĬĸáĪ©": 5514,
      "ĠáĪ°áĪĮ": 5515,
      "áĭįáĬķáĬĵ": 5516,
      "áĪĮáĬķ": 5517,
      "ĠáĬ«áĪ³": 5518,
      "áĮ«áĭİáī½": 5519,
      "áįĪáįĢáĪĺáĭį": 5520,
      "ĠáĭįáĮ¤áī¶áī½": 5521,
      "áĬķáĮĢáĪį": 5522,
      "ĠáĬ¢áĬķáī¨áĪµáīµ": 5523,
      "ĠáĬ¥áĪħáī¶áī½": 5524,
      "ĠáĮīáī¥áĬĿáīµ": 5525,
      "ĠáĬłáĪ»": 5526,
      "ĠáĬĲáĮį": 5527,
      "áĭİáīµáĬķ": 5528,
      "áĬ©áĬķ": 5529,
      "Ġáī³áī¦áīµ": 5530,
      "áĮĵáī¸áĭį": 5531,
      "áĮ¦áīµ": 5532,
      "Ġáīłáĭ¨áĬ¥": 5533,
      "Ġáĭ¨áįħáĪģáįį": 5534,
      "ĠáįįáīµáĪĢáĭĬ": 5535,
      "áīĥáĭĪáĪĿ": 5536,
      "áīĢáĪ³": 5537,
      "áĬ«áĭį": 5538,
      "áĬ«áįį": 5539,
      "áī±áĬķáĪĿ": 5540,
      "ĠáĪĪáĪĽáĪĿáĮ£áīµ": 5541,
      "ĠáįĪáĮ£áĪª": 5542,
      "ĠáīłáįįáīħáĪŃ": 5543,
      "áĬĲáĮĪáĪ¨": 5544,
      "ĠáĮĨáĪŃ": 5545,
      "ĠáĬ¨áĪĿáĭµáĪŃ": 5546,
      "ĠáĪĺáĭĽáĪĻáĪŃáīµ": 5547,
      "áĪĺáĮł": 5548,
      "Ġáĭ¨áĪļáĪ°áĮ¡": 5549,
      "Ġáī£áĭ¶": 5550,
      "áĮĨáī»áī¸áĭį": 5551,
      "áĬ¬áĪ½áĬķ": 5552,
      "ĠáĪĽáĪ³áĪ°áī¢áĭ«": 5553,
      "ĠáīµáĬ©áĪµ": 5554,
      "ĠáĬ¢áĬķáĪ¹áĪ«áĬķáĪµ": 5555,
      "ĠáīłáĮīáĮīáīµ": 5556,
      "áīµáĪĺáīµ": 5557,
      "ĠáĪ°áĬķ": 5558,
      "ĠáĪĺáĬķáĮĭ": 5559,
      "Ġáī¢áĪĬáĭ®áĬķ": 5560,
      "ĠáĬ¨áĪĺáĪµ": 5561,
      "ĠáĬ¥áĭįáĬĲáīµáĬķ": 5562,
      "Ġáĭ³áĭĬáīµáĬķ": 5563,
      "Ġáĭ¨áĪļáĮĪáī£áĭį": 5564,
      "ĠáīłáĬłáĭ²áĪ±": 5565,
      "Ġáĭ¨áĪĺáĬĸáĪªáĭ«": 5566,
      "ĠáĬķáĮĪ": 5567,
      "ĠáĪĽáĬŃáĪ°áĬŀ": 5568,
      "Ġáĭ¨áĮĮ": 5569,
      "ĠáĬ¥áĪĭáī½áĬĭáĪĪáĪģ": 5570,
      "áī°áĪ¨": 5571,
      "ĠáĪĪáĮĪ": 5572,
      "ĠáĪĪáĪģáĪĪ": 5573,
      "áī£áī¢áĭ«": 5574,
      "ĠáĬłáĪµáĬªáĭ«": 5575,
      "ĠáĬłáĭŃáĬĲáī±": 5576,
      "ĠáĬ¤áĪĬ": 5577,
      "áīłáĪįáĮ¡": 5578,
      "ĠáĬłáĪµáįĪáĪª": 5579,
      "ĠáĬ¥áĬķáĮįáĪĬáĭĿ": 5580,
      "áĪµáī²áĬŃ": 5581,
      "ĠáĬłáĪµáī³áĭįáĪµ": 5582,
      "Ġáĭ°áĪ¨áĪ°": 5583,
      "ĠáĬŃáĪŃáĬŃáĪŃ": 5584,
      "ĠáĪĽáīłáĪ¨áī³áī»": 5585,
      "ĠáĪĺáįĪáĪĪáĮį": 5586,
      "ĠáĬ¨áĪ°áĭį": 5587,
      "ĠáĪĪáĬĲ": 5588,
      "Ġáĭ«áĬĲáĮĭ": 5589,
      "ĠáĪĽáĭįáĮ£áīµ": 5590,
      "ĠáĬ¥áĬķáĭ²áīĢ": 5591,
      "Ġáī£áī¢": 5592,
      "ĠáĬłáĭŃáĬĲáī¶áī½": 5593,
      "áīĨáĪĻ": 5594,
      "áĪĬáĭ«áĬķ": 5595,
      "Ġáīłáī°áĪĪáĭ¨": 5596,
      "áįĪáįħáĪĻ": 5597,
      "ĠáĭŃáĪ°áĮ¥": 5598,
      "áĭµáĭµáĪŃ": 5599,
      "Ġáĭ¨áī°áĭĭ": 5600,
      "ĠáīłáĪĽáĪ°áī¥": 5601,
      "Ġáĭ«áĪµáīĢáĪĿ": 5602,
      "ĠáĪįáĪĽáĭµ": 5603,
      "ĠáĬłáĪµáĪĺáĪįáĬŃáī¶": 5604,
      "ĠáĪĺáįĪ": 5605,
      "ĠáĬĲáįĭ": 5606,
      "áĮ¥áĪĿ": 5607,
      "ĠáĬ«áĪĭáī¸áĭį": 5608,
      "ĠáīłáĪĿáĪŃ": 5609,
      "ĠáĮ¥áīħáĪŀáī½": 5610,
      "áĪĭáīĢáĪį": 5611,
      "Ġáī£áĪĪáī¤áī´": 5612,
      "ĠáīłáĪ°áĭŃáįį": 5613,
      "ĠáĭįáĪµáī¥áĪµáī¥": 5614,
      "Ġáī°áĬĵáĮįáĪ«áĪĪáī½": 5615,
      "áĮłáĪĿ": 5616,
      "Ġáĭ¨áī°áĮĪáĬĺ": 5617,
      "áĭ®áĪµ": 5618,
      "ĠáĪįáĮĨáī»áī½áĪģ": 5619,
      "Ġáī°áĪĺáĪįáĪ¶": 5620,
      "Ġáī°áĪĪáĭĭáĭĭáĮŃ": 5621,
      "ĠáīłáĭįáĪµáĮ¡": 5622,
      "ĠáĮįáĭµáĮįáĭ³": 5623,
      "ĠáĪĺáĪŀáĬ¨áĪŃ": 5624,
      "ĠáĪĪáĮī": 5625,
      "ĠáĪµáīĥáĭŃ": 5626,
      "áĬ«áĪªáĭİáī½": 5627,
      "Ġáĭ¨áĪĺáĪ³áĪ°": 5628,
      "áĪĺáĪĪáĬ¨áī³": 5629,
      "ĠáĬłáįįáīĥ": 5630,
      "ĠáīłáĮ£": 5631,
      "áĮĪáī¢áĭ«": 5632,
      "Ġáĭ«áīł": 5633,
      "áīĢáĪ±": 5634,
      "áĪĨáī½": 5635,
      "Ġáĭ¨áĪļáĮĪáī¡": 5636,
      "ĠáĪĽáĪĺáĪįáĬ¨áī»": 5637,
      "áĪ®áī»áī¸áĭį": 5638,
      "ĠáĮłáĪĭáīµ": 5639,
      "Ġáĭ¨áĪĽáĬķ": 5640,
      "áĪ¸áĬķ": 5641,
      "Ġáĭ¨áĪĪáĪ½": 5642,
      "Ġáĭ¨áĪĽáĪħáīłáĪ«áĭĬ": 5643,
      "Ġáĭ¨áĬ¬": 5644,
      "Ġáĭ«áĮĪáĪĪáĮį": 5645,
      "Ġáī°áĬ¥áĪĪáīµ": 5646,
      "Ġáĭ¨áĪļáĪĺáĮ£": 5647,
      "ĠáĮĪáįĢ": 5648,
      "ĠáīłáĬ¥áĪĿáĬĲáīµ": 5649,
      "ĠáĪĺáĪµáĪĺ": 5650,
      "áĮįáĪ«áī¸áĭį": 5651,
      "Ġáī°áĬĲáĪµáī°áĭį": 5652,
      "Ġáĭ¨áĪ«áĪ±áĬķ": 5653,
      "ĠáĬłáĭµáĪŃáĮĪáĭĭáĪį": 5654,
      "Ġáĭļ": 5655,
      "áĭįáĪī": 5656,
      "ĠáĬłáĪĢ": 5657,
      "ĠáĭŃáĭĪáĭµ": 5658,
      "ĠáĭŃáĮİáī¥": 5659,
      "ĠáĪĪáĮĭ": 5660,
      "Ġáĭ¨áĪļáīĥáĮłáĪį": 5661,
      "áĪ½áĬķáĮįáī°áĬķ": 5662,
      "ĠáĬĲáīłáĪŃáĬĵ": 5663,
      "áĮłáīĢáĪĻáīłáīµ": 5664,
      "Ġáī°áīĢáĪĿáĮ¦": 5665,
      "áĮ¬": 5666,
      "ĠáīłáĮł": 5667,
      "áĭ«áī¸áĭįáĬķ": 5668,
      "áĪĽáī½áĬķ": 5669,
      "áīĢáĬĿ": 5670,
      "Ġáī°áĮĪáĪį": 5671,
      "áīĥáī½áĪģ": 5672,
      "Ġáĭ¨áī°áĮ£": 5673,
      "ĠáĭĿáĪĿáĭµáĬĵ": 5674,
      "ĠáĪµáĪħáī°": 5675,
      "áĭįáĮ£": 5676,
      "ĠáīłáĮĢáīµ": 5677,
      "áĪĺáĭĪáĭĿ": 5678,
      "áĬĲáĭĭáĪį": 5679,
      "áĪĽáī½áĪģ": 5680,
      "ĠáĬ¢áĪ³": 5681,
      "ĠáĪµáĪįáĮ£": 5682,
      "ĠáĬªáĬķáĮį": 5683,
      "ĠáĬłáĭĪáĮ£": 5684,
      "ĠáĪĺáĬ³áĬķáĬķ": 5685,
      "áĭ°áĪµ": 5686,
      "ĠáĬ¨áĪ³": 5687,
      "ĠáĭŃáĮłáįĭ": 5688,
      "ĠáĪĿáĪģ": 5689,
      "ĠáĪĽáĭŃáĪį": 5690,
      "áĬ«áĪ½": 5691,
      "ĠáĪĪáĭ°áĬķáīł": 5692,
      "áī¸áĭĭáĪĪáĪħ": 5693,
      "áĪĿáįĴáĭ©áī°áĪŃ": 5694,
      "áī°áĪĢáĪį": 5695,
      "áī¶áī³áĪį": 5696,
      "Ġáĭįáīłáīµ": 5697,
      "áĮĥáī¸áĭį": 5698,
      "áĪ¨áĮĭáĮĭ": 5699,
      "ĠáĬ¨áĭĪáĬķáĭµ": 5700,
      "áĬ®áĬĸáĪļáĭ«": 5701,
      "ĠáĭĪáĭµáĮĦ": 5702,
      "ĠáĪĿáĮįáī¦áī½": 5703,
      "ĠáĭŃáĭŁáĪį": 5704,
      "Ġáĭ«áĬķáī¥": 5705,
      "ĠáĪĽáĭ³": 5706,
      "ĠáĬ¥áĬķáĭ²áĪ°": 5707,
      "Ġáĭ¨áĪĺáĮ¡": 5708,
      "ĠáĪĨáĬķ": 5709,
      "ĠáĬ¥áĬķáĭ°áĪļáī»áĪį": 5710,
      "Ġáĭ«áĪĪáī£áī¸áĭį": 5711,
      "áĬªáĭİáī½": 5712,
      "ĠáīĨáĪ®áĬķáī¶áĪµ": 5713,
      "Ġáī°áĪĺáĪįáĬŃ": 5714,
      "ĠáĪµáīµáĪ«": 5715,
      "Ġáĭ¨áĭ±áĪŃ": 5716,
      "ĠáĭŃáĮİáī¥áĬĻ": 5717,
      "áĪįáĬĵ": 5718,
      "áĪ«áĬĴ": 5719,
      "áĪ³áįį": 5720,
      "áī¸áīµ": 5721,
      "ĠáīłáĪĺáĪĦáĭµ": 5722,
      "áĬ©áĬĿ": 5723,
      "ĠáĮĪáĭĽ": 5724,
      "ĠáīħáĪ¬": 5725,
      "ĠáĬ¢áĪľ": 5726,
      "áĮ«áĬĳ": 5727,
      "áĪ°áĪĽáĭį": 5728,
      "ĠáĬ¥áĭ«áĪī": 5729,
      "Ġáī³áĪĭáĪĭáīħ": 5730,
      "ĠáĮ¢áĪŀáī´áĭİáĪµ": 5731,
      "ĠáĬłáĭ«áĭįáīħáĪĿ": 5732,
      "ĠáīµáĪŃáĬ¢áīµ": 5733,
      "áĪįáĬ«": 5734,
      "áĮĪáĭ³": 5735,
      "ĠáĭŃáĮ¥": 5736,
      "Ġáĭ«áī°áĬ®": 5737,
      "ĠáĬłáĪµáīĢáĪĿ": 5738,
      "Ġáĭ¨áĪĽáĮįáĬĺáīµ": 5739,
      "Ġáī¢áĬĸáĪŃ": 5740,
      "ĠáĬ¤áįĮ": 5741,
      "áĮ¦áĪ½": 5742,
      "áĪ°áī£áī½áĬķ": 5743,
      "áĭ«áĭ«áĭĿ": 5744,
      "áĭĺáĭįáīµ": 5745,
      "Ġáī£áĪįáĬĵ": 5746,
      "Ġáĭ¨áī°áĭ°": 5747,
      "ĠáĪµáĪĪáĪĿ": 5748,
      "ĠáĬłáĪįáīł": 5749,
      "ĠáĬ¨áĬ¨áī°áĪĽ": 5750,
      "ĠáĭŃáĮĪáĬĻ": 5751,
      "ĠáĬ¥áĬķáĭ²áĪ¨áĭ³": 5752,
      "ĠáĮįáī¢": 5753,
      "ĠáĭµáĮį": 5754,
      "ĠáĬłáĪĪáī¥áĪħ": 5755,
      "ĠáĬªáĭ³": 5756,
      "áĬķáĮīáĪµ": 5757,
      "ĠáĪŀáĭ´áĪį": 5758,
      "Ġáīłáĭ®": 5759,
      "áī£áĮŃ": 5760,
      "ĠáīłáĪĺáĮ£": 5761,
      "ĠáīłáĪĺáĪ°áĪ¨": 5762,
      "ĠáĬŃáĪĭ": 5763,
      "ĠáīĨáĪŀ": 5764,
      "áĮĪáĪĪáĮĪ": 5765,
      "Ġáĭ¨áĪħáįĥ": 5766,
      "áįįáĪ¬áĪĿ": 5767,
      "Ġáīłáī°áīĥ": 5768,
      "ĠáĬłáĪĺáįĢ": 5769,
      "ĠáĪĿáĬķáĬĽ": 5770,
      "ĠáĬ¥áĭµáĮĪ": 5771,
      "Ġáī¥áĪİáĪĿ": 5772,
      "áįĪáĪŃáĬ¦áĬķ": 5773,
      "Ġáī°áĭĪáĬ«áĭ®áī½": 5774,
      "áĭĪáĭ«áĭ¨áīµ": 5775,
      "ĠáĬłáĭ²áĪ±áĬķ": 5776,
      "Ġáĭ¨áĭ°áĪ¨áĪ°": 5777,
      "Ġáīłáīħáĭ±": 5778,
      "ĠáīłáĪ«áĪ³áī¸áĭį": 5779,
      "ĠáĪĺáĪĭáĭį": 5780,
      "ĠáĪµáĭ°": 5781,
      "Ġáĭ¨áī°áĭ«áĭ«áĭĺ": 5782,
      "ĠáĬ¥áĪµáĪŃ": 5783,
      "ĠáĬłáĬķáī£áī¢": 5784,
      "Ġáĭ¨áĪµáĪį": 5785,
      "Ġáīłáĭ¨áĮĬáĭľáĭį": 5786,
      "Ġáĭ¨áįĪáĮłáĪ«": 5787,
      "ĠáĮĨáĬķ": 5788,
      "áĬĲáĪŃáĪ±áĪĿ": 5789,
      "áĮİáī¥áĬĺáīµ": 5790,
      "Ġáīłáĭ¨áĬ¥áĪĪáī±": 5791,
      "ĠáīłáĮĢ": 5792,
      "Ġáīłáīħáĭµ": 5793,
      "áĬķáĭĭ": 5794,
      "áĭŃáĬĲ": 5795,
      "áĭįáĬķáī²": 5796,
      "áĪ»áĮĪáĪŃ": 5797,
      "áĪ«áī¸áĭįáĪĿ": 5798,
      "Ġáĭ¨áĭįáĪµáĮ¥": 5799,
      "ĠáĬłáī¥áĭĽáĬĽáĭį": 5800,
      "ĠáĪĪáĪħáĭĿáī¥": 5801,
      "áĬ¥áĪĿáĪ¯": 5802,
      "Ġáĭ¨áĬ¨áįĭ": 5803,
      "áĭŃáĬķáīµ": 5804,
      "ĠáĪĺáĮĪáĪĪ": 5805,
      "áĪĢáĪ´": 5806,
      "ĠáĬłáĭµáĪŃáĮĭáī½áĪģ": 5807,
      "áĬĲáĪ³áīµ": 5808,
      "Ġáī°áĪ³áīµáįİ": 5809,
      "Ġáĭ«áĬķáī¥áī¡": 5810,
      "áįĦ": 5811,
      "ĠáĬłáĭĺáĭįáīµ": 5812,
      "áī°áĬŀáī¹": 5813,
      "ĠáĭŃáĭĪáĪ°": 5814,
      "ĠáĪĽáĪĺáĬķ": 5815,
      "ĠáĬłáĭµáĪŃáĮĪáĬķ": 5816,
      "áĬĵáĮĪáĬĿ": 5817,
      "Ġáĭ¨áĪĺáĮĢáĪĺáĪªáĭ«áĭįáĬķ": 5818,
      "Ġáī¬": 5819,
      "Ġáĭ¨áī´áĪĮ": 5820,
      "áĮłáĮ£": 5821,
      "ĠáĪ°áĬŀ": 5822,
      "áįĭáįĭ": 5823,
      "Ġáĭ¨áĪĺáĬķ": 5824,
      "ĠáīĨáĭ³": 5825,
      "Ġáĭ¨áĮįáĭµ": 5826,
      "Ġáĭ¨áįįáĪŃáĭµ": 5827,
      "áī¾áīµ": 5828,
      "ĠáĬłáīħáĪŃáī¦áīµ": 5829,
      "Ġáĭ¨áĪļáĭ«áĪ³áĭ©": 5830,
      "ĠáĮ¥áĬķáĬ«áĪ¬": 5831,
      "Ġáīº": 5832,
      "áĭįáīħ": 5833,
      "áī£áĬķ": 5834,
      "áĪ³áī±": 5835,
      "áĮ£áįĭ": 5836,
      "áĮĪáī£áĬĽáĪį": 5837,
      "áĮįáī£áī£áīµ": 5838,
      "ĠáĮĢáĪįáī£": 5839,
      "ĠáĬ¥áĪŃáĪĿáĮĥáĭİáī½": 5840,
      "áĬķáīĢáĪ³áīĢáĪµ": 5841,
      "Ġáī£áĪĪáī¤áī¶áī½": 5842,
      "ĠáįįáĮ¥áĪ¨áī³áīµ": 5843,
      "Ġáī£áīµ": 5844,
      "áĪ»áĭį": 5845,
      "Ġáĭ¨áīµáĬĽáĭį": 5846,
      "ĠáĭĽáįİáī½": 5847,
      "áīĪ": 5848,
      "ĠáīłáĪ®áī½": 5849,
      "áĬĲáįĥáįĢ": 5850,
      "áīłáĬŃ": 5851,
      "ĠáĪ²áĭ°áĪŃáĪµ": 5852,
      "Ġáĭ¨áĬłáĪį": 5853,
      "ĠáĪĬáįĪ": 5854,
      "ĠáīłáĬ¥áĭµáĪľ": 5855,
      "áĮĪáī£áī¸áĭį": 5856,
      "ĠáĬłáĬķáī½áĪįáĪĿ": 5857,
      "ĠáĪģáĬĶáī³áĭį": 5858,
      "ĠáĬ®áĬ¨áī¥": 5859,
      "ĠáĪĺáĪŃáĬ¨áī¥": 5860,
      "ĠáĬ¥áĬķáĮįáĭ²áĭ«áĭį": 5861,
      "Ġáī¶áĪİ": 5862,
      "Ġáĭ¨áĬłáĪµáī°áĭ³áĭ°áĪŃ": 5863,
      "Ġáĭ¨áĪª": 5864,
      "áĪĭáī½áĬĭáĪį": 5865,
      "ĠáĪĺáĪĿáĪħ": 5866,
      "áĪīáīłáīµ": 5867,
      "ĠáĪµáĪĿáĬķáīµ": 5868,
      "áī¶áĬķ": 5869,
      "áīĥáīĤ": 5870,
      "ĠáĬ¥áĬķáĭ²áī½áĪī": 5871,
      "ĠáīĢáĪį": 5872,
      "ĠáīłáĬłáĪµáī°": 5873,
      "Ġáīłáī°áĭĪáĪ°áĬĲ": 5874,
      "ĠáĪģáĬĶáī³áĭİáī½áĬķ": 5875,
      "áįĵáĪŃ": 5876,
      "ĠáīµáĬŃáĬŃáĪĪáĬĽáĭį": 5877,
      "Ġáĭ¨áĪ±": 5878,
      "áĭİáī¼": 5879,
      "áĮłáĬĿáĬĲáīµ": 5880,
      "Ġáī³áī½": 5881,
      "ĠáīłáĪ°áĪĭáĪĿ": 5882,
      "ĠáĬłáĮĭáĮ¥": 5883,
      "ĠáĪ«áĪ³áī½áĬķáĬķ": 5884,
      "ĠáĬłáĪĺáĪµáĮĭ": 5885,
      "ĠáĪĢáĭ«áĪį": 5886,
      "ĠáĬ«áĪµ": 5887,
      "ĠáīħáĮ¥áĪŃ": 5888,
      "áĪ¸áĪ«": 5889,
      "áĪĨáĬĵáī½áĪģ": 5890,
      "ĠáīĢáĮ¥áī°áĬĽ": 5891,
      "Ġáĭ¨áĪļáįĪáĪįáĮīáīµáĬķ": 5892,
      "ĠáĬłáĪ³áĭŃáī·áĪį": 5893,
      "ĠáīłáĮĮ": 5894,
      "áī³áī½áĪģáĬķ": 5895,
      "áįĭáĪª": 5896,
      "áĪľáĪ«": 5897,
      "ĠáĪ³áīµ": 5898,
      "ĠáĮĪáī¥áī¶": 5899,
      "áĬķáī£áī³": 5900,
      "ĠáĪ°áĪĭáĪĽáĭĬ": 5901,
      "ĠáĬłáĭĿáĪĽ": 5902,
      "ĠáĬĲáī¢áĭ©": 5903,
      "áĪįáĭİ": 5904,
      "ĠáĭĪáĭ®": 5905,
      "áĬ«áī°áīµ": 5906,
      "ĠáĬ¥áĬķáĭ°áĭļáĪģ": 5907,
      "ĠáĪĪáĪĺáĬĵáĮĪáĪŃ": 5908,
      "Ġáĭ¨áĬłáĪĺ": 5909,
      "ĠáĪ«áĪ´": 5910,
      "ĠáĪĿáĪŃáĮ¡áĬķ": 5911,
      "ĠáīłáĪ¨áĭ¶": 5912,
      "ĠáĪĪáĪĺáĮįáī£áīµ": 5913,
      "ĠáīłáĭĭáĬĵ": 5914,
      "ĠáīłáįĪáīĥ": 5915,
      "ĠáĪĽáĮįáĬĺ": 5916,
      "ĠáĪĺáĭĿáĪĻáĪ®áī½": 5917,
      "ĠáĬłáĭİáĬķáī³áĭĬ": 5918,
      "áĬĵáĮį": 5919,
      "áĪ¨áĭ°": 5920,
      "áī¥áĪµ": 5921,
      "ĠáĬ¨áĭĽ": 5922,
      "Ġáĭ«áĭ°áĪ¨áĮī": 5923,
      "ĠáĭĪáĭ²áĭ«": 5924,
      "áĭ³áĭĬáīµ": 5925,
      "ĠáīłáĬ¥áĬķ": 5926,
      "Ġáĭ¨áĬ¥áĪħáĪį": 5927,
      "ĠáīłáĪ°áĭİáī½": 5928,
      "áĮ¢áĬł": 5929,
      "ĠáĪĪáī°áĭĪáĪ°áĬĲ": 5930,
      "áĬķáįĪáĪµ": 5931,
      "áĭµáĪĢáĬĴáīµ": 5932,
      "ĠáīłáĬĵ": 5933,
      "Ġáĭ«áĪĺáĪĪáĬŃ": 5934,
      "Ġáĭ¨áĬ¢áĬ®áĬĸáĪļ": 5935,
      "ĠáĪĽáĪµáĭĪáĮĪáĭµ": 5936,
      "áīªáĪį": 5937,
      "Ġáī°áįĪáī³": 5938,
      "áĬ¨áĪĽáī»": 5939,
      "ĠáīłáĭµáĬķáĮĪáīµ": 5940,
      "ĠáįįáĪŃáĪĢáīµ": 5941,
      "ĠáĪĺáįħáĪĦáīµ": 5942,
      "ĠáĮĲ": 5943,
      "ĠáĪĭáĭŃáĪĿ": 5944,
      "ĠáĪµáĪĪáĪĮ": 5945,
      "Ġáĭ¨áĪĺáĪŃ": 5946,
      "Ġáĭ¨áĪĺáĪ¨áĮĥ": 5947,
      "ĠáĪħáĪįáĪĿ": 5948,
      "áįİáī¶": 5949,
      "Ġáĭ¨áĪ«áĪ³áī¸áĭįáĬķ": 5950,
      "áĬķáįĢáī£áĪ¨áīħ": 5951,
      "Ġáĭ±áīĦáīµ": 5952,
      "ĠáĬłáīłáĪ¨áī³": 5953,
      "Ġáī°áĮ£": 5954,
      "áĪ½áĬĲáīµ": 5955,
      "Ġáĭ¨áĬłáĭįáĪ®áįĵ": 5956,
      "ĠáīłáĪļáĮĪáĬĿ": 5957,
      "ĠáĬłáĪĿáĪĭáĬ¬": 5958,
      "Ġáīłáĭ©áĬĵáĭŃáīµáĭµ": 5959,
      "Ġáĭ¨áī°áĬĲáĭ°": 5960,
      "áĪµáįĪ": 5961,
      "áĬĵáī±": 5962,
      "áĭ°áīħ": 5963,
      "ĠáĬ¨áĪ¶áĪµáīµ": 5964,
      "ĠáĪĪáĪĺáī°": 5965,
      "ĠáįįáĪ«áĬķ": 5966,
      "ĠáĬ¢áĬķáī½": 5967,
      "Ġáĭ¨áĭŃáĮĪáī£áĬĽáĪį": 5968,
      "ĠáĪĺáīĨáĮ£áĮłáĪŃ": 5969,
      "ĠáīłáĪĺáĪµáĪ«áīµ": 5970,
      "áĪĮáĬŃ": 5971,
      "ĠáĪĦáĭ¶": 5972,
      "ĠáīłáĪ¨áĬ¨": 5973,
      "ĠáĬłáĭµáĪŃáĮĪáĪħ": 5974,
      "ĠáĪĪáĪĽáĮ¥áįĭáīµ": 5975,
      "áĪĿáī£": 5976,
      "áĪ¨áĪ»": 5977,
      "áī¥áĮ¥": 5978,
      "ĠáĬ¨áįĬáīµ": 5979,
      "áĪŁáī¸áĭį": 5980,
      "ĠáĪ¸áĪĽ": 5981,
      "ĠáĪĪáĪĮáĪĭ": 5982,
      "ĠáĪĺáįĥáįį": 5983,
      "ĠáīĢáĮłáĪ®": 5984,
      "Ġáĭ«áĪµáįĪáĪįáĮĭáĪį": 5985,
      "ĠáĮįáĭĻáįį": 5986,
      "ĠáĪ°áĪĮáĭ³": 5987,
      "ĠáĭĪáĭµáĮĦáĭĭáĪĪáĪģ": 5988,
      "ĠáĭŃáīĢáīł": 5989,
      "ĠáĬ¥áĬĵáĮĪáĬĽáĪĪáĬķ": 5990,
      "Ġáĭ¨áĬ¥áĪŃ": 5991,
      "ĠáīģáĪį": 5992,
      "ĠáĪĺáĪ¨áĮĥáĬķ": 5993,
      "ĠáįĪáīĥáĭ°áĬŀáī½": 5994,
      "ĠáĭĿáĪŃáĭĿáĪ®áī½": 5995,
      "ĠáĬłáĭ¨áĪģ": 5996,
      "ĠáĪ½áĪįáĪĽ": 5997,
      "áĮĵáĮĵáĭ£": 5998,
      "ĠáĭŃáĮĪáĪįáįĥáĪį": 5999,
      "áĬ®áĬĸáĪļáĭ«áĭĬ": 6000,
      "áīłáĬŀáī½": 6001,
      "áĭµáĪĽ": 6002,
      "ĠáĪµáįĶ": 6003,
      "ĠáĪĽáįħ": 6004,
      "ĠáĪĪáĪĺáĮĪáĬķáī£áīµ": 6005,
      "ĠáĪ²áĪĦáĭµ": 6006,
      "áĮŃáīłáĪŃ": 6007,
      "áĮĪáĬĿáĪĿ": 6008,
      "ĠáĪĺáĪ¨áĮĥáĭİáī½": 6009,
      "ĠáĬĸáĪ¬": 6010,
      "ĠáĬ¥áīĥáĭİáī½áĬķ": 6011,
      "ĠáĪĺáĮ¨áĪ¨áĪ»áĭį": 6012,
      "ĠáĪĺáī¼áĪĿ": 6013,
      "áĪįáĬ«áĪĿ": 6014,
      "áĭ°áĪ«áĪį": 6015,
      "áī³áī½": 6016,
      "áĪ°áĭįáĬķ": 6017,
      "áĪ³áĭ«": 6018,
      "Ġáĭ¨áĪļáĪ°áĮł": 6019,
      "Ġáĭ¨áī°áĮĭ": 6020,
      "ĠáĪįáĭįáĭį": 6021,
      "ĠáĪ°áĭįáĬĲáīµ": 6022,
      "áĬķáĭ³áīµ": 6023,
      "ĠáĬ¤áĬŃáĪµ": 6024,
      "áĬĸáĪŃáīłáīµ": 6025,
      "áĭŀáĪŃ": 6026,
      "ĠáĭĪáĪ°áĭ°": 6027,
      "ĠáīłáįħáĪģáįį": 6028,
      "ĠáĬłáĪĿáĪĭáĬ«áī½áĬķ": 6029,
      "ĠáĮ¥áīłáīłáĬĽ": 6030,
      "áĭįáĬķáĭµ": 6031,
      "ĠáīłáīħáĬķ": 6032,
      "ĠáĮĬáĭľáĭ«áĭĬ": 6033,
      "ĠáĬ¥áĭ¨áīĢ": 6034,
      "Ġáĭ¨áĬĲáīł": 6035,
      "ĠáĬ®áĪªáĭ«": 6036,
      "áįĵáĪŃáīµ": 6037,
      "ĠáĬłáĪīáī³áĭĬ": 6038,
      "áĮłáĭŃáīģ": 6039,
      "ĠáĬłáĪĽáĬ«áĪª": 6040,
      "Ġáĭ¨áĬ¤áĪĮáĬŃáīµáĪªáĬŃ": 6041,
      "áīłáĭĿ": 6042,
      "ĠáĬ¨áĮİ": 6043,
      "ĠáĭŃáĬĲ": 6044,
      "áĪ°áĬĵ": 6045,
      "Ġáĭ«áĪĺáĮ£áĪį": 6046,
      "ĠáīłáĪĺáĮ¥": 6047,
      "ĠáĪĪáĪĺáī³": 6048,
      "Ġáĭ¨áĪĽáĭµáĪ¨áĮį": 6049,
      "ĠáĬłáĪµáī°áĪĽáĪª": 6050,
      "ĠáīłáįķáĪ®": 6051,
      "ĠáĪµáĭµ": 6052,
      "áĬķáĭ«áĪĿ": 6053,
      "ĠáĬ®áĬķ": 6054,
      "ĠáĪĺáĪ¨áĮĥáĭİáī½áĬķ": 6055,
      "ĠáīłáĭįáĮŃ": 6056,
      "ĠáĭŃáĬ¸áĭį": 6057,
      "ĠáĪĺáĭ°áī¥": 6058,
      "ĠáĭŃáįĪáĮ¥": 6059,
      "Ġáĭ¨áĮīáĭŀ": 6060,
      "ĠáĬłáīħáĪ«áī¢": 6061,
      "ĠáĪ°áĬĲáĭµ": 6062,
      "ĠáĭŃáĮĢáĪĿáĪ«áĪį": 6063,
      "ĠáįķáĪ¬áĭĿáĭ³áĬķáīµ": 6064,
      "Ġáĭ¨áĭļáĭ«": 6065,
      "ĠáīłáĭµáĪŃ": 6066,
      "áĪ¨áĬķáĪµ": 6067,
      "áĪ©áīµáĬķ": 6068,
      "ĠáĮįáĮŃáīµ": 6069,
      "ĠáĬłáĭŃáī³": 6070,
      "áīĢáĪŃáī£áĪĪáĬķ": 6071,
      "ĠáĪģáĪĪáī±áĬķ": 6072,
      "ĠáĪ²áĭ«áĮĭáĮ¥": 6073,
      "ĠáīłáĪĢáĭŃáĪį": 6074,
      "áĭ°áĪŃáĮĪáĭįáĬķ": 6075,
      "ĠáĮīáĭµáĮĵáĭµ": 6076,
      "áĪµáĬ¤": 6077,
      "áĪ¨áĪ³": 6078,
      "ĠáĬ¨áĪĨáĬĳáīµ": 6079,
      "ĠáĪĪáĬ¤": 6080,
      "Ġáī°áĭį": 6081,
      "ĠáĮĪáĭ¥": 6082,
      "ĠáĬłáĪĪáī½áĭį": 6083,
      "áįĥáįī": 6084,
      "áĬ®áīµáĬķ": 6085,
      "ĠáĪĺáī¥áĪĭáīµ": 6086,
      "Ġáīłáī³áĪĽáĬĿáĬĲáīµ": 6087,
      "Ġáĭ¨áĪĢáĮ¢áĬłáīµ": 6088,
      "áĪŃáĭĿáĪŃ": 6089,
      "Ġáīłáī£áĪħ": 6090,
      "Ġáī°áĪµáĪĽáĪĿ": 6091,
      "Ġáĭ³áĭŃáĪ¬áĬŃáī°áĪŃ": 6092,
      "áĪŃáī»": 6093,
      "ĠáīłáĪĺáĪĺáĪµáĪ¨áīµ": 6094,
      "áĪ½áīµ": 6095,
      "ĠáīħáĬĵáĪ½": 6096,
      "áĭ®áĪŃáĬŃ": 6097,
      "ĠáĪĨáĬĲáĭĭáĪį": 6098,
      "ĠáĪĽáĭµáĪ¨áĮĭ": 6099,
      "áĬłáī¸áĭį": 6100,
      "ĠáĪĽáĪŃáĭ«áĪĿ": 6101,
      "ĠáĬłáĭŃáĬĸáī½": 6102,
      "áĮĢáĪĺáĪ¨áĭį": 6103,
      "Ġáī£áĪªáĭ«áĭİáī½": 6104,
      "ĠáĪħáįĥáĬķ": 6105,
      "ĠáĬ¥áĬķáĭ°áĪĨáĬķáĬ©": 6106,
      "ĠáīłáĮĬáĭľ": 6107,
      "ĠáĭŃáĮįáī£": 6108,
      "áĭĭáī³": 6109,
      "ĠáĬĲáīłáĪŃáĬ©": 6110,
      "ĠáīłáĪĽáīħáĪ¨áī¥": 6111,
      "ĠáĬłáĬ«áĪĦáĭµ": 6112,
      "ĠáĪĺáĮłáĮ¥": 6113,
      "áĮłáĪ«áīĢ": 6114,
      "Ġáĭ¨áĮ¥áĪŃáĪµ": 6115,
      "áĮĪáĬĲáĭĺáī¥": 6116,
      "áĪĭáĪĪáī½": 6117,
      "áĪĽáĪĪáĪģ": 6118,
      "Ġáī°áĬŃ": 6119,
      "áĭ³áĪ´": 6120,
      "ĠáīµáįĪáĪįáĮĭ": 6121,
      "áĭĺáĮĪ": 6122,
      "áĪĦáĪ«áīµ": 6123,
      "ĠáĪįáĮĨáī»áī¸áĭį": 6124,
      "áīªáĭ¥áĬķ": 6125,
      "ĠáĬ¨áĪħáĭĿáī¡": 6126,
      "ĠáīµáĪĿáĪħáĪŃáī¶áī½": 6127,
      "áĪªáī³": 6128,
      "Ġáĭ¨áī°áĮĪáĭ°": 6129,
      "ĠáĪĺáĮłáĭŃ": 6130,
      "ĠáĭŃáĪ°áĪĽáī¸áĭĭáĪį": 6131,
      "Ġáįĥáĭµ": 6132,
      "Ġáĭ¨áī°áĪ³áĪ³áī°": 6133,
      "áĭŃáĪµ": 6134,
      "ĠáĬ¨áīĢáĬĳ": 6135,
      "ĠáĭŃáĬķ": 6136,
      "áĬŃáī°áĪ®áī½": 6137,
      "ĠáĪįáī¡": 6138,
      "ĠáĪĪáĪĺáīĨáĮ£áĮłáĪŃ": 6139,
      "Ġáĭ¨áĪĺáī³": 6140,
      "ĠáĮ£áĬ¥áĪĿ": 6141,
      "áīĢáĮ¥áĪīáīµ": 6142,
      "ĠáĪĺáĭĭáĮ®": 6143,
      "áĪįáīłáīµ": 6144,
      "ĠáĭŃáĬĳ": 6145,
      "áĪ°áĪĪ": 6146,
      "ĠáĪĽáĭĪ": 6147,
      "ĠáĬłáĭŃáĬĸ": 6148,
      "áĭĽáĬĿ": 6149,
      "áĬ©áĪ«": 6150,
      "Ġáĭ«áĪħáĭĮáĪĿ": 6151,
      "áĮĪáĪĪáįħ": 6152,
      "Ġáĭ¨áĪĪáĬĿáĪĿ": 6153,
      "ĠáĬĲáĭĭáĪª": 6154,
      "ĠáĬłáĪµáī°áĭ«áĭ¨áī¶áī½": 6155,
      "ĠáĬ¥áĪ«áĪ³": 6156,
      "ĠáĬ¨áĮī": 6157,
      "áīĢáīµáĬķ": 6158,
      "áįĬáĭį": 6159,
      "áĪµáī³áĬķ": 6160,
      "ĠáĬ¨áĪĽáĬķáĬĽáĭįáĪĿ": 6161,
      "Ġáĭ¨áĪĿáĪµáĬŃáĪŃ": 6162,
      "ĠáĪªáįĲáī¥áĪĬáĬŃ": 6163,
      "áĪįáīĢáīµ": 6164,
      "áīłáī£": 6165,
      "ĠáĬ¨áĬ®": 6166,
      "Ġáĭ¨áī°áīĢáĭ°": 6167,
      "ĠáīłáĬłáĬ«": 6168,
      "ĠáĪĪáĪĽáĭĺáĮĭáĮĢáīµ": 6169,
      "ĠáĬłáĪĪáĪħ": 6170,
      "Ġáĭ¨áĪļáĭ«áĮĭáĮ¥": 6171,
      "Ġáĭ¨áĪĽáĬ¥": 6172,
      "ĠáįħáĬķáĪ°": 6173,
      "ĠáĬłáīĢáĪ«áĪ¨áī¥": 6174,
      "ĠáĪĺáīĢáĮłáĪį": 6175,
      "áĬ¨áįĭáįĪáĪį": 6176,
      "ĠáīłáĪµáī¥áĪ°áī£": 6177,
      "áĪĪáĭ³": 6178,
      "ĠáĪĺáįĪáįĢáĪĿ": 6179,
      "áī¥áĬķáĪĿ": 6180,
      "ĠáĬ¨áĮĵ": 6181,
      "ĠáĪ°áįĪáĪ©": 6182,
      "Ġáĭ¨áĪĺáĬ¨áĪĭáĬ¨áĭ«": 6183,
      "ĠáĬķáĪµáĪĢ": 6184,
      "ĠáĬłáĬ«áĪĭáĭĬ": 6185,
      "áĭĿáĮįáĮħ": 6186,
      "ĠáĬłáĪįáī»áĪĪáĪĿ": 6187,
      "Ġáīłáī°áįĪáĮ¥áĪ®": 6188,
      "Ġáīłáī¥áĪŃ": 6189,
      "ĠáĬłáĬĵáīµ": 6190,
      "ĠáĪĺáĭ°áĪĿ": 6191,
      "ĠáĪĪáĪĨáĬĳ": 6192,
      "ĠáĬłáĪµáīĤáĬĿ": 6193,
      "ĠáĪ³áĪį": 6194,
      "ĠáĬ¥áĪŃáĬ«áī³": 6195,
      "Ġáī£áĪĪáīłáīµ": 6196,
      "áĪħáĬķáĬĵ": 6197,
      "Ġáĭ¨áīłáĪĪ": 6198,
      "ĠáįĢáĪİ": 6199,
      "Ġáĭ¨áīµáĬŀáī¹": 6200,
      "áĮĪáĬĲáī£": 6201,
      "Ġáī°áĪ«áĪ®áī½": 6202,
      "ĠáĮ£áĪįáīĥ": 6203,
      "Ġáĭ¨áįįáīµ": 6204,
      "áĪĪáĭ±": 6205,
      "ĠáĪĺáĮ«áĭĪáīµ": 6206,
      "áīłáĭįáĬķ": 6207,
      "ĠáĬ¨áĪģáĪĪ": 6208,
      "ĠáĭĪáĮ¡": 6209,
      "áĬ«áĬŃ": 6210,
      "áĭĭáĪĪáĬķ": 6211,
      "ĠáīĢáĭĿáīĥáĭĽ": 6212,
      "áįĭáĬĳ": 6213,
      "áĭĽáĪī": 6214,
      "ĠáĪĢáĪĻáĪµ": 6215,
      "ĠáĪļáĪµ": 6216,
      "ĠáĪĺáĬķáĮįáĪµáī³": 6217,
      "ĠáĪ°áĪĽáĭ«áīµ": 6218,
      "ĠáĪĿáĭµáī¥": 6219,
      "áī³áĭĪáīĢ": 6220,
      "áįķáĪªáĪį": 6221,
      "Ġáĭ¨áĮİáĭ°áĪĪáĭį": 6222,
      "ĠáĪĺáĬ«áĬ¨áĪĪáĬĽ": 6223,
      "Ġáĭ¨áĬĴáĭį": 6224,
      "Ġáīłáįĭ": 6225,
      "áĪĺáī°": 6226,
      "ĠáĭŃáĭ°áĪ¨": 6227,
      "áĬ¨áĬĿ": 6228,
      "áĮ£áĭĬ": 6229,
      "áĭįáĬķáīµ": 6230,
      "Ġáĭ¨áĪĺáĮ£áĭį": 6231,
      "ĠáĪĢáĭĺáĬķ": 6232,
      "ĠáĮĪáįĥ": 6233,
      "ĠáĭĺáĭĪáīµáĪŃ": 6234,
      "áįĢáĬĵ": 6235,
      "ĠáĬ¥áĭ«áĭ°áĮĪ": 6236,
      "ĠáĬłáī¥áĪ¨": 6237,
      "Ġáĭ¨áĪįáĮħ": 6238,
      "ĠáĬ©áī£áĬķáĭ«áĭį": 6239,
      "ĠáĮ¥áĪĭáī»": 6240,
      "Ġáĭ«áĪĪáĪĽáīĭáĪ¨áĮ¥": 6241,
      "Ġáĭ¨áĭ¨": 6242,
      "ĠáĬ¥áĪµáĪ«áīµ": 6243,
      "ĠáīłáĪ¶áĪµáīµ": 6244,
      "áĭ«áĬ¥áīĨáī¥": 6245,
      "áĪ°áĪĭ": 6246,
      "Ġáĭ¨áĪļáīĢáĪŃáī¥": 6247,
      "ĠáĪĪáĪĺáĭ°áĮĪáįį": 6248,
      "áĪ»áĪĪáĪģ": 6249,
      "ĠáĪĨáī´áĪį": 6250,
      "áĪļáĭ«áĭİáī½": 6251,
      "ĠáĬ¦áįķáĪ¬": 6252,
      "ĠáīĢáĪŃáī¶": 6253,
      "ĠáĪĪáĭĪáĬķáĭµ": 6254,
      "ĠáĬĲáīłáĪ«áī¸áĭį": 6255,
      "ĠáīłáĪ¸": 6256,
      "ĠáĪĺáĪ¨áī¥": 6257,
      "áĮ£áįį": 6258,
      "ĠáĪĭáĪĪáĪĺ": 6259,
      "ĠáĪĪáĪĺáīħ": 6260,
      "ĠáīłáĬłáĬķáĭ±": 6261,
      "áĮĢáĪĺáĪ©": 6262,
      "Ġáī¦áī³áĭİáī½áĬķ": 6263,
      "ĠáĬłáīĢáĪĽ": 6264,
      "ĠáĬłáĪŃáī²": 6265,
      "Ġáĭ°áĮĭáĮį": 6266,
      "ĠáĪĢáĬªáĪĿ": 6267,
      "ĠáīħáĪŃáĬķáĮ«áįį": 6268,
      "ĠáĬłáįįáīĥáĪª": 6269,
      "Ġáĭ¨áī²": 6270,
      "áĭ³áĭµ": 6271,
      "áīĥáĪĪáĬķ": 6272,
      "Ġáĭ¨áī°áĪŁáĪĭ": 6273,
      "áĬķáĭ±áĪµáīµ": 6274,
      "áĬĲáĪ³áĭį": 6275,
      "Ġáĭ¨áĪ°áĪĭáĪĿ": 6276,
      "áĭŀáīµ": 6277,
      "ĠáĬłáĪĿáĬĵ": 6278,
      "áĭ«áĭĭáĬķ": 6279,
      "áĬĲáĬķ": 6280,
      "Ġáĭ«áĭ°áĪŃáĮī": 6281,
      "ĠáĪĪáĪĺáĮ¨áĪĺáĪŃ": 6282,
      "ĠáĪħáī¥áĪ¨áīµ": 6283,
      "Ġáī¤áī¶áī½áĬķ": 6284,
      "áĪ°áī¥áĬłáĭĬ": 6285,
      "Ġáĭ¨áĬ¥áĬĶáĬķ": 6286,
      "áīĭáīĭáĪĺ": 6287,
      "Ġáī°áĪŃáįİ": 6288,
      "ĠáĪµáīµáĪ«áī´áĮĤ": 6289,
      "áī®": 6290,
      "áī¥áĪªáĬ«": 6291,
      "áĭĺáĪ¨áĮĭ": 6292,
      "ĠáīłáĬłáĪĺáīµ": 6293,
      "áĮ¨áĪµ": 6294,
      "ĠáĪĺáĬķáĪµáĬ¤": 6295,
      "ĠáĬłáĪĺáĪįáĬŃ": 6296,
      "ĠáĪĬáĭ«áĭ°áĪŃáĮį": 6297,
      "Ġáĭ¨áĪĢáĮĪáĪŃ": 6298,
      "áĪ¹áĬķ": 6299,
      "ĠáĬ¥áī£áĬ®áīµáĬķ": 6300,
      "ĠáĪĺáī³áĮłáī¢áĭ«": 6301,
      "ĠáĮĦáĬĶ": 6302,
      "áĬŁ": 6303,
      "Ġáĭ¨áĪĭáī¸áĭįáĪĿ": 6304,
      "áĮĪáįį": 6305,
      "Ġáĭ«áĮłáįĭ": 6306,
      "áĭĭáĪĪáĪħ": 6307,
      "áĪ®áĮ¥": 6308,
      "ĠáĬłáī¥áĪ¨áĬķ": 6309,
      "ĠáĬ¥áĬķáĭ³áĪĪáī£áī¸áĭį": 6310,
      "ĠáĬłáĮĪáĭĽáĭĿ": 6311,
      "ĠáīłáĪģáĪĪáī±áĪĿ": 6312,
      "ĠáĪĽáĪ°áĪĭ": 6313,
      "ĠáĭŃáįĭ": 6314,
      "ĠáĪĪáĭĪáĭ°": 6315,
      "ĠáĪµáĭį": 6316,
      "ĠáĬ¥áĬĵáīĢáĪŃáī£áĪĪáĬķ": 6317,
      "Ġáĭ¨áĪļáĭ°áĪŃáĪµ": 6318,
      "ĠáĪĽáī¥áĪ«": 6319,
      "ĠáĪĽáĭ³áīłáĪŃ": 6320,
      "Ġáĭ¨áĪĺáĪ¬áīµ": 6321,
      "ĠáĪĺáĪįáĬ«": 6322,
      "Ġáĭ¨áĬĲáįĥ": 6323,
      "ĠáĬ¥áĬĵáĬķáī°áĬķ": 6324,
      "ĠáīłáĬ¢áĪľáĪį": 6325,
      "ĠáĬłáĮĭáĪŃ": 6326,
      "ĠáĬłáĭ³áĪ«áĪ½": 6327,
      "Ġáĭ¨áĪģáĪĪáīµ": 6328,
      "áī¸áĪŃ": 6329,
      "áĪĻáĪĿ": 6330,
      "áī¡áīłáīµ": 6331,
      "áī½áĪįáīłáīµ": 6332,
      "ĠáĪĺáĬķáĮįáĪµáī±": 6333,
      "áĬĲáĮĪáĪ¨áĭį": 6334,
      "ĠáįķáĪ®áĮįáĪ«áĪŀáī½": 6335,
      "áĪ³áī°áįī": 6336,
      "ĠáĬ¥áĬķáĭ°áĪĮáĪĪ": 6337,
      "Ġáĭ¨áĬ¥áĮįáĭļáĬłáī¥áĪĦáĪŃáĬķ": 6338,
      "ĠáĪĽáĪ«áĬª": 6339,
      "Ġáĭ¨áĬĶ": 6340,
      "ĠáĬ¥áĮĪáĭĽ": 6341,
      "ĠáĪĺáĮĪáĬĺáīµ": 6342,
      "ĠáĭĪáĪĪáĪį": 6343,
      "áĬ¨áĪī": 6344,
      "ĠáĪįáĪĺáĬĵ": 6345,
      "áĭĺáĭĺáĭį": 6346,
      "ĠáĪĪáĪĺáīĭáīĭáĪĿ": 6347,
      "Ġáĭ¨áĪĺáĪĺ": 6348,
      "áįĬáĪį": 6349,
      "Ġáī¤áĭĽ": 6350,
      "ĠáįĪáī³áĬĿ": 6351,
      "ĠáįĪáĮĪáĮį": 6352,
      "áĭ¶áī¹": 6353,
      "ĠáĬ¤áĪŃáīµáĪ«": 6354,
      "áĪĺáĪįáĪµ": 6355,
      "Ġáī°áīĢáĪĺáĮł": 6356,
      "Ġáĭ¨áĬ¤áĪŃáīµáĪ«": 6357,
      "áĮ«áĭĪáī±": 6358,
      "ĠáīłáįĬáī±": 6359,
      "ĠáīłáĪģáĪĪáī±": 6360,
      "Ġáī³áĪªáĬ®áī½": 6361,
      "ĠáĭŃáĮłáĭŃáīĥáĪį": 6362,
      "ĠáĬĲáī¢áĭŃ": 6363,
      "ĠáĬłáĪµáĬªáĭ«áĮħ": 6364,
      "ĠáĬłáīģ": 6365,
      "ĠáĭŃáĭĪáĪŃ": 6366,
      "áįĪáīħáĭµ": 6367,
      "áĬ¨áĭįáĬķ": 6368,
      "áĮ£áĪªáĭİáī½": 6369,
      "áī¶áĬĽáĪį": 6370,
      "ĠáĬ¥áĪµáī´áīµ": 6371,
      "Ġáī°áĮłáĬķáīĢ": 6372,
      "ĠáĮ«áĬĵ": 6373,
      "ĠáĬĲáĮ¥áī¦áī½": 6374,
      "ĠáĪĺáĬŃáįĪáĪį": 6375,
      "Ġáī³áĭįáīĥáĪĭáī½áĪģ": 6376,
      "ĠáīłáĬ¥áĮħáĮī": 6377,
      "ĠáĪĺáĬĵáįį": 6378,
      "ĠáĭĪáĬķáĮĮ": 6379,
      "ĠáĬłáĪįáī»áĪįáĬ©áĪĿ": 6380,
      "ĠáĪ¼": 6381,
      "ĠáīĦ": 6382,
      "áĪįáī¶": 6383,
      "áĪ«áĪĦ": 6384,
      "áĪļáĬķ": 6385,
      "áĮ£áĪĪáĪģ": 6386,
      "Ġáĭ¨áī°áĪĭ": 6387,
      "ĠáĬ¥áĬķáĭ²áī³": 6388,
      "áĬ®áĪ«": 6389,
      "ĠáĬ¥áĪµáĬ¨áĪļ": 6390,
      "ĠáĬłáīµáįį": 6391,
      "Ġáĭ¨áĪļáĭ«áĪµáįĪáĪįáĮī": 6392,
      "ĠáĬłáĮĪáĪįáĮĭáĭ®áī¹": 6393,
      "Ġáĭ¨áĪļáĭĪáĭ±": 6394,
      "Ġáĭ¨áĭ¶": 6395,
      "ĠáĪĺáĭĺ": 6396,
      "áīłáī°": 6397,
      "ĠáĪĪáĪĺáĪĨáĬĳ": 6398,
      "ĠáĪĪáĪĺáįĪáįĢáĪĿ": 6399,
      "áĪ¬áĪ½áĬķ": 6400,
      "áĪ¶áī¹": 6401,
      "Ġáĭ¨áīłáĮį": 6402,
      "áĪıáīµ": 6403,
      "ĠáĭĿáĮįáĮħáī¶áī½": 6404,
      "Ġáĭ¨áįĢáĪĢáĭŃ": 6405,
      "Ġáĭ¨áĭĭáĮĭ": 6406,
      "ĠáīłáĪĿáĭµáĪªáī±": 6407,
      "Ġáĭ¨áĪ³áĭŃáĬķáĪµ": 6408,
      "ĠáĬłáĪµáĮĪáĪ«áĪļ": 6409,
      "Ġáī°áĮįáĪ³": 6410,
      "Ġáī°áįĪáī³áī³áĬĿ": 6411,
      "ĠáĬłáī³áĭį": 6412,
      "áĪ¨áĬŃ": 6413,
      "ĠáĬ¨áįĭ": 6414,
      "áī£áī£": 6415,
      "Ġáĭ«áĪĪáĪĿ": 6416,
      "áĪ³áĭįáĭ«áĬķ": 6417,
      "Ġáī°áĪĺáĪĪáĪ°": 6418,
      "ĠáĪ°áĮ£áī¸áĭį": 6419,
      "Ġáĭ¨áī°áįĥáįĪ": 6420,
      "ĠáīĢáĬĳáĬķ": 6421,
      "ĠáĪĬáīĥ": 6422,
      "áĭ®áī¹áĬķ": 6423,
      "áīĭáī¸áĭį": 6424,
      "Ġáĭ¨áĪļáĭ«áĪµáĭ°": 6425,
      "ĠáĪĮáĪİáī½áĪĿ": 6426,
      "ĠáĬłáĪĿáĪ«": 6427,
      "ĠáĪĺáĪªáĬĲáīµ": 6428,
      "ĠáĪ«áĪµáĪħáĬķ": 6429,
      "Ġáĭ¨áīłáĪ¨áĭ¶": 6430,
      "ĠáĬ¨áĪĿáīµ": 6431,
      "áĪĽáĮħ": 6432,
      "áīĢáĬĵ": 6433,
      "ĠáĪĽáĪį": 6434,
      "ĠáĪĭáĪį": 6435,
      "Ġáĭ¨áī°áīĨ": 6436,
      "ĠáĬ¥áĬķáĭ²áĬĸáĪ«áī¸áĭį": 6437,
      "Ġáĭ¨áĪĽáīµ": 6438,
      "ĠáĬķáĮįáĮį": 6439,
      "ĠáĮįáī¥áĪ¨": 6440,
      "ĠáĭŃáĮłáīģ": 6441,
      "ĠáĭĪáĮªáĭİáī½": 6442,
      "ĠáĬ¥áĬķáĭ°áĪĿáī³": 6443,
      "Ġáī³áĪĭáīģ": 6444,
      "ĠáĪģáĪĪáī±áĬķáĪĿ": 6445,
      "Ġáĭ°áĮĭáįĬ": 6446,
      "Ġáĭ¨áįķáĪ®áĮĢ": 6447,
      "Ġáĭ¨áī½": 6448,
      "áĭ«áī½áĬķ": 6449,
      "áĪ°áī£áī¸áĭį": 6450,
      "áĮ¥áĪ¯": 6451,
      "Ġáĭ¨áĪļáĪĨáĬĳáīµ": 6452,
      "ĠáīĢáĭ¶": 6453,
      "áĮĪáĪŃáĪĿ": 6454,
      "áĭĺáĮĭáĮĢáĭį": 6455,
      "ĠáīłáĪģáĪĪáī°áĬĽáĭį": 6456,
      "Ġáįİáī¶áĮįáĪ«áįį": 6457,
      "Ġáĭ²áĭ«áī¥áĪİáĪµ": 6458,
      "ĠáĬ¥áĮĨ": 6459,
      "ĠáĬ¥áĮ¥áįį": 6460,
      "áĮĪáī°áĬĽ": 6461,
      "ĠáĪĺáīµ": 6462,
      "ĠáĪĺáĮĪáĪįáĮĪ": 6463,
      "ĠáĪĿáĮįáī£": 6464,
      "áĬĲáīµáĬĵ": 6465,
      "ĠáĮįáī¦áī½": 6466,
      "áĮīáĬķ": 6467,
      "áīĨáĪµ": 6468,
      "áĭµáĪŃáĮį": 6469,
      "áī¦áī»áī¸áĭį": 6470,
      "áĪĪáĪĿáĭ¶": 6471,
      "áĪ²áī¥": 6472,
      "ĠáĬ¨áĪĺáĬ«áĬ¨": 6473,
      "Ġáī¦áī³áĭį": 6474,
      "Ġáĭ¨áĭįáĭµáĭµáĪŃ": 6475,
      "ĠáĬłáīĢáĪ¨áīł": 6476,
      "ĠáĭĪáĪ¨áīĢ": 6477,
      "ĠáĭŃáĮłáīħ": 6478,
      "áĭ¦": 6479,
      "áĪ¨áĪ±": 6480,
      "ĠáĭŃáįĪáĪįáĮī": 6481,
      "áĬŃáī±": 6482,
      "Ġáī°áĪĺáĪĪáĪ±": 6483,
      "Ġáī¥áĭµáĪŃ": 6484,
      "ĠáīĢáīł": 6485,
      "ĠáĬŃáįĭáīµ": 6486,
      "áĪ¬áĭİáī½": 6487,
      "ĠáĬ¥áĭ¨áī³": 6488,
      "áĬªáĬķ": 6489,
      "ĠáĪĺáĪµáĮł": 6490,
      "ĠáĭĽáĪ¬áĪĿ": 6491,
      "Ġáĭ¨áĪ°áĭįáĬĲáīµ": 6492,
      "ĠáĭĪáĭ³áĪĪáĭį": 6493,
      "Ġáĭ¨áī°áī£áīłáĪ©áīµ": 6494,
      "ĠáĪ°áī¥áĬłáĭĬ": 6495,
      "ĠáĭŃáĬĲáĪ³": 6496,
      "ĠáĭįáĮĬáĭ«": 6497,
      "Ġáĭ¨áī°áĪĪáĭ«áĭ¨": 6498,
      "áīĤáīħ": 6499,
      "áī´áĬĵ": 6500,
      "áĮįáī£áī¡": 6501,
      "ĠáĪĺáī¥áĪ«": 6502,
      "áĭ¥áĪĿ": 6503,
      "ĠáĬłáĭįáĪ«áĮĥ": 6504,
      "ĠáĪĺáīĥáī¥áĪŃ": 6505,
      "ĠáĭŃáĭĪáĭ³áĪī": 6506,
      "áĭµáĬĳ": 6507,
      "áĪĻáĬĴ": 6508,
      "áīĨáĭ©": 6509,
      "Ġáī³áĮĪáĬĽ": 6510,
      "ĠáĬ¢áĬ®áĬĸáĪļáĭ«áĭĬ": 6511,
      "áī¦áĬķ": 6512,
      "áĪ¶áĪŃ": 6513,
      "áīĢáĪŃáī¡áīµ": 6514,
      "Ġáĭ«áĪ³áĭµ": 6515,
      "Ġáĭ¨áĪĻáīĢáīµ": 6516,
      "áĮĪáĪĪáįģáīµ": 6517,
      "Ġáī°áĬ«": 6518,
      "ĠáĪĭáĪīáīµ": 6519,
      "ĠáĪģáĬķ": 6520,
      "Ġáīłáī°áĪĪáĪĿáĭ¶": 6521,
      "ĠáĬ¨áĬłáĪģáĬķ": 6522,
      "ĠáįħáĪħáįĪáīµ": 6523,
      "ĠáĪĿáĪµáĪİáī½áĬķ": 6524,
      "Ġáīłáĭļáĭ«áĭį": 6525,
      "Ġáĭ¨áĪµáĪŃ": 6526,
      "ĠáĮŃáĬķáīħ": 6527,
      "ĠáįĵáĪŃáĬŃ": 6528,
      "áĭĺáĪ¨áĭĺ": 6529,
      "ĠáĬ¨áĪĺáĮĢáĪĺáĪªáĭ«áĭį": 6530,
      "ĠáĪĺáĭĿáĬĵáĬĽ": 6531,
      "ĠáĪĺáĬłáĭĽ": 6532,
      "ĠáĬ¨áĬ«": 6533,
      "ĠáĬ¨áĪĻ": 6534,
      "áĪĽáĭİáī½": 6535,
      "áĬŃáĪ©": 6536,
      "Ġáī°áĪĺáĪµ": 6537,
      "áĭĭáī¸áĭį": 6538,
      "ĠáĮ¥áĬķáī³áĭĬ": 6539,
      "ĠáĭĪáĭ°áĬĭáĪĭ": 6540,
      "ĠáĮĪáĬķ": 6541,
      "áĭĻáīµ": 6542,
      "ĠáĬ¥áĪµáĬŃ": 6543,
      "ĠáĬ¨áĪĺáĬķ": 6544,
      "ĠáĪħáĭĿáīħáĭ«áĪµ": 6545,
      "ĠáīłáĪħáĭĿáī¡": 6546,
      "áĭĪáĭ³áĭ°áĪŃ": 6547,
      "ĠáĪĺáĭĿáĮĪáī¥": 6548,
      "Ġáī°áįĪáĮ¥áĪ®": 6549,
      "ĠáĬ¥áĪ·áĬķ": 6550,
      "ĠáĪĺáĪĿáĮ£áīµ": 6551,
      "ĠáĪµáĪįáĮ£áĬķáĬĵ": 6552,
      "ĠáĬ¤áĪįáĪ³": 6553,
      "ĠáīłáĪĽáĪµáĮĪáī£áīµ": 6554,
      "áĪįáĪµáĮ¤áĪĿ": 6555,
      "ĠáĮ©áĬ¸áīµ": 6556,
      "Ġáĭ¨áįĬáīµ": 6557,
      "ĠáīłáĮĮáī³": 6558,
      "áĪĺáĬĿ": 6559,
      "áīłáīģ": 6560,
      "áĪ«áĪĺáĭµ": 6561,
      "áĪ³áī½áĬķ": 6562,
      "áĪªáįį": 6563,
      "áĭ³áĪĪáĬķ": 6564,
      "ĠáĪ°áĮłáĭį": 6565,
      "áĪ½áĪĿ": 6566,
      "ĠáīłáĬ¥áĮįáĪŃ": 6567,
      "áĮİáĭµ": 6568,
      "ĠáīłáĪĿáĬĵ": 6569,
      "áįĨáī½áĬķ": 6570,
      "Ġáĭ°áĪŃáĪ¶": 6571,
      "áī¥áĪ©": 6572,
      "ĠáĬ¨áĪĨáĬķáĬŃ": 6573,
      "áĭİáī»áī¸áĭįáĬķ": 6574,
      "áĬ¨áįĪáĪį": 6575,
      "áĭĪáĮł": 6576,
      "ĠáĭĺáįĢ": 6577,
      "Ġáĭ®áĪŃáĬŃ": 6578,
      "áĪ¾áī½áĬķ": 6579,
      "Ġáīłáī£áĪĪ": 6580,
      "ĠáĭŃáĪ°áĪ«áĪī": 6581,
      "áĪŃáĪµáī²áĭ«": 6582,
      "Ġáī°áĪ³áī³": 6583,
      "áĪįáĭ«áĭµ": 6584,
      "ĠáĬ¥áĬķáĮĢáĪ«": 6585,
      "ĠáĬłáĮłáįĭ": 6586,
      "áīłáīĤáĭ«": 6587,
      "áīħáĭ«": 6588,
      "ĠáĪĿáĬķáĭµ": 6589,
      "ĠáĭĪáĭ°áī°": 6590,
      "áĬ©áĪŃ": 6591,
      "Ġáįħáĭĭ": 6592,
      "áĪĨáĬĵáī½áĬķ": 6593,
      "áĬķáī¥áĪ¨áīµ": 6594,
      "ĠáĬłáīħáĪŃáī¦": 6595,
      "áĪ¿": 6596,
      "áĭ°áĭŃ": 6597,
      "Ġáī°áĭŃ": 6598,
      "Ġáįĳ": 6599,
      "Ġáī³áĪªáĬ«áĭĬ": 6600,
      "ĠáĬķáįħ": 6601,
      "ĠáĪĿáĬŃáīµáĪį": 6602,
      "áĪ¨áĭ³áĭį": 6603,
      "ĠáĪĽáĪµáĮĪáī£áīµ": 6604,
      "ĠáĭĪáĭ³áĮħ": 6605,
      "ĠáĮ´áĮ¥": 6606,
      "ĠáĪŃáĭĿáĪĺáīµ": 6607,
      "ĠáĬłáįĭ": 6608,
      "ĠáĪĽáĭ¶": 6609,
      "áĭĭáī±": 6610,
      "ĠáĬłáĭŃáĬĲ": 6611,
      "ĠáĪĢáĪ´áīµ": 6612,
      "ĠáĮĪáĪĪáĪį": 6613,
      "ĠáįįáĪįáĪµáĮ¤áĪĽáĭįáĭ«áĬķ": 6614,
      "ĠáĪĮáĪİáī¹": 6615,
      "ĠáīłáĪĿáĪ³áĪĮ": 6616,
      "áĭĪáĪµáĭ°áĭį": 6617,
      "áĭŁáī¸áĭį": 6618,
      "Ġáī£áī¢áĪİáĬķ": 6619,
      "Ġáī°áĪŃáįİáĪĿ": 6620,
      "áĬĵáĮĪáĭµ": 6621,
      "áĪħáĪ³áĪµ": 6622,
      "ĠáĭĪáĪĪáĭµ": 6623,
      "áįĪáĭįáĬķ": 6624,
      "ĠáĪĿáĪĭ": 6625,
      "áĭĬáĭį": 6626,
      "ĠáīłáĬłáĭ¨áĪŃ": 6627,
      "Ġáĭ¨áĬłáĬķáī°": 6628,
      "áĪµáī°áĬ«áĬ¨": 6629,
      "ĠáĪļáĪµáī±": 6630,
      "ĠáĪĪáĬ¥áĬĲáĭļáĪħ": 6631,
      "ĠáĪĪáĪļáįĪáĪįáĮī": 6632,
      "Ġáĭ¨áĪįáĪĽáīµ": 6633,
      "ĠáĭĪáĭ³áĮħáĬĲáīµ": 6634,
      "ĠáĪĺáīĢáĬĲáĪµ": 6635,
      "Ġáī½áĮįáĪ®áī½áĬķ": 6636,
      "ĠáĬ¢áĭ®áĬłáī¥": 6637,
      "Ġáĭ¨áĪ«áĪ±": 6638,
      "áĪĺáī½": 6639,
      "áĪ¨áĬĿ": 6640,
      "ĠáĬ¨áįĪáĪĪáĮį": 6641,
      "ĠáĭŃáĭĽ": 6642,
      "áįĪáĬĳ": 6643,
      "ĠáĪ³áĭ«áĪµ": 6644,
      "ĠáĬ¨áĬ¥áĭį": 6645,
      "ĠáīłáįĬáīµáĪħ": 6646,
      "ĠáĭµáĬķáīłáĪŃ": 6647,
      "áĪµáī³áĭĪáīĤáĭ«": 6648,
      "ĠáĭŃáī³áĭ«áĪį": 6649,
      "ĠáĭŃáĭĪáīģ": 6650,
      "áī¸áĭĭáĪĪáĬķ": 6651,
      "áĪĪáīµáĬķ": 6652,
      "áĪ«áĭįáĭ«áĬķ": 6653,
      "ĠáĪĪáĪ«áĪµ": 6654,
      "ĠáĪ°áĭ¶": 6655,
      "ĠáĪ°áįĪáĪŃ": 6656,
      "áĪĬáįİáĪŃ": 6657,
      "ĠáĬłáĪĭáĮĪáĬĺ": 6658,
      "ĠáĪĿáĪŃáī¶áī½áĬķ": 6659,
      "ĠáĬłáĪ³áī¢": 6660,
      "ĠáĬłáĪ³áĭĽáĬĿ": 6661,
      "ĠáīłáīĢáĪµ": 6662,
      "Ġáī°áĮĪáĬķáĭĿ": 6663,
      "Ġáĭ«áĬ«áīµáī³áĪī": 6664,
      "Ġáĭ¨áĪĬ": 6665,
      "Ġáĭ«áĭ°": 6666,
      "Ġáĭ«áĭ°áĪŃáĮį": 6667,
      "Ġáī°áĬķáīĢáĪ³": 6668,
      "Ġáĭ¨áī°áĪ«": 6669,
      "ĠáĬ¢áĪľáĪį": 6670,
      "ĠáįĪáĪ«": 6671,
      "áĬĴáĪµáīµ": 6672,
      "ĠáĪŀáī°áĪŃ": 6673,
      "áĪ¨áĮĭáĮįáĮ¥": 6674,
      "Ġáĭ¨áĪµáĮĭ": 6675,
      "áĬ¨áĪ°áī°": 6676,
      "áĬ¨áĪ°áī±": 6677,
      "áĪįáĬĽáĪį": 6678,
      "áĬĵáīµáĬķ": 6679,
      "áīłáĪĪ": 6680,
      "áīĢáĮ£": 6681,
      "Ġáī°áĪ¨áĭµ": 6682,
      "áĭ³áĭ©": 6683,
      "ĠáĮįáĪĽáĪ½": 6684,
      "áĭĿáĬĲáĪµ": 6685,
      "ĠáĪĪáĪĺáĮĪáĬĵáĬĺáīµ": 6686,
      "ĠáīĢáĪļ": 6687,
      "ĠáĬ¥áĬķáĬ¨áĬķ": 6688,
      "áĭ±áĪĿ": 6689,
      "ĠáĮłáĪŃáī¶": 6690,
      "ĠáĬ¨áī°áįĪ": 6691,
      "áĪĪáĮłáįį": 6692,
      "ĠáĭĺáĪĺáĬĵáīµ": 6693,
      "áĮĪáĪĿáĮĪáĪĿ": 6694,
      "Ġáĭ¨áĪļáĮłáĮī": 6695,
      "áĪħáĪ«áĪĦ": 6696,
      "ĠáĬ¨áĬĲáīłáĪ¨áĭį": 6697,
      "ĠáĭŃáĪĪ": 6698,
      "ĠáĪįáī£": 6699,
      "ĠáīµáĭĿ": 6700,
      "Ġáĭ°áĪ´áīµ": 6701,
      "ĠáīłáĬłáĬķáįĥ": 6702,
      "ĠáĬłáĪĪáĪĿáĬķ": 6703,
      "ĠáĬłáĮĪáĪįáĮį": 6704,
      "áĭ´áĮį": 6705,
      "ĠáĬ¥áĭµáĪİáī½": 6706,
      "áī³áī¸áĭįáĪĿ": 6707,
      "Ġáĭ¨áĪĢáĭŃáĪĽáĬĸáīµ": 6708,
      "Ġáī°áī¥áĪĪáĭį": 6709,
      "Ġáĭ¨áĪĻáĭ«": 6710,
      "áī°áĬ®áĪŃ": 6711,
      "ĠáĬ¥áĬķáīħáįĭáīµ": 6712,
      "áĪĿáī¥": 6713,
      "áĪĿáĪ«áĪī": 6714,
      "áī½áīµ": 6715,
      "ĠáĪĺáĬ®áĬķ": 6716,
      "áī³áĭįáĬķ": 6717,
      "Ġáĭ¨áĪļáįĪáĪįáĮį": 6718,
      "áĭĭáĭŃ": 6719,
      "áĬ¤áįį": 6720,
      "ĠáīĨáĭŃáī³": 6721,
      "áĬ¸áĬĿ": 6722,
      "ĠáĬłáĮĭáĪĽáĪ½": 6723,
      "ĠáĪĿáĪ³áĪĮáĭİáī½": 6724,
      "ĠáĪĺáĭ³áĪ¨áĪ»": 6725,
      "Ġáĭ¨áĮįáī¥áĭŃáīµ": 6726,
      "ĠáįķáĪ®áĮĢáĬŃáī¶áī½": 6727,
      "Ġáĭ¨áĮĮáī³": 6728,
      "áĬķáĭĻ": 6729,
      "ĠáĬ¨áĬĭáĪĭ": 6730,
      "áĭĪáĪŃáĭµ": 6731,
      "Ġáĭ¨áĪļáĪµáĪĽáĪĽ": 6732,
      "ĠáīµáĮįáĪį": 6733,
      "áĪĮáĪŃ": 6734,
      "Ġáīłáī°áĮįáī£áĪŃ": 6735,
      "áĭİáī¹áĪĿ": 6736,
      "ĠáĪµáĪĪáĭļáĪħáĪĿ": 6737,
      "Ġáīłáī¥áĭĽáīµ": 6738,
      "Ġáĭ¨áĪĻáĭļáīĥ": 6739,
      "ĠáĪĪáĪĺáĪµáĪĽáīµ": 6740,
      "ĠáĬ¨áĬĲáīłáĪ©áīµ": 6741,
      "Ġáī°áĭĪáĭ³áĭ³áĪª": 6742,
      "Ġáĭ«áĪ¨áĮĭáĮįáĮ£áĪį": 6743,
      "ĠáĮīáĪįáīłáīµ": 6744,
      "Ġáīłáī½": 6745,
      "ĠáĪĺáĮĢáĪĺáĪŃ": 6746,
      "Ġáĭ°áĭĮ": 6747,
      "ĠáĪĪáĪĺáĮłáĭ¨áīħ": 6748,
      "ĠáīłáĬłáĪµáĪ«": 6749,
      "ĠáīłáĬłáĬ«áĪį": 6750,
      "ĠáīłáĬ¬": 6751,
      "ĠáĪŃáĬ«áĪ½": 6752,
      "ĠáĪĤáĪ³": 6753,
      "áĪĤáĭµ": 6754,
      "ĠáĭŃáīĢáĬķ": 6755,
      "ĠáĪµáĪĪáĪĽáĭŃ": 6756,
      "áĪĬáįİáĪŃáĬĴáĭ«": 6757,
      "Ġáĭ¨áī±": 6758,
      "ĠáĪĺáīĨáĮ£áĮł": 6759,
      "ĠáĬ¨áī¤": 6760,
      "ĠáĭŃáĪĿ": 6761,
      "ĠáĭŃáĪ°áīł": 6762,
      "Ġáĭ¨áĪļáĪĪ": 6763,
      "áįħáįį": 6764,
      "ĠáīĢáĭµ": 6765,
      "Ġáĭ¨áĪĺáĪĿ": 6766,
      "ĠáĪ³áĮ¥": 6767,
      "ĠáĪĨáĬĲáĬķ": 6768,
      "ĠáīłáĬłáĬķáĭµáĬĲáīµ": 6769,
      "Ġáĭ¨áĮ¥áīłáī¥": 6770,
      "ĠáĪħáĭŃáĭĪáīµáĬķ": 6771,
      "áĮĪáĭ°áĪį": 6772,
      "Ġáĭ°áĬķáīłáĬĽ": 6773,
      "ĠáīłáĪħáĭŃáĭĪáī´": 6774,
      "ĠáĬłáĪĿáĪĭáĬ«áī½áĪģ": 6775,
      "ĠáīłáĪĽáĮįáĬĺ": 6776,
      "ĠáīłáĬłáīħáĪ«": 6777,
      "ĠáĭŃáĬ¨": 6778,
      "ĠáĭŃáĮłáīł": 6779,
      "ĠáĪĪáĬķáĮįáĭµ": 6780,
      "Ġáĭ«áĭµ": 6781,
      "ĠáĪĪáĪĺáĪĺ": 6782,
      "ĠáĬŃáīµ": 6783,
      "áĬ©áĪ¨áīµ": 6784,
      "ĠáĪĢáĬĵ": 6785,
      "ĠáĪ³áĬķ": 6786,
      "Ġáĭ«áĪµáĭĪáĮį": 6787,
      "ĠáĬłáī£áī£áĪį": 6788,
      "Ġáĭ¨áĪļáĭ«áĪµáĬ¨áīµ": 6789,
      "áĭ°áĪŃáĮĭáī¸áĭį": 6790,
      "ĠáĪĪáĪĺáīĢáĮłáĪį": 6791,
      "ĠáĮĪáī¥áī·áĪį": 6792,
      "ĠáĮłáĪĭáī¶áī½": 6793,
      "ĠáĭŃáĪ»áĪĭáĪį": 6794,
      "áĪŃáĮį": 6795,
      "áĪ¨áĬĵáĪį": 6796,
      "ĠáĭŃáĪĤáĭ±": 6797,
      "ĠáĭĪáįİáī½": 6798,
      "áĪ³áĭ©": 6799,
      "áĬłáĪŃ": 6800,
      "ĠáĪĽáĮłáĪ«áīĢ": 6801,
      "ĠáĭįáĪŃ": 6802,
      "ĠáĮįáįĬáīµ": 6803,
      "ĠáĮ¥áĪ¨": 6804,
      "ĠáĭŃáĪĨáĭĭáĪĿ": 6805,
      "Ġáī£áĪħáĪĭáĭĬ": 6806,
      "ĠáīłáĮįáĬķ": 6807,
      "ĠáīłáĪħáĭŃáĭĪáī³áī½áĬķ": 6808,
      "ĠáīłáĪĺáīĢáĮłáĪį": 6809,
      "áĭł": 6810,
      "ĠáīłáĬķáĮįáĭµ": 6811,
      "ĠáĭŃáĪĺáĮ£áĪī": 6812,
      "Ġáī°áĮĵ": 6813,
      "áĪİáĪª": 6814,
      "ĠáĬ¥áĬķáĭ²áĪ°áĪ«": 6815,
      "ĠáĬłáĪĪáĪĽ": 6816,
      "Ġáī³áĭ³": 6817,
      "ĠáĬ«áĬķáĪ°áĪŃ": 6818,
      "ĠáĬ«áĭįáĬķáī²": 6819,
      "ĠáīłáĬª": 6820,
      "ĠáĪĻáĭļ": 6821,
      "Ġáī¥áĪİáĬĽáĪį": 6822,
      "ĠáĪĽáĪµáī°áĬ«áĬ¨": 6823,
      "ĠáĬłáĮįáĬĿáī·áĪį": 6824,
      "ĠáĬłáĮįáĬĿáī»áĪĪáĪģ": 6825,
      "ĠáĪĨáĬĵáī½áĪģ": 6826,
      "Ġáī¼": 6827,
      "áĬĲáīĥ": 6828,
      "Ġáĭ«áī¥áĪ«": 6829,
      "áĮłáĪĪ": 6830,
      "ĠáĪĿáī¾áīµ": 6831,
      "ĠáĪ³áĪ«": 6832,
      "áĬŀáī»áī¸áĭį": 6833,
      "ĠáĬ¨áī°áĪĪáĭ«áĭ©": 6834,
      "áĬ³áĬķ": 6835,
      "áĮĮáĮ¥": 6836,
      "Ġáĭ¨áī£áĬ¥áĭµ": 6837,
      "ĠáĭŃáĪµáĪĢ": 6838,
      "ĠáĬŃáĪµáī°áī¶áī½": 6839,
      "áĮłáĬĵáīĢáīĢ": 6840,
      "Ġáī¥áĪ©áĪħ": 6841,
      "Ġáĭ¨áĭľáĬĵ": 6842,
      "Ġáĭ¨áĪĦ": 6843,
      "áĪĺáī³": 6844,
      "ĠáĮįáĭ¢": 6845,
      "ĠáīłáĪĺáĪ°áĭĬáĭ«áĭį": 6846,
      "ĠáĮĭáĪ»": 6847,
      "áī¡áĪĿ": 6848,
      "ĠáĬ¥áĬķáĭ³áĪĪáĬķ": 6849,
      "ĠáīłáĪļáĪĪáĭį": 6850,
      "áĬ¨áī£áĭµ": 6851,
      "ĠáĬłáĬķáĭ°áĬĽáĭį": 6852,
      "ĠáĮ¨áĪŃáĪ¶": 6853,
      "Ġáī°áĮįáĪ³áįħ": 6854,
      "áĪĿáĪ«áĪĪáĬķ": 6855,
      "ĠáĬłáĪ«áĭĬ": 6856,
      "áĪ³áĭµ": 6857,
      "Ġáī°áĬ¨áĪ«": 6858,
      "ĠáĪĪáĪĺáĪĽáĪŃ": 6859,
      "ĠáīłáĬłáĮĪáĪįáĮįáĪİáīµ": 6860,
      "ĠáĬ¢áĪĭáĪĽ": 6861,
      "ĠáĪĮáĪĬ": 6862,
      "ĠáĬ¥áĪµáĬªáĭ«": 6863,
      "ĠáīłáĪĻáĪ´": 6864,
      "ĠáĪĿáĪµáĮ¢": 6865,
      "áĮªáĭį": 6866,
      "áī¥áĪ«áĭįáĭ«áĬķ": 6867,
      "ĠáĬ¥áĬķáĭµáĬķáī½áĪį": 6868,
      "ĠáįĪáĪŃáĬ¦áĬķ": 6869,
      "Ġáī°áĮ«áĭĭáī½": 6870,
      "ĠáĪĪáĪĽáĬķáīłáī¥": 6871,
      "Ġáī°áīĥáĭĭáĪļ": 6872,
      "ĠáīłáĪĺáĭ°áīłáĬĽ": 6873,
      "ĠáīłáĬĲáīłáĪ¨áĭį": 6874,
      "ĠáĬłáĭĿáĬĵ": 6875,
      "ĠáĬ¨áĭ®": 6876,
      "áĪ°áīłáĭį": 6877,
      "Ġáĭ«áĮĪáĬĻ": 6878,
      "áĪªáįķ": 6879,
      "áĮĭáĮłáĪĺ": 6880,
      "ĠáīłáĪĺáĪŃ": 6881,
      "ĠáĬĲáĮĪáĪ°": 6882,
      "áīłáĪŃáīµ": 6883,
      "ĠáįįáĪ«": 6884,
      "Ġáĭ¨áĬ¥áĪĪáīµ": 6885,
      "ĠáĬ¨áĪļáĭ«áĪµ": 6886,
      "ĠáĬłáĪīáĬķ": 6887,
      "áĬ¥áĪ«áī¥": 6888,
      "ĠáįķáĪ¬áĪµ": 6889,
      "ĠáīĢáĪŃáī¦": 6890,
      "Ġáīłáī°áĪĺáĪ³áĪ³": 6891,
      "Ġáī°áĬ¨áīµáĪİ": 6892,
      "ĠáĭµáĬķáĮĭáĮĮáĭİáī½": 6893,
      "áĪ«áĮ®áī½áĬķ": 6894,
      "Ġáī°áĬĿ": 6895,
      "áĬ¨áī¥áĪŃ": 6896,
      "áĪ®áī¹áĬķ": 6897,
      "áĪªáĭ«áĬķ": 6898,
      "ĠáĬ«áĬĵáĭ³": 6899,
      "ĠáĮłáĭ«áīĤ": 6900,
      "ĠáīłáĪħáĭĿ": 6901,
      "ĠáĬłáĪĿáĮ¥": 6902,
      "Ġáĭ²áĮĤáī³áĪį": 6903,
      "Ġáī¥áĪŃáĪĢ": 6904,
      "ĠáīĨáĭŃáī·áĪį": 6905,
      "ĠáīłáīµáĬ¥áĮįáĪµáīµ": 6906,
      "ĠáĬłáĪĿáĬĵáĪĪáĪģ": 6907,
      "ĠáĬ¥áĮģ": 6908,
      "ĠáĬłáīĨ": 6909,
      "ĠáĬłáįĪáĪŃ": 6910,
      "ĠáĬ¨áĪ«": 6911,
      "áĮĢáĪĿáĪ©": 6912,
      "áĮİáī½áĬķ": 6913,
      "ĠáĪ³áĬķáī²": 6914,
      "ĠáĪ¨áĭ³áīµ": 6915,
      "Ġáī¥áĪŃáī³áīµ": 6916,
      "ĠáĪĺáĬķáĮĪáĭ¶áī½áĬķ": 6917,
      "ĠáĪĺáĪĭáĬŃ": 6918,
      "ĠáĪĢáĭĭáĪŃáĭ«": 6919,
      "ĠáĪįáĮĥáī½áĪģ": 6920,
      "ĠáĪĽáīĨáĪļáĭ«": 6921,
      "ĠáĬ¥áĮĥ": 6922,
      "áĬĵáĮĭ": 6923,
      "ĠáĪ°áĬķáĪ°": 6924,
      "ĠáĪįáĬ¡": 6925,
      "ĠáīłáĬ¥áĮģ": 6926,
      "Ġáįįáīĥáĭµ": 6927,
      "áĮİáĬķ": 6928,
      "áī²áĬķáĮį": 6929,
      "áįĢáĬķ": 6930,
      "áĬĴáĬŃáĪµ": 6931,
      "Ġáĭ¨áī³áĪªáĬŃ": 6932,
      "ĠáĬ¥áĬķáĭ³áĪĪáī¥áĬķ": 6933,
      "ĠáĬłáĮįáĬĿáī°áĭĭáĪį": 6934,
      "Ġáĭ¨áĭ³áĭĬáīµ": 6935,
      "áĪĿáĪ¨áĮ¡": 6936,
      "ĠáīłáĮĭáĪ«": 6937,
      "áĪħáĪī": 6938,
      "ĠáĭŃáĮĭ": 6939,
      "áĬŃáĪĪáĬĽáĭį": 6940,
      "áįįáĪ«áīµ": 6941,
      "áīĢáĪ©": 6942,
      "ĠáĭįáĪ»": 6943,
      "áĪĻáīµáĬķ": 6944,
      "áĪµáī³áĭįáĪµ": 6945,
      "ĠáĬ®áĪĮáĮħ": 6946,
      "ĠáįĢáĮ¥": 6947,
      "ĠáĪ¨áīĤáīħ": 6948,
      "ĠáīµáĬķáī¢": 6949,
      "ĠáĪ´áī¶áī½áĬķ": 6950,
      "ĠáĬ«áĪħáĬĳáĪĿ": 6951,
      "ĠáīłáĪ³áĪĿáĬķáīµ": 6952,
      "Ġáĭ¨áĪŃ": 6953,
      "ĠáĬ¥áĪĭáĪĪáĪģ": 6954,
      "áĮĪáĪĭ": 6955,
      "ĠáĪĺáīħáĪ¨áī¥": 6956,
      "áĪ«áĪĪáī½": 6957,
      "ĠáĬ¨áī¦": 6958,
      "áĮłáĬŀáī½": 6959,
      "áįĪáĪµ": 6960,
      "ĠáĪĿáĬ¥": 6961,
      "áĭ³áĪĪáĪģ": 6962,
      "ĠáĮ¥áĬķáīĥáīĦ": 6963,
      "ĠáīłáĪĺáĪĺ": 6964,
      "ĠáīłáĪĺáĪĨáĬĵáī¸áĭį": 6965,
      "ĠáĪĻáĭ«áĭĬ": 6966,
      "áĪ¨áĭ³áī¸áĭį": 6967,
      "ĠáĪĤáĭ±": 6968,
      "Ġáī°áĬĵáĮĪáĪŃ": 6969,
      "ĠáīłáĮįáĪĪáĪ°áī¥": 6970,
      "ĠáįĭáĭŃáĪį": 6971,
      "Ġáī°áĮĪáĬĲáĭĺ": 6972,
      "áĬĹáĬķ": 6973,
      "Ġáĭ¨áĪļáĮĪáĬĻáīµ": 6974,
      "ĠáĮłáĭ¨áīĢ": 6975,
      "ĠáīłáĪĺáĮįáĪĪáįħ": 6976,
      "ĠáĪĿáĬŀáīµ": 6977,
      "Ġáĭ¨áīħáĭµ": 6978,
      "ĠáĭŃáīłáĪį": 6979,
      "áĭ³áī¸áĭįáĬķ": 6980,
      "Ġáīµáĭ³áĪŃ": 6981,
      "ĠáĬ«áĭ°áĪ¨áĮį": 6982,
      "Ġáīħáī§áĬķ": 6983,
      "áĮİáĬĵ": 6984,
      "ĠáīłáĪļáĮĪáĬĻ": 6985,
      "Ġáī£áĪĪáĪĢáī¥": 6986,
      "ĠáĬŃáįįáĭ«áĭİáī½": 6987,
      "ĠáĪĪáĬłáĪĪáĪĿ": 6988,
      "ĠáĪĽáĬķáĪ³áīµ": 6989,
      "ĠáīłáĪĿáĬķáĪĿ": 6990,
      "ĠáīµáĪŃáĮī": 6991,
      "áĪ°áĪįáĮłáĬķ": 6992,
      "áĭĿáĬĵáĬĽ": 6993,
      "áīĢáĭĿáīĢ": 6994,
      "ĠáĬĲáī¢áĭ«áīµ": 6995,
      "Ġáĭ¨áĮĢ": 6996,
      "ĠáīłáĭļáĪģ": 6997,
      "ĠáĭŃáĬ¨áī³áī°": 6998,
      "Ġáĭ¨áī°áĪ¨áĮĭáĮĪáĮł": 6999,
      "Ġáīµáī¥áī¥áĪŃ": 7000,
      "áĪ½áĬĵáĪį": 7001,
      "áī²áīŃ": 7002,
      "ĠáĪįáĮĨáī»áī¸áĭįáĬķ": 7003,
      "áĪŃáī£áĬķ": 7004,
      "ĠáĬ¥áĪµáĪ«áĬ¤áĪĭáĭįáĭ«áĬķáĬķ": 7005,
      "ĠáĪĪáĪĽáĪ³áĭ°áĮį": 7006,
      "Ġáĭ¨áĭĭáĪµáīµáĬĵ": 7007,
      "ĠáīłáĪļáĭ«áĪµáĭ°áĬķáīħ": 7008,
      "Ġáĭ¨áī´áĬŃáĬĸáĪİáĮĤ": 7009,
      "áīĢáĭĿáīĢáĭ£": 7010,
      "ĠáĪĬáĭ": 7011,
      "ĠáĬ¥áĮĦ": 7012,
      "áĪĪáĭĪáĮ¥": 7013,
      "Ġáĭ«áĭ¨": 7014,
      "áĮ£áī½áĪģ": 7015,
      "Ġáĭ¨áĪļáĬĸáĪ¨áĭį": 7016,
      "áĭ³áĪªáĭİáī½": 7017,
      "ĠáĪ°áĭįáĬķ": 7018,
      "ĠáĬ¥áĬķáĭ²áĪ°áĪ©": 7019,
      "áįħáĪĿáĬĵ": 7020,
      "ĠáīłáĪĺáĬªáĬĵ": 7021,
      "Ġáĭĺáĭ³": 7022,
      "ĠáĬĵáī¡": 7023,
      "áĮłáīĥáĪį": 7024,
      "ĠáĬ¨áī£áĪĪ": 7025,
      "ĠáīłáįįáĪŃ": 7026,
      "ĠáīłáĮįáĭŀáīµ": 7027,
      "áĪĭáĪĪáĪĽáĭĬ": 7028,
      "ĠáīłáĬĲáĮĪáĪ°": 7029,
      "Ġáī´áĪĮ": 7030,
      "ĠáĭŃáĪĪáĬĽáĪį": 7031,
      "ĠáĬĲáĭİáīµ": 7032,
      "Ġáī£áĪĭ": 7033,
      "áĪĻáĪĭáīµ": 7034,
      "ĠáĮįáĬķáī¦áīµ": 7035,
      "ĠáĬ¨áĬłáĪĪáĪĿ": 7036,
      "ĠáĬ¥áĬķáĭ³áĪĪáī¥áĬĿ": 7037,
      "ĠáĬłáĭµáĪ®": 7038,
      "ĠáĪ°áĪĭáĪĿáī³": 7039,
      "ĠáĭµáĪŃáĮĬáī¶áī½": 7040,
      "ĠáĪĺáĪĨáĬĵáī¸áĭį": 7041,
      "áĪµáĬŃáĪĮáīµ": 7042,
      "ĠáĭŃáī£áĪĭáĪį": 7043,
      "áĬĲáįĥáįĢáĪŃ": 7044,
      "ĠáĪĪáĭļáĭ«": 7045,
      "áī£áĬĸáĪµ": 7046,
      "áĬ¥áĬĵ": 7047,
      "ĠáīµáĪħáīµáĬĵ": 7048,
      "ĠáīłáĬ¥áĪŃáĪµáĭİ": 7049,
      "ĠáĬ«áĮĪáĬĺ": 7050,
      "áĪ²áĬ«": 7051,
      "Ġáĭ«áĪµáī£áĪī": 7052,
      "ĠáĬłáī£áī³áī½áĬķ": 7053,
      "ĠáįħáĪģáįİáī½áĬķ": 7054,
      "ĠáĪĿáĭµáĪªáī±áĬķ": 7055,
      "áĬ¨áĪ¨áĪĿ": 7056,
      "ĠáīłáĭŃáįĭ": 7057,
      "áĬĢáĬķáĬĲáīµ": 7058,
      "Ġáĭ¨áĮĤ": 7059,
      "Ġáĭ¨áĮįáī¥áįħ": 7060,
      "áĪ³áĪªáĭ«": 7061,
      "áĭ³áĭµáĪŃ": 7062,
      "áĭĭáĪŃáĭ«áīµ": 7063,
      "áĪİáĪĽ": 7064,
      "ĠáĮįáĪĭáĭĬ": 7065,
      "ĠáĪįáĮĩ": 7066,
      "Ġáĭ¨áĪĺáĪĨáĬķ": 7067,
      "ĠáĭµáįįáĪ¨áīµ": 7068,
      "ĠáĮĪáĭ³áĭŃ": 7069,
      "áĮİáĪĿ": 7070,
      "áīĭáĬķáīĭ": 7071,
      "ĠáĬ¨áĬ¥áĬĲáĪŃáĪ±": 7072,
      "ĠáĬ¥áĬĲáĪĨáĪĿ": 7073,
      "ĠáĭĪáĭ°áĪļáĮĪáĬĺáĭį": 7074,
      "ĠáĬ¥áĪ«áĪµáĭİáĬķ": 7075,
      "ĠáīłáĪĽáĪħáīłáĪ«áĭĬ": 7076,
      "Ġáĭ«áĪĺáĪĪáĬŃáī³áĪį": 7077,
      "ĠáĪĺáĭ°áĪĿáĭ°": 7078,
      "Ġáīłáī°áĪĺáĪ³áĪ³áĭŃáĪĿ": 7079,
      "áĭ´áīµ": 7080,
      "áĪŃáĪ½": 7081,
      "áĪĺáĪ¨áī¥": 7082,
      "áĬķáĭŀ": 7083,
      "ĠáĬ¨áĪĿáĬķ": 7084,
      "áĬ«áī½áĪģ": 7085,
      "áĪĭáĭŃáĬķ": 7086,
      "Ġáĭ°áĮįáĬĲáīµ": 7087,
      "ĠáįķáĪª": 7088,
      "ĠáīłáĮ¥áīĤáīµ": 7089,
      "Ġáĭ¨áĭĺáĪŃ": 7090,
      "ĠáĪ±áīħ": 7091,
      "ĠáīłáĪ°áĪĽáĭ«áīµ": 7092,
      "ĠáĬ¬áĬŃ": 7093,
      "áĪ½áĬ¨áĪŃáĬ«áĪªáĭİáī½": 7094,
      "ĠáĮīáĪįáīł": 7095,
      "ĠáīłáĪºáĭİáī½": 7096,
      "áįįáī¶": 7097,
      "Ġáĭ¨áĪļáĬĲ": 7098,
      "áĬ«áĬĿ": 7099,
      "áī¶áīµ": 7100,
      "ĠáīłáĬłáĮĪáĪŃ": 7101,
      "Ġáĭ¨áĪĿáĭµ": 7102,
      "ĠáīłáĪĺáĮ¨áĪ¨áĪ»áĭį": 7103,
      "ĠáĪĺáī°áĪĽáĪĺáĬķ": 7104,
      "Ġáī¥áī¸áĬĽ": 7105,
      "ĠáīłáįĪáīĥáĭ°áĬĿáĬĲáīµ": 7106,
      "áĮ¥áĪ¯áĭĬ": 7107,
      "áĪĻáĬĴáĬ¬áĪ½áĬķ": 7108,
      "Ġáĭ¨áĮĪáĬĵ": 7109,
      "Ġáĭ¨áĬŃáĪįáĪį": 7110,
      "áĪĪáĪī": 7111,
      "ĠáĭŃáĪĺáĪ¨": 7112,
      "ĠáĭŃáĪĿáĪ¨áĮ¡": 7113,
      "ĠáĪĪáĪ°áĪ«": 7114,
      "Ġáī°áĪ½áĬ¨áĪŃáĬ«áĪª": 7115,
      "ĠáĪ°áĪį": 7116,
      "ĠáĪįáī¤": 7117,
      "ĠáīłáĬłáĬ¥áĪĿáĪ®": 7118,
      "áĮ«áĭį": 7119,
      "ĠáĪµáĪ«áī¸áĭįáĬķ": 7120,
      "ĠáĪļáĬ«": 7121,
      "áĪ¨áĮĭáĮĭáīµ": 7122,
      "ĠáīłáĪ°áī£": 7123,
      "ĠáīłáįįáĪŃáĭµ": 7124,
      "ĠáĪĺáĪĪáĭĪáĮ¥": 7125,
      "Ġáī»áĭŃ": 7126,
      "ĠáĬłáĪµáī°áĭ³áĭ³áĪª": 7127,
      "ĠáĬ¨áīģ": 7128,
      "ĠáĬĲáīħ": 7129,
      "ĠáĪĽáĮ£áīµ": 7130,
      "áīĥáī½áĬķ": 7131,
      "Ġáĭ¨áĬ¥áĬķáĮįáĪĬáĭĿ": 7132,
      "ĠáĬ¥áĭ¨áĪŀ": 7133,
      "áĪ°áī¥áĬŃ": 7134,
      "áĬ³áĭŃ": 7135,
      "áĪ°áī£áĪ°áī¥": 7136,
      "ĠáĪµáĪľáī³áĭĬ": 7137,
      "áĪ¨áĭ±áīµ": 7138,
      "ĠáĬłáĭµáĪ«áĮĬ": 7139,
      "ĠáīłáĭĻáĪªáĭ«áĭį": 7140,
      "áįĢáĪįáĭŃ": 7141,
      "ĠáĪįáĭįáĭįáĮ¥": 7142,
      "ĠáĬłáĭĪáĭµ": 7143,
      "áĭ«áĬķáĪĿ": 7144,
      "áĪħáĭĽáī¥": 7145,
      "ĠáĪĺáĬķáĭ°áĪŃ": 7146,
      "ĠáĭŃáīĢáĪŃ": 7147,
      "ĠáĭŃáĬĲáĮį": 7148,
      "Ġáĭ¨áĪļáī³áĭĪ": 7149,
      "áīłáĪŃáĮį": 7150,
      "Ġáĭ¨áĪĺáĭµáĪĢáĬĴáīµ": 7151,
      "ĠáĪħáĭ³áĪŃ": 7152,
      "áīĨáĮłáĪ©": 7153,
      "ĠáĪ¶áĪµáī°áĬĽáĭį": 7154,
      "áĮłáĬĵáīħ": 7155,
      "Ġáĭ¨áĪŀáī£áĭŃáĪį": 7156,
      "Ġáĭ¨áĪļáĬ¨áī°áĪĪáĭį": 7157,
      "ĠáĪĪáĪĺáĮįáĪĪáįħ": 7158,
      "áįħáĬĵáĬĵ": 7159,
      "áĪĺáĪĪáĬ¨áī±áīµ": 7160,
      "ĠáīģáĪŃáĮłáĬĿáĬĲáīµ": 7161,
      "ĠáīłáĬ¨áįĬáĪį": 7162,
      "ĠáĬ«áĪħáĬĵáī±": 7163,
      "áįĵáĪŃáī³áĪĽ": 7164,
      "áĪĿáĪ¬": 7165,
      "ĠáĪĺáĬķáĭ°": 7166,
      "áĪ¨áĬŀáī½": 7167,
      "Ġáī°áĪĽ": 7168,
      "ĠáĪĽáĭĺ": 7169,
      "Ġáī£áĬķ": 7170,
      "ĠáĬ¥áĪŃáĮį": 7171,
      "áĭĪáĪ°áĬĲáĭį": 7172,
      "Ġáĭ¨áĪħáĭĿ": 7173,
      "Ġáĭ¨áĪĮáĪĪ": 7174,
      "Ġáĭ¨áĮįáī¥áĪŃ": 7175,
      "Ġáī°áĭĭáĬĵ": 7176,
      "ĠáĪĺáįĥáĪħáįį": 7177,
      "ĠáĪµáĬ¥áĪį": 7178,
      "áĭįáĪ¨áĭµ": 7179,
      "áĪĿáįķ": 7180,
      "ĠáĬ¥áĮĪáĪĿ": 7181,
      "ĠáīłáīłáĪ¨": 7182,
      "áĭİáī³áĪĪáĬķ": 7183,
      "ĠáĭįáĪİ": 7184,
      "ĠáĮłáīģ": 7185,
      "ĠáĬ¨áĬłáĭ²áĪµ": 7186,
      "áĪĺáĪŃáĮ¡": 7187,
      "áĮįáĪ«áĪĿ": 7188,
      "ĠáĪħáĭŃáĭĪáī±áĬķ": 7189,
      "ĠáĬ¥áĭļáĭ«áĭį": 7190,
      "Ġáĭ¨áĭµáĪĿáįħ": 7191,
      "áĪµáįĭáįĭ": 7192,
      "ĠáĬ¥áĮĪáĪĿáī³áĪĪáĪģ": 7193,
      "áĬķáĭ·": 7194,
      "Ġáī°áĪŀ": 7195,
      "ĠáĬłáĪµáī¤": 7196,
      "ĠáĬ¥áĭ«áĪ³": 7197,
      "áĮłáĭ¨áīģ": 7198,
      "Ġáī¥áĪįáĪħ": 7199,
      "áĪµáī²áĬŃáĪµ": 7200,
      "Ġáĭ¨áĪļáĭ«áĭ°áĪŃáĮīáīµ": 7201,
      "áĮķ": 7202,
      "Ġáĭ¨áīħáĬķ": 7203,
      "Ġáĭ¨áīħáĭ±": 7204,
      "áĪįáĬ©": 7205,
      "ĠáīłáĮĥ": 7206,
      "ĠáĭŃáĪŀáĬŃáĪ©": 7207,
      "áĪ°áīĥ": 7208,
      "áī¶áī»áī½áĬķáĬķ": 7209,
      "ĠáĪµáĪĪáĬĲáīłáĪ¨": 7210,
      "Ġáĭĺáĭį": 7211,
      "áįīáĪĿ": 7212,
      "ĠáĬłáĭįáī³áĪ¨": 7213,
      "ĠáĬłáĪ³áĪµ": 7214,
      "Ġáĭ¨áĬ¢áĭ®": 7215,
      "ĠáĭĪáĪ¨áĭ°": 7216,
      "ĠáĬ¬áĪļ": 7217,
      "ĠáĮĵáĭ°áĬĽáĭ¬": 7218,
      "ĠáĬłáĪ³áĪįáįĮ": 7219,
      "ĠáīłáĬ¨áī°áĪĽáĭį": 7220,
      "ĠáĬłáĪ®áĮĮ": 7221,
      "ĠáĪļáĪµáĮ¥áĪ«áĭĬ": 7222,
      "ĠáĪĢáĮĪáĪ«áīµ": 7223,
      "ĠáĬłáīĢáĪĽáĪĺáĮ¥": 7224,
      "áĪĺáĪħ": 7225,
      "áĮĪáĭĿ": 7226,
      "ĠáĪĺáĪĿáĪħáĪŃ": 7227,
      "Ġáĭ«áĮĪáĬĽáĪį": 7228,
      "ĠáĭĪáįį": 7229,
      "áĪ³áī¸áĭįáĬķ": 7230,
      "Ġáī°áĬŃáĪį": 7231,
      "ĠáĭµáĪ«": 7232,
      "Ġáĭ¨áĬłáĪ³": 7233,
      "ĠáĬ«áĪľáĪ«": 7234,
      "ĠáĬłáĪĺáī·": 7235,
      "ĠáĭŃáī½áĪį": 7236,
      "Ġáĭ¨áīłáĮĭ": 7237,
      "ĠáĬķáĮīáĪ±áĬķ": 7238,
      "Ġáĭ²áĪŀáĬŃáĪ«áĪ²áĭ«áĭĬ": 7239,
      "áĪŁáĪī": 7240,
      "Ġáĭįáĭµáīħ": 7241,
      "Ġáĭ¨áī°áī£áĪĪáī½": 7242,
      "ĠáĬ¥áĪµáĪ«áĬ¤áĪįáĬķ": 7243,
      "ĠáĬłáĪµáīĢáĭµáĪĺáĭį": 7244,
      "ĠáĬłáĭµáĪ«áĮİáīµ": 7245,
      "ĠáĭŃáī³áĭĪáīĥáĪį": 7246,
      "ĠáīłáĪĺáĪ°áĪ¨áī±": 7247,
      "ĠáĭŃáĮłáīłáīĥáĪį": 7248,
      "áĭª": 7249,
      "ĠáīłáĮĬ": 7250,
      "ĠáĪĺáĬ®": 7251,
      "áĪĽáīħ": 7252,
      "ĠáĭŃáĬ¨áįį": 7253,
      "áįĪáĮ¥": 7254,
      "Ġáĭ¨áĪļáĬĸáĪ©áīµ": 7255,
      "ĠáĪĽáĭĺáĮĭáĮĢáīµ": 7256,
      "ĠáĪĽáĬ¨áĬĵáĭĪáĬķ": 7257,
      "Ġáĭ¨áī°áĪ°áĪĽ": 7258,
      "ĠáĪģáĬĳ": 7259,
      "Ġáĭ¨áĬłáĪŃ": 7260,
      "Ġáĭ¨áĬ¢áĪ«áīħ": 7261,
      "ĠáĪĦáĭ°áĭį": 7262,
      "ĠáĬ¨áī°áĪĽáĭĭáĬķ": 7263,
      "áĭ°áĪŃáĮįáĪĿ": 7264,
      "áĪµáĪįáĮ£": 7265,
      "áī§áī¸áĭį": 7266,
      "ĠáĪĺáĪĪáĬªáĭ«": 7267,
      "ĠáįĭáĬķáī³": 7268,
      "ĠáĪĺáĪĺáĪªáĭ«áĭİáī½áĬķ": 7269,
      "ĠáĪĽáĪµáī°áĪĽáĪŃ": 7270,
      "ĠáĪĿáĭµáĪªáī±": 7271,
      "áī£áīłáīħ": 7272,
      "áĭİáīµáĪĿ": 7273,
      "áĭĬáĬķ": 7274,
      "áī»áĪįáĪĿ": 7275,
      "ĠáĬ¢áīµáĭ®áĮµ": 7276,
      "ĠáĬ¥áĬķáĭ°áĪļáĪ°áĪ«": 7277,
      "Ġáĭ¨áĪĽáĪĿáĪĪ": 7278,
      "ĠáĬ¨áĪĺáįħáĪĢáįį": 7279,
      "Ġáī¥áī»áĭįáĬķ": 7280,
      "ĠáįĢáĮī": 7281,
      "ĠáīłáĮ¥áĬķáīµ": 7282,
      "ĠáĬłáĪµáįĪáĪĭáĮĬáĬĲáīµ": 7283,
      "ĠáĭĪáĪĭáĮħ": 7284,
      "ĠáĪµáĪŃáĬłáī±": 7285,
      "ĠáĪĢáĭŃáĪĽáĬĸáī³áĭĬ": 7286,
      "ĠáĪ°áĬķáĮłáĪ¨": 7287,
      "áīµáĪ®": 7288,
      "áĪĭáĭįáĬķ": 7289,
      "ĠáĬ¨áĪįáĬŃ": 7290,
      "Ġáī°áĪ»": 7291,
      "ĠáĪĪáĪĽáĬŃáīłáĪŃ": 7292,
      "áĬĺáĭį": 7293,
      "Ġáĭ¨áĪ°áĭįáĬķ": 7294,
      "ĠáĬ¥áĭįáĬĲáī±": 7295,
      "áĭ´áĬķ": 7296,
      "ĠáĬ¥áĬķáĭ°áī°áĬĵáĮĪáĪ¨áĭį": 7297,
      "Ġáĭ¨áĪĢáĪ°áīµ": 7298,
      "áĬķáįĪáĪ¨áĬķáĪµ": 7299,
      "áĬĲáĮĭáĮĪ": 7300,
      "áĪ«áĪ³áī½áĬķ": 7301,
      "Ġáĭ¨áĪ½áĭ«áĮŃ": 7302,
      "Ġáĭ¨áī¥áĭĻ": 7303,
      "áĪ¨áī¤": 7304,
      "áĪĽáĪĪáĬķ": 7305,
      "áĪªáĮħ": 7306,
      "Ġáĭ¨áĪļáĪĦáĭ±": 7307,
      "áī¶áī½áĬĵ": 7308,
      "Ġáĭ¨áĬłáįįáĪªáĬ«": 7309,
      "ĠáįįáĬķ": 7310,
      "Ġáĭ¨áĬ¥áĬķáĪµáĪ³áīµ": 7311,
      "ĠáĪ°áĭįáĪĿ": 7312,
      "ĠáĬ¥áĬķáĭ°áĪļáĬ¨áī°áĪĪáĭį": 7313,
      "áĪ¸áĮ¥": 7314,
      "áĮĪáĪĪáĮł": 7315,
      "ĠáīłáĪŃáĪ³áī¸áĭį": 7316,
      "ĠáĪ¶áĪµáī±": 7317,
      "áĭĪáĪµáĭ±": 7318,
      "ĠáįĵáĭįáĬķáĭµ": 7319,
      "ĠáĬķáĮįáĭ¶áī½": 7320,
      "Ġáĭ°áĬķáī¦áī½": 7321,
      "Ġáĭ¨áĭ°áĬķáīłáĬĽ": 7322,
      "ĠáĬłáīĥáī¤": 7323,
      "Ġáīłáī¤áī±": 7324,
      "áĪĪáĬŀáī½": 7325,
      "ĠáĪĺáĮĪáĬķáī£áīµ": 7326,
      "ĠáĭŃáĭ°": 7327,
      "áĪ°áĪ©áīµ": 7328,
      "Ġáĭ¨áĪļáĭ°áĪŃ": 7329,
      "ĠáĬ¥áĬķáĭ°áĭļáĭ«": 7330,
      "ĠáĪģáĪĭáī½áĪģáĪĿ": 7331,
      "ĠáĪĪáĪĺáĭĭ": 7332,
      "ĠáĪĪáĪĺáĭįáĮ£áīµ": 7333,
      "Ġáĭ¨áĬłáĭ°áĮĭ": 7334,
      "Ġáīłáī°áĪ«áĪ«": 7335,
      "áī´áĪĿ": 7336,
      "ĠáĬłáĪįáĬłáĭĽ": 7337,
      "Ġáĭ«áĪµáī½áĪĭ": 7338,
      "ĠáĬłáĭįáĪİ": 7339,
      "ĠáīłáīĢáĮ£": 7340,
      "Ġáĭ«áĪ³áĭį": 7341,
      "áĮ«áĭĪáī»": 7342,
      "áĪĭáīĢáĪī": 7343,
      "Ġáī°áĮĪáī¢áĭįáĬķ": 7344,
      "ĠáīłáĭĿáĪŃáĭĿáĪŃ": 7345,
      "ĠáĪĺáĪµáįĪáĪŃáīµ": 7346,
      "ĠáĬĸáĪ¬áĮĭ": 7347,
      "áĪįáī³": 7348,
      "áīłáĬķ": 7349,
      "áĬ¨áĪµ": 7350,
      "áĮ£áĮ£": 7351,
      "Ġáĭ¨áī°áĬĵáĮĪáĪ¨áĭįáĬķ": 7352,
      "ĠáīłáĪĽáĮ¥": 7353,
      "áĪµáī°áĭĭáĪį": 7354,
      "áīłáĪ¨áĭį": 7355,
      "ĠáīłáĪļáīĢáĮ¥áĪīáīµ": 7356,
      "ĠáĪĿáĬŃáĪ®áī½áĬķ": 7357,
      "áįİáĪŃáĭµ": 7358,
      "Ġáĭ¨áĪĨáĬĲáī½áĭį": 7359,
      "ĠáĪįáĮĨáī¼": 7360,
      "áī¥áĪŃáĪĢ": 7361,
      "ĠáĪĺáīĢáĭ¨áĪŃ": 7362,
      "áīłáĪ¨áī³áī³áīµ": 7363,
      "Ġáī°áĭ°áĪ«áĪ½": 7364,
      "ĠáĬ¥áĪŃáĮįáĮłáĬŀáī½": 7365,
      "ĠáĭŃáįĪáįħ": 7366,
      "Ġáī£áĪĪáĪµáĪįáĮ£áĬĳ": 7367,
      "Ġáĭ¨áī¡áĭµáĬķ": 7368,
      "ĠáĬłáĪįáī»áĪīáĪĿ": 7369,
      "Ġáī°áĪĺáĪįáĬ«áī½": 7370,
      "ĠáĭįáĪµáĮ£áĭĬ": 7371,
      "áĪįáīµ": 7372,
      "ĠáīłáĬķáĮīáĪ±": 7373,
      "ĠáĬłáĬĲáĮĭáĮĪáĪŃ": 7374,
      "áĮĪáįĭ": 7375,
      "ĠáĬ¨áīħáĪŃáī¥": 7376,
      "áĬŃáī´": 7377,
      "Ġáĭ¨áĪļáĪī": 7378,
      "áĬĸáĬķ": 7379,
      "áĭĬáī±": 7380,
      "ĠáĪµáĪĪáĬ¥": 7381,
      "ĠáĪµáĪĪáĪĨáĬĳ": 7382,
      "ĠáĬŃáĪĪáī¥": 7383,
      "áįİáĬķ": 7384,
      "ĠáĪģáĬĶáī³áĭįáĬķ": 7385,
      "ĠáĮ£áĬ¦": 7386,
      "ĠáĭŀáĪŃ": 7387,
      "ĠáĪįáĪĿáĪĿáĭµ": 7388,
      "ĠáĬ¥áĪĨáĬĵ": 7389,
      "Ġáīłáī²": 7390,
      "áĪĪáĪĺáĭ°": 7391,
      "áĬĵáī½áĬķ": 7392,
      "Ġáī°áĮłáĪŃ": 7393,
      "ĠáĪĪáĪĺáĮł": 7394,
      "ĠáīłáĬłáĪĺ": 7395,
      "áī¡áĬ¥": 7396,
      "áĪĨáĬķáĬ©": 7397,
      "Ġáī¢áĪĨáĬĳ": 7398,
      "ĠáīłáĮ¥áī¥áīħ": 7399,
      "ĠáĭįáĭµáīĢáīµ": 7400,
      "ĠáĬ¥áĮ¥áĪ¨áīµ": 7401,
      "Ġáīłáī»": 7402,
      "áĪ«áĭįáĬķ": 7403,
      "áĭ¨áĬĿ": 7404,
      "Ġáĭ¨áī°áĬ¨áĪĪ": 7405,
      "ĠáĮ¥áĪ«": 7406,
      "ĠáīłáĬłáĪĭáĪħ": 7407,
      "ĠáĭĺáĬĵ": 7408,
      "Ġáĭ¨áĪĿáĬŃáĪŃ": 7409,
      "ĠáĮłáĬķáĬŃ": 7410,
      "ĠáĮ¥áĪ©áĭį": 7411,
      "ĠáĭįáĪ³áĬĶáĭİáī½": 7412,
      "ĠáĬ¨áĪ°áĭİáī½": 7413,
      "ĠáĬłáĪµáī³áĭįáīĭáĪį": 7414,
      "ĠáįķáĪ®áįĮáĪ°áĪŃ": 7415,
      "ĠáĪĨáĪµáįĴáī³áĪį": 7416,
      "ĠáĭŃáĮĪáĬĻáīłáī³áĪį": 7417,
      "ĠáīłáĮĪáī£": 7418,
      "áĪĺáī¶áī½": 7419,
      "áĪħáĬĵáīµ": 7420,
      "áī¥áĪĭáīµ": 7421,
      "ĠáĭŃáĭ°áĪ°áī±": 7422,
      "ĠáĪĪáĪ½": 7423,
      "áĪ°áĬĲ": 7424,
      "áĬŃáįĪ": 7425,
      "Ġáī°áīł": 7426,
      "ĠáĬ¥áĬĵáĪµ": 7427,
      "Ġáĭ¨áĪļáĪĨáĬĲ": 7428,
      "áĪĢáĬĲ": 7429,
      "ĠáĪĪáĪĽáĬ¨áĬĵáĭĪáĬķ": 7430,
      "Ġáĭ¨áĪĺáĬĲ": 7431,
      "ĠáĭµáĪĢ": 7432,
      "Ġáĭ¨áĬłáĬ«": 7433,
      "áĪµáī°áĪĿ": 7434,
      "ĠáĭĭáĭŃ": 7435,
      "ĠáĮĢáī¥": 7436,
      "Ġáĭ«áĪµáĮĪáĬĽáĪį": 7437,
      "ĠáīłáĪĮáĪĬáīµ": 7438,
      "ĠáĬłáĭµáĬĵáīĤ": 7439,
      "ĠáĭĪáĭ³áĭµ": 7440,
      "ĠáĪħáĭŃáĭĪáī³áī¸áĭįáĬķ": 7441,
      "ĠáīłáĪĺáī¶áĭİáī½": 7442,
      "Ġáī°áĬĲáĪ³áĪ½áĬĲáīµ": 7443,
      "Ġáĭ«áĭ°áĪ¨áĮĪáĭįáĬķ": 7444,
      "Ġáĭ¨áīĥáĪį": 7445,
      "áī°áĪĺ": 7446,
      "ĠáĪĪáĪĺáĭĪáĪ°áĬķ": 7447,
      "áĪ½áī³": 7448,
      "áĪĮáĭŃ": 7449,
      "ĠáīłáĬ¥áĬĲáĭļáĭ«": 7450,
      "Ġáĭ³áī³": 7451,
      "ĠáĬ¨áĪĽáĭµáĪ¨áĮį": 7452,
      "Ġáī°áįĪáĮ¥áĪ¯áĭĬ": 7453,
      "Ġáĭ¨áĬ«áĪŃ": 7454,
      "ĠáĪĿáĪŃáĮ«áĭİáī½": 7455,
      "ĠáīłáĮĪáĬķáĭĺáī¥": 7456,
      "Ġáī¥áĪįáĮįáĬĵ": 7457,
      "ĠáĪĺáĮĪáĪĺáīµ": 7458,
      "Ġáĭ¨áĪ¬": 7459,
      "ĠáīłáĪĬ": 7460,
      "áĭŃáĪŃ": 7461,
      "Ġáĭ«áĭ°áĪ¨áĮīáīµ": 7462,
      "ĠáĬłáĪįáĬĲáīłáĪ©": 7463,
      "áįİáī¹": 7464,
      "ĠáĬŃáįįáĪİáī½áĬķ": 7465,
      "ĠáīłáĪĿáī³": 7466,
      "ĠáįĢáĬķáī¶": 7467,
      "ĠáĬłáĪīáĬĿ": 7468,
      "áīĢáĪĺáĮłáĭį": 7469,
      "ĠáĪĺáĪĪáĭ¨áīµ": 7470,
      "ĠáīłáĪįáĭ©": 7471,
      "ĠáĬ¥áĬķáĭ°áĪĽáĪµáīłáĭį": 7472,
      "ĠáĬ¥áĬķáĭµáīµáĪĨáĬķ": 7473,
      "ĠáĪĿáĭµáĮĥ": 7474,
      "ĠáĬ¨áĪĢáĭ²": 7475,
      "áĮ¨áĬĲáīģ": 7476,
      "áĬķáĪ³áĭĬ": 7477,
      "Ġáĭ¨áĮĥ": 7478,
      "Ġáĭ¨áĪŀáīµ": 7479,
      "ĠáīłáĮįáĪ«": 7480,
      "áī³áĭ¨áĭį": 7481,
      "Ġáī°áĪĺáĮ£áĮ£áĬĿ": 7482,
      "Ġáī¥áĪĭáī½áĪģ": 7483,
      "ĠáĮįáĬĿ": 7484,
      "ĠáĪĬáĬĸáĪ¨áĭį": 7485,
      "Ġáĭ¨áĬ¥áĭµáĪľ": 7486,
      "ĠáĮłáĪ«": 7487,
      "ĠáĬ¨áĪĺáĮį": 7488,
      "Ġáĭ¨áĬĲáĭ³áĮħ": 7489,
      "ĠáĪĨáĬĲáĪħ": 7490,
      "ĠáĮ¨áĭį": 7491,
      "Ġáĭ¨áĭįáĮª": 7492,
      "Ġáĭ¨áĮ¥áĬĵáīµ": 7493,
      "ĠáĬ¨áĪĮáĪĭ": 7494,
      "ĠáīłáĭĪáĬķáĭµ": 7495,
      "Ġáĭ¨áĪĻáĪī": 7496,
      "ĠáĬ¥áĬĲáĭļáĭ«áĪĿ": 7497,
      "ĠáĬłáĭ«áĭįáīģáĪĿ": 7498,
      "ĠáĭŃáįĪáĮ¥áĪ«áĪį": 7499,
      "ĠáīłáĪª": 7500,
      "ĠáĬłáĪ°áĮ£": 7501,
      "ĠáĬłáĭ«áĭ«áĭĿ": 7502,
      "áĪ«áĭİáī½": 7503,
      "ĠáĬ¨áĮ¨": 7504,
      "Ġáĭ¨áĪļáīł": 7505,
      "áĬĽáĪĪáĪģ": 7506,
      "ĠáĪĬáī£áĪį": 7507,
      "áĪĬáĪĭ": 7508,
      "áĪ´áĪİáĪĿ": 7509,
      "ĠáĬĲáīłáĪ¨áīłáīµ": 7510,
      "ĠáĭĪáĬķáĭµáĪŀáī½áĬĵ": 7511,
      "ĠáĪĺáĭĭáīħáĪŃ": 7512,
      "Ġáĭ¨áĪĽáĪħáīłáĪ¨áĪ°áī¥": 7513,
      "Ġáī°áĮ«áĭĭáī¾áī½": 7514,
      "ĠáīµáĪĨáĬĵáĪĪáī½": 7515,
      "Ġáĭ«áī°áĬ®áĪ¨": 7516,
      "Ġáĭ¨áĪ´áī¶áī½": 7517,
      "áĪĽáĪªáĭ«": 7518,
      "ĠáĭŃáĪį": 7519,
      "Ġáī°áĭĪáĪµ": 7520,
      "ĠáĪ°áĪª": 7521,
      "ĠáĬ¥áĬķáĭ°áĮĪáĪĪáįĢáĭį": 7522,
      "ĠáĪĪáĪĽáĪ¸áĬĲáįį": 7523,
      "áĬ®áĪĮáīµ": 7524,
      "ĠáĪĽáĬķáĬĲáīµ": 7525,
      "áĪıáī¸áĭĭáĪį": 7526,
      "áī£áĪįáĬķáĮĢ": 7527,
      "Ġáĭ¨áĮįáĬķáī£áī³": 7528,
      "ĠáĪ©áĪ²áĭ«": 7529,
      "áįĶáĬķ": 7530,
      "ĠáĬ®áĪļáĪ½áĬķ": 7531,
      "ĠáįĬáĪįáĮµ": 7532,
      "áĪŃáĮĤ": 7533,
      "áĭ°áĪħ": 7534,
      "Ġáī°áĭ«áĭŃ": 7535,
      "ĠáĪĪáĪĽáĭ³áīłáĪŃ": 7536,
      "ĠáĪĨáī´": 7537,
      "Ġáĭ¨áĬ¥áĪ¨áįįáīµ": 7538,
      "áĮįáĪ«áįĬ": 7539,
      "áĪĺáĬĵáī½áĬķ": 7540,
      "ĠáĪ«áĪ³áī¸áĭį": 7541,
      "ĠáĭŃáĪĦáĭ³áĪī": 7542,
      "Ġáĭ¨áĪ°áĮłáĭįáĬķ": 7543,
      "ĠáĪĪáĪĺáĪĪáĭ¨áīµ": 7544,
      "ĠáĭŃáĪ°áĮłáĬĵáĪį": 7545,
      "ĠáīłáīĥáĪį": 7546,
      "Ġáī°áĬ¨áĪĭ": 7547,
      "áīĥáī¥áĪŃ": 7548,
      "ĠáīłáĪĺáī£áĪį": 7549,
      "ĠáįĪáĬķáĭµ": 7550,
      "ĠáĭŃáĪħáĬķáĬĳ": 7551,
      "ĠáĪįáĮĨáī¹áĬķ": 7552,
      "áĮĪáĬĻáĪĿ": 7553,
      "ĠáĮįáī¥áįĥ": 7554,
      "Ġáĭ¨áĪļáĮĪáĬĻáīµáĬķ": 7555,
      "Ġáįİáī¶áĭİáī½": 7556,
      "ĠáĪĺáĮĭáī¢áīµ": 7557,
      "ĠáĬłáįķáĪĬ": 7558,
      "ĠáĬłáĪĿáī£áĪ³": 7559,
      "ĠáīħáĪ¬áī³": 7560,
      "ĠáĬłáĬ¥áĪĿáĪ¯": 7561,
      "ĠáĪĺáĬ«": 7562,
      "ĠáĬ¨áĪ©": 7563,
      "ĠáĬ¨áĭ©": 7564,
      "ĠáĪĪáīħ": 7565,
      "áī£áĪĽ": 7566,
      "áĬ¥áī¢áĭ«": 7567,
      "áĬ«áĪļáĭİáī½": 7568,
      "ĠáĭįáĮ¥áĪ¨áīµ": 7569,
      "Ġáī¥áĪµ": 7570,
      "Ġáĭ°áĪŀ": 7571,
      "ĠáĪĪáĪĺáĪį": 7572,
      "ĠáĪ²áĪ°áĪĽ": 7573,
      "ĠáĪģáĪīáĬĵ": 7574,
      "ĠáīħáĬĵ": 7575,
      "ĠáĬ¢áĬķáī°áĪŃ": 7576,
      "ĠáĪĪáĬłáĪĺáī³áīµ": 7577,
      "ĠáįĢáĪį": 7578,
      "ĠáĬ¨áĪĮáĪĪ": 7579,
      "ĠáĪĺáĪ°áĪ¨áī°": 7580,
      "Ġáĭ¨áīĨáĪ»áĪ»": 7581,
      "áĬłáĪįáĬĵ": 7582,
      "ĠáīłáĪĺáĬ«áĬ¨áĪĭáī½áĪģ": 7583,
      "ĠáīłáĭįáĪµáĮ§": 7584,
      "ĠáĬłáĬķáĭ°áĬĽ": 7585,
      "ĠáĬłáĪµáĬ¨áįĬ": 7586,
      "áĮŃáīłáĪŃáīłáĪŃ": 7587,
      "ĠáĪĺáĮłáĭŃáīħ": 7588,
      "ĠáĬ¥áĪĨáĬĵáĪĪáĪģ": 7589,
      "áīµáĪµ": 7590,
      "áĮĪáĮ¥": 7591,
      "ĠáĪĺáĬ¨áĪĭáĬ¨áĪį": 7592,
      "Ġáī°áĪĺáĪĪáĪµ": 7593,
      "Ġáĭ¨áĪļáīĥáĮł": 7594,
      "ĠáĬ¥áĭ¨áĪĨáĬĲ": 7595,
      "áĬĲáĪ³áĪ³": 7596,
      "ĠáĬ®áĬķáĮį": 7597,
      "ĠáīĨáĪĺáĭį": 7598,
      "Ġáĭ¨áĪĿáīµáī½áĪĪáĭį": 7599,
      "ĠáĬĲáīłáĪ¨áĬĿ": 7600,
      "áĬ¨áī¥áĪ©": 7601,
      "ĠáĬłáĮĪáĪĭáĪĪ": 7602,
      "ĠáĭĺáĮĪáī£áĭİáī½": 7603,
      "ĠáĪĽáĮ¥áĬĵáīµ": 7604,
      "ĠáĮīáĪįáĪħ": 7605,
      "ĠáĬłáĮĪáĬĺáĪģ": 7606,
      "ĠáĪĽáĬ¥áĬ¨áĪĭáĭĬ": 7607,
      "áĬĹáĬĹáĪŃ": 7608,
      "áīµáĪ¨": 7609,
      "ĠáīłáīģáĪĿ": 7610,
      "áĬĵáī½áĪģ": 7611,
      "ĠáĬ¨áī¥áĪŃ": 7612,
      "ĠáĬ¨áĭŃáĪģáĭ³": 7613,
      "ĠáĭĪáī°áīµ": 7614,
      "Ġáī°áĬ¨áī°áĪį": 7615,
      "Ġáĭ¨áĪļáĪĺáĪµáĪį": 7616,
      "Ġáĭ¨áī°áīĢáĪ¨": 7617,
      "áĪİáī¹áĬķ": 7618,
      "ĠáīµáĪ°áĪ«": 7619,
      "áĪĬáįĴ": 7620,
      "ĠáīłáĪļáĪĬáĭ®áĬķ": 7621,
      "ĠáĬ¨áĬ¥áĪ·": 7622,
      "ĠáĪĪáĬ¥áĪŃáĪ±": 7623,
      "ĠáīłáīĢáĬĿ": 7624,
      "áĬ¨áĬĵáĭįáĬķ": 7625,
      "áī¥áĪ«áĭŃ": 7626,
      "ĠáĭµáĬķáĮĭáĭ®áī½": 7627,
      "ĠáĬ£": 7628,
      "Ġáĭ¨áĬĭáĪĭ": 7629,
      "ĠáĬ¥áĪµáĪ«áĬ¤": 7630,
      "ĠáĬłáĪ®áĬķ": 7631,
      "áĪĭáīģ": 7632,
      "ĠáĪµáĪĻáĬķ": 7633,
      "áĪŀáĪī": 7634,
      "ĠáĮĭáī¥áī»": 7635,
      "ĠáĪ³áĪī": 7636,
      "ĠáīłáĪĽáĭµáĪ¨": 7637,
      "ĠáĬ¥áĬķáĭ³áĪµ": 7638,
      "áĭ¶áĬķ": 7639,
      "áĪĺáĪĪáĬŃáīµ": 7640,
      "ĠáīģáĪ«áĮŃ": 7641,
      "ĠáĪĮáĪĭáĭįáĬķ": 7642,
      "ĠáīłáīµáĬ©áĪ¨áīµ": 7643,
      "Ġáĭ¨áī°áī£áĪĪáĭįáĬķ": 7644,
      "ĠáīµáĬ¥áĭĽáĭĽáīµ": 7645,
      "ĠáĭĪáĮ¥áī°áĭį": 7646,
      "Ġáĭ¨áĬ®áĪļ": 7647,
      "ĠáīłáįĬáī´": 7648,
      "ĠáĬłáĭįáĪ®áįķáĪĭáĬķ": 7649,
      "ĠáĪĺáĭ°áĪĿáĭ°áĪļáĭ«": 7650,
      "Ġáĭ¨áĪīáĪĿ": 7651,
      "áĭ«áī½áĪģ": 7652,
      "áĪ¨áĪŃ": 7653,
      "ĠáĭŃáĭ°áĮį": 7654,
      "áĪĨáĬĶ": 7655,
      "Ġáī°áī°": 7656,
      "ĠáĪĽáĬ¨áĪĽáī»": 7657,
      "Ġáĭ°áĪĺáĭĪáĭĿ": 7658,
      "ĠáīłáĪĺáĬ¨áī°áĪį": 7659,
      "áĪĪáĭįáĮ¥": 7660,
      "ĠáĪ²áĭ«áĪµ": 7661,
      "áī¢áĭ«áĬķ": 7662,
      "áĭ°áĪŃáĮįáĪį": 7663,
      "ĠáĭĺáĪĭáĪĪáĪĽáĭĬ": 7664,
      "áįĢáī£áĪŃ": 7665,
      "ĠáĬ¥áĬķáĭ°áĪļáī»áĪĪáĭį": 7666,
      "ĠáĬłáĬķáīłáĪ³": 7667,
      "áĬĲáĪ³áĪ³áīµ": 7668,
      "Ġáĭ¨áĭĪáĭŃ": 7669,
      "áĭĪáĭ³áī¸áĭį": 7670,
      "áīĢáĮ¥áĪī": 7671,
      "ĠáĮĪáįħáī³áĭİáī½": 7672,
      "Ġáī°áĬĲáĪµ": 7673,
      "Ġáĭ¨áįĸáĪĬáĪµ": 7674,
      "ĠáĪĽáĪħáīłáĪ¨áĪ°áī¦áī½": 7675,
      "ĠáĭĪáĬķáĭµáĪŀáī¹": 7676,
      "ĠáĭŃáĮłáĭŃáīģ": 7677,
      "ĠáĬłáĭĽáĭ¥": 7678,
      "ĠáĬ¥áĬķáĭ°áĪĿáĬķáī½áĪį": 7679,
      "Ġáĭ¨áīªáĭ²áĭ®": 7680,
      "áīĢáĬĿáĬĲáīµ": 7681,
      "áīĢáĭ°áĭį": 7682,
      "áĬłáĪµ": 7683,
      "ĠáĪĽáĪµáī³áĭĪáĪµ": 7684,
      "áĪ®áĭµ": 7685,
      "ĠáĮ¥áī¥áīħ": 7686,
      "ĠáīłáĪĺáĮĭ": 7687,
      "ĠáĬłáĭŃáī»áĪĪáĪģ": 7688,
      "áīĨáĮ¥": 7689,
      "ĠáĬ«áĪħáĬķ": 7690,
      "ĠáīłáĪĿáĪµáĪ«áīħ": 7691,
      "ĠáĪĿáĪŃáĬ®": 7692,
      "ĠáĭµáĪŃáĮħáī±": 7693,
      "ĠáĬłáĭ³áĪ«": 7694,
      "ĠáĪĺáĬķáĮĪáĭ±áĬķ": 7695,
      "ĠáĪĺáīħáĪ°": 7696,
      "ĠáĮ¥áīħáĪ¶áī½": 7697,
      "ĠáĬ¥áĬķáĭµáĬķáĪĨáĬķ": 7698,
      "ĠáĪµáĬ¥áĪİáī½": 7699,
      "Ġáĭ¨áĪĿáĪŃáĪĿáĪŃ": 7700,
      "ĠáīĤáĮ£": 7701,
      "Ġáī°áĭĭáĮĬáĭİáī½": 7702,
      "ĠáįĨáī³": 7703,
      "ĠáĪ³áĬ¦áĪįáĪĿ": 7704,
      "ĠáĬłáĪĺáĪµáĮĭáĬĿ": 7705,
      "áĬ¹": 7706,
      "áĪµáīµáĬķ": 7707,
      "ĠáĬłáĮĪáĬĽ": 7708,
      "áī°áįį": 7709,
      "áī°áĪ½": 7710,
      "áĬĲáī£": 7711,
      "Ġáī¥áĮģ": 7712,
      "ĠáĬ¥áĬķáĭ²áĪ°áĮ¥": 7713,
      "Ġáĭ°áįĭáĪŃ": 7714,
      "ĠáīĢáĭ³": 7715,
      "áĪ»áĬķ": 7716,
      "ĠáĬĵáĪĻáĬĵ": 7717,
      "Ġáī¦áĪŃáĭ±": 7718,
      "ĠáĬ®áĪ¨áī¥": 7719,
      "Ġáĭ¨áĭĪáĬķáĮĢáĪį": 7720,
      "ĠáĪĺáįħáĪĢáįįáīµ": 7721,
      "áĬ¨áĬĵáĭĪáĬĳ": 7722,
      "Ġáĭ´áīª": 7723,
      "ĠáĬłáĪµáī°áĭĭáĭŃ": 7724,
      "áĮĪáĬĲáĭĺáī¡": 7725,
      "ĠáĪ°áĬĲáĭ¶áī½": 7726,
      "ĠáĬ¨áĮłáĭĭáī±": 7727,
      "áĮĪáĪĪáĮĪáĪī": 7728,
      "Ġáĭ¨áĪĽáĪĿáĪĪáĬªáĭ«": 7729,
      "áĪµáĪĪ": 7730,
      "áī°áĭĪ": 7731,
      "áī¥áĬĽáĪį": 7732,
      "ĠáĭŃáĭĭ": 7733,
      "Ġáĭ«áĬĲ": 7734,
      "áĮłáī¡": 7735,
      "ĠáĪĽáīĨáĪĿ": 7736,
      "Ġáĭ¨áī°áĭ°áĪ¨áĮĪáĭį": 7737,
      "ĠáĬ¥áĬķáĭ²áĪ°áĮ¡": 7738,
      "ĠáīłáĪĺáĮĪáĬĵáĬĽ": 7739,
      "ĠáĪĪáĪĽáĪŁáĪĭáīµ": 7740,
      "ĠáĬ¢áĪ«áīħ": 7741,
      "áĪ°áĪ«áĪĿ": 7742,
      "ĠáĭĭáĬĲáĬĽ": 7743,
      "Ġáĭ¨áĪļáĭ«áĪµáįĪáĪį": 7744,
      "ĠáīłáĪµáĪŃ": 7745,
      "Ġáĭ¨áĭįáĪĤáī¥": 7746,
      "áĬĲáĮĭáĮį": 7747,
      "áī¾áī½áĬķ": 7748,
      "ĠáĪħáĭŃáĭĪáī´áĬķ": 7749,
      "ĠáĪĪáĭļáĪħáĪĿ": 7750,
      "Ġáī»áĭŃáĬĵ": 7751,
      "Ġáĭ¨áįħáĭµáīħ": 7752,
      "Ġáĭ¨áĬ©áī£áĬķáĭ«": 7753,
      "ĠáĭŃáīĢáĮ¥áĪī": 7754,
      "áĬķáĬ¨áī£áĬ¨": 7755,
      "Ġáī°áĪĺáĪ«áĪĽáĪªáĭİáī½": 7756,
      "áĪĭáĮŃ": 7757,
      "ĠáĬ¨áĭµ": 7758,
      "ĠáĬĲáĪĢáĪ´": 7759,
      "áĪ°áĪ³": 7760,
      "ĠáĪĽáĪ¸áĬĲáįį": 7761,
      "áĭĭáĭįáĭ«áĬķ": 7762,
      "Ġáĭ¨áī°áīł": 7763,
      "ĠáĮįáĮ¥": 7764,
      "Ġáī£áĪı": 7765,
      "ĠáīłáĬłáĭįáĪ®áįĵ": 7766,
      "ĠáĪĪáĪĽáĭįáĮ£áīµ": 7767,
      "áĪĨáĬķáīłáīµ": 7768,
      "ĠáĬ¥áĭ¨áĪ°áĪ©": 7769,
      "ĠáĬ¥áĪŃáĮ¥": 7770,
      "Ġáĭ¨áĪļáĭ«áĪµáįĪáĪįáĮĪáĭįáĬķ": 7771,
      "Ġáĭ¨áĪĺáĮĢáĪĺáĪªáĭ«áĭİáī¹": 7772,
      "ĠáĭŃáĪĺáĪµáĪį": 7773,
      "ĠáĪħáĮįáĬķ": 7774,
      "ĠáĬ¥áĬķáĮįáĭ¶áī½": 7775,
      "ĠáĪŃáĬ¥áĪ¶áī½": 7776,
      "Ġáī¡áĭµáĬĳ": 7777,
      "ĠáĬłáĮĭáĮ£áĪļáĭİáī½": 7778,
      "ĠáĪĿáĮįáī¦áī½áĬķ": 7779,
      "Ġáĭ¨áįĮáĭ´áĪ«áĪį": 7780,
      "ĠáĪĽáī¥áĪ«áĪªáĭ«": 7781,
      "ĠáīłáĪ±": 7782,
      "ĠáĪĺáĮłáīĢ": 7783,
      "áĭ°áĭįáĬķ": 7784,
      "ĠáĬ¨áīħ": 7785,
      "áĬŃáĪ½áĬķ": 7786,
      "Ġáĭ«áĪĭáīµ": 7787,
      "ĠáĪĽáĪĪáįį": 7788,
      "ĠáĪŃáĪħáĪ«áĪĦ": 7789,
      "ĠáĮİáĮĤ": 7790,
      "ĠáĬ¦áįĬ": 7791,
      "ĠáĬłáĪµáįĪáĪĭáĮĬáĭįáĬķ": 7792,
      "ĠáĬªáĪ³áĪ«": 7793,
      "áĬķáīĢáįħ": 7794,
      "ĠáĬĲáīłáĪ¨áī¥áĬĿ": 7795,
      "áĪµáī³áĭĪáīµ": 7796,
      "ĠáįĪáī°áĬĵáĭİáī½": 7797,
      "Ġáĭ¨áĪļáĪ°áĮłáĭįáĬķ": 7798,
      "ĠáĪĺáīĨáĮ£áĮłáĪªáĭ«": 7799,
      "áĪŃáĪ·": 7800,
      "ĠáĬ¥áĭįáĬķ": 7801,
      "áīłáĪ«áīµ": 7802,
      "ĠáĭŃáĪī": 7803,
      "ĠáĭĪáĪ¨áĭ³": 7804,
      "áĭĪáĪĪáĭµ": 7805,
      "áĭĺáĭĺ": 7806,
      "ĠáĬłáĪµáī½": 7807,
      "ĠáĬ¥áĬķáĪĺáĪĪáĬ¨áī³": 7808,
      "Ġáĭ¨áĬłáĬ«áī£áī¢áĭį": 7809,
      "ĠáĬ¥áĬķáĭ°áĪļáĮĪáī£": 7810,
      "Ġáī¢áĪĨáĬĳáĪĿ": 7811,
      "áĮłáīĢáĪ°áĭį": 7812,
      "ĠáĬ¥áĭµáĪī": 7813,
      "Ġáī°áĬĵáĮĭáĪª": 7814,
      "ĠáīµáĬ¥áĭŃáĬķáīµ": 7815,
      "áīĢáĭµáĪŀ": 7816,
      "ĠáĮ£áī¢áĭ«áĭİáī½": 7817,
      "Ġáĭ¨áī°áĪĺáĪ°áĪ¨áī±": 7818,
      "ĠáĭŃáĪµáĮ¡": 7819,
      "ĠáĪįáĮĥáĮĪáĪ¨": 7820,
      "Ġáĭ«áĪĪáĪĿáĬķáĪĿ": 7821,
      "áĪĿáĪ¨áĭĭáĪį": 7822,
      "Ġáĭ¨áĮĨ": 7823,
      "Ġáĭ¨áĪģáĪīáĪĿ": 7824,
      "áĪįáĪµáĮ¥": 7825,
      "áĪµáĪĬ": 7826,
      "áī°áĪ©": 7827,
      "áĪĽáĪĽáīµ": 7828,
      "ĠáĪĪáĭ¨áīµ": 7829,
      "Ġáĭ«áĭĿ": 7830,
      "Ġáĭ«áĪĿáĬĵ": 7831,
      "Ġáī°áĪĽáĪŃ": 7832,
      "áĮ£áĪ¬": 7833,
      "áĪ®áī³": 7834,
      "áĪľáĬĵáĭĬ": 7835,
      "ĠáĬ¥áĬķáĭ°áĪĨáĬĲáĬĵ": 7836,
      "Ġáĭ¨áĮĪáī¢": 7837,
      "ĠáĬłáĪĽáĬ«áĭŃ": 7838,
      "ĠáĬłáĬŃáĪ²": 7839,
      "ĠáīłáĬ¨áī°áĪĽáĭĭ": 7840,
      "ĠáĬĢ": 7841,
      "ĠáīłáĮ¦áĪŃ": 7842,
      "Ġáīłáĭ°áĪ¨áĪ°": 7843,
      "áĪħáĬł": 7844,
      "ĠáĪĺáĪĺáĪŃáĪĺáĪŃ": 7845,
      "ĠáĬ¨áĮĮ": 7846,
      "ĠáĭĪáĮį": 7847,
      "ĠáĪĭáĭŃáĪĨáĬķ": 7848,
      "áĪ»áĭİáī½": 7849,
      "ĠáĪĬáĪ°áĮ¥": 7850,
      "ĠáĬłáĪĪáī¦áīµ": 7851,
      "ĠáīłáĬ¥áĪ·": 7852,
      "ĠáĪ³áĪĪáĪģ": 7853,
      "ĠáĮłáī¦": 7854,
      "Ġáĭ«áĪµáĬ¨áīµ": 7855,
      "Ġáī¡áĪ½": 7856,
      "Ġáĭ¨áĪµáĬ³áĪŃ": 7857,
      "ĠáĪĺáī¥áĪ«áīµ": 7858,
      "Ġáįĭáī¥áĪªáĬ«": 7859,
      "áĮĪáĬĲáī¡": 7860,
      "ĠáĮīáī£áĬ¤áĭį": 7861,
      "ĠáĪģáĪįáĮĬáĭľáĪĿ": 7862,
      "ĠáĪĪáĪĽáĪµáī°áĬ«áĬ¨áĪį": 7863,
      "Ġáĭ¨áĬ¢áĭ¨áĪ±áĪµáĬķ": 7864,
      "ĠáīĢáĭµáĪŀáĭį": 7865,
      "Ġáī°áīĨáĮ¥": 7866,
      "ĠáĭŃáīĢáĮ¥áĪĭáĪį": 7867,
      "Ġáĭ«áĪµáī³áĭįáĪ±": 7868,
      "Ġáīłáī´áĬŃ": 7869,
      "áĪµáī±áĪĿ": 7870,
      "áĪ«áī¸áĭĭáĪį": 7871,
      "áĪļáĭĿ": 7872,
      "Ġáĭ«áĪĺáĮ£": 7873,
[...]
