{
  "version": "1.0",
  "truncation": null,
  "padding": null,
  "added_tokens": [
    {
      "id": 0,
      "content": "[UNK]",
      "single_word": false,
      "lstrip": false,
      "rstrip": false,
      "normalized": false,
      "special": true
    },
    {
      "id": 1,
      "content": "[SOS]",
      "single_word": false,
      "lstrip": false,
      "rstrip": false,
      "normalized": false,
      "special": true
    },
    {
      "id": 2,
      "content": "[EOS]",
      "single_word": false,
      "lstrip": false,
      "rstrip": false,
      "normalized": false,
      "special": true
    },
    {
      "id": 3,
      "content": "[PAD]",
      "single_word": false,
      "lstrip": false,
      "rstrip": false,
      "normalized": false,
      "special": true
    }
  ],
  "normalizer": null,
  "pre_tokenizer": {
    "type": "ByteLevel",
    "add_prefix_space": true,
    "trim_offsets": true,
    "use_regex": true
  },
  "post_processor": {
    "type": "ByteLevel",
    "add_prefix_space": true,
    "trim_offsets": true,
    "use_regex": true
  },
  "decoder": {
    "type": "ByteLevel",
    "add_prefix_space": true,
    "trim_offsets": true,
    "use_regex": true
  },
  "model": {
    "type": "BPE",
    "dropout": null,
    "unk_token": "[UNK]",
    "continuing_subword_prefix": null,
    "end_of_word_suffix": null,
    "fuse_unk": false,
    "byte_fallback": false,
    "vocab": {
      "[UNK]": 0,
      "[SOS]": 1,
      "[EOS]": 2,
      "[PAD]": 3,
      "!": 4,
      "\"": 5,
      "#": 6,
      "$": 7,
      "%": 8,
      "&": 9,
      "'": 10,
      "(": 11,
      ")": 12,
      "*": 13,
      "+": 14,
      ",": 15,
      "-": 16,
      ".": 17,
      "/": 18,
      "0": 19,
      "1": 20,
      "2": 21,
      "3": 22,
      "4": 23,
      "5": 24,
      "6": 25,
      "7": 26,
      "8": 27,
      "9": 28,
      ":": 29,
      ";": 30,
      "<": 31,
      "=": 32,
      ">": 33,
      "?": 34,
      "@": 35,
      "[": 36,
      "\\": 37,
      "]": 38,
      "^": 39,
      "`": 40,
      "{": 41,
      "|": 42,
      "}": 43,
      "~": 44,
      "¡": 45,
      "¢": 46,
      "£": 47,
      "¤": 48,
      "¥": 49,
      "¦": 50,
      "§": 51,
      "¨": 52,
      "©": 53,
      "ª": 54,
      "«": 55,
      "¬": 56,
      "®": 57,
      "¯": 58,
      "°": 59,
      "±": 60,
      "²": 61,
      "³": 62,
      "´": 63,
      "µ": 64,
      "¶": 65,
      "·": 66,
      "¸": 67,
      "¹": 68,
      "º": 69,
      "»": 70,
      "¼": 71,
      "½": 72,
      "¾": 73,
      "¿": 74,
      "Â": 75,
      "á": 76,
      "Ġ": 77,
      "Ģ": 78,
      "ģ": 79,
      "Ĥ": 80,
      "ĥ": 81,
      "Ħ": 82,
      "ħ": 83,
      "Ĩ": 84,
      "ĩ": 85,
      "Ī": 86,
      "ī": 87,
      "Ĭ": 88,
      "ĭ": 89,
      "Į": 90,
      "į": 91,
      "İ": 92,
      "ı": 93,
      "Ĳ": 94,
      "ĳ": 95,
      "Ĵ": 96,
      "ĵ": 97,
      "Ķ": 98,
      "ķ": 99,
      "ĸ": 100,
      "Ĺ": 101,
      "ĺ": 102,
      "Ļ": 103,
      "ļ": 104,
      "Ľ": 105,
      "ľ": 106,
      "Ŀ": 107,
      "ŀ": 108,
      "Ł": 109,
      "ł": 110,
      "Ń": 111,
      "ሀ": 112,
      "ሁ": 113,
      "ሂ": 114,
      "ሃ": 115,
      "ሄ": 116,
      "ህ": 117,
      "ሆ": 118,
      "ሇ": 119,
      "ለ": 120,
      "ሉ": 121,
      "ሊ": 122,
      "ላ": 123,
      "ሌ": 124,
      "ል": 125,
      "ሎ": 126,
      "ሏ": 127,
      "ሐ": 128,
      "ሑ": 129,
      "ሒ": 130,
      "ሓ": 131,
      "ሔ": 132,
      "ሕ": 133,
      "ሖ": 134,
      "ሗ": 135,
      "መ": 136,
      "ሙ": 137,
      "ሚ": 138,
      "ማ": 139,
      "ሜ": 140,
      "ም": 141,
      "ሞ": 142,
      "ሟ": 143,
      "ሠ": 144,
      "ሡ": 145,
      "ሢ": 146,
      "ሣ": 147,
      "ሤ": 148,
      "ሥ": 149,
      "ሦ": 150,
      "ሧ": 151,
      "ረ": 152,
      "ሩ": 153,
      "ሪ": 154,
      "ራ": 155,
      "ሬ": 156,
      "ር": 157,
      "ሮ": 158,
      "ሯ": 159,
      "ሰ": 160,
      "ሱ": 161,
      "ሲ": 162,
      "ሳ": 163,
      "ሴ": 164,
      "ስ": 165,
      "ሶ": 166,
      "ሷ": 167,
      "ሸ": 168,
      "ሹ": 169,
      "ሺ": 170,
      "ሻ": 171,
      "ሼ": 172,
      "ሽ": 173,
      "ሾ": 174,
      "ሿ": 175,
      "ቀ": 176,
      "ቁ": 177,
      "ቂ": 178,
      "ቃ": 179,
      "ቄ": 180,
      "ቅ": 181,
      "ቆ": 182,
      "ቇ": 183,
      "ቈ": 184,
      "ቊ": 185,
      "ቋ": 186,
      "ቌ": 187,
      "ቍ": 188,
      "በ": 189,
      "ቡ": 190,
      "ቢ": 191,
      "ባ": 192,
      "ቤ": 193,
      "ብ": 194,
      "ቦ": 195,
      "ቧ": 196,
      "ቨ": 197,
      "ቩ": 198,
      "ቪ": 199,
      "ቫ": 200,
      "ቬ": 201,
      "ቭ": 202,
      "ቮ": 203,
      "ቯ": 204,
      "ተ": 205,
      "ቱ": 206,
      "ቲ": 207,
      "ታ": 208,
      "ቴ": 209,
      "ት": 210,
      "ቶ": 211,
      "ቷ": 212,
      "ቸ": 213,
      "ቹ": 214,
      "ቺ": 215,
      "ቻ": 216,
      "ቼ": 217,
      "ች": 218,
      "ቾ": 219,
      "ቿ": 220,
      "ኀ": 221,
      "ኁ": 222,
      "ኂ": 223,
      "ኃ": 224,
      "ኄ": 225,
      "ኅ": 226,
      "ኆ": 227,
      "ኇ": 228,
      "ኈ": 229,
      "ኊ": 230,
      "ኋ": 231,
      "ኌ": 232,
      "ኍ": 233,
      "ነ": 234,
      "ኑ": 235,
      "ኒ": 236,
      "ና": 237,
      "ኔ": 238,
      "ን": 239,
      "ኖ": 240,
      "ኗ": 241,
      "ኘ": 242,
      "ኙ": 243,
      "ኚ": 244,
      "ኛ": 245,
      "ኜ": 246,
      "ኝ": 247,
      "ኞ": 248,
      "ኟ": 249,
      "አ": 250,
      "ኡ": 251,
      "ኢ": 252,
      "ኣ": 253,
      "ኤ": 254,
      "እ": 255,
      "ኦ": 256,
      "ኧ": 257,
      "ከ": 258,
      "ኩ": 259,
      "ኪ": 260,
      "ካ": 261,
      "ኬ": 262,
      "ክ": 263,
      "ኮ": 264,
      "ኯ": 265,
      "ኰ": 266,
      "ኲ": 267,
      "ኳ": 268,
      "ኴ": 269,
      "ኵ": 270,
      "ኸ": 271,
      "ኹ": 272,
      "ኺ": 273,
      "ኻ": 274,
      "ኼ": 275,
      "ኽ": 276,
      "ኾ": 277,
      "ወ": 278,
      "ዉ": 279,
      "ዊ": 280,
      "ዋ": 281,
      "ዌ": 282,
      "ው": 283,
      "ዎ": 284,
      "ዐ": 285,
      "ዑ": 286,
      "ዒ": 287,
      "ዓ": 288,
      "ዔ": 289,
      "ዕ": 290,
      "ዖ": 291,
      "ዘ": 292,
      "ዙ": 293,
      "ዚ": 294,
      "ዛ": 295,
      "ዜ": 296,
      "ዝ": 297,
      "ዞ": 298,
      "ዟ": 299,
      "ዠ": 300,
      "ዡ": 301,
      "ዢ": 302,
      "ዣ": 303,
      "ዤ": 304,
      "ዥ": 305,
      "ዦ": 306,
      "ዧ": 307,
      "የ": 308,
      "ዩ": 309,
      "ዪ": 310,
      "ያ": 311,
      "ዬ": 312,
      "ይ": 313,
      "ዮ": 314,
      "ደ": 315,
      "ዱ": 316,
      "ዲ": 317,
      "ዳ": 318,
      "ዴ": 319,
      "ድ": 320,
      "ዶ": 321,
      "ዷ": 322,
      "ጀ": 323,
      "ጁ": 324,
      "ጂ": 325,
      "ጃ": 326,
      "ጄ": 327,
      "ጅ": 328,
      "ጆ": 329,
      "ጇ": 330,
      "ገ": 331,
      "ጉ": 332,
      "ጊ": 333,
      "ጋ": 334,
      "ጌ": 335,
      "ግ": 336,
      "ጎ": 337,
      "ጏ": 338,
      "ጠ": 339,
      "ጡ": 340,
      "ጢ": 341,
      "ጣ": 342,
      "ጤ": 343,
      "ጥ": 344,
      "ጦ": 345,
      "ጧ": 346,
      "ጨ": 347,
      "ጩ": 348,
      "ጪ": 349,
      "ጫ": 350,
      "ጬ": 351,
      "ጭ": 352,
      "ጮ": 353,
      "ጯ": 354,
      "ጰ": 355,
      "ጱ": 356,
      "ጲ": 357,
      "ጳ": 358,
      "ጴ": 359,
      "ጵ": 360,
      "ጶ": 361,
      "ጷ": 362,
      "ጸ": 363,
      "ጹ": 364,
      "ጺ": 365,
      "ጻ": 366,
      "ጼ": 367,
      "ጽ": 368,
      "ጾ": 369,
      "ጿ": 370,
      "ፀ": 371,
      "ፁ": 372,
      "ፂ": 373,
      "ፃ": 374,
      "ፄ": 375,
      "ፅ": 376,
      "ፆ": 377,
      "ፇ": 378,
      "ፈ": 379,
      "ፉ": 380,
      "ፊ": 381,
      "ፋ": 382,
      "ፌ": 383,
      "ፍ": 384,
      "ፎ": 385,
      "ፏ": 386,
      "ፐ": 387,
      "ፑ": 388,
      "ፒ": 389,
      "ፓ": 390,
      "ፔ": 391,
      "ፕ": 392,
      "ፖ": 393,
      "፠": 394,
      "፡": 395,
      "።": 396,
      "፣": 397,
      "፤": 398,
      "፥": 399,
      "፦": 400,
      "፧": 401,
      "፨": 402,
      "‘": 403,
      "’": 404,
      "“": 405,
      "”": 406,
      "…": 407,
      "‹": 408,
      "›": 409,
      "áĪ": 410,
      "áĬ": 411,
      "áĭ": 412,
      "áī": 413,
      "áĮ": 414,
      "ĠáĬ": 415,
      "ĠáĪ": 416,
      "Ġáĭ": 417,
      "áĬķ": 418,
      "Ġáī": 419,
      "áį": 420,
      "áīµ": 421,
      "áĭį": 422,
      "áĪĿ": 423,
      "Ġáĭ¨": 424,
      "áĪŃ": 425,
      "áĪį": 426,
      "ĠáĬ¥": 427,
      "Ġáīł": 428,
      "áĪµ": 429,
      "ĠáĬł": 430,
      "áī½": 431,
      "áĪĪ": 432,
      "áĬĵ": 433,
      "áĪĺ": 434,
      "ĠáĮ": 435,
      "áĬķáĭ": 436,
      "áĭŃ": 437,
      "áī°": 438,
      "áĭ«": 439,
      "áĪĭ": 440,
      "áĪħ": 441,
      "áĮĪ": 442,
      "ĠáĪĺ": 443,
      "áĬĲ": 444,
      "áĪ¨": 445,
      "áĮį": 446,
      "áīł": 447,
      "áĪ«": 448,
      "áĭ°": 449,
      "áī¥": 450,
      "ĠáĬ¨": 451,
      "áĪĽ": 452,
      "ĠáĭŃ": 453,
      "áī³": 454,
      "áĭµ": 455,
      "ĠáĬĲ": 456,
      "áĪļ": 457,
      "ĠáĪĪ": 458,
      "áĪ°": 459,
      "ĠáĬ¥áĬķáĭ": 460,
      "áĬŃ": 461,
      "áĮ¥": 462,
      "áī£": 463,
      "áĭİ": 464,
      "áĪī": 465,
      "Ġáĭ«": 466,
      "áįį": 467,
      "ĠáĭĪ": 468,
      "áĮł": 469,
      "áīĢ": 470,
      "áĪ³": 471,
      "áĪĨ": 472,
      "áī¸": 473,
      "áĬł": 474,
      "áĪģ": 475,
      "áīħ": 476,
      "ĠáĪµ": 477,
      "Ġáī°": 478,
      "áįĪ": 479,
      "áĬ¨": 480,
      "áī¸áĭį": 481,
      "áį£": 482,
      "áĬ¥": 483,
      "ĠáĬ¥áĬĵ": 484,
      "áĭİáī½": 485,
      "áĭĪ": 486,
      "áĪª": 487,
      "áĮ£": 488,
      "Ġáĭ¨áĪļ": 489,
      "ĠáĪĿ": 490,
      "ĠáĪĽ": 491,
      "áĮĭ": 492,
      "áĭ³": 493,
      "áĬĽ": 494,
      "áĬ«": 495,
      "áĭļ": 496,
      "ĠáĪ°": 497,
      "áĭĭ": 498,
      "ĠáĪĭ": 499,
      "áī¶": 500,
      "ĠáĬĲáĭį": 501,
      "áī±": 502,
      "ĠáĬ¥áĬķáĭ°": 503,
      "ĠáĪĭáĭŃ": 504,
      "áĭ¨": 505,
      "áĪ©": 506,
      "áĪ®": 507,
      "áĪ±": 508,
      "Ġáĭį": 509,
      "Ġáī¥": 510,
      "áīĥ": 511,
      "Ġáĭ¨áī°": 512,
      "áĪİ": 513,
      "áī½áĬķ": 514,
      "ĠáĬ¥áĬķáĭ²": 515,
      "áĬĲáīµ": 516,
      "áĬķáĭµ": 517,
      "áĬĿ": 518,
      "áĬĸ": 519,
      "áįħ": 520,
      "ĠáĪģ": 521,
      "áĪĢ": 522,
      "ĠáĮį": 523,
      "áĬĳ": 524,
      "áĭĿ": 525,
      "áĭįáĬķ": 526,
      "ĠáĪį": 527,
      "Ĭáĭ": 528,
      "áĭļáĪħ": 529,
      "Ġáīµ": 530,
      "áĪŀ": 531,
      "áĭĬ": 532,
      "ĠáĮ¥": 533,
      "áį¡": 534,
      "Ĭáĭľ": 535,
      "Ġáĭ°": 536,
      "áī»": 537,
      "áĪµáĮ¥": 538,
      "ĠáīłáĪĺ": 539,
      "ĠáĭĪáĭ°": 540,
      "Ġáį": 541,
      "Ġáī£": 542,
      "ĠáĬĲáĮĪ": 543,
      "áĪĪáĭį": 544,
      "ĠáĭįáĪµáĮ¥": 545,
      "áīłáĪŃ": 546,
      "áĭĺ": 547,
      "ĠáĮĬáĭľ": 548,
      "áĬĶ": 549,
      "áĬķáĪĿ": 550,
      "áĮħ": 551,
      "áīłáīµ": 552,
      "ĠáĪĪáĪĺ": 553,
      "ĠáĭŃáĪħ": 554,
      "áĪ½": 555,
      "ĠáĬłáĪµ": 556,
      "áĮī": 557,
      "ĠáīĢ": 558,
      "ĠáĬłáĭŃ": 559,
      "áįĭ": 560,
      "áĪĨáĬĲ": 561,
      "ĠáĪµáĪĪ": 562,
      "áĪĮ": 563,
      "áĪĻ": 564,
      "ĠáīłáĬł": 565,
      "ĠáĪ²": 566,
      "ĠáĬŃ": 567,
      "ĠáĮĭ": 568,
      "áī¢": 569,
      "áĭĽ": 570,
      "áĬ©": 571,
      "ĠáĬ¥áĬķ": 572,
      "ĠáĪĪáĪĽ": 573,
      "áĪªáĭ«": 574,
      "Ġáĭ¨áĪĺ": 575,
      "áī¡": 576,
      "áī¶áī½": 577,
      "Ġáĭµ": 578,
      "ĠáĪĢ": 579,
      "áĭ±": 580,
      "áĪĨáĬķ": 581,
      "Ġáĭ¨áĬł": 582,
      "áĪ»": 583,
      "áī¹": 584,
      "ĠáĪħ": 585,
      "áī½áĪģ": 586,
      "ĠáĬĲáīłáĪŃ": 587,
      "ĠáĮĭáĪŃ": 588,
      "ĠáĬĲáĮĪáĪŃ": 589,
      "áįĬ": 590,
      "áĪĪáĪģ": 591,
      "ĠáĮįáĬķ": 592,
      "ĠáĪĬ": 593,
      "áīµáĬķ": 594,
      "áĭŃáĪĿ": 595,
      "áĮ¨": 596,
      "áīĨ": 597,
      "ĠáĪģáĪī": 598,
      "ĠáĪĨ": 599,
      "ĠáĮĪ": 600,
      "áĮĢ": 601,
      "ĠáĬłáĪĪ": 602,
      "Ġáīłáī°": 603,
      "áĭĻ": 604,
      "áĪĭáĪį": 605,
      "áĭ°áĪŃ": 606,
      "áĬ¤": 607,
      "Ġáĭĺ": 608,
      "ĠáīłáĬ¥": 609,
      "áĪ¬": 610,
      "áĪĨáĬĳ": 611,
      "Ġáī¤": 612,
      "Ġáī³": 613,
      "ĠáĭĪáĭŃáĪĿ": 614,
      "áĭ²": 615,
      "áīģ": 616,
      "áĭĭáĪį": 617,
      "áĪµáīµ": 618,
      "áĪĦ": 619,
      "áĭµáĪŃ": 620,
      "áĪĪáīµ": 621,
      "áī°áĬĽ": 622,
      "áĮĥ": 623,
      "áĭ©": 624,
      "Ġáĭ¨áĪļáĭ«": 625,
      "ĠáĪĺáĬķ": 626,
      "áĪĿáĪĭ": 627,
      "áī¤": 628,
      "ĠáĬ«": 629,
      "Ġáīħ": 630,
      "ĠáĬłáĪĺ": 631,
      "ĠáĬ¢": 632,
      "Ġáįį": 633,
      "áĭ®": 634,
      "áĭļáĭ«": 635,
      "áĪµáĪ«": 636,
      "áĭĮ": 637,
      "áī¦": 638,
      "áĬĺ": 639,
      "áĪľ": 640,
      "ĠáĬķ": 641,
      "Ġáĭ¨áĪĿ": 642,
      "áĮİ": 643,
      "áīĤ": 644,
      "áĮ¡": 645,
      "ĠáĪ³": 646,
      "áī´": 647,
      "áįĥ": 648,
      "áī²": 649,
      "áĪĿáĪĭáĬŃ": 650,
      "ĠáĪ°áĭİáī½": 651,
      "ĠáīłáĪĽ": 652,
      "áĭ°áĪ¨": 653,
      "áįĢ": 654,
      "áī¸áĭįáĬķ": 655,
      "Ġáĭ¨áĬ¥": 656,
      "ĠáĬ¥áĬĲ": 657,
      "ĠáīłáĬ": 658,
      "áĬĵáĪį": 659,
      "ĠáĪ°áĭį": 660,
      "ĠáĮł": 661,
      "áĮ£áĪĿ": 662,
      "áĪµáī°": 663,
      "áĪĬ": 664,
      "áĪ®áī½": 665,
      "áĮŃ": 666,
      "áīłáĪ¨": 667,
      "ĠáĬłáĬķáĭµ": 668,
      "áĪħáĭĮ": 669,
      "áĮĨ": 670,
      "áĪŃáĪµ": 671,
      "ĠĠ": 672,
      "áįĪáĪį": 673,
      "ĠáĬ¥áĬķáĭ°áĪļ": 674,
      "ĠáīłáĮ£áĪĿ": 675,
      "áĬķáĭ³": 676,
      "Ġáĭ¨áĪĽ": 677,
      "áĬ®": 678,
      "áį¡áį¡": 679,
      "áĪĪáĪĿ": 680,
      "áĬķáī°": 681,
      "ĠáĬ¥áĬķáĭ³": 682,
      "áĪ¨áīµ": 683,
      "áĮĪáĪį": 684,
      "ĠáīłáĪļ": 685,
      "Ġáī¢": 686,
      "áĭµáĪ¨": 687,
      "áĪ´": 688,
      "ĠáĭŃáī½": 689,
      "áĪĪáĬķ": 690,
      "áĮ«": 691,
      "ĠáįĪ": 692,
      "áĬŀ": 693,
      "ĠáĪĮ": 694,
      "ĠáĬłáĪį": 695,
      "ĠáĮī": 696,
      "áĪİáī½": 697,
      "áĭ¶": 698,
      "ĠáĪĿáĬķ": 699,
      "áĭ«áĬķ": 700,
      "áĪĭáī¸áĭį": 701,
      "Ġáĭ«áĪĪ": 702,
      "Ġáī¥áĭĻ": 703,
      "ĠáĬ¨áī°": 704,
      "ĠáĬ¥áĪµ": 705,
      "áīĭ": 706,
      "áĭİáī½áĬķ": 707,
      "áĭįáĪĿ": 708,
      "áĬķáĭ«": 709,
      "áĪģáĬķ": 710,
      "áĮĪáĭµ": 711,
      "ĭáĪĭ": 712,
      "áį¥": 713,
      "ĠáĬ¥áĭ¨": 714,
      "ĠáĪĿáĬŃ": 715,
      "áĪĺáĪĪ": 716,
      "áĪ¸": 717,
      "ĠáĬĵ": 718,
      "áĬĴ": 719,
      "áĮĪáī£": 720,
      "ĠáĬ¨áĬ¥": 721,
      "ĠáĬ¥áĬķáĭ²áĪħ": 722,
      "áĪŃáīµ": 723,
      "áĬ«áĬ¨": 724,
      "Ġáį£": 725,
      "ĠáīłáĭļáĪħ": 726,
      "áĪ¶": 727,
      "ĠáĪµáĪ«": 728,
      "áĪ²": 729,
      "áĬĻ": 730,
      "áĪĽáĪª": 731,
      "áĪĭáĭŃ": 732,
      "ĠáĭŃáĪĨ": 733,
      "Ġáī¦": 734,
      "áĬķáĮį": 735,
      "ĠáīłáĬĭáĪĭ": 736,
      "áĪĿáĬķ": 737,
      "Ġáī¤áīµ": 738,
      "áĪ¨áĮĥ": 739,
      "ĠáĬ¨áĪĺ": 740,
      "áī³áĪį": 741,
      "ĠáĬ¥áĪŃ": 742,
      "Ġáī£áĪĪ": 743,
      "ĠáĬłáĪĿáĪĭáĬŃ": 744,
      "áįī": 745,
      "áĬ¨áī°": 746,
      "´áīµ": 747,
      "áįİ": 748,
      "ĠáĬ¨áĬł": 749,
      "ĠáĪĺáĪį": 750,
      "áī±áĬķ": 751,
      "ĠáĪĻ": 752,
      "áīħáĪŃ": 753,
      "áĪ°áĪ«": 754,
      "áĬª": 755,
      "ĠáĭŃáĪħáĬķ": 756,
      "ĠáĬ¥áĬĶ": 757,
      "ĠáĬ¤": 758,
      "áĮĢáĪĺ": 759,
      "áĮĪáĪŃ": 760,
      "áĪ«áīµ": 761,
      "áĪ°áī¥": 762,
      "ĠáĪļ": 763,
      "áĭµáĪ¨áĮį": 764,
      "áĪµáī³": 765,
      "ĠáĬ¥áĬķáĭ²áĪģ": 766,
      "Ġáĭ«áĪħáĭĮ": 767,
      "áĬ³": 768,
      "áĪīáīµ": 769,
      "Ġáĭ°áĮį": 770,
      "áī·": 771,
      "áĮĬ": 772,
      "áĪĭáĪī": 773,
      "ĠáĬłáĬķ": 774,
      "áĭŃáĭĪ": 775,
      "Ġáĭ¨áĪĨáĬĲ": 776,
      "ĠáĬŃáįį": 777,
      "áĪħáĬķ": 778,
      "áĪ°áĪĽ": 779,
      "áįħáĪĢ": 780,
      "Ġáīģ": 781,
      "áĭ¨áīµ": 782,
      "áĮłáīĢ": 783,
      "ĠáĪįáĮĨ": 784,
      "ĠáīĢáĬķ": 785,
      "áĬķáĭ±": 786,
      "ĠáĭĿ": 787,
      "áĬĶáī³": 788,
      "ĠáĪĺáĪµ": 789,
      "Ġáīĥ": 790,
      "áįĬáīµ": 791,
      "áĮĤ": 792,
      "Ġáĭ°áĮįáĪŀ": 793,
      "áī£áīµ": 794,
      "áįķ": 795,
      "Ġáī¦áī³": 796,
      "ĠáĬ¥áĭ«": 797,
      "áīłáĪ©": 798,
      "ĠáĬ¥áĬķáĭ²áĪģáĪĿ": 799,
      "Ġáĭĭ": 800,
      "ĠáĬ¨áĭļáĭ«": 801,
      "Ġáī¥áī»": 802,
      "ĠáĪģáĬĶáī³": 803,
      "áĪĺáĪį": 804,
      "áīĢáĪŃ": 805,
      "áĬ¤áĪį": 806,
      "ĠáĬĵáī¸áĭį": 807,
      "ĠáĭŃáī½áĪĭáĪį": 808,
      "áĭ«áĪµ": 809,
      "ĠáĪĿáĬŃáĬķáĭ«": 810,
      "áī£áī¸áĭį": 811,
      "ĠáĪ«": 812,
      "áĬĵáīµ": 813,
      "ĠáĬ¥áĪ±": 814,
      "áĪ¨áĭį": 815,
      "ĠáĮ¥áĪ©": 816,
      "Ġáīħáĭ±": 817,
      "ĠáĪĪáĬ¥": 818,
      "Ġáĭ³": 819,
      "áįħáĪĢáįį": 820,
      "áĪįáīħ": 821,
      "áī³áīµ": 822,
      "áĮĪáĬĺ": 823,
      "áī½áĪį": 824,
      "Ġáĭ«áĪĪáĭį": 825,
      "áĭįáĭ«áĬķ": 826,
      "áĪ±áĪµ": 827,
      "ĠáĬłáĬ«": 828,
      "áĭ¨áĪ±áĪµ": 829,
      "áĭİáĬķ": 830,
      "áĮĵ": 831,
      "ĠáĬłáĪĭ": 832,
      "áĪĺáĬķ": 833,
      "ĠáĬłáĬķáĭ³": 834,
      "ĠáĬłáĭµáĪŃ": 835,
      "ĠáĪĨáĬĸ": 836,
      "ĠáĪĪáĬł": 837,
      "ĠáĪĿáĬķáĪĿ": 838,
      "áĬłáīµ": 839,
      "áĬŀáī½": 840,
      "áĮ¦": 841,
      "áĬĸáĪŃ": 842,
      "ĠáĬłáĪµáī°": 843,
      "áī¥áĪŃ": 844,
      "ĠáĪĺáĬķáĮĪáĭµ": 845,
      "ĠáĪĽáĬķ": 846,
      "áĬĲáĪ³": 847,
      "áĭ«áĭį": 848,
      "Ġáī½": 849,
      "ĠáĬ¨áįį": 850,
      "ĠáĬ¥áĬķáĭµ": 851,
      "áĬ¢": 852,
      "ĠáĬ¥áĬķáĭ´áīµ": 853,
      "ĠáĬłáĮĪáĪį": 854,
      "áĬ«áĬ¨áĪį": 855,
      "áĮĢáĪĺáĪªáĭ«": 856,
      "Ġáīħáĭ±áĪµ": 857,
      "ĠáĪįáĮħ": 858,
      "áĬĺáīµ": 859,
      "Ġáĭ¨áĪ°": 860,
      "ĠáĮīáĭ³": 861,
      "Ġáĭ¨áĬĲ": 862,
      "áĭ¬": 863,
      "áĪ¨áĪµ": 864,
      "ĠáĬ®": 865,
      "ĠáĪĺáĮł": 866,
      "áĪ³áĪĮ": 867,
      "áĮ¨áĪĽáĪª": 868,
      "ĠáĪĨáĬĲ": 869,
      "áĪ«áĭĬ": 870,
      "áĮĪáĬĵ": 871,
      "Ġáĭ¨áīł": 872,
      "áī±áĪĿ": 873,
      "áĪĭáīµ": 874,
      "ĠáĬ¥áĬĲáĭļáĪħ": 875,
      "ĠáīłáĪĿ": 876,
      "áĮįáī£": 877,
      "áĪĿáĪħ": 878,
      "ĠáĮĢ": 879,
      "ĠáĪŀ": 880,
      "ĠáįĬ": 881,
      "ĠáĪħáĭĿ": 882,
      "ĠáīĨ": 883,
      "áĭİáī¹": 884,
      "áĪĺáĪŃ": 885,
      "Ġáĭ«áĪµ": 886,
      "ĠáĪĺáĪ°": 887,
      "áī¢áĭ«": 888,
      "ĠáĬ¥áĭį": 889,
      "áīĦ": 890,
      "áĬ¨áīµ": 891,
      "áĭ´": 892,
      "áī¶áī½áĬķ": 893,
      "ĠáĬ¥áĪµáĬ¨": 894,
      "áĬĵáĮĪ": 895,
      "áĪĺáĪµ": 896,
      "ĠáĪĺáĬ«áĬ¨áĪį": 897,
      "áĬķáĪµ": 898,
      "áĬ¦": 899,
      "áĪħáĪį": 900,
      "ĠáĬłáĪĺáīµ": 901,
      "ĠáĪĿáĪŃ": 902,
      "áĪĪáī½": 903,
      "ĠáĬłáĭŃáĭ°": 904,
      "áĬĸáī½": 905,
      "áĮįáī¥": 906,
      "áĪĪáĪħ": 907,
      "áĭĪáĪ°": 908,
      "áĪ¨áĭ³": 909,
      "áĪ«áĪį": 910,
      "áī¦áī½": 911,
      "áĪ³áĭŃ": 912,
      "áĭ«áĪħáĭĮ": 913,
      "ĠáĬ¥áĬķáĭ°áĪĨáĬĲ": 914,
      "áĮ¤": 915,
      "ĠáĮ¨": 916,
      "ĠáĬ¢áĭ¨áĪ±áĪµ": 917,
      "Ġáįķ": 918,
      "áī¼": 919,
      "áĪĭáī½áĪģ": 920,
      "áĮįáĬĺáīµ": 921,
      "áĮĪáĪĪ": 922,
      "áĬĽáĪį": 923,
      "áĮ£áīµ": 924,
      "ĠáīĥáĪį": 925,
      "ĠáĬłáī£": 926,
      "áĭµáĬķ": 927,
      "ĠáĬłáĭį": 928,
      "áĪ¨áĮĭ": 929,
      "ĠáĬłáī¥": 930,
      "áĬĿáĬĲáīµ": 931,
      "áī£áī¢": 932,
      "áĬŃáīµ": 933,
      "áĮĪáĭį": 934,
      "ĠáĪµáĪŃ": 935,
      "ĠáĪįáĮĨáī½": 936,
      "áīłáĪį": 937,
      "áĬķáĭ¶": 938,
      "áįĸ": 939,
      "áĬłáī¥": 940,
      "ĠáĪĮáĪĭ": 941,
      "áĮįáĪİ": 942,
      "ĠáĪ³áĭŃ": 943,
      "áįģ": 944,
      "áĪ±áĪĿ": 945,
      "ĠáĭµáĪŃ": 946,
      "ĠáĭµáĪ¨áĪµ": 947,
      "ĠáĬ¨áĭļáĭ«áĪĿ": 948,
      "áĭ²áĪµ": 949,
      "Ġáĭ¨áĭĪ": 950,
      "áĪı": 951,
      "áĮĪáĬĻ": 952,
      "áĪĺáĮ£": 953,
      "áĮģ": 954,
      "áĭŃáĭĪáīµ": 955,
      "áīħáĪĿ": 956,
      "áĮĮ": 957,
      "ĠáĬłáĭŃáĬĲáīµ": 958,
      "ĠáīłáįĬáīµ": 959,
      "ĠáĪµáĪĪáĭļáĪħ": 960,
      "áĪ¯": 961,
      "áĬķáĬķ": 962,
      "Ġáįħ": 963,
      "ĠáĪŃ": 964,
      "áĪīáĪĿ": 965,
      "ĠáĬĲáĮĪáĪ®áī½": 966,
      "áĪĿáĪ®": 967,
      "ĠáĬłáĪģáĬķ": 968,
      "ĠáīłáĪĭáĭŃ": 969,
      "áī³áĭĬ": 970,
      "áĪŃáĭµ": 971,
      "áĪĿáĬĵ": 972,
      "áĪĪáĭ«": 973,
      "ĠáīłáĪĻ": 974,
      "ĠáĬ¥áĬķáĭ²áĭ«": 975,
      "áĪŀáī½": 976,
      "áī°áĭį": 977,
      "áĪĪáĮł": 978,
      "ĠáįĢ": 979,
      "áĪĦáĪŃ": 980,
      "ĠáĬ¨áĭļáĪħ": 981,
      "ĠáĬłáĬķáĭ³áĬķáĭµ": 982,
      "ĠáĭŃáī½áĪĭáĪī": 983,
      "ĠáĬ¥áĭµ": 984,
      "ĠáĪĢáĭŃ": 985,
      "áĭĪáīħ": 986,
      "áī½áĬķáĬķ": 987,
      "ĠáĪĺáįħáĪĢáįį": 988,
      "áĬŃáĪį": 989,
      "áĮįáĪŃ": 990,
      "áī·áĪį": 991,
      "áĭŀ": 992,
      "áĮ¨áĪ¨": 993,
      "Ġáĭ«áĪī": 994,
      "áī¸áĭĭáĪį": 995,
      "áĪµáĪ«áĬ¤áĪį": 996,
      "ĠáĭŃáĪĨáĬĵáĪį": 997,
      "áīĢáīµ": 998,
      "ĠáĬ¨áĪĨáĬĲ": 999,
      "áĮ¥áĪŃ": 1000,
      "áī³áī¸áĭį": 1001,
      "áĬĽáĭį": 1002,
      "ĠáĭŃáĪģáĬķ": 1003,
      "áĭĺáĮĭ": 1004,
      "ĠáĪ¨": 1005,
      "áĪļáĭ«": 1006,
      "áĮįáĭļ": 1007,
      "ĠáĭĪáĬķáĭµ": 1008,
      "ĠáĬ¥áĬķáĬ³": 1009,
      "áĪ±áĬķ": 1010,
      "ĠáīµáĬķ": 1011,
      "áĮĪáĬĿ": 1012,
      "ĠáĬłáĪ³": 1013,
      "Ġáĭ¨áĪħ": 1014,
      "áĬĽáĭįáĪĿ": 1015,
      "ĠáīłáĬ¥áĪŃ": 1016,
      "Ġáĭ°áĪ¨áĮĥ": 1017,
      "Ġáī°áĪµ": 1018,
      "ĠáīłáīĢ": 1019,
      "áĬķáĭĺ": 1020,
      "áĪ°áĮł": 1021,
      "ĠáĪĺáĬķáĮį": 1022,
      "ĠáĪĿáĪµ": 1023,
      "ĠáĪĽáĭµáĪ¨áĮį": 1024,
      "áĪ³áīµ": 1025,
      "ĠáĬłáīµ": 1026,
      "áĪĿáĪŃ": 1027,
      "Ġáĭ¨áĪļáĭ«áĪµ": 1028,
      "ĠáĪĽáĪĪáīµ": 1029,
      "áĮįáĪį": 1030,
      "Ġáĭ¨áĬ¢": 1031,
      "áĮ¨áĪ¨áĪ»": 1032,
      "ĠáĬķáĮī": 1033,
      "ĠáīłáĪħ": 1034,
      "áĮįáĭļáĬłáī¥": 1035,
      "áĮįáĭļáĬłáī¥áĪĦáĪŃ": 1036,
      "ĠáĪĮáĪİáī½": 1037,
      "áĮįáĪ«": 1038,
      "ĠáĮİ": 1039,
      "ĠáĬłáĪµáįĪ": 1040,
      "Ġáĭ¨áīµ": 1041,
      "áī»áī¸áĭį": 1042,
      "ĠáĪµáĪĿ": 1043,
      "áī£áĪį": 1044,
      "ĠáĪ½": 1045,
      "Ġáĭ«áĪħáĪį": 1046,
      "ĠáĬłáĮĪáĪįáĮįáĪİ": 1047,
      "ĠáĬłáĪĽ": 1048,
      "ĠáĬłáĪĪáĭį": 1049,
      "ĠáĭĽ": 1050,
      "áĮ£áĬķ": 1051,
      "Ġáĭ«áĪį": 1052,
      "áĮłáĪŃ": 1053,
      "áĮłáīĥ": 1054,
      "áĬ¬": 1055,
      "ĠáīłáĪĻáĪī": 1056,
      "áĪ·": 1057,
      "ĠáĬłáĬķáī°": 1058,
      "áĪĿáĪħáĪŃáīµ": 1059,
      "áĪĦáĭµ": 1060,
      "ĠáĪĪáĪĿ": 1061,
      "ĠáĭŃáĪĨáĭĭ": 1062,
      "ĠáĪĢáĪ³": 1063,
      "áĭ°áĪŃáĮĭ": 1064,
      "Ġáīłáīµ": 1065,
      "ĠáĬŃáĪŃáĪµ": 1066,
      "ĠáĬłáĭŃáĭ°áĪĪáĪĿ": 1067,
      "áĭĪáĮ£": 1068,
      "áįįáīµ": 1069,
      "áĭ°áĭį": 1070,
      "áī½áĪĭ": 1071,
      "áĮĬáĭľ": 1072,
      "Ġáī¡": 1073,
      "áĮłáīł": 1074,
      "ĠáīłáĪ°": 1075,
      "ĠáĪ´": 1076,
      "áįĪáĪĪ": 1077,
      "áįĪáĪįáĮĭ": 1078,
      "áĬķáīµ": 1079,
      "Ġáīłáĭļáĭ«": 1080,
      "Ġáī¤áī°": 1081,
      "ĠáĬłáĪĿ": 1082,
      "áĪĨáĬĳáĪĿ": 1083,
      "áī³áĭį": 1084,
      "ĠáĬ¨áĪļ": 1085,
      "ĠáĬ¥áĮħ": 1086,
      "áĪªáĬ«": 1087,
      "ĠáĮ£": 1088,
      "áĮ¢": 1089,
      "áįĮ": 1090,
      "áī°áĪŃ": 1091,
      "áĬķáĬĵ": 1092,
      "áĮłáīĢáĪĿ": 1093,
      "Ġáī¥áĪİ": 1094,
      "ĠáĬ¨áįįáī°áĬĽ": 1095,
      "Ġáī°áīĢ": 1096,
      "ĠáĪĦ": 1097,
      "áī¤áīµ": 1098,
      "áĭ«áīĦ": 1099,
      "áĪ«áī¸áĭį": 1100,
      "Ġáĭ¨áīĢ": 1101,
      "áįĴ": 1102,
      "áĪ¨áī¥": 1103,
      "ĠáĪĿáĭµáĪŃ": 1104,
      "áĪĭáĮĬ": 1105,
      "Ġáĭ¨áĪµ": 1106,
      "áĪ©áīµ": 1107,
      "ĠáĪģáĪīáĪĿ": 1108,
      "ĠáĭĪáīħ": 1109,
      "ĠáīłáĪŃ": 1110,
      "ĠáĪģáĪĪáīµ": 1111,
      "ĠáĬŃáįįáĪį": 1112,
      "ĠáĪ²áĪĨáĬķ": 1113,
      "ĠáĭµáĬķ": 1114,
      "áįĵ": 1115,
      "ĠáĪ¶": 1116,
      "áĪªáĭİáī½": 1117,
      "áĭ®áī½": 1118,
      "ĠáĬ¥áĭ¨áī°": 1119,
      "áĪĿáĬĲáīµ": 1120,
      "áĭŃáīµ": 1121,
      "Ġáĭ¨áĪĿáīµ": 1122,
      "ĠáĪĻáĪī": 1123,
      "Ġáīłáĭ°": 1124,
      "áĮįáĮ¥": 1125,
      "áĬ¸": 1126,
      "áĬĭ": 1127,
      "ĠáĬ¦": 1128,
      "áĬķáĭĺáī¥": 1129,
      "áĬķáĭ¶áī½": 1130,
      "ĠáįĬáīµ": 1131,
      "Ġáĭ¨áĪĽáĭŃ": 1132,
      "ĠáĮĮ": 1133,
      "áĭ¶áī½": 1134,
      "Ġáĭ²": 1135,
      "ĠáįķáĪ®": 1136,
      "áĬĲáĭį": 1137,
      "ĠáĭĺáĬķáĭµ": 1138,
      "áĪĽáīµ": 1139,
      "áĪ°áĮ£": 1140,
      "ĠáĬ¥áĬĽ": 1141,
      "áįĪáįĢ": 1142,
      "ĠáĪĺáĪ°áĪ¨áīµ": 1143,
      "áĭĪáĪµ": 1144,
      "ĠáĪĺáĪ¨áĮĥ": 1145,
      "ĠáĬłáĪī": 1146,
      "ĠáĮ¥áĭ«áīĦ": 1147,
      "áīłáī¥": 1148,
      "ĠáĪĬáĭ«": 1149,
      "áįĭáīµ": 1150,
      "áĬĲáīłáĪ¨": 1151,
      "ĠáĪĪáĪļ": 1152,
      "ĠáīłáĮ¥": 1153,
      "áĬ©áĪį": 1154,
      "ĠáĪĺáĪĨáĬĳ": 1155,
      "áĪĺáĪ°": 1156,
      "Ġáī£áĪħ": 1157,
      "ĠáĬłáĪĺáī³áīµ": 1158,
      "áĮłáĬĵ": 1159,
      "Ġáīłáĭ¨": 1160,
      "ĠáīłáĪµ": 1161,
      "ĠáĪįáī¥": 1162,
      "áī¹áĬķ": 1163,
      "áī³áī½áĬķ": 1164,
      "Ġáĭ«áĪĪáĭįáĬķ": 1165,
      "ĠáĪµáĪį": 1166,
      "ĠáĪĺáĪ³": 1167,
      "áĪŁ": 1168,
      "ĠáĬłáĪµáįĪáĪĭáĮĬ": 1169,
      "ĠáĭŃáĪħáĪĿ": 1170,
      "ĠáĬłáĬķáĭ±": 1171,
      "ĠáĪĽáĪµ": 1172,
      "Ġáĭ®": 1173,
      "áĪªáĬŃ": 1174,
      "áĪ°áĭį": 1175,
      "ĠáĪĺáĮ¥": 1176,
      "Ġáĭ¨áī³": 1177,
      "áĬ¨áĪŃ": 1178,
      "ĠáĬłáĭ²áĪµ": 1179,
      "áīµáĪĿ": 1180,
      "ĠáĪĤ": 1181,
      "áĪ°áī£": 1182,
      "Ġáī°áĪµáįĭ": 1183,
      "ĠáĬłáĪµáĭ°": 1184,
      "áĭ¨áĪŃ": 1185,
      "ĠáĬ¨áī°áĪĽ": 1186,
      "ĠáĪįáĭ©": 1187,
      "Ġáīłáī°áĮ¨áĪĽáĪª": 1188,
      "Ġáįĸ": 1189,
      "áĪĺáĪ¨": 1190,
      "áįĪáĭį": 1191,
      "áĮª": 1192,
      "ĠáĪĺáī¥": 1193,
      "ĠáĪĿáĬŃáĬķáĭ«áīµ": 1194,
      "Ġáĭ¨áĬłáĪĿáĪĭáĬŃ": 1195,
      "Ġáĭ¨áĭį": 1196,
      "ĠáĪģáĪĪ": 1197,
      "ĠáĪĨáĭŃ": 1198,
      "Ġáĭ¨áīłáĪĪáĮł": 1199,
      "Ġáĭ¨áĪĨáĬĳ": 1200,
      "áĮłáĪ«": 1201,
      "áĬĲáĪ±": 1202,
      "áĭŃáĬķ": 1203,
      "ĠáĬłáĪĪáĪĿ": 1204,
      "áĭĪáĭ³": 1205,
      "áĪ®áī½áĬķ": 1206,
      "áĬ¨áĪ«": 1207,
      "ĠáĪĿáĬŃáĬķáĭ«áī±áĪĿ": 1208,
      "ĠáĭĪáīħáīµ": 1209,
      "ĠáĪĺáĮį": 1210,
      "áīµáĬĵ": 1211,
      "áĬŃáĪŃ": 1212,
      "ĠáĭĪáĪŃ": 1213,
      "áĪĢáĪį": 1214,
      "áĪĨáĬĵ": 1215,
      "áīĢáĭį": 1216,
      "áĪµáī°áĬĽ": 1217,
      "áīłáĭį": 1218,
      "ĠáĬłáīĢ": 1219,
      "ĠáĬª": 1220,
      "áĬķáĭ°": 1221,
      "áĮłáī¥": 1222,
      "ĠáĮŃ": 1223,
      "áĭ°áĪĿ": 1224,
      "ĠáĪĺáĪĨáĬķ": 1225,
      "ĠáĬ©": 1226,
      "áį¦": 1227,
      "áĭ°áĪ¨áĮĪ": 1228,
      "ĠáĪĺáĬķáįĪ": 1229,
      "áĬŃáĪµ": 1230,
      "Ġáīłáī³": 1231,
      "ĠáĪ²áĪį": 1232,
      "áī½áĪī": 1233,
      "áĪĪáĬĽ": 1234,
      "áĭ°áĪŃáĮį": 1235,
      "ĠáĬ¥áĬĵáĬķáī°": 1236,
      "Ġáī°áĪĺ": 1237,
      "áĪ°áĮ¥": 1238,
      "ĠáĪħáĭŃáĭĪáīµ": 1239,
      "ĠáīłáĪĮ": 1240,
      "ĠáīµáĪĿáĪħáĪŃáīµ": 1241,
      "áĮĪáĬĺáĭį": 1242,
      "áĪŃáĪµáĭİ": 1243,
      "Ġáī°áĮ¨áĪĽáĪª": 1244,
      "áĪįáĬķ": 1245,
      "Ġáī°áĬĵ": 1246,
      "ĠáĪĺáĮłáĬķ": 1247,
      "ĠáĪĺáĪĺ": 1248,
      "ĠáĪĺáĬķáĮįáĪµáīµ": 1249,
      "áīĤáĭ«": 1250,
      "ĠáĪĺáĪŃ": 1251,
      "áĬ¨áī³": 1252,
      "áĪĺáĭį": 1253,
      "ĠáĬ¥áĬķáĭ°áī°": 1254,
      "áĭĽáīµ": 1255,
      "áīĢáĮ¥": 1256,
      "ĠáīµáĪįáīħ": 1257,
      "Ġáĭ¨áĪĢ": 1258,
      "ĠáĬ¨áĪĽ": 1259,
      "áī¤áī°": 1260,
      "ĠáĪ°áĪ«": 1261,
      "Ġáĭ¶": 1262,
      "ĠáīłáĪĺáĪĨáĬĳáĪĿ": 1263,
      "ĠáĬĲáīłáĪ©": 1264,
      "ĠáĬ¥áĬķáĮĤ": 1265,
      "áĪŃáĭ«": 1266,
      "áĮ®": 1267,
      "ĠáĬĲáįĥ": 1268,
      "ĠáĪµáĪľ": 1269,
      "áĪĿáīµ": 1270,
      "ĠáĬ¨áī£": 1271,
      "áĪıáĪį": 1272,
      "ĠáĪĺáĭĿ": 1273,
      "áĬĲáī±": 1274,
      "áĪĭáĭĬ": 1275,
      "áĮłáīµ": 1276,
      "áĪ¹": 1277,
      "áĪ½áĬķ": 1278,
      "Ġáĭ¨áĭ«áĪħáĭĮ": 1279,
      "ĠáīłáĬ¢": 1280,
      "ĠáĪĪáĪĽáĮįáĬĺáīµ": 1281,
      "ĠáįĪáīĥ": 1282,
      "áĮĪáĬĽ": 1283,
      "Ġáīłáįį": 1284,
      "ĠáĪĨáĬĸáĪĿ": 1285,
      "áĪĪáĭ«áĭ©": 1286,
      "ĠáĬķáĮīáĪµ": 1287,
      "áįĪáĪŃ": 1288,
      "Ġáĭ¨áĬĲáīłáĪ¨": 1289,
      "ĠáĬłáĬ«áī£áī¢": 1290,
      "áĪįáĪĿ": 1291,
      "áĬķáĭ³áĬķáĭ±": 1292,
      "Ġáĭ¨áī£": 1293,
      "ĠáĬ¥áĭļáĪħ": 1294,
      "Ġáĭ¨áĮĪ": 1295,
      "ĠáĬłáĮĭ": 1296,
      "ĠáĭĭáĬĵ": 1297,
      "áĪĭáīħ": 1298,
      "áĬķáīł": 1299,
      "áĬĸáĪ©": 1300,
      "ĠáĬłáĮĪáĪįáĮįáĪİáīµ": 1301,
      "ĠáĪĺáĪ³áĪªáĭ«": 1302,
      "ĠáĭĽáĪ¬": 1303,
      "áī»áī½áĬķ": 1304,
      "ĠáĪµáī¥": 1305,
      "ĠáĬŃáĪŃáĪµáī²": 1306,
      "ĠáĪĿáĪ³áĪĮ": 1307,
      "ĠáĭĺáĪĺáĬķ": 1308,
      "ĠáīµáĬķáĪ½": 1309,
      "ĠáĮĵ": 1310,
      "áĭĬáīµ": 1311,
      "ĠáĪĪáĪĽáĭµáĪ¨áĮį": 1312,
      "áĭ°áĮĭ": 1313,
      "ĠáįįáĪĭ": 1314,
      "Ġáĭ«áĪ³": 1315,
      "áĪĽáĪŃ": 1316,
      "áĭ²áĭ«": 1317,
      "áĬķáĭµáĬķ": 1318,
      "áįĪáĪįáĮį": 1319,
      "áĬķáīĢ": 1320,
      "Ġáįĵ": 1321,
      "áĪģáĭ³": 1322,
      "áĪµáĪį": 1323,
      "áĬ«áĪĿ": 1324,
      "áī¶áĪµ": 1325,
      "áī½áĬĭ": 1326,
      "ĠáĪĢáĪ³áī¥": 1327,
      "áīª": 1328,
      "ĠáĪµáĪĭ": 1329,
      "Ġáĭ¨áĪĺáĮĢáĪĺáĪªáĭ«": 1330,
      "áīĢáĪĺ": 1331,
      "ĠáĬ¥áĬķáĭ³áĪĪ": 1332,
      "áīĥáĪį": 1333,
      "áĬĲáĭļáĪħ": 1334,
      "áĪŃáĭĿ": 1335,
      "ĠáīłáĬ¥áĪŃáĮįáĮ¥": 1336,
      "Ġáī°áĮįáī£": 1337,
      "áī°áĭĭáĪį": 1338,
      "Ġáĭ¨áĪĿáĬķ": 1339,
      "ĠáĬłáĭµ": 1340,
      "ĠáĪľ": 1341,
      "áĭ¥": 1342,
      "áĪĤ": 1343,
      "ĠáĪĪáī°": 1344,
      "áįĪáĪįáĮī": 1345,
      "áĭ°áĪŃáĮī": 1346,
      "ĠáĭŃáĪĭáĪį": 1347,
      "áĭİáīµ": 1348,
      "ĠáĪĬáĪĨáĬķ": 1349,
      "ĠáīłáĬłáĬķáĭµ": 1350,
      "ĠáīµáĬŃ": 1351,
      "áĭ°áīµ": 1352,
      "áĪ¾": 1353,
      "áĭ°áĪ¨áĮį": 1354,
      "ĠáĬłáīħ": 1355,
      "áĭįáĬķáĪĿ": 1356,
      "áĮµ": 1357,
      "ĠáĭŃáĪįáīħ": 1358,
      "áīĥáīµ": 1359,
      "ĠáĪĺáĪĨáĬĳáĬķ": 1360,
      "ĠáĭŃáĪĺáĪµ": 1361,
      "áĮĪáī¥": 1362,
      "áĪ³áĭĬ": 1363,
      "ĠĠĠĠ": 1364,
      "ĠáĬ¥áĮįáĭļáĬłáī¥áĪĦáĪŃ": 1365,
      "áĪĭáĭį": 1366,
      "áĮĦ": 1367,
      "ĠáĭĭáĮĭ": 1368,
      "áĪ»áĪ»": 1369,
      "ĠáĭµáĪŃáĮħ": 1370,
      "áĪĭáĪĿ": 1371,
      "áĮĪáĬķ": 1372,
      "áĪµáī¥": 1373,
      "ĠáĭįáĮ¤": 1374,
      "áīĤáīµ": 1375,
      "ĠáĬ¥áĭįáĬĲ": 1376,
      "Ġáīłáī°áĮ¨áĪĽáĪªáĪĿ": 1377,
      "áī£áĬ¤": 1378,
      "Ġáī¥áĪŃ": 1379,
      "Ġáī°áĪĺáĪį": 1380,
      "áĮįáĬĵ": 1381,
      "áĪµáĪ«áīµ": 1382,
      "ĠáĪ¸": 1383,
      "ĠáĬłáĭ³": 1384,
      "áĬ¨áĬĵ": 1385,
      "ĠáĬłáĪģ": 1386,
      "áī°áĬĽáĭį": 1387,
      "ĠáĪ²áĭ«": 1388,
      "áĪĪáĭįáĬķ": 1389,
      "áĪĨáĬķáĪĿ": 1390,
      "áī§": 1391,
      "Ġáīłáĭį": 1392,
      "áĭľ": 1393,
      "áĬķáī¥": 1394,
      "ĠáĮīáĭ³áĭŃ": 1395,
      "ĠáĮĮáī³": 1396,
      "áī¥áĬĿ": 1397,
      "ĠáĬĲáīłáĪ¨": 1398,
      "áĭ°áĪ¨áĮī": 1399,
      "ĠáĬ¥áī£": 1400,
      "ĠáīłáĬ©áĪį": 1401,
      "ĠáįįáĪĭáĮİ": 1402,
      "ĠáīłáĮį": 1403,
      "áĭ³áĬķ": 1404,
      "ĠáīµáĬ¥": 1405,
      "áĬ¨áī±": 1406,
      "áīłáīµáĬķ": 1407,
      "áĮĪáī¡": 1408,
      "ĠáĪĪáĭį": 1409,
      "ĠáĮĪáįħ": 1410,
      "ĠáĬłáĪģáĬķáĪĿ": 1411,
      "ĠáĪĺáĪĪ": 1412,
      "áĪİáĪµ": 1413,
      "áĪįáĬŃ": 1414,
      "áĪĺáĪ«": 1415,
      "áįįáĪ«": 1416,
      "ĠáĪ´áīµ": 1417,
      "áīħáĪµ": 1418,
      "áĪ¯áĪį": 1419,
      "áĪĺáĪĪáĬ¨áī°": 1420,
      "áĪ¶áī½": 1421,
      "áĭ«áĭ«": 1422,
      "áĪľáĪªáĬ«": 1423,
      "ĠáĬķáĮį": 1424,
      "áĪĭáĪĪ": 1425,
      "áĪ¨áĬķ": 1426,
      "ĠáīłáĬĲ": 1427,
      "ĠáĬĲáĬĿ": 1428,
      "áĬ«áī³": 1429,
      "ĠáĪĽáĪħ": 1430,
      "ĠáįįáīħáĪŃ": 1431,
      "ĠáĬ¥áĬķáĬ³áĬķ": 1432,
      "ĠáĬłáĪĭáī¸áĭį": 1433,
      "áĪ«áĪµ": 1434,
      "áĭ³áīµ": 1435,
      "áĪħáĪĿ": 1436,
      "ĠáīĢáĪĭáĪį": 1437,
      "Ġáīłáī¥": 1438,
      "áĪ¨áĮĭáĮĪ": 1439,
      "ĠáĪħáĭĿáī¥": 1440,
      "ĠáīłáĪĽáĪĪáīµ": 1441,
      "Ġáįĭ": 1442,
      "ĠáīłáĪį": 1443,
      "ĠáīµáĪŃ": 1444,
      "áĬĵáĮĪáĪŃ": 1445,
      "ĠáĮįáī¥": 1446,
      "ĠáĪħáĮį": 1447,
      "ĠáĪµáīµ": 1448,
      "ĠáīłáĪĨáĬĲ": 1449,
      "áĮłáĭį": 1450,
      "áĪģáĪīáĪĿ": 1451,
      "áī³áī¸áĭįáĬķ": 1452,
      "áī½áĪģáĬķ": 1453,
      "Ġáĭ¨áĪĪáĪĿ": 1454,
      "áĮĨáī½": 1455,
      "Ġáĭ¨áĪµáĪ«": 1456,
      "áĪĿáĮĥ": 1457,
      "Ġáĭ¨áĮ¥": 1458,
      "Ġáī°áĮĪ": 1459,
      "áĮ¡áīµ": 1460,
      "áĪİáī½áĬķ": 1461,
      "ĠáĪª": 1462,
      "áĪħáĬĵ": 1463,
      "Ġáĭ¨áĪĮ": 1464,
      "áĭ°áĬĽ": 1465,
      "áĪĺáĬĵ": 1466,
      "áĪ°áī¡": 1467,
      "áĪŃáĪ±": 1468,
      "áĭŃáĪį": 1469,
      "áįĨ": 1470,
      "áĭŃáĪĨ": 1471,
      "áī°áĬŀáī½": 1472,
      "ĠáĬłáĪŃ": 1473,
      "ĠáĬ¥áĮħáĮį": 1474,
      "áĭŃáĪĨáĭĭ": 1475,
      "ĠáĬ¥áĬķáĮį": 1476,
      "áĬĹ": 1477,
      "áĬ¨áī¥": 1478,
      "Ġáĭ¨áī°áĬĲáĪ³": 1479,
      "ĠáĮįáĬķáĬĻ": 1480,
      "áĮįáĮł": 1481,
      "áĬķáįĪ": 1482,
      "ĠáĬłáĪĪáīłáīµ": 1483,
      "áĬĵáĬķáī°": 1484,
      "áīµáĭ®": 1485,
      "áĪĽáĬĿ": 1486,
      "áĪ°áīł": 1487,
      "áĪĭáįĬ": 1488,
      "áĬ«áĪį": 1489,
      "ĠáĬłáĭĭ": 1490,
      "ĠáĪ®": 1491,
      "ĠáĬ¥áĪ±áĪĿ": 1492,
      "áīħáĭµ": 1493,
      "ĠáĪµáĪĪáĪļ": 1494,
      "áīĨáĮ£": 1495,
      "áĪ³áĬĶ": 1496,
      "áī½áĭį": 1497,
      "ĠáĪĽáĮįáĬĺáīµ": 1498,
      "áĬ¨áĪį": 1499,
      "ĠáĪĺáĪĺáĪªáĭ«": 1500,
      "áī¥áĬķ": 1501,
      "ĠáĮĪáĬķáĭĺáī¥": 1502,
      "áĪĬáĭ": 1503,
      "áĪŀáĬŃ": 1504,
      "ĠáĬ¥áĬķáĭ°áĪļáĭ«": 1505,
      "áĮłáįĭ": 1506,
      "ĠáĬĸ": 1507,
      "áĪįáįį": 1508,
      "ĠáĬłáĮĪáĪįáĮĭ": 1509,
      "Ġáĭ¨áĪĨáĬĲáĭį": 1510,
      "Ġáī°áĮł": 1511,
      "Ġáĭ¨áĮį": 1512,
      "ĠáĮ¦": 1513,
      "áīµáĭ®áĮµ": 1514,
      "áĭ¨áĭį": 1515,
      "ĠáĮ¥áīħáĪĿ": 1516,
      "ĠáĭĪáĬķáĭ¶áī½": 1517,
      "ĠáĪĽáĪ³": 1518,
      "ĠáįħáĪģ": 1519,
      "ĠáĬłáĮĪ": 1520,
      "áĭĭáĪĪáĪģ": 1521,
      "ĠáĭµáĪĿ": 1522,
      "áīĢáĭµ": 1523,
      "ĠáĪĿáĬŃáĪŃ": 1524,
      "áĬĲáĮĭ": 1525,
      "áĪ©áĬķ": 1526,
      "áĪ³áĪ³áĭŃ": 1527,
      "ĠáĬłáĬķáīĢ": 1528,
      "áĭ«áĭĬ": 1529,
      "áĬķáĮįáĭµ": 1530,
      "Ġáīĭ": 1531,
      "ĠáĬłáĭ«": 1532,
      "ĠáĮĢáĪĿáĪ®": 1533,
      "áĭĪáĪŃ": 1534,
      "ĠáĭįáĪĢ": 1535,
      "áĪ¨áĮ¥": 1536,
      "áī£áĬķáĭ«": 1537,
      "áĮłáĪ©": 1538,
      "ĠáīµáĬ©": 1539,
      "áĪ°áĪ©": 1540,
      "ĠáĪĽáĬķáĬĽáĭįáĪĿ": 1541,
      "áĪµáī¶": 1542,
      "áįİáī½": 1543,
      "áĪŀáīµ": 1544,
      "Ġáīłáī°áĪĪ": 1545,
      "ĠáĭĿáĮį": 1546,
      "ĠáīłáĪĢ": 1547,
      "ĠáĪģáĪīáĬķáĪĿ": 1548,
      "áĬ¨áįį": 1549,
      "áīłáĪįáĮ¥": 1550,
      "Ġáĭ¨áĪĪ": 1551,
      "Ġáī°áĬĵáĮį": 1552,
      "Ġáĭ¨áįį": 1553,
      "ĠáĬ¥áĬķáĭ°áĪĽ": 1554,
      "ĠáĪģáĪį": 1555,
      "áĬŃáī¥": 1556,
      "áĮ¥áĪ®": 1557,
      "ĠáĪĿáĮįáī¥": 1558,
      "áĮłáĭŃ": 1559,
      "áī¸áĭįáĪĿ": 1560,
      "áĪĪáĭĭáĪį": 1561,
      "áĪ«áĪī": 1562,
      "ĠáĪĪáĪĽáĪµ": 1563,
      "Ġáĭįáĭµ": 1564,
      "ĠáĬ¨áī£áĭµ": 1565,
      "ĠáĪ³áĭŃáĪĨáĬķ": 1566,
      "áĭĺáĭį": 1567,
      "áĭ·": 1568,
      "ĠáĭįáĪ³áĬĶ": 1569,
      "ĠáĪĽáĪµáī°": 1570,
      "ĠáĪĢáĭŃáĪį": 1571,
      "ĠáīħáĪŃ": 1572,
      "ĠáĬłáĬ«áĪį": 1573,
      "Ġáĭ¨áĭ°": 1574,
      "ĠáĬ¥áĬķáĭµáīµ": 1575,
      "áĭŃáī³": 1576,
      "áĪ°áĪį": 1577,
      "áĬ¨áĪĭ": 1578,
      "Ġáī£áĪĪáĭį": 1579,
      "áĬĵáīĤ": 1580,
      "ĠáĬ¥áĪŃáĪĿáĮĥ": 1581,
      "Ġáĭ°áĮįáĪŀáĪĿ": 1582,
      "áī¨": 1583,
      "Ġáī´": 1584,
      "áĪŃáĬĲáīµ": 1585,
      "áīłáīĥ": 1586,
      "áĭĺáĮĭáĮĢ": 1587,
      "áĪµáĬķ": 1588,
      "ĠáĬ¥áĬķáĭ°áĮĪáĬĵ": 1589,
      "Ġáī½áĮįáĪŃ": 1590,
      "áĪĿáĭµ": 1591,
      "áĬķáĬ«": 1592,
      "áĪ°áīµ": 1593,
      "Ġáī½áĪİ": 1594,
      "áĬķáĭ²": 1595,
      "ĠáĪĺáĪįáĬ«áĪĿ": 1596,
      "Ġáĭ¨áĪį": 1597,
      "ĠáĬ¥áīĥ": 1598,
      "áĭ«áĪį": 1599,
      "áĪĿáĬķáīµ": 1600,
      "áĬ©áīµ": 1601,
      "áĪģáĬĳ": 1602,
      "ĠáĪ°áĬłáīµ": 1603,
      "áĪ«áĪ«": 1604,
      "Ġáĭ«áĪĭáī¸áĭį": 1605,
      "áĪĬáĭ®": 1606,
      "áĭįáĪį": 1607,
      "ĠáĬ¥áĬĲáĭļáĪħáĬķ": 1608,
      "ĠáĬ¥áĬķáĭ³áĭŃ": 1609,
      "ĠáĭŃáĪħáĬķáĬķ": 1610,
      "ĠáīłáīħáĪŃ": 1611,
      "áĮĪáĬĲ": 1612,
      "ĠáĭŃáĬ¸": 1613,
      "ĠáĭĿáĪŃáĭĿ": 1614,
      "ĠáĬ¨áĪĮ": 1615,
      "áīłáĪ©áīµ": 1616,
      "Ġáĭ¨áĪ°áĭį": 1617,
      "ĠáĪµáĪŃáĬłáīµ": 1618,
      "Ġáĭ¨áĬ¥áĪµáĪ«áĬ¤áĪį": 1619,
      "Ġáĭ¨áī°áĪĪ": 1620,
      "ĠáĬ«áĪį": 1621,
      "áĬķáīĭ": 1622,
      "áīĢáĪ¨": 1623,
      "ĠáĭĻ": 1624,
      "ĠáĪĢáĮ¢": 1625,
      "ĠáĮ³": 1626,
      "ĠáĬłáĪĽáĬ«": 1627,
      "áĪŃáĬŃ": 1628,
      "áī³áĭ°": 1629,
      "ĠáĪĻáĪ´": 1630,
      "áĪ°áĮłáĭį": 1631,
      "áĭįáĪİáĪµ": 1632,
      "ĠáĪĪáĪĿáĬķ": 1633,
      "áīħáĪ¨áī¥": 1634,
      "ĠáĭĪáĭ³": 1635,
      "áĬ¨áī°áĪĽ": 1636,
      "ĠáĪĺáĬķáĮĪ": 1637,
      "áĪ¬áīµ": 1638,
      "ĠáĮįáĬķáĬĻáĬĲáīµ": 1639,
      "áīµáĭ®áĮµáĭ«": 1640,
      "Ġáĭľ": 1641,
      "Ġáī°áī¥": 1642,
      "áĭ¨áĪ©": 1643,
      "ĠáĭŃáĪģáĬķáĬĵ": 1644,
      "ĠáĪĽáĬ¥": 1645,
      "ĠáĪĺáīĢ": 1646,
      "áī¥áĪ¨áīµ": 1647,
      "áĪ«áĪ³": 1648,
      "Ġáĭ¨áĬŃ": 1649,
      "áĪµáĪ«áĬ¤": 1650,
      "Ġáĭ©": 1651,
      "ĠáĬ¥áĪĿáĬĲáīµ": 1652,
      "áĬŃáĪĿáĬĵ": 1653,
      "ĠáīłáĪ¨": 1654,
      "áĪº": 1655,
      "áĬ«áīµ": 1656,
      "áĮłáīĥáĪĭáĭŃ": 1657,
      "áĪµáī³áĭĪ": 1658,
      "áĭ²áĪħ": 1659,
      "áĮłáĪį": 1660,
      "ĠáīµáĬŃáĬŃ": 1661,
      "ĠáĬ¥áĬĲáĪ±áĪĿ": 1662,
      "áĬªáĬĵ": 1663,
      "Ġáĭ¨áī°áī£": 1664,
      "Ġáĭ°áĪµ": 1665,
      "áī°áīµ": 1666,
      "ĠáĬłáĭµáĪŃáĮİ": 1667,
      "ĠáĪĢáĪĭáįĬ": 1668,
      "áī¾": 1669,
      "ĠáĪĺáĮ£": 1670,
      "áĭ«áĭİáī½": 1671,
      "áīłáĪ¨áī³": 1672,
      "ĠáĬłáĬķáīĢáįħ": 1673,
      "Ġáĭ«áĭ°áĪŃáĮĭ": 1674,
      "áĬĵáĪįáī£áīµ": 1675,
      "áĪĺáĪĪáĪµ": 1676,
      "ĠáĬłáĮ¥": 1677,
      "Ġáįİ": 1678,
      "ĠáĪĿáĬĵáĪįáī£áīµ": 1679,
      "áīĥáĪ´": 1680,
      "áī»áĪį": 1681,
      "áīħáĪµáīĥáĪ´": 1682,
      "ĠáīĢáĬĵáīµ": 1683,
      "áĬķáĬĽáĭįáĪĿ": 1684,
      "Ġáĭ¨áĬ¤": 1685,
      "áīĭáĪĿ": 1686,
      "ĠáĬ¥áī£áĬŃ": 1687,
      "ĠáīłáĪļáĭ«": 1688,
      "ĠáĪĺáĭ°": 1689,
      "ĠáĪ°áĪĽ": 1690,
      "ĠáĬłáī¥áĭĽ": 1691,
      "áĮĭáīµ": 1692,
      "áĪģáĪĪ": 1693,
      "áĭ³áĪį": 1694,
      "áĪĭáĭįáĭ«áĬķ": 1695,
      "áĭ°áĪ¨áĮĪáĭį": 1696,
      "Ġáī³áĪĭáīħ": 1697,
      "áĪ»áĪĪ": 1698,
      "ĠáĮįáĪį": 1699,
      "áī½áĪĪáĭį": 1700,
      "áĪĺáīµ": 1701,
      "áĪĭáĪŃ": 1702,
      "ĠáīģáĮ¥áĪŃ": 1703,
      "ĠáĬ¥áĬĲáĪ±": 1704,
      "áīº": 1705,
      "áī½áĪįáĪĿ": 1706,
      "Ġáī°áįĪ": 1707,
      "áĭĪáĪ°áĬĲ": 1708,
      "áĭ£": 1709,
      "ĠáĬŃáĪŃáĪµáī²áĭ«": 1710,
      "ĠáīµáĬ¥áĭĽ": 1711,
      "Ġáī°áįħ": 1712,
      "ĠáĬ©áī£áĬķáĭ«": 1713,
      "Ġáī£áĪį": 1714,
      "ĠáĭŃáĮĪáī£": 1715,
      "ĠáĪµáĪľáīµ": 1716,
      "ĠáĮ¥áĪ¨áīµ": 1717,
      "áĪĻáĪŃ": 1718,
      "áĭ³áĭ°áĪŃ": 1719,
      "ĠáĪħáĭĿáī¡": 1720,
      "áĭĭáĬ¥": 1721,
      "ĠáĪĺáĪįáĬ¥": 1722,
      "Ġáī¢áĪĨáĬķ": 1723,
      "áĭ²áĭ®": 1724,
      "áĮħáĪĿ": 1725,
      "áī³áĭŃ": 1726,
      "ĠáīłáĬ¥áĭį": 1727,
      "ĠáĭŃáĪ°áĮ£": 1728,
      "ĠáĮ¨áĭĭ": 1729,
      "áĪīáĬķ": 1730,
      "ĠáĪįáĬŃ": 1731,
      "Ġáī³áĪªáĬŃ": 1732,
      "áĬŀáī¹": 1733,
      "áĪ³áĪį": 1734,
      "ĠáĬłáĮĪáĪŃ": 1735,
      "áĭ¨áĪ©áĪ³áĪĮ": 1736,
      "ĠáĮ³áĭįáĪİáĪµ": 1737,
      "ĠáĪĺáĭį": 1738,
      "áĪ°áĪŃ": 1739,
      "áĮ¥áĬĲáīµ": 1740,
      "ĠáĪĪáĪĿáĪ³áĪĮ": 1741,
      "áĪµáī±": 1742,
      "ĠáĭŃáīłáĪįáĮ¥": 1743,
      "áī»áī¸áĭįáĬķ": 1744,
      "áĪĺáĭµ": 1745,
      "ĠáĪ¶áĪµáīµ": 1746,
      "áĭ³áĪŃ": 1747,
      "áī¦áīµ": 1748,
      "ĠáĬłáĮį": 1749,
      "ĠáĪħáĭŃáĭĪ": 1750,
      "áĬĳáĬķ": 1751,
      "áĭ«áĭĿ": 1752,
      "áī³áĭİáī½": 1753,
      "ĠáĪĺáī£": 1754,
      "ĠáĮ«": 1755,
      "áĪĽáĪªáĭİáī½": 1756,
      "áī¥áĪ«": 1757,
      "áīłáĭ«": 1758,
      "áīĥáĪļ": 1759,
      "áĮĪáīµ": 1760,
      "ĠáĬ¥áĬķáīħáĪµáīĥáĪ´": 1761,
      "áĭįáīĥ": 1762,
      "áĭĭáĬķ": 1763,
      "ĠáĭĪáĮ£": 1764,
      "áĬĲáĮĪ": 1765,
      "áĪ³áī½": 1766,
      "áī¥áĪ¨": 1767,
      "áĪµáĬĵ": 1768,
      "ĠáĬ¥áĭįáĬĲáīµ": 1769,
      "ĠáīłáĭĪ": 1770,
      "ĠáĬ¨áĭĪ": 1771,
      "ĠáĪŃáĬ¥": 1772,
      "áĭŃáĬĵ": 1773,
      "áĭ³áī³": 1774,
      "ĠáĮłáīĥáĪļ": 1775,
      "áĭĿáī¥": 1776,
      "ĠáĭŃáĪ°áĪĽ": 1777,
      "ĠáĬ¥áĬĶáĪĿ": 1778,
      "áĪ°áĬķ": 1779,
      "áĪĬáĭ®áĬķ": 1780,
      "Ġáī¢áĪĨáĬķáĪĿ": 1781,
      "áĮ§": 1782,
      "áĪĭáī¸áĭįáĬķ": 1783,
      "áīĢáīł": 1784,
      "áī³áĪĽ": 1785,
      "áĪĭáĪ½": 1786,
      "ĠáĮ¥áīĤáīµ": 1787,
      "áĮĪáĭ°": 1788,
      "Ġáĭ¨áĭĺ": 1789,
      "ĠáĬĽ": 1790,
      "ĠáĪµáįįáĪ«": 1791,
      "Ġáī¥áĪĪáĭį": 1792,
      "áįģáĪĿ": 1793,
      "áĪ¨áĭĭáĪį": 1794,
      "Ġáī¡áĭµáĬķ": 1795,
      "áī¶áī¹": 1796,
      "ĠáįįáĪĭáĮİáīµ": 1797,
      "Ġáĭ¨áĬ«": 1798,
      "áĬķáĮĢ": 1799,
      "ĠĠĠ": 1800,
      "ĠáĮłáīħ": 1801,
      "Ġáĭ¨áī°áĪĪáĭ«áĭ©": 1802,
      "Ġáĭ«áĪįáī°": 1803,
      "áīĢáĪĿ": 1804,
      "áĪµáĪ«áĬ¤áĪĭáĭįáĭ«áĬķ": 1805,
      "Ġáĭ¨áĪĨáĬĲáĭįáĬķ": 1806,
      "áĪ³áĬķ": 1807,
      "ĠáīłáĪµáī°": 1808,
      "ĠáīłáĪĺáĪµ": 1809,
      "áĪ°áĮ¡": 1810,
      "áī°áĬķ": 1811,
      "ĠáĪĺáī³": 1812,
      "áĮłáīłáīħ": 1813,
      "ĠáĬ¥áĭ«áĬķáĭ³áĬķáĭ±": 1814,
      "áĭ°áĪŃáĪµ": 1815,
      "ĠáĬłáĪĭáĪĽ": 1816,
      "ĠáĪ°áĭİáī½áĬķ": 1817,
      "ĠáĬ¥áĪŃáĪµ": 1818,
      "ĠáīłáĪŃáĬ«áī³": 1819,
      "áĮłáĪ¨": 1820,
      "áĭ°áĮį": 1821,
      "ĠáĬ¥áĪ·": 1822,
      "ĠáĪµáī¥áĪ°áī£": 1823,
      "Ġáĭ¨áĪĺáįħáĪĢáįį": 1824,
      "áĮ«áĭĪ": 1825,
      "ĠáĪĺáīħ": 1826,
      "ĠáĭŃáĬĸ": 1827,
      "ĠáīłáĬŃ": 1828,
      "Ġáī¥áĪıáĪį": 1829,
      "áįĪáįĢáĪĿ": 1830,
      "ĠáĮ¤": 1831,
      "áĬ«áī£áī¢": 1832,
      "Ġáī£áĪĪáĪµáĪį": 1833,
      "ĠáĭĺáĪŃ": 1834,
      "Ġáī½áĮį": 1835,
      "áĮĪáĭĽ": 1836,
      "áĭĪáĭµ": 1837,
      "áĪĢáĬķ": 1838,
      "Ġáĭ¨áĬķáĮįáĭµ": 1839,
      "áīŃ": 1840,
      "Ġáĭ¶áĪĭáĪŃ": 1841,
      "áī¦áī½áĬķ": 1842,
      "Ġáĭ¨áįĪ": 1843,
      "áĭŃáĪģáĭ³": 1844,
      "áĪ®áĬķ": 1845,
      "ĠáīµáĬŃáĬŃáĪĪáĬĽ": 1846,
      "ĠáīłáĪĺáĮ¨áĪ¨áĪ»": 1847,
      "áĬ¡": 1848,
      "áĪĽáĪį": 1849,
      "Ġáī°áĬĲ": 1850,
      "ĠáĬ¥áĬĲáĪĨ": 1851,
      "áĬ¨áĬĵáĭĪ": 1852,
      "ĠáĬłáĪµáĭ°áĪ³áī½": 1853,
      "ĠáīĢáĭ°áĪĿ": 1854,
      "áĪ«áĬķ": 1855,
      "áĪ¨áĭ±": 1856,
      "áīłáīħ": 1857,
      "áī½áĪĭáĪĪáĬķ": 1858,
      "ĠáĬ¥áĬķáī½áĪĭáĪĪáĬķ": 1859,
      "áĭ°áĬķ": 1860,
      "Ġáĭ¨áĪļáĪį": 1861,
      "áĪ°áĭµ": 1862,
      "ĠáĮ¥áīħ": 1863,
      "ĠáĭŃáĬĸáĪŃ": 1864,
      "ĠáĬłáĪµáĭ°áĬĵáīĤ": 1865,
      "ĠáĪĨáĬĲáĭį": 1866,
      "ĠáĬ¢áĬķ": 1867,
      "ĠáĭįáĮŃ": 1868,
      "ĠáĮĨ": 1869,
      "ĠáĪĿáĭµ": 1870,
      "Ġáīłáī£": 1871,
      "áĪĭáĪĪáĪĿ": 1872,
      "ĠáĪ°áĪŃ": 1873,
      "áī£áĭŃ": 1874,
      "ĠáĭµáĪĿáįħ": 1875,
      "ĠáĪĺáĮĢáĪĺáĪªáĭ«": 1876,
      "ĠáĪĺáĬķáįĪáĪµ": 1877,
      "ĠáĭĪáĮ¥": 1878,
      "áĪĺáĪįáĬ¨áīµ": 1879,
      "áĮ£áĪį": 1880,
      "ĠáĮĪáĪį": 1881,
      "áĪģáĪĪáīµ": 1882,
      "Ġáīµáī½áĪĭ": 1883,
      "Ġáī³áĪĽáĬĿ": 1884,
      "áĮłáīĢáĪĻ": 1885,
      "ĠáĪĿáĪŃáĮ¥": 1886,
      "áī´áĬķ": 1887,
      "Ġáī°áĪĺáĪ³áĪ³áĭŃ": 1888,
      "ĠáĬłáįį": 1889,
      "áĬ¥áĬĸ": 1890,
      "ĠáįĪáįħ": 1891,
      "áĭ¨áĪ©áĪ³áĪĮáĪĿ": 1892,
      "áī»áĪĪáĪģ": 1893,
      "ĠáĮĪáĭ°": 1894,
      "ĠáĮįáĪįáįħ": 1895,
      "ĠáĬłáĪįáī°": 1896,
      "Ġáĭ¨áĪĻ": 1897,
      "ĠáīłáĮİ": 1898,
      "áĭĺáĬķ": 1899,
      "ĠáįķáĪ®áĮįáĪ«": 1900,
      "ĠáĮ¨áĪĿáĪ®": 1901,
      "áĪĦáĭ±": 1902,
      "ĠáĮīáī£áĬ¤": 1903,
      "áĬªáĭ«": 1904,
      "áĬķáĮįáĪµáīµ": 1905,
      "ĠáīĭáĬķáīĭ": 1906,
      "ĠáīĢáĮ¥": 1907,
      "ĠáĪĺáĮ¥áįİ": 1908,
      "ĠáĪ´áī¶áī½": 1909,
      "ĠáĪĺáĮįáĪĪ": 1910,
      "ĠáĪĿáĪŃáĮ«": 1911,
      "ĠáĭĪáĪµ": 1912,
      "Ġáī°áįħáĬ¥áĬĸ": 1913,
      "áĪįáĪµ": 1914,
      "Ġáĭ«áĪīáīµ": 1915,
      "Ġáī¥áĭ¬": 1916,
      "ĠáĭĪáĪĭ": 1917,
      "áĪİáĮĤ": 1918,
      "ĠáĪĺáĪµáĭĭáĬ¥": 1919,
      "Ġáī°áĭĪ": 1920,
      "ĠáīłáĪĮáĪĭ": 1921,
      "ĠáĪµáĪĪáĪĨáĬĲ": 1922,
      "áī¥áĭĻ": 1923,
      "ĠáĬŃáįī": 1924,
      "ĠáĪ°áĪĭáĪĿ": 1925,
      "ĠáĪ«áĪ³": 1926,
      "ĠáĬłáĪµáī°áĭ«": 1927,
      "ĠáĭŃáĬ¸áĭįáĪĿ": 1928,
      "ĠáĪĪáĭĺ": 1929,
      "ĠáĬ¥áĬķáĭµáĬķ": 1930,
      "áĪĽáĪĽ": 1931,
      "ĠáĬłáĪĺáĪĪ": 1932,
      "áĪ¨áĭµ": 1933,
      "áĪĭáī½áĬķ": 1934,
      "áĪĪáĪį": 1935,
      "ĠáĭĪáĭŃ": 1936,
      "ĠáĬłáĭ°áĮĭ": 1937,
      "ĠáĪĪáĭļáĪħ": 1938,
      "Ġáī³áĭ²áĭ«": 1939,
      "áĭİáī³áĪį": 1940,
      "ĠáĪĺáī¥áīµ": 1941,
      "Ġáīª": 1942,
      "ĠáīłáīµáĬŃ": 1943,
      "Ġáī¤áī±": 1944,
      "ĠáįĪáīĥáĭµ": 1945,
      "áįīáīµ": 1946,
      "áĮĭáįį": 1947,
      "ĠáīłáĪĿáĭµáĪŃ": 1948,
      "ĠáĬłáĮįáĬĿ": 1949,
      "áīµáĪŃ": 1950,
      "áī»áī½áĪģ": 1951,
      "áĪŃáī£": 1952,
      "ĠáīłáĬłáĪĪáĪĿ": 1953,
      "Ġáīłáī°áĪĺáĪĪáĬ¨áī°": 1954,
      "Ġáĭ³áĭĬáīµ": 1955,
      "ĠáĭŃáĪĺáĪµáĪĭáĪį": 1956,
      "Ġáĭ¨áĪŀ": 1957,
      "ĠáĪĪáĪĿáĬķáĭµáĬķ": 1958,
      "áĭĿáĬĵ": 1959,
      "Ġáī¤áī¶áī½": 1960,
      "Âł": 1961,
      "áī½áĬĭáĪį": 1962,
      "ĠáīłáĪĺáĮĢáĪĺáĪªáĭ«": 1963,
      "áĬĲáīłáĪŃ": 1964,
      "ĠáĪĪáĪĺáĪµ": 1965,
      "áĬķáĮī": 1966,
      "áĬĿáĪĿ": 1967,
      "ĠáĬ¢áĭ®": 1968,
      "ĠáĬĲáĮĪáĪ®áī½áĬķ": 1969,
      "ĠáĬłáī£áĪĭáīµ": 1970,
      "áī³áī½áĪģ": 1971,
      "Ġáĭ¨áĬ®": 1972,
      "áĪĭáīĢ": 1973,
      "áĪļáĭİáī½": 1974,
      "ĠáĪĽáĬķáĪĿ": 1975,
      "ĠáĪĪáĭįáĮ¥": 1976,
      "ĠáĭĻáĪªáĭ«": 1977,
      "ĠáĪĺáī°": 1978,
      "áĮłáĬķ": 1979,
      "áĪįáĬŃáīµ": 1980,
      "ĠáĬłáĪĪáĪĺ": 1981,
      "áī³áĭĪ": 1982,
      "ĠáīłáĮįáĪį": 1983,
      "ĠáįĸáĪĬ": 1984,
      "ĠáĪĢáī¥": 1985,
      "ĠáĪ°áĮ¥": 1986,
      "Ġáī¥áĪĦ": 1987,
      "Ġáį¡": 1988,
      "áįĬáĭ«": 1989,
      "áĪľáĬķ": 1990,
      "ĠáĬłáĪĺáĪĪáĬ«áĬ¨": 1991,
      "áĭ²áĭ«áĭį": 1992,
      "ĠáĬ¥áĪŃáĭ³áī³": 1993,
      "áīĢáĪŃáī¥": 1994,
      "Ġáĭ®áĪĢ": 1995,
      "ĠáīłáĮī": 1996,
      "ĠáĭĪáĪ¨": 1997,
      "ĠáĮ¥áīłáī¥": 1998,
      "Ġáĭ³áĪŃ": 1999,
      "Ġáĭ¨áĪ°áĪ«": 2000,
      "ĠáĬ¥áĬķáĭ³áĪį": 2001,
      "ĠáĬ¥áĭįáĬĲáī°áĬĽ": 2002,
      "Ġáīłáĭµ": 2003,
      "áĬ¥áĪ«": 2004,
      "ĠáįĢáĪĢ": 2005,
      "ĠáĪĪáĪħ": 2006,
      "ĠáĪĿáĪµáĪ«": 2007,
      "ĠáĬ¨áĪĿ": 2008,
      "ĠáĪ±": 2009,
      "Ġáĭ¨áĪļáĬ¨áī°": 2010,
      "áĭ¢": 2011,
      "áĬĸáĪ¨áĭį": 2012,
      "Ġáīłáī³áī½": 2013,
      "ĠáĬłáĭĭáĮħ": 2014,
      "Ġáī°áī¥áĪİ": 2015,
      "áĮīáĪĿ": 2016,
      "áĪĻáĬķ": 2017,
      "Ġáĭ¨áī¤áīµ": 2018,
      "Ġáī½áĪİáī³": 2019,
      "ĠáįįáĪŃáĭµ": 2020,
      "áīĢáĭ°": 2021,
      "áĮĭáĪª": 2022,
      "Ġáīłáīł": 2023,
      "ĠáĭµáĬķáĮĭ": 2024,
      "áĪħáĪŃ": 2025,
      "áįı": 2026,
      "áĬķáĬŃ": 2027,
      "áī¿": 2028,
      "ĠáĬŃáĪŃáĪµáī¶áĪµ": 2029,
      "ĠáĭŃáīħáĪŃ": 2030,
      "áīłáī³áĪį": 2031,
      "áĪµáī°áĪŃ": 2032,
      "ĠáĪ©": 2033,
      "áīłáĬĽ": 2034,
      "áįĸáĪŃáīµ": 2035,
      "ĠáīłáĪ½": 2036,
      "ĠáĪĪáĪĮ": 2037,
      "ĠáĬ¥áĭµáĪľ": 2038,
      "ĠáĭµáĪŃáĮħáīµ": 2039,
      "ĠáĪģáĪįáĮĬáĭľ": 2040,
      "áĪįáīģ": 2041,
      "Ġáĭ¨áĭļáĪħ": 2042,
      "ĠáĭŃáĭĺ": 2043,
      "áĬ¨áī£": 2044,
      "áĬĽáĭįáĬķáĪĿ": 2045,
      "Ġáĭ¨áī°áįĪ": 2046,
      "áĭµáĪŀ": 2047,
      "ĠáĪ°áĭŃ": 2048,
      "áĪªáī±": 2049,
      "Ġáĭ¨áĪĺáĮ¨áĪ¨áĪ»": 2050,
      "áĬ¨áįĭ": 2051,
      "ĠáĬ¨áĪ°": 2052,
      "áĪĿáĪ©": 2053,
      "ĠáĬłáī³": 2054,
      "áĭµáīħ": 2055,
      "ĠáĪĽáĭ¨áīµ": 2056,
      "áįĪáĪĪáĮī": 2057,
      "áĬĲáĪµ": 2058,
      "ĠáĭĺáĪĺ": 2059,
      "áĬ®áī½": 2060,
      "áįĶ": 2061,
      "áĮ®áī½": 2062,
      "áĬķáĬ«áĪ«": 2063,
      "ĠáĪµáĪŃáĬł": 2064,
      "áĪĽáĭĬ": 2065,
      "ĠáĬ¥áĬķáĭ²áĪĨáĬķ": 2066,
      "ĠáĬ¥áĬĲáĭļáĭ«": 2067,
      "ĠáīµáĬ©áĪ¨áīµ": 2068,
      "ĠáĪº": 2069,
      "áĭĪáĭ°": 2070,
      "Ġáī£áĪĪáĪĻ": 2071,
      "ĠáĭĪáĬķáĭµáĪŀáī½": 2072,
      "Ġáī°áĬĵáĮįáĪ¯áĪį": 2073,
      "ĠáĭĿáĪŃáĭĿáĪŃ": 2074,
      "ĠáĬłáīł": 2075,
      "áĪĬáĭ«": 2076,
      "ĠáīłáīĢáĪĭáĪī": 2077,
      "áĪĽáĮį": 2078,
      "Ġáīłáĭ«áĪħáĭĮ": 2079,
      "ĠáĪ»": 2080,
      "Ġáī°áĭ°": 2081,
      "ĠáĪļáĬĴ": 2082,
      "ĠáĪĺáĪįáĪµ": 2083,
      "áĪħáĬķáĬĲáīµ": 2084,
      "ĠáĪĺáįĥ": 2085,
      "áĪĽáĬĸ": 2086,
      "áīĨáĪĿ": 2087,
      "ĠáĬłáĪįáĬĲáīłáĪ¨": 2088,
      "Ġáī¦áī³áĭİáī½": 2089,
      "ĠáĬłáīĢáįį": 2090,
      "áī«": 2091,
      "ĠáĬ¥áĪŃáĪµáĭİ": 2092,
      "ĠáīłáĪ«": 2093,
      "áĭ°áĪŃáĮĪ": 2094,
      "ĠáĮīáĭŀ": 2095,
      "ĠáĭŃáĮĪ": 2096,
      "áĪĪáī²": 2097,
      "áĪĺáĪ°áĪ¨": 2098,
      "áī£áĪŃ": 2099,
      "Ġáĭ¨áĬ¥áĬĶ": 2100,
      "áĪģáīµ": 2101,
      "áĪİáīµ": 2102,
      "ĠáĭŃáīĢ": 2103,
      "ĠáĭŃáįĪáĪįáĮĭ": 2104,
      "Ġáĭ°áĪµáī³": 2105,
      "áĭ°áĪŃáĮĪáĭį": 2106,
      "áĪ©áĪĿ": 2107,
      "Ġáĭ«áĪħáĭĮáĬķ": 2108,
      "ĠáĬ¥áĪ±áĬķ": 2109,
      "ĠáĮīáĭ³áĭ®áī½": 2110,
      "áĬĵáĬķ": 2111,
      "áĪ³áī°": 2112,
      "ĠáĬ¥áĪŃáĮįáĮł": 2113,
      "áĪ¨áĮĭáĮį": 2114,
      "ĠáĬŃáĪŃáĪµáī²áĭ«áĬĸáī½": 2115,
      "ĠáīłáĬłáĪģáĬĳ": 2116,
      "áĪ¬áĭį": 2117,
      "ĠáĪĺáĮ¨áĪ¨áĪ»": 2118,
      "ĠáĭĿáĮįáĮħ": 2119,
      "áĮłáĭ¨": 2120,
      "ĠáĪĺáĭĽ": 2121,
      "ĠáĪĽáĪµáī³áĭĪ": 2122,
      "ĠáĭŃáĪĺáĪį": 2123,
      "áĪĭáĬķ": 2124,
      "ĠáĭµáĮĭáįį": 2125,
      "ĠáĪµáĮĭ": 2126,
      "ĠáĭµáĪŃáĮĬ": 2127,
      "ĠáĬłáĭİ": 2128,
      "ĠáĪĿáĪĭáĪ½": 2129,
      "ĠáīłáīµáĬŃáĬŃáĪį": 2130,
      "ĠáīłáĪ°áĪĽ": 2131,
      "ĠáĬ¥áĬķáĪµ": 2132,
      "áĬĵáĮĪáĪ¨áĭį": 2133,
      "ĠáĪĺáĪª": 2134,
      "Ġáĭĺáĭ´": 2135,
      "ĠáĬłáĪĿáĪĭ": 2136,
      "ĠáĪĺáĬķáįĪáĪ³áĭĬ": 2137,
      "áĬ¨áĪ°": 2138,
      "áĪĪáĭįáĪĿ": 2139,
      "ĠáĪĺáĪĭ": 2140,
      "áĬĵáĭį": 2141,
      "áĬĵáī¸áĭį": 2142,
      "áĬ¥áīĨ": 2143,
      "áĪĪáĪĽ": 2144,
      "ĠáĬĲáĮ¥": 2145,
      "Ġáĭ¨áī°áĪ»áĪĪ": 2146,
      "áĬķáĭĿ": 2147,
      "Ġáĭ«áĭµáĪŃ": 2148,
      "ĠáĭŃáĪ¨áĭ³": 2149,
      "áīłáĪĭ": 2150,
      "áĮĪáĪĪáĮį": 2151,
      "ĠáĪĪáĪĺáīĢ": 2152,
      "ĠáīłáĪħáĭŃáĭĪáīµ": 2153,
      "ĠáĪĺáĪĿ": 2154,
      "ĠáĭŃáįĪ": 2155,
      "áĭ«áĬķáĭ³áĬķáĭ±": 2156,
      "áĪĺáĪĪáĬ¨áīµ": 2157,
      "ĠáĮĪáī¥": 2158,
      "ĠáĭĪáī³áĭ°": 2159,
      "ĠáĪĪáĪĽáĭ¨áīµ": 2160,
      "áĪĻáīµ": 2161,
      "áįģáĪħ": 2162,
      "ĠáĬłáĪĽáĬ«áĬĿáĬĲáīµ": 2163,
      "áĪĢáĪĿ": 2164,
      "ĠáĪĽáĪŃ": 2165,
      "Ġáī¶": 2166,
      "Ġáĭ¨áī¤áī°": 2167,
      "áīłáĪ«áĭĬ": 2168,
      "Ġáĭ¨áĪļáīĨ": 2169,
      "Ġáĭ«áĭ°áĪŃáĮĭáĪį": 2170,
      "Ġáĭ¨áī¥": 2171,
      "áĭ«áĭ«áĭĺ": 2172,
      "áĪ¨áĮĭáĮĪáĮ¥": 2173,
      "áīħáĬĵ": 2174,
      "áĮĪáĪ¨": 2175,
      "ĠáĪµáĮ¦": 2176,
      "Ġáĭ«áĪīáīµáĬķ": 2177,
      "ĠáĭŃáĮĪáī£áĪį": 2178,
      "ĠáĬ¬": 2179,
      "Ġáī»": 2180,
      "áĭ«áīµ": 2181,
      "áĬ¥áĪĿáĪ®": 2182,
      "Ġáī£áĭŃ": 2183,
      "ĠáĪ³áĪĿáĬķáīµ": 2184,
      "ĠáĪĿáĪµáĬŃ": 2185,
      "áĪĽáĮįáĪĮ": 2186,
      "ĠáĬŃáĪį": 2187,
      "ĠáĮĵáĭ°áĬĽ": 2188,
      "ĠáĮ¤áĬĵ": 2189,
      "ĠáĪĺáĮįáĪĪáĮ«": 2190,
      "ĠáĬ¥áĭļáĭ«": 2191,
      "ĠáĪĺáĪ°áĪ¨": 2192,
      "Ġáĭ¨áĮİ": 2193,
      "áĪµáī³áīµ": 2194,
      "áĬ¨áĪĪ": 2195,
      "áĭ¬áĬķ": 2196,
      "áĪ«áĮŃ": 2197,
      "ĠáįķáĪ¬": 2198,
      "Ġáīłáĭĺ": 2199,
      "Ġáī²": 2200,
      "ĠáīłáĬłáĪĿáĪĭáĬŃ": 2201,
      "áĬ¨áĭį": 2202,
      "ĠáĬ¨áĮ¥": 2203,
      "áĪ¨áĭ³áīµ": 2204,
      "ĠáīłáĬ¤": 2205,
      "ĠáĪĺáĪĨáĬĵ": 2206,
      "ĠáĬłáĪĪáī£áī¸áĭį": 2207,
      "Ġáĭ¨áĪĿáī³": 2208,
      "áĪĪáįį": 2209,
      "ĠáĪµáĬķ": 2210,
      "áįĪáĪ«": 2211,
      "ĠáĬłáĮł": 2212,
      "Ġáī°áĭĭ": 2213,
      "áĬĵáĪī": 2214,
      "áĮ¥áī³": 2215,
      "ĠáīģáĮ¥": 2216,
      "áįįáĮłáĪŃ": 2217,
      "áīħáĬķ": 2218,
      "ĠáĭŃáĮł": 2219,
      "ĠáīĢáĪŃ": 2220,
      "ĠáĬ¥áĪµáĬ«": 2221,
      "ĠáĬ¥áĪµáĪ«áĬ¤áĪĭáĭįáĭ«áĬķ": 2222,
      "áĪĺáĭ°": 2223,
      "Ġáī£áĪªáĭ«": 2224,
      "ĠáĪĽáĭĪáīħ": 2225,
      "áĮ¦áĪŃ": 2226,
      "Ġáĭ°áĬķáīł": 2227,
      "ĠáĮĪáĬĵ": 2228,
      "ĠáĪģáĬĶáī³áĭİáī½": 2229,
      "áī³áĬķ": 2230,
      "áĪ°áī¦áī½": 2231,
      "ĠáĭĪáĮª": 2232,
      "ĠáĪµáĪįáĮ£áĬķ": 2233,
      "ĠáĬ¨áĪį": 2234,
      "áĮĪáĪĿ": 2235,
      "ĠáĮīáĭ³áīµ": 2236,
      "ĠáĬłáīħáĪŃ": 2237,
      "ĠáĪĺáī¶": 2238,
      "áī³áī½áĬķáĬķ": 2239,
      "ĠáīłáĪĽáĭµáĪ¨áĮį": 2240,
      "ĠáĪĢáĮ¢áĬłáīµ": 2241,
      "áĮĭáĮ¥": 2242,
      "áĪİáĬķ": 2243,
      "ĠáĬ¥áĭµáĪį": 2244,
      "ĠáĪī": 2245,
      "Ġáĭ¨áĪļáĮł": 2246,
      "Ġáī¤áī°áĪ°áī¥": 2247,
      "ĠáįħáĪģáįį": 2248,
      "ĠáĭŃáĪ°áĮ£áĪį": 2249,
      "ĠáĮłáĬķáĬ«áĪ«": 2250,
      "ĠáīłáĪĺáī¶": 2251,
      "ĠáĬ«áĪĪ": 2252,
      "Ġáĭ¨áĪļáĮĪáĬĻ": 2253,
      "áĬĵáĮĪáĪ¨": 2254,
      "Ġáī°áīĥ": 2255,
      "ĠáīµáĬ¥áĭĽáĭĿ": 2256,
      "áĪŃáĬķ": 2257,
      "ĠáĬ¥áĪħ": 2258,
      "Ġáīłáĭ³": 2259,
      "áĭµáĪĢ": 2260,
      "Ġáĭ¨áīĨ": 2261,
      "ĠáĪĽáĬķáĬĽáĭįáĬķáĪĿ": 2262,
      "ĠáĬ¨áĬĲ": 2263,
      "Ġáĭ¨áįĢ": 2264,
      "áĪĺáĮ¡": 2265,
      "Ġáī´áĬŃ": 2266,
      "Ġáĭ¨áįĸ": 2267,
      "ĠáīłáĮĪ": 2268,
      "áĪĺáĪĿ": 2269,
      "Ġáī¡áĭµ": 2270,
      "áĭĪáĮ¡": 2271,
      "Ġáĭ¨áĬ¥áĬĽ": 2272,
      "áĮĪáĬĽáĪī": 2273,
      "Ġáĭ¨áĪ«": 2274,
      "áĬ¨áī°áĪį": 2275,
      "áĬ¨áī³áī°": 2276,
      "áĪĽáĬķ": 2277,
      "áĬ¨áĪ¨": 2278,
      "áĪĿáįĴ": 2279,
      "áĪªáĭį": 2280,
      "ĠáįįáĪ¬": 2281,
      "áīĤáīĥ": 2282,
      "ĠáĬ¨áĬ¥áĪ±": 2283,
      "áīģáĪĿ": 2284,
      "ĠáĮ£áī¢áĭ«": 2285,
      "áįĪáĪĪáĮį": 2286,
      "áĮ©": 2287,
      "ĠáĬłáĭ°áĪŃáĮĭ": 2288,
      "áĬŀáī½áĬķ": 2289,
      "ĠáįĴ": 2290,
      "ĠáĬ¥áĬķáĭ°áĪĿ": 2291,
      "Ġáĭ¨áĪĿáĬĵ": 2292,
      "ĠáĪĪáĪĽáĪ³": 2293,
      "áĮįáī£áĪŃ": 2294,
      "ĠáĪĺáĪµáĭĭáĬ¥áīµ": 2295,
      "ĠáĬłáĪĺáĪĪáĬ«áĬ¨áīµ": 2296,
      "ĠáĪĺáĬ¨áĪ«": 2297,
      "áĭ°áĮĪ": 2298,
      "Ġáī¥áīµ": 2299,
      "ĠáįĪáįħáĪŀ": 2300,
      "áįĲ": 2301,
      "áī°áĬĵ": 2302,
      "ĠáĪĿáĬķáĭµáĬķ": 2303,
      "ĠáĮĵáĭ°": 2304,
      "ĠáīłáīħáĪŃáī¡": 2305,
      "áĪ´áīµ": 2306,
      "áĭ«áĬķáĪµ": 2307,
      "áīģáīµ": 2308,
      "áĪŃáĪĿ": 2309,
      "áī¡áī¥": 2310,
      "áĭ«áĪĪáĪģ": 2311,
      "áĮ¨áīµ": 2312,
      "ĠáĬ¥áĪµáĬª": 2313,
      "ĠáĬłáĬŃ": 2314,
      "áĮ¥áįį": 2315,
      "Ġáī¥áĪį": 2316,
      "ĠáĪ¨áĮĪáĭµ": 2317,
      "Ġáĭ¨áĮįáĪį": 2318,
      "áĮ¤áĬĵ": 2319,
      "áĪĪáī²áĬ«": 2320,
      "ĠáĬŃáī¥áĪŃ": 2321,
      "áī¤áī±": 2322,
      "áĬ¥áīĨáī¥": 2323,
      "ĠáĪĪáĪĺáĮį": 2324,
      "Ġáĭ¨áĬĲáīłáĪ¨áĭį": 2325,
      "áĪµáī²": 2326,
      "áĪ³áī¥": 2327,
      "áĪĿáĪħáĪŃ": 2328,
      "Ġáĭ¨áĭ«": 2329,
      "ĠáĪĽáī´": 2330,
      "áĪĭáĬķáĭµ": 2331,
      "áĪµáĪŃ": 2332,
      "ĠáĬŃáįįáĪİáī½": 2333,
      "ĠáĪµáĪħ": 2334,
      "áĬ®áĬĸ": 2335,
      "ĠáīłáīĤ": 2336,
      "áĬķáĭĽ": 2337,
      "áīĥáĪĪáĪģ": 2338,
      "ĠáĪįáĪĿáĭµ": 2339,
      "áī£áī¸áĭįáĬķ": 2340,
      "Ġáĭ«áĭį": 2341,
      "áĪ¨áīł": 2342,
      "ĠáĪĺáĪµáĮłáīµ": 2343,
      "ĠáĬŃáįįáĭ«": 2344,
      "Ġáĭ´": 2345,
      "áĪ«áĪ²": 2346,
      "áīĨáī½": 2347,
      "Ġáįİáī¶": 2348,
      "Ġáī°áĪĪ": 2349,
      "áĮ¥áĪ¨áīµ": 2350,
      "áįĪáĪįáĮĪ": 2351,
      "ĠáĬĲáįį": 2352,
      "ĠáĪĺáĪįáĬ¥áĬŃáīµ": 2353,
      "Ġáī£áĪĪáĪµáĪįáĮ£": 2354,
      "áĪĪáĭ°": 2355,
      "Ġáī°áĮĪáī¢": 2356,
      "ĠáĬ¥áĪµáĪ«áĬ¤áĪį": 2357,
      "áĪµáīµáĬĵ": 2358,
      "áĬķáī£": 2359,
      "Ġáĭ¨áĬłáĪĪáĪĿ": 2360,
      "áĭİáī¹áĬķ": 2361,
      "áĪĽáī¸áĭį": 2362,
      "Ġáĭ«áĭµáĪŃáĮī": 2363,
      "áī¡áīµ": 2364,
      "ĠáĭĪáĭ²áĭ«áĭį": 2365,
      "Ġáĭİ": 2366,
      "áĬĵáĭĬ": 2367,
      "Ġáĭ¨áĬłáĪĿáĪĭáĬŃáĬķ": 2368,
      "Ġáĭ¨áĪļáĭ«áĪ³": 2369,
      "áĭĺáĮĭáĮħ": 2370,
      "Ġáĭ«áĪµáī°": 2371,
      "áĭĪáĮ¥": 2372,
      "ĠáĬ¨áī°áĪŀáī½": 2373,
      "ĠáĬłáįĪ": 2374,
      "áĪŀáĬķ": 2375,
      "ĠáįįáįģáĪĿ": 2376,
      "ĠáĮ´": 2377,
      "áĪ´áįį": 2378,
      "ĠáĪįáĮģ": 2379,
      "ĠáĪµáĪĪáī°": 2380,
      "áĪ°áĪ¨": 2381,
      "ĠáĮ¥áĭ«áīĦáĭİáī½": 2382,
      "áĭī": 2383,
      "áĭ°áĪ¨áĪ°": 2384,
      "ĠáĪ½áĪĽáĮįáĪĮ": 2385,
      "ĠáĮįáĪĪ": 2386,
      "áī´áīµ": 2387,
      "Ġáī£áĪĪáįĪáĭį": 2388,
      "áĭĿáī¡": 2389,
      "ĠáĭĿáīħ": 2390,
      "áĪīáīµáĬķ": 2391,
      "Ġáĭ¨áĪļáī½áĪį": 2392,
      "Ġáĭ°áīĤáīĥ": 2393,
      "ĠáĬ¥áĬķáĭ°áĪĽáĭŃ": 2394,
      "áĪĬáīµ": 2395,
      "áĮįáī¥áįħ": 2396,
      "ĠáĪ«áĪµ": 2397,
      "ĠáĮ¦áĪŃáĬĲáīµ": 2398,
      "Ġáĭ¨áĮī": 2399,
      "áįĢáĭį": 2400,
      "áĬĲáī¶áī½": 2401,
      "Ġáĭ°áī¥": 2402,
      "ĠáĬ®áĪļ": 2403,
      "ĠáĪĪáĭĺáĪĭáĪĪáĪĿ": 2404,
      "ĠáĬ¥áĪŃáĮįáĮłáĬĽ": 2405,
      "ĠáĬ¥áīħáĭµ": 2406,
      "Ġáī°áĬ¨áī³": 2407,
      "ĠáīłáĬ¥áĪ±": 2408,
      "ĠáĪĺáĮĭ": 2409,
      "áĮ¥áĪ¨": 2410,
      "áĬłáĪį": 2411,
      "áī¾áī½": 2412,
      "ĠáĮįáĪ«": 2413,
      "ĠáĬ¥áĪŃáĪ±": 2414,
      "ĠáĭŃáĬĵáĮĪ": 2415,
      "ĠáĬ¥áĬĵáĪĿ": 2416,
      "áĮĢáīµ": 2417,
      "ĠáĪļáĪĬáĭ®áĬķ": 2418,
      "ĠáĬĲáĬķ": 2419,
      "áĭµáĪĢáĬĴ": 2420,
      "áĭĭáīµ": 2421,
      "Ġáĭ¨áī°áĪĺáĪ°áĪ¨": 2422,
      "ĠáĬłáĭ°áĪŃáĮĭáĪĪáĪģ": 2423,
      "ĠáĬłáĪĺáĪ°": 2424,
      "Ġáī¢áĭ«áĬķáĪµ": 2425,
      "áĮłáīłáīĢ": 2426,
      "ĠáĬ¨áī³": 2427,
      "áī£áĭĬ": 2428,
      "ĠáĭŃáĪĨáĬķ": 2429,
      "ĠáĬ«áĪħ": 2430,
      "ĠáīµáĪŃáĮīáĪĿ": 2431,
      "áĪįáĬĿ": 2432,
      "áĬĲáĪŃ": 2433,
      "ĠáĪħáĭĿáī¦áī½": 2434,
      "Ġáĭ¨áĭµ": 2435,
      "ĠáĬłáĪµáī³áĭį": 2436,
      "áĪ«áĪ½": 2437,
      "áĬĸáĪªáĭ«": 2438,
      "áī¨áĪŃ": 2439,
      "ĠáĪĿáĪµáĬŃáĪ®áī½": 2440,
      "ĠáĬłáī£áīµ": 2441,
      "ĠáĪĿáĪ½": 2442,
      "áĮĭáĪ«": 2443,
      "ĠáĮĢáĪĺáĪŃ": 2444,
      "ĠáĪĤáĭ°áīµ": 2445,
      "áĪ«áĪŃ": 2446,
      "áī£áĪī": 2447,
      "áįĪáįħ": 2448,
      "ĠáĬ¥áĪ¨": 2449,
      "áīĢáĪµ": 2450,
      "áĮĢáĪĺáĪŃ": 2451,
      "Ġáĭ¨áĭĭ": 2452,
      "ĠáĪĺáĮłáīĢáĪĿ": 2453,
      "áĭ±áīµ": 2454,
      "ĠáĪĦáĭ°": 2455,
      "ĠáĪĺáĬªáĬĵ": 2456,
      "áĪĺáĪ©": 2457,
      "áī¢áīµ": 2458,
      "Ġáĭ¨áĪĺáĪµ": 2459,
      "ĠáīłáįĬ": 2460,
      "Ġáīµáī½áĪĭáĪĪáĪħ": 2461,
      "ĠáīłáĮįáĪįáįħ": 2462,
      "ĠáĪ°áĪ«áī°áĬŀáī½": 2463,
      "áĪıáī¸áĭį": 2464,
      "Ġáī¥áĪĭ": 2465,
      "áĮİáī½": 2466,
      "ĠáĭŃáĪĺáĪįáĬ¨áī±": 2467,
      "ĠáĬłáĪµáī°áĭ«áĭ¨áīµ": 2468,
      "ĠáĬķáī¥áĪ¨áīµ": 2469,
      "Ġáĭ¨áĬĲáīłáĪ©": 2470,
      "áĪĢáĪĪáĪģ": 2471,
      "ĠáĬ¤áĪį": 2472,
      "áĭ²áĪ±": 2473,
      "ĠáĬłáĪĿáĪĭáĬŃáĬķ": 2474,
      "áĭİáĪµ": 2475,
      "áĬŃáī¶": 2476,
      "ĠáīłáĭĽ": 2477,
      "áĭ·áĪį": 2478,
      "áĭŁ": 2479,
      "áĭįáĪµ": 2480,
      "áĪŀáĪĭ": 2481,
      "áĮĭáĪļ": 2482,
      "ĠáīłáĪĿáīµ": 2483,
      "ĠáĭŃáĪĺ": 2484,
      "áĬĲáīµáĬķ": 2485,
      "ĠáĪĪáĪĽáĭĪáīħ": 2486,
      "áīĢáīħ": 2487,
      "Ġáĭ¨áĪļáī½áĪī": 2488,
      "ĠáĭįáĮ¤áīµ": 2489,
      "áĭįáĮ£áīµ": 2490,
      "áī°áĬĵáĪį": 2491,
      "áĮĪáī£áĭį": 2492,
      "ĠáĬŃáĪŃáĪµáī²áĭ«áĬķ": 2493,
      "áĭĭáīĤ": 2494,
      "ĠáĬķáįģáĪħ": 2495,
      "ĠáīłáĪµáĪ«": 2496,
      "Ġáī°áĪĽáĪªáĭİáī½": 2497,
      "ĠáĬłáī£áĪį": 2498,
      "ĠáĪħáįĥ": 2499,
      "áįķáĪ®": 2500,
      "ĠáĬłáĪľáĪªáĬ«": 2501,
      "áĮ£áĭį": 2502,
      "áįħáĬĵ": 2503,
      "Ġáīħáĭ±áĪµáĬķ": 2504,
      "áĬ¦áĬķ": 2505,
      "Ġáī°áĪµáĪĽ": 2506,
      "ĠáĭµáĬķáĬ³": 2507,
      "áĭ¨áĪĿ": 2508,
      "Ġáĭ¨áĬłáĭ¨áĪŃ": 2509,
      "ĠáĬłáĪįáĬĲáīłáĪ¨áĪĿ": 2510,
      "áĪĽáĭįáĭ«áĬķ": 2511,
      "ĠáĪĪáĪµ": 2512,
      "áĬĸáĪİáĮĤ": 2513,
      "áīħáĪŃáī¥": 2514,
      "áĬķáĮĨ": 2515,
      "áĭĪáĮĪáĭµ": 2516,
      "áĭĺáĭĿ": 2517,
      "ĠáĬłáĪ³áĪį": 2518,
      "ĠáĬłáĪ«áīµ": 2519,
      "áĬķáĭ´": 2520,
      "ĠáĭŃáī³": 2521,
      "ĠáĬłáĮĭáĮ£": 2522,
      "ĠáĪµáĮ¦áī³": 2523,
      "Ġáĭ«áĪĿ": 2524,
      "ĠáĪįáīµ": 2525,
      "ĠáĮ¥áĪŃ": 2526,
      "áĬ¨áĪĭáĬ¨": 2527,
      "ĠáĬłáĪīáīµ": 2528,
      "ĠáįķáĪ®áĮĢ": 2529,
      "Ġáįĥ": 2530,
      "áĪ«áī½áĪģ": 2531,
      "ĠáĬłáĪµáī°áĭ³áĭ°áĪŃ": 2532,
      "ĠáĮĦ": 2533,
      "ĠáĬłáĪµáī°áĭĭ": 2534,
      "Ġáĭ¨áĪĪáĭįáĪĿ": 2535,
      "áĪµáīµáĪª": 2536,
      "áĮŃáĪŃ": 2537,
      "ĠáĬ¨áĬ¥áĬĲáĭļáĪħ": 2538,
      "Ġáī£áĪħáĪŃ": 2539,
      "áĪĪáĬĽáĭį": 2540,
      "áįĥáįĢ": 2541,
      "áīĢáĪĺáĮ¥": 2542,
      "áĪĺáĪĪáĬ¨áī±": 2543,
      "ĠáĪĢáĪĭáįĬáĬĲáīµ": 2544,
      "ĠáĬ¨áĪĢ": 2545,
      "ĠáĮ¨áĭĭáī³": 2546,
      "Ġáīłáĭĭ": 2547,
      "áĬŃáī°áĪŃ": 2548,
      "áĬ¬áīµ": 2549,
      "áī½áĬĭáĪĪáĪģ": 2550,
      "ĠáĬłáĪĿáĪµáīµ": 2551,
      "Ġáĭ°áĪµáī°áĬĽ": 2552,
      "ĠáĪĺáĭµáĪ¨": 2553,
      "áĮĪáĪįáĮįáĪİ": 2554,
      "ĠáīģáĪŃ": 2555,
      "ĠáĬłáĬķáī¥": 2556,
      "ĠáĬ¨áĪħ": 2557,
      "áīłáīµáĪĿ": 2558,
      "ĠáĪ°áĪ«áĭĬ": 2559,
      "ĠáĬłáĪĪáĬĿ": 2560,
      "ĠáīłáįįáĮ¥áĬĲáīµ": 2561,
      "ĠáĭĪáĭ°áĪļ": 2562,
      "ĠáĬ¤áĪµ": 2563,
      "Ġáĭ«áĪĭáī¸áĭįáĬķ": 2564,
      "ĠáīłáĬ¥áĬĶ": 2565,
      "áĬĵáĭŃáīµ": 2566,
      "áĮĬáĭ«": 2567,
      "áįĪáīµ": 2568,
      "Ġáĭ°áīĢ": 2569,
      "áīĭáīĭáĪĿ": 2570,
      "áįįáīµáĪĦ": 2571,
      "ĠáĪĺáĬķáĮĪáĭ¶áī½": 2572,
      "ĠáĭĪáĪ«áīµ": 2573,
      "áĮłáĪĭ": 2574,
      "áĪģáĭµ": 2575,
      "ĠáĪĽáĪħáīłáĪ¨": 2576,
      "áĪĺáī±": 2577,
      "Ġáī°áĪ«áĪ«": 2578,
      "áĪ«áĪĪáĪģ": 2579,
      "ĠáīłáĪĺáĬķáįĪ": 2580,
      "áĬķáīħ": 2581,
      "ĠáĬłáĭ°": 2582,
      "ĠáĭĪáĪ°": 2583,
      "ĠáįĮ": 2584,
      "ĠáĪļáĪµáīµ": 2585,
      "áĮĵáĪį": 2586,
      "Ġáī¥áĪĪáĭĭáĪį": 2587,
      "Ġáĭ¨áĭŃáĪĨáĭĭ": 2588,
      "ĠáĬłáĭ°áĪ¨áĮĪ": 2589,
      "ĠáĭŃáī»": 2590,
      "ĠáĪµáī³": 2591,
      "Ġáī°áĪ°": 2592,
      "ĠáīłáĬ¥áĪµáĪ«áĬ¤áĪį": 2593,
      "ĠáĭŃáĪĨáĬĵáĪī": 2594,
      "ĠáĬłáĪ¸": 2595,
      "ĠáĪĿáĬ¥áĪ«": 2596,
      "ĠáīĨáĬķáĮĨ": 2597,
      "áĪ³áī¸áĭį": 2598,
      "Ġáĭ¨áĬłáĪľáĪªáĬ«": 2599,
      "Ġáĭ¨áī°áĪĪáĭ¨": 2600,
      "áīħáĭ±": 2601,
      "áĪĬáĭĿ": 2602,
      "ĠáĬłáĪµáīĢáĭµ": 2603,
      "ĠáĭŃáīł": 2604,
      "ĠáĪĢáĭĭ": 2605,
      "ĠáĬłáĮłáīĥáĪĭáĭŃ": 2606,
      "ĠáĭľáĬĵ": 2607,
      "ĠáĪħáĬŃáĪĿáĬĵ": 2608,
      "áĬ«áĪĦ": 2609,
      "áĪĺáĮ£áĪį": 2610,
      "ĠáĭŃáī»áĪĭáĪį": 2611,
      "áī¥áĭĽ": 2612,
      "ĠáĪĿáĪįáĬŃáīµ": 2613,
      "ĠáĭĪáĭ°áįĬáīµ": 2614,
      "áī¡áĬķ": 2615,
      "áĬĲáĮĭáĮĪáĪŃ": 2616,
      "ĠáĪŃáĬ¥áĪµ": 2617,
      "áĮĪáĪįáĮĪáĪį": 2618,
      "ĠáīłáĬłáĪį": 2619,
      "áĭµáĪµáīµ": 2620,
      "ĠáĪĺáįĥáĪħ": 2621,
      "ĠáĪĪáĭ«áĪħáĭĮ": 2622,
      "Ġáī°áĭĪáĭ³": 2623,
      "áĭ©áīµ": 2624,
      "ĠáīłáĪĽáĬķáĬĽáĭįáĪĿ": 2625,
      "áĬļ": 2626,
      "ĠáĬ¨áĬłáĬķáĭµ": 2627,
      "ĠáĪµáĪĿáĪĿáĬĲáīµ": 2628,
      "áĭįáĪ®": 2629,
      "ĠáĬĲáĭĭ": 2630,
      "áĮ¦áī½": 2631,
      "ĠáĬłáĪĺáĪ°áĮįáĬĵ": 2632,
      "áīĭáĪį": 2633,
      "áī¥áĪħ": 2634,
      "áĪĨáĬĳáīµ": 2635,
      "ĠáĬ¨áĬ¥áĬĶ": 2636,
      "áĬĲáįį": 2637,
      "ĠáĪĪáĪĺáĪµáĪ«áīµ": 2638,
      "Ġáĭ¨áĭ©": 2639,
      "áĮįáĭ³": 2640,
      "áĪŀáī½áĬķ": 2641,
      "Ġáīłáī°áĪĪáĭŃ": 2642,
      "ĠáĪĪáĪĺáĪµáĮłáīµ": 2643,
      "ĠáĭĪáĭ²áĭ«áĭįáĬĳ": 2644,
      "áĬĽáĭįáĬķ": 2645,
      "áįĬáĭİáī½": 2646,
      "Ġáī£áĪī": 2647,
      "Ġáĭ¨áįħ": 2648,
      "ĠáĪĺáī¼": 2649,
      "ĠáĬĴ": 2650,
      "ĠáĮłáī¥": 2651,
      "ĠáĬ¥áĭįáīĢáīµ": 2652,
      "áĪ¶áĪµáīµ": 2653,
      "ĠáĭŃáĪµ": 2654,
      "Ġáĭ«áĬķ": 2655,
      "áĬĲáīłáĪ¨áĭį": 2656,
      "ĠáĪįáī¥áĪµ": 2657,
      "Ġáĭ³áĪŃáī»": 2658,
      "áĪįáĭµ": 2659,
      "áĭ¶áī½áĬķ": 2660,
      "ĠáĬ¥áĪĪáīµ": 2661,
      "ĠáĭŃáĪ°áĪ«": 2662,
      "áĮĲ": 2663,
      "áĬĸáĪµ": 2664,
      "ĠáĬ¨áĪµ": 2665,
      "ĠáĬ¥áīĥáĭİáī½": 2666,
      "áĪŃáĭ³áīµ": 2667,
      "ĠáĬłáĬķáĭ²": 2668,
      "áįĥáĪļ": 2669,
      "áĪ´áĬķ": 2670,
      "ĠáĪĺáīħáĭ°": 2671,
      "ĠáīłáįĪ": 2672,
      "Ġáīłáī°áĭ«áĭ«áĭĺ": 2673,
      "ĠáĬłáĪµáī¸": 2674,
      "Ġáĭ±": 2675,
      "ĠáĪĺáĪµáĪ«áīµ": 2676,
      "áĬĲáĮį": 2677,
      "ĠáĬłáĪįáįİ": 2678,
      "Ġáĭ¨áī°áĭĪáĪ°áĬĲ": 2679,
      "ĠáĪ°áī¥": 2680,
      "áĬķáīĢáĪ³": 2681,
      "ĠáĬłáĪĺáĪ°áĮįáĬĵáĪĪáĪģ": 2682,
      "áĬķáīĥ": 2683,
      "áĪ«áīħ": 2684,
      "áĪŃáĪµáī¶áĪµ": 2685,
      "ĠáĮ¥áĬĵáīµ": 2686,
      "ĠáĬłáĮĪáĪ®áī½": 2687,
      "ĠáĮ¥áĪ«áīµ": 2688,
      "Ġáī¢áĪ®": 2689,
      "áĮłáī£": 2690,
      "áī»áĪĪ": 2691,
      "ĠáīłáĪĺáĬ«áĬ¨": 2692,
      "Ġáĭ¨áĪĿáĮįáī¥": 2693,
      "ĠáĪĺáĪ¬áīµ": 2694,
      "ĠáīłáĪĺáĮłáīĢáĪĿ": 2695,
      "ĠáĭĪáĮ£áīµ": 2696,
      "ĠáĬłáĪĭáĪħ": 2697,
      "áįıáĪį": 2698,
      "áĭ°áĪį": 2699,
      "áĪªáīµ": 2700,
      "áĮĪáĬĻáīµ": 2701,
      "ĠáĬ¥áĭŃáī³": 2702,
      "ĠáĪ°áĪĭ": 2703,
      "ĠáīłáĪģáĪĪ": 2704,
      "áĬĲáĪ°": 2705,
      "ĠáĬ¥áī£áĬŃáĭİáĬķ": 2706,
      "áĬĵáĮĪáĪ©": 2707,
      "ĠáĬ«áĪŃ": 2708,
      "Ġáīłáī°áĪĺ": 2709,
      "ĠáĪĽáĭµáĪ¨": 2710,
      "áīĢáĮ¥áĪĪáĭį": 2711,
      "ĠáĬ¥áĬķáĭ°áĪļáĭ«áĪµ": 2712,
      "Ġáī°áĮįáī£áĪ«áĭĬ": 2713,
      "áĪµáī´": 2714,
      "áĭįáĬĵ": 2715,
      "áĬĸáĪ«áī¸áĭį": 2716,
      "áĭĪáĪ°áĬĳ": 2717,
      "ĠáĬłáĪ°": 2718,
      "áĬĵáĭŃáīµáĭµ": 2719,
      "ĠáĮĭáĭľ": 2720,
      "ĠáĬ«áĪĪáĭį": 2721,
      "ĠáĪĺáĭĭ": 2722,
      "ĠáĪĪáĬ¥áĬĶ": 2723,
      "ĠáĬłáĭµáĪ«": 2724,
      "Ġáį¡áį¡": 2725,
      "Ġáīłáįħ": 2726,
      "ĠáīłáĪģáĪīáĪĿ": 2727,
      "ĠáĭŃáĮ¨": 2728,
      "Ġáĭ«áīĢáĪŃ": 2729,
      "áīĢáĬĳ": 2730,
      "ĠáĬ¥áĬķáĭ°áĪĿáīµ": 2731,
      "ĠáĪĺáĭĿáĪĻáĪŃ": 2732,
      "áįĪáĪ©": 2733,
      "áĭ³áī¤": 2734,
      "áĭļáīĥ": 2735,
      "ĠáĪ°áĬł": 2736,
      "áĬķáī³": 2737,
      "Ġáĭ¨áī£áĪħáĪŃ": 2738,
      "ĠáĬłáīħáĪ«": 2739,
      "Ġáĭ¨áĮ¦áĪŃ": 2740,
      "ĠáĪ«áĬ¥": 2741,
      "ĠáĬ¨áĪĮáĪİáī½": 2742,
      "ĠáĪ¬": 2743,
      "Ġáĭ¨áĭ³": 2744,
      "áĪĪáĭµ": 2745,
      "ĠáĪĺáįįáīµáĪĦ": 2746,
      "ĠáĪĪáĭĪ": 2747,
      "ĠáīłáĪĽáĪµ": 2748,
      "ĠáĬ¥áĪĿ": 2749,
      "áĪ³áĪµ": 2750,
      "ĠáĪ°áįĬ": 2751,
      "áĭĺáĪŃ": 2752,
      "Ġáī³áĪĭ": 2753,
      "ĠáĪĺáĪįáĬŃ": 2754,
      "áĬķáĮ«": 2755,
      "ĠáĪĺáĬĸáĪŃ": 2756,
      "Ġáī¢áĭ«": 2757,
      "ĠáĬłáĭµáĪŃáĮĪáĭį": 2758,
      "ĠáĬ¥áĬķáĭ°áĭļáĪħ": 2759,
      "áįĭáĬķ": 2760,
      "Ġáī°áĮįáī£áĪŃ": 2761,
      "áī£áĪ¨": 2762,
      "áĬ¤áĪµ": 2763,
      "ĠáĬ¥áĭĪáĭ³": 2764,
      "áĪĨáĬĲáĭį": 2765,
      "áĪŃáīħ": 2766,
      "áĬ¨áįĪ": 2767,
      "Ġáī°áīĭ": 2768,
      "ĠáĬ¨áīł": 2769,
      "ĠáĭŃáīĨ": 2770,
      "áĬłáĪĿ": 2771,
      "áī»áī½áĬķáĬķ": 2772,
      "Ġáī°áīĢáĪĿ": 2773,
      "áĬ¨áįįáī°áĬĽ": 2774,
      "Ġáī±": 2775,
      "ĠáĬłáĭ«áĪµ": 2776,
      "ĠáĬ¨áĬ¢": 2777,
      "ĠáĬ¨áĬ¥áĬĲáĪ±": 2778,
      "áĮĪáĬĲáĭĺ": 2779,
      "ĠáīłáĭįáĪµ": 2780,
      "áĭ«áī¸áĭį": 2781,
      "áī¥áĪŃáĪĢáĪĿ": 2782,
      "ĠáĬłáĭ³áĭ²áĪµ": 2783,
      "ĠáĬķáĮįáĭµ": 2784,
      "Ġáĭ«áĬķáĬķ": 2785,
      "ĠáīłáĬ¥áĪŃáĮįáĮł": 2786,
      "Ġáĭ°áĪĿ": 2787,
      "Ġáī£áĪĪáī¤": 2788,
      "áĭįáĭ«": 2789,
      "Ġáĭ¨áĬ¦": 2790,
      "ĠáĭŃáĭŀ": 2791,
      "ĠáĪĪáīł": 2792,
      "ĠáĬĲáĭįáĬĵ": 2793,
      "ĠáĭĪáĬķáĭµáĪĿ": 2794,
      "ĠáĬ¥áĬķáĭ°áĪļáī½áĪį": 2795,
      "ĠáĮĥ": 2796,
      "áĪ»áĪ»áĪį": 2797,
      "ĠáĪĪáĪĺáĪĨáĬķ": 2798,
      "ĠáĬ¥áĪµáĬ«áĪģáĬķ": 2799,
      "ĠáīłáĬ¥áĪŃáĮįáĮłáĬĿáĬĲáīµ": 2800,
      "ĠáĪµáĪĪáĪĽ": 2801,
      "Ġáĭ«áĪĪáĬķ": 2802,
      "áī´áĬŃ": 2803,
      "áĮ¥áĬķ": 2804,
      "Ġáĭ¨áĮĪáĬķáĭĺáī¥": 2805,
      "ĠáĮ¥áīĥáīµ": 2806,
      "ĠáĪĪáĪį": 2807,
      "áī§áĪį": 2808,
      "áĪĿáĪ«áĪį": 2809,
      "áĪ®áīµ": 2810,
      "áīĥáĪī": 2811,
      "áĪĮáĬŃáīµ": 2812,
      "áīĭáīĭ": 2813,
      "ĠáĪŀáīµ": 2814,
      "Ġáĭ¨áĪħáĭĿáī¥": 2815,
      "ĠáĪĺáĪ³áĪªáĭ«áĭİáī½": 2816,
      "áĪ«áĬķáĪµ": 2817,
      "áī¶áī»áī¸áĭį": 2818,
      "áĭ°áĪ°": 2819,
      "ĠáįĪáī°áĬĵ": 2820,
      "Ġáī½áĮįáĪ®áī½": 2821,
      "Ġáĭ®áĪĢáĬķáĪµ": 2822,
      "áĭ³áĬĵ": 2823,
      "ĠáīłáĬłáĮłáīĥáĪĭáĭŃ": 2824,
      "ĠáīłáĬ®": 2825,
      "áĪįáĬ®": 2826,
      "áįĪáĪįáĮĪáĭį": 2827,
      "ĠáĬ¥áĬĽáĪĿ": 2828,
      "Ġáīªáĭ²áĭ®": 2829,
      "áĬĹáĪį": 2830,
      "áīĨáĮ£áĮłáĪŃ": 2831,
      "Ġáĭ°áĪħáĬķáĬĲáīµ": 2832,
      "ĠáĪ²áĪī": 2833,
      "áĬĳáĪĿ": 2834,
      "áĮłáīĥáĪļ": 2835,
      "ĠáĬłáĭĺ": 2836,
      "áĮ£áĮ«": 2837,
      "Ġáĭ¨áĪĺáĬķáĮįáĪµáīµ": 2838,
      "ĠáĬ¢áĭ«": 2839,
      "áĬĲáīħ": 2840,
      "áĬ¨áĪĽ": 2841,
      "Ġáĭ¨áī°áīĢ": 2842,
      "Ġáī¥áīĥáīµ": 2843,
      "áĪİáī¹": 2844,
      "ĠáĭŃáįĪáĪįáĮĭáĪī": 2845,
      "ĠáīłáĪĭ": 2846,
      "áĬ«áī£áī¢áĭį": 2847,
      "áĭ±áĬķ": 2848,
      "ĠáīłáĬ¥áĬĲáĭļáĪħ": 2849,
      "áįĨáī½": 2850,
      "Ġáĭ¨áĪļáĪĪáĭį": 2851,
      "ĠáĬłáĪĪáīĥ": 2852,
      "Ġáĭ°áĪŃ": 2853,
      "áĭĺáĮĭáĮĢáīµ": 2854,
      "áī³áĪī": 2855,
      "áī´áĪį": 2856,
      "áĪŃáĪµáī²": 2857,
      "áĪįáĪµáĮ¤": 2858,
      "áĬĲáī±áĬķ": 2859,
      "áī£áī½áĪģ": 2860,
      "Ġáī°áĬĲáĪ³": 2861,
      "áĮ£áĪª": 2862,
      "áĮĭáĪį": 2863,
      "áĪĺáĪĪáĪ±": 2864,
      "ĠáĪ«áĪ±áĬķ": 2865,
      "ĠáĬłáĬķáī°áĪĿ": 2866,
      "Ġáī¥áĭĻáĭįáĬķ": 2867,
      "Ġáĭ¨áĪļáī³": 2868,
      "áĪ«áĪĿ": 2869,
      "Ġáīħáĭµ": 2870,
      "ĠáĮ´áĮ¥áĪ®": 2871,
      "Ġáĭ«áĪ¨áĮĭáĮį": 2872,
      "áĬ¡áĪµ": 2873,
      "ĠáĬ¥áĬķáĮįáĭ²áĪħ": 2874,
      "Ġáĭ¨áĬ¨áī°áĪĽ": 2875,
      "áī¸áĭĭáĪĪáĪģ": 2876,
      "ĠáĪĢáĭŃáĪĽáĬĸ": 2877,
      "Ġáĭ¨áįĭ": 2878,
      "ĠáĪĪáĪĽáĪµáī°": 2879,
      "ĠáĮ¦áĪŃ": 2880,
      "ĠáĪµáĪħáī°áīµ": 2881,
      "áĬ©áĪĿ": 2882,
      "Ġáįįáīµ": 2883,
      "ĠáĬ¥áĬĲáĪ±áĬķ": 2884,
      "ĠáĬ¥áĭµáĮĪáīµ": 2885,
      "Ġáĭ¨áĪĨáĬĳáīµ": 2886,
      "áĪĪáīłáīµ": 2887,
      "Ġáĭ¨áĪļáĭĪ": 2888,
      "áĪĺáĪ°áĮįáĬĵ": 2889,
      "áĪŃáī²": 2890,
      "áĮ£áī¸áĭį": 2891,
      "áĬķáįĥ": 2892,
      "ĠáĪĪáĪ°": 2893,
      "Ġáī°áīĢáī£áĭŃ": 2894,
      "áįĪáĬķ": 2895,
      "áĬ¦áĪį": 2896,
      "Ġáī¥áĪŃáĪĢáĬķ": 2897,
      "ĠáĬłáĪµáī¸áĮĭáĪª": 2898,
      "áĪħáĪ¨": 2899,
      "áĭ°áĪ«": 2900,
      "ĠáĪµáĬ¥": 2901,
      "áĮłáĪĺ": 2902,
      "áĪ½áĬ¨áĪŃ": 2903,
      "ĠáīłáĬ¥áĭįáĬĲáīµ": 2904,
      "áĮ¿": 2905,
      "ĠáĪĽáĪĪáīµáĪĿ": 2906,
      "Ġáĭ«áĮį": 2907,
      "áĮĭáĭĬ": 2908,
      "ĠáįĪáĮ£áĬķ": 2909,
      "áīģáĪŃ": 2910,
      "Ġáĭ¨áĪĺáĮĢáĪĺáĪªáĭ«áĭį": 2911,
      "ĠáĬłáĮĪáĪįáĮĭáĭ®áī½": 2912,
      "áĪĪáĬĽáĪį": 2913,
      "ĠáįĪáīĥáĭ°áĬĽ": 2914,
      "áĭµáĮĵ": 2915,
      "ĠáĪĿáĪŃáīµ": 2916,
      "ĠáĬ¥áĬķáĭ³áĪĪáĭį": 2917,
      "ĠáĬĽáĭį": 2918,
      "Ġáĭ¨áĬĲáīłáĪ©áīµ": 2919,
      "áĪ¾áī½": 2920,
      "Ġáīłáī¥áĭĻ": 2921,
      "ĠáĪģáĪĪáī±": 2922,
      "Ġáĭ¨áĮ¤áĬĵ": 2923,
      "Ġáī°áĪ«": 2924,
      "ĠáĬ¥áĪŃáĪ±áĪĿ": 2925,
      "ĠáīłáĭµáĬķ": 2926,
      "ĠáĮįáĪĿ": 2927,
      "áĬ®áĬĸáĪļ": 2928,
      "ĠáĭŃáĭĪ": 2929,
      "ĠáĭŃáĪĦ": 2930,
      "áĭ®áĬķ": 2931,
      "ĠáīłáĪħáĭŃáĭĪ": 2932,
      "ĠáĪĺáĪ°áĪ¨áī³áĭĬ": 2933,
      "áĪªáĬķ": 2934,
      "áĭ³áĬķáīµ": 2935,
      "ĠáĪİ": 2936,
      "ĠáĪĺáĬŃ": 2937,
      "ĠáĮįáĭµ": 2938,
      "áĬķáĭ³áĬķáĭ³": 2939,
      "Ġáĭ¨áĪļáĪĪáĭįáĬķ": 2940,
      "ĠáĬ¥áĬķáĭ²áĭ«áĭįáĪĿ": 2941,
      "áĬĲáīł": 2942,
      "ĠáĪ°áī£áīµ": 2943,
      "ĠáīµáĪĿáĪħáĪŃ": 2944,
      "áī¼áĬķ": 2945,
      "áĮĪáĪ©": 2946,
      "ĠáĪĪáĪģáĪīáĪĿ": 2947,
      "áĪ®áī¹": 2948,
      "Ġáĭ¨áī°áĭĪ": 2949,
      "ĠáĬłáĬķáĪµáī¶": 2950,
      "ĠáĬķáĮīáĪ±": 2951,
      "ĠáĭµáĪ¨": 2952,
      "áĪ¨áĮħáĪĿ": 2953,
      "áĭ³áī¸áĭį": 2954,
      "áĪ¯áī¸áĭį": 2955,
      "áĬķáĪ°": 2956,
      "ĠáīłáĮŃ": 2957,
      "ĠáĪµáĬĲ": 2958,
      "ĠáĬ¥áĬķáĭ°áĪĮ": 2959,
      "ĠáĪµáĪ«áĭİáī½": 2960,
      "áĪŃáĭ«áīµ": 2961,
      "áĭĿáĮį": 2962,
      "áĪĮáīµ": 2963,
      "áĪ«áĪĪáĬķ": 2964,
      "áĪ±áīµ": 2965,
      "áĭ©áĬķ": 2966,
      "áĮ£áĪī": 2967,
      "áĮĮáī³": 2968,
      "ĠáĬłáĪĿáĪĭáĬ«": 2969,
      "áĪŀáĬ¨áĪŃ": 2970,
      "Ġáĭ¨áĪļáįĪ": 2971,
      "áĭ«áīĤ": 2972,
      "ĠáĭĪáĬķáĮĢ": 2973,
      "áĬĸáī½áĬķ": 2974,
      "áĪĢáīµ": 2975,
      "áĬ¨áĪĭáĬ¨áĭ«": 2976,
      "áĬķáĪ²": 2977,
      "áĮĭáī½áĪģ": 2978,
      "áĭ®áī¹": 2979,
      "ĠáĬłáĮłáĮĪáī¥": 2980,
      "áĬķáīĢáīµ": 2981,
      "áĮĪáĪµ": 2982,
      "ĠáĬłáĬķáĭ²áīµ": 2983,
      "ĠáĬ¥áĭĪáĭ³áĪĪáĪģ": 2984,
      "ĠáĬ¥áĬķáĭ°áĪĨáĬĳ": 2985,
      "ĠáĬ¥áĬķáĭ°áĪļáī½áĪī": 2986,
      "ĠáĬłáĭµáĪŃáĮĪ": 2987,
      "Ġáīłáĭ°áĬķáī¥": 2988,
      "ĠáĬĸáĪ®": 2989,
      "ĠáīłáĪµáī°áīĢáĪŃ": 2990,
      "ĠáįķáĪ®áĮįáĪ«áĪĿ": 2991,
      "áįĪáĪ¨": 2992,
      "ĠáĬ¥áĬĵáĪĺáĪ°áĮįáĬĵ": 2993,
      "ĠáĬłáĭŃáĭ°áĪīáĪĿ": 2994,
      "ĠáįĸáĪĬáĪ²": 2995,
      "ĠáĬłáĬķáī¥áī¥": 2996,
      "ĠáĭĪáĬķáĭµáĪŀ": 2997,
      "ĠáĬłáĮĭáĮ£áĪļ": 2998,
      "Ġáĭ³áĭĬ": 2999,
      "ĠáĬ¥áĬĵáĪĺáĪ°áĮįáĬĵáĪĪáĬķ": 3000,
      "ĠáĪģáĪĪáī°áĬĽ": 3001,
      "áĭĪáīĢ": 3002,
      "ĠáĮłáĭ¨": 3003,
      "ĠáĪĽáĪµáĪ¨áĮĥ": 3004,
      "ĠáĭĪáĪĭáĮĨáī½": 3005,
      "ĠáĪĺáĪįáĪ¶": 3006,
      "ĠáĬłáĭŃáī½áĪįáĪĿ": 3007,
      "ĠáĪĺáĭĽáĪĻáĪŃ": 3008,
      "Ġáī°áĮ«": 3009,
      "Ġáĭ¨áĪ³": 3010,
      "ĠáĬ¥áī¥": 3011,
      "áĪĪáĪĺ": 3012,
      "áĪŃáīµáĪ«": 3013,
      "Ġáĭ¨áĪħáĭŃáĭĪáīµ": 3014,
      "ĠáīłáĭĽáĪ¬áĭį": 3015,
      "áĮĭáĬĵ": 3016,
      "ĠáĪ¨áĮħáĪĿ": 3017,
      "áĮ¿áĪį": 3018,
      "áĬ¨áĬķ": 3019,
      "ĠáĭĺáĮĪáī£": 3020,
      "áĬ¨áĪĭáĬ¨áĪį": 3021,
      "áĪĭáī½áĬķáĪĿ": 3022,
      "áĪĽáĪ½": 3023,
      "ĠáĭŃáĭĪáĪµ": 3024,
      "áīĨáĭŃ": 3025,
      "Ġáĭ¨áĪļáīĨáĮłáĪ©": 3026,
      "ĠáīłáĬ«": 3027,
      "ĠáīłáĭĻ": 3028,
      "áĭļáĪģ": 3029,
      "Ġáĭ°áĪ¨": 3030,
      "áįĸáĪŃ": 3031,
      "áĮĬáĭľáĪĿ": 3032,
      "áĬ«áī¤": 3033,
      "ĠáĪĪáĬłáĪĿáĪĭáĬŃ": 3034,
      "áī¢áĭİáī½": 3035,
      "Ġáĭ«áĪ³áĭ«áĪį": 3036,
      "ĠáĪĢáĮ¢áĬł": 3037,
      "ĠáĭĿáĮįáĮħáīµ": 3038,
      "ĠáĬ¨áĬ¥áĬĵáĬķáī°": 3039,
      "áĭįáĪįáĭµ": 3040,
      "ĠáĬ¨áįĪáĪĪáĮī": 3041,
      "Ġáĭ¨áĪļáĮĪáĪį": 3042,
      "áĪ´áī¶áī½": 3043,
      "ĠáĬĲáĪħ": 3044,
      "ĠáĭĪáĮĪ": 3045,
      "ĠáĪĿáĪµáĬŃáĪŃ": 3046,
      "áĪ·áĪį": 3047,
      "Ġáĭ¨áĪĭ": 3048,
      "ĠáĪĺáĮ¨": 3049,
      "ĠáĭŃáĮĪáĬĽáĪį": 3050,
      "ĠáīłáįĢ": 3051,
      "ĠáĪĽáĬŃ": 3052,
      "ĠáĬķáĬ¡áĪµ": 3053,
      "áĭ³áĪľ": 3054,
      "áĪµáī¶áī½": 3055,
      "áĭ°áĭµ": 3056,
      "ĠáĪįáĬķ": 3057,
      "ĠáīłáĪĺáįħáĪĢáįį": 3058,
      "ĠáĮĤ": 3059,
      "ĠáĬ«áĪī": 3060,
      "ĠáĬ¥áįĪáĪįáĮĭ": 3061,
      "áĮĪáĪĽ": 3062,
      "ĠáĪ³áĪĿáĬķ": 3063,
      "ĠáĬ¨áĮĬáĭľ": 3064,
      "áĪ°áī¢áĭ«": 3065,
      "ĠáĪ³áĪĪ": 3066,
      "Ġáī¥áĭĻáĪĿ": 3067,
      "ĠáĪĮáĪĭáĭį": 3068,
      "Ġáĭ«áĪįáĪĨáĬĲ": 3069,
      "ĠáĬłáĭ¨áĪŃ": 3070,
      "áĬĳáīµ": 3071,
      "Ġáīłáĭļáĭ«áĬķ": 3072,
      "ĠáĬĳ": 3073,
      "ĠáĪĽáĪĪ": 3074,
      "áĮĪáĬĺáĭįáĬķ": 3075,
      "Ġáĭ¨áī°áĪ³": 3076,
      "Ġáĭ¨áĬłáĬ«áĪį": 3077,
      "áĬķáī°áĪŃ": 3078,
      "ĠáĬłáīħáĮ£áĮ«": 3079,
      "áĪ¨áĮĪ": 3080,
      "ĠáĪĽáĮ¥": 3081,
      "ĠáĬłáĭĿ": 3082,
      "áī½áĪīáĪĿ": 3083,
      "ĠáĬŃáī¥": 3084,
      "áĪľáĪį": 3085,
      "ĠáĭįáĮ¤áī³áĪĽ": 3086,
      "áĪĪáī¥": 3087,
      "Ġáīłáĭļáĭ«áĪĿ": 3088,
      "ĠáīµáĬŃáĬŃáĪį": 3089,
      "áĬŃáī¥áĬ«áī¤": 3090,
      "Ġáĭ¨áĭŃ": 3091,
      "Ġáĭ«áĬ«áīµ": 3092,
      "ĠáĬ¥áįĪáĪįáĮĭáĪĪáĪģ": 3093,
      "áĬĸáĪ¨": 3094,
      "ĠáĪĿáĬķáĮĬáĭľáĪĿ": 3095,
      "ĠáĬ¥áĬĶáĬķ": 3096,
      "áĭĺáĮĭáĮģ": 3097,
      "ĠáĬŃáĪįáĪį": 3098,
      "ĠáĮ¥áįĭáīµ": 3099,
      "ĠáĬ¥áĬķáĭµáī³": 3100,
      "áĬķáĭ¶áī¹": 3101,
      "ĠáĮłáĪĭ": 3102,
      "Ġáĭ°áī¥áĭ³áī¤": 3103,
      "ĠáĪĺáĭµáĪĢáĬĴ": 3104,
      "ĠáĪĪáĪĺáĪŃáĭ³áīµ": 3105,
      "Ġáĭ¨áĭ«áĪħáĭĮáĬķ": 3106,
      "áī¬": 3107,
      "áī°áĬ®": 3108,
      "ĠáĬ¨áĭļáĪħáĪĿ": 3109,
      "ĠáīłáĪĮáĪİáī½": 3110,
      "áĭ³áĪī": 3111,
      "ĠáĭĿáĮįáĮģ": 3112,
      "áĪ«áĪ³áī¸áĭį": 3113,
      "áĪĺáĭĺ": 3114,
      "áįĭáĪµ": 3115,
      "áĪ¶áī½áĬķ": 3116,
      "ĠáĭµáĪŃáĮĬáīµ": 3117,
      "ĠáĬłáĪ«": 3118,
      "áĮįáĬķ": 3119,
      "Ġáĭ°áĮĭ": 3120,
      "ĠáĬ¥áĪµáī²": 3121,
      "ĠáīłáīĢáĮ¥áī³": 3122,
      "Ġáĭ©áĬĴ": 3123,
      "áĪĺáĬĽ": 3124,
      "áĬĶáīµ": 3125,
      "áĪ¬áĬķ": 3126,
      "ĠáĪįáĮĥ": 3127,
      "ĠáĪĺáįĥáĪħáįįáīµ": 3128,
      "ĠáĬłáĬĲ": 3129,
      "áĪ³áĭį": 3130,
      "Ġáī°áĪ¸": 3131,
      "ĠáĪįáĪĽáīµ": 3132,
      "ĠáįįáĪŃ": 3133,
      "áĭĪáĪ°áĬķ": 3134,
      "ĠáĬªáĭ³áĬķ": 3135,
      "ĠáĪĺáĪįáĬ©": 3136,
      "áĮ«áĭĪáīµ": 3137,
      "ĠáĪĽáĪ°": 3138,
      "áīĢáĪŃáī¡": 3139,
      "áī²áĬŃ": 3140,
      "Ġáĭ¨áĬ¥áĮįáĭļáĬłáī¥áĪĦáĪŃ": 3141,
      "ĠáĬłáĭįáĪ«": 3142,
      "áĮłáīħ": 3143,
      "ĠáįĬáĪį": 3144,
      "ĠáĪĿáĪµáĪį": 3145,
      "ĠáĭµáĪŃáĮħáī¶áī½": 3146,
      "ĠáĪµáĪįáĮłáĬĵ": 3147,
      "ĠáĮ¢": 3148,
      "ĠáĪĿáĪįáĬŃ": 3149,
      "ĠáĬłáĭµáĪŃáĮĵáĪį": 3150,
      "áĪµáĬŃ": 3151,
      "ĠáĭįáĭŃ": 3152,
      "Ġáĭ¨áī°áĪ°áĪ«": 3153,
      "ĠáĪĮáĪİáī½áĬķ": 3154,
      "ĠáĬĲáĮ¥áī¥": 3155,
      "áĬķáī²": 3156,
      "ĠáĮ¥áīłáīĥ": 3157,
      "ĠáīłáĪļáĭ«áĪµ": 3158,
      "Ġáī£áĪĪáī¤áīµ": 3159,
      "áĮĪáĬĵáĬĽ": 3160,
      "áĭ«áĮŃ": 3161,
      "áĬ«áĪª": 3162,
      "áĬĴáĬŃ": 3163,
      "ĠáīłáĪ½áī³": 3164,
      "ĠáĬ¥áĪ³áīµ": 3165,
      "áĪµáī³áĭį": 3166,
      "áĮĪáĪįáĮįáĪİáīµ": 3167,
      "Ġáīłáī¤áī°": 3168,
      "áĪ«áĭŃ": 3169,
      "Ġáī°áī£": 3170,
      "áīĥáĭĪ": 3171,
      "áįĭáĮŃ": 3172,
      "áįİáī½áĬķ": 3173,
      "ĠáĪĪáĬłáĬķáĭµ": 3174,
      "áĪĿáīłáĪŃ": 3175,
      "Ġáī°áĬķ": 3176,
      "Ġáĭ¨áī°áĪĺáĪ°áĪ¨áī°": 3177,
      "ĠáĮ´áĮ¥áĪ®áĪµ": 3178,
      "áĪĺáĮ¥": 3179,
      "ĠáĬĵáīµ": 3180,
      "áĬ¨áĬĵáĭĪáĬķ": 3181,
      "Ġáĭİáī¹": 3182,
      "ĠáĬłáĭ¨": 3183,
      "Ġáĭ°áĪħáĬĵ": 3184,
      "áĬķáĭĽáī¤": 3185,
      "áĬĭáĪĭ": 3186,
      "ĠáĪĺáĪĪáĭ«": 3187,
      "áĮ£áĬĿ": 3188,
      "ĠáĬķáĭµ": 3189,
      "Ġáī°áĮłáīħ": 3190,
      "ĠáĭĪáĮĪáĬķ": 3191,
      "ĠáĪ°áĪĿ": 3192,
      "áĪĿáĮ£áīµ": 3193,
      "áĬķáĭ±áĪµáīµáĪª": 3194,
      "Ġáīłáĭ©": 3195,
      "Ġáĭ®áĪ´áįį": 3196,
      "ĠáĬ¥áī½áĪĭ": 3197,
      "Ġáīłáī°áĪĪáĭŃáĪĿ": 3198,
      "ĠáĬ¥áī½áĪĭáĪĪáĪģ": 3199,
      "ĠáĬłáĪ°áĪ«": 3200,
      "áįįáĬķ": 3201,
      "ĠáĪ«áĬ¥áĭŃ": 3202,
      "áĪ¨áī¡": 3203,
      "áįįáĪ¨áīµ": 3204,
      "ĠáĪĬáĭ«áĪµ": 3205,
      "ĠáĪ°áĪ«áī°áĬĽ": 3206,
      "ĠáĪĺáĪªáĭİáī½": 3207,
      "ĠáĪģáĪĪáī±áĪĿ": 3208,
      "ĠáīłáĭŃáĪĨáĭĭ": 3209,
      "ĠáĬ¨áīµ": 3210,
      "áĪ³áĪī": 3211,
      "áĭĪáĮį": 3212,
      "áĭ®áī½áĬķ": 3213,
      "Ġáī£áĪĪáĪĻáĭ«": 3214,
      "ĠáĬ¨áĪĭáĭŃ": 3215,
      "áī£áī¸áĭĭáĪį": 3216,
      "ĠáīĥáĪĭáīµ": 3217,
      "ĠáĬłáī¥áĪ¨áĭį": 3218,
      "áĭįáĪ°áĭµ": 3219,
      "ĠáĪįáĪĽ": 3220,
      "áĪĿáĪĿ": 3221,
      "ĠáīłáĭŃ": 3222,
      "ĠáĪĺáĪĦáĭµ": 3223,
      "áĪĬáĬķ": 3224,
      "ĠáĮīáĪį": 3225,
      "Ġáī°áĪĺáĪįáĬ¨áīµ": 3226,
      "Ġáī°áĪµáĪĽáĪļ": 3227,
      "ĠáīłáĪĺáĪĨáĬĳ": 3228,
      "ĠáĪµáĪĪáĬĲáīłáĪŃ": 3229,
      "áĪ°áĮ£áī¸áĭį": 3230,
      "ĠáĪĪáī¥áĭĻ": 3231,
      "Ġáī³áĭįáīĥ": 3232,
      "áĪ²áī²": 3233,
      "ĠáĬ¨áĬłáĪĿáĪĭáĬŃ": 3234,
      "áĭ°áĪ¨áĮīáīµ": 3235,
      "ĠáĬłáĪħ": 3236,
      "ĠáĮĪáīłáĭ«": 3237,
      "ĠáĪ°áĬĲ": 3238,
      "Ġáĭ¨áīħáĪŃáī¥": 3239,
      "áīłáĪªáĭ«": 3240,
      "ĠáĪĺáĪĨáĬĵáī¸áĭįáĬķ": 3241,
      "áĮīáīµ": 3242,
      "Ġáĭ¨áĭĪáĭŃáĬķ": 3243,
      "ĠáīłáĪĺáĬķ": 3244,
      "ĠáĮ¥áĬĵ": 3245,
      "Ġáĭ¨áĪļáĭ«áĪµáī½áĪį": 3246,
      "ĠáĬŃáĪµáī°": 3247,
      "ĠáĭĬ": 3248,
      "ĠáĪ½áĪĽáĮįáĪĮáĭİáī½": 3249,
      "Ġáĭ¨áī°áĪ°": 3250,
      "ĠáĭĺáĭŃáīµ": 3251,
      "ĠáįĪáĪŃ": 3252,
      "Ġáĭ¨áĪħáĬŃáĪĿáĬĵ": 3253,
      "ĠáĭŃáĬĸáĪŃáī¥": 3254,
      "ĠáĪģáĪĭáī½áĬķáĪĿ": 3255,
      "ĠáĪĪáĬ¥áĬĵáĬķáī°": 3256,
      "ĠáĬłáĭĪ": 3257,
      "ĠáĬ¨áĬłáĬķáī°": 3258,
      "ĠáĪĺáĮłáīłáīħ": 3259,
      "áĪŁáĪį": 3260,
      "áĪĪáĮ¥": 3261,
      "áĬĵáĭ³": 3262,
      "ĠáĪĺáįį": 3263,
      "Ġáĭ¨áĪļáĮĪáĬĺáĭį": 3264,
      "ĠáĬłáĭįáĪ®": 3265,
      "ĠáĪı": 3266,
      "ĠáĬ¨áĭ«áĪħáĭĮ": 3267,
      "Ġáĭ«áĭ°áĪŃáĮĪ": 3268,
      "Ġáĭ«áĬ¥áīĨáī¥": 3269,
      "Ġáīłáī°áĪĪáĭ«áĭ©": 3270,
      "áĮİáī¥": 3271,
      "Ġáĭ¨áĭįáĪĢ": 3272,
      "ĠáīłáĪĨáĬĲáĭį": 3273,
      "ĠáĬłáĬķáįĥ": 3274,
      "áī³áĪĪáĪģ": 3275,
      "Ġáĭ¨áĬ¢áĭ¨áĪ±áĪµ": 3276,
      "Ġáĭ¨áĬ¢áīµáĭ®áĮµáĭ«": 3277,
      "ĠáīłáĪ³": 3278,
      "áī£áĪĪáĪģ": 3279,
      "ĠáĪ°áĪĪ": 3280,
      "áĭµáĪŃáĮħ": 3281,
      "ĠáĪĿáĪ½áīµ": 3282,
      "ĠáĪĺáĪ¸": 3283,
      "áĬ¥áĪĿ": 3284,
      "Ġáī³áĪª": 3285,
      "áĪµáī°áĭį": 3286,
      "áĪµáĪĽáĪĽ": 3287,
      "Ġáĭ¨áĬ¥áĭį": 3288,
      "ĠáĬ¥áĬķáĬŃáī¥áĬ«áī¤": 3289,
      "ĠáĬłáĭįáīĥáĪĪáĪģ": 3290,
      "áĪ«áī½áĬķ": 3291,
      "ĠáĮ¥áĪįáīħ": 3292,
      "ĠáĬ¨áĬ¥áĬĽ": 3293,
      "ĠáīģáĪįáįį": 3294,
      "ĠáĪıáĪĭáĭĬ": 3295,
      "ĠáīłáĪĺáīĢ": 3296,
      "ĠáĪĢáī¥áīµ": 3297,
      "ĠáĪµáī´áīµ": 3298,
      "ĠáĪ³áĪĻ": 3299,
      "áĮŃáīµ": 3300,
      "ĠáĬłáĪĪáĬķ": 3301,
      "ĠáĪĺáīĨ": 3302,
      "áĬŃáĪ²": 3303,
      "ĠáĬ¥áĮį": 3304,
      "áĬĵáĭįáĭ«áĬķ": 3305,
      "Ġáĭ¨áĪļáĬĸáĪ©": 3306,
      "Ġáĭ«áĮįáĬĻ": 3307,
      "áī½áĪīáīµ": 3308,
      "áĮīáĪŃ": 3309,
      "áįķáĪ¬": 3310,
      "ĠáīłáĪĺáĮį": 3311,
      "ĠáīłáĬ¥áĮħ": 3312,
      "ĠáĪĪáĪĮáĪİáī½": 3313,
      "ĠáĪĪáĮ¥": 3314,
      "ĠáĮłáī£": 3315,
      "áĮĵáĭĿ": 3316,
      "ĠáĪ½áĪį": 3317,
      "ĠáĬłáĮĪáĪįáĮĭáĭŃ": 3318,
      "ĠáĭĿáīħáī°áĬĽ": 3319,
      "ĠáīłáĬ¨áī°áĪĽ": 3320,
      "ĠáĬ¨áĬŃ": 3321,
      "áĪ¨áįį": 3322,
      "ĠáĬ¨áī¥": 3323,
      "ĠáĪĪáĭ°": 3324,
      "ĠáĭĪáĭµ": 3325,
      "áī¸áĭĭ": 3326,
      "áĭ³áĪĿ": 3327,
      "áĪĭáī¸áĭįáĪĿ": 3328,
      "áĮ´": 3329,
      "ĠáĮĢáĪĺáĪ¨": 3330,
      "áĪĭáĪħ": 3331,
      "áĪĽáĬĿáĬĲáīµ": 3332,
      "Ġáī°áīĢáī£áĭŃáĬĲáīµ": 3333,
      "áĪŃáĪ±áĪĿ": 3334,
      "ĠáĪĺáĪįáĬ¥áĬŃ": 3335,
      "Ġáĭ¨áĬĲáīłáĪ¨áĭįáĬķ": 3336,
      "áĬ©áĪµ": 3337,
      "ĠáĪĪáī¥": 3338,
      "ĠáĬ¥áĭ«áĪĪ": 3339,
      "Ġáĭ¨áĭĪáĭ°": 3340,
      "Ġáī°áĪ³": 3341,
      "áī·áĬķ": 3342,
      "Ġáĭ¨áĬ¥áĪŃáĪµ": 3343,
      "ĠáīĨáĭŃ": 3344,
      "ĠáĬ¨áĭ°": 3345,
      "Ġáĭ¨áĪļáĪ°áĪ«": 3346,
      "ĠáīłáĪ«áĪµ": 3347,
      "ĠáĭŃáĮłáī¥": 3348,
      "ĠáĬŃáĪŃ": 3349,
      "ĠáĬŃáĬķáĭµ": 3350,
      "ĠáĮĪáīł": 3351,
      "áĭĪáĪµáĭµ": 3352,
      "áĬ¨áĬĵáĭį": 3353,
      "ĠáĮ£áįĭáĮŃ": 3354,
      "ĠáĬłáĬķáĭ°": 3355,
      "áįįáĪ¬": 3356,
      "Ġáĭ¨áĪļáĮĪáī£": 3357,
      "Ġáī³áĭĭáīĤ": 3358,
      "áĮįáī£áī¥": 3359,
      "Ġáī°áĪĽáĪª": 3360,
      "ĠáĬ¥áĬķáīħ": 3361,
      "Ġáī£áĪħáĪªáĭ«": 3362,
      "áĪµáīłáĭį": 3363,
      "ĠáĪĪáĪĺáĮĢáĪĺáĪªáĭ«": 3364,
      "ĠáīĢáĪĪáĪĿ": 3365,
      "áĮĪáī£áīµ": 3366,
      "áĪĽáĪī": 3367,
      "ĠáĮįáĭ´": 3368,
      "ĠáīłáĪĺáĪĨáĬķ": 3369,
      "Ġáīħáĭ³áĪľ": 3370,
      "áīłáĪµ": 3371,
      "Ġáĭ¨áĪĽáĪħ": 3372,
      "ĠáĬĲáĮŃ": 3373,
      "ĠáīłáĪ«áĪ±": 3374,
      "ĠáĪĿáĮį": 3375,
      "ĠáĪĺáĪµáĪĺáĪŃ": 3376,
      "áįįáĪį": 3377,
      "áĪģáĪī": 3378,
      "áĪĢáĭŃ": 3379,
      "ĠáĪħáĪĺáĪĿ": 3380,
      "áĪĺáĪµáĪį": 3381,
      "áĪĿáĪ¨": 3382,
      "ĠáĭŃáĪ°": 3383,
      "ĠáĪĿáĪħ": 3384,
      "ĠáĪĿáĮįáī£áĪŃ": 3385,
      "Ġáĭ¨áĪļáĭ«áĭ°áĪŃáĮī": 3386,
      "ĠáĬ¨áĪĺáĪĨáĬĳáĪĿ": 3387,
      "áĮ¢áĬłáīµ": 3388,
      "Ġáĭ¨áĪĿáĬķáī½áĪĪáĭį": 3389,
      "Ġáĭŀ": 3390,
      "áĭµáĪ¨áĪµ": 3391,
      "Ġáĭ¨áĪħáĮį": 3392,
      "áĭ«áĪī": 3393,
      "ĠáĬ¥áĭ«áĬķáĭ³áĬķáĭ³": 3394,
      "ĠáĬĲáĭĭáĪªáĭİáī½": 3395,
      "áĪŃáĭ³": 3396,
      "áĭ°áĪªáĭ«": 3397,
      "áĪ³áĪ°": 3398,
      "ĠáĮįáĪĿáīµ": 3399,
      "ĠáīłáĬĭáĪĭáĪĿ": 3400,
      "Ġáĭ«áĪĭ": 3401,
      "áĪ¼": 3402,
      "áĪİáĪĿ": 3403,
      "ĠáīłáĬ¥áĬĽ": 3404,
      "Ġáĭ³áĮį": 3405,
      "áĮ§áĪį": 3406,
      "ĠáĬłáĪµáĪŃ": 3407,
      "ĠáĬłáĭŃáĪģáĭ³": 3408,
      "ĠáĪ°áĪ«áĭĬáīµ": 3409,
      "áĪŃáĪ³": 3410,
      "Ġáĭ¨áĪļáĪĺ": 3411,
      "Ġáĭ«áīĢáĪŃáī£áĪį": 3412,
      "Ġáĭ¨áįĮ": 3413,
      "áĪµáī¡": 3414,
      "ĠáīĢáĭŃ": 3415,
      "ĠáīłáĬ¢áĭ¨áĪ©áĪ³áĪĮáĪĿ": 3416,
      "ĠáĪ°áĭŃáĮ£áĬķ": 3417,
      "áĬ«áįĪáĪį": 3418,
      "áĬķáĮīáĪ±": 3419,
      "ĠáĪºáĪħ": 3420,
      "áĪµáī±áĬķ": 3421,
      "ĠáĬ©áī£áĬķáĭ«áĭİáī½": 3422,
      "ĠáĬłáĬŃáī¥": 3423,
      "Ġáĭ¨áĪļáĪĨáĬķ": 3424,
      "ĠáĪįáĮĨáī¹": 3425,
      "áĮĭáĭŃ": 3426,
      "ĠáĬ¨áįĬ": 3427,
      "ĠáĮĪáī£": 3428,
      "Ġáī´áĬŃáĬĸáĪİáĮĤ": 3429,
      "ĠáĮįáĬķáĭĽáī¤": 3430,
      "áī¤áĪį": 3431,
      "áįĥáįį": 3432,
      "ĠáĭĽáįį": 3433,
      "ĠáīłáĪ°áĭį": 3434,
      "áĬĲáĪŃáĪ±": 3435,
      "áĪ«áĮ®áī½": 3436,
      "áĬķáĭ³áĬķáĭµ": 3437,
      "Ġáīłáīģ": 3438,
      "Ġáĭ¨áĪļáįĪáĪįáĮī": 3439,
      "ĠáĪįáĮĦ": 3440,
      "ĠáĮłáĭŃ": 3441,
      "ĠáĪĺáĬķáĮįáĪµáī³áīµ": 3442,
      "Ġáĭ¨áīĢáĭµáĪŀ": 3443,
      "áĪģáįį": 3444,
      "ĠáĬĲáĮĪáĭµ": 3445,
      "ĠáĪĪáĪĽáīħáĪ¨áī¥": 3446,
      "Ġáĭ¨áĪĺáĮ£": 3447,
      "ĠáĬ«áĪīáīµ": 3448,
      "ĠáĪĺáĭ°áīłáĬĽ": 3449,
      "ĠáĭĪáĭŃáĪµ": 3450,
      "áĪĬáĭ«áĪĿ": 3451,
      "ĠáĭŃáĪ¸": 3452,
      "ĠáĪĽáĪ¨": 3453,
      "áĬĽáĭİáī¹": 3454,
      "Ġáī¥áī¸": 3455,
      "ĠáĬłáĪµáī°áĭ³": 3456,
      "Ġáĭ¨áīµáĪĿáĪħáĪŃáīµ": 3457,
      "ĠáīłáĮ¥áĪ©": 3458,
      "áĪ«áĭį": 3459,
      "Ġáī¥áĪĪáĬķ": 3460,
      "Ġáĭ¨áĭŃáĪģáĭ³": 3461,
      "ĠáĬłáĭŃáĬķ": 3462,
      "áĪ«áī¸áĭįáĬķ": 3463,
      "ĠáĪĽáĭį": 3464,
      "ĠáīĢáĮ£": 3465,
      "áĪŁáĪĭ": 3466,
      "ĠáĬĭáĪĭ": 3467,
      "áĭ³áĪª": 3468,
      "ĠáĪĪáĬ¥áĪŃáĪµáĭİ": 3469,
      "ĠáĪĽáĪµáī³áĭĪáīĤáĭ«": 3470,
      "ĠáĪĤáĭ°": 3471,
      "áī¨áĪŃáĪ²áī²": 3472,
      "áīĢáĪį": 3473,
      "ĠáĪĪáĪĺáĮłáīłáīħ": 3474,
      "Ġáĭ¨áĪĽáĭ«": 3475,
      "ĠáīłáĪļáīĢáĮ¥áĪĪáĭį": 3476,
      "ĠáĮĪáĪįáĮ¿áĪį": 3477,
      "Ġáī«": 3478,
      "ĠáĬ¨áĪļáĭ«": 3479,
      "ĠáĪĽáĮį": 3480,
      "áĪĺáĬĳ": 3481,
      "áĬłáĭĬ": 3482,
      "áĪ¸áĬĲáįį": 3483,
      "áĮĪáĪªáī±": 3484,
      "áīĥáĪµ": 3485,
      "ĠáĪĬáĪĨáĬĳ": 3486,
      "áĬĸáĪŃáĪĿ": 3487,
      "ĠáĭŃáĬĸáĪ«áĪį": 3488,
      "Ġáĭ¨áĪ½": 3489,
      "ĠáĭŃáĮłáĭŃ": 3490,
      "ĠáĭĺáĭŃ": 3491,
      "ĠáĪ°áĮł": 3492,
      "Ġáĭ¨áĪļáĭ«áĪ³áĭŃ": 3493,
      "áĮĪáĬĵáĬĺáīµ": 3494,
      "ĠáĭĪáĭ²áĪħ": 3495,
      "ĠáĪĽáĪ»áĪ»": 3496,
      "áĪŀáĬŃáĪ®": 3497,
      "ĠáīģáĮ¥áĮ¥áĪŃ": 3498,
      "áĪŃáįį": 3499,
      "áĪ°áĪµ": 3500,
      "áĭĪáĮ£áĭį": 3501,
      "áĪĺáĪĪáĬŃ": 3502,
      "áĪ²áĭ«": 3503,
      "Ġáī¸": 3504,
      "ĠáĬ¨áĭį": 3505,
      "áĭ³áĮħ": 3506,
      "ĠáĮĬáĭľáĪĿ": 3507,
      "áĪµáīµáĪ«": 3508,
      "áĮĪáĪĪáįĢáĭį": 3509,
      "ĠáĬłáĪ®": 3510,
      "ĠáĬĲáįĥáĬĲáīµ": 3511,
      "áĭ°áĪŃáĪ±": 3512,
      "ĠáīłáĬ¨áįįáī°áĬĽ": 3513,
      "áī±áīµ": 3514,
      "ĠáīĢáĮł": 3515,
      "ĠáĪĺáĪµáįĪáĪŃ": 3516,
      "Ġáī£áĪĪáĪµáĪįáĮ£áĬĵáīµ": 3517,
      "ĠáĪĺáĮĪ": 3518,
      "ĠáĪĺáįħáĪĢ": 3519,
      "ĠáĬ¥áĬķáĭ°áĬĲáīłáĪŃ": 3520,
      "Ġáĭĺáįį": 3521,
      "áĪĭáĪµ": 3522,
      "ĠáĬ¨áīĢ": 3523,
      "áĮłáĪ¨áĭį": 3524,
      "Ġáī°áĪŃ": 3525,
      "ĠáĪĢáĪ³áī¦áī½": 3526,
      "ĠáĬłáĮĪáĬĺ": 3527,
      "áįħáĬ¦": 3528,
      "áįĭáĪį": 3529,
      "Ġáī¥áĪĦáĪ«áĭĬ": 3530,
      "ĠáĬłáīłáī£": 3531,
      "Ġáĭ¨áĬ¥áĪŃáĪµáĭİáĬķ": 3532,
      "ĠáĪļáĬĵ": 3533,
      "ĠáĬ¥áĬĵáĬķáī°áĪĿ": 3534,
      "áĮłáĭ¨áīħ": 3535,
      "ĠáĬ³": 3536,
      "Ġáĭ³áĭŃ": 3537,
      "ĠáĬłáĪĽáĪ«áĮŃ": 3538,
      "ĠáĮ«áĪĽ": 3539,
      "Ġáī°áĭĪáĭ³áĮħ": 3540,
      "áĬķáīĥáīĦ": 3541,
      "ĠáĬłáĭĽ": 3542,
      "áī°áĪ®áī½": 3543,
      "áĬĲáī³áī¸áĭį": 3544,
      "Ġáĭ¨áī°áĮłáīĢ": 3545,
      "áīµáĬķáĬĵ": 3546,
      "ĠáĪĽáĬķáīłáī¥": 3547,
      "áĮ³": 3548,
      "Ġáĭ¨áī¦": 3549,
      "Ġáĭ¨áĪ°áĪĽ": 3550,
      "Ġáĭ¨áĪļáĪ°": 3551,
      "ĠáĪļáĬĴáĪµáīµ": 3552,
      "ĠáĭŃáĪĭáĪī": 3553,
      "ĠáĭĪáĪĪáĭ°": 3554,
      "ĠáĪ³áĪĿáĬķáī³áīµ": 3555,
      "ĠáĬ¨áĪ°áĪĽ": 3556,
      "ĠáĬĲáī¢": 3557,
      "áĭĿáĬķ": 3558,
      "ĠáĭŃáĭį": 3559,
      "ĠáĪĬáīĢ": 3560,
      "Ġáĭ¨áĪµáĬĲ": 3561,
      "ĠáįĢáĪĢáįĬ": 3562,
      "ĠáĪĺáĪĢ": 3563,
      "ĠáĭµáĬķáīħ": 3564,
      "áįĪáįĢáĪĺ": 3565,
      "ĠáĬłáĬķáįĥáĪŃ": 3566,
      "ĠáĬ¥áĪģáĭµ": 3567,
      "ĠáĬłáĬ¥áĪĿáĪ®": 3568,
      "áĪĪáįħ": 3569,
      "áī¥áĭİáīµ": 3570,
      "ĠáīħáĬķ": 3571,
      "ĠáĬŃáįįáīµ": 3572,
      "áī¢áĭ«áĭį": 3573,
      "Ġáĭ¨áĬłáĬķáĭµ": 3574,
      "ĠáĪĺáĮłáĭ¨": 3575,
      "ĠáĮįáĪĿáĮĪáĪĽ": 3576,
      "áĪĢáĭĬ": 3577,
      "ĠáīłáĪĺáĮ¨áĪ¨áĪ»áĪĿ": 3578,
      "áī³áĪĿ": 3579,
      "áĪµáī°áĬĽáĭį": 3580,
      "ĠáīłáĬ¥áĭįáĬĲáī±": 3581,
      "áĪŃáĭ«áĭį": 3582,
      "ĠáĬ¨áĮį": 3583,
      "áĬĴáĭ«": 3584,
      "ĠáĪĿáĪŃáĪĺáĪ«": 3585,
      "ĠáīłáĪ°áĪĽáĭŃ": 3586,
      "áī¢áĭį": 3587,
      "áĮ¡áĬķ": 3588,
      "áī°áĪħ": 3589,
      "áĭ³áĪļ": 3590,
      "Ġáĭ¨áĭ°áĪ¨": 3591,
      "ĠáīłáĬ©": 3592,
      "Ġáĭ¨áĭįáĮŃ": 3593,
      "ĠáĪĿáī¹": 3594,
      "ĠáĪµáĪĪáĪĺ": 3595,
      "Ġáĭ¨áīłáĪĭáĭŃ": 3596,
      "áĮłáĬĵáīĢ": 3597,
      "ĠáĪ«áĪ³áī¸áĭįáĬķ": 3598,
      "ĠáĪ¨áĭµ": 3599,
      "ĠáĪīáīĥáĪµ": 3600,
      "ĠáīłáĭĻáĪªáĭ«": 3601,
      "áĭ«áĭĻ": 3602,
      "ĠáĪ«áĪ±": 3603,
      "Ġáīłáĭ¨áĬł": 3604,
      "ĠáĬ¥áĬķáĪµáĪ³": 3605,
      "ĠáĮ¤áĬĵáĪĽ": 3606,
      "ĠáĮ¡": 3607,
      "áĭĭáĭĭ": 3608,
      "áįīáĬķ": 3609,
      "ĠáĬłáĪ³áĭŃ": 3610,
      "ĠáĪĺáĬĸáĪªáĭ«": 3611,
      "ĠáĬ¥áĬĵáĭ°áĪŃáĮĭ": 3612,
      "áĬĿáĬķ": 3613,
      "ĠáĮ¥áĪĭ": 3614,
      "ĠáĪħáĮĭáĭĬ": 3615,
      "áīĨáīµ": 3616,
      "ĠáĬłáĪĺáĪ«áĪŃ": 3617,
      "ĠáĬķáī¥áĪ¨": 3618,
      "ĠáĮİáĬķ": 3619,
      "ĠáĭĪáĮ£áī¶áī½": 3620,
      "ĠáĬłáĭŃáī½áĪīáĪĿ": 3621,
      "áĮĪáĬķáī£áīµ": 3622,
      "ĠáĪ¹": 3623,
      "áĪ³áĪ°áī¥": 3624,
      "ĠáĬ¥áĬķáĭ°áĪļáĪĨáĬķ": 3625,
      "ĠáĪĪáĪĽáĪ¨áĮĭáĮĪáĮ¥": 3626,
      "ĠáīłáĪļáĮĪáī£": 3627,
      "áīĥáī¸áĭį": 3628,
      "ĠáĮ¥áĮĪáĬĵ": 3629,
      "ĠáĬłáĬķáĭ±áĬķ": 3630,
      "áĪŃáī¶": 3631,
      "ĠáĭŃáĮĪáĬĽáĪī": 3632,
      "ĠáĭŃáĪĺáĮ£áĪį": 3633,
      "ĠáĪĿáĬķáĮŃ": 3634,
      "ĠáīłáĭļáĪħáĪĿ": 3635,
      "Ġáĭ²áĭĽ": 3636,
      "ĠáīłáĬ¥áĪŃáĮįáĮ¥áĪĿ": 3637,
      "ĠáĪ®áĪĿ": 3638,
      "áĪµáįĭ": 3639,
      "áīħáĪį": 3640,
      "ĠáĪµáĪĻ": 3641,
      "Ġáī°áĪŀáĬŃáĪ®": 3642,
      "áĪĢáī¥": 3643,
      "ĠáĮĪáĭ¢": 3644,
      "Ġáĭ¨áĪĿáĭµáĪŃ": 3645,
      "ĠáĪļáĪµáī°áĪŃ": 3646,
      "ĠáĪµáĭµáĪµáīµ": 3647,
      "Ġáĭ¨áĪĤ": 3648,
      "ĠáĬłáĪĪáī¥áĬķ": 3649,
      "ĠáĬ¢áīµáĭ®áĮµáĭ«": 3650,
      "ĠáĪªáįĸáĪŃáīµ": 3651,
      "áĪŀáĬŃáĪ«áĪ²": 3652,
      "áĭ°áĪ°áīµ": 3653,
      "ĠáĪµáĪĭáĪį": 3654,
      "ĠáĬ¢áĭ¨áĪ©áĪ³áĪĮáĪĿ": 3655,
      "áįĥáĪľ": 3656,
      "ĠáĪĺáĪ°áĭĬ": 3657,
      "Ġáī°áĪ°áĮ¥": 3658,
      "áīĥáĮł": 3659,
      "ĠáīħáĮ£áīµ": 3660,
      "Ġáĭ«áĪµáįĪáĪįáĮĭ": 3661,
      "áĬĵáĪ½": 3662,
      "áĭµáĪľ": 3663,
      "Ġáī£áĪħáĪª": 3664,
      "áĬĢ": 3665,
      "áīĥáĮłáĪį": 3666,
      "áīłáĪ³": 3667,
      "ĠáĪĺáĪįáĬł": 3668,
      "áĭ«áĭįáīģ": 3669,
      "ĠáĪµáī´áīµáĪµ": 3670,
      "áĪĽáĪĺáĬķ": 3671,
      "ĠáĮ¢áĪŀ": 3672,
      "ĠáīłáĪŀ": 3673,
      "áĪĺáĬĲ": 3674,
      "áīłáĭĭáĪį": 3675,
      "ĠáĬ¥áĬĵáĭ°áĪŃáĮĭáĪĪáĬķ": 3676,
      "áīĢáĭĭáĪį": 3677,
      "Ġáĭ¨áĪ°áĮł": 3678,
      "ĠáīłáĬĲáįĥ": 3679,
      "Ġáĭ«áĭ°áĪ¨áĮĪ": 3680,
      "ĠáĪįáĪĿ": 3681,
      "áĭĪáīħáī±": 3682,
      "ĠáĮįáĭĽáīµ": 3683,
      "ĠáīłáĪĺáĪĭáĭį": 3684,
      "ĠáįįáĮ¥áĬĲáīµ": 3685,
      "ĠáīłáĪĽáĭŃ": 3686,
      "Ġáĭ¨áī¤áī°áĪ°áī¥": 3687,
      "ĠáĭŃáĪ°áĪ«áĪį": 3688,
      "ĠáĭŃáĪĺáĪĪ": 3689,
      "áĪĺáĬĵáĭĬ": 3690,
      "áīĢáīłáĪį": 3691,
      "áĭĭáĭĪ": 3692,
      "ĠáĬ¥áĪŃáĮįáĮ¥": 3693,
      "áĮĪáĬĵáĬĿ": 3694,
      "ĠáĪ°áĬłáī³áīµ": 3695,
      "áĭ³áĭį": 3696,
      "Ġáĭ°áĬķ": 3697,
      "áĮİáīµ": 3698,
      "ĠáĪįáĭ©áĬĲáīµ": 3699,
      "Ġáīłáī°áĪĺáĪ³áĪ³áĭŃ": 3700,
      "áĪŃáĪĽ": 3701,
      "áīĭáĪ¨áĮ¥": 3702,
      "áĮģáĬķ": 3703,
      "áĬĲáīłáĪ©": 3704,
      "ĠáĬŃáįįáĪĪ": 3705,
      "ĠáĬ¥áĬķáĭµáĬĵ": 3706,
      "áĪĭáĪĪáĪģ": 3707,
      "Ġáĭ¨áĬłáī£": 3708,
      "ĠáīłáĪļáĮĪáĬĺáĭį": 3709,
      "Ġáī£áĪĪáĪĻáĭ«áĭİáī½": 3710,
      "ĠáĪĺáĮ¡": 3711,
      "ĠáīłáĬłáĬķáī°": 3712,
      "áĪ¨áĮĭáĮĪáĮ«": 3713,
      "áĪŃáĭ±": 3714,
      "ĠáĬ¥áĬķáĭ°áĪĿáĬķ": 3715,
      "áĪĬáĬŃ": 3716,
      "ĠáĬłáįĪáįĥáįĢ": 3717,
      "Ġáī£áĪīáīµ": 3718,
      "ĠáĭŃáĬĵáĮĪáĪ«áĪį": 3719,
      "ĠáĭŃáĭĺáĭį": 3720,
      "ĠáĬłáĪĭáĭį": 3721,
      "ĠáĬłáĭµáĪŃáĮĮ": 3722,
      "ĠáĬłáĪµáī°áĭĭáįħáĬ¦": 3723,
      "ĠáĪĽáĪħáīłáĪ¨áĪ°áī¥": 3724,
      "áĮłáī¢áĭ«": 3725,
      "áĮĭáĭį": 3726,
      "áĭ¨áĬķ": 3727,
      "áĪ¸áīµ": 3728,
      "Ġáīłáĭ¨áīĢáĬĳ": 3729,
      "ĠáīłáīħáĪŃáī¥": 3730,
      "ĠáĪħáĭĿáī¡áĬķ": 3731,
      "Ġáī¥áĪĦáĪ«áīµ": 3732,
      "áĪ¨áĮį": 3733,
      "ĠáīłáĬ¥áĮįáĭļáĬłáī¥áĪĦáĪŃ": 3734,
      "áĪįáĬ¥": 3735,
      "ĠáĬ¥áĮįáĭļáĬłáī¥áĪĦáĪŃáĪĿ": 3736,
      "ĠáīłáīµáĬķ": 3737,
      "áĮĭáī¸áĭį": 3738,
      "áĬ«áĬķ": 3739,
      "ĠáĭĭáĪµáīµáĬĵ": 3740,
      "áĪĺáĪµáĪ¨áīµ": 3741,
      "Ġáĭ¨áī¥áĪŃ": 3742,
      "áĮĭáĮł": 3743,
      "áĪ»áĪį": 3744,
      "ĠáĬłáĬ«áĪĭáīµ": 3745,
      "áĬ¨áī³áī°áĪį": 3746,
      "Ġáī¥áĭĻáĭİáī½": 3747,
      "áĮĵáĮĵ": 3748,
      "ĠáĮİáĭ³áĬĵ": 3749,
      "áĪĭáĪĽ": 3750,
      "ĠáĬ¨áĬķ": 3751,
      "ĠáĬłáĭµáĪŃáĮį": 3752,
      "áĬķáĭĪ": 3753,
      "áĬĲáĭļáĭ«": 3754,
      "ĠáĭµáĪį": 3755,
      "ĠáĭĪáĪ¨áīĢáīµ": 3756,
      "ĠáĭĪáĮĪáĬĸáī½": 3757,
      "ĠáīłáĬ¥áĪ³áīµ": 3758,
      "áĬ®áīµ": 3759,
      "ĠáĪĽáĪħáīłáĪ«áĭĬ": 3760,
      "Ġáĭ«áĮĪáĬĽáĪī": 3761,
      "áĭ³áīłáĪŃ": 3762,
      "ĠáĬłáĬķáĭ³áĬķáĭ¶áī¹": 3763,
      "ĠáįķáĪ¬áĭļ": 3764,
      "áĭ«áĭ£": 3765,
      "ĠáĪĪáĬ¥áĬĽ": 3766,
      "ĠáĬ¨áĪĨáĬĳ": 3767,
      "áĮłáĬķáīĢ": 3768,
      "ĠáĪĿáĪŃáī¶áī½": 3769,
      "ĠáĪĻáĪ´áĬķ": 3770,
      "Ġáĭ¨áĮĭ": 3771,
      "ĠáĬłáĬķáĭ³áĬķáĭ¶áī½": 3772,
      "áĬĲáīĢ": 3773,
      "ĠáĬłáīħáĪĿ": 3774,
      "ĠáĮħ": 3775,
      "áĪĪáīĨ": 3776,
      "áĭ«áĪħ": 3777,
      "áĮįáīłáĪªáĭ«": 3778,
      "áī£áĪĪ": 3779,
      "ĠáĮĪáī¢": 3780,
      "áĮĬáĭľáĭį": 3781,
      "ĠáĪ¾": 3782,
      "ĠáĬ¥áĬķáĪĺáĪįáĬ¨áīµ": 3783,
      "áīģáĬķ": 3784,
      "áī£áĪª": 3785,
      "ĠáĪĿáīµ": 3786,
      "ĠáĪĿáĪµáĪ«áīħ": 3787,
      "áī³áĬĿ": 3788,
      "ĠáĮ¥áīł": 3789,
      "Ġáĭ°áĬķáī¥": 3790,
      "ĠáĪĿáĬŃáĬķáĭ«áī¶áī½": 3791,
      "áī¥áīħ": 3792,
      "Ġáĭ«áĭ°áĪ¨": 3793,
      "áīĥáĭŃ": 3794,
      "áĮĢáĬķáĪ²": 3795,
      "ĠáĬłáĭįáĮ¥": 3796,
      "ĠáīµáĬķáī¢áīµ": 3797,
      "ĠáīłáĪ¶": 3798,
      "ĠáĪĺáįħ": 3799,
      "ĠáĪĨáĬĵ": 3800,
      "áĪĺáĬķáīµ": 3801,
      "ĠáĬłáīĭ": 3802,
      "áĭİáī½áĬĵ": 3803,
      "ĠáĪĪáĪĺáĮłáīĢáĪĿ": 3804,
      "áĬ¤áĪĿ": 3805,
      "Ġáĭ¨áĪļáĭ«áĭį": 3806,
      "áĬ¨áī°áĪĪáĭį": 3807,
      "ĠáĬłáĮŃáĪŃ": 3808,
      "Ġáĭ³áĬķ": 3809,
      "ĠáĭŃáĬĸáĪŃáī¥áĬĵáĪį": 3810,
      "áīµáĪį": 3811,
      "áĪ³áĬ«": 3812,
      "áĭ«áĭ«áĭĻ": 3813,
      "ĠáĬłáĭĭáīĤ": 3814,
      "ĠáĪĿáĬŀ": 3815,
      "ĠáĪĪáĬ¥áĪ±": 3816,
      "Ġáī¡áĭµáĬĸáī½": 3817,
      "áĭŃáĭĿ": 3818,
      "ĠáĪĪáĬ¢": 3819,
      "Ġáĭ¨áĬłáĬ«áī£áī¢": 3820,
      "Ġáĭ¨áĬ¥áĪŃáĪµáĭİ": 3821,
      "áĪĭáīĤ": 3822,
      "áī¶áī»áī½áĬķ": 3823,
      "ĠáīłáĬ¥áĬĲáĪ±": 3824,
      "áĬķáĬ©": 3825,
      "ĠáīłáĬ¨": 3826,
      "Ġáĭ«áĭĺ": 3827,
      "áĬ«áĭŃ": 3828,
      "ĠáīłáĬ¥áĭ«áĬķáĭ³áĬķáĭ±": 3829,
      "áĮĪáĪĪáĮįáĪį": 3830,
      "áīĢáĮ¥áĪį": 3831,
      "áĪĭáī¸áĭĭáĪį": 3832,
      "ĠáīĢáĭµáĪŀ": 3833,
      "ĠáīłáĬ¥áĬĵáĬķáī°": 3834,
      "Ġáī°áĮ«áĭĭ": 3835,
      "Ġáĭ¨áįķáĪ®": 3836,
      "ĠáĬ¥áĬķáĭ°áĪĺ": 3837,
      "Ġáĭ¨áĪĿáĪŃ": 3838,
      "ĠáĬ¥áĪŃáĪ»": 3839,
      "ĠáĬ¢áĭ¨áĪ±áĪµáĪĿ": 3840,
      "áįĪáĪįáĮįáĪĿ": 3841,
      "áĪĺáĪĪáĬ¨áī°áĭį": 3842,
      "ĠáĪįáī³": 3843,
      "ĠáīģáĮ£": 3844,
      "áĪĺáĮ£áĭį": 3845,
      "ĠáĭŃáĪĺáĪµáĪĪáĬĽáĪį": 3846,
      "áĭŃáĬĵáĬķáĪµ": 3847,
      "Ġáĭ¨áįĬ": 3848,
      "áįķáĪĭ": 3849,
      "áĭįáĪ®áįĵ": 3850,
      "Ġáĭ«áĪ¨áĮĭáĮįáĮ¡": 3851,
      "áĪĪáĮĭ": 3852,
      "áĬĲáĮĪáĪŃ": 3853,
      "áĬłáĭĽ": 3854,
      "ĠáĪĻáĬ¨áĪ«": 3855,
      "ĠáĬ®áĪļáī´": 3856,
      "Ġáīłáī¦": 3857,
      "ĠáĬłáĪ¨": 3858,
      "ĠáĪĪáĪĢ": 3859,
      "áĬłáĪĪáĪģ": 3860,
      "áīĢáĪ¨áīł": 3861,
      "ĠáĪĽáĬ¥áĬ¨áĪį": 3862,
      "ĠáĪµáī¥áĪµáī¥": 3863,
      "Ġáĭ¨áī»": 3864,
      "ĠáĬłáĬķáĭµáĪĿ": 3865,
      "áĬĵáī¥": 3866,
      "áĮĪáĭ±": 3867,
      "Ġáī¥áĭĽáīµ": 3868,
      "áĮĢáĪĿáĪŃ": 3869,
      "ĠáĭŃáīħáĪŃáī³": 3870,
      "ĠáĬłáĪĬáĭ«áĪĿ": 3871,
      "áī¶áī¹áĬķ": 3872,
      "ĠáĬ¥áĬķáĭ²áĪĨáĬĳ": 3873,
      "ĠáĬłáĪĭáĭįáīħáĪĿ": 3874,
      "áĪįáĭ«": 3875,
      "áī°áĬĿáĬĲáīµ": 3876,
      "áĪĬáĬĵ": 3877,
      "ĠáĬ¨áĬ¥áĬķáĮį": 3878,
      "ĠáĭŃáĪģáĭ³": 3879,
      "áĬ³áī¸áĭį": 3880,
      "áĪĺáĪįáĬ¨": 3881,
      "áĬŃáĪįáīµ": 3882,
      "Ġáĭ¨áĪ¶": 3883,
      "áĪĭáĪ³": 3884,
      "ĠáĪĪáįĬáīµ": 3885,
      "ĠáĮ¥áīģáĪŃ": 3886,
      "áįĪáĪĪáĮĪ": 3887,
      "ĠáĬłáĪ°áĪ«áĪŃ": 3888,
      "áĪĭáĪįáīħ": 3889,
      "áĮĨáī¹": 3890,
      "Ġáĭ¨áĪ®": 3891,
      "áī£áĪĪáĭį": 3892,
      "Ġáĭ«áĭ°áĪ¨áĮĪáĭį": 3893,
      "áĭĺáī°": 3894,
      "Ġáī£áĪĪáįīáīµ": 3895,
      "Ġáĭ«áĭ°áĪŃáĮĪáĭĭáĪį": 3896,
      "ĠáīłáĪŃáĪµ": 3897,
      "ĠáĬłáī¶": 3898,
      "ĠáĪĻáĭļáīĥ": 3899,
      "ĠáĪļáĭ²áĭ«": 3900,
      "Ġáī°áĮłáĭ«áīĤ": 3901,
      "ĠáĪļáĬĴáĪµáī´": 3902,
      "ĠáĬ¥áĬķáĭ³áĭ«": 3903,
      "áįĴáī³áĪį": 3904,
      "ĠáĬķáĮįáĮįáĪŃ": 3905,
      "ĠáĬłáĭ«áĭį": 3906,
      "ĠáĬłáī¥áĪŃáĪĢáĪĿ": 3907,
      "áĪ¨áĬĽ": 3908,
      "ĠáĪ°áī£": 3909,
      "Ġáĭ¨áĪļáĭ«áĭ°áĪŃáĮį": 3910,
      "ĠáĪĽáī³": 3911,
      "ĠáĪĨáĬĳ": 3912,
      "áĪ¹áĪ«áĬķáĪµ": 3913,
      "áĬľ": 3914,
      "ĠáīĤ": 3915,
      "Ġáĭ¨áĪ«áĪµ": 3916,
      "ĠáīłáĬłáĪµ": 3917,
      "Ġáĭ¨áĪĽáĪµ": 3918,
      "Ġáĭ¨áī¡": 3919,
      "ĠáĬ¥áĬĵáīµ": 3920,
      "áī½áĪģáĪĿ": 3921,
      "ĠáīłáĬ¦": 3922,
      "áīĢáĪŃáĪĿ": 3923,
      "ĠáĪĽáĪµáī³áĭĪáĪ»": 3924,
      "ĠáĬłáĬĵ": 3925,
      "áĪĪáĬĿ": 3926,
      "ĠáĪĺáĬĵáĮĪáĪŃ": 3927,
      "Ġáĭ¨áī°áĪŀáĪĭ": 3928,
      "áĮħáĬĲáīµ": 3929,
      "ĠáĭµáĪŃáĪ»": 3930,
      "Ġáĭ¨áįĸáĪĪáī²áĬ«": 3931,
      "áĬķáĪ°áĪŃ": 3932,
      "áĪ³áĬĿ": 3933,
      "ĠáĪħáĭ«áĭį": 3934,
      "ĠáĬłáĪĺáī±": 3935,
      "áįįáĪŃ": 3936,
      "Ġáī°áĭ°áĪŃ": 3937,
      "áī½áĭįáĬķ": 3938,
      "áĬŃáĬķ": 3939,
      "ĠáĪ°áĮª": 3940,
      "áĮĢáĪĺáĪ¨": 3941,
      "ĠáĬ¥áĬķáĭ²áĪħáĪĿ": 3942,
      "ĠáĬ¨áĪŀáīµ": 3943,
      "áĪĽáĪ¨": 3944,
      "Ġáĭ¨áĪĿáĪŃáīµ": 3945,
      "ĠáĬłáĪįáī»": 3946,
      "Ġáī°áĬĵáĮįáĪ¨áĭĭáĪį": 3947,
      "Ġáīłáīħ": 3948,
      "áĭİáī»áī¸áĭį": 3949,
      "ĠáĭįáĮª": 3950,
      "áĭĮáĪŃ": 3951,
      "áĪĽáĪ©": 3952,
      "Ġáī°áīĨ": 3953,
      "áĪĨáĬĵáī¸áĭį": 3954,
      "áĪĭáĪĪáįį": 3955,
      "ĠáĭįáĭŃáĭŃáīµ": 3956,
      "ĠáīłáĪ´": 3957,
      "ĠáīłáĪĿáĬķ": 3958,
      "áĮĪáĭĻ": 3959,
      "áįĥáįĪ": 3960,
      "ĠáĬłáī¥áĭĽáĬŀáī¹": 3961,
      "ĠáīµáĪįáīģ": 3962,
      "ĠáĪ²áĪĨáĬĳ": 3963,
      "ĠáĪĮáĪĬáīµ": 3964,
      "áĬķáįĢ": 3965,
      "ĠáĪĺáĬĵ": 3966,
      "áĭµáĬĵ": 3967,
      "ĠáĭĪáĭĺáī°": 3968,
      "ĠáįĬáĪįáĪĿ": 3969,
      "ĠáīłáĪĺáĪµáĪĺáĪŃ": 3970,
      "ĠáĬłáĪµáīĢáĭµáĪŀ": 3971,
      "Ġáĭ¨áĮĪáī£": 3972,
      "ĠáīłáĭĪáīħáī±": 3973,
      "áĪ«áīµáĬķ": 3974,
      "áĭĺáĪ¨": 3975,
      "Ġáĭ¨áĪĺáĬªáĬĵ": 3976,
      "ĠáĬłáĮĪáĪįáĮįáĪİáī¶áī½": 3977,
      "áĪĪáīħ": 3978,
      "ĠáĬ¨áĭĭ": 3979,
      "Ġáĭ¨áĪļáĮĪáĬĿ": 3980,
      "ĠáĪĺáĮįáī¢áĭ«": 3981,
      "áĮ´áĭĽ": 3982,
      "áĪįáī£": 3983,
      "ĠáīłáĭĿ": 3984,
      "ĠáĪħáĮĪ": 3985,
      "ĠáīłáĮ¨": 3986,
      "ĠáĬłáĮłáīĥ": 3987,
      "áĭ²áīµ": 3988,
      "ĠáĪĽáĪ³áĭ¨áīµ": 3989,
      "Ġáīłáī¤": 3990,
      "áĬ¨áĪĿ": 3991,
      "ĠáĬ¥áĬķáĪµáĪ³áīµ": 3992,
      "ĠáīĢáĪĪ": 3993,
      "ĠáĮĪáĪĪ": 3994,
      "ĠáĬ¥áĬĲáĪŃáĪ±": 3995,
      "Ġáīłáĭ°áĪµáī³": 3996,
      "áĭŁáĪį": 3997,
      "ĠáĪĢáĭĭáĪŃáĭ«áĭį": 3998,
      "Ġáĭ¨áįĵ": 3999,
      "ĠáĬłáĭ²áĪ±": 4000,
      "áĪ°áĪĻ": 4001,
      "áįįáī³": 4002,
      "áĬ¨áĪ©": 4003,
      "ĠáįĪáĪ¨": 4004,
      "ĠáĬ¥áĪ·áĪĿ": 4005,
      "Ġáī£áĪĪáĪµáĪįáĮ£áĬķ": 4006,
      "Ġáĭ¨áīħ": 4007,
      "Ġáīłáī¤áīµ": 4008,
      "ĠáĬłáĮįáī£áī¥": 4009,
      "áī°áĪĿ": 4010,
      "ĠáĬ¥áī£áĬŃáĪħ": 4011,
      "áĪĪáīĢ": 4012,
      "áĪĪáĬĵáĪį": 4013,
      "ĠáĬ¨áĪģáĪīáĪĿ": 4014,
      "ĠáĮ¥áĪª": 4015,
      "ĠáīłáĬłáĭŃ": 4016,
      "ĠáĬ«áĪįáĪĨáĬĲ": 4017,
      "ĠáĪĺáĭ³": 4018,
      "ĠáĭŃáī°": 4019,
      "áĪ³áĬ¤": 4020,
      "ĠáĪĽáīĨ": 4021,
      "ĠáįįáįĥáĪľ": 4022,
      "áĭ°áĬŀáī½": 4023,
      "Ġáī¥áĪ©": 4024,
      "áĬĸáĪ©áīµ": 4025,
      "Ġáīħáĭ±áĪ³áĬķ": 4026,
      "ĠáĪ°áĪĽáĭŃ": 4027,
      "áĪĪáī±": 4028,
      "áĪªáĪµ": 4029,
      "ĠáĪĽáĪ¨áĮĭáĮĪáĮ«": 4030,
      "Ġáī¥áĪ«": 4031,
      "áĪ³áĭŃáĭ«áĪµ": 4032,
      "Ġáĭ¨áĪĨáĬĳáīµáĬķ": 4033,
      "ĠáĪľáīµáĪŃ": 4034,
      "áĭİáī»áī½áĬķ": 4035,
      "ĠáīłáĬłáī¥áĭĽ": 4036,
      "áĪĺáĪĪáĪ°": 4037,
      "Ġáĭ¨áīĢáĪ¨": 4038,
      "ĠáĪĺáĭįáĪ°áĭµ": 4039,
      "Ġáī°áĬ¨áī³áī³áĭŃ": 4040,
      "áī»áī½áĪģáĬķ": 4041,
      "Ġáįįáīħ": 4042,
      "áĮłáī¥áīħ": 4043,
      "ĠáĬłáĬĲáĪµáī°áĬĽ": 4044,
      "ĠáĬŃáĪĬ": 4045,
      "ĠáĪĺáĭĽáĪĻáĪŃáī±": 4046,
      "Ġáĭ¨áī¢": 4047,
      "áĪĺáī»": 4048,
      "ĠáĬ¥áĬķáĭ°áĪĨáĬķ": 4049,
      "Ġáīħáįħ": 4050,
      "áĮĪáĬĵáĬĺ": 4051,
      "ĠáĭĪáī³áĭ°áĪ«áĭĬ": 4052,
      "áĪ³áĪĪáĪģ": 4053,
      "ĠáĪĪáĪĺáĪĪ": 4054,
      "áĭ°áĮĭáĮĭáĪļ": 4055,
      "ĠáĪľáĭ³": 4056,
      "ĠáĪĪáīĢ": 4057,
      "ĠáĪĪáĪĺáįįáĮłáĪŃ": 4058,
      "ĠáĪļáĭĽ": 4059,
      "ĠáĬķáĭµáįį": 4060,
      "áĬķáĬĲáīµ": 4061,
      "ĠáĭŃáĮĢ": 4062,
      "ĠáĬĲáīł": 4063,
      "Ġáī°áĮłáīĥáĪļ": 4064,
      "ĠáĪĪáĪĺáĪĿ": 4065,
      "ĠáĪĪáĪĽáĬķáĬĽáĭįáĪĿ": 4066,
      "áĪĬáĪµ": 4067,
      "Ġáĭ«áĮĪáĬĺ": 4068,
      "ĠáĮįáī¥áĪŃ": 4069,
      "Ġáīłáī°áī»áĪĪ": 4070,
      "ĠáĭĪáĪ°áĬķ": 4071,
      "ĠáĬłáĭŃáĮĪáī£": 4072,
      "ĠáĬ¥áĬķáĭ³áĪįáĪĨáĬĲ": 4073,
      "Ġáĭ¨áĪĭáīĢ": 4074,
      "ĠáīµáĪĨáĬĵ": 4075,
      "ĠáįĭáĭŃ": 4076,
      "ĠáĭĪáī³áĭ°áĪ®áī½": 4077,
      "áĬĲáĬĽ": 4078,
      "áĮįáĪ©": 4079,
      "áĪ®áĪµ": 4080,
      "ĠáĬłáĪĪáī¥áĬĿ": 4081,
      "ĠáĬłáĪµáī°áĪ³áĪ°áī¥": 4082,
      "ĠáĮĪáĭ°áĪĽ": 4083,
      "áĮĪáĪĪáĮįáĪī": 4084,
      "áĪĿáįĴáĭį": 4085,
      "ĠáĬ¥áĪ¨áįįáīµ": 4086,
      "ĠáĬ¨áĬ¤": 4087,
      "Ġáī°áĮĭ": 4088,
      "áĭĭáĪĿ": 4089,
      "ĠáĬłáĪĪáīĨáī½": 4090,
      "Ġáĭ«áĪįáĪĨáĬĳ": 4091,
      "Ġáĭ«áĭįáīĥáĪį": 4092,
      "Ġáĭ¨áĬ©": 4093,
      "Ġáĭ¨áĮ¨": 4094,
      "Ġáĭ¨áĮįáī¥": 4095,
      "áī³áĪĪáī½": 4096,
      "Ġáī³áĭŃ": 4097,
      "ĠáīłáĪĨáĬĳ": 4098,
      "ĠáīłáīĢáĪŃ": 4099,
      "ĠáĬłáĭĺáĮĭáĮħ": 4100,
      "Ġáĭ¨áĪĿáĪµ": 4101,
      "áī§áĬķ": 4102,
      "ĠáīłáĪĺáĬķáįĪáĪµ": 4103,
      "ĠáĮįáĭ´áī³": 4104,
      "áĬĲáĭįáĬķ": 4105,
      "Ġáĭ¨áĪļáĪ°áĪĽ": 4106,
      "áī´áĪĮ": 4107,
      "áĬķáĭ°áĪŃ": 4108,
      "ĠáĬ¥áĬķáĮįáĭ³": 4109,
      "ĠáĬ¥áĬ©áĪį": 4110,
      "áĪĺáĭĭáĪį": 4111,
      "ĠáĪĽáĪ»áĪ»áĭ«": 4112,
      "ĠáĬ¨áī¤áīµ": 4113,
      "ĠáĪĽáīħáĪ¨áī¥": 4114,
      "ĠáĪµáĪĪáĪĨáĬĲáĪĿ": 4115,
      "ĠáĪĺáĪµáī°": 4116,
      "áī£áī½áĬķ": 4117,
      "ĠáĬ¥áĭ¨áĪ°áĪ«": 4118,
      "áĮĪáĬĵáĬĻ": 4119,
      "ĠáīµáĪŃáĬ¢": 4120,
      "áĮĩ": 4121,
      "áĭ«áĭŃ": 4122,
      "áĬĲáĬ«": 4123,
      "ĠáĬ¨áĪµáĪ«": 4124,
      "ĠáĬłáĪĭáīµ": 4125,
      "ĠáīłáĪĿáĭµ": 4126,
      "ĠáĪŃáīĢáīµ": 4127,
      "Ġáīłáįĸ": 4128,
      "ĠáĪµáĮĭáīµ": 4129,
      "áĬ¥áĭµ": 4130,
      "áĪĦáĭ³": 4131,
      "ĠáĬłáī¤áī±": 4132,
      "ĠáīµáĪĭ": 4133,
      "ĠáĪħáĬķáįĥ": 4134,
      "ĠáĬ¥áĭ¨áĮ¨": 4135,
      "áįĪáįĢáĪĻ": 4136,
      "ĠáĬĲáĮĪáĪµáī³áīµ": 4137,
      "Ġáī°áĪĺáĪįáĬ«": 4138,
      "ĠáĬłáī¢": 4139,
      "ĠáĭŃáīĢáĮ¥": 4140,
      "áĭİáī½áĪĿ": 4141,
      "ĠáĬłáĬķáĭµáĬĲáīµ": 4142,
      "áįķáĪª": 4143,
      "Ġáīłáĭ°áĪį": 4144,
      "ĠáĬĲáīłáĪ¨áī½": 4145,
      "ĠáįķáĪ®áĮĢáĬŃáīµ": 4146,
      "Ġáĭ¨áĬ¥áĪ±": 4147,
      "ĠáīłáĪĺáĮĢáĪĺáĪªáĭ«áĭį": 4148,
      "Ġáĭ¨áĭ®": 4149,
      "ĠáĬłáĭŃáīĢáĪŃáĪĿ": 4150,
      "ĠáĬ¥áĬķáįĪáĪįáĮĭ": 4151,
      "áī¤áĬķ": 4152,
      "ĠáĪµáĪ«áĭįáĬķ": 4153,
      "Ġáī¥áĪĭáĪĪáī½": 4154,
      "ĠáĪĪáĪļáĭ«": 4155,
      "Ġáī¥áĪĪáĪħ": 4156,
      "ĠáĭĪáĭ°áĭļáĪħ": 4157,
      "áĭĺáĪĿ": 4158,
      "ĠáĬŃáĪħ": 4159,
      "ĠáĬķáīģ": 4160,
      "ĠáĪŀáĭ´": 4161,
      "ĠáĪĿáĪŃáĪĿáĪŃ": 4162,
      "ĠáĪĺáĪŃáĬ¨": 4163,
      "ĠáĪĿáĬĵáĪįáī£áīµáĪĿ": 4164,
      "ĠáīłáĪĺáĪµáĮłáīµ": 4165,
      "Ġáĭ¨áĪ²": 4166,
      "ĠáīłáĭŃáĪģáĭ³": 4167,
      "áĪ³áīģ": 4168,
      "áī²áĬķ": 4169,
      "ĠáĮłáĮħ": 4170,
      "Ġáĭ¨áĪĨ": 4171,
      "ĠáīĨáĪŃ": 4172,
      "ĠáĪŃáĪµáīµ": 4173,
      "Ġáī¤áī°áĪ°áī¦áī½": 4174,
      "ĠáĬ¥áĪ«áĪµ": 4175,
      "ĠáĪĢáĮĪáĪŃ": 4176,
      "áĪĭáī½áĪģáĪĿ": 4177,
      "ĠáįĢáĪİáīµ": 4178,
      "ĠáĪĢáĭŃáĪĪáĬĽ": 4179,
      "áĮłáĭŃáīħ": 4180,
      "áĬ«áĪĦáĭµ": 4181,
      "áĭĿáĮĪáī£": 4182,
      "áĬĴáĭį": 4183,
      "ĠáĬ¥áĬķáįĪáĪįáĮĭáĪĪáĬķ": 4184,
      "áĭįáĭį": 4185,
      "áĮ£áī±": 4186,
      "Ġáĭ¨áĪĽáĪµáī°": 4187,
      "ĠáīłáĪħáĮį": 4188,
      "ĠáĮŃáĬķáīĢáīµ": 4189,
      "ĠáĪĽáĪµáī°áĭĭáĪį": 4190,
      "ĠáĬłáĮ¥áī¥": 4191,
      "ĠáĬ¨áĮ¥áīĤáīµ": 4192,
      "áĪĮáĬŃáīµáĪªáĬŃ": 4193,
      "áĬ«áī°": 4194,
      "ĠáīµáĭįáĪįáĭµ": 4195,
      "ĠáĬ¥áĬķáĭ³áĪī": 4196,
      "ĠáĮīáī¥áĬĿ": 4197,
      "ĠáīłáįįáįģáĪĿ": 4198,
      "áĪŃáĪ»": 4199,
      "áĭĪáīģ": 4200,
      "Ġáĭ¨áĪļáī°": 4201,
      "ĠáĬĲáīłáĪ¨áĭį": 4202,
      "Ġáĭ¨áĪ¸": 4203,
      "ĠáĬ¨áī¤áī°": 4204,
      "ĠáĪĪáīµ": 4205,
      "áĮ¥áĪ©": 4206,
      "Ġáī°áĬ¨áīµ": 4207,
      "áįĢáĪį": 4208,
      "ĠáĪĺáĪĭáĬ¥": 4209,
      "ĠáįķáĪ®áĮĢáĬŃ": 4210,
      "ĠáĮłáī£áīĤ": 4211,
      "ĠáĪĪáĪ¨áĮħáĪĿ": 4212,
      "Ġáĭ°áĪ¨áĮĥáĭİáī½": 4213,
      "áīĢáĪĺáĮ«": 4214,
      "áįĨáī³": 4215,
      "ĠáĪħáįĥáĬĵáīµ": 4216,
      "ĠáĭĪáĬķ": 4217,
      "Ġáĭ¨áĪļáī½áĪĪáĭį": 4218,
      "áĬĿáī³": 4219,
      "ĠáĪŃáĭĿ": 4220,
      "áī£áĪĪáĬķ": 4221,
      "áīĢáĪŃáīłáĭį": 4222,
      "Ġáĭ¨áĬ¨": 4223,
      "áĪĪáĭŃ": 4224,
      "áĪĺáĭ±": 4225,
      "áĭĽáī¥": 4226,
      "áįĥáįĪáĭį": 4227,
      "Ġáĭ¨áĪĺáĪµáĪĺáĪŃ": 4228,
      "áĪĿáĪ¨áīµ": 4229,
      "ĠáĭŃáī£": 4230,
      "ĠáĭĺáĪĺáī»": 4231,
      "áįĪáĪįáĮĪáĭįáĬķ": 4232,
      "ĠáĪ³áĪĻáĬ¤áĪį": 4233,
      "áĪµáĪĿ": 4234,
      "ĠáĪĺáĪĢáĪį": 4235,
      "ĠáĪĺáįįáĮłáĪŃ": 4236,
      "ĠáĬĲáī½": 4237,
      "ĠáĭµáĬķáĮĭáĮĮ": 4238,
      "Ġáĭ³áĮįáĪĺáĬĽ": 4239,
      "Ġáīłáĭ°áĪ¨": 4240,
      "ĠáĪĭáĪĪ": 4241,
      "ĠáĪŀáī°": 4242,
      "ĠáĬ«áĪįáī°": 4243,
      "ĠáĪĪáĪĽáĮ¥": 4244,
      "áĬķáĬ¨áī£": 4245,
      "áī°áĬŀáī½áĬķ": 4246,
      "ĠáĭŃáĮĪáĪį": 4247,
      "áī£áī¥": 4248,
      "ĠáĪħáĮİáī½": 4249,
      "ĠáĬłáĬķáī°áĬķ": 4250,
      "ĠáĭŃáĪĨáĭĭáĬķ": 4251,
      "ĠáĮĭáĭľáĮ£": 4252,
      "Ġáĭ©áĬĴáī¨áĪŃáĪ²áī²": 4253,
      "Ġáĭ¨áĭ²": 4254,
      "áĪĭáīµáĬķ": 4255,
      "ĠáĭĪáĪŃáīħ": 4256,
      "ĠáīłáīĨ": 4257,
      "áī·áī¸áĭĭáĪį": 4258,
      "ĠáĭĪáĪ³áĬĿ": 4259,
      "Ġáĭ¨áĪļáĮĪáĬĺáĭįáĬķ": 4260,
      "ĠáĬłáĬķáĭµáĬķ": 4261,
      "áĬ®áĬķ": 4262,
      "ĠáĪĪáĬłáĬķáī°": 4263,
      "Ġáĭ¨áĭ°áĬķáīł": 4264,
      "Ġáĭ¨áĪ«áĪ³": 4265,
      "áĭĪáĪį": 4266,
      "áĪģáĪĿ": 4267,
      "Ġáĭ³áĭŃáĪ¬": 4268,
      "ĠáĪĺáĪ°áĭĬáĭ«": 4269,
      "ĠáĬ¨áįĪ": 4270,
      "áĭĽáĪį": 4271,
      "ĠáĪĢáĬª": 4272,
      "ĠáĪĬáĪ¨áĭ³": 4273,
      "ĠáĮĪáįĨáī½": 4274,
      "áĭįáīĥáĪī": 4275,
      "ĠáĪĪáĪĽáĬķ": 4276,
      "ĠáĮįáĬķáī£": 4277,
      "áĭ¥áĬķ": 4278,
      "áĪ°áĭĭáĪį": 4279,
      "ĠáĬŃáĪµ": 4280,
      "ĠáīłáĪĽáĪħ": 4281,
      "áįĲáĪŃ": 4282,
      "ĠáĬ¨áĪģáĪī": 4283,
      "ĠáĬłáĭµáĪŃáĮī": 4284,
      "ĠáĬłáĪµáī°áĭ«áĭ¨": 4285,
      "Ġáĭ¨áīģ": 4286,
      "áĪĭáĪĭ": 4287,
      "Ġáī£áĪįáĬķ": 4288,
      "Ġáĭ«áĭ°áĪŃáĮĭáĪī": 4289,
      "ĠáĪ²áī£áĪį": 4290,
      "áĪ¨áī³": 4291,
      "Ġáĭ¨áĪļáĪ¨áĭ³": 4292,
      "áįĭáĭĬ": 4293,
      "ĠáĭįáĭµáĭµáĪŃ": 4294,
      "áī¨áĪµáīµ": 4295,
      "Ġáĭ¨áĪįáī¥": 4296,
      "ĠáĪĺáĭĿáĪĻ": 4297,
      "ĠáĬ¢áĭ®áī¥": 4298,
      "ĠáĬ¥áĮįáĪŃ": 4299,
      "ĠáĪĺáīĥ": 4300,
      "áĪĽáĪĽáĬĿ": 4301,
      "ĠáĪĪáĭŃáĪĨáĭĭ": 4302,
      "áĮłáĬĿ": 4303,
      "Ġáĭ¨áĪļáĪĨáĬĳ": 4304,
      "ĠáĭµáĪħáĪ¨": 4305,
      "Ġáī³áĪµ": 4306,
      "ĠáĪ°áĭİáī½áĪĿ": 4307,
      "ĠáĪµáĪ«áĭİáī½áĬķ": 4308,
      "ĠáīĨáĪ®": 4309,
      "ĠáįĢáĮĭ": 4310,
      "ĠáĪĿáĬŃáĬķáĭ«áī³áĭĬ": 4311,
      "áĬĲáīłáĪ¨áīłáīµ": 4312,
      "ĠáĪĺáī°áĮįáīłáĪªáĭ«": 4313,
      "ĠáĭµáĬķáĮĭáĭŃ": 4314,
      "Ġáĭ«áĬ«áīµáī³áĪį": 4315,
      "ĠáĪµáĬ¬": 4316,
      "áĭĪáĭĿ": 4317,
      "Ġáī¥áĪİáĮį": 4318,
      "Ġáī°áĬĲáĪµáī¶": 4319,
      "áĪµáĪĢ": 4320,
      "áĪħáĬķáĪĿ": 4321,
      "Ġáĭ¨áī°áĪ°áĮł": 4322,
      "Ġáĭ¨áĬłáĪµáī°": 4323,
      "áī´áĭİáĪµ": 4324,
      "áĮĪáĪ°": 4325,
      "Ġáī°áīĨáĮ£": 4326,
      "Ġáĭ°áī¡áī¥": 4327,
      "ĠáĭĿáĪĿ": 4328,
      "ĠáĬłáĭŃáĪĨáĬķáĪĿ": 4329,
      "ĠáĬłáī¥áĪ®": 4330,
      "ĠáĪĺáĮįáĭĽáīµ": 4331,
      "Ġáĭ¨áī°áĭĪáĪ°áĬĳ": 4332,
      "áĬ¨áī°áĪīáīµ": 4333,
      "áī£áī¸áĭįáĪĿ": 4334,
      "ĠáĪŀáĮĪáĪµ": 4335,
      "ĠáĭŃáįĪáĪįáĮĭáĪį": 4336,
      "ĠáĪĿáĬ¥áĪ«áįį": 4337,
      "Ġáī£áĪįáĬķáĮĢ": 4338,
      "ĠáĬłáīĭáĪĿ": 4339,
      "ĠáĬ¨áĪŀ": 4340,
      "ĠáĪĽáĪ«": 4341,
      "áĬĶáĬķ": 4342,
      "áīłáīµáĬĵ": 4343,
      "ĠáĬłáĪµáī£áĪĪáĪģ": 4344,
      "ĠáĬłáĪįáī£": 4345,
      "áĬĵáĮĪáĪ©áīµ": 4346,
      "ĠáĪıáĪĭáĭĬáĭį": 4347,
      "áĬķáī³áĭĬ": 4348,
      "áī½áĪĿ": 4349,
      "ĠáĮĬ": 4350,
      "áĪĭáĬŃ": 4351,
      "ĠáĭĺáĮį": 4352,
      "áīĨáĮ£áĮł": 4353,
      "ĠáĭŃáĭĺáīµ": 4354,
      "ĠáĬ«áĪħáĬĵáīµ": 4355,
      "ĠáĬłáīĥ": 4356,
      "ĠáĬ®áĪŃ": 4357,
      "ĠáĪĺáįħáĪĦ": 4358,
      "Ġáĭ¨áĭµáĬķ": 4359,
      "áĪĪáī³áĪį": 4360,
      "ĠáĭĪáĬķáĭĿ": 4361,
      "ĠáĭĪáĭ°áĭļáĭ«": 4362,
      "ĠáĬ¢áĪ³áĭŃáĭ«áĪµ": 4363,
      "áĪµáī³áĭĪáĪµ": 4364,
      "ĠáĬ¢áĭ¨áĪ±áĪµáĬķ": 4365,
      "áĭĪáĪ¨": 4366,
      "ĠáĮĪáĬķáĭĺ": 4367,
      "Ġáīłáī°áįĪ": 4368,
      "áĪ°áĪ«áĭį": 4369,
      "Ġáĭ¨áĪĮáĪĪáĭį": 4370,
      "áĮłáĬķáīĢáīĤáĭ«": 4371,
      "áĬķáīłáīµ": 4372,
      "áī¦áī¹": 4373,
      "ĠáĬłáĭµáĪ«áĪ»": 4374,
      "ĠáĪĺáĪ¨áĭ³áīµ": 4375,
      "ĠáĬĲáĮĭ": 4376,
      "Ġáĭ«áĭįáīĥáĪī": 4377,
      "ĠáĪ³áĬ¦áĪį": 4378,
      "ĠáīĢáĪµ": 4379,
      "áĮĪáĬĺáīµ": 4380,
      "Ġáĭ¨áīĢáĪ¨áīł": 4381,
      "Ġáĭ«áĭĪáĮ£": 4382,
      "Ġáĭ«áĬĲáĪ°": 4383,
      "ĠáīĢáĬĵ": 4384,
      "ĠáīłáĪĽáĪ³": 4385,
      "áĬĲáī¥": 4386,
      "áī³áĪĪáĬķ": 4387,
      "Ġáī°áĬ¨": 4388,
      "áĭ³áĭŃ": 4389,
      "ĠáĮĬáĭľáĭį": 4390,
      "áī¡áĪŃ": 4391,
      "áĮ¨áĪĿáĪŃ": 4392,
      "ĠáīłáĭįáĪĢ": 4393,
      "ĠáīħáĪŃáĬķáĮ«": 4394,
      "ĠáĬ¨áĬ¥áĬķáĮįáĭ²áĪħ": 4395,
      "ĠáĬĶ": 4396,
      "ĠáĭįáĪµ": 4397,
      "ĠáīµáĪ«": 4398,
      "áĭĺáĭĻ": 4399,
      "ĠáĬ¥áĬķáĭ³áīµ": 4400,
      "ĠáĪļáĪµáĮ¥": 4401,
      "Ġáĭ¨áĮİáĭ°": 4402,
      "áĪŃáĪĿáĭ«áĪµ": 4403,
      "Ġáĭ¨áĭ«áĭĺ": 4404,
      "áĭįáĪŀ": 4405,
      "Ġáĭ¨áĮĭáĪ«": 4406,
      "ĠáĬ¨áĪģáĪĪáīµ": 4407,
      "áĬŃáĪ®": 4408,
      "Ġáĭ°áĪħáĬķ": 4409,
      "ĠáīłáĬ¢áīµáĭ®áĮµáĭ«": 4410,
      "ĠáĪĽáī´áĭİáĪµ": 4411,
      "ĠáĪĽáĪ°áī¥": 4412,
      "ĠáĪĺáĪĺáĪªáĭ«áĭİáī½": 4413,
      "Ġáĭ¨áĪļáĬ¨áī°áĪīáīµáĬķ": 4414,
      "ĠáĪµáĪŃáĬłáī¶áī½": 4415,
      "ĠáĮ¥áĪŃáĮ¥áĪŃ": 4416,
      "ĠáĪĿáĪħáĪ¨áīµ": 4417,
      "ĠáĪĭáĪĪáĭį": 4418,
      "áĭĿáīĥ": 4419,
      "áĪ½áĬĳ": 4420,
      "áĬ¨áī°áĪī": 4421,
      "áĬĵáĬķáĪ½": 4422,
      "áĭ°áĪ°áī±": 4423,
      "áĪįáĪħ": 4424,
      "áįĬáĬŃ": 4425,
      "ĠáĪģáĪīáĬķ": 4426,
      "ĠáĪĺáĪįáĬłáĬŃ": 4427,
      "áĬķáī¶": 4428,
      "áĭŃáĪĽáĬĸ": 4429,
      "Ġáĭ¨áĪļáĪ°áĮłáĭį": 4430,
      "Ġáĭ¨áĪĺáĬķáĮį": 4431,
      "ĠáĬłáĭİáĬķ": 4432,
      "ĠáĬŃáĬķ": 4433,
      "ĠáĬ¤áĮĢáĬķáĪ²": 4434,
      "ĠáĬ¥áĬĽáĬķ": 4435,
      "ĠáĬłáĬ«áī£áī¢áĭİáī½": 4436,
      "áĪ¨áĬķáĪ³áĭŃ": 4437,
      "áĪĪáĪ½": 4438,
      "áĭĪáĭ«": 4439,
      "ĠáĪĢáĭ«": 4440,
      "ĠáīłáĪ²": 4441,
      "ĠáĬłáī¥áĭĽáĬĽáĭįáĬķ": 4442,
      "áīłáĪŃáĬ«áī³": 4443,
      "áįĭáĪī": 4444,
      "áĭ«áĭįáīħ": 4445,
      "ĠáĬłáĭµáĬĵ": 4446,
      "áī£áĭŃáĪį": 4447,
      "Ġáī£áĪħáĪį": 4448,
      "ĠáĪĪáĬ¥áĬĲáĪ±": 4449,
      "ĠáĪĿáĪµáĮĭáĬĵ": 4450,
      "ĠáĬ¥áįħ": 4451,
      "ĠáĪħáĪĬáĬĵ": 4452,
      "áī£áĭį": 4453,
      "ĠáĪĺáĬ¨áĪĭáĬ¨áĭ«": 4454,
      "áĭ°áī¥": 4455,
      "ĠáĮįáĪ©áĪĿ": 4456,
      "ĠáĬłáī£áī´": 4457,
      "áīĢáīłáĪī": 4458,
      "ĠáĭĪáĪµáĭ¶": 4459,
      "áĬĵáįĬ": 4460,
      "áĮĪáĪįáĮĪ": 4461,
      "ĠáįĪáĮłáĪ«": 4462,
      "Ġáĭ«áĪĪáįĪ": 4463,
      "Ġáĭ«áĪµáī½": 4464,
      "ĠáīłáĬ¥áĪŃáĪ±": 4465,
      "áīĢáĪĺáĮ¡": 4466,
      "áĪĭáī½áĬĭáĪĪáĪģ": 4467,
      "Ġáĭ¨áĪļáĪ°áĮ¥": 4468,
      "áĭ°áĭįáĪī": 4469,
      "ĠáĬłáĪĿáĪįáĬ®": 4470,
      "ĠáĪĺáĪŃáĭ³áīµ": 4471,
      "ĠáĭŃáĮ¨áĪĿáĪ«áĪį": 4472,
      "ĠáĮĬáĭľáĭ«áīµ": 4473,
      "áĭ©áĪĿ": 4474,
      "ĠáīħáĮĤ": 4475,
      "ĠáīłáĪĽáĮį": 4476,
      "ĠáĬłáĪĿáĪĭáĬŃáĪħ": 4477,
      "ĠáĮ¨áĪŃ": 4478,
      "Ġáĭ¨áĬ¢áĬķ": 4479,
      "áĮłáīłáīģ": 4480,
      "ĠáĪĿáĪįáĬŃáī¶áī½": 4481,
      "áĪŃáĪĺáĬķ": 4482,
      "ĠáĪĺáĪ¬": 4483,
      "áīłáĪī": 4484,
      "áĭĪáĪ°áĭ°": 4485,
      "Ġáĭ¨áĪ°áĪ«áĭĬáīµ": 4486,
      "áĬ«áĪĦáĭ°áĭį": 4487,
      "áĭŃáī±": 4488,
      "Ġáī¤áī°áĪ°": 4489,
      "áĬŀáī»áī½áĬķ": 4490,
      "Ġáĭ«áĪĪáīłáīµ": 4491,
      "ĠáĮĢáĪŃáī£": 4492,
      "Ġáī°áīĢáī¥": 4493,
      "áįĪáĬĲ": 4494,
      "ĠáĪĮáĭĭ": 4495,
      "áĪįáĬĵáĪį": 4496,
      "Ġáĭ«áĬĲáĪ³": 4497,
      "áĪªáī±áĬķ": 4498,
      "ĠáĬ¨áĬ¥áĪŃáĪ±": 4499,
      "ĠáĬ¥áĪŃáĪµáĭİáĬķ": 4500,
      "ĠáĬłáĭŃáĪģáĭ³áĭįáĭ«áĬķ": 4501,
      "áĬłáĬķ": 4502,
      "áĭĽáī¸áĭį": 4503,
      "ĠáĭĺáĪĭáīĤ": 4504,
      "ĠáīłáĮīáī£áĬ¤": 4505,
      "ĠáīłáĪĪ": 4506,
      "ĠáĭŃáĭĪáĭ³": 4507,
      "ĠáĪĽáĮ£": 4508,
      "ĠáĪ³áĭ«": 4509,
      "áįĢáĭĭáĪį": 4510,
      "ĠáĪĿáĭµáĪŃáĬķ": 4511,
      "ĠáĮĪáįħáī³": 4512,
      "ĠáĬłáįįáĪªáĬ«": 4513,
      "Ġáĭ°áĬķáīłáĬŀáī½": 4514,
      "Ġáĭ¨áīłáĪ¨": 4515,
      "ĠáĬ¥áĪį": 4516,
      "ĠáĬłáĭ²": 4517,
      "áĮĪáĬĽáĪį": 4518,
      "áĪ¨áĪĿ": 4519,
      "ĠáĮīáĭµáĮĵ": 4520,
      "áĬ³áĪŃ": 4521,
      "áĪĺáĪŃáĪĺáĪŃ": 4522,
      "áĭ°áĪŃáĮīáīµ": 4523,
      "ĠáĬ¢áĭ«áĪ±": 4524,
      "Ġáī£áĪŃ": 4525,
      "ĠáĬ«áĪĿ": 4526,
      "ĠáįĵáĪŃáī²": 4527,
      "ĠáĪĺáĬĲ": 4528,
      "áĭµáĪ©": 4529,
      "ĠáĪĪáĪĺáįį": 4530,
      "ĠáīłáĬłáĬ«áī£áī¢áĭį": 4531,
      "ĠáĪĨáĬĹáĪį": 4532,
      "ĠáĬłáĪįáī½áĪįáĪĿ": 4533,
      "ĠáīĭáĪļ": 4534,
      "áī¿áĬķ": 4535,
      "áĭ°áĮĪáįį": 4536,
      "ĠáĪĺáĮłáĭ¨áīħ": 4537,
      "Ġáĭ¨áĭ±": 4538,
      "ĠáīłáĮįáī¥áįħ": 4539,
      "ĠáĬłáĪ°áĪį": 4540,
      "ĠáĬ¨áĬ¥áĪµáĪ«áĬ¤áĪį": 4541,
      "ĠáįĢáĪĢáĭŃ": 4542,
      "Ġáĭ¨áī°áįĪáĮ¥áĪ®": 4543,
      "ĠáĪĺáĪĨ": 4544,
      "ĠáĪĪáĪ°áĭį": 4545,
      "áĪ³áī½áĪģ": 4546,
      "ĠáĪĪáĬ¥áĭ«áĬķáĭ³áĬķáĭ±": 4547,
      "áĮĵáĭ´": 4548,
      "Ġáĭ¨áĪĪáīłáīµáĪĿ": 4549,
      "ĠáīłáĪ¨áĬ¨áīµ": 4550,
      "ĠáīłáĪģáĪĪáīµ": 4551,
      "áī°áĬ©": 4552,
      "áĮįáĪª": 4553,
      "Ġáĭ¨áĪļáĪ¸": 4554,
      "ĠáĪ°áĪľáĬķ": 4555,
      "áĪĮáĮħ": 4556,
      "ĠáĬ¥áĭįáīħáĬĵ": 4557,
      "áĪŀáĬŃáĪ©": 4558,
      "ĠáĬłáī¥áĭĽáĬĽáĭİáī¹": 4559,
      "áĮĪáīł": 4560,
      "ĠáĪĽáĭŃ": 4561,
      "áĮĭáĬķ": 4562,
      "ĠáĬ³áĪµ": 4563,
      "Ġáī°áĮ¨": 4564,
      "ĠáīłáĪĺáī°": 4565,
      "áįİáĪŃ": 4566,
      "ĠáīłáĪħáĭĿáī¥": 4567,
      "ĠáĮłáīħáĪĭáĭŃ": 4568,
      "ĠáĪĪáīłáĪĪáĮł": 4569,
      "Ġáĭ¨áĬĵ": 4570,
      "ĠáĬ¨áĮįáī¥áįħ": 4571,
      "ĠáĭŃáĮłáīĢáĪĻ": 4572,
      "ĠáĭŃáĪįáīģ": 4573,
      "áīĢáĭĿ": 4574,
      "áįĬáī±": 4575,
      "áĮĪáĪĪáįģ": 4576,
      "áĪĪáĭ«áĭ¨": 4577,
      "ĠáĪ°áĮ¥áī¶": 4578,
      "Ġáī°áĭĭáĮĬ": 4579,
      "ĠĠĠĠĠĠĠĠ": 4580,
      "ĠáĬłáĭ°áĪ¨": 4581,
      "ĠáĪĺáĪ¨": 4582,
      "áīłáĪ«": 4583,
      "áĬŃáĪĿ": 4584,
      "Ġáī°áĭĽ": 4585,
      "ĠáīłáīĢáĬķ": 4586,
      "ĠáĪĪáĪĽáĪµáĭĪáĮĪáĭµ": 4587,
      "ĠáĬ¨áī³áī½": 4588,
      "áĮłáįī": 4589,
      "áĭĪáĭ°áĭį": 4590,
      "ĠáĪĭáĬ¨": 4591,
      "Ġáī¥áīģ": 4592,
      "Ġáĭ¨áī°áĭ°áĪ¨áĮĪ": 4593,
      "ĠáĪħáĪį": 4594,
      "Ġáĭ¨áĪļáĭ«áĪµáī°": 4595,
      "Ġáįħáĭµáīħ": 4596,
      "áĪ¨áĬķáĮĵáĭ´": 4597,
      "áĮ§áī¸áĭį": 4598,
      "Ġáīłáĭ¨áīµ": 4599,
      "ĠáĬ¢áĬ®áĬĸáĪļ": 4600,
      "ĠáĮīáĭ³áĭ©": 4601,
      "áĮłáīĥáĪļáĭİáī½": 4602,
      "Ġáĭ¨áįįáīħáĪŃ": 4603,
      "ĠáĬłáįĪáįĥáįĢáĪĿ": 4604,
      "ĠáĪĽáĪĢ": 4605,
      "ĠáĪĽáīłáĪ¨áī³": 4606,
      "ĠáīłáĬĴ": 4607,
      "Ġáĭ¨áĭĪáĮ£": 4608,
      "ĠáĪŃáĬ¥áĪ°": 4609,
      "áīĢáĪ°": 4610,
      "ĠáĪĿáĪµáĪİáī½": 4611,
      "ĠáīłáĪµáī¥": 4612,
      "áĪ¨áĮĭáĮĪáĮł": 4613,
      "Ġáĭ¨áĮīáī£áĬ¤": 4614,
      "ĠáĪĺáĪµáįĪáĪŃáī¶áī½": 4615,
      "ĠáĬ¨áī¥áĭĻ": 4616,
      "ĠáĭŃáĪ°áĮł": 4617,
      "ĠáĪĬáĬĸáĪŃ": 4618,
      "ĠáĬ¥áĬķáĭ³áĪĪáīłáīµ": 4619,
      "áįĲáī¥": 4620,
      "áĭ°áĬĲ": 4621,
      "Ġáĭ¨áī°áĮłáīłáīĢ": 4622,
      "áĬķáĮįáī°áĬķ": 4623,
      "ĠáĬłáĭ°áĪ¨áĮī": 4624,
      "áįĪáĮłáĪŃ": 4625,
      "ĠáĬłáĪµáĬ¨": 4626,
      "áĬķáĮįáĪĬáĭĿ": 4627,
      "ĠáĬłáĪ¨áĮĭ": 4628,
      "Ġáĭ¨áĪĺáĮį": 4629,
      "áįĢáĭ«": 4630,
      "ĠáĪĺáĮ¥áī¶": 4631,
      "ĠáĮ¨áĭĭáī³áĭİáī½": 4632,
      "ĠáĪĪáĪĽáĪ³áĭ¨áīµ": 4633,
      "ĠáĭĪáĬķáĮĢáĪį": 4634,
      "ĠáĬłáĪŀ": 4635,
      "áĪħáįĪáīµ": 4636,
      "Ġáĭ¨áĪļáī½áĪīáīµ": 4637,
      "áĬ«áĪĽ": 4638,
      "Ġáĭ¨áĬłáīµ": 4639,
      "ĠáĬ¤áĪĿ": 4640,
      "Ġáī¥áĪĦáĪŃ": 4641,
      "Ġáĭ¨áĬ¥áĮįáĪŃ": 4642,
      "ĠáĪĺáĪµáįĪ": 4643,
      "Ġáĭ¨áī°áĪ°áĪ©": 4644,
      "áįķáĪĭáĬķ": 4645,
      "ĠáĬłáĪĭáĪħáĪĿ": 4646,
      "ĠáįĸáĪĬáĪµ": 4647,
      "ĠáīłáĭµáĮĭáĪļ": 4648,
      "Ġáĭ¨áĪ³áĭŃ": 4649,
      "áĭ³áī½áĪģ": 4650,
      "ĠáĬ¥áĬķáĮ¨áīµ": 4651,
      "ĠáĬ¢áĬķáĭ±áĪµáīµáĪª": 4652,
      "Ġáīµáī½áĪĭáĪĭáī½áĪģ": 4653,
      "ĠáĮ©": 4654,
      "ĠáĪµáĪĪáĪļáĭ«": 4655,
      "áĭĽáĭĿ": 4656,
      "áĪĦáĭ°": 4657,
      "ĠáĬłáĪĺáĪµ": 4658,
      "ĠáĬłáĪŃáī¥": 4659,
      "áįĢáĭ«áįĬ": 4660,
      "ĠáīłáĪĭáī¸áĭį": 4661,
      "áĭ«áĭĺ": 4662,
      "ĠáĪĺáĭ«áĭĿ": 4663,
      "ĠáįĶ": 4664,
      "Ġáī³áĭį": 4665,
      "ĠáĬ«áĪħáĬĵ": 4666,
      "áĪ°áī¥áĬ©": 4667,
      "Ġáĭ¶áĬŃáī°áĪŃ": 4668,
      "áī¥áī»": 4669,
      "áĮ¥áĪį": 4670,
      "áĭĿáĮĪáī¥": 4671,
      "áĬ®áī½áĬķ": 4672,
      "ĠáĪµáĪ«áĭį": 4673,
      "ĠáĬ¨áĪĺáĮĢáĪĺáĪªáĭ«": 4674,
      "ĠáĬ¨áĬłáī£": 4675,
      "ĠáĪįáĮĨáī½áĬķ": 4676,
      "ĠáĪĺáĪµáĪªáĭ«": 4677,
      "Ġáĭ¨áĭĪáĪŃáīħ": 4678,
      "áĪŃáĪµáī²áĭ«áĬķ": 4679,
      "áĭ°áĭ°": 4680,
      "áī³áĪŃ": 4681,
      "áįĪáĭĭáĪį": 4682,
      "áīĥáĭµ": 4683,
      "Ġáīłáī°áĪ»áĪĪ": 4684,
      "ĠáīłáĪ°áĭŃ": 4685,
      "ĠáĮĮáī³áĭ¬": 4686,
      "Ġáĭ¨áĪ©": 4687,
      "áĪ°áĭĬ": 4688,
      "áĮłáīģ": 4689,
      "áīĢáįį": 4690,
      "áīħáĭ«áĪµ": 4691,
      "ĠáĭĪáĪĭáĮĨ": 4692,
      "ĠáĬ¥áĬĲáĪŃáĪ±áĪĿ": 4693,
      "ĠáĬłáĬŃáī¥áĪ®áīµ": 4694,
      "ĠáĪĪáĪĻ": 4695,
      "ĠáĭĪáĭŃáĬķ": 4696,
      "áīħáĪ¨": 4697,
      "ĠáĬłáĪĪáī¥áĭİáīµ": 4698,
      "ĠáĬłáĪĺáĮ£": 4699,
      "ĠáĪĺáĭµáĪĢáĬĴáīµ": 4700,
      "ĠáĪĺáĪĽáĪŃ": 4701,
      "ĠáĪµáĬĵ": 4702,
      "Ġáī°áĪįáĬ¥": 4703,
      "ĠáĬłáĪµáĪ«": 4704,
      "ĠáĮłáĪ¨": 4705,
      "áĬŃáĪįáĪį": 4706,
      "ĠáĪ¸áĪĪáīĨ": 4707,
      "ĠáĬĲáįįáĪµ": 4708,
      "áĪĺáĪįáĬ¨áī»": 4709,
      "áĬĲáī³áī¸áĭįáĬķ": 4710,
      "áĬ«áī¸áĭį": 4711,
      "áĭĿáĪĿ": 4712,
      "ĠáĬłáĪĪáī½": 4713,
      "áĮĵáĭĻ": 4714,
      "ĠáĪĦáĭ±": 4715,
      "ĠáĪĺáĪŃáĪĢ": 4716,
      "Ġáĭ¨áī£áĪĪ": 4717,
      "ĠáĬ¥áĭ¨áĮ¨áĪĺáĪ¨": 4718,
      "Ġáĭ¨áĪľ": 4719,
      "ĠáĭŃáĭ°áĭįáĪī": 4720,
      "ĠáĬ¥áĬķáĭ²áĪ°áĪĽ": 4721,
      "ĠáĪĪáĪĽáĮĪáĪįáĮĪáĪį": 4722,
      "áĪŃáĭ«áĪĿ": 4723,
      "ĠáĬ¥áī£áĬŃáĭİ": 4724,
      "Ġáĭ³áĬķáĬ¤áĪį": 4725,
      "ĠáīłáĪľ": 4726,
      "ĠáĪĪáįį": 4727,
      "ĠáĬ¡": 4728,
      "áĪµáĬ®": 4729,
      "áĪĪáĪŃ": 4730,
      "ĠáĬ¨áĮł": 4731,
      "áī±áĬĵ": 4732,
      "ĠáĬłáĬķáīº": 4733,
      "Ġáĭ«áĪµáįĪáĪįáĮį": 4734,
      "ĠáĬłáĭŃáĭ°áĪĪáĪģ": 4735,
      "ĠáĬłáīħáĬļ": 4736,
      "ĠáĭŃáĪ°áĪĽáĬĽáĪį": 4737,
      "ĠáĮģ": 4738,
      "áĬĸáī¹": 4739,
      "ĠáĪįáĬĵ": 4740,
      "ĠáīµáĪĭáĪįáīħ": 4741,
      "ĠáĪ°áĪĪáĪŀáĬķ": 4742,
      "áĪ«áĪ¨áī¥": 4743,
      "ĠáĭŃáĪģáĬĳ": 4744,
      "Ġáĭ«áĪµáī³áĭį": 4745,
      "áĮ¨áĪĺáĪŃ": 4746,
      "ĠáĪĺáĮ¥áī°áĭį": 4747,
      "Ġáī³áĭįáīĥáĪĪáĪħ": 4748,
      "ĠáīłáĪ¬": 4749,
      "Ġáĭ¨áī°áĬĵáĮĪáĪ¨áĭį": 4750,
      "áĮĪáĪĪáįĢ": 4751,
      "áĬĵáī¸áĭįáĪĿ": 4752,
      "ĠáĮĪáĬķáĭ³": 4753,
      "ĠáĬłáĭįáī¶": 4754,
      "áĬ¸áĭį": 4755,
      "ĠáīłáĪĺáĬķáįĪáĪ³áĭĬ": 4756,
      "ĠáĪĽáĪ¨áįĬáĭ«": 4757,
      "áĪĿáĪµ": 4758,
      "áĪĺáĪĭáĪĪ": 4759,
      "ĠáĪħáĮī": 4760,
      "áĪįáĪµáĮ¤áĪĽáĭįáĭ«áĬķ": 4761,
      "áĮįáĪµáīµ": 4762,
      "ĠáĪĢáĮĪ": 4763,
      "Ġáĭ¨áĪļáĭ«áĪĿáĪŃ": 4764,
      "ĠáĮīáĭ³áĭ®áī½áĬķ": 4765,
      "Ġáī£áĪħáĪªáĭ«áīµ": 4766,
      "áī¥áĪį": 4767,
      "áĪĽáī¸áĭįáĬķ": 4768,
      "Ġáī°áĪ°áĪĽ": 4769,
      "áĮĤáī³áĪį": 4770,
      "áĪ°áīłáĪ°áī¡": 4771,
      "áĭ°áīł": 4772,
      "ĠáĪĽáĪ¨áĮĭáĮĪáĮ¥": 4773,
      "ĠáĬ¥áĬķáĭ²áĬĸáĪŃ": 4774,
      "ĠáĬ¤áĪŃáĪĿáĭ«áĪµ": 4775,
      "ĠáīłáĬ¢áĭ¨áĪ±áĪµ": 4776,
      "áĪ®áĬķáī¶áĪµ": 4777,
      "ĠáĬ¥áĪħáīµ": 4778,
      "ĠáĭĮ": 4779,
      "ĠáĪĪáī¤áī°": 4780,
      "áĮłáĬĲ": 4781,
      "áĮłáĭĭáĪį": 4782,
      "áĬ«áĪŃ": 4783,
      "ĠáĪĪáĪĽáĪ»áĪ»áĪį": 4784,
      "ĠáįħáįıáĪį": 4785,
      "ĠáĪĽáĪħáīłáĪŃ": 4786,
      "ĠáĮĪáĭ°áī¥": 4787,
      "Ġáįİáī¶áĮįáĪ«": 4788,
      "ĠáĪĺáĭµáĪ¨áĬŃ": 4789,
      "áĪĿáĪĪ": 4790,
      "Ġáĭ¨áĭĽ": 4791,
      "Ġáĭ¨áĮŃ": 4792,
      "Ġáĭ¨áī´áĬŃ": 4793,
      "Ġáī°áĮĪáĬĿ": 4794,
      "ĠáĮłáĭĭáīµ": 4795,
      "Ġáĭ¨áī°áī£áĪĪáĭį": 4796,
      "Ġáī°áįĪáįĥáĪļ": 4797,
      "ĠáĪ°áĭŃáįį": 4798,
      "ĠáĪįáĮģáĬķ": 4799,
      "ĠáĬłáĪ³áĪįáįİ": 4800,
      "Ġáīłáĭ¨áĬłáĪĺáī±": 4801,
      "ĠáįĪáĪį": 4802,
      "ĠáĬłáįķ": 4803,
      "áĪŀáī¹": 4804,
      "ĠáĬŃáĪ¬": 4805,
      "ĠáįįáĮ¥áĪ¨": 4806,
      "áĬķáī°áĬķ": 4807,
      "ĠáĬ¥áĬķáĭ°áĪļáĭ«áĪ³": 4808,
      "ĠáĭŃáĬĵáĮĪáĪ«áĪī": 4809,
      "Ġáĭ¨áĬĲáīłáĪ©áīµáĬķ": 4810,
      "Ġáĭ¨áī°áĪ»": 4811,
      "áĪĻáĪµ": 4812,
      "ĠáĪŃáĬ©áĪµ": 4813,
      "ĠáĪµáī¥áĪ°áī£áĭİáī½": 4814,
      "ĠáīĢáĮ¥áĪİ": 4815,
      "ĠáĪ½áĪįáĪĽáīµ": 4816,
      "áĪŃáĭ³áĬĸáĪµ": 4817,
      "áĮįáĪĿ": 4818,
      "áĪ«áĪª": 4819,
      "áī£áīłáĪŃ": 4820,
      "Ġáī°áīĭáĪĿ": 4821,
      "ĠáĬ¥áĬķáĭ²áĭ«áĭ°áĪŃáĮī": 4822,
      "ĠáīłáīµáĬ¥": 4823,
      "áĬķáįĢáī£áĪ¨": 4824,
      "ĠáĬ¥áĪ«": 4825,
      "ĠáĮ®": 4826,
      "áĭ°áĭ±": 4827,
      "ĠáĬ¨áĭĺ": 4828,
      "ĠáĭĭáĬĵáĭį": 4829,
      "ĠáīµáĬ©áĪ¨": 4830,
      "ĠáĮĨáĪ®": 4831,
      "ĠáĪĪáĪµáĪĭáĪ³": 4832,
      "Ġáĭ«áĭ°áĪ¨áĮį": 4833,
      "ĠáĪĺáĪµáĬŃ": 4834,
      "Ġáī½áĪĭ": 4835,
      "ĠáĬĴáĭį": 4836,
      "áĪĿáĪ¨áĭį": 4837,
      "ĠáĬ¥áĭ³": 4838,
      "áĪ¨áĮ¡": 4839,
      "Ġáī¥áīħ": 4840,
      "ĠáĭŃáĪ°áĮ£áĪī": 4841,
      "ĠáīłáĮİáī½": 4842,
      "áĪĿáĬĳ": 4843,
      "áĪ¨áĬ¨": 4844,
      "áĪ³áĪ½": 4845,
      "ĠáīłáĪĺáĬķáĮįáĪµáīµ": 4846,
      "áĭĺáĮĭáĮĥ": 4847,
      "áĬĲáī¶áī½áĬķ": 4848,
      "áĪ½áĬĵ": 4849,
      "Ġáĭ¨áĬłáĭį": 4850,
      "Ġáĭ«áĪµáįĪáĪįáĮĪ": 4851,
      "áĭįáīĥáĪĪáĬķ": 4852,
      "ĠáĭĪáĮ¥áī¶": 4853,
      "áĪ½áĬ¨áĪŃáĬ«áĪª": 4854,
      "ĠáĬ¨áĮĪ": 4855,
      "ĠáįĨ": 4856,
      "ĠáĪĪáĪĺáĬ¨áĪĭáĬ¨áĪį": 4857,
      "ĠáīĢáĬĿ": 4858,
      "áĪĻáĬĵ": 4859,
      "ĠáĪģáĪĪáī°áĬĽáĭį": 4860,
      "ĠáĪĺáīĢáīłáĪį": 4861,
      "ĠáĭŃáĪĦáĭ³áĪį": 4862,
      "ĠáĬ¨áĭ¨áīµ": 4863,
      "áĪ³áī¢": 4864,
      "áĭĭáĭĪáīħ": 4865,
      "ĠáĮłáįį": 4866,
      "áīłáĪ¨áĪ°áī¥": 4867,
      "áĭįáĭ«áĬķáĬķ": 4868,
      "áĮ®áī½áĬķ": 4869,
      "áī¥áĪ¨áī°": 4870,
      "ĠáĬłáĭŃáĭ°áĪĪáĪģáĪĿ": 4871,
      "áĪĿáĪ¯áĪį": 4872,
      "ĠáīµáĬĵáĬķáĪ½": 4873,
      "ĠáĭĺáĪĺáĬĵáĭĬ": 4874,
      "Ġáĭ¨áĬ¥áĬķ": 4875,
      "Ġáī¡áĬĵ": 4876,
      "áĭ·áī¸áĭį": 4877,
      "Ġáĭ¨áĬŃáĪŃáĪµáī¶áĪµ": 4878,
      "áĭĭáĭĭáĮŃ": 4879,
      "Ġáīį": 4880,
      "áĬ«áĪļ": 4881,
      "áĪ°áĮłáĬķ": 4882,
      "ĠáĬłáĪµáįĪáįĥáĪļ": 4883,
      "ĠáĬªáĪİ": 4884,
      "áĮłáī¥áīģ": 4885,
      "Ġáĭ¨áī°áĪĪáĪĺáĭ°": 4886,
      "áĪĿáĪµáīµ": 4887,
      "ĠáĬłáĭ°áĪ¨áĮį": 4888,
      "áĭ°áĪ©": 4889,
      "ĠáĪĭáĪī": 4890,
      "Ġáī¥áī³": 4891,
      "áĭĪáĪ°áĭµ": 4892,
      "ĠáĪ½áįĭáĬķ": 4893,
      "ĠáĮĪáĪįáįĢáĭĭáĪį": 4894,
      "áįĪáįħáĪĿ": 4895,
      "ĠáīħáĭµáĪĺ": 4896,
      "Ġáĭ¨áįĨáī³": 4897,
      "Ġáīłáįĵ": 4898,
      "áĪµáĪĽ": 4899,
      "áĪħáīµáĬĵ": 4900,
      "Ġáĭ«áīĢ": 4901,
      "ĠáĪĪáĪĺáĪ¸": 4902,
      "ĠáĬ«áĪŃáĭµ": 4903,
      "Ġáī£áĪĪáĪĺ": 4904,
      "Ġáĭ¨áĮĪáĭĽ": 4905,
      "áĪŃáĬĵ": 4906,
      "ĠáĬ¥áĪº": 4907,
      "ĠáĪĽáī¥": 4908,
      "ĠáĮ¥áīħáĪµ": 4909,
      "ĠáīģáĪ³áīģ": 4910,
      "ĠáĪĽáĬ¥áĬ¨": 4911,
      "ĠáĬĲáī¢áĭ«": 4912,
      "Ġáĭ¨áī°áĪ¸": 4913,
      "ĠáĪ³áĮ¥áĬķ": 4914,
      "Ġáĭ¨áĮĪáīłáĭ«": 4915,
      "ĠáĬłáīħáĪ«áī¢áĭ«": 4916,
      "Ġáĭ¨áĪ»": 4917,
      "áĬ©áīłáīµ": 4918,
      "áĮİáĭ³": 4919,
      "áįĥáĪį": 4920,
      "ĠáīłáĪĽáĪµáī°": 4921,
      "áĮ¦áī½áĬķ": 4922,
      "ĠáĬłáĪµáī°áĪĽáĪĽáĬĿ": 4923,
      "ĠáĮĢáĪĺáĪ©": 4924,
      "ĠáĬłáĭ³áĪĿ": 4925,
      "ĠáĬłáįħ": 4926,
      "ĠáĭŃáĭ°áĪŃ": 4927,
      "ĠáĪĪáī³": 4928,
      "ĠáĪĪáĪĺáĬĸáĪŃ": 4929,
      "ĠáĬłáĪµáī¥": 4930,
      "Ġáĭ¨áĬłáĮĪáĪįáĮįáĪİáīµ": 4931,
      "ĠáĬķáĮ¥áĪ¨": 4932,
      "áĭ´áĪ«áĪį": 4933,
      "Ġáĭ¨áīµáĭ³áĪŃ": 4934,
      "ĠáĪµáĪĿáĪĿ": 4935,
      "Ġáī°áĮįáī£áĪ«áīµ": 4936,
      "ĠáĪĺáĪĪáĪ°": 4937,
      "ĠáĭŃáĬĸáĪ¨áĭĭáĪį": 4938,
      "Ġáįĥáĭµáīħ": 4939,
      "áĪŀáĬŃáĪ«áĪ²áĭ«áĭĬ": 4940,
      "ĠáīłáĬķ": 4941,
      "ĠáĪĪáī£": 4942,
      "ĠáĪĨáĬľ": 4943,
      "ĠáįĸáĪĪáī²áĬ«": 4944,
      "áīĢáĬķ": 4945,
      "Ġáĭ¨áī°áĬ¨": 4946,
      "ĠáĪĪáĪĺáĪ¨áĭ³áīµ": 4947,
      "Ġáĭ¨áĪĺáī°": 4948,
      "Ġáĭ¨áĭ°áĪħáĬķáĬĲáīµ": 4949,
      "ĠáĮĵáĭ°áĬŀáī½": 4950,
      "ĠáĭµáĬķáĬ³áĬĳ": 4951,
      "áĬ«áĭ®áī½": 4952,
      "ĠáĮ¥áīĥ": 4953,
      "ĠáĮ«áįį": 4954,
      "ĠáīłáįĮ": 4955,
      "Ġáī¥áĬķ": 4956,
      "ĠáĪįáĮ¥áįį": 4957,
      "Ġáĭ¨áĬ¥áĪĿáĬĲáīµ": 4958,
      "Ġáĭ¨áĭĪáĬķáĭµ": 4959,
      "ĠáįķáĪ®áįĮ": 4960,
      "ĠáĪµáĪĭáĪĪáĭį": 4961,
      "ĠáĪĺáīħáĭ°áĪµ": 4962,
      "áĬĲáĭĺ": 4963,
      "áĪĽáĪµ": 4964,
      "áįįáĪªáĬ«": 4965,
      "áĪŁáĪĭáīµ": 4966,
      "ĠáĪĿáĪµáĪ«áī½": 4967,
      "Ġáī°áīĥáĭįáĪŀ": 4968,
      "ĠáĬłáĪµáĮĪ": 4969,
      "Ġáĭ¨áĬłáĭŃ": 4970,
      "ĠáĬłáĬĲáĪ³": 4971,
      "ĠáĪ°áĬĶ": 4972,
      "áĪ®áĭį": 4973,
      "ĠáĭŃáĪħáī½": 4974,
      "Ġáī³áĪĽáĬĿáĬĲáīµ": 4975,
      "ĠáĪĺáĮįáī£áīµ": 4976,
      "ĠáĭĺáĭŃáī¤": 4977,
      "Ġáĭ¨áī°áĬĲ": 4978,
      "ĠáĬłáĭŃáĪĺáĪµ": 4979,
      "Ġáĭ¨áĪļáĭ«áĪ°": 4980,
      "ĠáĬ«áĪĭ": 4981,
      "áįĵáĬķ": 4982,
      "Ġáĭ¨áĭľ": 4983,
      "áĬķáĭİ": 4984,
      "Ġáĭ¨áī°áĪ¨": 4985,
      "áĪ°áī¥áĪ°áī¥": 4986,
      "ĠáĬłáĪĽáĪ«áĮ®áī½": 4987,
      "ĠáīµáĬŃáĬŃáĪĪáĬĽáĭįáĬķ": 4988,
      "áĪĿáįħ": 4989,
      "Ġáīłáīĥ": 4990,
      "ĠáĪĪáĪ«": 4991,
      "Ġáĭ¨áī°áĭ«áĭ«áĭĻ": 4992,
      "ĠáĭµáĬķáĬ³áĬķ": 4993,
      "ĠáĪĺáīħáĭ°áĪ±": 4994,
      "áĭįáĭ«áĬĳ": 4995,
      "Ġáī°áĪ°áī¥": 4996,
      "áįĪáĪįáĮĭáī¸áĭį": 4997,
      "ĠáĬ¥áĮįáĭļáĬłáī¥áĪĦáĪŃáĬķ": 4998,
      "Ġáĭ¨áĪĮáĪĭáī¸áĭį": 4999,
      "ĠáĬ¨áĬķáī±": 5000,
      "ĠáīłáĪī": 5001,
      "Ġáĭ«áĪ°": 5002,
      "ĠáĪ°áĭİáī¹": 5003,
      "áīĥáĬķ": 5004,
      "áī»áĪĪáĭį": 5005,
      "Ġáīłáī°áĭ°áĮĭáĮĭáĪļ": 5006,
      "Ġáĭ¨áĬ¥áĮħ": 5007,
      "ĠáĬ¨áĪĺáĮłáĬķ": 5008,
      "áĭĪáĪ°áĭ±": 5009,
      "ĠáĬ¥áĮ£": 5010,
      "ĠáĬ¥áĪħáĪį": 5011,
      "ĠáīłáĪŀáīµ": 5012,
      "ĠáĬ¥áĬĵáĭįáīĥáĪĪáĬķ": 5013,
      "áĪİáĮį": 5014,
      "ĠáĭĿáĬĵáī¥": 5015,
      "ĠáĪĪáĬ¥áĪµáĪ«áĬ¤áĪį": 5016,
      "Ġáĭ«áĪµáĭ°": 5017,
      "ĠáīłáĮ¥áĬķáīĥáīĦ": 5018,
      "ĠáīģáĪŃáĮ¥": 5019,
      "Ġáī°áĪįáĬ¥áĬ®": 5020,
      "áĬĲáī´": 5021,
      "áĬĲáī³áī½áĬķ": 5022,
      "Ġáĭ¨áĭļáĪħáĬķ": 5023,
      "áĪĪáĪµ": 5024,
      "ĠáīłáĪĺáĪĿ": 5025,
      "ĠáĬĵáī½áĪģ": 5026,
      "áī£áī¢áĪİáĬķ": 5027,
      "ĠáĪ³áĭŃáīĨáĭŃ": 5028,
      "ĠáĪĽáĪµáĮłáĬķáīĢáīĤáĭ«": 5029,
      "ĠáĪĺáĪĪáĪµ": 5030,
      "ĠáĬ¥áĬķáīħáĪµáīĥáĪ´áĭİáī½": 5031,
      "ĠáĭŃáĪ¨áĭ³áĬĵáĪį": 5032,
      "ĠáįķáĪ¬áĭĿ": 5033,
      "Ġáĭ¨áī¤": 5034,
      "ĠáĪĺáĪĺáĪįáĬ¨áīµ": 5035,
      "ĠáĪĪáĪģáĪĪáīµ": 5036,
      "ĠáĬłáĪĽáĪįáĬŃáīµ": 5037,
      "ĠáįįáĪĭáĮİáī¶áī½": 5038,
      "ĠáĬŃáĪµáī°áīµ": 5039,
      "Ġáīłáĭ²": 5040,
      "ĠáĪĿáĬĵ": 5041,
      "áĭ³áī¥": 5042,
      "áĮĢáĪŃáī£": 5043,
      "Ġáĭ¨áĪĽáĭŃáī³": 5044,
      "Ġáĭ¨áĪĢáĭŃáĪį": 5045,
      "ĠáĭŃáĪ¨áĭ³áĪį": 5046,
      "ĠáĪĺáĪĺáĪĪáĪµ": 5047,
      "áĪ¨áĪĿáīµ": 5048,
      "ĠáĭŃáĪĭ": 5049,
      "áĮĭáĮĪáī¥": 5050,
      "ĠáĬłáĪµáįĢáĭ«áįĬ": 5051,
      "ĠáīłáĬłáĬķáĭ³áĬķáĭµ": 5052,
      "áĮĪáĪįáįħ": 5053,
      "ĠáĬ¥áĬĶáĬĵ": 5054,
      "áĬ¦áīµ": 5055,
      "ĠáīħáĭµáĪļáĭ«": 5056,
      "ĠáĮłáĪ¨áĮ´áĭĽ": 5057,
      "áī½áĪĪáĭįáĬķ": 5058,
      "áĭŃáĭµ": 5059,
      "ĠáĭŃáĮłáīĢ": 5060,
      "áĬŃáĪĭ": 5061,
      "áĮłáĬĽ": 5062,
      "ĠáĪĪáĪĺáĭ«áĭĿ": 5063,
      "ĠáīłáĪļáĪį": 5064,
      "áĮ«áĬķ": 5065,
      "ĠáĪļáĬĴáĪµáī´áĪŃ": 5066,
      "áĬĲáī°áĬĽáĭį": 5067,
      "áĪ°áĬŀ": 5068,
      "áĪĨáĬķáĬŃ": 5069,
      "ĠáĮ¨áĪĪáĪĽ": 5070,
      "ĠáĪ³áĭŃáĬķáĪµ": 5071,
      "Ġáī¥áĪŃáī±": 5072,
      "áĭŃáĭĻ": 5073,
      "áĪ³áĪ³": 5074,
      "áī½áĪģáīµ": 5075,
      "ĠáĬłáĪĺáī³áĭĬ": 5076,
      "áĬ³áĬķáĬķ": 5077,
      "ĠáĮ¨áĪ¨": 5078,
      "áĮłáĪ«áĭį": 5079,
      "ĠáĪĺáĭįáĮ£áīµ": 5080,
      "ĠáĬłáĭ°áĮĪáĬĽ": 5081,
      "áĭ°áĬĿáĬĲáīµ": 5082,
      "Ġáĭ¨áĪļáĬĸáĪŃ": 5083,
      "ĠáīłáĪĺáī³": 5084,
      "ĠáĪĪáĪĺáĮĢáĪĺáĪŃ": 5085,
      "ĠáįĢáĮīáĪŃ": 5086,
      "ĠáĮįáĬķáī£áī³": 5087,
      "áįĳ": 5088,
      "áĬĲáĪ±áĪĿ": 5089,
      "ĠáĭŃáĭĪáĮ£": 5090,
      "áĭ¨áĭįáĬķ": 5091,
      "Ġáĭ°áĬ«áĪĽ": 5092,
      "áī»áĪī": 5093,
      "ĠáĮįáĬķáī£áĪŃ": 5094,
      "Ġáī¤áī±áĬķ": 5095,
      "áĮ¦áĪŃáĬĲáīµ": 5096,
      "áĮłáīĢáĪĿáīłáīµ": 5097,
      "ĠáĮįáī¥áĭ£": 5098,
      "ĠáĪĪáĪĺáĮįáĭĽáīµ": 5099,
      "Ġáĭ³áĭĬáīµáĪĿ": 5100,
      "ĠáīłáĪ©": 5101,
      "ĠáĬłáĪ¨áĬķáĮĵáĭ´": 5102,
      "ĠáĬ¥áĬķáĭ²áĭ«áĪµ": 5103,
      "Ġáĭ¨áĬ¥áĪ±áĬķ": 5104,
      "ĠáĬĲáĮĭáĭ´": 5105,
      "áĬĲáī°áĬĽ": 5106,
      "áįįáĬĵ": 5107,
      "ĠáĮ¥áįĭ": 5108,
      "áĪ»áĪ½": 5109,
      "ĠáĪĬáī³": 5110,
      "ĠáĪ«áĪ´áĬķ": 5111,
      "áĬ¨áīµáĪį": 5112,
      "Ġáī°áīĥáĭĭ": 5113,
      "áĪŃáĬ©": 5114,
      "áī¥áī¥áĪŃ": 5115,
      "ĠáĪĪáĬ¥áĮįáĭļáĬłáī¥áĪĦáĪŃ": 5116,
      "Ġáīłáĭ°áī¡áī¥": 5117,
      "ĠáĭŃáĬĸáĪŃáīłáī³áĪį": 5118,
      "Ġáĭ¨áĪĺáĮ¨áĪ¨áĪ»áĭį": 5119,
      "Ġáĭ¨áĪ¨": 5120,
      "ĠáĪįáī¦": 5121,
      "áįĭáī¸áĭį": 5122,
      "ĠáĮĪáĪĭ": 5123,
      "áĭ°áĬķáīħ": 5124,
      "ĠáĪĪáĪĺáīĢáīłáĪį": 5125,
      "ĠáĬ¨áīĨ": 5126,
      "ĠáīłáĬłáĭ²áĪµ": 5127,
      "ĠáīĥáĪĪ": 5128,
      "ĠáĪĪáĪħáĭĿáī¡": 5129,
      "ĠáĮįáĪĪáĪ°áī¦áī½": 5130,
      "Ġáĭ±áīĦ": 5131,
      "ĠáĪĺáĮ¨áĪĺáĪŃ": 5132,
      "Ġáīłáī¢": 5133,
      "áĭ°áī£": 5134,
      "áī¶áī¼": 5135,
      "Ġáĭįáī¥": 5136,
      "ĠáĮįáĪŃ": 5137,
      "áĪªáĭ«áĭİáī½": 5138,
      "áĪĿáĪĭáĬ«": 5139,
      "Ġáĭ¨áĭĺáĪĭáĪĪáĪĿ": 5140,
      "áĬķáī£áĪĮ": 5141,
      "ĠáĬŃáī¥áĭ°áīµ": 5142,
      "ĠáĬ¥áĭ«áĬķáĭ³áĬķáĭ³áī¸áĭį": 5143,
      "áĬĸáĪ¨áĬķ": 5144,
      "ĠáīµáĬĵ": 5145,
      "áĬ®áĪį": 5146,
      "ĠáĪĻáīĢáīµ": 5147,
      "ĠáĭĿáĪŃáĭ«": 5148,
      "ĠáĬ¥áĬĲáĭļáĭ«áĬķ": 5149,
      "Ġáī¥áī¸áĬĽáĭį": 5150,
      "áĪŀáĬŃáĪŃ": 5151,
      "Ġáī°áĪĺáĪ«": 5152,
      "áĬĵáĮĪáĪ¨áĭįáĬķ": 5153,
      "ĠáĬłáĪ¸áĬĵáįĬ": 5154,
      "ĠáīłáĬłáī¥áĭĽáĬĽáĭį": 5155,
      "ĠáĬłáĭŃáĮĪáī£áĪĿ": 5156,
      "ĠáĪĺáĪµáĪ«": 5157,
      "ĠáĭŃáī³áĭĪ": 5158,
      "Ġáī°áĪ³áīµ": 5159,
      "ĠáĪĪáĪĺáĪĺáĪĪáĪµ": 5160,
      "ĠáĭĿáĬķáī£áĪĮ": 5161,
      "áĪĺáĮ£áĪī": 5162,
      "ĠáīħáĪŃáįħ": 5163,
      "Ġáĭ°áĪħáĬķáĬĲáī±": 5164,
      "ĠáĬ¥áīµáĪĿ": 5165,
      "ĠáīłáĮĭ": 5166,
      "áĪĺáī³áīµ": 5167,
      "áĮĪáĪĺ": 5168,
      "áĬĲáīłáī¥": 5169,
      "áįĪáīĢáĭ°": 5170,
      "áĬ¨áĪ°áīµ": 5171,
      "ĠáĮįáĬķáī¥": 5172,
      "áĮİáīł": 5173,
      "Ġáĭ²áĭ«": 5174,
      "ĠáĪĤáĭµ": 5175,
      "áĪĤáĭ±": 5176,
      "ĠáĭĺáĪŃáįį": 5177,
      "ĠáĪĺáĪĭáĬ¥áĬŃáīµ": 5178,
      "Ġáĭ¨áĪģáĪĪ": 5179,
      "ĠáĬ¥áĪĺ": 5180,
      "áĪ«áĪļ": 5181,
      "Ġáĭ«áīĢáĪ¨": 5182,
      "áĭĪáĪ©": 5183,
      "ĠáĬłáĪµáĪĺáĪį": 5184,
      "ĠáĪĻáĭ«": 5185,
      "ĠáĮ£áĪį": 5186,
      "Ġáĭ¨áĭĪáĭ°áįĬáīµ": 5187,
      "ĠáĪµáĬŃ": 5188,
      "ĠáĬ¦áĪŃ": 5189,
      "Ġáīłáī³áĪĭáīħ": 5190,
      "Ġáĭ¨áī°áī£áĪĪ": 5191,
      "ĠáĬ¥áĭ«áĬķáĭ³áĬķáĭ±áĬķ": 5192,
      "ĠáĬ¥áīħ": 5193,
      "ĠáĪĪáĬŃ": 5194,
      "Ġáĭ¨áĪļáī£áĪį": 5195,
      "Ġáĭ°áĪĺáĬĵ": 5196,
      "ĠáĬ¤áĬķ": 5197,
      "ĠáĪĺáĪµáĪĽáīµ": 5198,
      "Ġáĭ¨áī³áĭĪáīĢ": 5199,
      "áĪĮáĬŃáīµáĪ®": 5200,
      "Ġáīħáĭ³áĪľáĬĵ": 5201,
      "ĠáĮ©áĬ¸": 5202,
      "Ġáĭ¨áĬª": 5203,
      "áīĢáĭ±": 5204,
      "áī¶áī»áī½áĪģ": 5205,
      "ĠáīĢáĪ¨": 5206,
      "ĠáīłáĮŃáĪ«áĪ½": 5207,
      "ĠáĮ¥áĬĵáī¶áī½": 5208,
      "ĠáĮįáĭĽ": 5209,
      "áĬŀáī¹áĬķ": 5210,
      "áĪĺáĪĪáĬ¨": 5211,
      "áįķáī´": 5212,
      "áįģáĬķ": 5213,
      "áīłáĪ¨áī³áī³": 5214,
      "Ġáĭ¨áĪ´": 5215,
      "áĪ¨áĮł": 5216,
      "ĠáĬĲáĮłáĪĭ": 5217,
      "áĮ¥áīħ": 5218,
      "ĠáĪĪáĪĺáĪĦáĭµ": 5219,
      "ĠáĪĪáĪĺáĭµáĪ¨áĪµ": 5220,
      "ĠáĪ²áĪĺáĮ£": 5221,
      "áĪĿáĬķáī±": 5222,
      "ĠáīłáĪĿáĭµáĪ¨": 5223,
      "ĠáīĨáĪ»áĪ»": 5224,
      "áĭŀáī½": 5225,
      "ĠáĪĪáĭįáĮ¦áī½": 5226,
      "Ġáī£áĪįáĭ°áĪ¨": 5227,
      "Ġáĭ¨áĪļáĮĪáĪįáįħ": 5228,
      "Ġáĭ¨áĮĬáĭľ": 5229,
      "ĠáĬłáĪıáī¸áĭį": 5230,
      "ĠáĭŃáĪ»": 5231,
      "áįįáĭ«": 5232,
      "Ġáĭ¨áī°áĪĺáĪ¨": 5233,
      "Ġáĭ¨áī°áĭĺáĮĭáĮĢ": 5234,
      "ĠáĭĪáīħáī³áĭĬ": 5235,
      "Ġáĭ¨áīª": 5236,
      "áĪįáĪĢáĪį": 5237,
      "áįĭáĭŃ": 5238,
      "áĮ¨áĬĲ": 5239,
      "áī´áĮĤ": 5240,
      "ĠáīłáīµáĪĿáĪħáĪŃáīµ": 5241,
      "áĮłáĬĵáĬ¨áĪŃ": 5242,
      "ĠáĮ¥áīħáĪį": 5243,
      "áĬķáī°áĪŃáĬĶáīµ": 5244,
      "ĠáĪļáĬĴáĪµáīµáĪŃ": 5245,
      "ĠáĭŃáĮį": 5246,
      "áĮłáĪ©áīµ": 5247,
      "ĠáīłáĬłáĪĽ": 5248,
      "ĠáĬ¥áĬķáĭ³áĪĭáī¸áĭį": 5249,
      "ĠáĬłáĪįáĮĭ": 5250,
      "Ġáī¥áĭĻáĭİáī¹": 5251,
      "áĪ¶áĬķ": 5252,
      "ĠáĬ¨áĪĨáĬĲáĭį": 5253,
      "áĬķáĭ°áĬķ": 5254,
      "Ġáī´áĬŃáĬĴ": 5255,
      "ĠáĮįáĪĪáĪ°áī¥": 5256,
      "áĬķáĮİ": 5257,
      "ĠáĮįáĭĻ": 5258,
      "ĠáĪ²áĬĵáĮĪáĪŃ": 5259,
      "Ġáĭµáī¥": 5260,
      "Ġáĭ³áī¦": 5261,
      "Ġáĭ¨áĪ°áĮłáĭį": 5262,
      "ĠáĬ®áĭµ": 5263,
      "áĬŃáĪįáĪī": 5264,
      "áĬĭáī¸áĭį": 5265,
      "Ġáĭ¨áįĭáĭŃáĬĵáĬķáĪµ": 5266,
      "áĪħáĬĲáīµ": 5267,
      "áĭĪáīµáĪŃ": 5268,
      "Ġáĭ¨áĪļáĪĺáĪ«": 5269,
      "áĭ¨áĪį": 5270,
      "ĠáĪĪáĬłáī£": 5271,
      "ĠáīµáĬķáĪ³áĬ¤": 5272,
      "ĠáĪµáĪįáĬŃ": 5273,
      "ĠáĪĺáĪ³áĪªáĭ«áĭİáī½áĬķ": 5274,
      "Ġáĭ¨áĭŃáĪĨáĭĭáĬķ": 5275,
      "áĭĿáīĥáĭĽ": 5276,
      "áĬ¨áīłáĪŃ": 5277,
      "Ġáĭ¨áĪļáĪĺáĪµ": 5278,
      "áĬ«áĭĬ": 5279,
      "Ġáī¥áĪ¨áīµ": 5280,
      "Ġáĭ°áīĤáīĥáĭİáī½": 5281,
      "áĪµáīµáĪ«áĪĬáĭ«": 5282,
      "Ġáĭ²áĭĽáĭŃáĬķ": 5283,
      "áĪŃáĮ¥": 5284,
      "áĪ¨áįįáīµ": 5285,
      "Ġáĭ¨áĪļáĪ°áĪ©": 5286,
      "áī½áĬķáĪĿ": 5287,
      "ĠáĪĪáĪĺáĭįáĪ°áĭµ": 5288,
      "áĪµáĪ«áīħ": 5289,
      "Ġáĭ¨áĪµáī¥": 5290,
      "Ġáī°áĭĪáĪĭ": 5291,
      "áĪĿáįĴáĭ©": 5292,
      "Ġáī°áĪĪáĭŃ": 5293,
      "ĠáĬ¨áĪ°áĪĽáĭŃ": 5294,
      "áĭŃáĪĽáĬĸáīµ": 5295,
      "áĬŃáīłáĪŃ": 5296,
      "áī£áīł": 5297,
      "áīĢáĭįáĬķ": 5298,
      "áī²áīµ": 5299,
      "ĠáĪĿáĬķáĮ®áī½": 5300,
      "áĪĤáī¥": 5301,
      "ĠáĪĪáĪ°áĭİáī½": 5302,
      "áĪµáī¡áĬŃ": 5303,
      "áĭµáĪµ": 5304,
      "Ġáĭ¨áĪļáĭĪáĪµ": 5305,
      "ĠáĪĿáĭĿáĮĪáī£": 5306,
      "ĠáĪ°áīħáĪį": 5307,
      "áĪŀáī±": 5308,
      "áĪµáī°áĬŀáī½": 5309,
      "ĠáĪĢáĭŃáĪİáī½": 5310,
      "ĠáĪĢáĪ³áī¦áī½áĬķ": 5311,
      "ĠáĪĺáīģ": 5312,
      "Ġáī°áĬĵáĮĪáĪ¨": 5313,
      "Ġáī°áĭĺáĮĭáĮħ": 5314,
      "ĠáĬłáĭŃáĬĸáĪŃáĪĿ": 5315,
      "Ġáĭ¨áĬłáĬ¥áĪĿáĪ®": 5316,
      "ĠáĭĺáĪ®áī½": 5317,
      "ĠáĪĺáĪµáĪİ": 5318,
      "ĠáĪĺáī¥áī¶áī½": 5319,
      "ĠáĪĿáĬ¥áĪ«áī¥": 5320,
      "áįķáī´áĪĿáīłáĪŃ": 5321,
      "áĬķáīº": 5322,
      "Ġáīłáī¡": 5323,
      "ĠáīłáĭĪáĪŃ": 5324,
      "ĠáĪĺáīł": 5325,
      "ĠáĪĺáĭµ": 5326,
      "ĠáĪĺáĬĸáĪ©": 5327,
      "ĠáīłáĬłáĪľáĪªáĬ«": 5328,
      "áĪªáĭ«áĭį": 5329,
      "ĠáīłáĪĽáĬķ": 5330,
      "áī·áī¸áĭį": 5331,
      "áĪĺáĮ£áĮ£áĬĿ": 5332,
      "Ġáĭ¨áĪĤáĪ³áī¥": 5333,
      "ĠáĪĿáīµáĬŃ": 5334,
      "áĮ¥áĮ¥áĪŃ": 5335,
      "áĪ³áĪ«": 5336,
      "ĠáĬ¥áĬķáĭ°áĬĲáīłáĪ¨": 5337,
      "ĠáĮ¥áĬķáĬ«": 5338,
      "Ġáĭ¨áĬ¥áĪ³áīµ": 5339,
      "áĮĪáĪįáĮĭ": 5340,
      "ĠáĪªáįĲáī¥": 5341,
      "ĠáĭŃáĭĪáĪµáĭ³áĪį": 5342,
      "ĠáįķáĪ¬áĭļáĭ³áĬķáīµ": 5343,
      "ĠáīłáĪĺáĭ°": 5344,
      "ĠáīłáĬłáīħ": 5345,
      "ĠáĮŃáĪĿáĪŃ": 5346,
      "ĠáĬłáĮłáīĥáīĢáĪĿ": 5347,
      "ĠáīłáĬĴáĭį": 5348,
      "ĠáĬ¥áĮģáĬķ": 5349,
      "áĬĵáī¸áĭįáĬķ": 5350,
      "áīĥáĪ½": 5351,
      "ĠáĮ¥áīĤ": 5352,
      "Ġáī£áĬķáĬŃ": 5353,
      "ĠáĪĢáĪĿ": 5354,
      "ĠáĬłáĪĺáįħ": 5355,
      "Ġáĭ®áĬĵ": 5356,
      "ĠáĪĪáĭŃ": 5357,
      "áĮĭáī¢": 5358,
      "ĠáĬ¥áĬķáīģ": 5359,
      "ĠáĮłáĪŃ": 5360,
      "ĠáĪĿáĬŃáĪ®áī½": 5361,
      "áĮłáĬĵáīĢáīħ": 5362,
      "ĠáĪµáīµáĪį": 5363,
      "ĠáĮĢáĪĺáĪŃáĬ©": 5364,
      "Ġáī£áĪħáĪŃáĭŃ": 5365,
      "ĠáīłáĪĺáĬ«áĬ¨áĪĭáī¸áĭį": 5366,
      "ĠáįįáīµáĪħ": 5367,
      "Ġáĭ«áĪµáįĪáĪįáĮįáĭİáī³áĪį": 5368,
      "áīłáĭĽ": 5369,
      "áĪ°áĭ±": 5370,
      "ĠáĪµáĪĽ": 5371,
      "ĠáĪ°áĪ¨áĮĪ": 5372,
      "Ġáī£áĪĭáī¸áĭį": 5373,
      "Ġáĭ¨áĪļáĭ«áĭ°áĪŃáĮĪáĭį": 5374,
      "áĪµáī°áĬķ": 5375,
      "ĠáįĢáĪ¨": 5376,
      "áĪ·áĬķ": 5377,
      "ĠáĪ¶áĪµáī°áĬĽ": 5378,
      "ĠáĬ¥áĭįáĬĲáī°áĬĽáĭį": 5379,
      "ĠáĬ¥áĬķáīħáĪįáįį": 5380,
      "áĪįáĪĽ": 5381,
      "ĠáīłáĪ®": 5382,
      "áĪĪáĪ°áī¥": 5383,
      "áī¶áī»áī¸áĭįáĬķ": 5384,
      "áĪĢáĭµ": 5385,
      "áĪĮáĪĿ": 5386,
      "ĠáĬ¥áĬķáĮĢ": 5387,
      "Ġáī³áĭĽ": 5388,
      "áĪľáī³": 5389,
      "ĠáĬłáĪĿáī£": 5390,
      "áīĢáĪĺáĮł": 5391,
      "Ġáĭ©áĬĵáĭŃáīµáĭµ": 5392,
      "ĠáĪĢáĭŃáĪĽáĬĸáīµ": 5393,
      "ĠáĬłáĭµáĬĵáīĨáīµ": 5394,
      "Ġáĭ¨áĮ£": 5395,
      "Ġáĭ¨áĭ°áĪĿ": 5396,
      "ĠáĬłáĬķáĭ´": 5397,
      "áĮĪáĮĥ": 5398,
      "ĠáĪĺáĭ«áĭ£": 5399,
      "ĠáĪ¶áįįáīµ": 5400,
      "Ġáĭ²áĮįáĪª": 5401,
      "ĠáĮįáī¥áĭŃáīµ": 5402,
      "áĬ«áĪĦáĭ°": 5403,
      "ĠáīłáĪº": 5404,
      "ĠáĬĲáįĭáĪµ": 5405,
      "ĠáĭĪáĪ¬": 5406,
      "ĠáĬ¥áĬĵáī´": 5407,
      "áĪ½áĬĸáī½": 5408,
      "ĠáīłáĬłáĭį": 5409,
      "ĠáĮįáī¥áįħ": 5410,
      "ĠáĭŃáīłáĪī": 5411,
      "áĪĺáĭĺáĮĪáī¡": 5412,
      "áĪĿáĪ«": 5413,
      "Ġáĭ¨áĮł": 5414,
      "áĪĭáĪĪáĬķ": 5415,
      "ĠáĪĺáīĢáĪĺáĮ«": 5416,
      "ĠáĪµáĪªáīµ": 5417,
      "Ġáĭ¨áĪļáīĢ": 5418,
      "ĠáĪĿáĪį": 5419,
      "ĠáĬłáĪįáī»áĪį": 5420,
      "ĠáīģáĪĿ": 5421,
      "ĠáĪĻáĪ´áĪĿ": 5422,
      "Ġáīłáī£áĪħáĪŃ": 5423,
      "ĠáĬ«áĪħáĬĳ": 5424,
      "ĠáĬ¥áĬ©": 5425,
      "ĠáĪĺáīĭáīĭáĪĿ": 5426,
      "áĬ¥áĪĪáīµ": 5427,
      "Ġáĭ¨áĪļáĬ¨áī°áĪĪáĭįáĬķ": 5428,
      "ĠáĬ¨áĪįáī¥": 5429,
      "ĠáĬ¤áĪįáĭ«áĪµ": 5430,
      "Ġáĭ¨áĬłáīµáĬŃáĪįáīµ": 5431,
      "Ġáĭ¨áĬķ": 5432,
      "áī³áĪ¨": 5433,
      "áĬłáĭŃ": 5434,
      "ĠáĪ³áĬ¦": 5435,
      "ĠáĪ½áĭ«áĮŃ": 5436,
      "ĠáĪĪáĪĺáīĢáĬĲáĪµ": 5437,
      "ĠáīĢáĮ£áĭŃ": 5438,
      "Ġáĭ¨áĭµáĪŃáĮħ": 5439,
      "ĠáĬ¥áĪ°áĮ£": 5440,
      "ĠáĬłáĮ£": 5441,
      "áĮłáĮ¥": 5442,
      "áįĪáĪī": 5443,
      "ĠáĭįáĪį": 5444,
      "ĠáĬ¨áĬ¥áĪŃáĪµáĭİ": 5445,
      "ĠáĬłáĮĪáĪįáĮįáĪİáī¶áī½áĬķ": 5446,
      "ĠáĪĪáĪĺáįįáī³áīµ": 5447,
      "ĠáīłáĮĪáĭĽ": 5448,
      "ĠáĭŃáĪŀ": 5449,
      "áīĤáĬĿ": 5450,
      "ĠáĬ¥áĭįáĬĲáī³": 5451,
      "áĪ°áī¡áĬķ": 5452,
      "ĠáįħáĪģáįİáī½": 5453,
      "Ġáĭ¨áĬ¥áĪµáĪ«áĬ¤áĪįáĬķ": 5454,
      "Ġáĭ¨áĪļáĬ¨áī°áĪīáīµ": 5455,
      "ĠáĭĺáįįáĮ¥áĪ¨áīµ": 5456,
      "ĠáīłáĬĲáīłáĪ¨áīłáīµ": 5457,
      "áĭ¨áĪģ": 5458,
      "Ġáĭ¨áī°áĪĺ": 5459,
      "ĠáĪĪáĪĺáĬŃ": 5460,
      "áĪľáīµ": 5461,
      "ĠáĪŀáĬŃ": 5462,
      "ĠáĬłáī£áī±": 5463,
      "ĠáīłáĪĨ": 5464,
      "áĮĪáĮį": 5465,
      "ĠáĪĺáĬ«áĬ¨": 5466,
      "Ġáĭ¨áĪļáĭ°áĪ¨áĮį": 5467,
      "Ġáĭ°áĪ«áĪ²": 5468,
      "áīĨáĭ¨áīµ": 5469,
      "áĭ¶áĪĿ": 5470,
      "Ġáī¦áĪŃáĪ³": 5471,
      "ĠáĪ«áĪµáĬķ": 5472,
      "ĠáĬ¥áĬķáĭ²áĭ«áĮĪáĬĻ": 5473,
      "ĠáĪ°áĪĽáĭ«áĭĬ": 5474,
      "Ġáĭĺáĭ´áĭİáī½": 5475,
      "Ġáī°áĪ°áĪĿ": 5476,
      "Ġáĭ¨áĪļáĪĨáĬĲáĭį": 5477,
      "áįĭáĪŃ": 5478,
      "Ġáī³áĭ°áĪŃáĮĭ": 5479,
      "ĠáįĪáĮ¥": 5480,
      "ĠáĮīáĭµ": 5481,
      "ĠáĪ°áĮ¥áī·áĪį": 5482,
      "Ġáī°áĭ°áĪŃáĮİ": 5483,
      "ĠáĪĿáĭµáĪ¨": 5484,
      "ĠáĭįáĪµáī¥": 5485,
      "áĬ®áĪŃ": 5486,
      "áīĭáĪļ": 5487,
      "ĠáĮīáĭ³áĭ©áĬķ": 5488,
      "ĠáĬķáĮīáĪ±áĪĿ": 5489,
      "ĠáīµáĪŃáįį": 5490,
      "áĬĹáĬĹ": 5491,
      "Ġáī°áīĭáĪĽáīµ": 5492,
      "áĭįáĭ«áĬķáĪĿ": 5493,
      "ĠáīłáĪĺáĬķáĮĪáĭµ": 5494,
      "ĠáĬ¨áįĢ": 5495,
      "ĠáĭĪáĬª": 5496,
      "ĠáĪĪáĪĽáĪĪáīµ": 5497,
      "Ġáĭ¨áĬ¥áĬĲáĭļáĪħ": 5498,
      "ĠáĮłáīłáīĥ": 5499,
      "ĠáįĪáĪª": 5500,
      "ĠáīłáĪ°áĪľáĬķ": 5501,
      "Ġáī°áĬĵáĮįáĪ«": 5502,
      "ĠáĪªáįĸáĪŃ": 5503,
      "ĠáīĭáĬķáīĭáĭİáī½": 5504,
      "áĪ³áī°áįį": 5505,
      "Ġáĭ¨áĬĽ": 5506,
      "ĠáīłáĪĤ": 5507,
      "áī½áīłáīµ": 5508,
      "ĠáĪĺáįĢ": 5509,
      "áĮįáĬĲáīµ": 5510,
      "ĠáĬ¥áĬķáĭĪ": 5511,
      "ĠáĬĲáĮĪáĪŃáĮįáĬķ": 5512,
      "ĠáĮĪáĬĲáīµ": 5513,
      "áĪªáĬ«áĭĬ": 5514,
      "ĠĠĠĠĠ": 5515,
      "ĠáĭŃáĪįáīģáĬķáĪĿ": 5516,
      "áĪŃáī¥": 5517,
      "ĠáīłáĪ°áĪ«": 5518,
      "Ġáī°áĮłáīĥáĪļáĭİáī½": 5519,
      "Ġáĭ¨áĪļáĪ¨áĭ±": 5520,
      "áĬ©áīµáĬķ": 5521,
      "ĠáĬ¥áĬķáĭ³áĪīáīµ": 5522,
      "áĬķáĪµáĪ³áīµ": 5523,
      "ĠáĮ¥áĭ«áīĦáĭİáī½áĬķ": 5524,
      "áĪĿáįĴáĭįáī°áĪŃ": 5525,
      "ĠáĬ¥áĮ©": 5526,
      "ĠáĬ¨áĪ¨": 5527,
      "áĭµáĪĿ": 5528,
      "ĠáĬ¥áĬķáĭ²áįĪ": 5529,
      "Ġáĭ«áĪĪáĪĽ": 5530,
      "ĠáīħáĪŃáī¥": 5531,
      "ĠáĪĪáĪµáĪ«": 5532,
      "ĠáĪµáĬ¬áīµ": 5533,
      "ĠáĪĨáĪµ": 5534,
      "Ġáī¦áĪŃáĭµ": 5535,
      "ĠáįķáĪĭ": 5536,
      "áĪĭáī½áĪģáĬķ": 5537,
      "ĠáĬ¨áī°áĪĽáĭĭ": 5538,
      "áĮĪáĬĽáĪĪáĬķ": 5539,
      "áĬĲáī³áī½áĬķáĬķ": 5540,
      "áī¥áĪİáĪµ": 5541,
      "áĪĽáĭį": 5542,
      "ĠáĪĪáĬ«": 5543,
      "Ġáī°áĭĺ": 5544,
      "Ġáī°áĬłáĪĿ": 5545,
      "ĠáĪĽáĮĪáĪįáĮĪáĪį": 5546,
      "ĠáīłáĬłáī£": 5547,
      "ĠáįĪáĪĪ": 5548,
      "Ġáī£áĪħáĪŃáĭ«áīµ": 5549,
      "áĪĿáĭµáĬĵ": 5550,
      "ĠáīłáĬŃáĪŃáĪµáī¶áĪµ": 5551,
      "Ġáĭ¨áĬ¥áĬĽáĬķ": 5552,
      "ĠáĪµáĬ¬áī³áĪĽ": 5553,
      "áĪ°áĭĬáĭ«áĭį": 5554,
      "ĠáĪĺáĬ¨áī°áĪį": 5555,
      "áĭĪáĮ£áīµ": 5556,
      "Ġáĭ°áĪµáī°áĬŀáī½": 5557,
      "ĠáįįáĪĪáĮĭ": 5558,
      "ĠáĪ°áĭįáĭ¨áĭį": 5559,
      "ĠáĪħáĭĿáī¡áĪĿ": 5560,
      "ĠáĮĵáĭ°áĬŀ": 5561,
      "áĬķáĮĭ": 5562,
      "ĠáĪĺáĬĿáī³": 5563,
      "ĠáĭŃáĭŃ": 5564,
      "Ġáī°áĮį": 5565,
      "Ġáĭ¨áī°áĪ°áĮłáĭį": 5566,
      "áĪĦáĪ«áĭĬ": 5567,
      "ĠáĪĤáĪ³áī¥": 5568,
      "ĠáĭŃáĬĸáĪ«áĪī": 5569,
      "ĠáĪĿáĪµáĪ«áī¹áĬķ": 5570,
      "ĠáĪĺáĪĿáĪ¨áĮ¥": 5571,
      "ĠáīµáĬĵáĬķáīµ": 5572,
      "Ġáĭ¨áĭµáĪŃ": 5573,
      "áĪĻáĪŃáīµ": 5574,
      "ĠáīĥáĪīáĬķ": 5575,
      "ĠáĪĺáĭĿáĬĵ": 5576,
      "Ġáĭ«áĪĪáĬķáĬķ": 5577,
      "ĠáĭŃáĬĸáĪ©": 5578,
      "ĠáĪĪáĮį": 5579,
      "ĠáĪ°áĪĮ": 5580,
      "áĭįáĬķáĬĵ": 5581,
      "áĪĮáĬķ": 5582,
      "ĠáĬ«áĪ³": 5583,
      "áĮ«áĭİáī½": 5584,
      "áįĪáįĢáĪĺáĭį": 5585,
      "ĠáĭįáĮ¤áī¶áī½": 5586,
      "áĬķáĮĢáĪį": 5587,
      "ĠáĬ¢áĬķáī¨áĪµáīµ": 5588,
      "ĠáĬ¥áĪħáī¶áī½": 5589,
      "ĠáĮīáī¥áĬĿáīµ": 5590,
      "ĠáĬłáĪ»": 5591,
      "ĠáĬĲáĮį": 5592,
      "áĭİáīµáĬķ": 5593,
      "áĬ©áĬķ": 5594,
      "Ġáī³áī¦áīµ": 5595,
      "áĮĵáī¸áĭį": 5596,
      "áĮ¦áīµ": 5597,
      "Ġáīłáĭ¨áĬ¥": 5598,
      "Ġáĭ¨áįħáĪģáįį": 5599,
      "ĠáįįáīµáĪĢáĭĬ": 5600,
      "áīĥáĭĪáĪĿ": 5601,
      "áĪĺáĮł": 5602,
      "áīĢáĪ³": 5603,
      "áĬ«áĭį": 5604,
      "áī±áĬķáĪĿ": 5605,
      "ĠáĪĪáĪĽáĪĿáĮ£áīµ": 5606,
      "ĠáįĪáĮ£áĪª": 5607,
      "ĠáīłáįįáīħáĪŃ": 5608,
      "áĬĲáĮĪáĪ¨": 5609,
      "ĠáĮĨáĪŃ": 5610,
      "ĠáĬ¨áĪĿáĭµáĪŃ": 5611,
      "ĠáĪĺáĭĽáĪĻáĪŃáīµ": 5612,
      "Ġáĭ¨áĪļáĪ°áĮ¡": 5613,
      "áĬ«áįį": 5614,
      "áĬ¬áĪ½áĬķ": 5615,
      "ĠáĪĽáĪ³áĪ°áī¢áĭ«": 5616,
      "ĠáīµáĬ©áĪµ": 5617,
      "ĠáĬ¢áĬķáĪ¹áĪ«áĬķáĪµ": 5618,
      "ĠáīłáĮīáĮīáīµ": 5619,
      "Ġáĭ³áĭĬáīµáĬķ": 5620,
      "áīµáĪĺáīµ": 5621,
      "ĠáĪ°áĬķ": 5622,
      "Ġáī£áĭ¶": 5623,
      "ĠáĪĺáĬķáĮĭ": 5624,
      "áĮĨáī»áī¸áĭį": 5625,
      "Ġáī¢áĪĬáĭ®áĬķ": 5626,
      "ĠáĬ¨áĪĺáĪµ": 5627,
      "ĠáĬ¥áĭįáĬĲáīµáĬķ": 5628,
      "Ġáĭ¨áĪļáĮĪáī£áĭį": 5629,
      "ĠáīłáĬłáĭ²áĪ±": 5630,
      "Ġáĭ¨áĪĺáĬĸáĪªáĭ«": 5631,
      "ĠáĬķáĮĪ": 5632,
      "ĠáĪĽáĬŃáĪ°áĬŀ": 5633,
      "Ġáĭ¨áĮĮ": 5634,
      "ĠáĬ¥áĪĭáī½áĬĭáĪĪáĪģ": 5635,
      "áī°áĪ¨": 5636,
      "ĠáĪĪáĮĪ": 5637,
      "áī£áī¢áĭ«": 5638,
      "ĠáĬłáĪµáĬªáĭ«": 5639,
      "ĠáĬłáĭŃáĬĲáī±": 5640,
      "ĠáĬ¤áĪĬ": 5641,
      "áīłáĪįáĮ¡": 5642,
      "ĠáĬłáĪµáįĪáĪª": 5643,
      "ĠáĬ¥áĬķáĮįáĪĬáĭĿ": 5644,
      "áĪµáī²áĬŃ": 5645,
      "ĠáĬłáĪµáī³áĭįáĪµ": 5646,
      "Ġáĭ°áĪ¨áĪ°": 5647,
      "ĠáĬŃáĪŃáĬŃáĪŃ": 5648,
      "ĠáĪĽáīłáĪ¨áī³áī»": 5649,
      "ĠáĪĺáįĪáĪĪáĮį": 5650,
      "ĠáĬ¨áĪ°áĭį": 5651,
      "ĠáĪĪáĬĲ": 5652,
      "ĠáĪĪáĪģáĪĪ": 5653,
      "Ġáĭ«áĬĲáĮĭ": 5654,
      "ĠáĪĽáĭįáĮ£áīµ": 5655,
      "ĠáĬ¥áĬķáĭ²áīĢ": 5656,
      "Ġáī£áī¢": 5657,
      "ĠáĬłáĭŃáĬĲáī¶áī½": 5658,
      "áīĨáĪĻ": 5659,
      "áĪĬáĭ«áĬķ": 5660,
      "Ġáīłáī°áĪĪáĭ¨": 5661,
      "áįĪáįħáĪĻ": 5662,
      "ĠáĭŃáĪ°áĮ¥": 5663,
      "áĭµáĭµáĪŃ": 5664,
      "Ġáĭ¨áī°áĭĭ": 5665,
      "Ġáĭ«áĪµáīĢáĪĿ": 5666,
      "áĪĭáīĢáĪį": 5667,
      "ĠáĪįáĪĽáĭµ": 5668,
      "ĠáĬłáĪµáĪĺáĪįáĬŃáī¶": 5669,
      "ĠáĪĺáįĪ": 5670,
      "ĠáĬĲáįĭ": 5671,
      "áĮ¥áĪĿ": 5672,
      "ĠáĬ«áĪĭáī¸áĭį": 5673,
      "ĠáīłáĪĽáĪ°áī¥": 5674,
      "ĠáĮ¥áīħáĪŀáī½": 5675,
      "Ġáī£áĪĪáī¤áī´": 5676,
      "ĠáīłáĪ°áĭŃáįį": 5677,
      "ĠáĭįáĪµáī¥áĪµáī¥": 5678,
      "Ġáī°áĬĵáĮįáĪ«áĪĪáī½": 5679,
      "áĮłáĪĿ": 5680,
      "Ġáĭ¨áī°áĮĪáĬĺ": 5681,
      "áĭ®áĪµ": 5682,
      "ĠáĪįáĮĨáī»áī½áĪģ": 5683,
      "Ġáī°áĪĺáĪįáĪ¶": 5684,
      "Ġáī°áĪĪáĭĭáĭĭáĮŃ": 5685,
      "ĠáīłáĭįáĪµáĮ¡": 5686,
      "ĠáĮįáĭµáĮįáĭ³": 5687,
      "ĠáĪĺáĪŀáĬ¨áĪŃ": 5688,
      "ĠáĪĪáĮī": 5689,
      "ĠáĪµáīĥáĭŃ": 5690,
      "áĬ«áĪªáĭİáī½": 5691,
      "Ġáĭ¨áĪĺáĪ³áĪ°": 5692,
      "áĪĺáĪĪáĬ¨áī³": 5693,
      "ĠáīłáĪĿáĪŃ": 5694,
      "ĠáĬłáįįáīĥ": 5695,
      "ĠáīłáĮ£": 5696,
      "áĮĪáī¢áĭ«": 5697,
      "Ġáĭ«áīł": 5698,
      "áīĢáĪ±": 5699,
      "áĪĨáī½": 5700,
      "Ġáĭ¨áĪļáĮĪáī¡": 5701,
      "ĠáĪĽáĪĺáĪįáĬ¨áī»": 5702,
      "áĪ®áī»áī¸áĭį": 5703,
      "ĠáĮłáĪĭáīµ": 5704,
      "Ġáĭ¨áĪĽáĬķ": 5705,
      "áĪ¸áĬķ": 5706,
      "Ġáĭ¨áĪĪáĪ½": 5707,
      "Ġáĭ¨áĪĽáĪħáīłáĪ«áĭĬ": 5708,
      "Ġáĭ¨áĬ¬": 5709,
      "Ġáĭ«áĮĪáĪĪáĮį": 5710,
      "Ġáī°áĬ¥áĪĪáīµ": 5711,
      "Ġáĭ¨áĪļáĪĺáĮ£": 5712,
      "ĠáĮĪáįĢ": 5713,
      "ĠáĪĺáĪµáĪĺ": 5714,
      "áĮįáĪ«áī¸áĭį": 5715,
      "Ġáī°áĬĲáĪµáī°áĭį": 5716,
      "Ġáĭ¨áĪ«áĪ±áĬķ": 5717,
      "ĠáĬłáĭµáĪŃáĮĪáĭĭáĪį": 5718,
      "Ġáĭļ": 5719,
      "áĭįáĪī": 5720,
      "ĠáĬłáĪĢ": 5721,
      "áĭ«áī¸áĭįáĬķ": 5722,
      "ĠáĭŃáĭĪáĭµ": 5723,
      "ĠáĭŃáĮİáī¥": 5724,
      "ĠáĪĪáĮĭ": 5725,
      "Ġáĭ¨áĪļáīĥáĮłáĪį": 5726,
      "áĪ½áĬķáĮįáī°áĬķ": 5727,
      "ĠáĬĲáīłáĪŃáĬĵ": 5728,
      "ĠáīłáĬ¥áĪĿáĬĲáīµ": 5729,
      "áĮłáīĢáĪĻáīłáīµ": 5730,
      "Ġáī°áīĢáĪĿáĮ¦": 5731,
      "áĮ¬": 5732,
      "ĠáīłáĮł": 5733,
      "áĪĽáī½áĬķ": 5734,
      "áīĢáĬĿ": 5735,
      "Ġáī°áĮĪáĪį": 5736,
      "áīĥáī½áĪģ": 5737,
      "Ġáĭ¨áī°áĮ£": 5738,
      "ĠáĭĿáĪĿáĭµáĬĵ": 5739,
      "ĠáĪµáĪħáī°": 5740,
      "áĭįáĮ£": 5741,
      "áĪĺáĭĪáĭĿ": 5742,
      "áĬĲáĭĭáĪį": 5743,
      "áĪĽáī½áĪģ": 5744,
      "ĠáĬ¢áĪ³": 5745,
      "ĠáĪµáĪįáĮ£": 5746,
      "ĠáĬªáĬķáĮį": 5747,
      "ĠáīłáĮĢáīµ": 5748,
      "ĠáĬłáĭĪáĮ£": 5749,
      "ĠáĪĺáĬ³áĬķáĬķ": 5750,
      "áĭ°áĪµ": 5751,
      "ĠáĬ¨áĪ³": 5752,
      "ĠáĭŃáĮłáįĭ": 5753,
      "ĠáĪĿáĪģ": 5754,
      "ĠáĪĽáĭŃáĪį": 5755,
      "áĬ«áĪ½": 5756,
      "ĠáĪĪáĭ°áĬķáīł": 5757,
      "áī¸áĭĭáĪĪáĪħ": 5758,
      "áĪĿáįĴáĭ©áī°áĪŃ": 5759,
      "áī°áĪĢáĪį": 5760,
      "áī¶áī³áĪį": 5761,
      "áĮĥáī¸áĭį": 5762,
      "áĪ¨áĮĭáĮĭ": 5763,
      "ĠáĬ¨áĭĪáĬķáĭµ": 5764,
      "áĬ®áĬĸáĪļáĭ«": 5765,
      "ĠáĭĪáĭµáĮĦ": 5766,
      "ĠáĪĿáĮįáī¦áī½": 5767,
      "ĠáĭŃáĭŁáĪį": 5768,
      "Ġáĭ«áĬķáī¥": 5769,
      "Ġáĭįáīłáīµ": 5770,
      "ĠáĬ¥áĬķáĭ²áĪ°": 5771,
      "Ġáĭ¨áĪĺáĮ¡": 5772,
      "ĠáĪĨáĬķ": 5773,
      "ĠáĬ¥áĬķáĭ°áĪļáī»áĪį": 5774,
      "Ġáĭ«áĪĪáī£áī¸áĭį": 5775,
      "áĬªáĭİáī½": 5776,
      "ĠáīĨáĪ®áĬķáī¶áĪµ": 5777,
      "Ġáī°áĪĺáĪįáĬŃ": 5778,
      "ĠáĪµáīµáĪ«": 5779,
      "Ġáĭ¨áĭ±áĪŃ": 5780,
      "ĠáĭŃáĮİáī¥áĬĻ": 5781,
      "áĪįáĬĵ": 5782,
      "áĪ«áĬĴ": 5783,
      "áĪ³áįį": 5784,
      "áī¸áīµ": 5785,
      "ĠáĪĽáĭ³": 5786,
      "ĠáīłáĪĺáĪĦáĭµ": 5787,
      "áĬ©áĬĿ": 5788,
      "ĠáĮĪáĭĽ": 5789,
      "ĠáīħáĪ¬": 5790,
      "ĠáĬ¢áĪľ": 5791,
      "áĮ«áĬĳ": 5792,
      "áĪ°áĪĽáĭį": 5793,
      "ĠáĬ¥áĭ«áĪī": 5794,
      "Ġáī³áĪĭáĪĭáīħ": 5795,
      "ĠáĮ¢áĪŀáī´áĭİáĪµ": 5796,
      "ĠáĬłáĭ«áĭįáīħáĪĿ": 5797,
      "ĠáīµáĪŃáĬ¢áīµ": 5798,
      "áĪįáĬ«": 5799,
      "áĮĪáĭ³": 5800,
      "ĠáĭŃáĮ¥": 5801,
      "Ġáĭ«áī°áĬ®": 5802,
      "ĠáĬłáĪµáīĢáĪĿ": 5803,
      "Ġáĭ¨áĪĽáĮįáĬĺáīµ": 5804,
      "Ġáī¢áĬĸáĪŃ": 5805,
      "ĠáĬ¤áįĮ": 5806,
      "áĮ¦áĪ½": 5807,
      "áĪ°áī£áī½áĬķ": 5808,
      "áĭ«áĭ«áĭĿ": 5809,
      "áĭĺáĭįáīµ": 5810,
      "Ġáī£áĪįáĬĵ": 5811,
      "ĠáĪµáĪĪáĪĿ": 5812,
      "ĠáĬłáĪįáīł": 5813,
      "ĠáĬ¨áĬ¨áī°áĪĽ": 5814,
      "ĠáĭŃáĮĪáĬĻ": 5815,
      "Ġáĭ¨áī°áĭ°": 5816,
      "ĠáĬ¥áĬķáĭ²áĪ¨áĭ³": 5817,
      "ĠáĮįáī¢": 5818,
      "ĠáĭµáĮį": 5819,
      "ĠáĬłáĪĪáī¥áĪħ": 5820,
      "ĠáĬªáĭ³": 5821,
      "áĬķáĮīáĪµ": 5822,
      "ĠáĪŀáĭ´áĪį": 5823,
      "Ġáīłáĭ®": 5824,
      "áī£áĮŃ": 5825,
      "ĠáīłáĪĺáĮ£": 5826,
      "ĠáīłáĪĺáĪ°áĪ¨": 5827,
      "ĠáĬŃáĪĭ": 5828,
      "ĠáīĨáĪŀ": 5829,
      "áĮĪáĪĪáĮĪ": 5830,
      "áįįáĪ¬áĪĿ": 5831,
      "ĠáĬłáĪĺáįĢ": 5832,
      "ĠáĪĿáĬķáĬĽ": 5833,
      "Ġáī¥áĪİáĪĿ": 5834,
      "áįĪáĪŃáĬ¦áĬķ": 5835,
      "Ġáī°áĭĪáĬ«áĭ®áī½": 5836,
      "áĭĪáĭ«áĭ¨áīµ": 5837,
      "ĠáĬłáĭ²áĪ±áĬķ": 5838,
      "Ġáĭ¨áĭ°áĪ¨áĪ°": 5839,
      "Ġáīłáīħáĭ±": 5840,
      "ĠáīłáĪ«áĪ³áī¸áĭį": 5841,
      "ĠáĪĺáĪĭáĭį": 5842,
      "ĠáĪµáĭ°": 5843,
      "Ġáĭ¨áī°áĭ«áĭ«áĭĺ": 5844,
      "Ġáīłáī°áīĥ": 5845,
      "ĠáĬ¥áĪµáĪŃ": 5846,
      "ĠáĬłáĬķáī£áī¢": 5847,
      "Ġáĭ¨áĪħáįĥ": 5848,
      "Ġáīłáĭ¨áĮĬáĭľáĭį": 5849,
      "ĠáĮĨáĬķ": 5850,
      "áĬĲáĪŃáĪ±áĪĿ": 5851,
      "áĮİáī¥áĬĺáīµ": 5852,
      "Ġáīłáĭ¨áĬ¥áĪĪáī±": 5853,
      "ĠáīłáĮĢ": 5854,
      "áĭŃáĬĲ": 5855,
      "áĭįáĬķáī²": 5856,
      "áĪ»áĮĪáĪŃ": 5857,
      "ĠáĬ¥áĭµáĮĪ": 5858,
      "áĪ«áī¸áĭįáĪĿ": 5859,
      "ĠáĬłáī¥áĭĽáĬĽáĭį": 5860,
      "áĬ¥áĪĿáĪ¯": 5861,
      "Ġáĭ¨áĬ¨áįĭ": 5862,
      "Ġáīłáīħáĭµ": 5863,
      "áĬķáĭĭ": 5864,
      "áĭŃáĬķáīµ": 5865,
      "ĠáĬłáĭµáĪŃáĮĭáī½áĪģ": 5866,
      "áĬĲáĪ³áīµ": 5867,
      "Ġáĭ¨áĪµáĪį": 5868,
      "Ġáĭ¨áĭįáĪµáĮ¥": 5869,
      "Ġáĭ¨áįĪáĮłáĪ«": 5870,
      "ĠáĪĪáĪħáĭĿáī¥": 5871,
      "Ġáĭ«áĬķáī¥áī¡": 5872,
      "áįĦ": 5873,
      "ĠáĬłáĭĺáĭįáīµ": 5874,
      "áī°áĬŀáī¹": 5875,
      "ĠáĪĺáĮĪáĪĪ": 5876,
      "ĠáĭŃáĭĪáĪ°": 5877,
      "ĠáĪĽáĪĺáĬķ": 5878,
      "áĪĢáĪ´": 5879,
      "ĠáĬłáĭµáĪŃáĮĪáĬķ": 5880,
      "áĬĵáĮĪáĬĿ": 5881,
      "Ġáĭ¨áĪĺáĮĢáĪĺáĪªáĭ«áĭįáĬķ": 5882,
      "Ġáī°áĪ³áīµáįİ": 5883,
      "Ġáī¬": 5884,
      "Ġáĭ¨áī´áĪĮ": 5885,
      "áĮłáĮ£": 5886,
      "ĠáĪ°áĬŀ": 5887,
      "áįĭáįĭ": 5888,
      "Ġáĭ¨áĪĺáĬķ": 5889,
      "ĠáīĨáĭ³": 5890,
      "Ġáĭ¨áĮįáĭµ": 5891,
      "áī¾áīµ": 5892,
      "ĠáĬłáīħáĪŃáī¦áīµ": 5893,
      "Ġáĭ¨áĪļáĭ«áĪ³áĭ©": 5894,
      "Ġáīº": 5895,
      "áĭįáīħ": 5896,
      "áīłáĬŃ": 5897,
      "áī£áĬķ": 5898,
      "áĪ³áī±": 5899,
      "áĮ£áįĭ": 5900,
      "áĮĪáī£áĬĽáĪį": 5901,
      "áĮįáī£áī£áīµ": 5902,
      "ĠáĮĢáĪįáī£": 5903,
      "Ġáĭ¨áįįáĪŃáĭµ": 5904,
      "ĠáĬ¥áĪŃáĪĿáĮĥáĭİáī½": 5905,
      "áĬķáīĢáĪ³áīĢáĪµ": 5906,
      "Ġáī£áĪĪáī¤áī¶áī½": 5907,
      "ĠáįįáĮ¥áĪ¨áī³áīµ": 5908,
      "ĠáĮ¥áĬķáĬ«áĪ¬": 5909,
      "Ġáī£áīµ": 5910,
      "áĪ»áĭį": 5911,
      "Ġáĭ¨áīµáĬĽáĭį": 5912,
      "ĠáĭĽáįİáī½": 5913,
      "áīĪ": 5914,
      "ĠáīłáĪ®áī½": 5915,
      "áĬĲáįĥáįĢ": 5916,
      "áī¶áĬķ": 5917,
      "ĠáĪ²áĭ°áĪŃáĪµ": 5918,
      "Ġáĭ¨áĬłáĪį": 5919,
      "ĠáĪĬáįĪ": 5920,
      "ĠáīłáĬ¥áĭµáĪľ": 5921,
      "áĮĪáī£áī¸áĭį": 5922,
      "ĠáĬłáĬķáī½áĪįáĪĿ": 5923,
      "ĠáĪģáĬĶáī³áĭį": 5924,
      "ĠáĬ®áĬ¨áī¥": 5925,
      "ĠáĪĺáĪŃáĬ¨áī¥": 5926,
      "ĠáĬ¥áĬķáĮįáĭ²áĭ«áĭį": 5927,
      "Ġáī¶áĪİ": 5928,
      "Ġáĭ¨áĬłáĪµáī°áĭ³áĭ°áĪŃ": 5929,
      "áĪĭáī½áĬĭáĪį": 5930,
      "ĠáĪĺáĪĿáĪħ": 5931,
      "áĪīáīłáīµ": 5932,
      "ĠáĪµáĪĿáĬķáīµ": 5933,
      "áīĥáīĤ": 5934,
      "ĠáĬ¥áĬķáĭ²áī½áĪī": 5935,
      "ĠáīĢáĪį": 5936,
      "ĠáīłáĬłáĪµáī°": 5937,
      "ĠáĪģáĬĶáī³áĭİáī½áĬķ": 5938,
      "áįĵáĪŃ": 5939,
      "ĠáīµáĬŃáĬŃáĪĪáĬĽáĭį": 5940,
      "Ġáĭ¨áĪª": 5941,
      "Ġáĭ¨áĪ±": 5942,
      "áĭİáī¼": 5943,
      "áĮłáĬĿáĬĲáīµ": 5944,
      "Ġáīłáī°áĭĪáĪ°áĬĲ": 5945,
      "Ġáī³áī½": 5946,
      "ĠáīłáĪ°áĪĭáĪĿ": 5947,
      "ĠáĬłáĮĭáĮ¥": 5948,
      "ĠáĪ«áĪ³áī½áĬķáĬķ": 5949,
      "ĠáĬłáĪĺáĪµáĮĭ": 5950,
      "ĠáĪĢáĭ«áĪį": 5951,
      "ĠáĬ«áĪµ": 5952,
      "ĠáīħáĮ¥áĪŃ": 5953,
      "áĪ¸áĪ«": 5954,
      "áĪĨáĬĵáī½áĪģ": 5955,
      "ĠáīĢáĮ¥áī°áĬĽ": 5956,
      "áĬķáī£áī³": 5957,
      "Ġáĭ¨áĪļáįĪáĪįáĮīáīµáĬķ": 5958,
      "ĠáĬłáĪ³áĭŃáī·áĪį": 5959,
      "ĠáīłáĮĮ": 5960,
      "áī³áī½áĪģáĬķ": 5961,
      "áįĭáĪª": 5962,
      "áĪľáĪ«": 5963,
      "ĠáĪ³áīµ": 5964,
      "ĠáĮĪáī¥áī¶": 5965,
      "ĠáĬłáĭĿáĪĽ": 5966,
      "ĠáĬĲáī¢áĭ©": 5967,
      "áĪįáĭİ": 5968,
      "ĠáĭĪáĭ®": 5969,
      "áĬ«áī°áīµ": 5970,
      "ĠáĬ¥áĬķáĭ°áĭļáĪģ": 5971,
      "ĠáĪĪáĪĺáĬĵáĮĪáĪŃ": 5972,
      "Ġáĭ¨áĬłáĪĺ": 5973,
      "ĠáĪ«áĪ´": 5974,
      "ĠáĪĿáĪŃáĮ¡áĬķ": 5975,
      "ĠáīłáĪ¨áĭ¶": 5976,
      "ĠáĪĪáĪĺáĮįáī£áīµ": 5977,
      "ĠáīłáĭĭáĬĵ": 5978,
      "ĠáīłáįĪáīĥ": 5979,
      "ĠáĪ°áĪĭáĪĽáĭĬ": 5980,
      "ĠáĪĽáĮįáĬĺ": 5981,
      "ĠáĪĺáĭĿáĪĻáĪ®áī½": 5982,
      "áĪ¨áĭ°": 5983,
      "áī¥áĪµ": 5984,
      "ĠáĬ¨áĭĽ": 5985,
      "Ġáĭ«áĭ°áĪ¨áĮī": 5986,
      "ĠáĭĪáĭ²áĭ«": 5987,
      "áĭ³áĭĬáīµ": 5988,
      "Ġáĭ¨áĬ¥áĪħáĪį": 5989,
      "ĠáīłáĪ°áĭİáī½": 5990,
      "áĮ¢áĬł": 5991,
      "ĠáĪĪáī°áĭĪáĪ°áĬĲ": 5992,
      "áĬķáįĪáĪµ": 5993,
      "áĭµáĪĢáĬĴáīµ": 5994,
      "ĠáīłáĬĵ": 5995,
      "áĬĵáĮį": 5996,
      "Ġáĭ«áĪĺáĪĪáĬŃ": 5997,
      "ĠáīłáĬ¥áĬķ": 5998,
      "áįİáī¶": 5999,
      "Ġáĭ¨áĬ¢áĬ®áĬĸáĪļ": 6000,
      "ĠáĪĽáĪµáĭĪáĮĪáĭµ": 6001,
      "áīªáĪį": 6002,
      "Ġáī°áįĪáī³": 6003,
      "áĬ¨áĪĽáī»": 6004,
      "ĠáīłáĭµáĬķáĮĪáīµ": 6005,
      "ĠáįįáĪŃáĪĢáīµ": 6006,
      "ĠáĪĺáįħáĪĦáīµ": 6007,
      "ĠáĬłáĭİáĬķáī³áĭĬ": 6008,
      "ĠáĮĲ": 6009,
      "ĠáĪĭáĭŃáĪĿ": 6010,
      "ĠáĪµáĪĪáĪĮ": 6011,
      "Ġáĭ¨áĪĺáĪŃ": 6012,
      "Ġáĭ¨áĪĺáĪ¨áĮĥ": 6013,
      "ĠáĪħáĪįáĪĿ": 6014,
      "Ġáĭ¨áĪ«áĪ³áī¸áĭįáĬķ": 6015,
      "áĬķáįĢáī£áĪ¨áīħ": 6016,
      "Ġáĭ±áīĦáīµ": 6017,
      "ĠáĬłáīłáĪ¨áī³": 6018,
      "Ġáī°áĮ£": 6019,
      "áĪ½áĬĲáīµ": 6020,
      "Ġáĭ¨áĬłáĭįáĪ®áįĵ": 6021,
      "ĠáīłáĪļáĮĪáĬĿ": 6022,
      "ĠáĬłáĪĿáĪĭáĬ¬": 6023,
      "Ġáīłáĭ©áĬĵáĭŃáīµáĭµ": 6024,
      "Ġáĭ¨áī°áĬĲáĭ°": 6025,
      "áĬĵáī±": 6026,
      "áĭ°áīħ": 6027,
      "ĠáĬ¨áĪ¶áĪµáīµ": 6028,
      "ĠáĪĪáĪĺáī°": 6029,
      "ĠáįįáĪ«áĬķ": 6030,
      "ĠáĬ¢áĬķáī½": 6031,
      "Ġáĭ¨áĭŃáĮĪáī£áĬĽáĪį": 6032,
      "áĪµáįĪ": 6033,
      "ĠáĪĺáīĨáĮ£áĮłáĪŃ": 6034,
      "ĠáīłáĪĺáĪµáĪ«áīµ": 6035,
      "áĪĮáĬŃ": 6036,
      "ĠáĪĦáĭ¶": 6037,
      "ĠáīłáĪ¨áĬ¨": 6038,
      "ĠáĪĪáĪĮáĪĭ": 6039,
      "ĠáĬłáĭµáĪŃáĮĪáĪħ": 6040,
      "ĠáĪĪáĪĽáĮ¥áįĭáīµ": 6041,
      "áĪĿáī£": 6042,
      "áĪ¨áĪ»": 6043,
      "áī¥áĮ¥": 6044,
      "ĠáĬ¨áįĬáīµ": 6045,
      "áĪŁáī¸áĭį": 6046,
      "ĠáĪ¸áĪĽ": 6047,
      "ĠáĪĺáįĥáįį": 6048,
      "ĠáīĢáĮłáĪ®": 6049,
      "Ġáĭ«áĪµáįĪáĪįáĮĭáĪį": 6050,
      "ĠáĮįáĭĻáįį": 6051,
      "ĠáĪ°áĪĮáĭ³": 6052,
      "ĠáĭĪáĭµáĮĦáĭĭáĪĪáĪģ": 6053,
      "ĠáĭŃáīĢáīł": 6054,
      "ĠáĬ¥áĬĵáĮĪáĬĽáĪĪáĬķ": 6055,
      "Ġáĭ¨áĬ¥áĪŃ": 6056,
      "ĠáīģáĪį": 6057,
      "ĠáįĪáīĥáĭ°áĬŀáī½": 6058,
      "ĠáĭĿáĪŃáĭĿáĪ®áī½": 6059,
      "ĠáĬłáĭ¨áĪģ": 6060,
      "ĠáĪ½áĪįáĪĽ": 6061,
      "áĮĵáĮĵáĭ£": 6062,
      "ĠáĭŃáĮĪáĪįáįĥáĪį": 6063,
      "áĬ®áĬĸáĪļáĭ«áĭĬ": 6064,
      "áīłáĬŀáī½": 6065,
      "áĭµáĪĽ": 6066,
      "ĠáĪµáįĶ": 6067,
      "Ġáĭ¨áĪļáĪ°áĮł": 6068,
      "ĠáĪĽáįħ": 6069,
      "ĠáĪĪáĪĺáĮĪáĬķáī£áīµ": 6070,
      "ĠáĪ²áĪĦáĭµ": 6071,
      "áĮŃáīłáĪŃ": 6072,
      "áĮĪáĬĿáĪĿ": 6073,
      "ĠáĪĺáĪ¨áĮĥáĬķ": 6074,
      "ĠáĪĺáĪ¨áĮĥáĭİáī½": 6075,
      "ĠáĬĸáĪ¬": 6076,
      "ĠáĬ¥áīĥáĭİáī½áĬķ": 6077,
      "ĠáĪĺáĮ¨áĪ¨áĪ»áĭį": 6078,
      "ĠáĪĺáī¼áĪĿ": 6079,
      "áĪįáĬ«áĪĿ": 6080,
      "áĭ°áĪ«áĪį": 6081,
      "áĪ³áĭ«": 6082,
      "ĠáĪįáĭįáĭį": 6083,
      "ĠáĪ°áĭįáĬĲáīµ": 6084,
      "áĬķáĭ³áīµ": 6085,
      "ĠáĬ¤áĬŃáĪµ": 6086,
      "áĬĸáĪŃáīłáīµ": 6087,
      "áĭŀáĪŃ": 6088,
      "ĠáĭĪáĪ°áĭ°": 6089,
      "ĠáĬłáĪĿáĪĭáĬ«áī½áĬķ": 6090,
      "ĠáĮ¥áīłáīłáĬĽ": 6091,
      "áĭįáĬķáĭµ": 6092,
      "ĠáīłáīħáĬķ": 6093,
      "áī³áī½": 6094,
      "áĪ°áĭįáĬķ": 6095,
      "Ġáĭ¨áī°áĮĭ": 6096,
      "ĠáĮĬáĭľáĭ«áĭĬ": 6097,
      "ĠáĬ¥áĭ¨áīĢ": 6098,
      "Ġáĭ¨áĬĲáīł": 6099,
      "ĠáĬ®áĪªáĭ«": 6100,
      "áįĵáĪŃáīµ": 6101,
      "ĠáĬłáĪīáī³áĭĬ": 6102,
      "áĮłáĭŃáīģ": 6103,
      "ĠáĬłáĪĽáĬ«áĪª": 6104,
      "Ġáĭ¨áĬ¤áĪĮáĬŃáīµáĪªáĬŃ": 6105,
      "ĠáīłáįħáĪģáįį": 6106,
      "áīłáĭĿ": 6107,
      "ĠáĭŃáĬĲ": 6108,
      "áĪ°áĬĵ": 6109,
      "Ġáĭ«áĪĺáĮ£áĪį": 6110,
      "ĠáīłáĪĺáĮ¥": 6111,
      "ĠáĪĪáĪĺáī³": 6112,
      "Ġáĭ¨áĪĽáĭµáĪ¨áĮį": 6113,
      "ĠáĬłáĪµáī°áĪĽáĪª": 6114,
      "ĠáīłáįķáĪ®": 6115,
      "ĠáĬ¨áĮİ": 6116,
      "ĠáĪµáĭµ": 6117,
      "áĬķáĭ«áĪĿ": 6118,
      "ĠáĬ®áĬķ": 6119,
      "ĠáĪĺáĪ¨áĮĥáĭİáī½áĬķ": 6120,
      "ĠáīłáĭįáĮŃ": 6121,
      "ĠáĭŃáĬ¸áĭį": 6122,
      "ĠáĪĺáĭ°áī¥": 6123,
      "ĠáĭŃáįĪáĮ¥": 6124,
      "ĠáĬłáīħáĪ«áī¢": 6125,
      "ĠáĪ°áĬĲáĭµ": 6126,
      "ĠáĭŃáĮĢáĪĿáĪ«áĪį": 6127,
      "ĠáįķáĪ¬áĭĿáĭ³áĬķáīµ": 6128,
      "Ġáĭ¨áĭļáĭ«": 6129,
      "ĠáīłáĭµáĪŃ": 6130,
      "áĪ¨áĬķáĪµ": 6131,
      "ĠáĬ¨áĪĨáĬĳáīµ": 6132,
      "áĪ©áīµáĬķ": 6133,
      "ĠáĮįáĮŃáīµ": 6134,
      "ĠáĬłáĭŃáī³": 6135,
      "áīĢáĪŃáī£áĪĪáĬķ": 6136,
      "ĠáĪģáĪĪáī±áĬķ": 6137,
      "ĠáĪ²áĭ«áĮĭáĮ¥": 6138,
      "ĠáīłáĪĢáĭŃáĪį": 6139,
      "áĭ°áĪŃáĮĪáĭįáĬķ": 6140,
      "Ġáĭ¨áĮīáĭŀ": 6141,
      "ĠáĮīáĭµáĮĵáĭµ": 6142,
      "áĪµáĬ¤": 6143,
      "áĪ¨áĪ³": 6144,
      "ĠáĪĪáĬ¤": 6145,
      "Ġáī°áĭį": 6146,
      "ĠáĮĪáĭ¥": 6147,
      "ĠáĬłáĪĪáī½áĭį": 6148,
      "áįĥáįī": 6149,
      "áĬ®áīµáĬķ": 6150,
      "ĠáĪĺáī¥áĪĭáīµ": 6151,
      "Ġáīłáī³áĪĽáĬĿáĬĲáīµ": 6152,
      "Ġáĭ¨áĪĢáĮ¢áĬłáīµ": 6153,
      "áĪŃáĭĿáĪŃ": 6154,
      "Ġáīłáī£áĪħ": 6155,
      "Ġáī°áĪµáĪĽáĪĿ": 6156,
      "Ġáĭ³áĭŃáĪ¬áĬŃáī°áĪŃ": 6157,
      "áĪŃáī»": 6158,
      "ĠáīłáĪĺáĪĺáĪµáĪ¨áīµ": 6159,
      "áĪ½áīµ": 6160,
      "ĠáīħáĬĵáĪ½": 6161,
      "áĭ®áĪŃáĬŃ": 6162,
      "ĠáĪĨáĬĲáĭĭáĪį": 6163,
      "ĠáĪĽáĭµáĪ¨áĮĭ": 6164,
      "áĬłáī¸áĭį": 6165,
      "ĠáĪĽáĪŃáĭ«áĪĿ": 6166,
      "ĠáĬłáĭŃáĬĸáī½": 6167,
      "áĮĢáĪĺáĪ¨áĭį": 6168,
      "Ġáī£áĪªáĭ«áĭİáī½": 6169,
      "ĠáĪħáįĥáĬķ": 6170,
      "ĠáĬ¥áĬķáĭ°áĪĨáĬķáĬ©": 6171,
      "ĠáĭŃáĮįáī£": 6172,
      "áĭĭáī³": 6173,
      "ĠáĬĲáīłáĪŃáĬ©": 6174,
      "ĠáīłáĪĽáīħáĪ¨áī¥": 6175,
      "ĠáĬłáĬ«áĪĦáĭµ": 6176,
      "ĠáĪĺáĮłáĮ¥": 6177,
      "áĮłáĪ«áīĢ": 6178,
      "Ġáĭ¨áĮ¥áĪŃáĪµ": 6179,
      "áĮĪáĬĲáĭĺáī¥": 6180,
      "ĠáīłáĮĬáĭľ": 6181,
      "áĪĭáĪĪáī½": 6182,
      "áĪĽáĪĪáĪģ": 6183,
      "Ġáī°áĬŃ": 6184,
      "áĭ³áĪ´": 6185,
      "ĠáīµáįĪáĪįáĮĭ": 6186,
      "áĭĺáĮĪ": 6187,
      "áĪĦáĪ«áīµ": 6188,
      "ĠáĪįáĮĨáī»áī¸áĭį": 6189,
      "áīªáĭ¥áĬķ": 6190,
      "ĠáĬ¨áĪħáĭĿáī¡": 6191,
      "ĠáīµáĪĿáĪħáĪŃáī¶áī½": 6192,
      "áīłáī°": 6193,
      "áĪªáī³": 6194,
      "Ġáĭ¨áī°áĮĪáĭ°": 6195,
      "ĠáĪĺáĮłáĭŃ": 6196,
      "ĠáĭŃáĪ°áĪĽáī¸áĭĭáĪį": 6197,
      "Ġáįĥáĭµ": 6198,
      "Ġáĭ¨áī°áĪ³áĪ³áī°": 6199,
      "áĭŃáĪµ": 6200,
      "ĠáĬ¨áīĢáĬĳ": 6201,
      "ĠáĭŃáĬķ": 6202,
      "áĬŃáī°áĪ®áī½": 6203,
      "ĠáĪįáī¡": 6204,
      "ĠáĪĪáĪĺáīĨáĮ£áĮłáĪŃ": 6205,
      "Ġáĭ¨áĪĺáī³": 6206,
      "ĠáĮ£áĬ¥áĪĿ": 6207,
      "áīĢáĮ¥áĪīáīµ": 6208,
      "ĠáĪĺáĭĭáĮ®": 6209,
      "áĪįáīłáīµ": 6210,
      "ĠáĭŃáĬĳ": 6211,
      "áĪ°áĪĪ": 6212,
      "ĠáĪĽáĭĪ": 6213,
      "ĠáĬłáĭŃáĬĸ": 6214,
      "áĭĽáĬĿ": 6215,
      "áĬ©áĪ«": 6216,
      "Ġáĭ«áĪħáĭĮáĪĿ": 6217,
      "áĮĪáĪĪáįħ": 6218,
      "Ġáĭ¨áĪĪáĬĿáĪĿ": 6219,
      "ĠáĬĲáĭĭáĪª": 6220,
      "ĠáĬłáĪµáī°áĭ«áĭ¨áī¶áī½": 6221,
      "ĠáĬ¥áĪ«áĪ³": 6222,
      "ĠáĬ¨áĮī": 6223,
      "áīĢáīµáĬķ": 6224,
      "áįĬáĭį": 6225,
      "áĪµáī³áĬķ": 6226,
      "ĠáĬ¨áĪĽáĬķáĬĽáĭįáĪĿ": 6227,
      "Ġáĭ¨áĪĿáĪµáĬŃáĪŃ": 6228,
      "ĠáĪªáįĲáī¥áĪĬáĬŃ": 6229,
      "áĪįáīĢáīµ": 6230,
      "áĪĪáĭ³": 6231,
      "áīłáī£": 6232,
      "ĠáĬ¨áĬ®": 6233,
      "Ġáĭ¨áī°áīĢáĭ°": 6234,
      "ĠáīłáĬłáĬ«": 6235,
      "ĠáĪĪáĪĽáĭĺáĮĭáĮĢáīµ": 6236,
      "ĠáĬłáĪĪáĪħ": 6237,
      "Ġáĭ¨áĪļáĭ«áĮĭáĮ¥": 6238,
      "ĠáįħáĬķáĪ°": 6239,
      "ĠáĬłáīĢáĪ«áĪ¨áī¥": 6240,
      "ĠáĪĺáīĢáĮłáĪį": 6241,
      "áĬ¨áįĭáįĪáĪį": 6242,
      "ĠáīłáĪµáī¥áĪ°áī£": 6243,
      "ĠáĪĺáįĪáįĢáĪĿ": 6244,
      "áī¥áĬķáĪĿ": 6245,
      "ĠáĬ¨áĮĵ": 6246,
      "ĠáĪ°áįĪáĪ©": 6247,
      "Ġáĭ¨áĪĺáĬ¨áĪĭáĬ¨áĭ«": 6248,
      "ĠáĬķáĪµáĪĢ": 6249,
      "Ġáĭ¨áĪĽáĬ¥": 6250,
      "ĠáĬłáĬ«áĪĭáĭĬ": 6251,
      "áĭĿáĮįáĮħ": 6252,
      "ĠáĬłáĪįáī»áĪĪáĪĿ": 6253,
      "Ġáīłáī°áįĪáĮ¥áĪ®": 6254,
      "Ġáīłáī¥áĪŃ": 6255,
      "ĠáĬłáĬĵáīµ": 6256,
      "ĠáĪĺáĭ°áĪĿ": 6257,
      "ĠáĪĪáĪĨáĬĳ": 6258,
      "ĠáĪ³áĪį": 6259,
      "Ġáī£áĪĪáīłáīµ": 6260,
      "áĪħáĬķáĬĵ": 6261,
      "Ġáĭ¨áīłáĪĪ": 6262,
      "ĠáįĢáĪİ": 6263,
      "Ġáĭ¨áīµáĬŀáī¹": 6264,
      "áĮĪáĬĲáī£": 6265,
      "Ġáī°áĪ«áĪ®áī½": 6266,
      "ĠáĮ£áĪįáīĥ": 6267,
      "Ġáĭ¨áįįáīµ": 6268,
      "áĪĪáĭ±": 6269,
      "áĪĺáī°": 6270,
      "ĠáĪĺáĮ«áĭĪáīµ": 6271,
      "áīłáĭįáĬķ": 6272,
      "ĠáĭĪáĮ¡": 6273,
      "áĬ«áĬŃ": 6274,
      "áĭĭáĪĪáĬķ": 6275,
      "ĠáĬłáĪµáīĤáĬĿ": 6276,
      "ĠáīĢáĭĿáīĥáĭĽ": 6277,
      "áįĭáĬĳ": 6278,
      "áĭĽáĪī": 6279,
      "ĠáĪĢáĪĻáĪµ": 6280,
      "ĠáĬ¥áĪŃáĬ«áī³": 6281,
      "ĠáĪļáĪµ": 6282,
      "ĠáĪ°áĪĽáĭ«áīµ": 6283,
      "ĠáĪĿáĭµáī¥": 6284,
      "áī³áĭĪáīĢ": 6285,
      "áįķáĪªáĪį": 6286,
      "Ġáĭ¨áĮİáĭ°áĪĪáĭį": 6287,
      "ĠáĪĺáĬ«áĬ¨áĪĪáĬĽ": 6288,
      "Ġáĭ¨áĬĴáĭį": 6289,
      "ĠáĬ¨áĪģáĪĪ": 6290,
      "ĠáĭŃáĭ°áĪ¨": 6291,
      "áĪ°áĪĭ": 6292,
      "áĬ¨áĬĿ": 6293,
      "áĮ£áĭĬ": 6294,
      "áĭįáĬķáīµ": 6295,
      "Ġáĭ¨áĪĺáĮ£áĭį": 6296,
      "ĠáĪĢáĭĺáĬķ": 6297,
      "ĠáĮĪáįĥ": 6298,
      "ĠáĭĺáĭĪáīµáĪŃ": 6299,
      "áįĢáĬĵ": 6300,
      "ĠáĬ¥áĭ«áĭ°áĮĪ": 6301,
      "ĠáĬłáī¥áĪ¨": 6302,
      "ĠáĪĺáĬķáĮįáĪµáī³": 6303,
      "Ġáĭ¨áĪįáĮħ": 6304,
      "ĠáĬ©áī£áĬķáĭ«áĭį": 6305,
      "ĠáĮ¥áĪĭáī»": 6306,
      "Ġáĭ«áĪĪáĪĽáīĭáĪ¨áĮ¥": 6307,
      "ĠáĬ¥áĪµáĪ«áīµ": 6308,
      "ĠáīłáĪ¶áĪµáīµ": 6309,
      "áĭ«áĬ¥áīĨáī¥": 6310,
      "Ġáĭ¨áĪļáīĢáĪŃáī¥": 6311,
      "ĠáĪĪáĪĺáĭ°áĮĪáįį": 6312,
      "áĪ»áĪĪáĪģ": 6313,
      "ĠáĪĨáī´áĪį": 6314,
      "áĪļáĭ«áĭİáī½": 6315,
      "ĠáīĢáĪŃáī¶": 6316,
      "ĠáĪĪáĭĪáĬķáĭµ": 6317,
      "ĠáĬĲáīłáĪ«áī¸áĭį": 6318,
      "Ġáĭ¨áĭ¨": 6319,
      "Ġáīłáįĭ": 6320,
      "ĠáīłáĪ¸": 6321,
      "ĠáĪĺáĪ¨áī¥": 6322,
      "áĮ£áįį": 6323,
      "ĠáĪĭáĪĪáĪĺ": 6324,
      "ĠáĪĪáĪĺáīħ": 6325,
      "ĠáīłáĬłáĬķáĭ±": 6326,
      "áĮĢáĪĺáĪ©": 6327,
      "Ġáī¦áī³áĭİáī½áĬķ": 6328,
      "ĠáĬ¦áįķáĪ¬": 6329,
      "ĠáĬłáīĢáĪĽ": 6330,
      "ĠáĬłáĪŃáī²": 6331,
      "Ġáĭ°áĮĭáĮį": 6332,
      "ĠáĪĢáĬªáĪĿ": 6333,
      "ĠáīħáĪŃáĬķáĮ«áįį": 6334,
      "ĠáĬłáįįáīĥáĪª": 6335,
      "Ġáĭ¨áī²": 6336,
      "áĭ³áĭµ": 6337,
      "áīĥáĪĪáĬķ": 6338,
      "Ġáĭ¨áī°áĪŁáĪĭ": 6339,
      "áĬķáĭ±áĪµáīµ": 6340,
      "áĬĲáĪ³áĭį": 6341,
      "Ġáĭ¨áĪ°áĪĭáĪĿ": 6342,
      "áĭŀáīµ": 6343,
      "ĠáĬłáĪĿáĬĵ": 6344,
      "áĭ«áĭĭáĬķ": 6345,
      "áĬĲáĬķ": 6346,
      "Ġáĭ«áĭ°áĪŃáĮī": 6347,
      "ĠáĪĪáĪĺáĮ¨áĪĺáĪŃ": 6348,
      "ĠáĪħáī¥áĪ¨áīµ": 6349,
      "Ġáī¤áī¶áī½áĬķ": 6350,
      "áĪ°áī¥áĬłáĭĬ": 6351,
      "Ġáĭ¨áĬ¥áĬĶáĬķ": 6352,
      "áīĭáīĭáĪĺ": 6353,
      "Ġáī°áĪŃáįİ": 6354,
      "ĠáĪµáīµáĪ«áī´áĮĤ": 6355,
      "áī®": 6356,
      "áī¥áĪªáĬ«": 6357,
      "áĭĺáĪ¨áĮĭ": 6358,
      "ĠáīłáĬłáĪĺáīµ": 6359,
      "áĮ¨áĪµ": 6360,
      "ĠáĪĺáĬķáĪµáĬ¤": 6361,
      "ĠáĬłáĪĺáĪįáĬŃ": 6362,
      "ĠáĪĬáĭ«áĭ°áĪŃáĮį": 6363,
      "Ġáĭ¨áĪĢáĮĪáĪŃ": 6364,
      "áĪ¹áĬķ": 6365,
      "ĠáĬ¥áī£áĬ®áīµáĬķ": 6366,
      "ĠáĪĺáī³áĮłáī¢áĭ«": 6367,
      "ĠáĮĦáĬĶ": 6368,
      "áĬŁ": 6369,
      "Ġáĭ¨áĪĭáī¸áĭįáĪĿ": 6370,
      "áĮĪáįį": 6371,
      "Ġáĭ«áĮłáįĭ": 6372,
      "áĭĭáĪĪáĪħ": 6373,
      "áĪ®áĮ¥": 6374,
      "ĠáĬłáī¥áĪ¨áĬķ": 6375,
      "ĠáĬ¥áĬķáĭ³áĪĪáī£áī¸áĭį": 6376,
      "ĠáĬłáĮĪáĭĽáĭĿ": 6377,
      "ĠáīłáĪģáĪĪáī±áĪĿ": 6378,
      "ĠáĪĽáĪ°áĪĭ": 6379,
      "ĠáĭŃáįĭ": 6380,
      "ĠáĪĪáĭĪáĭ°": 6381,
      "ĠáĪµáĭį": 6382,
      "ĠáĬ¥áĬĵáīĢáĪŃáī£áĪĪáĬķ": 6383,
      "Ġáĭ¨áĪļáĭ°áĪŃáĪµ": 6384,
      "ĠáĪĽáī¥áĪ«": 6385,
      "ĠáĪĽáĭ³áīłáĪŃ": 6386,
      "Ġáĭ¨áĪĺáĪ¬áīµ": 6387,
      "ĠáĪĺáĪįáĬ«": 6388,
      "Ġáĭ¨áĬĲáįĥ": 6389,
      "ĠáĬ¥áĬĵáĬķáī°áĬķ": 6390,
      "ĠáīłáĬ¢áĪľáĪį": 6391,
      "ĠáĬłáĮĭáĪŃ": 6392,
      "ĠáĬłáĭ³áĪ«áĪ½": 6393,
      "Ġáĭ¨áĪģáĪĪáīµ": 6394,
      "áī¸áĪŃ": 6395,
      "áĪĻáĪĿ": 6396,
      "áī¡áīłáīµ": 6397,
      "áī½áĪįáīłáīµ": 6398,
      "ĠáĪĺáĬķáĮįáĪµáī±": 6399,
      "áĬĲáĮĪáĪ¨áĭį": 6400,
      "ĠáįķáĪ®áĮįáĪ«áĪŀáī½": 6401,
      "áĪ³áī°áįī": 6402,
      "ĠáĬ¥áĬķáĭ°áĪĮáĪĪ": 6403,
      "Ġáĭ¨áĬ¥áĮįáĭļáĬłáī¥áĪĦáĪŃáĬķ": 6404,
      "ĠáĪĽáĪ«áĬª": 6405,
      "Ġáĭ¨áĬĶ": 6406,
      "ĠáĬ¥áĮĪáĭĽ": 6407,
      "ĠáĪĺáĮĪáĬĺáīµ": 6408,
      "ĠáĭĪáĪĪáĪį": 6409,
      "áĬ¨áĪī": 6410,
      "ĠáĪįáĪĺáĬĵ": 6411,
      "áĭĺáĭĺáĭį": 6412,
      "ĠáĪĪáĪĺáīĭáīĭáĪĿ": 6413,
      "Ġáĭ¨áĪĺáĪĺ": 6414,
      "áįĬáĪį": 6415,
      "Ġáī¤áĭĽ": 6416,
      "ĠáįĪáī³áĬĿ": 6417,
      "ĠáįĪáĮĪáĮį": 6418,
      "áĭ¶áī¹": 6419,
      "ĠáĬ¤áĪŃáīµáĪ«": 6420,
      "áĪĺáĪįáĪµ": 6421,
      "Ġáī°áīĢáĪĺáĮł": 6422,
      "Ġáĭ¨áĬ¤áĪŃáīµáĪ«": 6423,
      "áĮ«áĭĪáī±": 6424,
      "ĠáīłáįĬáī±": 6425,
      "ĠáīłáĪģáĪĪáī±": 6426,
      "Ġáī³áĪªáĬ®áī½": 6427,
      "ĠáĭŃáĮłáĭŃáīĥáĪį": 6428,
      "ĠáĬĲáī¢áĭŃ": 6429,
      "ĠáĬłáĪµáĬªáĭ«áĮħ": 6430,
      "ĠáĬłáīģ": 6431,
      "ĠáĭŃáĭĪáĪŃ": 6432,
      "áįĪáīħáĭµ": 6433,
      "áĬ¨áĭįáĬķ": 6434,
      "áĮ£áĪªáĭİáī½": 6435,
      "áī¶áĬĽáĪį": 6436,
      "ĠáĬ¥áĪµáī´áīµ": 6437,
      "Ġáī°áĮłáĬķáīĢ": 6438,
      "ĠáĮ«áĬĵ": 6439,
      "ĠáĬĲáĮ¥áī¦áī½": 6440,
      "ĠáĪĺáĬŃáįĪáĪį": 6441,
      "Ġáī³áĭįáīĥáĪĭáī½áĪģ": 6442,
      "ĠáīłáĬ¥áĮħáĮī": 6443,
      "ĠáĪĺáĬĵáįį": 6444,
      "ĠáĭĪáĬķáĮĮ": 6445,
      "ĠáĬłáĪįáī»áĪįáĬ©áĪĿ": 6446,
      "ĠáĪ¼": 6447,
      "ĠáīĦ": 6448,
      "áĪįáī¶": 6449,
      "áĪ«áĪĦ": 6450,
      "áĪļáĬķ": 6451,
      "áĮ£áĪĪáĪģ": 6452,
      "Ġáĭ¨áī°áĪĭ": 6453,
      "ĠáĬ¥áĬķáĭ²áī³": 6454,
      "áĬ®áĪ«": 6455,
      "ĠáĬ¥áĪµáĬ¨áĪļ": 6456,
      "ĠáĬłáīµáįį": 6457,
      "Ġáĭ¨áĪļáĭ«áĪµáįĪáĪįáĮī": 6458,
      "ĠáĬłáĮĪáĪįáĮĭáĭ®áī¹": 6459,
      "Ġáĭ¨áĪļáĭĪáĭ±": 6460,
      "Ġáĭ¨áĭ¶": 6461,
      "ĠáĪĺáĭĺ": 6462,
      "áī£áī£": 6463,
      "áĪ³áĭįáĭ«áĬķ": 6464,
      "ĠáĪĪáĪĺáĪĨáĬĳ": 6465,
      "ĠáĪĪáĪĺáįĪáįĢáĪĿ": 6466,
      "áĪ¬áĪ½áĬķ": 6467,
      "áĪ¶áī¹": 6468,
      "Ġáĭ¨áīłáĮį": 6469,
      "áĪıáīµ": 6470,
      "ĠáĭĿáĮįáĮħáī¶áī½": 6471,
      "Ġáĭ¨áĭĭáĮĭ": 6472,
      "ĠáīłáĪĿáĭµáĪªáī±": 6473,
      "Ġáĭ¨áĪ³áĭŃáĬķáĪµ": 6474,
      "ĠáĬłáĪµáĮĪáĪ«áĪļ": 6475,
      "Ġáī°áĮįáĪ³": 6476,
      "Ġáī°áįĪáī³áī³áĬĿ": 6477,
      "ĠáĬłáī³áĭį": 6478,
      "áĪ¨áĬŃ": 6479,
      "ĠáĬ¨áįĭ": 6480,
      "Ġáĭ«áĪĪáĪĿ": 6481,
      "Ġáī°áĪĺáĪĪáĪ°": 6482,
      "ĠáĪ°áĮ£áī¸áĭį": 6483,
      "Ġáĭ¨áī°áįĥáįĪ": 6484,
      "ĠáīĢáĬĳáĬķ": 6485,
      "ĠáĪĬáīĥ": 6486,
      "áĭ®áī¹áĬķ": 6487,
      "áīĭáī¸áĭį": 6488,
      "Ġáĭ¨áĪļáĭ«áĪµáĭ°": 6489,
      "ĠáĪĮáĪİáī½áĪĿ": 6490,
      "ĠáĪĺáĪªáĬĲáīµ": 6491,
      "Ġáĭ¨áįĢáĪĢáĭŃ": 6492,
      "ĠáĪ«áĪµáĪħáĬķ": 6493,
      "Ġáĭ¨áīłáĪ¨áĭ¶": 6494,
      "ĠáĬ¨áĪĿáīµ": 6495,
      "áĪĽáĮħ": 6496,
      "áīĢáĬĵ": 6497,
      "ĠáĪĽáĪį": 6498,
      "ĠáĪĭáĪį": 6499,
      "Ġáĭ¨áī°áīĨ": 6500,
      "ĠáĬ¥áĬķáĭ²áĬĸáĪ«áī¸áĭį": 6501,
      "Ġáĭ¨áĪĽáīµ": 6502,
      "ĠáĬłáĪĿáĪ«": 6503,
      "ĠáĬķáĮįáĮį": 6504,
      "ĠáĮįáī¥áĪ¨": 6505,
      "ĠáĭŃáĮłáīģ": 6506,
      "ĠáĭĪáĮªáĭİáī½": 6507,
      "ĠáĬ¥áĬķáĭ°áĪĿáī³": 6508,
      "Ġáī³áĪĭáīģ": 6509,
      "ĠáĪģáĪĪáī±áĬķáĪĿ": 6510,
      "Ġáĭ°áĮĭáįĬ": 6511,
      "Ġáĭ¨áī½": 6512,
      "áĭ«áī½áĬķ": 6513,
      "áĪ°áī£áī¸áĭį": 6514,
      "áĮ¥áĪ¯": 6515,
      "Ġáĭ¨áĪļáĪĨáĬĳáīµ": 6516,
      "áĬĲáīµáĬĵ": 6517,
      "ĠáīĢáĭ¶": 6518,
      "áĮĪáĪŃáĪĿ": 6519,
      "áĭĺáĮĭáĮĢáĭį": 6520,
      "Ġáĭ¨áįķáĪ®áĮĢ": 6521,
      "Ġáĭ²áĭ«áī¥áĪİáĪµ": 6522,
      "ĠáĬ¥áĮĨ": 6523,
      "ĠáĬ¥áĮ¥áįį": 6524,
      "áĮĪáī°áĬĽ": 6525,
      "ĠáĪĺáīµ": 6526,
      "ĠáĪĺáĮĪáĪįáĮĪ": 6527,
      "ĠáĮįáī¦áī½": 6528,
      "áĮīáĬķ": 6529,
      "áīĨáĪµ": 6530,
      "áĭµáĪŃáĮį": 6531,
      "áī¦áī»áī¸áĭį": 6532,
      "áĪĪáĪĿáĭ¶": 6533,
      "áĪ²áī¥": 6534,
      "ĠáĬ¨áĪĺáĬ«áĬ¨": 6535,
      "Ġáī¦áī³áĭį": 6536,
      "Ġáĭ¨áĭįáĭµáĭµáĪŃ": 6537,
      "ĠáĬłáīĢáĪ¨áīł": 6538,
      "ĠáĭĪáĪ¨áīĢ": 6539,
      "ĠáĭŃáĮłáīħ": 6540,
      "ĠáīłáĪģáĪĪáī°áĬĽáĭį": 6541,
      "Ġáįİáī¶áĮįáĪ«áįį": 6542,
      "áĭ¦": 6543,
      "áĪ¨áĪ±": 6544,
      "ĠáĭŃáįĪáĪįáĮī": 6545,
      "áĬŃáī±": 6546,
      "Ġáī°áĪĺáĪĪáĪ±": 6547,
      "ĠáĪĿáĮįáī£": 6548,
      "Ġáī¥áĭµáĪŃ": 6549,
      "ĠáīĢáīł": 6550,
      "ĠáĬŃáįĭáīµ": 6551,
      "áĪ¬áĭİáī½": 6552,
      "ĠáĬ¥áĭ¨áī³": 6553,
      "áĬªáĬķ": 6554,
      "ĠáĪĺáĪµáĮł": 6555,
      "ĠáĭĽáĪ¬áĪĿ": 6556,
      "Ġáĭ¨áĪ°áĭįáĬĲáīµ": 6557,
      "ĠáĭĪáĭ³áĪĪáĭį": 6558,
      "Ġáĭ¨áī°áī£áīłáĪ©áīµ": 6559,
      "ĠáĪ°áī¥áĬłáĭĬ": 6560,
      "ĠáĭŃáĬĲáĪ³": 6561,
      "ĠáĭįáĮĬáĭ«": 6562,
      "Ġáĭ¨áī°áĪĪáĭ«áĭ¨": 6563,
      "áī¦áĬķ": 6564,
      "áīĤáīħ": 6565,
      "áī´áĬĵ": 6566,
      "áĮįáī£áī¡": 6567,
      "áĭ¥áĪĿ": 6568,
      "ĠáĬłáĭįáĪ«áĮĥ": 6569,
      "ĠáĪĺáīĥáī¥áĪŃ": 6570,
      "ĠáĭŃáĭĪáĭ³áĪī": 6571,
      "áĭµáĬĳ": 6572,
      "áĪĻáĬĴ": 6573,
      "áīĨáĭ©": 6574,
      "Ġáī³áĮĪáĬĽ": 6575,
      "ĠáĬ¢áĬ®áĬĸáĪļáĭ«áĭĬ": 6576,
      "áĪ¶áĪŃ": 6577,
      "áīĢáĪŃáī¡áīµ": 6578,
      "ĠáĪĺáī¥áĪ«": 6579,
      "Ġáĭ«áĪ³áĭµ": 6580,
      "Ġáĭ¨áĪĻáīĢáīµ": 6581,
      "áĮĪáĪĪáįģáīµ": 6582,
      "Ġáī°áĬ«": 6583,
      "áĭ³áĪĪáĬķ": 6584,
      "ĠáĪĭáĪīáīµ": 6585,
      "ĠáĪģáĬķ": 6586,
      "Ġáīłáī°áĪĪáĪĿáĭ¶": 6587,
      "ĠáĬ¨áĬłáĪģáĬķ": 6588,
      "ĠáįħáĪħáįĪáīµ": 6589,
      "ĠáĪĿáĪµáĪİáī½áĬķ": 6590,
      "Ġáīłáĭļáĭ«áĭį": 6591,
      "Ġáĭ¨áĪµáĪŃ": 6592,
      "ĠáĮŃáĬķáīħ": 6593,
      "ĠáįĵáĪŃáĬŃ": 6594,
      "áĭĺáĪ¨áĭĺ": 6595,
      "ĠáĬ¨áĪĺáĮĢáĪĺáĪªáĭ«áĭį": 6596,
      "ĠáĪĺáĬłáĭĽ": 6597,
      "ĠáĬ¨áĬ«": 6598,
      "ĠáĬ¨áĪĻ": 6599,
      "áĪĽáĭİáī½": 6600,
      "áĬŃáĪ©": 6601,
      "Ġáī°áĪĺáĪµ": 6602,
      "áĭĭáī¸áĭį": 6603,
      "ĠáĮ¥áĬķáī³áĭĬ": 6604,
      "ĠáĭĪáĭ°áĬĭáĪĭ": 6605,
      "ĠáĮĪáĬķ": 6606,
      "áĭĻáīµ": 6607,
      "ĠáĬ¥áĪµáĬŃ": 6608,
      "ĠáĬ¨áĪĺáĬķ": 6609,
      "ĠáĪħáĭĿáīħáĭ«áĪµ": 6610,
      "ĠáīłáĪħáĭĿáī¡": 6611,
      "áĭĪáĭ³áĭ°áĪŃ": 6612,
      "ĠáĪĺáĭĿáĮĪáī¥": 6613,
      "Ġáī°áįĪáĮ¥áĪ®": 6614,
      "ĠáĬ¥áĪ·áĬķ": 6615,
      "ĠáĪĺáĪĿáĮ£áīµ": 6616,
      "ĠáĪµáĪįáĮ£áĬķáĬĵ": 6617,
      "ĠáĬ¤áĪįáĪ³": 6618,
      "ĠáīłáĪĽáĪµáĮĪáī£áīµ": 6619,
      "áĪįáĪµáĮ¤áĪĿ": 6620,
      "ĠáĮ©áĬ¸áīµ": 6621,
      "ĠáĪĺáĭĿáĬĵáĬĽ": 6622,
      "ĠáīłáĮĮáī³": 6623,
      "áĪĺáĬĿ": 6624,
      "áīłáīģ": 6625,
      "áĪ«áĪĺáĭµ": 6626,
      "áĪ³áī½áĬķ": 6627,
      "áĪªáįį": 6628,
      "ĠáĪ°áĮłáĭį": 6629,
      "áĪ½áĪĿ": 6630,
      "ĠáīłáĬ¥áĮįáĪŃ": 6631,
      "áĮİáĭµ": 6632,
      "áĪ¾áī½áĬķ": 6633,
      "áįĨáī½áĬķ": 6634,
      "Ġáĭ°áĪŃáĪ¶": 6635,
      "Ġáĭ¨áįĬáīµ": 6636,
      "áī¥áĪ©": 6637,
      "ĠáĬ¨áĪĨáĬķáĬŃ": 6638,
      "áĭİáī»áī¸áĭįáĬķ": 6639,
      "áĬ¨áįĪáĪį": 6640,
      "áĭĪáĮł": 6641,
      "ĠáĭĺáįĢ": 6642,
      "ĠáīłáĪĿáĬĵ": 6643,
      "Ġáĭ®áĪŃáĬŃ": 6644,
      "Ġáīłáī£áĪĪ": 6645,
      "ĠáĭŃáĪ°áĪ«áĪī": 6646,
      "áĪŃáĪµáī²áĭ«": 6647,
      "Ġáī°áĪ³áī³": 6648,
      "áĪįáĭ«áĭµ": 6649,
      "ĠáĬ¥áĬķáĮĢáĪ«": 6650,
      "ĠáĬłáĮłáįĭ": 6651,
      "áīłáīĤáĭ«": 6652,
      "áīħáĭ«": 6653,
      "ĠáĪĿáĬķáĭµ": 6654,
      "ĠáĭĪáĭ°áī°": 6655,
      "áĬ©áĪŃ": 6656,
      "Ġáįħáĭĭ": 6657,
      "áĪĨáĬĵáī½áĬķ": 6658,
      "áĬķáī¥áĪ¨áīµ": 6659,
      "ĠáĬłáīħáĪŃáī¦": 6660,
      "áĪ¿": 6661,
      "áĭ°áĭŃ": 6662,
      "Ġáī°áĭŃ": 6663,
      "Ġáįĳ": 6664,
      "Ġáī³áĪªáĬ«áĭĬ": 6665,
      "ĠáĬķáįħ": 6666,
      "áĪ¨áĭ³áĭį": 6667,
      "ĠáĪĽáĪµáĮĪáī£áīµ": 6668,
      "ĠáĭĪáĭ³áĮħ": 6669,
      "ĠáĮ´áĮ¥": 6670,
      "ĠáĪŃáĭĿáĪĺáīµ": 6671,
      "ĠáĬłáįĭ": 6672,
      "ĠáĪĽáĭ¶": 6673,
      "áĭĭáī±": 6674,
      "ĠáĬłáĭŃáĬĲ": 6675,
      "ĠáĪĢáĪ´áīµ": 6676,
      "ĠáĮĪáĪĪáĪį": 6677,
      "ĠáįįáĪįáĪµáĮ¤áĪĽáĭįáĭ«áĬķ": 6678,
      "ĠáĪĮáĪİáī¹": 6679,
      "ĠáĪĿáĬŃáīµáĪį": 6680,
      "ĠáīłáĪĿáĪ³áĪĮ": 6681,
      "áĭĪáĪµáĭ°áĭį": 6682,
      "áĭŁáī¸áĭį": 6683,
      "Ġáī£áī¢áĪİáĬķ": 6684,
      "Ġáī°áĪŃáįİáĪĿ": 6685,
      "áĬĵáĮĪáĭµ": 6686,
      "áĪħáĪ³áĪµ": 6687,
      "ĠáĭĪáĪĪáĭµ": 6688,
      "áįĪáĭįáĬķ": 6689,
      "ĠáĪĿáĪĭ": 6690,
      "áĭĬáĭį": 6691,
      "ĠáīłáĬłáĭ¨áĪŃ": 6692,
      "Ġáĭ¨áĬłáĬķáī°": 6693,
      "áĪµáī°áĬ«áĬ¨": 6694,
      "ĠáĪļáĪµáī±": 6695,
      "ĠáĪĪáĬ¥áĬĲáĭļáĪħ": 6696,
      "ĠáĪĪáĪļáįĪáĪįáĮī": 6697,
      "Ġáĭ¨áĪįáĪĽáīµ": 6698,
      "ĠáĭĪáĭ³áĮħáĬĲáīµ": 6699,
      "ĠáĪĺáīĢáĬĲáĪµ": 6700,
      "Ġáī½áĮįáĪ®áī½áĬķ": 6701,
      "ĠáĬ¢áĭ®áĬłáī¥": 6702,
      "Ġáĭ¨áĪ«áĪ±": 6703,
      "áĪĺáī½": 6704,
      "áĪ¨áĬĿ": 6705,
      "ĠáĬ¨áįĪáĪĪáĮį": 6706,
      "ĠáĭŃáĭĽ": 6707,
      "áįĪáĬĳ": 6708,
      "ĠáĪ³áĭ«áĪµ": 6709,
      "ĠáĬ¨áĬ¥áĭį": 6710,
      "ĠáīłáįĬáīµáĪħ": 6711,
      "ĠáĭµáĬķáīłáĪŃ": 6712,
      "áĪµáī³áĭĪáīĤáĭ«": 6713,
      "ĠáĭŃáī³áĭ«áĪį": 6714,
      "ĠáĭŃáĭĪáīģ": 6715,
      "áī¸áĭĭáĪĪáĬķ": 6716,
      "áĪĪáīµáĬķ": 6717,
      "áĪ«áĭįáĭ«áĬķ": 6718,
      "ĠáĪĪáĪ«áĪµ": 6719,
      "ĠáĪ°áĭ¶": 6720,
      "ĠáĪ°áįĪáĪŃ": 6721,
      "áĪĬáįİáĪŃ": 6722,
      "ĠáĬłáĪĭáĮĪáĬĺ": 6723,
      "ĠáĪĿáĪŃáī¶áī½áĬķ": 6724,
      "ĠáĬłáĪ³áĭĽáĬĿ": 6725,
      "ĠáīłáīĢáĪµ": 6726,
      "Ġáī°áĮĪáĬķáĭĿ": 6727,
      "Ġáĭ«áĬ«áīµáī³áĪī": 6728,
      "Ġáĭ¨áĪĬ": 6729,
      "Ġáĭ«áĭ°": 6730,
      "Ġáĭ«áĭ°áĪŃáĮį": 6731,
      "Ġáī°áĬķáīĢáĪ³": 6732,
      "Ġáĭ¨áī°áĪ«": 6733,
      "ĠáĬ¢áĪľáĪį": 6734,
      "ĠáįĪáĪ«": 6735,
      "áĬĴáĪµáīµ": 6736,
      "ĠáĪŀáī°áĪŃ": 6737,
      "áĪ¨áĮĭáĮįáĮ¥": 6738,
      "ĠáĬłáĪ³áī¢": 6739,
      "Ġáĭ¨áĪµáĮĭ": 6740,
      "áĬ¨áĪ°áī°": 6741,
      "áĬ¨áĪ°áī±": 6742,
      "áĪįáĬĽáĪį": 6743,
      "áĬĵáīµáĬķ": 6744,
      "áīĢáĮ£": 6745,
      "Ġáī°áĪ¨áĭµ": 6746,
      "áĭ³áĭ©": 6747,
      "ĠáĮįáĪĽáĪ½": 6748,
      "áĭĿáĬĲáĪµ": 6749,
      "ĠáĪĪáĪĺáĮĪáĬĵáĬĺáīµ": 6750,
      "ĠáīĢáĪļ": 6751,
      "ĠáĬ¥áĬķáĬ¨áĬķ": 6752,
      "áĭ±áĪĿ": 6753,
      "ĠáĮłáĪŃáī¶": 6754,
      "ĠáĬ¨áī°áįĪ": 6755,
      "áĪĪáĮłáįį": 6756,
      "ĠáĭĺáĪĺáĬĵáīµ": 6757,
      "áĮĪáĪĿáĮĪáĪĿ": 6758,
      "Ġáĭ¨áĪļáĮłáĮī": 6759,
      "áĪħáĪ«áĪĦ": 6760,
      "áīłáĪĪ": 6761,
      "ĠáĬ¨áĬĲáīłáĪ¨áĭį": 6762,
      "ĠáĭŃáĪĪ": 6763,
      "ĠáĪįáī£": 6764,
      "ĠáīµáĭĿ": 6765,
      "Ġáĭ°áĪ´áīµ": 6766,
      "ĠáīłáĬłáĬķáįĥ": 6767,
      "ĠáĬłáĪĪáĪĿáĬķ": 6768,
      "ĠáĬłáĮĪáĪįáĮį": 6769,
      "áĭ´áĮį": 6770,
      "ĠáĬ¥áĭµáĪİáī½": 6771,
      "áī³áī¸áĭįáĪĿ": 6772,
      "Ġáĭ¨áĪĢáĭŃáĪĽáĬĸáīµ": 6773,
      "Ġáī°áī¥áĪĪáĭį": 6774,
      "áī°áĬ®áĪŃ": 6775,
      "ĠáĬ¥áĬķáīħáįĭáīµ": 6776,
      "áĪĿáĪ«áĪī": 6777,
      "áī½áīµ": 6778,
      "ĠáĪĺáĬ®áĬķ": 6779,
      "áī³áĭįáĬķ": 6780,
      "Ġáĭ¨áĪļáįĪáĪįáĮį": 6781,
      "áĭĭáĭŃ": 6782,
      "áĬ¤áįį": 6783,
      "ĠáīĨáĭŃáī³": 6784,
      "áĬ¸áĬĿ": 6785,
      "ĠáĬłáĮĭáĪĽáĪ½": 6786,
      "ĠáĪĿáĪ³áĪĮáĭİáī½": 6787,
      "ĠáĪĺáĭ³áĪ¨áĪ»": 6788,
      "ĠáįķáĪ®áĮĢáĬŃáī¶áī½": 6789,
      "áĪĿáī¥": 6790,
      "Ġáĭ¨áĮĮáī³": 6791,
      "áĬķáĭĻ": 6792,
      "ĠáĬ¨áĬĭáĪĭ": 6793,
      "áĭĪáĪŃáĭµ": 6794,
      "Ġáĭ¨áĪļáĪµáĪĽáĪĽ": 6795,
      "ĠáīµáĮįáĪį": 6796,
      "áĪĮáĪŃ": 6797,
      "Ġáīłáī°áĮįáī£áĪŃ": 6798,
      "áĭİáī¹áĪĿ": 6799,
      "ĠáĪµáĪĪáĭļáĪħáĪĿ": 6800,
      "Ġáīłáī¥áĭĽáīµ": 6801,
      "Ġáĭ¨áĪĻáĭ«": 6802,
      "ĠáĪĪáĪĺáĪµáĪĽáīµ": 6803,
      "ĠáĬ¨áĬĲáīłáĪ©áīµ": 6804,
      "Ġáī°áĭĪáĭ³áĭ³áĪª": 6805,
      "Ġáĭ«áĪ¨áĮĭáĮįáĮ£áĪį": 6806,
      "ĠáĮīáĪįáīłáīµ": 6807,
      "Ġáĭ¨áĮįáī¥áĭŃáīµ": 6808,
      "ĠáĪĺáĮĢáĪĺáĪŃ": 6809,
      "Ġáĭ°áĭĮ": 6810,
      "ĠáĪĪáĪĺáĮłáĭ¨áīħ": 6811,
      "ĠáīłáĬłáĪµáĪ«": 6812,
      "ĠáīłáĬłáĬ«áĪį": 6813,
      "ĠáĪŃáĬ«áĪ½": 6814,
      "ĠáĪĤáĪ³": 6815,
      "áĪĤáĭµ": 6816,
      "Ġáĭ¨áĪĻáĭļáīĥ": 6817,
      "ĠáĭŃáīĢáĬķ": 6818,
      "ĠáĪµáĪĪáĪĽáĭŃ": 6819,
      "áĪĬáįİáĪŃáĬĴáĭ«": 6820,
      "Ġáĭ¨áī±": 6821,
      "Ġáīłáī½": 6822,
      "ĠáĪĺáīĨáĮ£áĮł": 6823,
      "ĠáĬ¨áī¤": 6824,
      "ĠáĭŃáĪĿ": 6825,
      "ĠáĭŃáĪ°áīł": 6826,
      "Ġáĭ¨áĪļáĪĪ": 6827,
      "áįħáįį": 6828,
      "ĠáīĢáĭµ": 6829,
      "Ġáĭ¨áĪĺáĪĿ": 6830,
      "ĠáĪ³áĮ¥": 6831,
      "ĠáīłáĬ¬": 6832,
      "ĠáĪĨáĬĲáĬķ": 6833,
      "ĠáīłáĬłáĬķáĭµáĬĲáīµ": 6834,
      "ĠáĪħáĭŃáĭĪáīµáĬķ": 6835,
      "áĮĪáĭ°áĪį": 6836,
      "Ġáĭ°áĬķáīłáĬĽ": 6837,
      "ĠáīłáĪħáĭŃáĭĪáī´": 6838,
      "ĠáĬłáĪĿáĪĭáĬ«áī½áĪģ": 6839,
      "ĠáīłáĪĽáĮįáĬĺ": 6840,
      "ĠáĭŃáĬ¨": 6841,
      "ĠáĭŃáĮłáīł": 6842,
      "ĠáĪĪáĬķáĮįáĭµ": 6843,
      "Ġáĭ«áĭµ": 6844,
      "ĠáĪĪáĪĺáĪĺ": 6845,
      "ĠáĬŃáīµ": 6846,
      "áĬ©áĪ¨áīµ": 6847,
      "ĠáĪĢáĬĵ": 6848,
      "ĠáĪ³áĬķ": 6849,
      "Ġáĭ«áĪµáĭĪáĮį": 6850,
      "ĠáĬłáī£áī£áĪį": 6851,
      "Ġáĭ¨áĪļáĭ«áĪµáĬ¨áīµ": 6852,
      "áĭ°áĪŃáĮĭáī¸áĭį": 6853,
      "Ġáĭ¨áĮ¥áīłáī¥": 6854,
      "ĠáĪĪáĪĺáīĢáĮłáĪį": 6855,
      "ĠáĮĪáī¥áī·áĪį": 6856,
      "ĠáĮłáĪĭáī¶áī½": 6857,
      "ĠáĭŃáĪ»áĪĭáĪį": 6858,
      "ĠáīłáĬłáīħáĪ«": 6859,
      "áĪŃáĮį": 6860,
      "áĪ¨áĬĵáĪį": 6861,
      "ĠáĭŃáĪĤáĭ±": 6862,
      "ĠáĭĪáįİáī½": 6863,
      "áĪ³áĭ©": 6864,
      "áĬłáĪŃ": 6865,
      "ĠáĪĽáĮłáĪ«áīĢ": 6866,
      "ĠáĭįáĪŃ": 6867,
      "ĠáĮįáįĬáīµ": 6868,
      "ĠáĮ¥áĪ¨": 6869,
      "ĠáĭŃáĪĨáĭĭáĪĿ": 6870,
      "ĠáīłáĮįáĬķ": 6871,
      "ĠáīłáĪħáĭŃáĭĪáī³áī½áĬķ": 6872,
      "ĠáīłáĪĺáīĢáĮłáĪį": 6873,
      "áĭł": 6874,
      "ĠáīłáĬķáĮįáĭµ": 6875,
      "ĠáĭŃáĪĺáĮ£áĪī": 6876,
      "áĪİáĪª": 6877,
      "ĠáĬ¥áĬķáĭ²áĪ°áĪ«": 6878,
      "ĠáĬłáĪĪáĪĽ": 6879,
      "Ġáī³áĭ³": 6880,
      "ĠáĬ«áĬķáĪ°áĪŃ": 6881,
      "ĠáĬ«áĭįáĬķáī²": 6882,
      "ĠáīłáĬª": 6883,
      "ĠáĪĻáĭļ": 6884,
      "áĬ³áĬķ": 6885,
      "Ġáī¥áĪİáĬĽáĪį": 6886,
      "ĠáĪĽáĪµáī°áĬ«áĬ¨": 6887,
      "ĠáĬłáĮįáĬĿáī·áĪį": 6888,
      "ĠáĬłáĮįáĬĿáī»áĪĪáĪģ": 6889,
      "áĮłáĬĵáīĢáīĢ": 6890,
      "ĠáĪĨáĬĵáī½áĪģ": 6891,
      "Ġáī¼": 6892,
      "áĬĲáīĥ": 6893,
      "Ġáĭ«áī¥áĪ«": 6894,
      "áĮłáĪĪ": 6895,
      "Ġáī°áĮĵ": 6896,
      "ĠáĪĿáī¾áīµ": 6897,
      "ĠáĪ³áĪ«": 6898,
      "áĬŀáī»áī¸áĭį": 6899,
      "ĠáĬ¨áī°áĪĪáĭ«áĭ©": 6900,
      "áĮĮáĮ¥": 6901,
      "Ġáī£áĪħáĪĭáĭĬ": 6902,
      "Ġáĭ¨áī£áĬ¥áĭµ": 6903,
      "áĬ¨áī£áĭµ": 6904,
      "ĠáĭŃáĪµáĪĢ": 6905,
      "ĠáĬŃáĪµáī°áī¶áī½": 6906,
      "Ġáī¥áĪ©áĪħ": 6907,
      "Ġáĭ¨áĭľáĬĵ": 6908,
      "Ġáĭ¨áĪĦ": 6909,
      "áĪĺáī³": 6910,
      "ĠáĮįáĭ¢": 6911,
      "ĠáīłáĪĺáĪ°áĭĬáĭ«áĭį": 6912,
      "ĠáĮĭáĪ»": 6913,
      "áī¡áĪĿ": 6914,
      "ĠáĬ¥áĬķáĭ³áĪĪáĬķ": 6915,
      "ĠáīłáĪļáĪĪáĭį": 6916,
      "ĠáĬłáĬķáĭ°áĬĽáĭį": 6917,
      "ĠáĮ¨áĪŃáĪ¶": 6918,
      "Ġáī°áĮįáĪ³áįħ": 6919,
      "áĪĿáĪ«áĪĪáĬķ": 6920,
      "ĠáĬłáĪ«áĭĬ": 6921,
      "áĪ³áĭµ": 6922,
      "Ġáī°áĬ¨áĪ«": 6923,
      "ĠáĪĪáĪĺáĪĽáĪŃ": 6924,
      "ĠáīłáĬłáĮĪáĪįáĮįáĪİáīµ": 6925,
      "ĠáĬ¢áĪĭáĪĽ": 6926,
      "ĠáĪĮáĪĬ": 6927,
      "ĠáĬ¥áĪµáĬªáĭ«": 6928,
      "ĠáīłáĪĻáĪ´": 6929,
      "áĮªáĭį": 6930,
      "áī¥áĪ«áĭįáĭ«áĬķ": 6931,
      "ĠáĬ¥áĬķáĭµáĬķáī½áĪį": 6932,
      "ĠáįĪáĪŃáĬ¦áĬķ": 6933,
      "Ġáī°áĮ«áĭĭáī½": 6934,
      "ĠáĪĪáĪĽáĬķáīłáī¥": 6935,
      "Ġáī°áīĥáĭĭáĪļ": 6936,
      "ĠáīłáĪĺáĭ°áīłáĬĽ": 6937,
      "ĠáīłáĬĲáīłáĪ¨áĭį": 6938,
      "ĠáĬłáĭĿáĬĵ": 6939,
      "áĪ°áīłáĭį": 6940,
      "Ġáĭ«áĮĪáĬĻ": 6941,
      "áĪªáįķ": 6942,
      "áĮĭáĮłáĪĺ": 6943,
      "ĠáīłáĪĺáĪŃ": 6944,
      "ĠáĬĲáĮĪáĪ°": 6945,
      "áīłáĪŃáīµ": 6946,
      "ĠáįįáĪ«": 6947,
      "ĠáĪĿáĪµáĮ¢": 6948,
      "ĠáĬ¨áĪļáĭ«áĪµ": 6949,
      "ĠáĬłáĪīáĬķ": 6950,
      "áĬ¥áĪ«áī¥": 6951,
      "ĠáįķáĪ¬áĪµ": 6952,
      "ĠáīĢáĪŃáī¦": 6953,
      "Ġáīłáī°áĪĺáĪ³áĪ³": 6954,
      "Ġáī°áĬ¨áīµáĪİ": 6955,
      "ĠáĭµáĬķáĮĭáĮĮáĭİáī½": 6956,
      "áĪ«áĮ®áī½áĬķ": 6957,
      "ĠáĬ¨áĭ®": 6958,
      "Ġáī°áĬĿ": 6959,
      "áĬ¨áī¥áĪŃ": 6960,
      "áĪ®áī¹áĬķ": 6961,
      "áĪªáĭ«áĬķ": 6962,
      "ĠáĬ«áĬĵáĭ³": 6963,
      "Ġáĭ¨áĬ¥áĪĪáīµ": 6964,
      "ĠáĮłáĭ«áīĤ": 6965,
      "ĠáīłáĪħáĭĿ": 6966,
      "ĠáĬłáĪĿáĮ¥": 6967,
      "Ġáĭ²áĮĤáī³áĪį": 6968,
      "ĠáīĨáĭŃáī·áĪį": 6969,
      "ĠáīłáīµáĬ¥áĮįáĪµáīµ": 6970,
      "ĠáĬłáĪĿáĬĵáĪĪáĪģ": 6971,
      "ĠáĬ¥áĮģ": 6972,
      "ĠáĬłáīĨ": 6973,
      "ĠáĬłáįĪáĪŃ": 6974,
      "ĠáĬ¨áĪ«": 6975,
      "áĮĢáĪĿáĪ©": 6976,
      "áĮİáī½áĬķ": 6977,
      "ĠáĪ³áĬķáī²": 6978,
      "ĠáĪ¨áĭ³áīµ": 6979,
      "Ġáī¥áĪŃáī³áīµ": 6980,
      "ĠáĪĺáĬķáĮĪáĭ¶áī½áĬķ": 6981,
      "ĠáĪĺáĪĭáĬŃ": 6982,
      "ĠáĪĢáĭĭáĪŃáĭ«": 6983,
      "ĠáĪįáĮĥáī½áĪģ": 6984,
      "ĠáĪĽáīĨáĪļáĭ«": 6985,
      "ĠáĬ¥áĮĥ": 6986,
      "áĬĵáĮĭ": 6987,
      "ĠáĪ°áĬķáĪ°": 6988,
      "ĠáĪįáĬ¡": 6989,
      "ĠáīłáĬ¥áĮģ": 6990,
      "Ġáįįáīĥáĭµ": 6991,
      "áĮİáĬķ": 6992,
      "áī²áĬķáĮį": 6993,
      "áįĢáĬķ": 6994,
      "áĬĴáĬŃáĪµ": 6995,
      "Ġáĭ¨áī³áĪªáĬŃ": 6996,
      "ĠáĬ¥áĬķáĭ³áĪĪáī¥áĬķ": 6997,
      "ĠáĬłáĮįáĬĿáī°áĭĭáĪį": 6998,
      "Ġáĭ¨áĭ³áĭĬáīµ": 6999,
      "áĪĿáĪ¨áĮ¡": 7000,
      "ĠáīłáĮĭáĪ«": 7001,
      "áĪħáĪī": 7002,
      "ĠáĭŃáĮĭ": 7003,
      "áĬŃáĪĪáĬĽáĭį": 7004,
      "áįįáĪ«áīµ": 7005,
      "áīĢáĪ©": 7006,
      "ĠáĭįáĪ»": 7007,
      "ĠáīłáĪĺáĪĨáĬĵáī¸áĭį": 7008,
      "áĪĻáīµáĬķ": 7009,
      "áĪµáī³áĭįáĪµ": 7010,
      "ĠáĬ®áĪĮáĮħ": 7011,
      "ĠáĪ¨áīĤáīħ": 7012,
      "ĠáīµáĬķáī¢": 7013,
      "áĮłáīĥáĪį": 7014,
      "ĠáĪ´áī¶áī½áĬķ": 7015,
      "ĠáĬ«áĪħáĬĳáĪĿ": 7016,
      "ĠáīłáĪ³áĪĿáĬķáīµ": 7017,
      "Ġáĭ¨áĪŃ": 7018,
      "ĠáĬ¥áĪĭáĪĪáĪģ": 7019,
      "áĮĪáĪĭ": 7020,
      "ĠáĪĺáīħáĪ¨áī¥": 7021,
      "áĪ«áĪĪáī½": 7022,
      "ĠáĬ¨áī¦": 7023,
      "áĮłáĬŀáī½": 7024,
      "áįĪáĪµ": 7025,
      "áĬ¥áĬĵ": 7026,
      "ĠáĪĿáĬ¥": 7027,
      "áĭ³áĪĪáĪģ": 7028,
      "ĠáĮ¥áĬķáīĥáīĦ": 7029,
      "ĠáīłáĪĺáĪĺ": 7030,
      "ĠáĪĻáĭ«áĭĬ": 7031,
      "áĪ¨áĭ³áī¸áĭį": 7032,
      "ĠáĪĤáĭ±": 7033,
      "Ġáī°áĬĵáĮĪáĪŃ": 7034,
      "ĠáįĭáĭŃáĪį": 7035,
      "Ġáī°áĮĪáĬĲáĭĺ": 7036,
      "áĬĹáĬķ": 7037,
      "áĭĿáĬĵáĬĽ": 7038,
      "Ġáĭ¨áĪļáĮĪáĬĻáīµ": 7039,
      "ĠáĮłáĭ¨áīĢ": 7040,
      "ĠáīłáĪĺáĮįáĪĪáįħ": 7041,
      "ĠáĪĿáĬŀáīµ": 7042,
      "Ġáĭ¨áīħáĭµ": 7043,
      "ĠáĭŃáīłáĪį": 7044,
      "áĭ³áī¸áĭįáĬķ": 7045,
      "Ġáīµáĭ³áĪŃ": 7046,
      "ĠáĬ«áĭ°áĪ¨áĮį": 7047,
      "Ġáīħáī§áĬķ": 7048,
      "áĮİáĬĵ": 7049,
      "ĠáīłáĪļáĮĪáĬĻ": 7050,
      "Ġáī£áĪĪáĪĢáī¥": 7051,
      "ĠáĪĪáĬłáĪĪáĪĿ": 7052,
      "ĠáĪĽáĬķáĪ³áīµ": 7053,
      "ĠáīłáĪĿáĬķáĪĿ": 7054,
      "Ġáī¥áĪŃáĪĢ": 7055,
      "ĠáīłáĮįáĪĪáĪ°áī¥": 7056,
      "ĠáīµáĪŃáĮī": 7057,
      "áĪ°áĪįáĮłáĬķ": 7058,
      "áīĢáĭĿáīĢ": 7059,
      "ĠáĬĲáī¢áĭ«áīµ": 7060,
      "Ġáĭ¨áĮĢ": 7061,
      "ĠáīłáĭļáĪģ": 7062,
      "ĠáĭŃáĬ¨áī³áī°": 7063,
      "Ġáīµáī¥áī¥áĪŃ": 7064,
      "áĪ½áĬĵáĪį": 7065,
      "áī²áīŃ": 7066,
      "ĠáĬŃáįįáĭ«áĭİáī½": 7067,
      "ĠáĪįáĮĨáī»áī¸áĭįáĬķ": 7068,
      "áĪŃáī£áĬķ": 7069,
      "ĠáĬ¥áĪµáĪ«áĬ¤áĪĭáĭįáĭ«áĬķáĬķ": 7070,
      "ĠáĪĪáĪĽáĪ³áĭ°áĮį": 7071,
      "Ġáĭ¨áĭĭáĪµáīµáĬĵ": 7072,
      "ĠáīłáĪļáĭ«áĪµáĭ°áĬķáīħ": 7073,
      "Ġáĭ¨áī´áĬŃáĬĸáĪİáĮĤ": 7074,
      "áīĢáĭĿáīĢáĭ£": 7075,
      "ĠáĪĬáĭ": 7076,
      "ĠáĬ¥áĮĦ": 7077,
      "áĪĪáĭĪáĮ¥": 7078,
      "Ġáĭ«áĭ¨": 7079,
      "áĮ£áī½áĪģ": 7080,
      "Ġáĭ¨áĪļáĬĸáĪ¨áĭį": 7081,
      "áĭ³áĪªáĭİáī½": 7082,
      "ĠáĪ°áĭįáĬķ": 7083,
      "Ġáĭ¨áī°áĪ¨áĮĭáĮĪáĮł": 7084,
      "ĠáĬ¥áĬķáĭ²áĪ°áĪ©": 7085,
      "áįħáĪĿáĬĵ": 7086,
      "ĠáīłáĪĺáĬªáĬĵ": 7087,
      "Ġáĭĺáĭ³": 7088,
      "ĠáĬĵáī¡": 7089,
      "ĠáĬ¨áī£áĪĪ": 7090,
      "ĠáīłáįįáĪŃ": 7091,
      "ĠáīłáĮįáĭŀáīµ": 7092,
      "áĪĭáĪĪáĪĽáĭĬ": 7093,
      "ĠáīłáĬĲáĮĪáĪ°": 7094,
      "Ġáī´áĪĮ": 7095,
      "ĠáĭŃáĪĪáĬĽáĪį": 7096,
      "ĠáĬĲáĭİáīµ": 7097,
      "Ġáī£áĪĭ": 7098,
      "áĪĻáĪĭáīµ": 7099,
      "ĠáĮįáĬķáī¦áīµ": 7100,
      "ĠáĬ¨áĬłáĪĪáĪĿ": 7101,
      "ĠáĬ¥áĬķáĭ³áĪĪáī¥áĬĿ": 7102,
      "ĠáĬłáĭµáĪ®": 7103,
      "ĠáĪ°áĪĭáĪĿáī³": 7104,
      "ĠáĭµáĪŃáĮĬáī¶áī½": 7105,
      "ĠáĪĺáĪĨáĬĵáī¸áĭį": 7106,
      "áĪµáĬŃáĪĮáīµ": 7107,
      "ĠáĭŃáī£áĪĭáĪį": 7108,
      "áĬĲáįĥáįĢáĪŃ": 7109,
      "ĠáĪĪáĭļáĭ«": 7110,
      "áī£áĬĸáĪµ": 7111,
      "ĠáīµáĪħáīµáĬĵ": 7112,
      "ĠáīłáĬ¥áĪŃáĪµáĭİ": 7113,
      "ĠáĬ«áĮĪáĬĺ": 7114,
      "áĪ²áĬ«": 7115,
      "Ġáĭ«áĪµáī£áĪī": 7116,
      "ĠáĬłáī£áī³áī½áĬķ": 7117,
      "ĠáįħáĪģáįİáī½áĬķ": 7118,
      "ĠáĪĿáĭµáĪªáī±áĬķ": 7119,
      "áĬ¨áĪ¨áĪĿ": 7120,
      "ĠáīłáĭŃáįĭ": 7121,
      "áĬĢáĬķáĬĲáīµ": 7122,
      "Ġáĭ¨áĮĤ": 7123,
      "Ġáĭ¨áĮįáī¥áįħ": 7124,
      "áĪµáĪĪ": 7125,
      "áĪ³áĪªáĭ«": 7126,
      "áĭ³áĭµáĪŃ": 7127,
      "áĭĭáĪŃáĭ«áīµ": 7128,
      "áĪİáĪĽ": 7129,
      "ĠáĮįáĪĭáĭĬ": 7130,
      "ĠáĪįáĮĩ": 7131,
      "Ġáĭ¨áĪĺáĪĨáĬķ": 7132,
      "ĠáĭµáįįáĪ¨áīµ": 7133,
      "ĠáĮĪáĭ³áĭŃ": 7134,
      "áĮİáĪĿ": 7135,
      "áīĭáĬķáīĭ": 7136,
      "ĠáĬ¨áĬ¥áĬĲáĪŃáĪ±": 7137,
      "ĠáĬ¥áĬĲáĪĨáĪĿ": 7138,
      "ĠáĭĪáĭ°áĪļáĮĪáĬĺáĭį": 7139,
      "ĠáĬ¥áĪ«áĪµáĭİáĬķ": 7140,
      "Ġáĭ«áĪĺáĪĪáĬŃáī³áĪį": 7141,
      "ĠáĪĺáĭ°áĪĿáĭ°": 7142,
      "Ġáīłáī°áĪĺáĪ³áĪ³áĭŃáĪĿ": 7143,
      "áĭ´áīµ": 7144,
      "áĪŃáĪ½": 7145,
      "áĪĺáĪ¨áī¥": 7146,
      "áĬķáĭŀ": 7147,
      "ĠáĬ¨áĪĿáĬķ": 7148,
      "áĬ«áī½áĪģ": 7149,
      "áĪĭáĭŃáĬķ": 7150,
      "Ġáĭ°áĮįáĬĲáīµ": 7151,
      "ĠáįķáĪª": 7152,
      "ĠáįĢáĮ¥": 7153,
      "ĠáīłáĮ¥áīĤáīµ": 7154,
      "Ġáĭ¨áĭĺáĪŃ": 7155,
      "ĠáĪ±áīħ": 7156,
      "ĠáīłáĪ°áĪĽáĭ«áīµ": 7157,
      "ĠáĬ¬áĬŃ": 7158,
      "áĪ½áĬ¨áĪŃáĬ«áĪªáĭİáī½": 7159,
      "ĠáĮīáĪįáīł": 7160,
      "ĠáīłáĪĽáĪħáīłáĪ«áĭĬ": 7161,
      "ĠáīłáĪºáĭİáī½": 7162,
      "áįįáī¶": 7163,
      "Ġáĭ¨áĪļáĬĲ": 7164,
      "áĬ«áĬĿ": 7165,
      "áī¶áīµ": 7166,
      "ĠáīłáĬłáĮĪáĪŃ": 7167,
      "Ġáĭ¨áĪĿáĭµ": 7168,
      "ĠáīłáĪĺáĮ¨áĪ¨áĪ»áĭį": 7169,
      "ĠáĪĺáī°áĪĽáĪĺáĬķ": 7170,
      "Ġáī¥áī¸áĬĽ": 7171,
      "ĠáīłáįĪáīĥáĭ°áĬĿáĬĲáīµ": 7172,
      "áĮ¥áĪ¯áĭĬ": 7173,
      "áĪĻáĬĴáĬ¬áĪ½áĬķ": 7174,
      "Ġáĭ¨áĮĪáĬĵ": 7175,
      "Ġáĭ¨áĬŃáĪįáĪį": 7176,
      "áĪĪáĪī": 7177,
      "ĠáĭŃáĪĺáĪ¨": 7178,
      "ĠáĭŃáĪĿáĪ¨áĮ¡": 7179,
      "ĠáĪĪáĪ°áĪ«": 7180,
      "Ġáī°áĪ½áĬ¨áĪŃáĬ«áĪª": 7181,
      "ĠáĪ°áĪį": 7182,
      "ĠáĪįáī¤": 7183,
      "ĠáīłáĬłáĬ¥áĪĿáĪ®": 7184,
      "áĮ«áĭį": 7185,
      "ĠáĪµáĪ«áī¸áĭįáĬķ": 7186,
      "ĠáĪļáĬ«": 7187,
      "áĪ¨áĮĭáĮĭáīµ": 7188,
      "ĠáīłáĪ°áī£": 7189,
      "ĠáĪĺáĪĪáĭĪáĮ¥": 7190,
      "Ġáī»áĭŃ": 7191,
      "ĠáĬłáĪµáī°áĭ³áĭ³áĪª": 7192,
      "ĠáĬ¨áīģ": 7193,
      "ĠáĬĲáīħ": 7194,
      "ĠáĪĽáĮ£áīµ": 7195,
      "áīĥáī½áĬķ": 7196,
      "Ġáĭ¨áĬ¥áĬķáĮįáĪĬáĭĿ": 7197,
      "ĠáĬ¥áĭ¨áĪŀ": 7198,
      "áĪ°áī¥áĬŃ": 7199,
      "áĬ³áĭŃ": 7200,
      "áĪ°áī£áĪ°áī¥": 7201,
      "ĠáĪµáĪľáī³áĭĬ": 7202,
      "ĠáīłáįįáĪŃáĭµ": 7203,
      "áĪ¨áĭ±áīµ": 7204,
      "ĠáĬłáĭµáĪ«áĮĬ": 7205,
      "ĠáīłáĭĻáĪªáĭ«áĭį": 7206,
      "áįĢáĪįáĭŃ": 7207,
      "ĠáĪįáĭįáĭįáĮ¥": 7208,
      "ĠáĬłáĭĪáĭµ": 7209,
      "áĭ«áĬķáĪĿ": 7210,
      "áĪħáĭĽáī¥": 7211,
      "ĠáĪĺáĬķáĭ°áĪŃ": 7212,
      "ĠáĭŃáīĢáĪŃ": 7213,
      "ĠáĭŃáĬĲáĮį": 7214,
      "Ġáĭ¨áĪļáī³áĭĪ": 7215,
      "áīłáĪŃáĮį": 7216,
      "Ġáĭ¨áĪĺáĭµáĪĢáĬĴáīµ": 7217,
      "ĠáĪħáĭ³áĪŃ": 7218,
      "áīĨáĮłáĪ©": 7219,
      "ĠáĪ¶áĪµáī°áĬĽáĭį": 7220,
      "áĮłáĬĵáīħ": 7221,
      "Ġáĭ¨áĪŀáī£áĭŃáĪį": 7222,
      "Ġáĭ¨áĪļáĬ¨áī°áĪĪáĭį": 7223,
      "ĠáĪĪáĪĺáĮįáĪĪáįħ": 7224,
      "áįħáĬĵáĬĵ": 7225,
      "áĪĺáĪĪáĬ¨áī±áīµ": 7226,
      "ĠáīģáĪŃáĮłáĬĿáĬĲáīµ": 7227,
      "ĠáĬ«áĪħáĬĵáī±": 7228,
      "áįĵáĪŃáī³áĪĽ": 7229,
      "áĪĿáĪ¬": 7230,
      "ĠáĪĺáĬķáĭ°": 7231,
      "áĪ¨áĬŀáī½": 7232,
      "Ġáī°áĪĽ": 7233,
      "ĠáĪĽáĭĺ": 7234,
      "Ġáī£áĬķ": 7235,
      "ĠáĬ¥áĪŃáĮį": 7236,
      "áĭĪáĪ°áĬĲáĭį": 7237,
      "Ġáĭ¨áĪħáĭĿ": 7238,
      "Ġáĭ¨áĪĮáĪĪ": 7239,
      "Ġáī°áĭĭáĬĵ": 7240,
      "ĠáĪĺáįĥáĪħáįį": 7241,
      "ĠáĪµáĬ¥áĪį": 7242,
      "ĠáīłáĬ¨áįĬáĪį": 7243,
      "áĭįáĪ¨áĭµ": 7244,
      "áĪĿáįķ": 7245,
      "ĠáĬ¥áĮĪáĪĿ": 7246,
      "ĠáīłáīłáĪ¨": 7247,
      "áĭİáī³áĪĪáĬķ": 7248,
      "ĠáĭįáĪİ": 7249,
      "ĠáĮłáīģ": 7250,
      "ĠáĬ¨áĬłáĭ²áĪµ": 7251,
      "áĪĺáĪŃáĮ¡": 7252,
      "áĮįáĪ«áĪĿ": 7253,
      "ĠáĪħáĭŃáĭĪáī±áĬķ": 7254,
      "ĠáĬ¥áĭļáĭ«áĭį": 7255,
      "Ġáĭ¨áĭµáĪĿáįħ": 7256,
      "áĪµáįĭáįĭ": 7257,
      "ĠáĬ¥áĮĪáĪĿáī³áĪĪáĪģ": 7258,
      "áĬķáĭ·": 7259,
      "Ġáī°áĪŀ": 7260,
      "ĠáĬłáĪµáī¤": 7261,
      "ĠáĬ¥áĭ«áĪ³": 7262,
      "áĮłáĭ¨áīģ": 7263,
      "Ġáī¥áĪįáĪħ": 7264,
      "áĪµáī²áĬŃáĪµ": 7265,
      "Ġáĭ¨áĪļáĭ«áĭ°áĪŃáĮīáīµ": 7266,
      "áĮķ": 7267,
      "Ġáĭ¨áīħáĭ±": 7268,
      "áĪįáĬ©": 7269,
      "ĠáīłáĮĥ": 7270,
      "ĠáĭŃáĪŀáĬŃáĪ©": 7271,
      "áĪ°áīĥ": 7272,
      "áī¶áī»áī½áĬķáĬķ": 7273,
      "ĠáĪµáĪĪáĬĲáīłáĪ¨": 7274,
      "Ġáĭĺáĭį": 7275,
      "áįīáĪĿ": 7276,
      "ĠáĬłáĭįáī³áĪ¨": 7277,
      "ĠáĬłáĪ³áĪµ": 7278,
      "Ġáĭ¨áĬ¢áĭ®": 7279,
      "Ġáĭ¨áĮįáī¥áĪŃ": 7280,
      "ĠáĭĪáĪ¨áĭ°": 7281,
      "ĠáĬ¬áĪļ": 7282,
      "ĠáĮĵáĭ°áĬĽáĭ¬": 7283,
      "ĠáĬłáĪ³áĪįáįĮ": 7284,
      "ĠáīłáĬ¨áī°áĪĽáĭį": 7285,
      "ĠáĬłáĪ®áĮĮ": 7286,
      "ĠáĪļáĪµáĮ¥áĪ«áĭĬ": 7287,
      "ĠáĪĢáĮĪáĪ«áīµ": 7288,
      "ĠáĬłáīĢáĪĽáĪĺáĮ¥": 7289,
      "Ġáĭ¨áīħáĬķ": 7290,
      "áĪĺáĪħ": 7291,
      "áĮĪáĭĿ": 7292,
      "ĠáĪĺáĪĿáĪħáĪŃ": 7293,
      "Ġáĭ«áĮĪáĬĽáĪį": 7294,
      "ĠáĭĪáįį": 7295,
      "áĪ³áī¸áĭįáĬķ": 7296,
      "Ġáī°áĬŃáĪį": 7297,
      "áįĪáĮ¥": 7298,
      "Ġáĭ¨áĬłáĪ³": 7299,
      "ĠáĬ«áĪľáĪ«": 7300,
      "ĠáĬłáĪĺáī·": 7301,
      "ĠáĭŃáī½áĪį": 7302,
      "Ġáĭ¨áīłáĮĭ": 7303,
      "ĠáĬķáĮīáĪ±áĬķ": 7304,
      "Ġáĭ²áĪŀáĬŃáĪ«áĪ²áĭ«áĭĬ": 7305,
      "áĪŁáĪī": 7306,
      "Ġáĭįáĭµáīħ": 7307,
      "Ġáĭ¨áī°áī£áĪĪáī½": 7308,
      "ĠáĬ¥áĪµáĪ«áĬ¤áĪįáĬķ": 7309,
      "ĠáĬłáĪµáīĢáĭµáĪĺáĭį": 7310,
      "ĠáĬłáĭµáĪ«áĮİáīµ": 7311,
      "ĠáĭŃáī³áĭĪáīĥáĪį": 7312,
      "ĠáīłáĪĺáĪ°áĪ¨áī±": 7313,
      "ĠáĭŃáĮłáīłáīĥáĪį": 7314,
      "áĭª": 7315,
      "ĠáīłáĮĬ": 7316,
      "ĠáĪĺáĬ®": 7317,
      "áĪĽáīħ": 7318,
      "ĠáĭŃáĬ¨áįį": 7319,
      "Ġáĭ¨áĪļáĬĸáĪ©áīµ": 7320,
      "ĠáĪĽáĭĺáĮĭáĮĢáīµ": 7321,
      "ĠáĪĽáĬ¨áĬĵáĭĪáĬķ": 7322,
      "Ġáĭ¨áī°áĪ°áĪĽ": 7323,
      "ĠáĪģáĬĳ": 7324,
      "ĠáĭµáĪ«": 7325,
      "Ġáĭ¨áĬłáĪŃ": 7326,
      "Ġáĭ¨áĬ¢áĪ«áīħ": 7327,
      "ĠáĪĦáĭ°áĭį": 7328,
      "ĠáĬ¨áī°áĪĽáĭĭáĬķ": 7329,
      "áĭ°áĪŃáĮįáĪĿ": 7330,
      "áī§áī¸áĭį": 7331,
      "ĠáĪĺáĪĪáĬªáĭ«": 7332,
      "ĠáįĭáĬķáī³": 7333,
      "ĠáĪĺáĪĺáĪªáĭ«áĭİáī½áĬķ": 7334,
      "ĠáĪĽáĪµáī°áĪĽáĪŃ": 7335,
      "ĠáĪĿáĭµáĪªáī±": 7336,
      "áī£áīłáīħ": 7337,
      "áĭİáīµáĪĿ": 7338,
      "áĭĬáĬķ": 7339,
      "áī»áĪįáĪĿ": 7340,
      "ĠáĬ¢áīµáĭ®áĮµ": 7341,
      "ĠáĬ¥áĬķáĭ°áĪļáĪ°áĪ«": 7342,
      "Ġáĭ¨áĪĽáĪĿáĪĪ": 7343,
      "ĠáĬ¨áĪĺáįħáĪĢáįį": 7344,
      "Ġáī¥áī»áĭįáĬķ": 7345,
      "ĠáįĢáĮī": 7346,
      "ĠáīłáĮ¥áĬķáīµ": 7347,
      "ĠáĬłáĪµáįĪáĪĭáĮĬáĬĲáīµ": 7348,
      "áĪµáĪįáĮ£": 7349,
      "ĠáĭĪáĪĭáĮħ": 7350,
      "ĠáĪµáĪŃáĬłáī±": 7351,
      "ĠáĪĢáĭŃáĪĽáĬĸáī³áĭĬ": 7352,
      "ĠáĪ°áĬķáĮłáĪ¨": 7353,
      "áīµáĪ®": 7354,
      "áĪĭáĭįáĬķ": 7355,
      "ĠáĬ¨áĪįáĬŃ": 7356,
      "Ġáī°áĪ»": 7357,
      "ĠáĪĪáĪĽáĬŃáīłáĪŃ": 7358,
      "áĬĺáĭį": 7359,
      "Ġáĭ¨áĪ°áĭįáĬķ": 7360,
      "ĠáĬ¥áĭįáĬĲáī±": 7361,
      "áĭ´áĬķ": 7362,
      "ĠáĬ¥áĬķáĭ°áī°áĬĵáĮĪáĪ¨áĭį": 7363,
      "Ġáĭ¨áĪĢáĪ°áīµ": 7364,
      "áĬķáįĪáĪ¨áĬķáĪµ": 7365,
      "áĬĲáĮĭáĮĪ": 7366,
      "áĪ«áĪ³áī½áĬķ": 7367,
      "Ġáĭ¨áĪ½áĭ«áĮŃ": 7368,
      "Ġáĭ¨áī¥áĭĻ": 7369,
      "áĪ¨áī¤": 7370,
      "áĪĽáĪĪáĬķ": 7371,
      "áĪªáĮħ": 7372,
      "Ġáĭ¨áĪļáĪĦáĭ±": 7373,
      "áī¶áī½áĬĵ": 7374,
      "Ġáĭ¨áĬłáįįáĪªáĬ«": 7375,
      "ĠáįįáĬķ": 7376,
      "Ġáĭ¨áĬ¥áĬķáĪµáĪ³áīµ": 7377,
      "ĠáĪ°áĭįáĪĿ": 7378,
      "ĠáĬ¥áĬķáĭ°áĪļáĬ¨áī°áĪĪáĭį": 7379,
      "áĪ¸áĮ¥": 7380,
      "áĮĪáĪĪáĮł": 7381,
      "ĠáīłáĪŃáĪ³áī¸áĭį": 7382,
      "ĠáĪ¶áĪµáī±": 7383,
      "áĭĪáĪµáĭ±": 7384,
      "ĠáįĵáĭįáĬķáĭµ": 7385,
      "ĠáĬķáĮįáĭ¶áī½": 7386,
      "Ġáĭ°áĬķáī¦áī½": 7387,
      "ĠáĬłáīĥáī¤": 7388,
      "Ġáīłáī¤áī±": 7389,
      "ĠáĪĺáĮĪáĬķáī£áīµ": 7390,
      "áīłáĬķ": 7391,
      "ĠáĭŃáĭ°": 7392,
      "áĪ°áĪ©áīµ": 7393,
      "Ġáĭ¨áĪļáĭ°áĪŃ": 7394,
      "ĠáĬ¥áĬķáĭ°áĭļáĭ«": 7395,
      "ĠáĪģáĪĭáī½áĪģáĪĿ": 7396,
      "ĠáĪĪáĪĺáĭĭ": 7397,
      "ĠáĪĪáĪĺáĭįáĮ£áīµ": 7398,
      "Ġáĭ¨áĬłáĭ°áĮĭ": 7399,
      "Ġáīłáī°áĪ«áĪ«": 7400,
      "áī´áĪĿ": 7401,
      "ĠáĬłáĪįáĬłáĭĽ": 7402,
      "Ġáĭ«áĪµáī½áĪĭ": 7403,
      "ĠáĬłáĭįáĪİ": 7404,
      "ĠáīłáīĢáĮ£": 7405,
      "Ġáĭ«áĪ³áĭį": 7406,
      "áĮ«áĭĪáī»": 7407,
      "áĪĭáīĢáĪī": 7408,
      "Ġáī°áĮĪáī¢áĭįáĬķ": 7409,
      "ĠáīłáĭĿáĪŃáĭĿáĪŃ": 7410,
      "Ġáĭ¨áĭ°áĬķáīłáĬĽ": 7411,
      "ĠáĪĺáĪµáįĪáĪŃáīµ": 7412,
      "ĠáĬĸáĪ¬áĮĭ": 7413,
      "áĪįáīµ": 7414,
      "áĪĪáĪĺáĭ°": 7415,
      "áĬ¨áĪµ": 7416,
      "áĮ£áĮ£": 7417,
      "Ġáĭ¨áī°áĬĵáĮĪáĪ¨áĭįáĬķ": 7418,
      "áĬĸáĬķ": 7419,
      "ĠáīłáĪĽáĮ¥": 7420,
      "áĪµáī°áĭĭáĪį": 7421,
      "áīłáĪ¨áĭį": 7422,
      "ĠáīłáĪļáīĢáĮ¥áĪīáīµ": 7423,
      "ĠáĪĿáĬŃáĪ®áī½áĬķ": 7424,
      "áįİáĪŃáĭµ": 7425,
      "Ġáĭ¨áĪĨáĬĲáī½áĭį": 7426,
      "ĠáĪįáĮĨáī¼": 7427,
      "áī¥áĪŃáĪĢ": 7428,
      "ĠáĪĺáīĢáĭ¨áĪŃ": 7429,
      "áīłáĪ¨áī³áī³áīµ": 7430,
      "Ġáī°áĭ°áĪ«áĪ½": 7431,
      "ĠáĬ¥áĪŃáĮįáĮłáĬŀáī½": 7432,
      "ĠáĭŃáįĪáįħ": 7433,
      "Ġáī£áĪĪáĪµáĪįáĮ£áĬĳ": 7434,
      "ĠáĬłáĪįáī»áĪīáĪĿ": 7435,
      "Ġáī°áĪĺáĪįáĬ«áī½": 7436,
      "ĠáĭįáĪµáĮ£áĭĬ": 7437,
      "áĪįáī³": 7438,
      "ĠáīłáĬķáĮīáĪ±": 7439,
      "ĠáĬłáĬĲáĮĭáĮĪáĪŃ": 7440,
      "áĮĪáįĭ": 7441,
      "ĠáĬ¨áīħáĪŃáī¥": 7442,
      "áĬŃáī´": 7443,
      "Ġáĭ¨áĪļáĪī": 7444,
      "áĭĬáī±": 7445,
      "ĠáĪµáĪĪáĬ¥": 7446,
      "ĠáĪµáĪĪáĪĨáĬĳ": 7447,
      "ĠáĬŃáĪĪáī¥": 7448,
      "áįİáĬķ": 7449,
      "ĠáĪģáĬĶáī³áĭįáĬķ": 7450,
      "ĠáĮ£áĬ¦": 7451,
      "ĠáĭŀáĪŃ": 7452,
      "ĠáĪįáĪĿáĪĿáĭµ": 7453,
      "Ġáĭ¨áī¡áĭµáĬķ": 7454,
      "ĠáĬ¥áĪĨáĬĵ": 7455,
      "Ġáīłáī²": 7456,
      "áĬĵáī½áĬķ": 7457,
      "Ġáī°áĮłáĪŃ": 7458,
      "ĠáĪĪáĪĺáĮł": 7459,
      "ĠáīłáĬłáĪĺ": 7460,
      "áĪĨáĬķáĬ©": 7461,
      "Ġáī¢áĪĨáĬĳ": 7462,
      "ĠáīłáĮ¥áī¥áīħ": 7463,
      "ĠáĭįáĭµáīĢáīµ": 7464,
      "ĠáĬ¥áĮ¥áĪ¨áīµ": 7465,
      "Ġáīłáī»": 7466,
      "áĪ«áĭįáĬķ": 7467,
      "áĭ¨áĬĿ": 7468,
      "Ġáĭ¨áī°áĬ¨áĪĪ": 7469,
      "ĠáĮ¥áĪ«": 7470,
      "ĠáīłáĬłáĪĭáĪħ": 7471,
      "ĠáĭĺáĬĵ": 7472,
      "Ġáĭ¨áĪĿáĬŃáĪŃ": 7473,
      "ĠáĮłáĬķáĬŃ": 7474,
      "áĪµáī°áĪĿ": 7475,
      "ĠáĮ¥áĪ©áĭį": 7476,
      "ĠáĭįáĪ³áĬĶáĭİáī½": 7477,
      "ĠáĬ¨áĪ°áĭİáī½": 7478,
      "ĠáĬłáĪµáī³áĭįáīĭáĪį": 7479,
      "ĠáįķáĪ®áįĮáĪ°áĪŃ": 7480,
      "ĠáĪĨáĪµáįĴáī³áĪį": 7481,
      "ĠáĭŃáĮĪáĬĻáīłáī³áĪį": 7482,
      "ĠáīłáĮĪáī£": 7483,
      "áĪĺáī¶áī½": 7484,
      "áĪħáĬĵáīµ": 7485,
      "áī¥áĪĭáīµ": 7486,
      "ĠáĭŃáĭ°áĪ°áī±": 7487,
      "ĠáĪĪáĪ½": 7488,
      "áĪ°áĬĲ": 7489,
      "áĬŃáįĪ": 7490,
      "Ġáī°áīł": 7491,
      "ĠáĬ¥áĬĵáĪµ": 7492,
      "Ġáĭ¨áĪļáĪĨáĬĲ": 7493,
      "áĪĢáĬĲ": 7494,
      "ĠáĪĪáĪĽáĬ¨áĬĵáĭĪáĬķ": 7495,
      "Ġáĭ¨áĪĺáĬĲ": 7496,
      "áī¡áĬ¥": 7497,
      "ĠáĭµáĪĢ": 7498,
      "Ġáĭ¨áĬłáĬ«": 7499,
      "ĠáĭĭáĭŃ": 7500,
      "ĠáĮĢáī¥": 7501,
      "Ġáĭ«áĪµáĮĪáĬĽáĪį": 7502,
      "ĠáĬłáĭµáĬĵáīĤ": 7503,
      "ĠáĭĪáĭ³áĭµ": 7504,
      "ĠáĪħáĭŃáĭĪáī³áī¸áĭįáĬķ": 7505,
      "ĠáīłáĪĺáī¶áĭİáī½": 7506,
      "Ġáī°áĬĲáĪ³áĪ½áĬĲáīµ": 7507,
      "Ġáĭ«áĭ°áĪ¨áĮĪáĭįáĬķ": 7508,
      "Ġáĭ¨áīĥáĪį": 7509,
      "áī°áĪĺ": 7510,
      "ĠáĪĪáĪĺáĭĪáĪ°áĬķ": 7511,
      "áĪ½áī³": 7512,
      "áĪĮáĭŃ": 7513,
      "ĠáīłáĬ¥áĬĲáĭļáĭ«": 7514,
      "Ġáĭ³áī³": 7515,
      "ĠáīłáĪĮáĪĬáīµ": 7516,
      "ĠáĬ¨áĪĽáĭµáĪ¨áĮį": 7517,
      "Ġáĭ¨áĬ«áĪŃ": 7518,
      "ĠáĪĿáĪŃáĮ«áĭİáī½": 7519,
      "ĠáīłáĮĪáĬķáĭĺáī¥": 7520,
      "Ġáī¥áĪįáĮįáĬĵ": 7521,
      "ĠáĪĺáĮĪáĪĺáīµ": 7522,
      "Ġáĭ¨áĪ¬": 7523,
      "ĠáīłáĪĬ": 7524,
      "áĪĪáĬŀáī½": 7525,
      "áĭŃáĪŃ": 7526,
      "Ġáĭ«áĭ°áĪ¨áĮīáīµ": 7527,
      "ĠáĬłáĪįáĬĲáīłáĪ©": 7528,
      "áįİáī¹": 7529,
      "ĠáĬŃáįįáĪİáī½áĬķ": 7530,
      "ĠáīłáĪĿáī³": 7531,
      "ĠáįĢáĬķáī¶": 7532,
      "ĠáĬłáĪīáĬĿ": 7533,
      "áīĢáĪĺáĮłáĭį": 7534,
      "ĠáĪĺáĪĪáĭ¨áīµ": 7535,
      "ĠáīłáĪįáĭ©": 7536,
      "ĠáĬ¥áĬķáĭ°áĪĽáĪµáīłáĭį": 7537,
      "ĠáĬ¥áĬķáĭµáīµáĪĨáĬķ": 7538,
      "Ġáī°áįĪáĮ¥áĪ¯áĭĬ": 7539,
      "ĠáĪĿáĭµáĮĥ": 7540,
      "ĠáĬ¨áĪĢáĭ²": 7541,
      "áĮ¨áĬĲáīģ": 7542,
      "áĬķáĪ³áĭĬ": 7543,
      "Ġáĭ¨áĮĥ": 7544,
      "ĠáīłáĮįáĪ«": 7545,
      "áī³áĭ¨áĭį": 7546,
      "Ġáī¥áĪĭáī½áĪģ": 7547,
      "ĠáĮįáĬĿ": 7548,
      "ĠáĪĬáĬĸáĪ¨áĭį": 7549,
      "Ġáĭ¨áĬ¥áĭµáĪľ": 7550,
      "ĠáĮłáĪ«": 7551,
      "ĠáĬ¨áĪĺáĮį": 7552,
      "Ġáĭ¨áĬĲáĭ³áĮħ": 7553,
      "ĠáĪĨáĬĲáĪħ": 7554,
      "ĠáĮ¨áĭį": 7555,
      "Ġáĭ¨áĭįáĮª": 7556,
      "Ġáĭ¨áĮ¥áĬĵáīµ": 7557,
      "ĠáĬ¨áĪĮáĪĭ": 7558,
      "ĠáīłáĭĪáĬķáĭµ": 7559,
      "Ġáĭ¨áĪĻáĪī": 7560,
      "ĠáĬ¥áĬĲáĭļáĭ«áĪĿ": 7561,
      "ĠáĬłáĭ«áĭįáīģáĪĿ": 7562,
      "ĠáĭŃáįĪáĮ¥áĪ«áĪį": 7563,
      "Ġáĭ¨áĪŀáīµ": 7564,
      "ĠáīłáĪª": 7565,
      "ĠáĬłáĪ°áĮ£": 7566,
      "ĠáĬłáĭ«áĭ«áĭĿ": 7567,
      "áĪ«áĭİáī½": 7568,
      "ĠáĬ¨áĮ¨": 7569,
      "Ġáī°áĪĺáĮ£áĮ£áĬĿ": 7570,
      "Ġáĭ¨áĪļáīł": 7571,
      "áĬĽáĪĪáĪģ": 7572,
      "ĠáĪĬáī£áĪį": 7573,
      "áĪĬáĪĭ": 7574,
      "áĪ´áĪİáĪĿ": 7575,
      "ĠáĬĲáīłáĪ¨áīłáīµ": 7576,
      "ĠáĭĪáĬķáĭµáĪŀáī½áĬĵ": 7577,
      "ĠáĪĺáĭĭáīħáĪŃ": 7578,
      "Ġáĭ¨áĪĽáĪħáīłáĪ¨áĪ°áī¥": 7579,
      "Ġáī°áĮ«áĭĭáī¾áī½": 7580,
      "ĠáīµáĪĨáĬĵáĪĪáī½": 7581,
      "Ġáĭ«áī°áĬ®áĪ¨": 7582,
      "Ġáĭ¨áĪ´áī¶áī½": 7583,
      "áĪĽáĪªáĭ«": 7584,
      "ĠáĭŃáĪį": 7585,
      "Ġáī°áĭĪáĪµ": 7586,
      "ĠáĪ°áĪª": 7587,
      "ĠáĬ¥áĬķáĭ°áĮĪáĪĪáįĢáĭį": 7588,
      "ĠáĪĪáĪĽáĪ¸áĬĲáįį": 7589,
      "áĬ®áĪĮáīµ": 7590,
      "ĠáĪĽáĬķáĬĲáīµ": 7591,
      "áĪıáī¸áĭĭáĪį": 7592,
      "áī£áĪįáĬķáĮĢ": 7593,
      "Ġáĭ¨áĮįáĬķáī£áī³": 7594,
      "ĠáĪ©áĪ²áĭ«": 7595,
      "áįĶáĬķ": 7596,
      "ĠáĬ®áĪļáĪ½áĬķ": 7597,
      "ĠáįĬáĪįáĮµ": 7598,
      "áĪŃáĮĤ": 7599,
      "áĭ°áĪħ": 7600,
      "Ġáī°áĭ«áĭŃ": 7601,
      "áīĥáī¥áĪŃ": 7602,
      "ĠáĪĪáĪĽáĭ³áīłáĪŃ": 7603,
      "ĠáĪĨáī´": 7604,
      "Ġáĭ¨áĬ¥áĪ¨áįįáīµ": 7605,
      "áĮįáĪ«áįĬ": 7606,
      "áĪĺáĬĵáī½áĬķ": 7607,
      "ĠáĪ«áĪ³áī¸áĭį": 7608,
      "ĠáĭŃáĪĦáĭ³áĪī": 7609,
      "Ġáĭ¨áĪ°áĮłáĭįáĬķ": 7610,
      "ĠáĪĪáĪĺáĪĪáĭ¨áīµ": 7611,
      "ĠáĭŃáĪ°áĮłáĬĵáĪį": 7612,
      "ĠáīłáĪĺáī£áĪį": 7613,
      "ĠáįĪáĬķáĭµ": 7614,
      "ĠáĭŃáĪħáĬķáĬĳ": 7615,
      "ĠáĪįáĮĨáī¹áĬķ": 7616,
      "áĮĪáĬĻáĪĿ": 7617,
      "ĠáĮįáī¥áįĥ": 7618,
      "Ġáĭ¨áĪļáĮĪáĬĻáīµáĬķ": 7619,
      "Ġáįİáī¶áĭİáī½": 7620,
      "ĠáĪĺáĮĭáī¢áīµ": 7621,
      "ĠáĬłáįķáĪĬ": 7622,
      "ĠáĬłáĪĿáī£áĪ³": 7623,
      "ĠáīħáĪ¬áī³": 7624,
      "ĠáīłáīĥáĪį": 7625,
      "ĠáĬłáĬ¥áĪĿáĪ¯": 7626,
      "ĠáĪĺáĬ«": 7627,
      "ĠáĬ¨áĪ©": 7628,
      "ĠáĬ¨áĭ©": 7629,
      "ĠáĪĪáīħ": 7630,
      "áī£áĪĽ": 7631,
      "Ġáī°áĬ¨áĪĭ": 7632,
      "áĬ¥áī¢áĭ«": 7633,
      "áĬ«áĪļáĭİáī½": 7634,
      "ĠáĭįáĮ¥áĪ¨áīµ": 7635,
      "Ġáĭ°áĪŀ": 7636,
      "ĠáĪĪáĪĺáĪį": 7637,
      "ĠáĪ²áĪ°áĪĽ": 7638,
      "ĠáĪģáĪīáĬĵ": 7639,
      "ĠáīħáĬĵ": 7640,
      "ĠáĬ¢áĬķáī°áĪŃ": 7641,
      "ĠáĪĪáĬłáĪĺáī³áīµ": 7642,
      "ĠáįĢáĪį": 7643,
      "ĠáĬ¨áĪĮáĪĪ": 7644,
      "ĠáĪĺáĪ°áĪ¨áī°": 7645,
      "Ġáĭ¨áīĨáĪ»áĪ»": 7646,
      "áĬłáĪįáĬĵ": 7647,
      "ĠáīłáĪĺáĬ«áĬ¨áĪĭáī½áĪģ": 7648,
      "ĠáīłáĭįáĪµáĮ§": 7649,
      "ĠáĬłáĬķáĭ°áĬĽ": 7650,
      "ĠáĬłáĪµáĬ¨áįĬ": 7651,
      "áĮŃáīłáĪŃáīłáĪŃ": 7652,
      "ĠáĪĺáĮłáĭŃáīħ": 7653,
      "ĠáĬ¥áĪĨáĬĵáĪĪáĪģ": 7654,
      "áīµáĪµ": 7655,
      "áĮĪáĮ¥": 7656,
      "ĠáĪĺáĬ¨áĪĭáĬ¨áĪį": 7657,
      "áĬłáĪµ": 7658,
      "Ġáī°áĪĺáĪĪáĪµ": 7659,
      "Ġáĭ¨áĪļáīĥáĮł": 7660,
      "Ġáī¥áĪµ": 7661,
      "ĠáĬ¥áĭ¨áĪĨáĬĲ": 7662,
      "áĬĲáĪ³áĪ³": 7663,
      "ĠáĬ®áĬķáĮį": 7664,
      "ĠáīĨáĪĺáĭį": 7665,
      "Ġáĭ¨áĪĿáīµáī½áĪĪáĭį": 7666,
      "ĠáĬĲáīłáĪ¨áĬĿ": 7667,
      "áĬ¨áī¥áĪ©": 7668,
      "ĠáĬłáĮĪáĪĭáĪĪ": 7669,
      "ĠáĭĺáĮĪáī£áĭİáī½": 7670,
      "ĠáĪĽáĮ¥áĬĵáīµ": 7671,
      "ĠáĮīáĪįáĪħ": 7672,
      "ĠáĬłáĮĪáĬĺáĪģ": 7673,
      "ĠáĪĽáĬ¥áĬ¨áĪĭáĭĬ": 7674,
      "áĬĹáĬĹáĪŃ": 7675,
      "áīµáĪ¨": 7676,
      "ĠáīłáīģáĪĿ": 7677,
      "áĬĵáī½áĪģ": 7678,
      "ĠáĬ¨áī¥áĪŃ": 7679,
      "ĠáĬ¨áĭŃáĪģáĭ³": 7680,
      "ĠáĭĪáī°áīµ": 7681,
      "Ġáī°áĬ¨áī°áĪį": 7682,
      "Ġáĭ¨áĪļáĪĺáĪµáĪį": 7683,
      "Ġáĭ¨áī°áīĢáĪ¨": 7684,
      "áĪİáī¹áĬķ": 7685,
      "ĠáīµáĪ°áĪ«": 7686,
      "áĪĬáįĴ": 7687,
      "ĠáīłáĪļáĪĬáĭ®áĬķ": 7688,
      "ĠáĬ¨áĬ¥áĪ·": 7689,
      "ĠáĪĪáĬ¥áĪŃáĪ±": 7690,
      "ĠáīłáīĢáĬĿ": 7691,
      "áĬ¨áĬĵáĭįáĬķ": 7692,
      "áī¥áĪ«áĭŃ": 7693,
      "ĠáĭµáĬķáĮĭáĭ®áī½": 7694,
      "ĠáĬłáĭįáĪ®áįķáĪĭáĬķ": 7695,
      "ĠáĬ£": 7696,
      "Ġáĭ¨áĬĭáĪĭ": 7697,
      "ĠáĬ¥áĪµáĪ«áĬ¤": 7698,
      "ĠáĬłáĪ®áĬķ": 7699,
      "áĪĭáīģ": 7700,
      "ĠáĪµáĪĻáĬķ": 7701,
      "áĪŀáĪī": 7702,
      "ĠáĮĭáī¥áī»": 7703,
      "ĠáĪ³áĪī": 7704,
      "ĠáīłáĪĽáĭµáĪ¨": 7705,
      "áĭ¶áĬķ": 7706,
      "áĪĺáĪĪáĬŃáīµ": 7707,
      "ĠáīģáĪ«áĮŃ": 7708,
      "ĠáĪĮáĪĭáĭįáĬķ": 7709,
      "ĠáīłáīµáĬ©áĪ¨áīµ": 7710,
      "Ġáĭ¨áī°áī£áĪĪáĭįáĬķ": 7711,
      "ĠáīµáĬ¥áĭĽáĭĽáīµ": 7712,
      "ĠáĭĪáĮ¥áī°áĭį": 7713,
      "Ġáĭ¨áĬ®áĪļ": 7714,
      "ĠáīłáįĬáī´": 7715,
      "ĠáĪĺáĭ°áĪĿáĭ°áĪļáĭ«": 7716,
      "Ġáĭ¨áĪīáĪĿ": 7717,
      "áĭ«áī½áĪģ": 7718,
      "áĪ¨áĪŃ": 7719,
      "áĪĨáĬĶ": 7720,
      "Ġáī°áī°": 7721,
      "Ġáĭ°áĪĺáĭĪáĭĿ": 7722,
      "ĠáīłáĪĺáĬ¨áī°áĪį": 7723,
      "áĪĪáĭįáĮ¥": 7724,
      "ĠáĪ²áĭ«áĪµ": 7725,
      "áī¢áĭ«áĬķ": 7726,
      "áĭ°áĪŃáĮįáĪį": 7727,
      "ĠáĭĺáĪĭáĪĪáĪĽáĭĬ": 7728,
      "ĠáĬ¥áĬķáĭ°áĪļáī»áĪĪáĭį": 7729,
      "ĠáĬłáĬķáīłáĪ³": 7730,
      "áĬĲáĪ³áĪ³áīµ": 7731,
      "Ġáĭ¨áĭĪáĭŃ": 7732,
      "áĭĪáĭ³áī¸áĭį": 7733,
      "áīĢáĮ¥áĪī": 7734,
      "ĠáĮĪáįħáī³áĭİáī½": 7735,
      "Ġáī°áĬĲáĪµ": 7736,
      "Ġáĭ¨áįĸáĪĬáĪµ": 7737,
      "ĠáĪĽáĪħáīłáĪ¨áĪ°áī¦áī½": 7738,
      "ĠáĭĪáĬķáĭµáĪŀáī¹": 7739,
      "ĠáĭŃáĮłáĭŃáīģ": 7740,
      "ĠáĬłáĭĽáĭ¥": 7741,
      "ĠáĬ¥áĬķáĭ°áĪĿáĬķáī½áĪį": 7742,
      "Ġáĭ¨áīªáĭ²áĭ®": 7743,
      "ĠáĭŃáĭ°áĮį": 7744,
      "áīĢáĬĿáĬĲáīµ": 7745,
      "áīĢáĭ°áĭį": 7746,
      "ĠáĪĽáĪµáī³áĭĪáĪµ": 7747,
      "ĠáĪĽáĬ¨áĪĽáī»": 7748,
      "áĪ®áĭµ": 7749,
      "ĠáĮ¥áī¥áīħ": 7750,
      "ĠáīłáĪĺáĮĭ": 7751,
      "ĠáĬłáĭŃáī»áĪĪáĪģ": 7752,
      "áīĨáĮ¥": 7753,
      "ĠáĬ«áĪħáĬķ": 7754,
      "ĠáĬ¥áĬķáĭ³áĪµ": 7755,
      "ĠáīłáĪĿáĪµáĪ«áīħ": 7756,
      "ĠáĪĿáĪŃáĬ®": 7757,
      "ĠáĭµáĪŃáĮħáī±": 7758,
      "ĠáĬłáĭ³áĪ«": 7759,
      "ĠáĪĺáĬķáĮĪáĭ±áĬķ": 7760,
      "ĠáĪĺáīħáĪ°": 7761,
      "ĠáĮ¥áīħáĪ¶áī½": 7762,
      "ĠáĬ¥áĬķáĭµáĬķáĪĨáĬķ": 7763,
      "ĠáĪµáĬ¥áĪİáī½": 7764,
      "Ġáĭ¨áĪĿáĪŃáĪĿáĪŃ": 7765,
      "ĠáīĤáĮ£": 7766,
      "Ġáī°áĭĭáĮĬáĭİáī½": 7767,
      "ĠáįĨáī³": 7768,
      "ĠáĪ³áĬ¦áĪįáĪĿ": 7769,
      "ĠáĬłáĪĺáĪµáĮĭáĬĿ": 7770,
      "áĬ¹": 7771,
      "áĪµáīµáĬķ": 7772,
      "ĠáĬłáĮĪáĬĽ": 7773,
      "áī°áįį": 7774,
      "áī°áĪ½": 7775,
      "áĬĲáī£": 7776,
      "áĮłáī¡": 7777,
      "Ġáī¥áĮģ": 7778,
      "ĠáĬ¥áĬķáĭ²áĪ°áĮ¥": 7779,
      "Ġáĭ°áįĭáĪŃ": 7780,
      "ĠáīĢáĭ³": 7781,
      "áĪ»áĬķ": 7782,
      "ĠáĬĵáĪĻáĬĵ": 7783,
      "Ġáī¦áĪŃáĭ±": 7784,
      "ĠáĬ®áĪ¨áī¥": 7785,
      "ĠáĪĺáįħáĪĢáįįáīµ": 7786,
      "áĬ¨áĬĵáĭĪáĬĳ": 7787,
      "Ġáĭ´áīª": 7788,
      "ĠáĬłáĪµáī°áĭĭáĭŃ": 7789,
      "áĮĪáĬĲáĭĺáī¡": 7790,
      "ĠáĪ°áĬĲáĭ¶áī½": 7791,
      "ĠáĬ¨áĮłáĭĭáī±": 7792,
      "áĮĪáĪĪáĮĪáĪī": 7793,
      "Ġáĭ¨áĪĽáĪĿáĪĪáĬªáĭ«": 7794,
      "áī°áĭĪ": 7795,
      "áī¥áĬĽáĪį": 7796,
      "ĠáĭŃáĭĭ": 7797,
      "Ġáĭ«áĬĲ": 7798,
      "ĠáĪĽáīĨáĪĿ": 7799,
      "Ġáĭ¨áī°áĭ°áĪ¨áĮĪáĭį": 7800,
      "ĠáĬ¥áĬķáĭ²áĪ°áĮ¡": 7801,
      "ĠáīłáĪĺáĮĪáĬĵáĬĽ": 7802,
      "ĠáĪĪáĪĽáĪŁáĪĭáīµ": 7803,
      "ĠáĬ¢áĪ«áīħ": 7804,
      "áĪ°áĪ«áĪĿ": 7805,
      "ĠáĭĭáĬĲáĬĽ": 7806,
      "Ġáĭ¨áĭĪáĬķáĮĢáĪį": 7807,
      "Ġáĭ¨áĪļáĭ«áĪµáįĪáĪį": 7808,
      "ĠáīłáĪµáĪŃ": 7809,
      "Ġáĭ¨áĭįáĪĤáī¥": 7810,
      "áĬĲáĮĭáĮį": 7811,
      "áī¾áī½áĬķ": 7812,
      "ĠáĪħáĭŃáĭĪáī´áĬķ": 7813,
      "Ġáī»áĭŃáĬĵ": 7814,
      "Ġáĭ¨áįħáĭµáīħ": 7815,
      "Ġáĭ¨áĬ©áī£áĬķáĭ«": 7816,
      "ĠáĭŃáīĢáĮ¥áĪī": 7817,
      "áĬķáĬ¨áī£áĬ¨": 7818,
      "Ġáī°áĪĺáĪ«áĪĽáĪªáĭİáī½": 7819,
      "áĪĭáĮŃ": 7820,
      "ĠáĬ¨áĭµ": 7821,
      "ĠáĬĲáĪĢáĪ´": 7822,
      "áĪ°áĪ³": 7823,
      "ĠáĪĽáĪ¸áĬĲáįį": 7824,
      "áĭĭáĭįáĭ«áĬķ": 7825,
      "Ġáĭ¨áī°áīł": 7826,
      "ĠáĮįáĮ¥": 7827,
      "Ġáī£áĪı": 7828,
      "ĠáīłáĬłáĭįáĪ®áįĵ": 7829,
      "ĠáĪĪáĪĽáĭįáĮ£áīµ": 7830,
      "áĪĨáĬķáīłáīµ": 7831,
      "áįĢáī£áĪŃ": 7832,
      "ĠáĬ¥áĭ¨áĪ°áĪ©": 7833,
      "Ġáĭ¨áĪļáĭ«áĪµáįĪáĪįáĮĪáĭįáĬķ": 7834,
      "áĬķáīĢáįħ": 7835,
      "Ġáĭ¨áĪĺáĮĢáĪĺáĪªáĭ«áĭİáī¹": 7836,
      "ĠáĭŃáĪĺáĪµáĪį": 7837,
      "ĠáĪħáĮįáĬķ": 7838,
      "ĠáĬ¥áĬķáĮįáĭ¶áī½": 7839,
      "ĠáĪŃáĬ¥áĪ¶áī½": 7840,
      "Ġáī¡áĭµáĬĳ": 7841,
      "ĠáĬłáĮĭáĮ£áĪļáĭİáī½": 7842,
      "ĠáĪĿáĮįáī¦áī½áĬķ": 7843,
      "Ġáĭ¨áįĮáĭ´áĪ«áĪį": 7844,
      "ĠáĪĽáī¥áĪ«áĪªáĭ«": 7845,
      "ĠáīłáĪ±": 7846,
      "ĠáĪĺáĮłáīĢ": 7847,
      "áĭ°áĭįáĬķ": 7848,
      "ĠáĬ¨áīħ": 7849,
      "áĬŃáĪ½áĬķ": 7850,
      "Ġáĭ«áĪĭáīµ": 7851,
      "ĠáĪĽáĪĪáįį": 7852,
      "ĠáĬ¥áĪŃáĮ¥": 7853,
      "ĠáĮİáĮĤ": 7854,
      "ĠáĬ¦áįĬ": 7855,
      "ĠáĬłáĪµáįĪáĪĭáĮĬáĭįáĬķ": 7856,
      "ĠáĬªáĪ³áĪ«": 7857,
      "ĠáĬĲáīłáĪ¨áī¥áĬĿ": 7858,
      "áĪµáī³áĭĪáīµ": 7859,
      "ĠáĪĪáĭļáĪħáĪĿ": 7860,
      "ĠáįĪáī°áĬĵáĭİáī½": 7861,
      "Ġáĭ¨áĪļáĪ°áĮłáĭįáĬķ": 7862,
      "ĠáĪĺáīĨáĮ£áĮłáĪªáĭ«": 7863,
      "áĪŃáĪ·": 7864,
      "ĠáĬ¥áĭįáĬķ": 7865,
      "áīłáĪ«áīµ": 7866,
      "ĠáĭŃáĪī": 7867,
      "ĠáĭĪáĪ¨áĭ³": 7868,
      "áĭĪáĪĪáĭµ": 7869,
      "áĭĺáĭĺ": 7870,
      "ĠáĬłáĪµáī½": 7871,
      "ĠáĬ¥áĬķáĪĺáĪĪáĬ¨áī³": 7872,
      "Ġáĭ¨áĬłáĬ«áī£áī¢áĭį": 7873,
      "ĠáĬ¥áĬķáĭ°áĪļáĮĪáī£": 7874,
      "Ġáī¢áĪĨáĬĳáĪĿ": 7875,
      "áĮłáīĢáĪ°áĭį": 7876,
      "ĠáĪŃáĪħáĪ«áĪĦ": 7877,
      "ĠáĬ¥áĭµáĪī": 7878,
      "Ġáī°áĬĵáĮĭáĪª": 7879,
      "ĠáīµáĬ¥áĭŃáĬķáīµ": 7880,
      "áīĢáĭµáĪŀ": 7881,
      "ĠáĮ£áī¢áĭ«áĭİáī½": 7882,
      "Ġáĭ¨áī°áĪĺáĪ°áĪ¨áī±": 7883,
      "ĠáĭŃáĪµáĮ¡": 7884,
      "ĠáĪįáĮĥáĮĪáĪ¨": 7885,
      "Ġáĭ«áĪĪáĪĿáĬķáĪĿ": 7886,
      "áĪĿáĪ¨áĭĭáĪį": 7887,
      "Ġáĭ¨áĮĨ": 7888,
      "Ġáĭ¨áĪģáĪīáĪĿ": 7889,
      "áĪįáĪµáĮ¥": 7890,
      "áĪµáĪĬ": 7891,
      "áī°áĪ©": 7892,
      "áĪĽáĪĽáīµ": 7893,
      "ĠáĪĪáĭ¨áīµ": 7894,
      "Ġáĭ«áĭĿ": 7895,
      "Ġáĭ«áĪĿáĬĵ": 7896,
      "Ġáī°áĪĽáĪŃ": 7897,
[...]
