{
  "version": "1.0",
  "truncation": null,
  "padding": null,
  "added_tokens": [
    {
      "id": 0,
      "content": "[UNK]",
      "single_word": false,
      "lstrip": false,
      "rstrip": false,
      "normalized": false,
      "special": true
    },
    {
      "id": 1,
      "content": "[SOS]",
      "single_word": false,
      "lstrip": false,
      "rstrip": false,
      "normalized": false,
      "special": true
    },
    {
      "id": 2,
      "content": "[EOS]",
      "single_word": false,
      "lstrip": false,
      "rstrip": false,
      "normalized": false,
      "special": true
    },
    {
      "id": 3,
      "content": "[PAD]",
      "single_word": false,
      "lstrip": false,
      "rstrip": false,
      "normalized": false,
      "special": true
    }
  ],
  "normalizer": null,
  "pre_tokenizer": {
    "type": "ByteLevel",
    "add_prefix_space": true,
    "trim_offsets": true,
    "use_regex": true
  },
  "post_processor": {
    "type": "ByteLevel",
    "add_prefix_space": true,
    "trim_offsets": true,
    "use_regex": true
  },
  "decoder": {
    "type": "ByteLevel",
    "add_prefix_space": true,
    "trim_offsets": true,
    "use_regex": true
  },
  "model": {
    "type": "BPE",
    "dropout": null,
    "unk_token": "[UNK]",
    "continuing_subword_prefix": null,
    "end_of_word_suffix": null,
    "fuse_unk": false,
    "byte_fallback": false,
    "vocab": {
      "[UNK]": 0,
      "[SOS]": 1,
      "[EOS]": 2,
      "[PAD]": 3,
      "A": 4,
      "B": 5,
      "C": 6,
      "D": 7,
      "E": 8,
      "F": 9,
      "G": 10,
      "H": 11,
      "I": 12,
      "J": 13,
      "K": 14,
      "L": 15,
      "M": 16,
      "N": 17,
      "O": 18,
      "P": 19,
      "Q": 20,
      "R": 21,
      "S": 22,
      "T": 23,
      "U": 24,
      "V": 25,
      "W": 26,
      "X": 27,
      "Y": 28,
      "Z": 29,
      "a": 30,
      "b": 31,
      "c": 32,
      "d": 33,
      "e": 34,
      "f": 35,
      "g": 36,
      "h": 37,
      "i": 38,
      "j": 39,
      "k": 40,
      "l": 41,
      "m": 42,
      "n": 43,
      "o": 44,
      "p": 45,
      "q": 46,
      "r": 47,
      "s": 48,
      "t": 49,
      "u": 50,
      "v": 51,
      "w": 52,
      "x": 53,
      "y": 54,
      "z": 55,
      "Â": 56,
      "Ġ": 57,
      "ł": 58,
      "Ġt": 59,
      "Ġa": 60,
      "he": 61,
      "in": 62,
      "Ġthe": 63,
      "Ġs": 64,
      "Ġw": 65,
      "Ġo": 66,
      "re": 67,
      "nd": 68,
      "er": 69,
      "Ġb": 70,
      "Ġc": 71,
      "at": 72,
      "ou": 73,
      "Ġf": 74,
      "Ġi": 75,
      "on": 76,
      "Ġm": 77,
      "Ġp": 78,
      "es": 79,
      "Ġh": 80,
      "or": 81,
      "Ġto": 82,
      "Ġand": 83,
      "en": 84,
      "ing": 85,
      "Ġof": 86,
      "ed": 87,
      "Ġd": 88,
      "it": 89,
      "Ġth": 90,
      "Ġin": 91,
      "an": 92,
      "ll": 93,
      "is": 94,
      "Ġl": 95,
      "ar": 96,
      "Ġy": 97,
      "Ġn": 98,
      "om": 99,
      "Ġg": 100,
      "as": 101,
      "Ġe": 102,
      "Ġyou": 103,
      "ion": 104,
      "al": 105,
      "Ġbe": 106,
      "Ġre": 107,
      "ic": 108,
      "le": 109,
      "ve": 110,
      "us": 111,
      "Ġhe": 112,
      "ent": 113,
      "ot": 114,
      "Ġis": 115,
      "Ġfor": 116,
      "ut": 117,
      "ay": 118,
      "ow": 119,
      "Ġthat": 120,
      "Ġon": 121,
      "Ġwh": 122,
      "id": 123,
      "Ġj": 124,
      "Ġwe": 125,
      "Ġha": 126,
      "ac": 127,
      "ro": 128,
      "Ġit": 129,
      "et": 130,
      "ur": 131,
      "ld": 132,
      "se": 133,
      "ith": 134,
      "im": 135,
      "ly": 136,
      "ill": 137,
      "ver": 138,
      "am": 139,
      "Ġst": 140,
      "st": 141,
      "Ġwith": 142,
      "ir": 143,
      "Ġu": 144,
      "ig": 145,
      "Ġas": 146,
      "ct": 147,
      "ation": 148,
      "Ġan": 149,
      "od": 150,
      "ad": 151,
      "her": 152,
      "ce": 153,
      "ke": 154,
      "Ġwill": 155,
      "Ġnot": 156,
      "Ġfr": 157,
      "all": 158,
      "Ġr": 159,
      "Ġare": 160,
      "il": 161,
      "Ġse": 162,
      "Ġde": 163,
      "Ġyour": 164,
      "Ġsh": 165,
      "Ġcom": 166,
      "ter": 167,
      "ess": 168,
      "Ġor": 169,
      "Ġhis": 170,
      "Ġcon": 171,
      "Ġthis": 172,
      "Ġwas": 173,
      "Ġthey": 174,
      "Ġk": 175,
      "ah": 176,
      "Ġpro": 177,
      "Ġhave": 178,
      "ho": 179,
      "Ġme": 180,
      "op": 181,
      "th": 182,
      "ul": 183,
      "ers": 184,
      "ain": 185,
      "ore": 186,
      "Ġne": 187,
      "Ġfrom": 188,
      "Ġall": 189,
      "ht": 190,
      "ri": 191,
      "est": 192,
      "Ġso": 193,
      "Ġat": 194,
      "ge": 195,
      "Ġdo": 196,
      "Ġli": 197,
      "Ġch": 198,
      "ch": 199,
      "Ġex": 200,
      "Ġsu": 201,
      "ment": 202,
      "nt": 203,
      "pp": 204,
      "Ġwor": 205,
      "Ġwhe": 206,
      "ra": 207,
      "ould": 208,
      "ble": 209,
      "Ġbut": 210,
      "Ġus": 211,
      "ate": 212,
      "ist": 213,
      "Ġje": 214,
      "Ġwho": 215,
      "Ġgo": 216,
      "Ġsa": 217,
      "Ġby": 218,
      "Ġal": 219,
      "Ġlo": 220,
      "ant": 221,
      "Ġmy": 222,
      "Ġv": 223,
      "Ġthem": 224,
      "Ġsp": 225,
      "el": 226,
      "ight": 227,
      "res": 228,
      "and": 229,
      "ity": 230,
      "ol": 231,
      "ust": 232,
      "Ġab": 233,
      "Ġcan": 234,
      "Ġtheir": 235,
      "Ġjeho": 236,
      "fe": 237,
      "ive": 238,
      "vah": 239,
      "Ġjehovah": 240,
      "Ġhim": 241,
      "ie": 242,
      "ome": 243,
      "qu": 244,
      "red": 245,
      "art": 246,
      "Ġone": 247,
      "Ġwhat": 248,
      "Ġle": 249,
      "ies": 250,
      "Ġgod": 251,
      "os": 252,
      "out": 253,
      "Ġman": 254,
      "Ġup": 255,
      "Ġtr": 256,
      "Ġour": 257,
      "ort": 258,
      "iv": 259,
      "Ġpe": 260,
      "ard": 261,
      "Ġout": 262,
      "Ġhas": 263,
      "ud": 264,
      "Ġwhen": 265,
      "Ġma": 266,
      "Ġthere": 267,
      "oug": 268,
      "Ġif": 269,
      "ok": 270,
      "em": 271,
      "um": 272,
      "pt": 273,
      "ci": 274,
      "ame": 275,
      "Ġar": 276,
      "Ġpr": 277,
      "ong": 278,
      "Ġpl": 279,
      "Ġam": 280,
      "ear": 281,
      "Ġco": 282,
      "un": 283,
      "ord": 284,
      "if": 285,
      "ther": 286,
      "Ġad": 287,
      "Ġwere": 288,
      "one": 289,
      "ose": 290,
      "Ġpeop": 291,
      "Ġtim": 292,
      "ous": 293,
      "Ġint": 294,
      "ast": 295,
      "ice": 296,
      "Ġsaid": 297,
      "ven": 298,
      "Ġbec": 299,
      "Ġen": 300,
      "Ġta": 301,
      "Ġpeople": 302,
      "our": 303,
      "Ġhow": 304,
      "Ġbr": 305,
      "ect": 306,
      "ind": 307,
      "ally": 308,
      "Ġac": 309,
      "Ġhad": 310,
      "Ġag": 311,
      "ings": 312,
      "very": 313,
      "ich": 314,
      "ans": 315,
      "pl": 316,
      "Ġdis": 317,
      "Ġabout": 318,
      "ine": 319,
      "Ġun": 320,
      "ure": 321,
      "reat": 322,
      "ound": 323,
      "ays": 324,
      "ab": 325,
      "Ġoff": 326,
      "ide": 327,
      "Ġno": 328,
      "Ġim": 329,
      "are": 330,
      "Ġmore": 331,
      "ions": 332,
      "ace": 333,
      "Ġaf": 334,
      "Ġkn": 335,
      "Ġser": 336,
      "Ġte": 337,
      "Ġother": 338,
      "so": 339,
      "Ġwork": 340,
      "Ġany": 341,
      "Ġcl": 342,
      "per": 343,
      "Ġres": 344,
      "Ġfe": 345,
      "Ġwhich": 346,
      "Ġshe": 347,
      "ough": 348,
      "Ġwould": 349,
      "Ġmay": 350,
      "Ġcont": 351,
      "Ġyear": 352,
      "Ġmo": 353,
      "age": 354,
      "Ġsome": 355,
      "Ġtime": 356,
      "Ġapp": 357,
      "Ġlike": 358,
      "cl": 359,
      "act": 360,
      "Ġcomp": 361,
      "aus": 362,
      "ack": 363,
      "Ġthen": 364,
      "Ġknow": 365,
      "Ġher": 366,
      "ach": 367,
      "ild": 368,
      "ue": 369,
      "ance": 370,
      "ag": 371,
      "Ġover": 372,
      "ations": 373,
      "Ġfo": 374,
      "iz": 375,
      "ep": 376,
      "ry": 377,
      "ip": 378,
      "king": 379,
      "Ġthan": 380,
      "Ġcomm": 381,
      "ire": 382,
      "Ġnew": 383,
      "Ġalso": 384,
      "ree": 385,
      "Ġqu": 386,
      "Ġgr": 387,
      "Ġbeen": 388,
      "ause": 389,
      "Ġper": 390,
      "able": 391,
      "sel": 392,
      "other": 393,
      "nder": 394,
      "ign": 395,
      "ount": 396,
      "Ġthose": 397,
      "Ġsc": 398,
      "Ġacc": 399,
      "Ġson": 400,
      "ated": 401,
      "ite": 402,
      "fore": 403,
      "own": 404,
      "Ġpre": 405,
      "Ġinto": 406,
      "av": 407,
      "ence": 408,
      "ren": 409,
      "ness": 410,
      "Ġdid": 411,
      "Ġjust": 412,
      "Ġbl": 413,
      "ible": 414,
      "Ġserv": 415,
      "Ġday": 416,
      "Ġthese": 417,
      "Ġbo": 418,
      "Ġspe": 419,
      "ary": 420,
      "ile": 421,
      "ber": 422,
      "Ġsay": 423,
      "ade": 424,
      "Ġmake": 425,
      "Ġhel": 426,
      "Ġafter": 427,
      "Ġking": 428,
      "Ġsee": 429,
      "ase": 430,
      "ap": 431,
      "ck": 432,
      "Ġshould": 433,
      "ress": 434,
      "Ġagain": 435,
      "Ġnow": 436,
      "Ġunt": 437,
      "Ġget": 438,
      "ved": 439,
      "Ġro": 440,
      "ather": 441,
      "Ġpart": 442,
      "ult": 443,
      "Ġhelp": 444,
      "Ġbecause": 445,
      "ath": 446,
      "ish": 447,
      "Ġshall": 448,
      "ise": 449,
      "ass": 450,
      "Ġevery": 451,
      "Ġits": 452,
      "Ġdes": 453,
      "Ġthr": 454,
      "Ġgood": 455,
      "Ġfir": 456,
      "Ġneed": 457,
      "Ġtw": 458,
      "ful": 459,
      "Ġact": 460,
      "orm": 461,
      "ak": 462,
      "uct": 463,
      "Ġreg": 464,
      "Ġjo": 465,
      "Ġpo": 466,
      "Ġind": 467,
      "ick": 468,
      "Ġke": 469,
      "Ġrep": 470,
      "ub": 471,
      "urn": 472,
      "ia": 473,
      "Ġright": 474,
      "Ġear": 475,
      "Ġjes": 476,
      "itt": 477,
      "Ġimp": 478,
      "ving": 479,
      "Ġeven": 480,
      "Ġgreat": 481,
      "Ġbefore": 482,
      "Ġmar": 483,
      "hed": 484,
      "Ġmany": 485,
      "Ġph": 486,
      "wn": 487,
      "Ġjesus": 488,
      "rael": 489,
      "Ġisrael": 490,
      "Ġla": 491,
      "ail": 492,
      "vel": 493,
      "Ġrem": 494,
      "ug": 495,
      "Ġlook": 496,
      "ial": 497,
      "Ġunder": 498,
      "Ġmade": 499,
      "ouse": 500,
      "int": 501,
      "og": 502,
      "Ġfirst": 503,
      "Ġcons": 504,
      "Ġlet": 505,
      "Ġem": 506,
      "Ġlife": 507,
      "Ġhand": 508,
      "Ġfl": 509,
      "Ġwr": 510,
      "Ġrec": 511,
      "Ġlord": 512,
      "ves": 513,
      "Ġwhere": 514,
      "ical": 515,
      "ater": 516,
      "Ġdown": 517,
      "Ġbel": 518,
      "ink": 519,
      "Ġaw": 520,
      "Ġhouse": 521,
      "Ġho": 522,
      "Ġyears": 523,
      "Ġtake": 524,
      "Ġway": 525,
      "ull": 526,
      "Ġrel": 527,
      "Ġchild": 528,
      "lic": 529,
      "Ġtwo": 530,
      "Ġthrough": 531,
      "ors": 532,
      "ning": 533,
      "ian": 534,
      "Ġthings": 535,
      "form": 536,
      "Ġpers": 537,
      "Ġcome": 538,
      "Ġcould": 539,
      "we": 540,
      "ities": 541,
      "ied": 542,
      "Ġlove": 543,
      "Ġonly": 544,
      "Ġsin": 545,
      "Ġchr": 546,
      "ition": 547,
      "hing": 548,
      "ily": 549,
      "Ġbet": 550,
      "llow": 551,
      "end": 552,
      "Ġprov": 553,
      "ang": 554,
      "ents": 555,
      "ces": 556,
      "ments": 557,
      "Ġatt": 558,
      "ple": 559,
      "ual": 560,
      "ff": 561,
      "Ġwell": 562,
      "Ġwant": 563,
      "Ġread": 564,
      "Ġword": 565,
      "Ġsec": 566,
      "self": 567,
      "ens": 568,
      "ious": 569,
      "day": 570,
      "Ġland": 571,
      "Ġchrist": 572,
      "Ġown": 573,
      "ory": 574,
      "Ġperson": 575,
      "Ġmin": 576,
      "igh": 577,
      "ought": 578,
      "Ġdoes": 579,
      "Ġagainst": 580,
      "Ġstr": 581,
      "Ġcall": 582,
      "Ġexp": 583,
      "Ġunto": 584,
      "Ġmost": 585,
      "Ġadd": 586,
      "Ġent": 587,
      "Ġworld": 588,
      "Ġbu": 589,
      "Ġob": 590,
      "fect": 591,
      "Ġev": 592,
      "Ġart": 593,
      "ph": 594,
      "Ġbible": 595,
      "Ġsuch": 596,
      "Ġpres": 597,
      "gan": 598,
      "ave": 599,
      "Ġfam": 600,
      "cess": 601,
      "vers": 602,
      "Ġmen": 603,
      "Ġback": 604,
      "les": 605,
      "Ġpri": 606,
      "Ġhere": 607,
      "ft": 608,
      "Ġput": 609,
      "Ġgive": 610,
      "Ġpos": 611,
      "oy": 612,
      "Ġgu": 613,
      "oth": 614,
      "Ġgiv": 615,
      "Ġcar": 616,
      "Ġfa": 617,
      "Ġvery": 618,
      "Ġinst": 619,
      "Ġgen": 620,
      "Ġz": 621,
      "Ġplace": 622,
      "ates": 623,
      "Ġuse": 624,
      "ks": 625,
      "Ġfather": 626,
      "cial": 627,
      "Ġmu": 628,
      "Ġend": 629,
      "Ġwhy": 630,
      "Ġdec": 631,
      "rib": 632,
      "Ġcame": 633,
      "Ġcr": 634,
      "uth": 635,
      "Ġinv": 636,
      "Ġmon": 637,
      "get": 638,
      "ever": 639,
      "Ġstud": 640,
      "Ġset": 641,
      "Ġjud": 642,
      "Ġlong": 643,
      "Ġbeing": 644,
      "Ġfollow": 645,
      "tain": 646,
      "Ġshow": 647,
      "Ġinter": 648,
      "hip": 649,
      "Ġsupp": 650,
      "ons": 651,
      "ward": 652,
      "ict": 653,
      "Ġkeep": 654,
      "Ġfind": 655,
      "ject": 656,
      "Ġsy": 657,
      "Ġwhile": 658,
      "Ġsm": 659,
      "Ġass": 660,
      "Ġmat": 661,
      "clud": 662,
      "ond": 663,
      "Ġspir": 664,
      "Ġchildren": 665,
      "Ġlaw": 666,
      "ced": 667,
      "Ġmuch": 668,
      "Ġresp": 669,
      "Ġspirit": 670,
      "ating": 671,
      "ures": 672,
      "Ġple": 673,
      "ites": 674,
      "Ġsub": 675,
      "Ġoffer": 676,
      "Ġdif": 677,
      "als": 678,
      "Ġmust": 679,
      "ices": 680,
      "Ġearth": 681,
      "Ġbus": 682,
      "Ġve": 683,
      "Ġcity": 684,
      "ters": 685,
      "Ġeach": 686,
      "Ġwar": 687,
      "Ġdon": 688,
      "orn": 689,
      "Ġheart": 690,
      "Ġins": 691,
      "iss": 692,
      "Ġprod": 693,
      "ty": 694,
      "hes": 695,
      "ants": 696,
      "ood": 697,
      "Ġfore": 698,
      "Ġcount": 699,
      "led": 700,
      "Ġfin": 701,
      "ib": 702,
      "Ġinc": 703,
      "Ġdays": 704,
      "Ġfound": 705,
      "Ġbrother": 706,
      "ange": 707,
      "Ġname": 708,
      "Ġhapp": 709,
      "read": 710,
      "iness": 711,
      "Ġexper": 712,
      "Ġwent": 713,
      "ower": 714,
      "ited": 715,
      "Ġhigh": 716,
      "rent": 717,
      "Ġhum": 718,
      "Ġaway": 719,
      "Ġgl": 720,
      "Ġinclud": 721,
      "uring": 722,
      "Ġret": 723,
      "Ġcou": 724,
      "iew": 725,
      "Ġpa": 726,
      "te": 727,
      "Ġfaith": 728,
      "Ġcle": 729,
      "pe": 730,
      "Ġmight": 731,
      "gr": 732,
      "ting": 733,
      "Ġord": 734,
      "erm": 735,
      "Ġstart": 736,
      "Ġanother": 737,
      "Ġwom": 738,
      "lect": 739,
      "Ġfeel": 740,
      "Ġpub": 741,
      "Ġamong": 742,
      "cept": 743,
      "Ġsim": 744,
      "Ġcour": 745,
      "Ġdr": 746,
      "Ġcho": 747,
      "xt": 748,
      "Ġpol": 749,
      "Ġmem": 750,
      "Ġbecome": 751,
      "Ġsays": 752,
      "Ġel": 753,
      "its": 754,
      "Ġid": 755,
      "omet": 756,
      "Ġlear": 757,
      "Ġbas": 758,
      "Ġhome": 759,
      "Ġbelie": 760,
      "Ġref": 761,
      "Ġlast": 762,
      "Ġdep": 763,
      "Ġlead": 764,
      "Ġform": 765,
      "Ġrequ": 766,
      "Ġop": 767,
      "Ġinte": 768,
      "Ġsl": 769,
      "Ġfamily": 770,
      "Ġgover": 771,
      "cy": 772,
      "Ġmed": 773,
      "Ġthink": 774,
      "Ġpur": 775,
      "ility": 776,
      "Ġinform": 777,
      "Ġupon": 778,
      "Ġexam": 779,
      "Ġaccord": 780,
      "Ġartic": 781,
      "ational": 782,
      "gy": 783,
      "Ġold": 784,
      "Ġtrans": 785,
      "Ġcontin": 786,
      "ts": 787,
      "Ġsomet": 788,
      "Ġstill": 789,
      "Ġdisc": 790,
      "Ġdav": 791,
      "Ġstand": 792,
      "Ġsons": 793,
      "Ġsur": 794,
      "Ġbest": 795,
      "Ġmeet": 796,
      "Ġbook": 797,
      "dom": 798,
      "Ġwee": 799,
      "Ġgovern": 800,
      "Ġed": 801,
      "Ġvis": 802,
      "Ġdavid": 803,
      "Ġlist": 804,
      "ians": 805,
      "ually": 806,
      "Ġdet": 807,
      "Ġgener": 808,
      "Ġcor": 809,
      "Ġfree": 810,
      "Ġhowever": 811,
      "Ġda": 812,
      "Ġheal": 813,
      "Ġche": 814,
      "Ġbring": 815,
      "Ġposs": 816,
      "Ġwithout": 817,
      "Ġmonth": 818,
      "Ġturn": 819,
      "aven": 820,
      "Ġnever": 821,
      "Ġask": 822,
      "Ġprop": 823,
      "Ġtoday": 824,
      "Ġsame": 825,
      "iend": 826,
      "Ġav": 827,
      "Ġthree": 828,
      "Ġfriend": 829,
      "az": 830,
      "Ġsaying": 831,
      "Ġothers": 832,
      "Ġnum": 833,
      "Ġbusiness": 834,
      "irect": 835,
      "rest": 836,
      "Ġpass": 837,
      "Ġchar": 838,
      "ention": 839,
      "ative": 840,
      "oses": 841,
      "ered": 842,
      "ying": 843,
      "selves": 844,
      "Ġadv": 845,
      "ason": 846,
      "ys": 847,
      "cer": 848,
      "Ġca": 849,
      "Ġappro": 850,
      "Ġrece": 851,
      "Ġcare": 852,
      "Ġap": 853,
      "Ġfull": 854,
      "Ġexperi": 855,
      "Ġtoo": 856,
      "Ġnor": 857,
      "Ġcond": 858,
      "Ġused": 859,
      "Ġorgan": 860,
      "Ġsw": 861,
      "Ġhead": 862,
      "Ġreal": 863,
      "ense": 864,
      "Ġprom": 865,
      "ng": 866,
      "Ġreally": 867,
      "Ġsince": 868,
      "ular": 869,
      "Ġcompan": 870,
      "Ġdirect": 871,
      "Ġrest": 872,
      "thing": 873,
      "Ġservice": 874,
      "Ġben": 875,
      "Ġgoing": 876,
      "amp": 877,
      "ized": 878,
      "velop": 879,
      "Ġaround": 880,
      "ss": 881,
      "ider": 882,
      "bs": 883,
      "Ġsure": 884,
      "less": 885,
      "Ġdiffe": 886,
      "oc": 887,
      "Ġopp": 888,
      "li": 889,
      "Ġdist": 890,
      "eth": 891,
      "Ġpar": 892,
      "Ġthou": 893,
      "ned": 894,
      "Ġquest": 895,
      "Ġinformation": 896,
      "Ġyoung": 897,
      "Ġiss": 898,
      "Ġdevelop": 899,
      "ef": 900,
      "Ġboth": 901,
      "stand": 902,
      "Ġtook": 903,
      "ident": 904,
      "Ġmark": 905,
      "Ġorder": 906,
      "Ġcent": 907,
      "ution": 908,
      "kes": 909,
      "Ġarticle": 910,
      "Ġduring": 911,
      "Ġpower": 912,
      "Ġloc": 913,
      "Ġcreat": 914,
      "Ġsat": 915,
      "und": 916,
      "Ġgiven": 917,
      "Ġheaven": 918,
      "ised": 919,
      "Ġsent": 920,
      "Ġstate": 921,
      "ues": 922,
      "Ġeth": 923,
      "Ġopen": 924,
      "Ġye": 925,
      "Ġcoll": 926,
      "Ġconf": 927,
      "Ġreturn": 928,
      "ween": 929,
      "Ġarm": 930,
      "ided": 931,
      "Ġtra": 932,
      "Ġbetween": 933,
      "Ġsign": 934,
      "ost": 935,
      "Ġdeath": 936,
      "ways": 937,
      "Ġcomple": 938,
      "Ġplease": 939,
      "Ġsupport": 940,
      "ines": 941,
      "Ġest": 942,
      "Ġproduct": 943,
      "Ġpublic": 944,
      "Ġimport": 945,
      "Ġhop": 946,
      "Ġuntil": 947,
      "Ġwit": 948,
      "alk": 949,
      "Ġeas": 950,
      "ob": 951,
      "oint": 952,
      "Ġey": 953,
      "Ġhealth": 954,
      "Ġmoses": 955,
      "Ġtoget": 956,
      "Ġaccording": 957,
      "Ġtogether": 958,
      "Ġsk": 959,
      "Ġcur": 960,
      "ared": 961,
      "ished": 962,
      "Ġkind": 963,
      "Ġext": 964,
      "ody": 965,
      "Ġcer": 966,
      "Ġprof": 967,
      "Ġscho": 968,
      "ps": 969,
      "Ġcommun": 970,
      "Ġgovernment": 971,
      "stem": 972,
      "uc": 973,
      "Ġsol": 974,
      "Ġjer": 975,
      "Ġwater": 976,
      "Ġpray": 977,
      "Ġnews": 978,
      "bers": 979,
      "Ġans": 980,
      "iah": 981,
      "Ġplay": 982,
      "ages": 983,
      "iting": 984,
      "Ġcalled": 985,
      "ute": 986,
      "Ġlot": 987,
      "ix": 988,
      "Ġcommand": 989,
      "ives": 990,
      "Ġfar": 991,
      "ale": 992,
      "Ġthy": 993,
      "ken": 994,
      "ten": 995,
      "ient": 996,
      "Ġalways": 997,
      "ote": 998,
      "ittle": 999,
      "Ġfew": 1000,
      "Ġsystem": 1001,
      "Ġtrue": 1002,
      "Ġpriest": 1003,
      "Ġsomething": 1004,
      "Ġmeans": 1005,
      "arch": 1006,
      "ger": 1007,
      "Ġlittle": 1008,
      "Ġtimes": 1009,
      "Ġreport": 1010,
      "ired": 1011,
      "Ġfact": 1012,
      "Ġever": 1013,
      "Ġdone": 1014,
      "ision": 1015,
      "Ġplan": 1016,
      "Ġtell": 1017,
      "Ġwitness": 1018,
      "Ġwat": 1019,
      "ize": 1020,
      "Ġbuild": 1021,
      "Ġbetter": 1022,
      "Ġdef": 1023,
      "Ġpost": 1024,
      "Ġpat": 1025,
      "ality": 1026,
      "Ġnext": 1027,
      "Ġwords": 1028,
      "ried": 1029,
      "ars": 1030,
      "Ġpay": 1031,
      "ics": 1032,
      "reg": 1033,
      "blem": 1034,
      "oney": 1035,
      "ock": 1036,
      "Ġdem": 1037,
      "Ġfood": 1038,
      "Ġbre": 1039,
      "ield": 1040,
      "arent": 1041,
      "Ġyet": 1042,
      "Ġgave": 1043,
      "ove": 1044,
      "Ġconsider": 1045,
      "Ġauth": 1046,
      "Ġdev": 1047,
      "ploy": 1048,
      "Ġinterest": 1049,
      "Ġer": 1050,
      "ruct": 1051,
      "Ġes": 1052,
      "ister": 1053,
      "br": 1054,
      "ey": 1055,
      "Ġcong": 1056,
      "fic": 1057,
      "Ġschool": 1058,
      "ples": 1059,
      "ner": 1060,
      "Ġproblem": 1061,
      "Ġeng": 1062,
      "ugh": 1063,
      "ted": 1064,
      "Ġethi": 1065,
      "Ġpoint": 1066,
      "ession": 1067,
      "eous": 1068,
      "Ġhard": 1069,
      "Ġkingdom": 1070,
      "Ġexpl": 1071,
      "Ġholy": 1072,
      "ific": 1073,
      "Ġunderstand": 1074,
      "Ġwhom": 1075,
      "Ġbrought": 1076,
      "Ġra": 1077,
      "Ġethiop": 1078,
      "Ġauthor": 1079,
      "Ġadm": 1080,
      "ains": 1081,
      "Ġdifferent": 1082,
      "osed": 1083,
      "joy": 1084,
      "Ġfire": 1085,
      "Ġoffic": 1086,
      "Ġresult": 1087,
      "Ġlive": 1088,
      "Ġmod": 1089,
      "Ġdesign": 1090,
      "Ġbecame": 1091,
      "Ġcol": 1092,
      "uss": 1093,
      "Ġll": 1094,
      "Ġpresent": 1095,
      "Ġspeak": 1096,
      "Ġnight": 1097,
      "ged": 1098,
      "Ġview": 1099,
      "Ġcountry": 1100,
      "Ġpeace": 1101,
      "ret": 1102,
      "Ġenjoy": 1103,
      "Ġmain": 1104,
      "pr": 1105,
      "Ġtem": 1106,
      "Ġtold": 1107,
      "Ġface": 1108,
      "Ġgot": 1109,
      "Ġmess": 1110,
      "Ġones": 1111,
      "Ġeat": 1112,
      "Ġthough": 1113,
      "Ġhar": 1114,
      "Ġimportant": 1115,
      "Ġhear": 1116,
      "Ġmaking": 1117,
      "Ġinde": 1118,
      "Ġexample": 1119,
      "Ġwi": 1120,
      "Ġintern": 1121,
      "ined": 1122,
      "Ġcre": 1123,
      "Ġable": 1124,
      "Ġhaving": 1125,
      "Ġemploy": 1126,
      "Ġsal": 1127,
      "Ġaccount": 1128,
      "Ġallow": 1129,
      "Ġpaul": 1130,
      "Ġmoney": 1131,
      "Ġleft": 1132,
      "Ġsaw": 1133,
      "Ġfun": 1134,
      "Ġfour": 1135,
      "Ġwithin": 1136,
      "outh": 1137,
      "Ġval": 1138,
      "Ġprot": 1139,
      "Ġbrothers": 1140,
      "Ġinf": 1141,
      "ake": 1142,
      "be": 1143,
      "ued": 1144,
      "Ġcertain": 1145,
      "Ġoffering": 1146,
      "Ġcongreg": 1147,
      "Ġnumber": 1148,
      "ime": 1149,
      "Ġmarket": 1150,
      "Ġce": 1151,
      "Ġdest": 1152,
      "Ġlar": 1153,
      "illed": 1154,
      "Ġcust": 1155,
      "ric": 1156,
      "Ġdoing": 1157,
      "Ġred": 1158,
      "Ġef": 1159,
      "Ġgrou": 1160,
      "Ġbeh": 1161,
      "Ġexperience": 1162,
      "Ġbir": 1163,
      "Ġthing": 1164,
      "Ġsuc": 1165,
      "Ġconcer": 1166,
      "Ġhour": 1167,
      "ety": 1168,
      "Ġwo": 1169,
      "Ġeffect": 1170,
      "ction": 1171,
      "Ġalong": 1172,
      "Ġnear": 1173,
      "Ġhimself": 1174,
      "Ġheard": 1175,
      "ript": 1176,
      "Ġrev": 1177,
      "Ġyes": 1178,
      "Ġimm": 1179,
      "Ġcoun": 1180,
      "Ġmount": 1181,
      "Ġgra": 1182,
      "Ġrighteous": 1183,
      "Ġcontro": 1184,
      "Ġbeg": 1185,
      "Ġbody": 1186,
      "Ġproper": 1187,
      "Ġsecond": 1188,
      "ately": 1189,
      "Ġthought": 1190,
      "Ġsac": 1191,
      "ember": 1192,
      "Ġfollowing": 1193,
      "Ġmil": 1194,
      "Ġindeed": 1195,
      "up": 1196,
      "Ġah": 1197,
      "Ġliving": 1198,
      "Ġdi": 1199,
      "Ġenter": 1200,
      "ained": 1201,
      "Ġcustom": 1202,
      "Ġjoh": 1203,
      "Ġty": 1204,
      "Ġweek": 1205,
      "Ġlearn": 1206,
      "ration": 1207,
      "Ġpract": 1208,
      "Ġreason": 1209,
      "Ġbenef": 1210,
      "Ġeyes": 1211,
      "Ġparent": 1212,
      "aining": 1213,
      "ither": 1214,
      "pect": 1215,
      "usal": 1216,
      "Ġwife": 1217,
      "Ġdri": 1218,
      "Ġless": 1219,
      "Ġseem": 1220,
      "Ġmor": 1221,
      "Ġlight": 1222,
      "ured": 1223,
      "Ġmind": 1224,
      "Ġsmall": 1225,
      "Ġleg": 1226,
      "ides": 1227,
      "Ġorganiz": 1228,
      "Ġpet": 1229,
      "Ġbegan": 1230,
      "Ġgrow": 1231,
      "Ġtre": 1232,
      "gram": 1233,
      "Ġtruth": 1234,
      "ission": 1235,
      "ash": 1236,
      "Ġcamp": 1237,
      "cc": 1238,
      "ames": 1239,
      "Ġmembers": 1240,
      "Ġhope": 1241,
      "Ġrun": 1242,
      "Ġbur": 1243,
      "Ġide": 1244,
      "Ġjohn": 1245,
      "aching": 1246,
      "olog": 1247,
      "tern": 1248,
      "Ġjerusal": 1249,
      "Ġjerusalem": 1250,
      "Ġprophe": 1251,
      "Ġavail": 1252,
      "Ġprogram": 1253,
      "Ġpartic": 1254,
      "Ġegy": 1255,
      "Ġegypt": 1256,
      "Ġonce": 1257,
      "ls": 1258,
      "Ġprep": 1259,
      "Ġhuman": 1260,
      "ards": 1261,
      "Ġthee": 1262,
      "Ġsit": 1263,
      "Ġbless": 1264,
      "Ġtest": 1265,
      "Ġtech": 1266,
      "Ġactiv": 1267,
      "the": 1268,
      "air": 1269,
      "Ġprocess": 1270,
      "Ġps": 1271,
      "Ġprocl": 1272,
      "Ġann": 1273,
      "Ġproject": 1274,
      "Ġtop": 1275,
      "Ġbig": 1276,
      "Ġworking": 1277,
      "Ġclear": 1278,
      "Ġwomen": 1279,
      "ased": 1280,
      "Ġba": 1281,
      "Ġdaugh": 1282,
      "ont": 1283,
      "Ġside": 1284,
      "Ġelect": 1285,
      "abl": 1286,
      "Ġdra": 1287,
      "eric": 1288,
      "tle": 1289,
      "Ġprev": 1290,
      "Ġspecial": 1291,
      "Ġwhether": 1292,
      "Ġlooking": 1293,
      "Ġmean": 1294,
      "Ġfac": 1295,
      "ross": 1296,
      "Ġconst": 1297,
      "Ġenc": 1298,
      "Ġcompany": 1299,
      "Ġuni": 1300,
      "Ġmid": 1301,
      "Ġmill": 1302,
      "Ġec": 1303,
      "Ġfriends": 1304,
      "Ġtherefore": 1305,
      "Ġmus": 1306,
      "Ġfav": 1307,
      "Ġpast": 1308,
      "Ġrele": 1309,
      "ists": 1310,
      "aim": 1311,
      "Ġair": 1312,
      "io": 1313,
      "Ġusing": 1314,
      "ges": 1315,
      "Ġchange": 1316,
      "Ġprin": 1317,
      "ipp": 1318,
      "Ġincluding": 1319,
      "hold": 1320,
      "Ġameric": 1321,
      "Ġeff": 1322,
      "Ġdisci": 1323,
      "Ġbad": 1324,
      "Ġlater": 1325,
      "uck": 1326,
      "Ġfear": 1327,
      "Ġwoman": 1328,
      "Ġteam": 1329,
      "Ġinvest": 1330,
      "Ġstrong": 1331,
      "ital": 1332,
      "ural": 1333,
      "Ġcongregation": 1334,
      "Ġjob": 1335,
      "Ġmother": 1336,
      "Ġhold": 1337,
      "Ġnations": 1338,
      "Ġchang": 1339,
      "Ġavailable": 1340,
      "Ġprovide": 1341,
      "Ġsing": 1342,
      "Ġwa": 1343,
      "Ġfield": 1344,
      "Ġbased": 1345,
      "Ġcourse": 1346,
      "Ġtreat": 1347,
      "ently": 1348,
      "Ġaccept": 1349,
      "Ġter": 1350,
      "Ġnothing": 1351,
      "Ġterm": 1352,
      "oice": 1353,
      "ified": 1354,
      "icked": 1355,
      "Ġthemselves": 1356,
      "ets": 1357,
      "Ġbelieve": 1358,
      "ank": 1359,
      "Ġfall": 1360,
      "Ġsend": 1361,
      "Ġmer": 1362,
      "land": 1363,
      "Ġfut": 1364,
      "ru": 1365,
      "Ġsomeone": 1366,
      "ract": 1367,
      "Ġocc": 1368,
      "wor": 1369,
      "Ġtechn": 1370,
      "Ġcomplete": 1371,
      "Ġtoward": 1372,
      "alf": 1373,
      "Ġgre": 1374,
      "Ġansw": 1375,
      "man": 1376,
      "Ġlisten": 1377,
      "lf": 1378,
      "ully": 1379,
      "ee": 1380,
      "Ġjudah": 1381,
      "Ġexpect": 1382,
      "Ġbro": 1383,
      "Ġpop": 1384,
      "Ġoften": 1385,
      "Ġstren": 1386,
      "Ġknown": 1387,
      "Ġtri": 1388,
      "Ġprotect": 1389,
      "Ġincre": 1390,
      "Ġnat": 1391,
      "Ġtaken": 1392,
      "ark": 1393,
      "Ġstreng": 1394,
      "Ġhon": 1395,
      "Ġdecl": 1396,
      "Ġstay": 1397,
      "ier": 1398,
      "aut": 1399,
      "Ġarea": 1400,
      "Ġvar": 1401,
      "Ġservices": 1402,
      "Ġdiv": 1403,
      "Ġblood": 1404,
      "Ġestabl": 1405,
      "Ġstop": 1406,
      "Ġill": 1407,
      "Ġshare": 1408,
      "Ġoffice": 1409,
      "Ġanyone": 1410,
      "Ġcase": 1411,
      "line": 1412,
      "Ġhands": 1413,
      "cus": 1414,
      "Ġserve": 1415,
      "Ġtrib": 1416,
      "ortun": 1417,
      "Ġseen": 1418,
      "Ġwin": 1419,
      "Ġperform": 1420,
      "ilt": 1421,
      "ived": 1422,
      "Ġpossible": 1423,
      "ism": 1424,
      "Ġbar": 1425,
      "ury": 1426,
      "ling": 1427,
      "Ġwhole": 1428,
      "Ġworks": 1429,
      "Ġdead": 1430,
      "Ġgold": 1431,
      "Ġcause": 1432,
      "Ġhappen": 1433,
      "istry": 1434,
      "urity": 1435,
      "Ġcoming": 1436,
      "Ġmr": 1437,
      "Ġways": 1438,
      "ief": 1439,
      "Ġsil": 1440,
      "Ġsuccess": 1441,
      "Ġlang": 1442,
      "Ġthir": 1443,
      "Ġbab": 1444,
      "Ġbeaut": 1445,
      "Ġlevel": 1446,
      "ency": 1447,
      "Ġpriv": 1448,
      "Ġcap": 1449,
      "Ġfive": 1450,
      "ison": 1451,
      "Ġcal": 1452,
      "Ġtry": 1453,
      "ledge": 1454,
      "Ġparents": 1455,
      "Ġhist": 1456,
      "Ġroom": 1457,
      "Ġfuture": 1458,
      "Ġlangu": 1459,
      "Ġclose": 1460,
      "Ġasked": 1461,
      "Ġeverything": 1462,
      "idence": 1463,
      "bo": 1464,
      "ivid": 1465,
      "Ġcost": 1466,
      "Ġstudents": 1467,
      "alt": 1468,
      "Ġcontinue": 1469,
      "Ġplac": 1470,
      "Ġsacri": 1471,
      "Ġmakes": 1472,
      "Ġsoon": 1473,
      "rem": 1474,
      "gest": 1475,
      "ows": 1476,
      "Ġfil": 1477,
      "Ġstep": 1478,
      "mm": 1479,
      "Ġmet": 1480,
      "Ġadmin": 1481,
      "Ġregion": 1482,
      "ination": 1483,
      "Ġrese": 1484,
      "Ġhappy": 1485,
      "ught": 1486,
      "Ġservants": 1487,
      "ically": 1488,
      "ify": 1489,
      "ead": 1490,
      "Ġequ": 1491,
      "Ġrelations": 1492,
      "Ġalth": 1493,
      "Ġalthough": 1494,
      "oura": 1495,
      "Ġvi": 1496,
      "ins": 1497,
      "onom": 1498,
      "omm": 1499,
      "ready": 1500,
      "Ġrespons": 1501,
      "Ġagree": 1502,
      "Ġcomes": 1503,
      "Ġalready": 1504,
      "amation": 1505,
      "Ġvisit": 1506,
      "ointed": 1507,
      "Ġwors": 1508,
      "Ġcities": 1509,
      "Ġthanks": 1510,
      "Ġindivid": 1511,
      "Ġclass": 1512,
      "Ġneeds": 1513,
      "Ġdel": 1514,
      "Ġspiritual": 1515,
      "Ġquestions": 1516,
      "Ġofficial": 1517,
      "ones": 1518,
      "oke": 1519,
      "Ġclean": 1520,
      "ched": 1521,
      "Ġcann": 1522,
      "Ġnational": 1523,
      "ew": 1524,
      "oud": 1525,
      "Ġproclamation": 1526,
      "ries": 1527,
      "itten": 1528,
      "Ġlarge": 1529,
      "aking": 1530,
      "Ġsocial": 1531,
      "Ġaddition": 1532,
      "Ġsam": 1533,
      "Ġanything": 1534,
      "Ġwind": 1535,
      "aring": 1536,
      "Ġsecurity": 1537,
      "Ġremember": 1538,
      "Ġgeneral": 1539,
      "Ġpersonal": 1540,
      "itions": 1541,
      "Ġforg": 1542,
      "aster": 1543,
      "Ġmeas": 1544,
      "mb": 1545,
      "Ġperfect": 1546,
      "Ġpress": 1547,
      "ream": 1548,
      "Ġyourself": 1549,
      "ably": 1550,
      "Ġstudy": 1551,
      "Ġrather": 1552,
      "ising": 1553,
      "Ġbat": 1554,
      "Ġwalk": 1555,
      "Ġwicked": 1556,
      "Ġgroup": 1557,
      "Ġdat": 1558,
      "Ġshort": 1559,
      "Ġcut": 1560,
      "Ġregard": 1561,
      "Ġwitnesses": 1562,
      "Ġcontrol": 1563,
      "Ġange": 1564,
      "Ġministry": 1565,
      "Ġchristian": 1566,
      "Ġsound": 1567,
      "Ġeduc": 1568,
      "Ġcat": 1569,
      "Ġmeeting": 1570,
      "cially": 1571,
      "Ġmonths": 1572,
      "Ġwatch": 1573,
      "esh": 1574,
      "Ġunc": 1575,
      "soci": 1576,
      "Ġrespect": 1577,
      "Ġeld": 1578,
      "Ġoper": 1579,
      "Ġindividual": 1580,
      "Ġeveryone": 1581,
      "Ġopt": 1582,
      "els": 1583,
      "Ġfavor": 1584,
      "lling": 1585,
      "Ġsea": 1586,
      "Ġknowledge": 1587,
      "ws": 1588,
      "Ġmaj": 1589,
      "Ġmove": 1590,
      "Ġgif": 1591,
      "Ġassoci": 1592,
      "Ġquestion": 1593,
      "side": 1594,
      "Ġevent": 1595,
      "irc": 1596,
      "Ġcannot": 1597,
      "Ġsug": 1598,
      "Ġcop": 1599,
      "Ġwebs": 1600,
      "Ġstates": 1601,
      "Ġseven": 1602,
      "fully": 1603,
      "Ġwritten": 1604,
      "Ġtravel": 1605,
      "Ġwrong": 1606,
      "Ġstarted": 1607,
      "Ġopportun": 1608,
      "utes": 1609,
      "Ġquick": 1610,
      "Ġaff": 1611,
      "Ġdepart": 1612,
      "Ġrecord": 1613,
      "Ġobs": 1614,
      "Ġwild": 1615,
      "Ġthank": 1616,
      "Ġcheck": 1617,
      "ourn": 1618,
      "ior": 1619,
      "Ġfur": 1620,
      "ended": 1621,
      "Ġdiscuss": 1622,
      "ec": 1623,
      "uce": 1624,
      "ering": 1625,
      "Ġpra": 1626,
      "Ġstri": 1627,
      "Ġlocal": 1628,
      "Ġpain": 1629,
      "Ġkept": 1630,
      "yal": 1631,
      "Ġsitu": 1632,
      "ances": 1633,
      "Ġtaking": 1634,
      "Ġhus": 1635,
      "Ġdevelopment": 1636,
      "Ġcontact": 1637,
      "Ġrul": 1638,
      "Ġlim": 1639,
      "Ġhot": 1640,
      "Ġdeal": 1641,
      "uit": 1642,
      "rence": 1643,
      "Ġgetting": 1644,
      "fort": 1645,
      "Ġphil": 1646,
      "Ġtrust": 1647,
      "edi": 1648,
      "Ġexpress": 1649,
      "ases": 1650,
      "uly": 1651,
      "Ġleave": 1652,
      "itical": 1653,
      "Ġcollect": 1654,
      "Ġphot": 1655,
      "Ġsan": 1656,
      "Ġenough": 1657,
      "Ġgiving": 1658,
      "Ġadminist": 1659,
      "isions": 1660,
      "Ġcourt": 1661,
      "Ġabove": 1662,
      "Ġgar": 1663,
      "Ġaccess": 1664,
      "Ġsuff": 1665,
      "Ġcurrent": 1666,
      "Ġwonder": 1667,
      "eral": 1668,
      "aps": 1669,
      "Ġcommitt": 1670,
      "Ġbaby": 1671,
      "Ġpresident": 1672,
      "Ġabr": 1673,
      "Ġprofession": 1674,
      "lo": 1675,
      "Ġground": 1676,
      "Ġunited": 1677,
      "ulation": 1678,
      "Ġnon": 1679,
      "Ġencoura": 1680,
      "Ġfocus": 1681,
      "Ġage": 1682,
      "Ġphar": 1683,
      "cil": 1684,
      "Ġself": 1685,
      "Ġvide": 1686,
      "Ġenem": 1687,
      "Ġeasy": 1688,
      "Ġsacrif": 1689,
      "Ġoil": 1690,
      "ns": 1691,
      "Ġauthority": 1692,
      "Ġmater": 1693,
      "Ġleast": 1694,
      "Ġthous": 1695,
      "band": 1696,
      "ging": 1697,
      "Ġthousand": 1698,
      "Ġfail": 1699,
      "Ġinvol": 1700,
      "Ġfre": 1701,
      "Ġdeterm": 1702,
      "Ġnecess": 1703,
      "Ġapplic": 1704,
      "Ġri": 1705,
      "Ġearly": 1706,
      "Ġforeign": 1707,
      "of": 1708,
      "Ġreceive": 1709,
      "Ġjoy": 1710,
      "Ġthus": 1711,
      "Ġenv": 1712,
      "Ġsci": 1713,
      "gn": 1714,
      "ises": 1715,
      "Ġbegin": 1716,
      "Ġquality": 1717,
      "Ġfed": 1718,
      "Ġfine": 1719,
      "Ġboard": 1720,
      "Ġisraelites": 1721,
      "Ġcarry": 1722,
      "Ġport": 1723,
      "Ġtal": 1724,
      "Ġespe": 1725,
      "Ġorganization": 1726,
      "Ġgame": 1727,
      "Ġespecially": 1728,
      "Ġscript": 1729,
      "ror": 1730,
      "Ġsix": 1731,
      "Ġimpro": 1732,
      "Ġsour": 1733,
      "oun": 1734,
      "inking": 1735,
      "Ġago": 1736,
      "crib": 1737,
      "uge": 1738,
      "Ġcaus": 1739,
      "atic": 1740,
      "Ġdata": 1741,
      "Ġdidn": 1742,
      "Ġpurp": 1743,
      "Ġsite": 1744,
      "Ġindust": 1745,
      "allen": 1746,
      "ule": 1747,
      "Ġbit": 1748,
      "Ġconv": 1749,
      "Ġeconom": 1750,
      "Ġeffort": 1751,
      "Ġinstead": 1752,
      "eal": 1753,
      "Ġrelig": 1754,
      "uel": 1755,
      "Ġcirc": 1756,
      "Ġcover": 1757,
      "Ġrequest": 1758,
      "Ġsever": 1759,
      "Ġspeci": 1760,
      "Ġdied": 1761,
      "Ġdrink": 1762,
      "Ġten": 1763,
      "Ġrepres": 1764,
      "Ġsaul": 1765,
      "Ġdaughter": 1766,
      "Ġsuper": 1767,
      "Ġmatter": 1768,
      "over": 1769,
      "Ġdetail": 1770,
      "Ġdecision": 1771,
      "Ġmorning": 1772,
      "Ġviol": 1773,
      "elt": 1774,
      "Ġbed": 1775,
      "Ġnet": 1776,
      "Ġpage": 1777,
      "lement": 1778,
      "vere": 1779,
      "ories": 1780,
      "Ġhusband": 1781,
      "Ġcomfort": 1782,
      "Ġcommunity": 1783,
      "Ġalt": 1784,
      "Ġchallen": 1785,
      "Ġrom": 1786,
      "ump": 1787,
      "amed": 1788,
      "iding": 1789,
      "Ġonline": 1790,
      "Ġmillion": 1791,
      "ills": 1792,
      "Ġvoice": 1793,
      "Ġmom": 1794,
      "Ġservant": 1795,
      "den": 1796,
      "Ġdie": 1797,
      "Ġconduct": 1798,
      "Ġmaterial": 1799,
      "Ġanswer": 1800,
      "Ġthird": 1801,
      "Ġchur": 1802,
      "Ġsumm": 1803,
      "uary": 1804,
      "Ġgir": 1805,
      "Ġmanage": 1806,
      "Ġfurther": 1807,
      "Ġisa": 1808,
      "Ġlanguage": 1809,
      "Ġfamil": 1810,
      "Ġens": 1811,
      "ached": 1812,
      "Ġalm": 1813,
      "Ġtalk": 1814,
      "inal": 1815,
      "Ġir": 1816,
      "Ġbreak": 1817,
      "Ġbeautif": 1818,
      "unt": 1819,
      "Ġwhose": 1820,
      "Ġsouth": 1821,
      "Ġge": 1822,
      "Ġwebsite": 1823,
      "Ġexcept": 1824,
      "Ġdue": 1825,
      "Ġur": 1826,
      "Ġlu": 1827,
      "Ġissue": 1828,
      "Ġapost": 1829,
      "Ġpot": 1830,
      "Ġanim": 1831,
      "cent": 1832,
      "Ġmult": 1833,
      "ruction": 1834,
      "Ġclaim": 1835,
      "Ġdiffic": 1836,
      "Ġhours": 1837,
      "Ġdifficult": 1838,
      "Ġlab": 1839,
      "ids": 1840,
      "Ġchristians": 1841,
      "ton": 1842,
      "aham": 1843,
      "Ġlives": 1844,
      "Ġjose": 1845,
      "ilar": 1846,
      "Ġdestro": 1847,
      "Ġwis": 1848,
      "here": 1849,
      "Ġseveral": 1850,
      "Ġwanted": 1851,
      "Ġfeat": 1852,
      "Ġwall": 1853,
      "Ġobser": 1854,
      "Ġphys": 1855,
      "Ġreceived": 1856,
      "Ġproblems": 1857,
      "Ġethiopia": 1858,
      "Ġcult": 1859,
      "Ġchief": 1860,
      "Ġbuy": 1861,
      "Ġbra": 1862,
      "Ġline": 1863,
      "Ġworth": 1864,
      "Ġprovided": 1865,
      "ats": 1866,
      "Ġdou": 1867,
      "Ġhath": 1868,
      "Ġresearch": 1869,
      "Ġsn": 1870,
      "Ġdeep": 1871,
      "ral": 1872,
      "raph": 1873,
      "ored": 1874,
      "ients": 1875,
      "Ġfight": 1876,
      "iter": 1877,
      "hers": 1878,
      "Ġsex": 1879,
      "Ġleaders": 1880,
      "nect": 1881,
      "ches": 1882,
      "Ġheavens": 1883,
      "alm": 1884,
      "Ġinternational": 1885,
      "Ġtraining": 1886,
      "Ġsle": 1887,
      "Ġremain": 1888,
      "Ġrequire": 1889,
      "Ġcapt": 1890,
      "gress": 1891,
      "Ġstory": 1892,
      "Ġfront": 1893,
      "ony": 1894,
      "Ġdwe": 1895,
      "room": 1896,
      "Ġhalf": 1897,
      "Ġcompet": 1898,
      "row": 1899,
      "ocr": 1900,
      "itive": 1901,
      "ds": 1902,
      "Ġjoseph": 1903,
      "Ġfaithful": 1904,
      "ai": 1905,
      "Ġmajor": 1906,
      "Ġabraham": 1907,
      "Ġpolic": 1908,
      "ences": 1909,
      "Ġblog": 1910,
      "Ġaut": 1911,
      "Ġdisciples": 1912,
      "Ġappear": 1913,
      "Ġmiss": 1914,
      "Ġdeli": 1915,
      "Ġtou": 1916,
      "Ġeu": 1917,
      "Ġjac": 1918,
      "Ġmention": 1919,
      "Ġcreate": 1920,
      "ology": 1921,
      "Ġbeautiful": 1922,
      "iod": 1923,
      "Ġident": 1924,
      "hel": 1925,
      "Ġrelationship": 1926,
      "Ġdan": 1927,
      "Ġneeded": 1928,
      "Ġsimilar": 1929,
      "ze": 1930,
      "Ġtent": 1931,
      "Ġnorth": 1932,
      "Ġlow": 1933,
      "aron": 1934,
      "Ġreading": 1935,
      "ergy": 1936,
      "Ġcouncil": 1937,
      "ares": 1938,
      "Ġpie": 1939,
      "Ġnation": 1940,
      "Ġrepresent": 1941,
      "Ġactually": 1942,
      "Ġmyself": 1943,
      "Ġbelow": 1944,
      "way": 1945,
      "Ġpun": 1946,
      "Ġsatan": 1947,
      "ator": 1948,
      "Ġactivities": 1949,
      "Ġhistory": 1950,
      "Ġacts": 1951,
      "acy": 1952,
      "Ġsubject": 1953,
      "fer": 1954,
      "Ġarmy": 1955,
      "oh": 1956,
      "Ġorig": 1957,
      "ots": 1958,
      "omes": 1959,
      "Ġperiod": 1960,
      "Ġsold": 1961,
      "Ġpriests": 1962,
      "Ġbirth": 1963,
      "ium": 1964,
      "Ġtown": 1965,
      "Ġlic": 1966,
      "Ġsave": 1967,
      "Ġjacob": 1968,
      "asing": 1969,
      "Ġsong": 1970,
      "Ġjourn": 1971,
      "Ġteac": 1972,
      "Ġattack": 1973,
      "Ġinclude": 1974,
      "Ġneg": 1975,
      "Ġdestroy": 1976,
      "Ġproducts": 1977,
      "Ġvers": 1978,
      "ude": 1979,
      "Ġsecret": 1980,
      "ential": 1981,
      "Ġfinan": 1982,
      "Ġsearch": 1983,
      "Ġroad": 1984,
      "Ġspend": 1985,
      "Ġfund": 1986,
      "Ġamaz": 1987,
      "Ġconnect": 1988,
      "Ġprinci": 1989,
      "Ġchurch": 1990,
      "ability": 1991,
      "Ġaffect": 1992,
      "iron": 1993,
      "Ġkings": 1994,
      "Ġabs": 1995,
      "Ġdoesn": 1996,
      "Ġturned": 1997,
      "Ġpeter": 1998,
      "Ġnecessary": 1999,
      "Ġdeb": 2000,
      "Ġloyal": 2001,
      "rect": 2002,
      "Ġant": 2003,
      "Ġworship": 2004,
      "Ġassign": 2005,
      "Ġmilit": 2006,
      "Ġplaces": 2007,
      "Ġmot": 2008,
      "Ġbread": 2009,
      "Ġexce": 2010,
      "Ġelse": 2011,
      "Ġminister": 2012,
      "work": 2013,
      "co": 2014,
      "ern": 2015,
      "ibility": 2016,
      "Ġmessage": 2017,
      "Ġbehind": 2018,
      "Ġexec": 2019,
      "Ġdam": 2020,
      "Ġforward": 2021,
      "Ġut": 2022,
      "Ġenviron": 2023,
      "por": 2024,
      "Ġtrad": 2025,
      "Ġavo": 2026,
      "Ġwrote": 2027,
      "Ġreview": 2028,
      "Ġparty": 2029,
      "Ġspr": 2030,
      "Ġappre": 2031,
      "port": 2032,
      "Ġcompl": 2033,
      "urance": 2034,
      "Ġselect": 2035,
      "rew": 2036,
      "Ġattention": 2037,
      "Ġprayer": 2038,
      "Ġheld": 2039,
      "Ġissues": 2040,
      "Ġrepl": 2041,
      "ilities": 2042,
      "Ġsun": 2043,
      "Ġcomput": 2044,
      "Ġvideo": 2045,
      "Ġcertainly": 2046,
      "Ġpict": 2047,
      "Ġdiscl": 2048,
      "Ġsword": 2049,
      "vation": 2050,
      "Ġaud": 2051,
      "Ġbuilding": 2052,
      "fered": 2053,
      "Ġentire": 2054,
      "Ġunivers": 2055,
      "cu": 2056,
      "Ġemail": 2057,
      "aves": 2058,
      "Ġhig": 2059,
      "Ġlikely": 2060,
      "ulf": 2061,
      "ires": 2062,
      "Ġvol": 2063,
      "Ġaaron": 2064,
      "imes": 2065,
      "Ġregular": 2066,
      "Ġready": 2067,
      "app": 2068,
      "Ġlonger": 2069,
      "Ġflesh": 2070,
      "Ġamerican": 2071,
      "enced": 2072,
      "que": 2073,
      "rupt": 2074,
      "ogn": 2075,
      "Ġcreated": 2076,
      "haps": 2077,
      "Ġcommon": 2078,
      "Ġsuggest": 2079,
      "Ġappreci": 2080,
      "Ġburn": 2081,
      "Ġperhaps": 2082,
      "Ġfig": 2083,
      "isf": 2084,
      "Ġwise": 2085,
      "Ġfeet": 2086,
      "Ġproperty": 2087,
      "Ġshalt": 2088,
      "Ġoutside": 2089,
      "Ġlink": 2090,
      "rod": 2091,
      "Ġregist": 2092,
      "ply": 2093,
      "Ġthroughout": 2094,
      "Ġlev": 2095,
      "Ġenvironment": 2096,
      "che": 2097,
      "Ġvalue": 2098,
      "hab": 2099,
      "str": 2100,
      "Ġstat": 2101,
      "Ġassist": 2102,
      "Ġpurpose": 2103,
      "Ġbow": 2104,
      "Ġcred": 2105,
      "Ġteach": 2106,
      "Ġpubl": 2107,
      "Ġdesp": 2108,
      "Ġconsum": 2109,
      "Ġeducation": 2110,
      "Ġinsp": 2111,
      "utions": 2112,
      "Ġtax": 2113,
      "Ġfoot": 2114,
      "Ġwide": 2115,
      "Ġcontent": 2116,
      "Ġethiopian": 2117,
      "Ġmouth": 2118,
      "Ġmedia": 2119,
      "Ġstore": 2120,
      "Ġmarri": 2121,
      "Ġpurch": 2122,
      "Ġtable": 2123,
      "Ġwriting": 2124,
      "Ġrecogn": 2125,
      "Ġharm": 2126,
      "Ġparticular": 2127,
      "Ġfamilies": 2128,
      "Ġinj": 2129,
      "Ġinher": 2130,
      "Ġseason": 2131,
      "Ġforever": 2132,
      "ode": 2133,
      "Ġmanag": 2134,
      "Ġglory": 2135,
      "Ġsimply": 2136,
      "Ġattend": 2137,
      "urs": 2138,
      "Ġfellow": 2139,
      "osh": 2140,
      "Ġbenefit": 2141,
      "Ġfelt": 2142,
      "Ġkey": 2143,
      "Ġimmedi": 2144,
      "Ġjudg": 2145,
      "Ġchoose": 2146,
      "Ġelders": 2147,
      "iously": 2148,
      "Ġfirm": 2149,
      "Ġrights": 2150,
      "Ġtrying": 2151,
      "Ġaddress": 2152,
      "Ġaltar": 2153,
      "eds": 2154,
      "Ġris": 2155,
      "Ġgift": 2156,
      "Ġreve": 2157,
      "Ġsilver": 2158,
      "by": 2159,
      "Ġwhite": 2160,
      "Ġwisdom": 2161,
      "Ġborn": 2162,
      "Ġprice": 2163,
      "ware": 2164,
      "Ġden": 2165,
      "Ġsubm": 2166,
      "Ġmilitary": 2167,
      "Ġsatisf": 2168,
      "Ġfederal": 2169,
      "Ġsou": 2170,
      "Ġdisp": 2171,
      "Ġrecomm": 2172,
      "Ġmis": 2173,
      "Ġarri": 2174,
      "Ġmaintain": 2175,
      "aff": 2176,
      "Ġmag": 2177,
      "Ġamount": 2178,
      "Ġcoven": 2179,
      "une": 2180,
      "Ġdom": 2181,
      "Ġacross": 2182,
      "Ġbelong": 2183,
      "Ġeffective": 2184,
      "Ġbuilt": 2185,
      "Ġloved": 2186,
      "Ġclot": 2187,
      "Ġblack": 2188,
      "Ġmatt": 2189,
      "Ġmanagement": 2190,
      "Ġsituation": 2191,
      "pri": 2192,
      "Ġcontrib": 2193,
      "Ġsurely": 2194,
      "Ġshop": 2195,
      "Ġknew": 2196,
      "ication": 2197,
      "Ġwhate": 2198,
      "wise": 2199,
      "bel": 2200,
      "Ġwhatever": 2201,
      "Ġexist": 2202,
      "Ġpolitical": 2203,
      "Ġsimple": 2204,
      "Ġidea": 2205,
      "Ġopportunity": 2206,
      "Ġdate": 2207,
      "itting": 2208,
      "Ġforce": 2209,
      "Ġira": 2210,
      "eng": 2211,
      "Ġgives": 2212,
      "Ġspecific": 2213,
      "Ġimplement": 2214,
      "come": 2215,
      "Ġneither": 2216,
      "Ġprophet": 2217,
      "Ġdraw": 2218,
      "Ġcontinued": 2219,
      "ech": 2220,
      "Ġmusic": 2221,
      "Ġmarriage": 2222,
      "Ġdocu": 2223,
      "atives": 2224,
      "Ġcovenant": 2225,
      "Ġweb": 2226,
      "Ġdecided": 2227,
      "Ġwrite": 2228,
      "Ġprob": 2229,
      "Ġbal": 2230,
      "Ġfle": 2231,
      "itude": 2232,
      "Ġthinking": 2233,
      "Ġpraise": 2234,
      "Ġrej": 2235,
      "Ġvict": 2236,
      "Ġpurs": 2237,
      "Ġcommanded": 2238,
      "Ġiraq": 2239,
      "Ġneigh": 2240,
      "Ġstrength": 2241,
      "Ġneighb": 2242,
      "lon": 2243,
      "head": 2244,
      "itre": 2245,
      "Ġspok": 2246,
      "Ġqual": 2247,
      "Ġswe": 2248,
      "Ġbill": 2249,
      "Ġhous": 2250,
      "Ġdark": 2251,
      "Ġcommission": 2252,
      "Ġevil": 2253,
      "Ġfruit": 2254,
      "Ġposition": 2255,
      "Ġreturned": 2256,
      "Ġindustry": 2257,
      "pes": 2258,
      "Ġarr": 2259,
      "ne": 2260,
      "Ġquite": 2261,
      "Ġsingle": 2262,
      "Ġsho": 2263,
      "ols": 2264,
      "Ġban": 2265,
      "Ġled": 2266,
      "Ġx": 2267,
      "Ġram": 2268,
      "Ġapply": 2269,
      "Ġrelated": 2270,
      "Ġhund": 2271,
      "ming": 2272,
      "Ġcompanies": 2273,
      "ining": 2274,
      "Ġalmost": 2275,
      "Ġhundred": 2276,
      "Ġparticip": 2277,
      "Ġprofessional": 2278,
      "Ġfinancial": 2279,
      "lled": 2280,
      "Ġavoid": 2281,
      "Ġund": 2282,
      "Ġinherit": 2283,
      "Ġunderstanding": 2284,
      "Ġpolice": 2285,
      "Ġeritre": 2286,
      "Ġfast": 2287,
      "Ġheb": 2288,
      "Ġenergy": 2289,
      "Ġhelped": 2290,
      "Ġmountain": 2291,
      "Ġseems": 2292,
      "cing": 2293,
      "ners": 2294,
      "Ġkill": 2295,
      "Ġcra": 2296,
      "oming": 2297,
      "ators": 2298,
      "ua": 2299,
      "Ġbooks": 2300,
      "Ġsense": 2301,
      "Ġwal": 2302,
      "Ġcast": 2303,
      "Ġhor": 2304,
      "Ġvir": 2305,
      "Ġdesire": 2306,
      "Ġeuro": 2307,
      "rict": 2308,
      "Ġeither": 2309,
      "Ġspeaking": 2310,
      "mber": 2311,
      "itor": 2312,
      "ips": 2313,
      "Ġfinally": 2314,
      "osp": 2315,
      "Ġresults": 2316,
      "Ġtype": 2317,
      "Ġaction": 2318,
      "Ġmember": 2319,
      "Ġweeks": 2320,
      "Ġapart": 2321,
      "Ġcountries": 2322,
      "Ġfulf": 2323,
      "ush": 2324,
      "Ġinstit": 2325,
      "Ġwon": 2326,
      "Ġpret": 2327,
      "uced": 2328,
      "ees": 2329,
      "Ġpoor": 2330,
      "Ġjews": 2331,
      "Ġstra": 2332,
      "Ġnote": 2333,
      "Ġdoor": 2334,
      "Ġoppos": 2335,
      "Ġnatural": 2336,
      "Ġestablish": 2337,
      "ert": 2338,
      "otion": 2339,
      "Ġlearned": 2340,
      "Ġmeth": 2341,
      "Ġmedical": 2342,
      "iel": 2343,
      "Ġdescrib": 2344,
      "Ġlay": 2345,
      "Ġclick": 2346,
      "Ġlegal": 2347,
      "ster": 2348,
      "Ġcouple": 2349,
      "Ġformer": 2350,
      "Ġpack": 2351,
      "Ġalone": 2352,
      "Ġsoft": 2353,
      "Ġinfl": 2354,
      "icated": 2355,
      "Ġspread": 2356,
      "Ġlat": 2357,
      "Ġste": 2358,
      "Ġuncle": 2359,
      "Ġsafe": 2360,
      "Ġdream": 2361,
      "par": 2362,
      "Ġsovere": 2363,
      "Ġlost": 2364,
      "Ġmoved": 2365,
      "Ġevents": 2366,
      "ina": 2367,
      "Ġeast": 2368,
      "Ġasse": 2369,
      "Ġtakes": 2370,
      "Ġtot": 2371,
      "Ġseek": 2372,
      "Ġtemple": 2373,
      "Ġrighteousness": 2374,
      "iday": 2375,
      "Ġkilled": 2376,
      "Ġappropri": 2377,
      "Ġvarious": 2378,
      "ental": 2379,
      "Ġstaff": 2380,
      "wered": 2381,
      "Ġminutes": 2382,
      "Ġadded": 2383,
      "Ġofficials": 2384,
      "Ġwine": 2385,
      "Ġmaster": 2386,
      "Ġhol": 2387,
      "iving": 2388,
      "empt": 2389,
      "Ġraised": 2390,
      "Ġobject": 2391,
      "val": 2392,
      "Ġquickly": 2393,
      "Ġsanct": 2394,
      "Ġprivate": 2395,
      "Ġforth": 2396,
      "Ġtree": 2397,
      "Ġsort": 2398,
      "Ġdepend": 2399,
      "Ġcentury": 2400,
      "Ġdut": 2401,
      "Ġareas": 2402,
      "Ġtruly": 2403,
      "Ġcook": 2404,
      "ape": 2405,
      "Ġenemies": 2406,
      "Ġsleep": 2407,
      "Ġep": 2408,
      "Ġimprove": 2409,
      "Ġnamed": 2410,
      "antly": 2411,
      "sec": 2412,
      "idered": 2413,
      "Ġsaf": 2414,
      "Ġjustice": 2415,
      "Ġremind": 2416,
      "Ġbull": 2417,
      "Ġrequired": 2418,
      "Ġcharac": 2419,
      "Ġbapt": 2420,
      "Ġpan": 2421,
      "Ġpsalm": 2422,
      "Ġach": 2423,
      "Ġinvestig": 2424,
      "Ġcam": 2425,
      "Ġstre": 2426,
      "Ġhost": 2427,
      "Ġhumans": 2428,
      "dle": 2429,
      "Ġsus": 2430,
      "Ġafric": 2431,
      "Ġver": 2432,
      "imate": 2433,
      "Ġrock": 2434,
      "Ġprior": 2435,
      "hem": 2436,
      "Ġanswered": 2437,
      "oved": 2438,
      "uff": 2439,
      "Ġhair": 2440,
      "Ġincrease": 2441,
      "Ġjosh": 2442,
      "Ġanal": 2443,
      "Ġwilling": 2444,
      "Ġjudge": 2445,
      "cript": 2446,
      "Ġbank": 2447,
      "Ġhur": 2448,
      "itate": 2449,
      "Ġensure": 2450,
      "Ġstrengthe": 2451,
      "Ġrespond": 2452,
      "Ġinit": 2453,
      "Ġlaws": 2454,
      "Ġdisclosed": 2455,
      "Ġess": 2456,
      "Ġpercent": 2457,
      "used": 2458,
      "sh": 2459,
      "Ġbabylon": 2460,
      "Ġgone": 2461,
      "Ġimag": 2462,
      "Ġestablished": 2463,
      "nday": 2464,
      "Ġinn": 2465,
      "Ġsheep": 2466,
      "Ġagreement": 2467,
      "Ġinhab": 2468,
      "Ġreward": 2469,
      "Ġresur": 2470,
      "Ġdemocr": 2471,
      "tt": 2472,
      "Ġprison": 2473,
      "Ġspace": 2474,
      "oss": 2475,
      "Ġglob": 2476,
      "iety": 2477,
      "Ġfal": 2478,
      "Ġsty": 2479,
      "Ġcomputer": 2480,
      "Ġdece": 2481,
      "Ġfully": 2482,
      "athe": 2483,
      "Ġbud": 2484,
      "Ġcross": 2485,
      "Ġexer": 2486,
      "Ġsometimes": 2487,
      "ann": 2488,
      "asons": 2489,
      "Ġsister": 2490,
      "Ġwhoever": 2491,
      "nds": 2492,
      "ference": 2493,
      "Ġevidence": 2494,
      "Ġeurope": 2495,
      "Ġshows": 2496,
      "Ġsacrifice": 2497,
      "umb": 2498,
      "Ġteaching": 2499,
      "Ġgreater": 2500,
      "Ġitem": 2501,
      "Ġlearning": 2502,
      "Ġdig": 2503,
      "isters": 2504,
      "Ġrich": 2505,
      "ival": 2506,
      "Ġgrant": 2507,
      "Ġconsidered": 2508,
      "Ġchanges": 2509,
      "load": 2510,
      "ience": 2511,
      "Ġsad": 2512,
      "Ġcele": 2513,
      "Ġpractice": 2514,
      "Ġtele": 2515,
      "ugg": 2516,
      "Ġwed": 2517,
      "Ġaccom": 2518,
      "Ġdro": 2519,
      "Ġbattle": 2520,
      "Ġregul": 2521,
      "book": 2522,
      "ik": 2523,
      "Ġpassed": 2524,
      "Ġmethod": 2525,
      "Ġwood": 2526,
      "Ġuniversity": 2527,
      "Ġcelebr": 2528,
      "Ġdaily": 2529,
      "Ġstrate": 2530,
      "cies": 2531,
      "for": 2532,
      "Ġtext": 2533,
      "Ġcolle": 2534,
      "Ġet": 2535,
      "Ġspoke": 2536,
      "Ġpolicy": 2537,
      "oor": 2538,
      "Ġcontract": 2539,
      "Ġsafety": 2540,
      "Ġtrou": 2541,
      "Ġimmediately": 2542,
      "Ġcustomers": 2543,
      "Ġdefin": 2544,
      "Ġprobably": 2545,
      "gu": 2546,
      "Ġrecently": 2547,
      "Ġcircum": 2548,
      "Ġlicense": 2549,
      "Ġassemb": 2550,
      "Ġele": 2551,
      "Ġstatement": 2552,
      "Ġpunish": 2553,
      "Ġna": 2554,
      "Ġdog": 2555,
      "Ġinside": 2556,
      "af": 2557,
      "where": 2558,
      "hood": 2559,
      "Ġregarding": 2560,
      "Ġresour": 2561,
      "Ġburnt": 2562,
      "Ġappropriate": 2563,
      "ron": 2564,
      "Ġtransl": 2565,
      "Ġruss": 2566,
      "erness": 2567,
      "Ġmal": 2568,
      "Ġreveal": 2569,
      "cend": 2570,
      "Ġourselves": 2571,
      "anger": 2572,
      "Ġpal": 2573,
      "to": 2574,
      "Ġwait": 2575,
      "Ġdispl": 2576,
      "Ġexc": 2577,
      "Ġinsurance": 2578,
      "Ġfinal": 2579,
      "Ġindividuals": 2580,
      "Ġdrive": 2581,
      "Ġsepar": 2582,
      "Ġwish": 2583,
      "Ġcub": 2584,
      "Ġanger": 2585,
      "Ġdise": 2586,
      "Ġreflect": 2587,
      "cious": 2588,
      "Ġevening": 2589,
      "Ġfalse": 2590,
      "Ġexerc": 2591,
      "Ġcomb": 2592,
      "Ġbes": 2593,
      "uted": 2594,
      "Ġjan": 2595,
      "Ġstanding": 2596,
      "Ġwilderness": 2597,
      "Ġnice": 2598,
      "Ġserving": 2599,
      "Ġdoub": 2600,
      "ij": 2601,
      "Ġseeing": 2602,
      "Ġtried": 2603,
      "Ġren": 2604,
      "Ġrole": 2605,
      "Ġaware": 2606,
      "Ġpretty": 2607,
      "father": 2608,
      "Ġdefe": 2609,
      "Ġbi": 2610,
      "Ġinstall": 2611,
      "ctor": 2612,
      "Ġresol": 2613,
      "Ġhearts": 2614,
      "Ġapproach": 2615,
      "Ġillust": 2616,
      "go": 2617,
      "ograph": 2618,
      "Ġbey": 2619,
      "ensive": 2620,
      "ott": 2621,
      "Ġconcerning": 2622,
      "Ġhonor": 2623,
      "Ġtar": 2624,
      "Ġusually": 2625,
      "Ġworkers": 2626,
      "Ġmic": 2627,
      "Ġgard": 2628,
      "Ġeph": 2629,
      "Ġadministration": 2630,
      "acle": 2631,
      "Ġadvice": 2632,
      "Ġtribe": 2633,
      "Ġhy": 2634,
      "Ġtechnology": 2635,
      "Ġinvolved": 2636,
      "Ġpreaching": 2637,
      "Ġcommer": 2638,
      "Ġcrow": 2639,
      "Ġcompletely": 2640,
      "Ġoffered": 2641,
      "Ġloving": 2642,
      "clus": 2643,
      "Ġjoshua": 2644,
      "Ġmercy": 2645,
      "Ġinheritance": 2646,
      "Ġdetails": 2647,
      "use": 2648,
      "Ġinstruct": 2649,
      "med": 2650,
      "Ġpen": 2651,
      "eness": 2652,
      "Ġknowing": 2653,
      "Ġsqu": 2654,
      "Ġgather": 2655,
      "Ġguard": 2656,
      "Ġencourage": 2657,
      "Ġprepared": 2658,
      "Ġded": 2659,
      "ding": 2660,
      "kind": 2661,
      "Ġluke": 2662,
      "aw": 2663,
      "Ġlack": 2664,
      "asting": 2665,
      "Ġwants": 2666,
      "Ġwonderful": 2667,
      "Ġunclean": 2668,
      "ery": 2669,
      "Ġreach": 2670,
      "Ġunf": 2671,
      "Ġappointed": 2672,
      "bb": 2673,
      "Ġgate": 2674,
      "Ġjudgment": 2675,
      "Ġstone": 2676,
      "Ġisn": 2677,
      "ung": 2678,
      "Ġconditions": 2679,
      "Ġskin": 2680,
      "Ġyourselves": 2681,
      "Ġpeoples": 2682,
      "Ġanointed": 2683,
      "Ġnotice": 2684,
      "Ġfeed": 2685,
      "Ġrisk": 2686,
      "Ġcloud": 2687,
      "Ġbeginning": 2688,
      "Ġsoul": 2689,
      "Ġlived": 2690,
      "Ġability": 2691,
      "Ġaccordance": 2692,
      "Ġmentioned": 2693,
      "Ġamazing": 2694,
      "Ġhigher": 2695,
      "Ġlooks": 2696,
      "Ġfell": 2697,
      "Ġspeech": 2698,
      "Ġdecisions": 2699,
      "Ġcenter": 2700,
      "Ġweak": 2701,
      "Ġsins": 2702,
      "Ġpleas": 2703,
      "Ġcry": 2704,
      "Ġgames": 2705,
      "Ġmeasure": 2706,
      "rit": 2707,
      "Ġreported": 2708,
      "pher": 2709,
      "Ġbelieved": 2710,
      "Ġrecommend": 2711,
      "Ġphysical": 2712,
      "Ġspoken": 2713,
      "erved": 2714,
      "Ġgrad": 2715,
      "Ġtouch": 2716,
      "ature": 2717,
      "Ġmass": 2718,
      "ork": 2719,
      "reme": 2720,
      "Ġgods": 2721,
      "Ġhappened": 2722,
      "Ġbeyond": 2723,
      "Ġwest": 2724,
      "let": 2725,
      "Ġmoment": 2726,
      "Ġrange": 2727,
      "Ġupd": 2728,
      "itted": 2729,
      "Ġesc": 2730,
      "Ġbenefits": 2731,
      "Ġcard": 2732,
      "Ġsource": 2733,
      "Ġsummer": 2734,
      "order": 2735,
      "Ġmarch": 2736,
      "Ġlam": 2737,
      "Ġforefather": 2738,
      "Ġtit": 2739,
      "Ġwel": 2740,
      "action": 2741,
      "Ġworked": 2742,
      "Ġapostle": 2743,
      "Ġbound": 2744,
      "owers": 2745,
      "Ġprint": 2746,
      "Ġachie": 2747,
      "Ġlooked": 2748,
      "Ġcondition": 2749,
      "Ġcampa": 2750,
      "Ġmine": 2751,
      "Ġrule": 2752,
      "Ġimage": 2753,
      "Ġextra": 2754,
      "vert": 2755,
      "Ġcampaign": 2756,
      "Ġbag": 2757,
      "Ġcy": 2758,
      "Ġriver": 2759,
      "Ġark": 2760,
      "Ġinflu": 2761,
      "Ġmale": 2762,
      "Ġitself": 2763,
      "orrow": 2764,
      "Ġrad": 2765,
      "akes": 2766,
      "Ġangel": 2767,
      "ially": 2768,
      "Ġtro": 2769,
      "Ġgoal": 2770,
      "Ġpromise": 2771,
      "Ġgroups": 2772,
      "Ġblessed": 2773,
      "Ġpm": 2774,
      "Ġsud": 2775,
      "Ġperm": 2776,
      "Ġprovides": 2777,
      "Ġcolor": 2778,
      "Ġknows": 2779,
      "Ġwaters": 2780,
      "Ġww": 2781,
      "Ġkids": 2782,
      "Ġfilled": 2783,
      "Ġmist": 2784,
      "Ġreasons": 2785,
      "Ġmaybe": 2786,
      "Ġchoice": 2787,
      "Ġmeaning": 2788,
      "Ġciv": 2789,
      "Ġrain": 2790,
      "Ġserious": 2791,
      "Ġmeetings": 2792,
      "Ġclearly": 2793,
      "Ġdaughters": 2794,
      "Ġhosp": 2795,
      "Ġsurv": 2796,
      "athered": 2797,
      "Ġcorn": 2798,
      "aries": 2799,
      "Ġtrade": 2800,
      "Ġsurpr": 2801,
      "Ġgrand": 2802,
      "icient": 2803,
      "ils": 2804,
      "Ġrecent": 2805,
      "Ġrefuge": 2806,
      "Ġopened": 2807,
      "Ġeconomic": 2808,
      "enty": 2809,
      "hern": 2810,
      "Ġround": 2811,
      "Ġgreen": 2812,
      "ened": 2813,
      "ification": 2814,
      "Ġahead": 2815,
      "Ġsick": 2816,
      "Ġweight": 2817,
      "Ġstood": 2818,
      "Ġdespite": 2819,
      "Ġbrit": 2820,
      "Ġdeclares": 2821,
      "Ġhouses": 2822,
      "lier": 2823,
      "Ġclos": 2824,
      "Ġdemon": 2825,
      "ms": 2826,
      "Ġdwell": 2827,
      "Ġtour": 2828,
      "Ġexact": 2829,
      "Ġprevent": 2830,
      "Ġapplication": 2831,
      "Ġgoes": 2832,
      "Ġsight": 2833,
      "Ġcorrect": 2834,
      "Ġgal": 2835,
      "Ġexch": 2836,
      "Ġbehold": 2837,
      "Ġphone": 2838,
      "Ġeye": 2839,
      "right": 2840,
      "Ġtrack": 2841,
      "Ġhousehold": 2842,
      "Ġarmies": 2843,
      "Ġkindness": 2844,
      "au": 2845,
      "Ġfit": 2846,
      "Ġfill": 2847,
      "Ġcharge": 2848,
      "ped": 2849,
      "Ġmatthe": 2850,
      "Ġacqu": 2851,
      "Ġexpected": 2852,
      "aged": 2853,
      "Ġmiddle": 2854,
      "Ġprogress": 2855,
      "Ġglobal": 2856,
      "bu": 2857,
      "Ġtom": 2858,
      "ama": 2859,
      "Ġwww": 2860,
      "Ġboy": 2861,
      "Ġstrugg": 2862,
      "iction": 2863,
      "omon": 2864,
      "Ġgathered": 2865,
      "Ġmatters": 2866,
      "airs": 2867,
      "Ġsept": 2868,
      "Ġideas": 2869,
      "Ġhtt": 2870,
      "Ġcomment": 2871,
      "pped": 2872,
      "iers": 2873,
      "Ġsolomon": 2874,
      "Ġnorm": 2875,
      "Ġadditional": 2876,
      "ops": 2877,
      "Ġscriptures": 2878,
      "round": 2879,
      "itation": 2880,
      "Ġfort": 2881,
      "Ġsoci": 2882,
      "Ġvall": 2883,
      "Ġmatthew": 2884,
      "Ġsize": 2885,
      "oted": 2886,
      "Ġalive": 2887,
      "Ġfollowed": 2888,
      "Ġcounsel": 2889,
      "born": 2890,
      "Ġsell": 2891,
      "esty": 2892,
      "Ġmob": 2893,
      "iam": 2894,
      "Ġloss": 2895,
      "Ġadult": 2896,
      "Ġperformance": 2897,
      "Ġrac": 2898,
      "Ġbear": 2899,
      "Ġlate": 2900,
      "ceed": 2901,
      "Ġletter": 2902,
      "Ġobtain": 2903,
      "Ġexcell": 2904,
      "ipped": 2905,
      "Ġgirl": 2906,
      "Ġbeth": 2907,
      "Ġengine": 2908,
      "Ġinternet": 2909,
      "Ġprophets": 2910,
      "Ġannoun": 2911,
      "Ġchanged": 2912,
      "Ġterms": 2913,
      "Ġregional": 2914,
      "vest": 2915,
      "Ġrent": 2916,
      "Ġrefer": 2917,
      "Ġpaper": 2918,
      "Ġsurround": 2919,
      "Ġprepare": 2920,
      "Ġactivity": 2921,
      "rection": 2922,
      "Ġguide": 2923,
      "Ġfest": 2924,
      "Ġhi": 2925,
      "sen": 2926,
      "Ġmodern": 2927,
      "Ġchap": 2928,
      "Ġunless": 2929,
      "Ġfreed": 2930,
      "Ġdetermined": 2931,
      "Ġfat": 2932,
      "Ġran": 2933,
      "cient": 2934,
      "Ġgrain": 2935,
      "lish": 2936,
      "na": 2937,
      "ume": 2938,
      "Ġhelps": 2939,
      "Ġanimals": 2940,
      "Ġleader": 2941,
      "Ġsignific": 2942,
      "Ġoffers": 2943,
      "Ġseries": 2944,
      "Ġappoint": 2945,
      "onse": 2946,
      "Ġconvers": 2947,
      "Ġpositive": 2948,
      "just": 2949,
      "Ġthreat": 2950,
      "Ġgri": 2951,
      "Ġjune": 2952,
      "Ġbran": 2953,
      "light": 2954,
      "Ġsen": 2955,
      "raid": 2956,
      "Ġcove": 2957,
      "Ġresponse": 2958,
      "Ġoriginal": 2959,
      "Ġinhabit": 2960,
      "Ġforefathers": 2961,
      "inary": 2962,
      "Ġdeg": 2963,
      "Ġinterested": 2964,
      "Ġpossess": 2965,
      "Ġangels": 2966,
      "Ġoh": 2967,
      "Ġforces": 2968,
      "Ġmankind": 2969,
      "Ġsovereign": 2970,
      "ov": 2971,
      "oned": 2972,
      "Ġplant": 2973,
      "Ġserved": 2974,
      "Ġrunning": 2975,
      "Ġcivil": 2976,
      "aoh": 2977,
      "Ġcontr": 2978,
      "Ġhelping": 2979,
      "ension": 2980,
      "Ġskills": 2981,
      "Ġcaused": 2982,
      "lig": 2983,
      "Ġpath": 2984,
      "ada": 2985,
      "Ġthoughts": 2986,
      "Ġpharaoh": 2987,
      "Ġrise": 2988,
      "Ġpros": 2989,
      "Ġbox": 2990,
      "Ġfair": 2991,
      "Ġslave": 2992,
      "Ġnone": 2993,
      "ione": 2994,
      "Ġafraid": 2995,
      "izing": 2996,
      "Ġreleased": 2997,
      "Ġtur": 2998,
      "ressed": 2999,
      "Ġpromised": 3000,
      "Ġscience": 3001,
      "Ġjord": 3002,
      "Ġconsult": 3003,
      "Ġintegr": 3004,
      "Ġdistrict": 3005,
      "Ġcustomer": 3006,
      "Ġoccas": 3007,
      "Ġcommittee": 3008,
      "Ġdeliver": 3009,
      "Ġattempt": 3010,
      "Ġunique": 3011,
      "Ġspent": 3012,
      "Ġsteps": 3013,
      "Ġreligious": 3014,
      "Ġdisplay": 3015,
      "Ġagency": 3016,
      "Ġmov": 3017,
      "Ġscient": 3018,
      "Ġwalking": 3019,
      "Ġcode": 3020,
      "verse": 3021,
      "unch": 3022,
      "ane": 3023,
      "Ġsuccessful": 3024,
      "Ġetc": 3025,
      "resh": 3026,
      "Ġofferings": 3027,
      "Ġpopular": 3028,
      "ax": 3029,
      "Ġpick": 3030,
      "Ġdemand": 3031,
      "Ġcurrently": 3032,
      "Ġjordan": 3033,
      "Ġjoin": 3034,
      "Ġallowed": 3035,
      "uf": 3036,
      "Ġentr": 3037,
      "Ġproduce": 3038,
      "Ġdrug": 3039,
      "Ġcorrupt": 3040,
      "Ġpatient": 3041,
      "inate": 3042,
      "Ġfish": 3043,
      "Ġexperienced": 3044,
      "Ġpowerful": 3045,
      "ene": 3046,
      "Ġsales": 3047,
      "Ġmir": 3048,
      "rage": 3049,
      "Ġemb": 3050,
      "Ġfem": 3051,
      "Ġparts": 3052,
      "Ġsongs": 3053,
      "Ġneighbor": 3054,
      "oting": 3055,
      "itely": 3056,
      "Ġstruck": 3057,
      "Ġfeeling": 3058,
      "Ġcapital": 3059,
      "Ġversion": 3060,
      "Ġissued": 3061,
      "Ġlevites": 3062,
      "Ġpione": 3063,
      "Ġveh": 3064,
      "Ġincludes": 3065,
      "Ġarticles": 3066,
      "iet": 3067,
      "Ġchance": 3068,
      "Ġrelease": 3069,
      "vant": 3070,
      "Ġarch": 3071,
      "Ġearlier": 3072,
      "Ġtreatment": 3073,
      "pa": 3074,
      "Ġflock": 3075,
      "Ġpill": 3076,
      "Ġmedic": 3077,
      "Ġdesigned": 3078,
      "Ġthousands": 3079,
      "Ġcredit": 3080,
      "Ġara": 3081,
      "Ġseeking": 3082,
      "Ġobey": 3083,
      "Ġdepartment": 3084,
      "Ġassembly": 3085,
      "ims": 3086,
      "Ġmail": 3087,
      "Ġscre": 3088,
      "Ġsched": 3089,
      "Ġeasily": 3090,
      "mas": 3091,
      "Ġreject": 3092,
      "Ġproced": 3093,
      "Ġamm": 3094,
      "Ġgeneration": 3095,
      "Ġmach": 3096,
      "Ġadam": 3097,
      "Ġoffs": 3098,
      "Ġyouth": 3099,
      "Ġtaught": 3100,
      "Ġcarried": 3101,
      "Ġoccur": 3102,
      "Ġcommitted": 3103,
      "Ġbudget": 3104,
      "zz": 3105,
      "verage": 3106,
      "Ġintrod": 3107,
      "Ġmountains": 3108,
      "Ġcases": 3109,
      "Ġresc": 3110,
      "Ġdescend": 3111,
      "Ġinterv": 3112,
      "Ġvalley": 3113,
      "kn": 3114,
      "Ġappe": 3115,
      "Ġstudent": 3116,
      "iring": 3117,
      "Ġlift": 3118,
      "Ġvill": 3119,
      "Ġleading": 3120,
      "Ġcommercial": 3121,
      "hol": 3122,
      "Ġplans": 3123,
      "Ġwid": 3124,
      "erve": 3125,
      "Ġyork": 3126,
      "ively": 3127,
      "Ġdownload": 3128,
      "Ġdirection": 3129,
      "ping": 3130,
      "idents": 3131,
      "Ġancient": 3132,
      "Ġsystems": 3133,
      "Ġstar": 3134,
      "Ġanx": 3135,
      "Ġprojects": 3136,
      "Ġsamuel": 3137,
      "Ġadministr": 3138,
      "Ġvehic": 3139,
      "Ġmighty": 3140,
      "Ġpayment": 3141,
      "belie": 3142,
      "Ġtast": 3143,
      "Ġaug": 3144,
      "lls": 3145,
      "Ġsection": 3146,
      "Ġgerm": 3147,
      "Ġmarried": 3148,
      "Ġstruct": 3149,
      "Ġstandard": 3150,
      "Ġsexual": 3151,
      "Ġhuge": 3152,
      "amin": 3153,
      "Ġlie": 3154,
      "Ġtrees": 3155,
      "Ġresources": 3156,
      "han": 3157,
      "Ġguid": 3158,
      "Ġnature": 3159,
      "Ġseptember": 3160,
      "Ġtas": 3161,
      "Ġmel": 3162,
      "rap": 3163,
      "Ġuser": 3164,
      "Ġparties": 3165,
      "Ġmarketing": 3166,
      "Ġtreas": 3167,
      "Ġdiscipl": 3168,
      "Ġbod": 3169,
      "Ġfif": 3170,
      "Ġkit": 3171,
      "Ġshepher": 3172,
      "Ġshowed": 3173,
      "Ġbasis": 3174,
      "Ġplanning": 3175,
      "men": 3176,
      "Ġcomments": 3177,
      "Ġaust": 3178,
      "Ġintell": 3179,
      "Ġgrowth": 3180,
      "Ġdoubt": 3181,
      "Ġfreedom": 3182,
      "iced": 3183,
      "Ġjon": 3184,
      "Ġtrip": 3185,
      "erg": 3186,
      "sequ": 3187,
      "Ġunion": 3188,
      "Ġfunction": 3189,
      "Ġdocument": 3190,
      "Ġmix": 3191,
      "Ġshown": 3192,
      "Ġprim": 3193,
      "Ġpoints": 3194,
      "Ġreligion": 3195,
      "Ġhit": 3196,
      "Ġlog": 3197,
      "Ġamb": 3198,
      "Ġremove": 3199,
      "Ġmission": 3200,
      "Ġeight": 3201,
      "Ġisland": 3202,
      "Ġhearing": 3203,
      "Ġfeatures": 3204,
      "Ġdisease": 3205,
      "Ġreached": 3206,
      "Ġru": 3207,
      "Ġmanner": 3208,
      "Ġdry": 3209,
      "Ġaddis": 3210,
      "Ġpaid": 3211,
      "Ġemployment": 3212,
      "Ġmur": 3213,
      "itution": 3214,
      "alth": 3215,
      "Ġjew": 3216,
      "Ġcommit": 3217,
      "Ġchosen": 3218,
      "Ġoct": 3219,
      "Ġhast": 3220,
      "astic": 3221,
      "Ġlif": 3222,
      "Ġgoals": 3223,
      "bern": 3224,
      "Ġhighly": 3225,
      "Ġsigns": 3226,
      "Ġresponsibility": 3227,
      "Ġitems": 3228,
      "Ġtong": 3229,
      "Ġpit": 3230,
      "Ġstraight": 3231,
      "Ġhab": 3232,
      "Ġexecut": 3233,
      "Ġenglish": 3234,
      "Ġoptions": 3235,
      "Ġamerica": 3236,
      "Ġgain": 3237,
      "ament": 3238,
      "oper": 3239,
      "Ġclients": 3240,
      "Ġweeke": 3241,
      "Ġgrowing": 3242,
      "Ġhotel": 3243,
      "Ġheav": 3244,
      "Ġrate": 3245,
      "Ġborder": 3246,
      "Ġcit": 3247,
      "Ġforget": 3248,
      "Ġinteresting": 3249,
      "Ġjourney": 3250,
      "ades": 3251,
      "Ġsand": 3252,
      "Ġsuffering": 3253,
      "Ġcovered": 3254,
      "Ġsar": 3255,
      "Ġcand": 3256,
      "Ġites": 3257,
      "iled": 3258,
      "Ġcup": 3259,
      "ously": 3260,
      "Ġclub": 3261,
      "Ġlaid": 3262,
      "Ġextreme": 3263,
      "Ġbrand": 3264,
      "inth": 3265,
      "Ġimpact": 3266,
      "Ġstandards": 3267,
      "Ġapr": 3268,
      "Ġpark": 3269,
      "Ġequip": 3270,
      "eg": 3271,
      "Ġdanger": 3272,
      "Ġnames": 3273,
      "Ġfavorite": 3274,
      "Ġexchange": 3275,
      "Ġjames": 3276,
      "Ġcouldn": 3277,
      "Ġrequirements": 3278,
      "der": 3279,
      "Ġglor": 3280,
      "Ġheads": 3281,
      "Ġhealthy": 3282,
      "Ġcopy": 3283,
      "Ġtabern": 3284,
      "athan": 3285,
      "Ġprotection": 3286,
      "Ġmoving": 3287,
      "Ġcourage": 3288,
      "aced": 3289,
      "Ġpossession": 3290,
      "Ġpiece": 3291,
      "Ġdefinitely": 3292,
      "Ġtotal": 3293,
      "Ġcrowd": 3294,
      "Ġotherwise": 3295,
      "Ġguest": 3296,
      "Ġcert": 3297,
      "Ġcharacter": 3298,
      "body": 3299,
      "ffe": 3300,
      "icate": 3301,
      "owing": 3302,
      "Ġpieces": 3303,
      "Ġsalvation": 3304,
      "Ġsacrifices": 3305,
      "Ġemployees": 3306,
      "Ġband": 3307,
      "Ġoblig": 3308,
      "Ġgarden": 3309,
      "Ġexplained": 3310,
      "Ġprinciples": 3311,
      "Ġinhabitants": 3312,
      "ball": 3313,
      "aving": 3314,
      "Ġputting": 3315,
      "Ġze": 3316,
      "ufact": 3317,
      "Ġsla": 3318,
      "Ġwaiting": 3319,
      "Ġrejoice": 3320,
      "iation": 3321,
      "Ġrebe": 3322,
      "Ġfulfill": 3323,
      "rs": 3324,
      "Ġbath": 3325,
      "stances": 3326,
      "Ġpicture": 3327,
      "icing": 3328,
      "Ġincluded": 3329,
      "Ġvision": 3330,
      "Ġplaying": 3331,
      "Ġefforts": 3332,
      "Ġgerman": 3333,
      "ler": 3334,
      "Ġreign": 3335,
      "Ġkeeping": 3336,
      "Ġwarm": 3337,
      "Ġrid": 3338,
      "asts": 3339,
      "Ġrecall": 3340,
      "Ġquar": 3341,
      "Ġterror": 3342,
      "Ġjanuary": 3343,
      "Ġexcellent": 3344,
      "Ġmanufact": 3345,
      "Ġrob": 3346,
      "Ġproviding": 3347,
      "Ġfarm": 3348,
      "Ġgarments": 3349,
      "Ġpotential": 3350,
      "Ġapril": 3351,
      "Ġattract": 3352,
      "Ġcentral": 3353,
      "Ġlocation": 3354,
      "Ġmodel": 3355,
      "Ġsources": 3356,
      "Ġpurchase": 3357,
      "ization": 3358,
      "Ġcareer": 3359,
      "Ġbroad": 3360,
      "Ġcollege": 3361,
      "Ġhen": 3362,
      "Ġtransfer": 3363,
      "Ġsoftware": 3364,
      "Ġresurrection": 3365,
      "Ġtransport": 3366,
      "Ġconfidence": 3367,
      "Ġlimited": 3368,
      "Ġstyle": 3369,
      "Ġpunishment": 3370,
      "Ġsens": 3371,
      "Ġcold": 3372,
      "Ġenterpr": 3373,
      "Ġstreet": 3374,
      "Ġimagine": 3375,
      "Ġtabernacle": 3376,
      "Ġfile": 3377,
      "Ġeating": 3378,
      "Ġvine": 3379,
      "Ġblind": 3380,
      "Ġstarting": 3381,
      "Ġassociation": 3382,
      "itic": 3383,
      "Ġstated": 3384,
      "Ġstuff": 3385,
      "Ġwashing": 3386,
      "Ġpresence": 3387,
      "ma": 3388,
      "aint": 3389,
      "Ġsport": 3390,
      "Ġgets": 3391,
      "Ġpresented": 3392,
      "Ġcubits": 3393,
      "ublic": 3394,
      "Ġculture": 3395,
      "Ġstock": 3396,
      "iles": 3397,
      "Ġrose": 3398,
      "ground": 3399,
      "Ġlands": 3400,
      "Ġliter": 3401,
      "Ġhell": 3402,
      "Ġimages": 3403,
      "Ġadvant": 3404,
      "Ġlots": 3405,
      "Ġviolence": 3406,
      "Ġbringing": 3407,
      "Ġdistrib": 3408,
      "Ġbase": 3409,
      "Ġfix": 3410,
      "Ġseed": 3411,
      "istic": 3412,
      "Ġcooper": 3413,
      "Ġmidst": 3414,
      "Ġnetwork": 3415,
      "Ġtrain": 3416,
      "Ġreports": 3417,
      "Ġorganizations": 3418,
      "Ġmi": 3419,
      "Ġmary": 3420,
      "Ġprover": 3421,
      "Ġexh": 3422,
      "Ġmoreover": 3423,
      "Ġisaiah": 3424,
      "Ġsweet": 3425,
      "Ġtalking": 3426,
      "more": 3427,
      "Ġsisters": 3428,
      "Ġstones": 3429,
      "Ġnoah": 3430,
      "Ġappl": 3431,
      "ague": 3432,
      "Ġprecious": 3433,
      "Ġrepublic": 3434,
      "Ġsecure": 3435,
      "Ġsociety": 3436,
      "Ġdevice": 3437,
      "Ġconcerned": 3438,
      "Ġoption": 3439,
      "Ġautom": 3440,
      "Ġuk": 3441,
      "Ġaspect": 3442,
      "Ġfloor": 3443,
      "Ġstudies": 3444,
      "Ġeasier": 3445,
      "Ġdefense": 3446,
      "iveness": 3447,
      "Ġbecoming": 3448,
      "lict": 3449,
      "Ġdirectly": 3450,
      "Ġbehav": 3451,
      "Ġcool": 3452,
      "Ġfeelings": 3453,
      "Ġannual": 3454,
      "Ġpressure": 3455,
      "Ġpublished": 3456,
      "Ġhomes": 3457,
      "epend": 3458,
      "Ġraise": 3459,
      "Ġdaniel": 3460,
      "nes": 3461,
      "Ġq": 3462,
      "Ġprograms": 3463,
      "Ġinspired": 3464,
      "Ġtarget": 3465,
      "Ġaverage": 3466,
      "Ġaccepted": 3467,
      "Ġfilm": 3468,
      "Ġmeasures": 3469,
      "Ġfathers": 3470,
      "Ġglad": 3471,
      "Ġdirector": 3472,
      "Ġtradition": 3473,
      "Ġbodies": 3474,
      "Ġfly": 3475,
      "itable": 3476,
      "Ġship": 3477,
      "Ġolder": 3478,
      "Ġyester": 3479,
      "Ġbroken": 3480,
      "Ġasking": 3481,
      "Ġdestruction": 3482,
      "Ġtor": 3483,
      "Ġang": 3484,
      "ression": 3485,
      "Ġresponsible": 3486,
      "Ġrules": 3487,
      "Ġmultip": 3488,
      "Ġsoldiers": 3489,
      "Ġsharing": 3490,
      "Ġindepend": 3491,
      "Ġerror": 3492,
      "Ġcreation": 3493,
      "Ġdestroyed": 3494,
      "Ġregistered": 3495,
      "ny": 3496,
      "xim": 3497,
      "Ġwealth": 3498,
      "Ġenemy": 3499,
      "Ġvolunt": 3500,
      "Ġusers": 3501,
      "Ġthrone": 3502,
      "ga": 3503,
      "Ġsust": 3504,
      "Ġok": 3505,
      "anced": 3506,
      "Ġorg": 3507,
      "Ġkid": 3508,
      "Ġsetting": 3509,
      "Ġtypes": 3510,
      "Ġchallenge": 3511,
      "Ġdemocratic": 3512,
      "Ġaccompl": 3513,
      "ring": 3514,
      "Ġpull": 3515,
      "Ġstress": 3516,
      "Ġyesterday": 3517,
      "Ġash": 3518,
      "Ġdisapp": 3519,
      "Ġchristmas": 3520,
      "Ġheavenly": 3521,
      "Ġjerem": 3522,
      "Ġprovisions": 3523,
      "Ġmemor": 3524,
      "Ġchem": 3525,
      "Ġhonest": 3526,
      "Ġjournal": 3527,
      "Ġequipment": 3528,
      "Ġrepe": 3529,
      "Ġentered": 3530,
      "Ġlower": 3531,
      "Ġconstruction": 3532,
      "Ġhistor": 3533,
      "Ġaugust": 3534,
      "Ġappeal": 3535,
      "Ġterrit": 3536,
      "Ġmanager": 3537,
      "Ġwives": 3538,
      "Ġworker": 3539,
      "Ġsett": 3540,
      "overed": 3541,
      "Ġphilist": 3542,
      "Ġduties": 3543,
      "Ġcircumstances": 3544,
      "plf": 3545,
      "Ġaward": 3546,
      "Ġnearly": 3547,
      "vent": 3548,
      "Ġtear": 3549,
      "Ġsurf": 3550,
      "Ġfacebook": 3551,
      "Ġspring": 3552,
      "key": 3553,
      "Ġblue": 3554,
      "Ġcitiz": 3555,
      "Ġcrim": 3556,
      "Ġcreating": 3557,
      "Ġdwelling": 3558,
      "lasting": 3559,
      "Ġplat": 3560,
      "Ġeverlasting": 3561,
      "Ġafrica": 3562,
      "Ġemp": 3563,
      "Ġfresh": 3564,
      "Ġcompass": 3565,
      "Ġexercise": 3566,
      "Ġmobile": 3567,
      "aur": 3568,
      "atory": 3569,
      "Ġvariety": 3570,
      "ban": 3571,
      "Ġfriday": 3572,
      "Ġaccur": 3573,
      "Ġbehalf": 3574,
      "do": 3575,
      "Ġjuly": 3576,
      "ria": 3577,
      "Ġadop": 3578,
      "Ġoverse": 3579,
      "Ġshowing": 3580,
      "Ġopportunities": 3581,
      "Ġrevealed": 3582,
      "Ġexactly": 3583,
      "ober": 3584,
      "Ġtv": 3585,
      "Ġgun": 3586,
      "oph": 3587,
      "Ġconsist": 3588,
      "Ġrelevant": 3589,
      "Ġweekend": 3590,
      "Ġpure": 3591,
      "Ġarrange": 3592,
      "arily": 3593,
      "Ġlos": 3594,
      "Ġaband": 3595,
      "Ġprime": 3596,
      "Ġprem": 3597,
      "Ġsupply": 3598,
      "Ġenjoyed": 3599,
      "Ġprivile": 3600,
      "Ġeventually": 3601,
      "Ġoctober": 3602,
      "Ġheat": 3603,
      "Ġblessing": 3604,
      "Ġelectric": 3605,
      "Ġphotos": 3606,
      "Ġassigned": 3607,
      "Ġwelcome": 3608,
      "Ġsitting": 3609,
      "Ġrout": 3610,
      "aph": 3611,
      "Ġgenes": 3612,
      "pring": 3613,
      "Ġpractical": 3614,
      "Ġopposition": 3615,
      "ray": 3616,
      "oring": 3617,
      "Ġload": 3618,
      "Ġbusinesses": 3619,
      "Ġsolution": 3620,
      "Ġabsol": 3621,
      "Ġthine": 3622,
      "Ġstories": 3623,
      "ivity": 3624,
      "Ġscreen": 3625,
      "back": 3626,
      "alu": 3627,
      "ications": 3628,
      "ibly": 3629,
      "Ġbought": 3630,
      "Ġlose": 3631,
      "Ġengage": 3632,
      "Ġbaptized": 3633,
      "cription": 3634,
      "Ġlad": 3635,
      "Ġsaved": 3636,
      "Ġspeed": 3637,
      "Ġlocated": 3638,
      "Ġvac": 3639,
      "Ġworsh": 3640,
      "Ġregistration": 3641,
      "Ġoffspring": 3642,
      "Ġtow": 3643,
      "Ġsav": 3644,
      "phone": 3645,
      "Ġconfir": 3646,
      "Ġpictures": 3647,
      "Ġdemonstr": 3648,
      "Ġbri": 3649,
      "Ġhid": 3650,
      "Ġclient": 3651,
      "Ġslow": 3652,
      "Ġexamples": 3653,
      "Ġexplain": 3654,
      "Ġteacher": 3655,
      "Ġjeremiah": 3656,
      "Ġhorn": 3657,
      "Ġactions": 3658,
      "ex": 3659,
      "Ġul": 3660,
      "Ġadvert": 3661,
      "Ġfinished": 3662,
      "Ġdecide": 3663,
      "Ġarrived": 3664,
      "Ġinterview": 3665,
      "olate": 3666,
      "Ġbecomes": 3667,
      "Ġoccasion": 3668,
      "Ġabsolute": 3669,
      "Ġtools": 3670,
      "Ġmeat": 3671,
      "Ġparad": 3672,
      "Ġprevious": 3673,
      "Ġdelight": 3674,
      "Ġdarkness": 3675,
      "Ġhate": 3676,
      "Ġbelievers": 3677,
      "Ġdigital": 3678,
      "eless": 3679,
      "Ġtrouble": 3680,
      "Ġisaac": 3681,
      "Ġlin": 3682,
      "Ġweap": 3683,
      "Ġhall": 3684,
      "uction": 3685,
      "Ġemotion": 3686,
      "Ġcompleted": 3687,
      "uing": 3688,
      "Ġpages": 3689,
      "omb": 3690,
      "Ġspot": 3691,
      "olution": 3692,
      "Ġearn": 3693,
      "Ġremoved": 3694,
      "Ġchapter": 3695,
      "reed": 3696,
      "Ġign": 3697,
      "Ġlatest": 3698,
      "Ġsession": 3699,
      "Ġnove": 3700,
      "Ġproduction": 3701,
      "Ġmiles": 3702,
      "ese": 3703,
      "ley": 3704,
      "Ġbrings": 3705,
      "Ġanimal": 3706,
      "Ġimper": 3707,
      "Ġentertain": 3708,
      "Ġprinces": 3709,
      "Ġaid": 3710,
      "Ġgree": 3711,
      "Ġinstance": 3712,
      "Ġopin": 3713,
      "Ġobserve": 3714,
      "uries": 3715,
      "Ġcalling": 3716,
      "Ġsecretary": 3717,
      "Ġsusp": 3718,
      "Ġregulations": 3719,
      "Ġachieve": 3720,
      "Ġtroops": 3721,
      "Ġappeared": 3722,
      "tered": 3723,
      "Ġterri": 3724,
      "Ġoccup": 3725,
      "Ġchallenges": 3726,
      "zek": 3727,
      "Ġrussian": 3728,
      "Ġpalest": 3729,
      "bbath": 3730,
      "ffee": 3731,
      "sp": 3732,
      "Ġcher": 3733,
      "Ġshame": 3734,
      "Ġsabbath": 3735,
      "rences": 3736,
      "Ġdifference": 3737,
      "Ġallows": 3738,
      "ables": 3739,
      "Ġbasic": 3740,
      "Ġsubmit": 3741,
      "Ġattitude": 3742,
      "Ġessential": 3743,
      "Ġnovember": 3744,
      "ba": 3745,
      "Ġtick": 3746,
      "Ġmeant": 3747,
      "Ġthereof": 3748,
      "Ġpartners": 3749,
      "Ġexecutive": 3750,
      "Ġstret": 3751,
      "Ġconsequ": 3752,
      "Ġcancer": 3753,
      "Ġsmart": 3754,
      "Ġrestaur": 3755,
      "Ġdistress": 3756,
      "Ġexpressed": 3757,
      "Ġdecember": 3758,
      "ici": 3759,
      "othy": 3760,
      "Ġlimit": 3761,
      "Ġbeat": 3762,
      "Ġcorinth": 3763,
      "Ġsuffer": 3764,
      "Ġillustr": 3765,
      "Ġsor": 3766,
      "Ġsale": 3767,
      "Ġaside": 3768,
      "Ġadjust": 3769,
      "Ġtend": 3770,
      "aked": 3771,
      "Ġminim": 3772,
      "Ġfoundation": 3773,
      "Ġplus": 3774,
      "Ġcosts": 3775,
      "Ġplaced": 3776,
      "Ġfrequ": 3777,
      "Ġleadership": 3778,
      "iqu": 3779,
      "wh": 3780,
      "Ġnumer": 3781,
      "Ġelder": 3782,
      "Ġstrateg": 3783,
      "Ġluck": 3784,
      "Ġaccounts": 3785,
      "Ġanswers": 3786,
      "Ġsudden": 3787,
      "Ġaustral": 3788,
      "Ġble": 3789,
      "Ġgas": 3790,
      "ager": 3791,
      "Ġsatur": 3792,
      "bles": 3793,
      "Ġgreatest": 3794,
      "Ġgifts": 3795,
      "force": 3796,
      "Ġstick": 3797,
      "Ġteachers": 3798,
      "Ġdegree": 3799,
      "Ġabund": 3800,
      "Ġcommandments": 3801,
      "Ġapostles": 3802,
      "Ġtongue": 3803,
      "Ġsides": 3804,
      "ari": 3805,
      "Ġrevel": 3806,
      "Ġsunday": 3807,
      "Ġpsy": 3808,
      "Ġpowers": 3809,
      "aches": 3810,
      "Ġpractices": 3811,
      "Ġappreciate": 3812,
      "paper": 3813,
      "Ġreci": 3814,
      "Ġcontain": 3815,
      "Ġcaught": 3816,
      "fied": 3817,
      "ham": 3818,
      "ih": 3819,
      "inated": 3820,
      "oured": 3821,
      "Ġnort": 3822,
      "Ġprove": 3823,
      "Ġperman": 3824,
      "Ġbenj": 3825,
      "tery": 3826,
      "Ġprices": 3827,
      "Ġtimothy": 3828,
      "Ġstrengthen": 3829,
      "Ġadvantage": 3830,
      "een": 3831,
      "Ġbreat": 3832,
      "arant": 3833,
      "Ġconference": 3834,
      "Ġtemper": 3835,
      "Ġphoto": 3836,
      "chen": 3837,
      "ijah": 3838,
      "Ġproverbs": 3839,
      "Ġconfident": 3840,
      "Ġgrew": 3841,
      "Ġdamage": 3842,
      "Ġgenesis": 3843,
      "zy": 3844,
      "Ġbott": 3845,
      "Ġshout": 3846,
      "Ġdoll": 3847,
      "Ġsacred": 3848,
      "Ġcamer": 3849,
      "Ġdele": 3850,
      "Ġloves": 3851,
      "aging": 3852,
      "Ġguarant": 3853,
      "Ġsites": 3854,
      "rog": 3855,
      "Ġapproval": 3856,
      "Ġforgive": 3857,
      "Ġwatching": 3858,
      "pan": 3859,
      "arc": 3860,
      "Ġteen": 3861,
      "Ġdelive": 3862,
      "hen": 3863,
      "Ġleng": 3864,
      "Ġrace": 3865,
      "Ġvia": 3866,
      "Ġdisbelie": 3867,
      "Ġfriendly": 3868,
      "like": 3869,
      "Ġtips": 3870,
      "lly": 3871,
      "Ġfool": 3872,
      "Ġwinter": 3873,
      "Ġpalestin": 3874,
      "Ġconcern": 3875,
      "Ġlevels": 3876,
      "Ġdust": 3877,
      "Ġaltern": 3878,
      "Ġactive": 3879,
      "Ġemployee": 3880,
      "Ġproclaim": 3881,
      "Ġarrest": 3882,
      "Ġblock": 3883,
      "Ġrepent": 3884,
      "Ġrealize": 3885,
      "Ġanaly": 3886,
      "Ġhttp": 3887,
      "bed": 3888,
      "enger": 3889,
      "Ġwedding": 3890,
      "Ġsignificant": 3891,
      "Ġintellig": 3892,
      "oon": 3893,
      "Ġball": 3894,
      "Ġregulation": 3895,
      "Ġfinding": 3896,
      "Ġelection": 3897,
      "Ġstopped": 3898,
      "Ġundes": 3899,
      "ell": 3900,
      "Ġric": 3901,
      "Ġcalls": 3902,
      "Ġparticularly": 3903,
      "Ġmagaz": 3904,
      "Ġeritrea": 3905,
      "Ġbenjamin": 3906,
      "Ġkore": 3907,
      "Ġpatients": 3908,
      "Ġgirls": 3909,
      "Ġmotiv": 3910,
      "Ġnormal": 3911,
      "Ġwashington": 3912,
      "Ġremains": 3913,
      "Ġincreasing": 3914,
      "Ġfestival": 3915,
      "Ġpred": 3916,
      "orge": 3917,
      "Ġexpert": 3918,
      "Ġparadise": 3919,
      "under": 3920,
      "iment": 3921,
      "Ġtrump": 3922,
      "Ġinterests": 3923,
      "Ġschools": 3924,
      "Ġdebt": 3925,
      "Ġweather": 3926,
      "Ġadvance": 3927,
      "Ġmaterials": 3928,
      "Ġguidance": 3929,
      "rison": 3930,
      "Ġcanada": 3931,
      "Ġinsight": 3932,
      "Ġtraff": 3933,
      "Ġplayed": 3934,
      "Ġdin": 3935,
      "engers": 3936,
      "Ġnumerous": 3937,
      "Ġhaven": 3938,
      "ctions": 3939,
      "Ġflood": 3940,
      "Ġfollowers": 3941,
      "Ġchari": 3942,
      "Ġcauses": 3943,
      "Ġfurn": 3944,
      "Ġmich": 3945,
      "vey": 3946,
      "Ġdeeds": 3947,
      "Ġleaving": 3948,
      "Ġresist": 3949,
      "Ġfinish": 3950,
      "Ġafford": 3951,
      "Ġfemale": 3952,
      "Ġlength": 3953,
      "Ġprovision": 3954,
      "icial": 3955,
      "Ġstream": 3956,
      "Ġbeauty": 3957,
      "son": 3958,
      "Ġchron": 3959,
      "Ġdistance": 3960,
      "Ġtrial": 3961,
      "Ġdescribed": 3962,
      "cul": 3963,
      "ili": 3964,
      "ipping": 3965,
      "Ġlabor": 3966,
      "adem": 3967,
      "Ġchina": 3968,
      "Ġnumbers": 3969,
      "Ġcollection": 3970,
      "Ġinfluence": 3971,
      "wide": 3972,
      "Ġcro": 3973,
      "Ġconce": 3974,
      "Ġwouldn": 3975,
      "Ġdevil": 3976,
      "Ġtempt": 3977,
      "Ġwindows": 3978,
      "Ġremained": 3979,
      "Ġsubs": 3980,
      "Ġprayers": 3981,
      "Ġdetermine": 3982,
      "Ġsout": 3983,
      "Ġwarning": 3984,
      "Ġdelivered": 3985,
      "erv": 3986,
      "ucing": 3987,
      "Ġsolutions": 3988,
      "Ġimplementation": 3989,
      "Ġmental": 3990,
      "ibilities": 3991,
      "Ġhappens": 3992,
      "Ġdeveloped": 3993,
      "Ġseemed": 3994,
      "Ġdeparted": 3995,
      "Ġconvin": 3996,
      "Ġentrance": 3997,
      "Ġterritory": 3998,
      "df": 3999,
      "Ġspake": 4000,
      "Ġincome": 4001,
      "Ġapproved": 4002,
      "Ġtomorrow": 4003,
      "Ġkitchen": 4004,
      "Ġfash": 4005,
      "Ġhang": 4006,
      "Ġmeal": 4007,
      "Ġchair": 4008,
      "Ġevalu": 4009,
      "Ġzeal": 4010,
      "Ġrebu": 4011,
      "Ġgreatly": 4012,
      "Ġlanguages": 4013,
      "Ġheavy": 4014,
      "Ġcompassion": 4015,
      "Ġlibr": 4016,
      "Ġfirstborn": 4017,
      "Ġowners": 4018,
      "Ġcorpor": 4019,
      "Ġpromises": 4020,
      "Ġult": 4021,
      "cle": 4022,
      "Ġstation": 4023,
      "Ġsettle": 4024,
      "Ġanti": 4025,
      "Ġjap": 4026,
      "Ġconclud": 4027,
      "Ġassess": 4028,
      "Ġparag": 4029,
      "Ġqualities": 4030,
      "Ġbillion": 4031,
      "Ġrescue": 4032,
      "Ġundeserved": 4033,
      "aan": 4034,
      "ev": 4035,
      "ndon": 4036,
      "Ġmos": 4037,
      "estic": 4038,
      "osing": 4039,
      "Ġcoffee": 4040,
      "Ġimitate": 4041,
      "Ġsaturday": 4042,
      "Ġnut": 4043,
      "Ġshut": 4044,
      "Ġmonday": 4045,
      "Ġsym": 4046,
      "Ġbelief": 4047,
      "Ġcommunication": 4048,
      "Ġreasonable": 4049,
      "Ġsugar": 4050,
      "Ġphilistines": 4051,
      "Ġmere": 4052,
      "Ġaccident": 4053,
      "Ġpregn": 4054,
      "Ġcreative": 4055,
      "Ġorigin": 4056,
      "Ġing": 4057,
      "Ġdress": 4058,
      "Ġsubst": 4059,
      "Ġrevelation": 4060,
      "bered": 4061,
      "Ġtues": 4062,
      "Ġobv": 4063,
      "Ġcopper": 4064,
      "Ġclothing": 4065,
      "pper": 4066,
      "Ġconstitution": 4067,
      "Ġplatform": 4068,
      "iance": 4069,
      "iable": 4070,
      "estern": 4071,
      "Ġwear": 4072,
      "Ġlondon": 4073,
      "Ġbright": 4074,
      "Ġfebr": 4075,
      "Ġprefer": 4076,
      "Ġinterp": 4077,
      "Ġgaz": 4078,
      "Ġmak": 4079,
      "Ġuseful": 4080,
      "Ġmatch": 4081,
      "standing": 4082,
      "Ġopening": 4083,
      "Ġcomplex": 4084,
      "Ġcitizens": 4085,
      "Ġfebruary": 4086,
      "Ġmas": 4087,
      "Ġproduced": 4088,
      "Ġeffects": 4089,
      "Ġpleasure": 4090,
      "Ġbritish": 4091,
      "Ġhence": 4092,
      "Ġsake": 4093,
      "unk": 4094,
      "Ġzion": 4095,
      "Ġrequires": 4096,
      "Ġstrike": 4097,
      "ancy": 4098,
      "Ġcarefully": 4099,
      "Ġrenew": 4100,
      "Ġmedicine": 4101,
      "Ġparagraph": 4102,
      "iant": 4103,
      "Ġinvestment": 4104,
      "Ġregularly": 4105,
      "Ġholiday": 4106,
      "Ġmovie": 4107,
      "ram": 4108,
      "Ġdescendants": 4109,
      "Ġfashion": 4110,
      "izes": 4111,
      "Ġflight": 4112,
      "Ġcomfortable": 4113,
      "Ġtuesday": 4114,
      "Ġaim": 4115,
      "aces": 4116,
      "Ġbush": 4117,
      "ek": 4118,
      "Ġlis": 4119,
      "Ġnine": 4120,
      "Ġja": 4121,
      "Ġseat": 4122,
      "Ġpropos": 4123,
      "Ġprofess": 4124,
      "Ġconvention": 4125,
      "isl": 4126,
      "Ġuses": 4127,
      "Ġdish": 4128,
      "Ġresidents": 4129,
      "Ġminute": 4130,
      "Ġbirr": 4131,
      "Ġfant": 4132,
      "Ġears": 4133,
      "Ġblessings": 4134,
      "Ġwalked": 4135,
      "Ġeuropean": 4136,
      "Ġcorruption": 4137,
      "know": 4138,
      "Ġenterprise": 4139,
      "Ġpil": 4140,
      "Ġaren": 4141,
      "Ġdoctor": 4142,
      "Ġlies": 4143,
      "Ġacadem": 4144,
      "Ġcondem": 4145,
      "Ġofficer": 4146,
      "Ġimmor": 4147,
      "Ġiniti": 4148,
      "Ġgranted": 4149,
      "Ġbranch": 4150,
      "hest": 4151,
      "Ġcreator": 4152,
      "Ġdouble": 4153,
      "porary": 4154,
      "Ġrejo": 4155,
      "con": 4156,
      "Ġmort": 4157,
      "Ġwasn": 4158,
      "Ġcoast": 4159,
      "Ġexperts": 4160,
      "ography": 4161,
      "ault": 4162,
      "encies": 4163,
      "Ġrans": 4164,
      "aped": 4165,
      "Ġjobs": 4166,
      "Ġpool": 4167,
      "Ġflow": 4168,
      "Ġbeloved": 4169,
      "theless": 4170,
      "Ġbirthday": 4171,
      "Ġnegative": 4172,
      "Ġdocuments": 4173,
      "Ġjapan": 4174,
      "nam": 4175,
      "ties": 4176,
      "acity": 4177,
      "Ġnevertheless": 4178,
      "Ġeconomy": 4179,
      "Ġprinciple": 4180,
      "Ġeritrean": 4181,
      "Ġcertific": 4182,
      "ship": 4183,
      "vision": 4184,
      "Ġol": 4185,
      "Ġpleased": 4186,
      "Ġpointed": 4187,
      "Ġflee": 4188,
      "Ġtraffic": 4189,
      "arm": 4190,
      "ushed": 4191,
      "Ġstage": 4192,
      "Ġsevent": 4193,
      "Ġproved": 4194,
      "Ġbackground": 4195,
      "Ġsalt": 4196,
      "Ġreduce": 4197,
      "Ġtyp": 4198,
      "Ġmajority": 4199,
      "Ġreplied": 4200,
      "Ġhorse": 4201,
      "ening": 4202,
      "Ġven": 4203,
      "Ġregister": 4204,
      "Ġcrime": 4205,
      "Ġcounty": 4206,
      "Ġhurt": 4207,
      "Ġcandid": 4208,
      "Ġcash": 4209,
      "Ġattorn": 4210,
      "Ġjudges": 4211,
      "Ġsmoke": 4212,
      "Ġbusy": 4213,
      "ino": 4214,
      "Ġworry": 4215,
      "ternal": 4216,
      "Ġtowards": 4217,
      "Ġhospital": 4218,
      "pro": 4219,
      "soever": 4220,
      "enses": 4221,
      "Ġcru": 4222,
      "Ġfighting": 4223,
      "roll": 4224,
      "Ġpromote": 4225,
      "Ġposted": 4226,
      "Ġpattern": 4227,
      "Ġinvestigation": 4228,
      "Ġoverall": 4229,
      "Ġlegisl": 4230,
      "Ġaffairs": 4231,
      "Ġcate": 4232,
      "Ġni": 4233,
      "Ġconven": 4234,
      "Ġresident": 4235,
      "Ġtransform": 4236,
      "Ġplayers": 4237,
      "Ġrooms": 4238,
      "Ġidentify": 4239,
      "Ġassistance": 4240,
      "Ġstructure": 4241,
      "me": 4242,
      "Ġexal": 4243,
      "Ġcanaan": 4244,
      "Ġacknow": 4245,
      "Ġgrown": 4246,
      "Ġsky": 4247,
      "Ġholding": 4248,
      "Ġchanging": 4249,
      "Ġhom": 4250,
      "Ġconnection": 4251,
      "Ġsatisfied": 4252,
      "Ġadministrative": 4253,
      "Ġhors": 4254,
      "Ġclimate": 4255,
      "Ġzer": 4256,
      "Ġcritical": 4257,
      "Ġhappiness": 4258,
      "Ġsnow": 4259,
      "Ġstrategy": 4260,
      "Ġdefend": 4261,
      "Ġransom": 4262,
      "ses": 4263,
      "Ġeg": 4264,
      "Ġju": 4265,
      "Ġbrain": 4266,
      "Ġpersonality": 4267,
      "Ġexperiences": 4268,
      "Ġdiscussion": 4269,
      "Ġvirg": 4270,
      "Ġdedicated": 4271,
      "Ġescape": 4272,
      "Ġcorinthians": 4273,
      "ifying": 4274,
      "Ġclin": 4275,
      "Ġconversation": 4276,
      "Ġextremely": 4277,
      "Ġath": 4278,
      "Ġforum": 4279,
      "Ġproud": 4280,
      "Ġflour": 4281,
      "Ġdriving": 4282,
      "Ġtestim": 4283,
      "Ġpopulation": 4284,
      "Ġiron": 4285,
      "Ġstruggle": 4286,
      "Ġschedule": 4287,
      "Ġtaste": 4288,
      "Ġtool": 4289,
      "cles": 4290,
      "Ġremaining": 4291,
      "Ġfourth": 4292,
      "Ġfriendship": 4293,
      "Ġtechnical": 4294,
      "Ġcatch": 4295,
      "Ġnegot": 4296,
      "Ġarab": 4297,
      "rig": 4298,
      "aration": 4299,
      "cience": 4300,
      "abor": 4301,
      "rench": 4302,
      "Ġdesires": 4303,
      "Ġnewspaper": 4304,
      "Ġassociated": 4305,
      "Ġsorry": 4306,
      "ked": 4307,
      "Ġfab": 4308,
      "Ġhung": 4309,
      "Ġdad": 4310,
      "aba": 4311,
      "Ġrepair": 4312,
      "Ġinvited": 4313,
      "fl": 4314,
      "Ġgoog": 4315,
      "Ġgoods": 4316,
      "Ġrepro": 4317,
      "Ġsyn": 4318,
      "Ġsquare": 4319,
      "Ġjah": 4320,
      "Ġrat": 4321,
      "Ġprost": 4322,
      "Ġworse": 4323,
      "Ġthrow": 4324,
      "Ġowner": 4325,
      "Ġgrave": 4326,
      "Ġmilk": 4327,
      "Ġrepresentatives": 4328,
      "Ġdiscipline": 4329,
      "otten": 4330,
      "Ġdelivery": 4331,
      "thren": 4332,
      "Ġargu": 4333,
      "Ġrelative": 4334,
      "Ġbrethren": 4335,
      "Ġmillions": 4336,
      "Ġannounced": 4337,
      "Ġmultiple": 4338,
      "Ġabsolutely": 4339,
      "Ġeve": 4340,
      "Ġcance": 4341,
      "Ġpatri": 4342,
      "Ġbirds": 4343,
      "Ġbedroom": 4344,
      "Ġpersec": 4345,
      "Ġscen": 4346,
      "Ġconstantly": 4347,
      "Ġfailed": 4348,
      "Ġfeature": 4349,
      "Ġbehavior": 4350,
      "Ġlines": 4351,
      "Ġjack": 4352,
      "Ġdear": 4353,
      "Ġdoct": 4354,
      "Ġcapacity": 4355,
      "Ġgradu": 4356,
      "Ġfled": 4357,
      "Ġsituations": 4358,
      "Ġseparate": 4359,
      "ael": 4360,
      "xic": 4361,
      "Ġpour": 4362,
      "itter": 4363,
      "Ġthurs": 4364,
      "Ġnav": 4365,
      "Ġgam": 4366,
      "Ġpride": 4367,
      "Ġjoined": 4368,
      "Ġended": 4369,
      "Ġburied": 4370,
      "Ġfaced": 4371,
      "Ġincreased": 4372,
      "Ġfigure": 4373,
      "Ġhundreds": 4374,
      "Ġshared": 4375,
      "Ġsucceed": 4376,
      "Ġportion": 4377,
      "Ġmad": 4378,
      "Ġweep": 4379,
      "resp": 4380,
      "Ġagreed": 4381,
      "Ġhelpful": 4382,
      "Ġconcerns": 4383,
      "Ġgoogle": 4384,
      "Ġuns": 4385,
      "Ġsheke": 4386,
      "Ġexamine": 4387,
      "Ġvalu": 4388,
      "pected": 4389,
      "Ġsounds": 4390,
      "Ġconducted": 4391,
      "Ġanalys": 4392,
      "Ġcriminal": 4393,
      "hens": 4394,
      "eding": 4395,
      "iders": 4396,
      "iling": 4397,
      "Ġwash": 4398,
      "Ġimprison": 4399,
      "Ġremem": 4400,
      "Ġglass": 4401,
      "Ġgenerations": 4402,
      "Ġilleg": 4403,
      "Ġspending": 4404,
      "Ġcateg": 4405,
      "Ġthursday": 4406,
      "jud": 4407,
      "Ġwestern": 4408,
      "Ġstars": 4409,
      "Ġordered": 4410,
      "Ġviews": 4411,
      "Ġromans": 4412,
      "Ġappointment": 4413,
      "eem": 4414,
      "arr": 4415,
      "Ġinstru": 4416,
      "Ġorganized": 4417,
      "Ġinstitutions": 4418,
      "Ġtitle": 4419,
      "Ġprocedure": 4420,
      "Ġweapons": 4421,
      "de": 4422,
      "Ġpas": 4423,
      "Ġliber": 4424,
      "Ġwhenever": 4425,
      "Ġapparent": 4426,
      "Ġadvoc": 4427,
      "Ġofficers": 4428,
      "Ġgreet": 4429,
      "Ġcalam": 4430,
      "Ġale": 4431,
      "Ġconscience": 4432,
      "Ġbethel": 4433,
      "Ġlistening": 4434,
      "fast": 4435,
      "Ġairport": 4436,
      "Ġefficient": 4437,
      "Ġreplace": 4438,
      "Ġburning": 4439,
      "Ġvirt": 4440,
      "Ġmemorial": 4441,
      "Ġaz": 4442,
      "Ġham": 4443,
      "Ġunity": 4444,
      "Ġrelax": 4445,
      "Ġpersonally": 4446,
      "Ġnorthern": 4447,
      "Ġital": 4448,
      "Ġdisob": 4449,
      "Ġguys": 4450,
      "Ġformed": 4451,
      "Ġdeclare": 4452,
      "Ġcraft": 4453,
      "Ġafrican": 4454,
      "Ġsurface": 4455,
      "Ġhorses": 4456,
      "Ġfuel": 4457,
      "Ġlamp": 4458,
      "Ġexpand": 4459,
      "Ġcell": 4460,
      "Ġfields": 4461,
      "Ġbottom": 4462,
      "wood": 4463,
      "iny": 4464,
      "Ġmessenger": 4465,
      "Ġmessengers": 4466,
      "Ġseventh": 4467,
      "mar": 4468,
      "edient": 4469,
      "Ġdoors": 4470,
      "ift": 4471,
      "Ġreality": 4472,
      "Ġauthorities": 4473,
      "Ġelectron": 4474,
      "Ġtask": 4475,
      "Ġvolunte": 4476,
      "Ġmagn": 4477,
      "Ġquiet": 4478,
      "Ġyounger": 4479,
      "Ġfaces": 4480,
      "Ġaudience": 4481,
      "Ġsarah": 4482,
      "Ġloud": 4483,
      "emen": 4484,
      "Ġpersons": 4485,
      "Ġimportance": 4486,
      "Ġvalues": 4487,
      "Ġstatus": 4488,
      "Ġtranslation": 4489,
      "Ġcloser": 4490,
      "otes": 4491,
      "Ġguess": 4492,
      "Ġposts": 4493,
      "Ġtribes": 4494,
      "Ġsustain": 4495,
      "Ġframe": 4496,
      "Ġshot": 4497,
      "Ġababa": 4498,
      "Ġintended": 4499,
      "Ġdism": 4500,
      "aken": 4501,
      "Ġrealized": 4502,
      "Ġroman": 4503,
      "mon": 4504,
      "Ġsevere": 4505,
      "Ġsector": 4506,
      "ateful": 4507,
      "oked": 4508,
      "place": 4509,
      "Ġperish": 4510,
      "Ġlisted": 4511,
      "Ġharvest": 4512,
      "Ġradio": 4513,
      "Ġprospect": 4514,
      "Ġanxiety": 4515,
      "Ġaccomplish": 4516,
      "Ġempt": 4517,
      "Ġforest": 4518,
      "Ġcultiv": 4519,
      "Ġstake": 4520,
      "Ġscat": 4521,
      "Ġpartner": 4522,
      "angers": 4523,
      "Ġdeput": 4524,
      "Ġforms": 4525,
      "Ġprofit": 4526,
      "Ġrecorded": 4527,
      "Ġbelongs": 4528,
      "Ġiraqi": 4529,
      "Ġmicro": 4530,
      "Ġprimary": 4531,
      "Ġpermanent": 4532,
      "Ġreven": 4533,
      "oking": 4534,
      "Ġfollows": 4535,
      "Ġslaves": 4536,
      "Ġdeveloping": 4537,
      "Ġsigned": 4538,
      "Ġhighest": 4539,
      "Ġgermany": 4540,
      "Ġhat": 4541,
      "ana": 4542,
      "Ġalco": 4543,
      "Ġestim": 4544,
      "Ġcongregations": 4545,
      "Ġcarrying": 4546,
      "Ġbesides": 4547,
      "Ġvehicle": 4548,
      "Ġwound": 4549,
      "Ġinfect": 4550,
      "stood": 4551,
      "Ġrates": 4552,
      "Ġwrit": 4553,
      "Ġexpensive": 4554,
      "Ġfeels": 4555,
      "Ġdevices": 4556,
      "Ġfocused": 4557,
      "Ġexisting": 4558,
      "Ġsouthern": 4559,
      "Ġalb": 4560,
      "Ġreceiving": 4561,
      "Ġlesson": 4562,
      "Ġstayed": 4563,
      "Ġinstructions": 4564,
      "Ġyours": 4565,
      "Ġvital": 4566,
      "Ġimpl": 4567,
      "Ġclosed": 4568,
      "Ġworldwide": 4569,
      "Ġcars": 4570,
      "Ġfacing": 4571,
      "Ġrecognize": 4572,
      "Ġdogs": 4573,
      "iff": 4574,
      "Ġlikewise": 4575,
      "Ġcompared": 4576,
      "Ġestate": 4577,
      "Ġpope": 4578,
      "Ġgarment": 4579,
      "Ġassignment": 4580,
      "Ġdrop": 4581,
      "Ġquarter": 4582,
      "Ġaccurate": 4583,
      "Ġgad": 4584,
      "Ġgates": 4585,
      "Ġshar": 4586,
      "Ġbuying": 4587,
      "Ġends": 4588,
      "ception": 4589,
      "Ġtelling": 4590,
      "Ġinjury": 4591,
      "Ġtraditional": 4592,
      "Ġwond": 4593,
      "Ġshad": 4594,
      "Ġplenty": 4595,
      "Ġcoord": 4596,
      "Ġkeeps": 4597,
      "Ġcontinues": 4598,
      "Ġfallen": 4599,
      "Ġshepherd": 4600,
      "Ġviney": 4601,
      "Ġast": 4602,
      "Ġice": 4603,
      "Ġcharges": 4604,
      "Ġdivided": 4605,
      "Ġexalted": 4606,
      "coming": 4607,
      "Ġbac": 4608,
      "Ġlawy": 4609,
      "ughter": 4610,
      "rees": 4611,
      "Ġendure": 4612,
      "Ġtransgress": 4613,
      "Ġimperfect": 4614,
      "Ġanalysis": 4615,
      "Ġoath": 4616,
      "Ġvan": 4617,
      "apers": 4618,
      "Ġdiscover": 4619,
      "Ġprophecy": 4620,
      "Ġdivision": 4621,
      "Ġwindow": 4622,
      "Ġenvironmental": 4623,
      "Ġpursu": 4624,
      "Ġgro": 4625,
      "Ġepr": 4626,
      "entions": 4627,
      "Ġbutter": 4628,
      "osure": 4629,
      "Ġemerg": 4630,
      "Ġturning": 4631,
      "Ġmulti": 4632,
      "point": 4633,
      "owed": 4634,
      "Ġprosec": 4635,
      "chan": 4636,
      "Ġindia": 4637,
      "Ġhighlight": 4638,
      "Ġchose": 4639,
      "Ġtells": 4640,
      "Ġrecognized": 4641,
      "Ġsanctuary": 4642,
      "Ġhide": 4643,
      "Ġinqu": 4644,
      "Ġincl": 4645,
      "irt": 4646,
      "Ġsem": 4647,
      "Ġenable": 4648,
      "Ġletters": 4649,
      "Ġrelatives": 4650,
      "Ġentry": 4651,
      "Ġveget": 4652,
      "Ġsupported": 4653,
      "Ġsending": 4654,
      "Ġdeclared": 4655,
      "Ġrussia": 4656,
      "Ġsuddenly": 4657,
      "Ġlying": 4658,
      "Ġrender": 4659,
      "Ġspo": 4660,
      "Ġspiritually": 4661,
      "Ġdiscovered": 4662,
      "Ġgreek": 4663,
      "rant": 4664,
      "Ġcab": 4665,
      "icking": 4666,
      "Ġseal": 4667,
      "Ġreply": 4668,
      "Ġrefused": 4669,
      "Ġgenerally": 4670,
      "Ġmerci": 4671,
      "Ġappears": 4672,
      "Ġshopping": 4673,
      "Ġmethods": 4674,
      "Ġpillars": 4675,
      "overy": 4676,
      "asp": 4677,
      "Ġken": 4678,
      "usted": 4679,
      "Ġherself": 4680,
      "Ġcritic": 4681,
      "Ġexplore": 4682,
      "Ġinfo": 4683,
      "Ġideal": 4684,
      "Ġtreated": 4685,
      "ox": 4686,
      "word": 4687,
      "Ġdelic": 4688,
      "Ġfee": 4689,
      "Ġguy": 4690,
      "Ġarms": 4691,
      "Ġcommunities": 4692,
      "Ġexplains": 4693,
      "Ġinternal": 4694,
      "Ġdeeply": 4695,
      "Ġappearance": 4696,
      "Ġclothes": 4697,
      "Ġcertificate": 4698,
      "Ġbure": 4699,
      "Ġneck": 4700,
      "Ġaccused": 4701,
      "Ġafterward": 4702,
      "Ġhandle": 4703,
      "Ġdrinking": 4704,
      "Ġtraveling": 4705,
      "Ġdepending": 4706,
      "clusion": 4707,
      "bon": 4708,
      "cast": 4709,
      "Ġber": 4710,
      "Ġmah": 4711,
      "Ġnic": 4712,
      "etic": 4713,
      "Ġsha": 4714,
      "Ġspan": 4715,
      "Ġshel": 4716,
      "Ġgrateful": 4717,
      "Ġphi": 4718,
      "Ġfactors": 4719,
      "Ġpreviously": 4720,
      "Ġmachine": 4721,
      "Ġvaluable": 4722,
      "gs": 4723,
      "road": 4724,
      "Ġlovely": 4725,
      "Ġappreciation": 4726,
      "Ġintelligence": 4727,
      "Ġton": 4728,
      "Ġsuf": 4729,
      "Ġunits": 4730,
      "Ġunlike": 4731,
      "Ġcourty": 4732,
      "Ġlasting": 4733,
      "Ġadvis": 4734,
      "Ġfiles": 4735,
      "Ġillustration": 4736,
      "Ġprivilege": 4737,
      "Ġaustralia": 4738,
      "Ġpu": 4739,
      "oms": 4740,
      "Ġchann": 4741,
      "Ġpharise": 4742,
      "Ġadults": 4743,
      "Ġvillage": 4744,
      "Ġbare": 4745,
      "Ġstorm": 4746,
      "ilty": 4747,
      "Ġdecades": 4748,
      "Ġretail": 4749,
      "Ġlargest": 4750,
      "Ġdivor": 4751,
      "Ġmovement": 4752,
      "Ġapplications": 4753,
      "Ġdim": 4754,
      "Ġnah": 4755,
      "Ġstudying": 4756,
      "Ġprophes": 4757,
      "Ġemployer": 4758,
      "Ġforgiveness": 4759,
      "Ġpolicies": 4760,
      "Ġcharacters": 4761,
      "Ġcas": 4762,
      "Ġpreach": 4763,
      "Ġhanded": 4764,
      "Ġreaders": 4765,
      "Ġpatience": 4766,
      "Ġbitter": 4767,
      "Ġaccompan": 4768,
      "Ġfrench": 4769,
      "itics": 4770,
      "Ġbrown": 4771,
      "cket": 4772,
      "Ġorders": 4773,
      "Ġcollabor": 4774,
      "Ġrelationships": 4775,
      "Ġinnoc": 4776,
      "Ġtelevision": 4777,
      "Ġsports": 4778,
      "Ġaspects": 4779,
      "Ġopinion": 4780,
      "Ġox": 4781,
      "Ġtob": 4782,
      "Ġbeach": 4783,
      "idge": 4784,
      "holic": 4785,
      "Ġali": 4786,
      "Ġtherein": 4787,
      "Ġinspect": 4788,
      "Ġlessons": 4789,
      "Ġrulers": 4790,
      "Ġinstitution": 4791,
      "Ġtwenty": 4792,
      "Ġfunctions": 4793,
      "Ġscripture": 4794,
      "Ġwalls": 4795,
      "Ġhill": 4796,
      "Ġgall": 4797,
      "iega": 4798,
      "Ġguilt": 4799,
      "icted": 4800,
      "Ġhumble": 4801,
      "Ġnoriega": 4802,
      "Ġextend": 4803,
      "Ġschol": 4804,
      "Ġjewish": 4805,
      "Ġguests": 4806,
      "Ġchemical": 4807,
      "Ġhoney": 4808,
      "istics": 4809,
      "Ġsmo": 4810,
      "Ġcreatures": 4811,
      "Ġcalamity": 4812,
      "Ġbars": 4813,
      "Ġbones": 4814,
      "Ġlion": 4815,
      "arian": 4816,
      "Ġproceed": 4817,
      "Ġmechan": 4818,
      "Ġves": 4819,
      "Ġunderstood": 4820,
      "ogue": 4821,
      "Ġwhereas": 4822,
      "Ġdipl": 4823,
      "Ġindependent": 4824,
      "Ġemotional": 4825,
      "Ġdeputy": 4826,
      "Ġmerciful": 4827,
      "Ġsuffered": 4828,
      "la": 4829,
      "Ġproof": 4830,
      "Ġcattle": 4831,
      "Ġcompetition": 4832,
      "Ġattorney": 4833,
      "Ġom": 4834,
      "ipe": 4835,
      "Ġjoint": 4836,
      "Ġhumility": 4837,
      "Ġpassing": 4838,
      "Ġdiet": 4839,
      "ological": 4840,
      "Ġphilipp": 4841,
      "Ġparticipate": 4842,
      "Ġcorner": 4843,
      "Ġmanufacture": 4844,
      "Ġdiplom": 4845,
      "orter": 4846,
      "Ġreact": 4847,
      "Ġselling": 4848,
      "Ġscore": 4849,
      "Ġprejud": 4850,
      "Ġdepth": 4851,
      "Ġdrag": 4852,
      "Ġtribulation": 4853,
      "Ġaffected": 4854,
      "Ġhebrew": 4855,
      "going": 4856,
      "Ġrare": 4857,
      "Ġmoab": 4858,
      "Ġbond": 4859,
      "Ġdelay": 4860,
      "Ġencouraged": 4861,
      "Ġselected": 4862,
      "Ġlibrary": 4863,
      "rain": 4864,
      "orough": 4865,
      "lear": 4866,
      "Ġheight": 4867,
      "Ġmanif": 4868,
      "Ġamend": 4869,
      "Ġprofessionals": 4870,
      "Ġlux": 4871,
      "Ġtotally": 4872,
      "Ġwednes": 4873,
      "Ġpioneer": 4874,
      "Ġcharged": 4875,
      "Ġequal": 4876,
      "Ġhidden": 4877,
      "Ġod": 4878,
      "ented": 4879,
      "Ġarg": 4880,
      "Ġunable": 4881,
      "Ġcompr": 4882,
      "Ġundert": 4883,
      "Ġedge": 4884,
      "Ġadvent": 4885,
      "Ġskill": 4886,
      "Ġkinds": 4887,
      "Ġmetal": 4888,
      "Ġfailure": 4889,
      "Ġflex": 4890,
      "Ġrejected": 4891,
      "Ġpalestinian": 4892,
      "ha": 4893,
      "time": 4894,
      "Ġconcept": 4895,
      "Ġchoices": 4896,
      "Ġpassion": 4897,
      "Ġsuggestions": 4898,
      "Ġbalance": 4899,
      "Ġupdate": 4900,
      "Ġbrief": 4901,
      "Ġdinner": 4902,
      "Ġfing": 4903,
      "Ġfol": 4904,
      "Ġsaith": 4905,
      "Ġfacilities": 4906,
      "Ġpublis": 4907,
      "Ġalbum": 4908,
      "com": 4909,
      "Ġdy": 4910,
      "Ġgil": 4911,
      "Ġvote": 4912,
      "Ġguilty": 4913,
      "Ġpossibly": 4914,
      "Ġturns": 4915,
      "Ġcounter": 4916,
      "Ġdriver": 4917,
      "Ġlamb": 4918,
      "Ġempty": 4919,
      "Ġvessel": 4920,
      "ias": 4921,
      "rors": 4922,
      "Ġforced": 4923,
      "Ġhaz": 4924,
      "Ġlock": 4925,
      "Ġsinned": 4926,
      "Ġincred": 4927,
      "Ġelim": 4928,
      "Ġvisited": 4929,
      "Ġconsidering": 4930,
      "Ġduty": 4931,
      "Ġsurrounding": 4932,
      "Ġmagazine": 4933,
      "bled": 4934,
      "with": 4935,
      "Ġsi": 4936,
      "Ġcontains": 4937,
      "Ġroyal": 4938,
      "Ġawes": 4939,
      "Ġlarger": 4940,
      "Ġgolden": 4941,
      "Ġresponsibilities": 4942,
      "Ġclaims": 4943,
      "Ġselection": 4944,
      "Ġdomestic": 4945,
      "Ġencouragement": 4946,
      "iar": 4947,
      "Ġcompon": 4948,
      "Ġoverw": 4949,
      "Ġprec": 4950,
      "Ġstrive": 4951,
      "Ġconsequences": 4952,
      "bre": 4953,
      "eration": 4954,
      "Ġinner": 4955,
      "thy": 4956,
      "pping": 4957,
      "Ġevident": 4958,
      "Ġelijah": 4959,
      "Ġadvanced": 4960,
      "Ġjonathan": 4961,
      "Ġbon": 4962,
      "asse": 4963,
      "Ġups": 4964,
      "Ġseriously": 4965,
      "Ġbiggest": 4966,
      "Ġsacrific": 4967,
      "Ġexcited": 4968,
      "Ġexciting": 4969,
      "Ġworshipp": 4970,
      "Ġmanifest": 4971,
      "Ġwednesday": 4972,
      "Ġgenu": 4973,
      "Ġresearc": 4974,
      "Ġresurrect": 4975,
      "Ġrepeated": 4976,
      "put": 4977,
      "Ġfan": 4978,
      "Ġmac": 4979,
      "Ġring": 4980,
      "Ġcompre": 4981,
      "Ġroof": 4982,
      "Ġsolid": 4983,
      "Ġpaying": 4984,
      "Ġbreast": 4985,
      "Ġfulfilled": 4986,
      "Ġinitial": 4987,
      "Ġawesome": 4988,
      "Ġtig": 4989,
      "sover": 4990,
      "Ġsuppl": 4991,
      "Ġcareful": 4992,
      "Ġcaptured": 4993,
      "Ġcelebrate": 4994,
      "Ġhyp": 4995,
      "Ġeprdf": 4996,
      "inating": 4997,
      "Ġpound": 4998,
      "Ġgib": 4999,
      "Ġfran": 5000,
      "Ġinteract": 5001,
      "Ġwickedness": 5002,
      "Ġstreets": 5003,
      "Ġlinen": 5004,
      "pal": 5005,
      "Ġfought": 5006,
      "Ġrely": 5007,
      "Ġforb": 5008,
      "Ġonto": 5009,
      "amm": 5010,
      "Ġplants": 5011,
      "Ġfamine": 5012,
      "Ġdetest": 5013,
      "Ġvalid": 5014,
      "Ġbroke": 5015,
      "Ġkorea": 5016,
      "Ġtestimony": 5017,
      "Ġtherap": 5018,
      "Ġbeast": 5019,
      "iration": 5020,
      "Ġaccomm": 5021,
      "Ġrelief": 5022,
      "Ġattacks": 5023,
      "Ġlinks": 5024,
      "Ġvictory": 5025,
      "Ġpassover": 5026,
      "Ġki": 5027,
      "Ġlips": 5028,
      "Ġtrained": 5029,
      "Ġcompens": 5030,
      "Ġwrath": 5031,
      "Ġsymb": 5032,
      "Ġwarri": 5033,
      "Ġconflict": 5034,
      "Ġprotest": 5035,
      "edience": 5036,
      "Ġaccommod": 5037,
      "asc": 5038,
      "raim": 5039,
      "Ġmap": 5040,
      "Ġmaxim": 5041,
      "Ġmoon": 5042,
      "Ġcleaning": 5043,
      "Ġfunds": 5044,
      "Ġcards": 5045,
      "Ġoffe": 5046,
      "aded": 5047,
      "Ġdisaster": 5048,
      "Ġwherever": 5049,
      "Ġoperation": 5050,
      "Ġtenth": 5051,
      "Ġsenior": 5052,
      "Ġscientific": 5053,
      "Ġgenuine": 5054,
      "Ġsought": 5055,
      "usion": 5056,
      "eta": 5057,
      "Ġboat": 5058,
      "ilead": 5059,
      "Ġfinance": 5060,
      "Ġswit": 5061,
      "Ġteams": 5062,
      "orters": 5063,
      "Ġleaves": 5064,
      "Ġoffices": 5065,
      "Ġboys": 5066,
      "Ġindic": 5067,
      "Ġextended": 5068,
      "Ġexistence": 5069,
      "Ġcd": 5070,
      "Ġly": 5071,
      "aria": 5072,
      "Ġstor": 5073,
      "Ġwaste": 5074,
      "Ġkm": 5075,
      "Ġimposs": 5076,
      "Ġcurse": 5077,
      "Ġvisitors": 5078,
      "Ġrecords": 5079,
      "Ġfifth": 5080,
      "Ġoverwhel": 5081,
      "itute": 5082,
      "Ġrap": 5083,
      "Ġsel": 5084,
      "Ġclim": 5085,
      "Ġwriter": 5086,
      "Ġadding": 5087,
      "Ġbask": 5088,
      "Ġdiag": 5089,
      "Ġcalif": 5090,
      "Ġvideos": 5091,
      "Ġephraim": 5092,
      "Ġfoolish": 5093,
      "Ġvirgin": 5094,
      "zer": 5095,
      "Ġnuc": 5096,
      "Ġish": 5097,
      "Ġrub": 5098,
      "bert": 5099,
      "Ġdesert": 5100,
      "Ġtwice": 5101,
      "Ġflor": 5102,
      "Ġmostly": 5103,
      "Ġgovernor": 5104,
      "inese": 5105,
      "bi": 5106,
      "Ġvast": 5107,
      "ander": 5108,
      "Ġincor": 5109,
      "Ġpair": 5110,
      "Ġleads": 5111,
      "Ġrestrict": 5112,
      "Ġdiscussed": 5113,
      "Ġangry": 5114,
      "ador": 5115,
      "Ġconc": 5116,
      "Ġenforce": 5117,
      "Ġtwitter": 5118,
      "Ġpositions": 5119,
      "Ġwoe": 5120,
      "Ġexpression": 5121,
      "Ġviolent": 5122,
      "uces": 5123,
      "Ġcontribution": 5124,
      "Ġdangerous": 5125,
      "Ġprofessor": 5126,
      "Ġpoured": 5127,
      "utor": 5128,
      "rop": 5129,
      "Ġdeut": 5130,
      "ope": 5131,
      "Ġchinese": 5132,
      "Ġregards": 5133,
      "Ġcommandment": 5134,
      "Ġfacts": 5135,
      "Ġproperties": 5136,
      "Ġsuperv": 5137,
      "Ġrecommended": 5138,
      "clusive": 5139,
      "Ġtears": 5140,
      "Ġfrance": 5141,
      "Ġgosp": 5142,
      "ishing": 5143,
      "Ġextent": 5144,
      "Ġpastures": 5145,
      "Ġwinning": 5146,
      "Ġmissing": 5147,
      "Ġburned": 5148,
      "Ġrebell": 5149,
      "Ġemergency": 5150,
      "Ġruth": 5151,
      "Ġcris": 5152,
      "Ġhappening": 5153,
      "Ġworthy": 5154,
      "Ġtouched": 5155,
      "Ġvolume": 5156,
      "Ġunfortun": 5157,
      "Ġrestaurant": 5158,
      "Ġalternative": 5159,
      "Ġpharisees": 5160,
      "aud": 5161,
      "Ġrah": 5162,
      "Ġactual": 5163,
      "Ġmistakes": 5164,
      "ney": 5165,
      "Ġthread": 5166,
      "Ġfees": 5167,
      "Ġminor": 5168,
      "Ġdivine": 5169,
      "Ġoptim": 5170,
      "Ġarchit": 5171,
      "Ġinnocent": 5172,
      "Ġimpossible": 5173,
      "Ġdu": 5174,
      "Ġexposed": 5175,
      "Ġstarts": 5176,
      "Ġdepos": 5177,
      "Ġdraft": 5178,
      "Ġwrongdo": 5179,
      "Ġliterature": 5180,
      "Ġcaliforn": 5181,
      "isc": 5182,
      "Ġnotes": 5183,
      "Ġcham": 5184,
      "Ġgoats": 5185,
      "Ġabroad": 5186,
      "Ġada": 5187,
      "Ġrod": 5188,
      "Ġacted": 5189,
      "Ġmonitor": 5190,
      "Ġprompt": 5191,
      "Ġfoods": 5192,
      "Ġoperations": 5193,
      "Ġarrested": 5194,
      "Ġchronic": 5195,
      "Ġreference": 5196,
      "ida": 5197,
      "Ġorom": 5198,
      "Ġlivest": 5199,
      "Ġqueen": 5200,
      "Ġflat": 5201,
      "Ġpeaceful": 5202,
      "Ġtemporary": 5203,
      "Ġintegrity": 5204,
      "Ġentertainment": 5205,
      "Ġpregnant": 5206,
      "nal": 5207,
      "iture": 5208,
      "itors": 5209,
      "nty": 5210,
      "Ġunit": 5211,
      "Ġcompar": 5212,
      "Ġproperly": 5213,
      "Ġregardless": 5214,
      "Ġloyalty": 5215,
      "Ġconvinced": 5216,
      "Ġgilead": 5217,
      "acles": 5218,
      "Ġremo": 5219,
      "Ġemph": 5220,
      "Ġeastern": 5221,
      "Ġbathroom": 5222,
      "nel": 5223,
      "Ġmate": 5224,
      "Ġdump": 5225,
      "uting": 5226,
      "Ġsees": 5227,
      "erson": 5228,
      "Ġcurs": 5229,
      "Ġminds": 5230,
      "Ġdrawn": 5231,
      "Ġpursue": 5232,
      "Ġcourtyard": 5233,
      "Ġstorage": 5234,
      "Ġnuclear": 5235,
      "rim": 5236,
      "Ġcried": 5237,
      "Ġscar": 5238,
      "Ġisraeli": 5239,
      "Ġministers": 5240,
      "Ġdecor": 5241,
      "Ġtowns": 5242,
      "Ġestablishment": 5243,
      "iciency": 5244,
      "Ġpatriarch": 5245,
      "inations": 5246,
      "Ġride": 5247,
      "Ġspl": 5248,
      "Ġanywhere": 5249,
      "Ġquant": 5250,
      "Ġscale": 5251,
      "Ġroll": 5252,
      "Ġcolors": 5253,
      "Ġmoral": 5254,
      "Ġpreparation": 5255,
      "Ġamericans": 5256,
      "Ġperformed": 5257,
      "Ġcalm": 5258,
      "Ġmagic": 5259,
      "Ġscientists": 5260,
      "Ġapplied": 5261,
      "Ġarchitect": 5262,
      "Ġlivestock": 5263,
      "Ġaoh": 5264,
      "using": 5265,
      "hop": 5266,
      "anged": 5267,
      "Ġsufficient": 5268,
      "Ġsatisfaction": 5269,
      "Ġreferred": 5270,
      "Ġabandoned": 5271,
      "Ġfantastic": 5272,
      "Ġnaz": 5273,
      "Ġstir": 5274,
      "Ġconqu": 5275,
      "Ġmarry": 5276,
      "Ġfault": 5277,
      "Ġoperating": 5278,
      "Ġsubmitted": 5279,
      "Ġelements": 5280,
      "Ġmichael": 5281,
      "Ġcalifornia": 5282,
      "inent": 5283,
      "ading": 5284,
      "Ġvo": 5285,
      "Ġmemory": 5286,
      "Ġarmed": 5287,
      "Ġfavour": 5288,
      "Ġclosely": 5289,
      "Ġapartment": 5290,
      "Ġsurprise": 5291,
      "Ġbritain": 5292,
      "Ġwidow": 5293,
      "Ġbureau": 5294,
      "hib": 5295,
      "Ġwings": 5296,
      "Ġshield": 5297,
      "Ġunre": 5298,
      "Ġscene": 5299,
      "Ġentit": 5300,
      "Ġfamous": 5301,
      "Ġboundary": 5302,
      "Ġadopt": 5303,
      "ius": 5304,
      "Ġastr": 5305,
      "Ġmut": 5306,
      "Ġwherein": 5307,
      "Ġeducational": 5308,
      "Ġvictims": 5309,
      "Ġvehicles": 5310,
      "Ġelectronic": 5311,
      "Ġgent": 5312,
      "Ġperspect": 5313,
      "Ġcentre": 5314,
      "Ġsupporting": 5315,
      "Ġdriven": 5316,
      "Ġpriority": 5317,
      "Ġminimum": 5318,
      "eper": 5319,
      "har": 5320,
      "Ġnd": 5321,
      "onement": 5322,
      "abled": 5323,
      "Ġsecured": 5324,
      "Ġobst": 5325,
      "Ġwarned": 5326,
      "Ġsurger": 5327,
      "Ġegyptians": 5328,
      "Ġclasses": 5329,
      "Ġindustri": 5330,
      "Ġammad": 5331,
      "Ġambass": 5332,
      "Ġruin": 5333,
      "Ġriches": 5334,
      "Ġprejudice": 5335,
      "Ġought": 5336,
      "Ġmart": 5337,
      "Ġdining": 5338,
      "ignty": 5339,
      "Ġplain": 5340,
      "Ġpoll": 5341,
      "Ġawake": 5342,
      "Ġtrials": 5343,
      "Ġsovereignty": 5344,
      "holog": 5345,
      "Ġdeleg": 5346,
      "Ġsmooth": 5347,
      "ivers": 5348,
      "Ġbomb": 5349,
      "Ġpow": 5350,
      "ica": 5351,
      "Ġwearing": 5352,
      "raft": 5353,
      "anda": 5354,
      "ption": 5355,
      "Ġarise": 5356,
      "Ġovercome": 5357,
      "Ġgrass": 5358,
      "Ġassured": 5359,
      "Ġhoping": 5360,
      "Ġprayed": 5361,
      "Ġplayer": 5362,
      "Ġcolour": 5363,
      "Ġtopic": 5364,
      "Ġmotor": 5365,
      "Ġhospit": 5366,
      "uous": 5367,
      "Ġsod": 5368,
      "ato": 5369,
      "Ġii": 5370,
      "icip": 5371,
      "Ġfrust": 5372,
      "Ġmanasse": 5373,
      "Ġchoc": 5374,
      "Ġshoot": 5375,
      "Ġlifted": 5376,
      "Ġmanasseh": 5377,
      "Ġtplf": 5378,
      "Ġstead": 5379,
      "Ġtea": 5380,
      "Ġlake": 5381,
      "Ġgovernments": 5382,
      "Ġswear": 5383,
      "Ġgraph": 5384,
      "Ġverses": 5385,
      "Ġreminded": 5386,
      "Ġlifesty": 5387,
      "Ġobligation": 5388,
      "Ġcamera": 5389,
      "Ġingred": 5390,
      "Ġnegoti": 5391,
      "Ġmeles": 5392,
      "Ġsole": 5393,
      "Ġzar": 5394,
      "Ġmainten": 5395,
      "Ġallowing": 5396,
      "Ġbowl": 5397,
      "Ġlas": 5398,
      "Ġreform": 5399,
      "Ġfrank": 5400,
      "Ġron": 5401,
      "Ġatonement": 5402,
      "Ġfold": 5403,
      "Ġgrace": 5404,
      "Ġacting": 5405,
      "Ġdiscount": 5406,
      "Ġtesting": 5407,
      "Ġillness": 5408,
      "Ġaffection": 5409,
      "Ġguarantee": 5410,
      "Ġdismiss": 5411,
      "Ġnurs": 5412,
      "Ġcloth": 5413,
      "Ġschem": 5414,
      "Ġdescription": 5415,
      "Ġguided": 5416,
      "Ġsimon": 5417,
      "Ġvisual": 5418,
      "Ġdetailed": 5419,
      "Ġfurthermore": 5420,
      "Ġharmony": 5421,
      "Ġpackage": 5422,
      "Ġdollars": 5423,
      "Ġemphas": 5424,
      "Ġthick": 5425,
      "Ġeplf": 5426,
      "Ġeager": 5427,
      "alom": 5428,
      "ulous": 5429,
      "Ġupright": 5430,
      "Ġnearby": 5431,
      "Ġuniverse": 5432,
      "Ġidentified": 5433,
      "Ġcircumc": 5434,
      "after": 5435,
      "Ġsurprised": 5436,
      "Ġmixed": 5437,
      "Ġtight": 5438,
      "rews": 5439,
      "Ġpalm": 5440,
      "Ġhunt": 5441,
      "ulated": 5442,
      "Ġadvers": 5443,
      "Ġengaged": 5444,
      "Ġobserved": 5445,
      "Ġresolve": 5446,
      "Ġworshippers": 5447,
      "Ġresearchers": 5448,
      "Ġmaintenance": 5449,
      "Ġdur": 5450,
      "Ġshape": 5451,
      "Ġapple": 5452,
      "Ġprovin": 5453,
      "Ġexport": 5454,
      "Ġcake": 5455,
      "Ġeaten": 5456,
      "Ġcausing": 5457,
      "Ġdrawing": 5458,
      "Ġcontrast": 5459,
      "Ġflying": 5460,
      "Ġtower": 5461,
      "Ġthorough": 5462,
      "Ġnative": 5463,
      "ulate": 5464,
      "Ġidols": 5465,
      "Ġedition": 5466,
      "Ġsincere": 5467,
      "Ġruler": 5468,
      "Ġfootball": 5469,
      "Ġdescribe": 5470,
      "Ġinnov": 5471,
      "Ġbranches": 5472,
      "Ġalcohol": 5473,
      "Ġpursuant": 5474,
      "rast": 5475,
      "Ġnaked": 5476,
      "Ġspeaks": 5477,
      "Ġprotected": 5478,
      "Ġsilent": 5479,
      "cking": 5480,
      "urg": 5481,
      "Ġtruck": 5482,
      "Ġunex": 5483,
      "Ġshew": 5484,
      "Ġchoosing": 5485,
      "Ġconsideration": 5486,
      "Ġteachings": 5487,
      "Ġinterpret": 5488,
      "Ġillegal": 5489,
      "Ġadapt": 5490,
      "ext": 5491,
      "usting": 5492,
      "Ġtender": 5493,
      "Ġtwel": 5494,
      "Ġregret": 5495,
      "Ġevolution": 5496,
      "Ġcleans": 5497,
      "Ġpolitics": 5498,
      "Ġtreasure": 5499,
      "Ġstretch": 5500,
      "Ġfrequently": 5501,
      "craft": 5502,
      "Ġthess": 5503,
      "Ġcore": 5504,
      "Ġbearing": 5505,
      "verty": 5506,
      "Ġintention": 5507,
      "Ġdesk": 5508,
      "Ġpoverty": 5509,
      "Ġreput": 5510,
      "Ġsyria": 5511,
      "Ġbird": 5512,
      "Ġmuse": 5513,
      "Ġchallenging": 5514,
      "Ġmanaged": 5515,
      "Ġhttps": 5516,
      "Ġadvertising": 5517,
      "Ġcorporate": 5518,
      "Ġapparently": 5519,
      "Ġoce": 5520,
      "Ġmild": 5521,
      "Ġlit": 5522,
      "ales": 5523,
      "Ġchat": 5524,
      "ortion": 5525,
      "Ġteeth": 5526,
      "Ġstrange": 5527,
      "Ġdiscern": 5528,
      "Ġpraying": 5529,
      "Ġconnected": 5530,
      "Ġdreams": 5531,
      "Ġshekels": 5532,
      "uk": 5533,
      "uits": 5534,
      "yl": 5535,
      "Ġwithd": 5536,
      "Ġspect": 5537,
      "Ġleague": 5538,
      "Ġjoab": 5539,
      "ateral": 5540,
      "Ġplanet": 5541,
      "Ġbreaking": 5542,
      "Ġengland": 5543,
      "Ġdenied": 5544,
      "Ġschedul": 5545,
      "Ġprocedures": 5546,
      "Ġrecipe": 5547,
      "lines": 5548,
      "Ġaro": 5549,
      "Ġate": 5550,
      "Ġexcess": 5551,
      "Ġbutton": 5552,
      "Ġspouse": 5553,
      "Ġplot": 5554,
      "Ġroot": 5555,
      "Ġthrown": 5556,
      "icks": 5557,
      "Ġincense": 5558,
      "Ġvisiting": 5559,
      "Ġcenturies": 5560,
      "Ġdevast": 5561,
      "Ġmarkets": 5562,
      "Ġped": 5563,
      "aints": 5564,
      "Ġenh": 5565,
      "Ġdiss": 5566,
      "board": 5567,
      "Ġnetwor": 5568,
      "Ġlabour": 5569,
      "Ġsimilarly": 5570,
      "Ġinjust": 5571,
      "Ġepis": 5572,
      "Ġfixed": 5573,
      "while": 5574,
      "Ġsurgery": 5575,
      "Ġpater": 5576,
      "Ġjump": 5577,
      "Ġprohib": 5578,
      "Ġcontem": 5579,
      "ologies": 5580,
      "Ġspecified": 5581,
      "Ġcontribute": 5582,
      "Ġchariots": 5583,
      "equ": 5584,
      "giving": 5585,
      "zen": 5586,
      "uses": 5587,
      "Ġexile": 5588,
      "Ġregime": 5589,
      "Ġreliable": 5590,
      "Ġcrown": 5591,
      "Ġearthly": 5592,
      "Ġplanned": 5593,
      "Ġcolon": 5594,
      "Ġacceptable": 5595,
      "Ġchiefs": 5596,
      "Ġhebrews": 5597,
      "Ġbaptism": 5598,
      "Ġbeside": 5599,
      "Ġroutine": 5600,
      "Ġtickets": 5601,
      "acious": 5602,
      "Ġchie": 5603,
      "Ġmyster": 5604,
      "Ġbride": 5605,
      "Ġnovel": 5606,
      "Ġanyway": 5607,
      "Ġemer": 5608,
      "Ġassum": 5609,
      "Ġcoverage": 5610,
      "Ġfamiliar": 5611,
      "Ġpanel": 5612,
      "Ġpenal": 5613,
      "Ġchocolate": 5614,
      "Ġchieft": 5615,
      "fall": 5616,
      "oo": 5617,
      "atically": 5618,
      "ula": 5619,
      "Ġgoat": 5620,
      "Ġamen": 5621,
      "Ġimpress": 5622,
      "Ġsimpl": 5623,
      "Ġpublications": 5624,
      "arsh": 5625,
      "Ġauthorized": 5626,
      "Ġcapable": 5627,
      "Ġgeorge": 5628,
      "Ġreviews": 5629,
      "Ġconsumers": 5630,
      "Ġjudgments": 5631,
      "Ġdetestable": 5632,
      "Ġpaternal": 5633,
      "Ġpush": 5634,
      "Ġdrew": 5635,
      "omp": 5636,
      "Ġrein": 5637,
      "Ġhero": 5638,
      "Ġisl": 5639,
      "Ġstumb": 5640,
      "Ġagric": 5641,
      "Ġresidence": 5642,
      "Ġpreserve": 5643,
      "Ġrefuse": 5644,
      "Ġextensive": 5645,
      "Ġdealing": 5646,
      "Ġidentity": 5647,
      "Ġfirmly": 5648,
      "Ġcomprehens": 5649,
      "Ġunfortunately": 5650,
      "lin": 5651,
      "old": 5652,
      "Ġtun": 5653,
      "Ġbot": 5654,
      "Ġhan": 5655,
      "ali": 5656,
      "Ġrd": 5657,
      "Ġoutd": 5658,
      "Ġpromotion": 5659,
      "Ġdirectives": 5660,
      "Ġrestore": 5661,
      "look": 5662,
      "Ġpurposes": 5663,
      "Ġsudan": 5664,
      "Ġpermission": 5665,
      "Ġoccurred": 5666,
      "rated": 5667,
      "Ġwave": 5668,
      "Ġdating": 5669,
      "Ġnas": 5670,
      "Ġrab": 5671,
      "Ġeditor": 5672,
      "Ġclaimed": 5673,
      "Ġresolution": 5674,
      "Ġclouds": 5675,
      "Ġsurvive": 5676,
      "Ġcommitment": 5677,
      "Ġlifestyle": 5678,
      "Ġtwelve": 5679,
      "Ġagricult": 5680,
      "Ġtines": 5681,
      "Ġconclusion": 5682,
      "Ġtheme": 5683,
      "Ġpron": 5684,
      "Ġimmig": 5685,
      "Ġmuseum": 5686,
      "Ġbore": 5687,
      "Ġfans": 5688,
      "Ġpin": 5689,
      "Ġindian": 5690,
      "Ġbetray": 5691,
      "Ġsupposed": 5692,
      "Ġassets": 5693,
      "Ġswim": 5694,
      "Ġbegins": 5695,
      "Ġcollected": 5696,
      "Ġtalks": 5697,
      "Ġurban": 5698,
      "Ġspecifically": 5699,
      "Ġcooperation": 5700,
      "night": 5701,
      "Ġanc": 5702,
      "agues": 5703,
      "Ġmedium": 5704,
      "Ġfreely": 5705,
      "Ġsentence": 5706,
      "Ġpaint": 5707,
      "Ġinvolves": 5708,
      "Ġannounce": 5709,
      "Ġslaughter": 5710,
      "Ġexhib": 5711,
      "Ġhistorical": 5712,
      "Ġproposal": 5713,
      "Ġoffend": 5714,
      "Ġobedient": 5715,
      "Ġzone": 5716,
      "Ġslight": 5717,
      "Ġreduced": 5718,
      "Ġcalcul": 5719,
      "Ġwebsites": 5720,
      "Ġtalked": 5721,
      "Ġcultural": 5722,
      "Ġutil": 5723,
      "Ġattending": 5724,
      "Ġspokes": 5725,
      "Ġcherub": 5726,
      "Ġpartnership": 5727,
      "iques": 5728,
      "Ġsharp": 5729,
      "iver": 5730,
      "Ġft": 5731,
      "Ġdil": 5732,
      "Ġkiss": 5733,
      "Ġregions": 5734,
      "Ġadds": 5735,
      "Ġbelieves": 5736,
      "Ġredeem": 5737,
      "Ġsmaller": 5738,
      "Ġrachel": 5739,
      "Ġspoil": 5740,
      "Ġdelicious": 5741,
      "Ġbid": 5742,
      "Ġfier": 5743,
      "Ġyield": 5744,
      "ushing": 5745,
      "Ġjun": 5746,
      "Ġtex": 5747,
      "Ġaftern": 5748,
      "Ġrecon": 5749,
      "Ġarts": 5750,
      "Ġsmile": 5751,
      "Ġexplan": 5752,
      "Ġdestination": 5753,
      "Ġthirty": 5754,
      "Ġtraveled": 5755,
      "Ġpainful": 5756,
      "Ġrivers": 5757,
      "Ġdemocracy": 5758,
      "Ġfeedback": 5759,
      "Ġvacation": 5760,
      "edia": 5761,
      "Ġnoted": 5762,
      "Ġcompare": 5763,
      "Ġprovider": 5764,
      "Ġsurvey": 5765,
      "Ġcompanions": 5766,
      "Ġdifferences": 5767,
      "Ġsearching": 5768,
      "Ġexceeding": 5769,
      "Ġsleeping": 5770,
      "Ġdrugs": 5771,
      "Ġsymbol": 5772,
      "Ġindustrial": 5773,
      "Ġtill": 5774,
      "Ġlest": 5775,
      "otions": 5776,
      "Ġspain": 5777,
      "agon": 5778,
      "ube": 5779,
      "Ġdistur": 5780,
      "Ġcerem": 5781,
      "Ġruling": 5782,
      "Ġbreakfast": 5783,
      "Ġpurchased": 5784,
      "Ġqualified": 5785,
      "Ġsadd": 5786,
      "Ġintroduced": 5787,
      "Ġimprisonment": 5788,
      "comm": 5789,
      "Ġezek": 5790,
      "Ġstup": 5791,
      "Ġnoticed": 5792,
      "Ġmexic": 5793,
      "Ġpreached": 5794,
      "Ġsets": 5795,
      "Ġhealing": 5796,
      "worthy": 5797,
      "Ġsuperior": 5798,
      "Ġtip": 5799,
      "Ġbind": 5800,
      "Ġmour": 5801,
      "Ġnathan": 5802,
      "Ġliqu": 5803,
      "Ġchal": 5804,
      "Ġoutcome": 5805,
      "Ġadul": 5806,
      "Ġperce": 5807,
      "Ġmonthly": 5808,
      "Ġconstruct": 5809,
      "Ġforgotten": 5810,
      "Ġinvolve": 5811,
      "Ġcircuit": 5812,
      "Ġmultitude": 5813,
      "Ġutter": 5814,
      "Ġprosper": 5815,
      "Ġaffordable": 5816,
      "Ġsynag": 5817,
      "Ġtough": 5818,
      "Ġlunch": 5819,
      "Ġnom": 5820,
      "Ġwilliam": 5821,
      "Ġwheat": 5822,
      "Ġabuse": 5823,
      "arted": 5824,
      "Ġages": 5825,
      "Ġbasically": 5826,
      "Ġtrem": 5827,
      "Ġrepresentative": 5828,
      "Ġresponded": 5829,
      "Ġdefeated": 5830,
      "Ġrejoicing": 5831,
      "ka": 5832,
      "Ġsom": 5833,
      "Ġthrew": 5834,
      "ulations": 5835,
      "Ġshed": 5836,
      "Ġremote": 5837,
      "Ġembr": 5838,
      "Ġflav": 5839,
      "Ġwarn": 5840,
      "Ġcheap": 5841,
      "Ġinfrast": 5842,
      "Ġdivers": 5843,
      "Ġabsalom": 5844,
      "Ġutens": 5845,
      "Ġwidely": 5846,
      "Ġconvenient": 5847,
      "Ġstupid": 5848,
      "Ġinfrastruct": 5849,
      "Ġouts": 5850,
      "Ġunle": 5851,
      "Ġmessages": 5852,
      "Ġcream": 5853,
      "Ġscriptural": 5854,
      "Ġtrading": 5855,
      "Ġweakness": 5856,
      "Ġneighborhood": 5857,
      "Ġscattered": 5858,
      "Ġnur": 5859,
      "otic": 5860,
      "Ġasia": 5861,
      "Ġfrag": 5862,
      "Ġworst": 5863,
      "Ġagent": 5864,
      "Ġeverywhere": 5865,
      "Ġwherefore": 5866,
      "Ġjudicial": 5867,
      "Ġsmoking": 5868,
      "Ġspeaker": 5869,
      "Ġlistened": 5870,
      "Ġcatholic": 5871,
      "Ġapplicable": 5872,
      "Ġcovering": 5873,
      "Ġrequested": 5874,
      "Ġparticipants": 5875,
      "Ġfarmers": 5876,
      "Ġsettled": 5877,
      "Ġstrategies": 5878,
      "Ġabundance": 5879,
      "Ġchairman": 5880,
      "ae": 5881,
      "care": 5882,
      "ford": 5883,
      "Ġfi": 5884,
      "Ġlod": 5885,
      "Ġkim": 5886,
      "Ġzi": 5887,
      "Ġjudged": 5888,
      "Ġstands": 5889,
      "Ġburden": 5890,
      "Ġtopics": 5891,
      "Ġprivacy": 5892,
      "Ġassociate": 5893,
      "ounce": 5894,
      "Ġurg": 5895,
      "Ġreigned": 5896,
      "Ġbreath": 5897,
      "Ġtemperature": 5898,
      "Ġimmorality": 5899,
      "Ġolive": 5900,
      "Ġdoctors": 5901,
      "Ġbasket": 5902,
      "Ġgospel": 5903,
      "Ġentitled": 5904,
      "Ġenhance": 5905,
      "Ġislam": 5906,
      "ervation": 5907,
      "Ġfiam": 5908,
      "Ġreb": 5909,
      "isted": 5910,
      "ferences": 5911,
      "Ġnobody": 5912,
      "Ġcontext": 5913,
      "Ġdeser": 5914,
      "Ġlegs": 5915,
      "Ġfacil": 5916,
      "Ġarrangement": 5917,
      "Ġfurniture": 5918,
      "Ġperspective": 5919,
      "iry": 5920,
      "Ġupper": 5921,
      "Ġseized": 5922,
      "Ġvow": 5923,
      "Ġobtained": 5924,
      "Ġhabit": 5925,
      "Ġconfirm": 5926,
      "Ġconcluded": 5927,
      "Ġbeliefs": 5928,
      "Ġacademic": 5929,
      "mark": 5930,
      "Ġtan": 5931,
      "Ġtired": 5932,
      "Ġhun": 5933,
      "Ġhind": 5934,
      "ald": 5935,
      "Ġbeer": 5936,
      "unning": 5937,
      "Ġrecovery": 5938,
      "Ġpleasing": 5939,
      "Ġforeto": 5940,
      "Ġcourses": 5941,
      "Ġdirective": 5942,
      "Ġfacility": 5943,
      "Ġconstant": 5944,
      "Ġencouraging": 5945,
      "Ġtalents": 5946,
      "Ġcomplaint": 5947,
      "Ġeffectively": 5948,
      "Ġforetold": 5949,
      "itating": 5950,
      "Ġhezek": 5951,
      "Ġspons": 5952,
      "Ġserver": 5953,
      "Ġscrib": 5954,
      "aved": 5955,
      "Ġzech": 5956,
      "Ġincident": 5957,
      "Ġsolve": 5958,
      "Ġalongside": 5959,
      "Ġahab": 5960,
      "Ġphilos": 5961,
      "Ġfaithfulness": 5962,
      "Ġsuggested": 5963,
      "Ġmassive": 5964,
      "Ġfiameta": 5965,
      "Ġhezekiah": 5966,
      "lim": 5967,
      "encing": 5968,
      "Ġthres": 5969,
      "ariah": 5970,
      "Ġyog": 5971,
      "oma": 5972,
      "Ġweig": 5973,
      "essions": 5974,
      "Ġloan": 5975,
      "Ġindicate": 5976,
      "Ġflo": 5977,
      "Ġowned": 5978,
      "Ġslain": 5979,
      "Ġparli": 5980,
      "Ġenjoying": 5981,
      "Ġthanksgiving": 5982,
      "Ġforgiving": 5983,
      "cribed": 5984,
      "Ġhousing": 5985,
      "Ġhorns": 5986,
      "Ġcabin": 5987,
      "Ġunexpected": 5988,
      "Ġaven": 5989,
      "Ġdial": 5990,
      "Ġner": 5991,
      "entially": 5992,
      "Ġchick": 5993,
      "Ġchamp": 5994,
      "Ġdisg": 5995,
      "Ġresort": 5996,
      "aker": 5997,
      "Ġpublication": 5998,
      "Ġprocesses": 5999,
      "Ġrams": 6000,
      "Ġengineering": 6001,
      "Ġutensils": 6002,
      "za": 6003,
      "Ġos": 6004,
      "Ġgained": 6005,
      "Ġrail": 6006,
      "Ġunw": 6007,
      "Ġshoulder": 6008,
      "Ġdesolate": 6009,
      "Ġawareness": 6010,
      "Ġgrief": 6011,
      "Ġpsyc": 6012,
      "Ġdivorce": 6013,
      "Ġpublishers": 6014,
      "Ġrapid": 6015,
      "ta": 6016,
      "inct": 6017,
      "rep": 6018,
      "Ġhire": 6019,
      "Ġdar": 6020,
      "Ġhes": 6021,
      "Ġdeals": 6022,
      "char": 6023,
      "Ġsup": 6024,
      "Ġagencies": 6025,
      "Ġfinds": 6026,
      "avened": 6027,
      "Ġparking": 6028,
      "Ġcongress": 6029,
      "Ġethiopians": 6030,
      "Ġcells": 6031,
      "Ġfalls": 6032,
      "Ġsuccessfully": 6033,
      "Ġturkey": 6034,
      "Ġpenalty": 6035,
      "ront": 6036,
      "Ġmc": 6037,
      "Ġdance": 6038,
      "odes": 6039,
      "Ġsuitable": 6040,
      "antic": 6041,
      "Ġintend": 6042,
      "arer": 6043,
      "Ġcriter": 6044,
      "Ġgoverning": 6045,
      "Ġdetect": 6046,
      "efully": 6047,
      "Ġstronger": 6048,
      "Ġafflict": 6049,
      "Ġmissed": 6050,
      "Ġteaches": 6051,
      "Ġimmediate": 6052,
      "Ġresource": 6053,
      "Ġgathering": 6054,
      "Ġfortified": 6055,
      "Ġammon": 6056,
      "Ġcompensation": 6057,
      "Ġarose": 6058,
      "acher": 6059,
      "istan": 6060,
      "Ġbold": 6061,
      "Ġspecies": 6062,
      "Ġsyr": 6063,
      "Ġlocations": 6064,
      "Ġexception": 6065,
      "Ġurged": 6066,
      "Ġsorts": 6067,
      "Ġephes": 6068,
      "Ġglorious": 6069,
      "Ġfulfillment": 6070,
      "Ġassessment": 6071,
      "Ġhungry": 6072,
      "eon": 6073,
      "ky": 6074,
      "pet": 6075,
      "ishes": 6076,
      "Ġrome": 6077,
      "Ġscr": 6078,
      "Ġrecru": 6079,
      "Ġexpenses": 6080,
      "Ġenth": 6081,
      "Ġcarri": 6082,
      "Ġdiscoura": 6083,
      "Ġdirected": 6084,
      "Ġjoyful": 6085,
      "Ġalmight": 6086,
      "Ġobviously": 6087,
      "Ġvineyard": 6088,
      "Ġocean": 6089,
      "Ġinjustice": 6090,
      "most": 6091,
      "off": 6092,
      "Ġfro": 6093,
      "edy": 6094,
      "Ġdies": 6095,
      "Ġsteal": 6096,
      "Ġwheel": 6097,
      "Ġaggress": 6098,
      "Ġsyri": 6099,
      "teen": 6100,
      "Ġelish": 6101,
      "Ġproposed": 6102,
      "Ġclassic": 6103,
      "Ġrequests": 6104,
      "Ġstores": 6105,
      "Ġopposite": 6106,
      "Ġshepherds": 6107,
      "Ġpulled": 6108,
      "Ġestimated": 6109,
      "Ġcrisis": 6110,
      "Ġalmighty": 6111,
      "Ġhills": 6112,
      "ille": 6113,
      "uls": 6114,
      "Ġgodly": 6115,
      "akers": 6116,
      "Ġinvite": 6117,
      "ifications": 6118,
      "Ġviewed": 6119,
      "Ġinspiration": 6120,
      "Ġmountainous": 6121,
      "Ġalex": 6122,
      "Ġwriters": 6123,
      "Ġambassador": 6124,
      "Ġparliament": 6125,
      "tic": 6126,
      "Ġreaching": 6127,
      "Ġhasn": 6128,
      "Ġplastic": 6129,
      "Ġplague": 6130,
      "Ġclergy": 6131,
      "Ġstring": 6132,
      "issions": 6133,
      "Ġdevoted": 6134,
      "Ġlinked": 6135,
      "Ġdeny": 6136,
      "Ġridic": 6137,
      "Ġabandon": 6138,
      "Ġdemonstrate": 6139,
      "Ġoutdoor": 6140,
      "oom": 6141,
      "Ġsack": 6142,
      "Ġclar": 6143,
      "Ġquote": 6144,
      "Ġlaunch": 6145,
      "Ġgender": 6146,
      "Ġdishon": 6147,
      "Ġafternoon": 6148,
      "house": 6149,
      "Ġharsh": 6150,
      "Ġlaugh": 6151,
      "Ġerrors": 6152,
      "Ġruns": 6153,
      "Ġtechniques": 6154,
      "Ġcutting": 6155,
      "Ġphysic": 6156,
      "Ġstrengthened": 6157,
      "Ġrental": 6158,
      "Ġmovies": 6159,
      "Ġmaximum": 6160,
      "Ġinfrastructure": 6161,
      "Ġsessions": 6162,
      "Ġwire": 6163,
      "Ġbay": 6164,
      "Ġchain": 6165,
      "anta": 6166,
      "Ġouter": 6167,
      "Ġattended": 6168,
      "Ġartist": 6169,
      "Ġapproached": 6170,
      "Ġorganis": 6171,
      "Ġmembership": 6172,
      "Ġdispute": 6173,
      "Ġtransportation": 6174,
      "Ġdistribution": 6175,
      "Ġacknowled": 6176,
      "Ġtherapy": 6177,
      "bling": 6178,
      "dy": 6179,
      "mer": 6180,
      "Ġced": 6181,
      "Ġnar": 6182,
      "Ġbeasts": 6183,
      "lech": 6184,
      "umble": 6185,
      "Ġcovers": 6186,
      "Ġunright": 6187,
      "Ġdesired": 6188,
      "Ġawa": 6189,
      "Ġwars": 6190,
      "Ġesau": 6191,
      "Ġsalary": 6192,
      "Ġworthless": 6193,
      "Ġcooking": 6194,
      "Ġpleasant": 6195,
      "Ġlambs": 6196,
      "Ġflocks": 6197,
      "Ġtasks": 6198,
      "Ġlosing": 6199,
      "Ġscholars": 6200,
      "Ġunrighteous": 6201,
      "cher": 6202,
      "Ġite": 6203,
      "Ġkir": 6204,
      "ifies": 6205,
      "Ġanymore": 6206,
      "Ġfeared": 6207,
      "Ġlaun": 6208,
      "Ġconsp": 6209,
      "Ġmenu": 6210,
      "Ġinformed": 6211,
      "Ġbuildings": 6212,
      "Ġentering": 6213,
      "Ġefficiency": 6214,
      "Ġarrive": 6215,
      "Ġapplying": 6216,
      "Ġlady": 6217,
      "Ġstrategic": 6218,
      "Ġconceal": 6219,
      "Ġtort": 6220,
      "rer": 6221,
      "Ġbul": 6222,
      "Ġtail": 6223,
      "Ġremark": 6224,
      "Ġzemen": 6225,
      "Ġhealed": 6226,
      "Ġinvestors": 6227,
      "Ġvictim": 6228,
      "Ġcontrary": 6229,
      "Ġmurder": 6230,
      "Ġinstruments": 6231,
      "Ġrevenue": 6232,
      "Ġhypocr": 6233,
      "Ġenforcement": 6234,
      "rets": 6235,
      "Ġder": 6236,
      "Ġnail": 6237,
      "ache": 6238,
      "outs": 6239,
      "Ġgoodness": 6240,
      "licted": 6241,
      "Ġexamination": 6242,
      "Ġcontinuing": 6243,
      "Ġdistract": 6244,
      "Ġprofile": 6245,
      "Ġcommunion": 6246,
      "Ġweekly": 6247,
      "Ġshortly": 6248,
      "Ġinstallation": 6249,
      "ya": 6250,
      "Ġment": 6251,
      "ette": 6252,
      "Ġfruits": 6253,
      "Ġrum": 6254,
      "Ġfeast": 6255,
      "Ġattrib": 6256,
      "Ġprize": 6257,
      "Ġstudied": 6258,
      "Ġraising": 6259,
      "Ġtechnologies": 6260,
      "Ġfiled": 6261,
      "Ġperfectly": 6262,
      "Ġauto": 6263,
      "Ġzeb": 6264,
      "Ġwarriors": 6265,
      "bing": 6266,
      "Ġcos": 6267,
      "icious": 6268,
      "Ġasa": 6269,
      "Ġcanad": 6270,
      "Ġboost": 6271,
      "Ġhopefully": 6272,
      "Ġaccounting": 6273,
      "Ġtests": 6274,
      "Ġprevail": 6275,
      "Ġlicens": 6276,
      "Ġinstalled": 6277,
      "known": 6278,
      "Ġreputation": 6279,
      "eys": 6280,
      "och": 6281,
      "Ġai": 6282,
      "Ġwra": 6283,
      "Ġcart": 6284,
      "Ġthom": 6285,
      "Ġga": 6286,
      "idays": 6287,
      "Ġtables": 6288,
      "Ġreside": 6289,
      "Ġnewly": 6290,
      "Ġflowers": 6291,
      "Ġstudio": 6292,
      "Ġnumbered": 6293,
      "Ġcurtain": 6294,
      "Ġcommunicate": 6295,
      "Ġseconds": 6296,
      "Ġstatutes": 6297,
      "Ġinjured": 6298,
      "Ġcombination": 6299,
      "Ġtonight": 6300,
      "Ġchannel": 6301,
      "Ġdiagn": 6302,
      "Ġdumpster": 6303,
      "Ġcursed": 6304,
      "gers": 6305,
      "Ġtall": 6306,
      "Ġcu": 6307,
      "Ġanoint": 6308,
      "Ġseats": 6309,
      "Ġorange": 6310,
      "Ġconcent": 6311,
      "Ġassy": 6312,
      "Ġdiam": 6313,
      "Ġprogramme": 6314,
      "Ġfears": 6315,
      "Ġtaxes": 6316,
      "hd": 6317,
      "iast": 6318,
      "Ġtents": 6319,
      "Ġporn": 6320,
      "Ġtoler": 6321,
      "Ġease": 6322,
      "Ġeternal": 6323,
      "Ġherod": 6324,
      "Ġkil": 6325,
      "orders": 6326,
      "Ġphra": 6327,
      "Ġletting": 6328,
      "Ġcaring": 6329,
      "Ġtransm": 6330,
      "Ġbigger": 6331,
      "Ġfunding": 6332,
      "Ġdomin": 6333,
      "Ġmerely": 6334,
      "Ġip": 6335,
      "Ġpicked": 6336,
      "Ġdow": 6337,
      "Ġdental": 6338,
      "rol": 6339,
      "Ġasks": 6340,
      "Ġrising": 6341,
      "Ġshock": 6342,
      "Ġcoal": 6343,
      "Ġimpressed": 6344,
      "Ġende": 6345,
      "Ġcourts": 6346,
      "Ġreceives": 6347,
      "Ġaircraft": 6348,
      "Ġsanctified": 6349,
      "Ġpsalms": 6350,
      "Ġdiseases": 6351,
      "Ġgalile": 6352,
      "Ġcultivate": 6353,
      "Ġastray": 6354,
      "Ġhu": 6355,
      "Ġintense": 6356,
      "Ġsomewhere": 6357,
      "Ġserves": 6358,
      "inton": 6359,
      "Ġsinners": 6360,
      "Ġpreparing": 6361,
      "Ġperforming": 6362,
      "Ġwondering": 6363,
      "Ġexecute": 6364,
      "Ġinstitute": 6365,
      "Ġtelecomm": 6366,
      "Ġresolved": 6367,
      "Ġconsultation": 6368,
      "Ġsympt": 6369,
      "Ġobvious": 6370,
      "Ġforbid": 6371,
      "Ġdilig": 6372,
      "Ġpsycholog": 6373,
      "iest": 6374,
      "pent": 6375,
      "Ġsid": 6376,
      "alous": 6377,
      "ota": 6378,
      "ston": 6379,
      "Ġrand": 6380,
      "ching": 6381,
      "Ġsaving": 6382,
      "Ġvary": 6383,
      "Ġindicated": 6384,
      "Ġrelation": 6385,
      "Ġcontinually": 6386,
      "Ġdemons": 6387,
      "Ġadmit": 6388,
      "Ġdesigns": 6389,
      "Ġaccountable": 6390,
      "Ġcompetitive": 6391,
      "Ġgardens": 6392,
      "Ġterrible": 6393,
      "Ġremembered": 6394,
      "Ġluxury": 6395,
      "Ġingredients": 6396,
      "Ġcomprehensive": 6397,
      "aith": 6398,
      "bc": 6399,
      "Ġtiny": 6400,
      "Ġpor": 6401,
      "ingu": 6402,
      "Ġthorn": 6403,
      "Ġcoach": 6404,
      "Ġmold": 6405,
      "Ġgrade": 6406,
      "Ġconscious": 6407,
      "ocking": 6408,
      "Ġmodels": 6409,
      "Ġpraised": 6410,
      "Ġconsume": 6411,
      "Ġkilling": 6412,
      "Ġcrazy": 6413,
      "Ġconsistent": 6414,
      "Ġshadow": 6415,
      "Ġspanish": 6416,
      "inc": 6417,
      "asy": 6418,
      "Ġships": 6419,
      "Ġatm": 6420,
      "Ġjeph": 6421,
      "Ġupcoming": 6422,
      "Ġgrat": 6423,
      "Ġrestored": 6424,
      "Ġtreaty": 6425,
      "Ġstaying": 6426,
      "onomy": 6427,
      "Ġassociations": 6428,
      "Ġdispos": 6429,
      "Ġdedication": 6430,
      "Ġupdates": 6431,
      "Ġpioneers": 6432,
      "Ġconfirmed": 6433,
      "Ġoromia": 6434,
      "Ġfasc": 6435,
      "Ġhaile": 6436,
      "Ġdeploy": 6437,
      "Ġshipping": 6438,
      "Ġbrows": 6439,
      "Ġunp": 6440,
      "Ġquit": 6441,
      "Ġphr": 6442,
      "Ġdecre": 6443,
      "Ġcouples": 6444,
      "Ġapproxim": 6445,
      "Ġparis": 6446,
      "Ġfactor": 6447,
      "Ġrevolution": 6448,
      "Ġbeneficial": 6449,
      "Ġlights": 6450,
      "Ġstrongly": 6451,
      "Ġholds": 6452,
      "Ġdivide": 6453,
      "Ġmeasured": 6454,
      "Ġoperate": 6455,
      "Ġlabel": 6456,
      "Ġshoes": 6457,
      "Ġsanctify": 6458,
      "Ġessay": 6459,
      "Ġacquire": 6460,
      "Ġgrie": 6461,
      "Ġanxious": 6462,
      "Ġitaly": 6463,
      "Ġflorida": 6464,
      "Ġendeav": 6465,
      "cht": 6466,
      "field": 6467,
      "rate": 6468,
      "sy": 6469,
      "Ġwages": 6470,
      "Ġire": 6471,
      "Ġdw": 6472,
      "Ġdates": 6473,
      "Ġsect": 6474,
      "Ġvit": 6475,
      "Ġcorresp": 6476,
      "Ġcreature": 6477,
      "Ġsupports": 6478,
      "Ġcease": 6479,
      "Ġexpectations": 6480,
      "Ġdetermination": 6481,
      "Ġbanks": 6482,
      "Ġsurrounded": 6483,
      "Ġresurrected": 6484,
      "Ġcorrespond": 6485,
      "Ġmig": 6486,
      "Ġpump": 6487,
      "Ġgay": 6488,
      "icide": 6489,
      "leep": 6490,
      "Ġhez": 6491,
      "Ġongoing": 6492,
      "urally": 6493,
      "imately": 6494,
      "illing": 6495,
      "Ġtag": 6496,
      "ibl": 6497,
      "Ġtrail": 6498,
      "Ġpresentation": 6499,
      "Ġprince": 6500,
      "lands": 6501,
      "Ġentirely": 6502,
      "Ġadultery": 6503,
      "kin": 6504,
      "Ġlah": 6505,
      "Ġhey": 6506,
      "Ġasleep": 6507,
      "Ġshares": 6508,
      "Ġneut": 6509,
      "Ġexternal": 6510,
      "Ġsuit": 6511,
      "Ġarrog": 6512,
      "Ġdisag": 6513,
      "Ġrecre": 6514,
      "Ġinstruction": 6515,
      "Ġendurance": 6516,
      "Ġpayments": 6517,
      "Ġinspiring": 6518,
      "Ġrecalled": 6519,
      "Ġsymp": 6520,
      "Ġcriteria": 6521,
      "Ġireland": 6522,
      "press": 6523,
      "uch": 6524,
      "Ġcave": 6525,
      "Ġms": 6526,
      "Ġmand": 6527,
      "Ġpent": 6528,
      "Ġelement": 6529,
      "Ġjealous": 6530,
      "Ġspear": 6531,
      "Ġclinton": 6532,
      "Ġpreced": 6533,
      "Ġblow": 6534,
      "athy": 6535,
      "Ġemotions": 6536,
      "Ġcrushed": 6537,
      "Ġassume": 6538,
      "Ġproducing": 6539,
      "Ġretreat": 6540,
      "Ġmemories": 6541,
      "Ġpassword": 6542,
      "Ġyeah": 6543,
      "Ġcollateral": 6544,
      "Ġcontrolled": 6545,
      "Ġimproved": 6546,
      "Ġcaptain": 6547,
      "Ġbowed": 6548,
      "Ġshooting": 6549,
      "Ġticket": 6550,
      "Ġwithdra": 6551,
      "ovation": 6552,
      "Ġtam": 6553,
      "Ġcute": 6554,
      "Ġpc": 6555,
      "Ġoutstanding": 6556,
      "Ġunknown": 6557,
      "Ġpossibility": 6558,
      "Ġmerch": 6559,
      "Ġroads": 6560,
      "Ġappreciated": 6561,
      "Ġcreditor": 6562,
      "Ġneighbors": 6563,
      "osphere": 6564,
      "Ġtelephone": 6565,
      "Ġashamed": 6566,
      "Ġabundant": 6567,
      "don": 6568,
      "Ġrank": 6569,
      "Ġexclusive": 6570,
      "Ġvent": 6571,
      "Ġapps": 6572,
      "Ġovert": 6573,
      "Ġscroll": 6574,
      "Ġeveryday": 6575,
      "Ġinvent": 6576,
      "Ġstatements": 6577,
      "Ġcommunications": 6578,
      "Ġdevotion": 6579,
      "Ġtested": 6580,
      "Ġhotels": 6581,
      "Ġmaintaining": 6582,
      "Ġholidays": 6583,
      "Ġsuspect": 6584,
      "Ġrestaurants": 6585,
      "Ġclinical": 6586,
      "Ġtexas": 6587,
      "Ġapproximately": 6588,
      "down": 6589,
      "Ġwage": 6590,
      "Ġlou": 6591,
      "Ġny": 6592,
      "Ġjas": 6593,
      "etime": 6594,
      "Ġrig": 6595,
      "Ġrings": 6596,
      "riend": 6597,
      "Ġvoc": 6598,
      "Ġblame": 6599,
      "Ġjude": 6600,
      "Ġreturning": 6601,
      "Ġelected": 6602,
      "Ġcapture": 6603,
      "Ġdependent": 6604,
      "Ġislands": 6605,
      "Ġmourning": 6606,
      "Ġoven": 6607,
      "enn": 6608,
      "ashes": 6609,
      "Ġhem": 6610,
      "Ġliked": 6611,
      "Ġsuns": 6612,
      "Ġcoat": 6613,
      "Ġinterior": 6614,
      "Ġeli": 6615,
      "Ġmeditate": 6616,
      "Ġnights": 6617,
      "Ġtrend": 6618,
      "Ġmoments": 6619,
      "Ġrefugees": 6620,
      "Ġelderly": 6621,
      "Ġcandidate": 6622,
      "Ġathlet": 6623,
      "Ġcategory": 6624,
      "Ġlawyer": 6625,
      "Ġsupplies": 6626,
      "inity": 6627,
      "Ġcm": 6628,
      "Ġpard": 6629,
      "ads": 6630,
      "Ġrot": 6631,
      "Ġoutc": 6632,
      "Ġmoves": 6633,
      "Ġrelate": 6634,
      "Ġartists": 6635,
      "Ġdonkey": 6636,
      "Ġmainly": 6637,
      "Ġprinted": 6638,
      "Ġtelecommun": 6639,
      "ca": 6640,
      "hent": 6641,
      "Ġger": 6642,
      "Ġgorge": 6643,
      "Ġrough": 6644,
      "abet": 6645,
      "Ġveter": 6646,
      "Ġannih": 6647,
      "Ġharmful": 6648,
      "Ġcookies": 6649,
      "Ġmistake": 6650,
      "Ġsettings": 6651,
      "Ġadopted": 6652,
      "Ġadventure": 6653,
      "Ġelisha": 6654,
      "Ġannihil": 6655,
      "nda": 6656,
      "Ġiphone": 6657,
      "Ġhired": 6658,
      "Ġtoy": 6659,
      "Ġjul": 6660,
      "Ġascend": 6661,
      "Ġshine": 6662,
      "Ġsail": 6663,
      "certain": 6664,
      "Ġmeanwhile": 6665,
      "Ġtalent": 6666,
      "Ġreplaced": 6667,
      "Ġextraord": 6668,
      "Ġearnest": 6669,
      "Ġlegislation": 6670,
      "ios": 6671,
      "Ġtheory": 6672,
      "Ġcow": 6673,
      "ams": 6674,
      "Ġmeals": 6675,
      "Ġchart": 6676,
      "Ġexists": 6677,
      "Ġattached": 6678,
      "Ġbaal": 6679,
      "Ġencoun": 6680,
      "Ġcopies": 6681,
      "Ġtrusted": 6682,
      "Ġgrounds": 6683,
      "Ġupdated": 6684,
      "Ġlucky": 6685,
      "Ġrelatively": 6686,
      "Ġrepeatedly": 6687,
      "Ġscribes": 6688,
      "bit": 6689,
      "Ġyout": 6690,
      "Ġsoil": 6691,
      "Ġquoted": 6692,
      "Ġassault": 6693,
      "Ġdrunk": 6694,
      "Ġdepression": 6695,
      "Ġdescribes": 6696,
      "Ġattractive": 6697,
      "Ġhello": 6698,
      "Ġweeping": 6699,
      "Ġflexible": 6700,
      "Ġfolks": 6701,
      "Ġvessels": 6702,
      "Ġmm": 6703,
      "Ġdict": 6704,
      "utors": 6705,
      "Ġwhatsoever": 6706,
      "Ġpresents": 6707,
      "Ġauthent": 6708,
      "Ġcomputers": 6709,
      "Ġdisbelievers": 6710,
      "Ġevaluation": 6711,
      "Ġinitiative": 6712,
      "Ġexplanation": 6713,
      "cow": 6714,
      "ique": 6715,
      "nic": 6716,
      "rus": 6717,
      "zar": 6718,
      "Ġpest": 6719,
      "Ġusual": 6720,
      "fulness": 6721,
      "Ġrelating": 6722,
      "Ġcounted": 6723,
      "Ġidol": 6724,
      "Ġedom": 6725,
      "Ġreturns": 6726,
      "Ġwatched": 6727,
      "Ġfalling": 6728,
      "Ġprincipal": 6729,
      "Ġbalanced": 6730,
      "Ġcombined": 6731,
      "Ġunfaith": 6732,
      "Ġjournalists": 6733,
      "Ġhanging": 6734,
      "Ġoriginally": 6735,
      "Ġtypically": 6736,
      "Ġvirtual": 6737,
      "Ġdeaf": 6738,
      "umn": 6739,
      "areth": 6740,
      "cks": 6741,
      "Ġsupporters": 6742,
      "Ġplane": 6743,
      "Ġwatcht": 6744,
      "Ġrecognition": 6745,
      "Ġhorror": 6746,
      "Ġpillar": 6747,
      "Ġtemptation": 6748,
      "Ġpilate": 6749,
      "Ġepisode": 6750,
      "Ġphilosoph": 6751,
      "Ġwatchtower": 6752,
      "how": 6753,
      "Ġreaction": 6754,
      "Ġrage": 6755,
      "Ġupgr": 6756,
      "rene": 6757,
      "Ġindign": 6758,
      "Ġbene": 6759,
      "Ġelections": 6760,
      "Ġwinner": 6761,
      "Ġthirst": 6762,
      "Ġsubjects": 6763,
      "Ġdepends": 6764,
      "guard": 6765,
      "Ġacknowledge": 6766,
      "Ġpounds": 6767,
      "Ġyoga": 6768,
      "ux": 6769,
      "hearted": 6770,
      "Ġwing": 6771,
      "orah": 6772,
      "acco": 6773,
      "quar": 6774,
      "Ġdisgr": 6775,
      "Ġunjust": 6776,
      "abilities": 6777,
      "Ġmayor": 6778,
      "Ġdesper": 6779,
      "Ġrecover": 6780,
      "Ġrelates": 6781,
      "ighter": 6782,
      "Ġsuppose": 6783,
      "Ġdirections": 6784,
      "Ġfunny": 6785,
      "Ġvictor": 6786,
      "Ġsadly": 6787,
      "Ġdrove": 6788,
      "Ġbaghd": 6789,
      "Ġtreasures": 6790,
      "Ġexha": 6791,
      "Ġpredict": 6792,
      "Ġgaza": 6793,
      "Ġdisgusting": 6794,
      "Ġbaghdad": 6795,
      "Ġbone": 6796,
      "Ġdying": 6797,
      "Ġgy": 6798,
      "Ġisol": 6799,
      "Ġshirt": 6800,
      "Ġchances": 6801,
      "iven": 6802,
      "Ġconsent": 6803,
      "Ġgenerous": 6804,
      "Ġswore": 6805,
      "Ġcontrovers": 6806,
      "Ġegyptian": 6807,
      "Ġprocessing": 6808,
      "Ġeccles": 6809,
      "Ġequipped": 6810,
      "Ġlimits": 6811,
      "Ġphysically": 6812,
      "Ġcompetence": 6813,
      "Ġsprink": 6814,
      "Ġtranslated": 6815,
      "Ġfairly": 6816,
      "Ġliquid": 6817,
      "Ġunleavened": 6818,
      "Ġbah": 6819,
      "Ġbug": 6820,
      "eter": 6821,
      "Ġrus": 6822,
      "elines": 6823,
      "ago": 6824,
      "Ġsupplic": 6825,
      "Ġasset": 6826,
      "Ġpurple": 6827,
      "Ġkindly": 6828,
      "Ġcommander": 6829,
      "Ġdebate": 6830,
      "Ġcrossed": 6831,
      "Ġcrowds": 6832,
      "Ġeliminate": 6833,
      "Ġchicken": 6834,
      "ded": 6835,
      "elled": 6836,
      "Ġax": 6837,
      "Ġrend": 6838,
      "ado": 6839,
      "Ġorient": 6840,
      "Ġwashed": 6841,
      "Ġaba": 6842,
      "Ġproviders": 6843,
      "Ġstrangers": 6844,
      "Ġtransp": 6845,
      "Ġcheese": 6846,
      "Ġdrivers": 6847,
      "Ġelectr": 6848,
      "Ġforeigners": 6849,
      "Ġrefugee": 6850,
      "Ġchariot": 6851,
      "Ġmoscow": 6852,
      "Ġcandidates": 6853,
      "Ġsymptoms": 6854,
      "Ġecclesiast": 6855,
      "Ġreass": 6856,
      "Ġrow": 6857,
      "Ġchic": 6858,
      "Ġrepay": 6859,
      "Ġmature": 6860,
      "Ġelig": 6861,
      "obo": 6862,
      "Ġdevour": 6863,
      "Ġcamped": 6864,
      "Ġagreements": 6865,
      "Ġcope": 6866,
      "Ġbulls": 6867,
      "Ġfitness": 6868,
      "Ġokay": 6869,
      "Ġpremium": 6870,
      "aphat": 6871,
      "Ġcondemned": 6872,
      "Ġtobacco": 6873,
      "bor": 6874,
      "Ġow": 6875,
      "Ġfaster": 6876,
      "Ġreub": 6877,
      "lend": 6878,
      "Ġstub": 6879,
      "Ġnotwith": 6880,
      "tering": 6881,
      "Ġsuicide": 6882,
      "Ġplays": 6883,
      "Ġawe": 6884,
      "Ġcrash": 6885,
      "lessly": 6886,
      "Ġexplos": 6887,
      "Ġcollective": 6888,
      "Ġconsumer": 6889,
      "Ġsickness": 6890,
      "Ġillustrate": 6891,
      "Ġreuben": 6892,
      "Ġnotwithstanding": 6893,
      "kins": 6894,
      "Ġhated": 6895,
      "ros": 6896,
      "Ġvain": 6897,
      "Ġchildhood": 6898,
      "Ġpersu": 6899,
      "Ġstranger": 6900,
      "Ġspirits": 6901,
      "Ġbelieving": 6902,
      "Ġvisits": 6903,
      "Ġforgiven": 6904,
      "Ġmajesty": 6905,
      "Ġinvolving": 6906,
      "Ġmanufacturing": 6907,
      "Ġtransferred": 6908,
      "Ġargument": 6909,
      "Ġincorpor": 6910,
      "Ġfavourite": 6911,
      "Ġdownt": 6912,
      "Ġbeneath": 6913,
      "da": 6914,
      "fat": 6915,
      "Ġmes": 6916,
      "Ġrim": 6917,
      "Ġseg": 6918,
      "Ġdefect": 6919,
      "Ġwhosoever": 6920,
      "Ġspy": 6921,
      "Ġshouldn": 6922,
      "anging": 6923,
      "Ġpresum": 6924,
      "Ġbooking": 6925,
      "Ġemployers": 6926,
      "Ġinfant": 6927,
      "Ġdatab": 6928,
      "Ġexpressions": 6929,
      "Ġaudio": 6930,
      "Ġclothed": 6931,
      "Ġpalace": 6932,
      "Ġlifetime": 6933,
      "Ġignor": 6934,
      "Ġtypical": 6935,
      "Ġdynam": 6936,
      "Ġinnovative": 6937,
      "Ġmexico": 6938,
      "Ġgorgeous": 6939,
      "Ġecclesiastes": 6940,
      "Ġtens": 6941,
      "Ġiv": 6942,
      "Ġmath": 6943,
      "Ġles": 6944,
      "aye": 6945,
      "amental": 6946,
      "Ġstro": 6947,
      "host": 6948,
      "Ġplug": 6949,
      "Ġclay": 6950,
      "Ġrobert": 6951,
      "Ġstrict": 6952,
      "Ġlawful": 6953,
      "Ġproduces": 6954,
      "Ġrefund": 6955,
      "Ġcorp": 6956,
      "Ġorganic": 6957,
      "Ġsamaria": 6958,
      "Ġsixth": 6959,
      "Ġconsumed": 6960,
      "Ġfifty": 6961,
      "Ġlandsc": 6962,
      "Ġhonestly": 6963,
      "Ġnutr": 6964,
      "Ġimmoral": 6965,
      "Ġaccompanied": 6966,
      "Ġyoutube": 6967,
      "atures": 6968,
      "Ġvul": 6969,
      "Ġcontained": 6970,
      "Ġherit": 6971,
      "Ġmarvel": 6972,
      "Ġhereby": 6973,
      "Ġheaded": 6974,
      "Ġemployed": 6975,
      "Ġcustoms": 6976,
      "Ġrespected": 6977,
      "Ġpharm": 6978,
      "Ġneglect": 6979,
      "what": 6980,
      "Ġdollar": 6981,
      "Ġultimately": 6982,
      "Ġresidential": 6983,
      "Ġfabric": 6984,
      "Ġnavig": 6985,
      "Ġslightly": 6986,
      "gar": 6987,
      "kah": 6988,
      "erate": 6989,
      "lle": 6990,
      "Ġrice": 6991,
      "Ġsplend": 6992,
      "Ġlean": 6993,
      "Ġdefined": 6994,
      "Ġwool": 6995,
      "Ġbabies": 6996,
      "Ġmotion": 6997,
      "Ġfigures": 6998,
      "Ġmales": 6999,
      "Ġoccasions": 7000,
      "Ġrescued": 7001,
      "Ġhabits": 7002,
      "Ġglorify": 7003,
      "Ġoverseer": 7004,
      "Ġproclaimed": 7005,
      "Ġrebuild": 7006,
      "Ġamendment": 7007,
      "Ġfinger": 7008,
      "Ġcanadian": 7009,
      "Ġatmosphere": 7010,
      "fit": 7011,
      "Ġdub": 7012,
      "Ġnan": 7013,
      "Ġstuck": 7014,
      "ste": 7015,
      "Ġdealt": 7016,
      "Ġshr": 7017,
      "Ġunbelie": 7018,
      "aren": 7019,
      "asses": 7020,
      "Ġreader": 7021,
      "Ġputs": 7022,
      "Ġswall": 7023,
      "Ġskilled": 7024,
      "imelech": 7025,
      "box": 7026,
      "Ġfails": 7027,
      "Ġfundamental": 7028,
      "Ġobjects": 7029,
      "Ġimprovement": 7030,
      "Ġinhabited": 7031,
      "Ġpermitted": 7032,
      "Ġincredible": 7033,
      "bal": 7034,
      "alon": 7035,
      "Ġjur": 7036,
      "aming": 7037,
      "Ġstumble": 7038,
      "Ġalloc": 7039,
      "Ġabilities": 7040,
      "iege": 7041,
      "Ġmood": 7042,
      "Ġreporter": 7043,
      "Ġopposed": 7044,
      "Ġsolar": 7045,
      "bron": 7046,
      "Ġresponses": 7047,
      "Ġmanaging": 7048,
      "Ġlatin": 7049,
      "Ġbags": 7050,
      "Ġnormally": 7051,
      "Ġarafat": 7052,
      "Ġscheduled": 7053,
      "Ġlaunched": 7054,
      "Ġnap": 7055,
      "ashed": 7056,
      "Ġretain": 7057,
      "Ġcruel": 7058,
      "Ġformat": 7059,
      "Ġopens": 7060,
      "Ġreporting": 7061,
      "Ġcampus": 7062,
      "Ġclassroom": 7063,
      "Ġstrip": 7064,
      "Ġforeigner": 7065,
      "Ġamazed": 7066,
      "Ġmisle": 7067,
      "Ġgradually": 7068,
      "Ġintroduction": 7069,
      "Ġslavery": 7070,
      "Ġsustainable": 7071,
      "Ġcomprom": 7072,
      "Ġtelecommunications": 7073,
      "Ġtid": 7074,
      "Ġtack": 7075,
      "rel": 7076,
      "odus": 7077,
      "Ġseize": 7078,
      "Ġexcus": 7079,
      "Ġexodus": 7080,
      "Ġfounded": 7081,
      "Ġindex": 7082,
      "Ġbarri": 7083,
      "Ġdrinks": 7084,
      "Ġexecution": 7085,
      "Ġobjective": 7086,
      "Ġreminder": 7087,
      "Ġrecommendations": 7088,
      "Ġmeaningful": 7089,
      "Ġsubstant": 7090,
      "Ġceremony": 7091,
      "Ġbis": 7092,
      "Ġnig": 7093,
      "Ġreap": 7094,
      "sey": 7095,
      "Ġbridge": 7096,
      "Ġaccus": 7097,
      "Ġeverybody": 7098,
      "Ġobedience": 7099,
      "Ġcarbon": 7100,
      "Ġinterf": 7101,
      "Ġcompanion": 7102,
      "Ġdefault": 7103,
      "awi": 7104,
      "Ġdisplayed": 7105,
      "Ġintellect": 7106,
      "Ġteenager": 7107,
      "Ġparagraphs": 7108,
      "Ġtact": 7109,
      "Ġbol": 7110,
      "Ġpapers": 7111,
      "Ġeag": 7112,
      "Ġseeds": 7113,
      "Ġworried": 7114,
      "Ġsomewhat": 7115,
      "Ġhandling": 7116,
      "Ġzed": 7117,
      "Ġsworn": 7118,
      "Ġswift": 7119,
      "Ġresulting": 7120,
      "Ġtrends": 7121,
      "ughtered": 7122,
      "Ġhusbands": 7123,
      "Ġinjuries": 7124,
      "Ġrisks": 7125,
      "ikh": 7126,
      "Ġsurprising": 7127,
      "Ġslaughtered": 7128,
      "Ġsensitive": 7129,
      "Ġliterally": 7130,
      "Ġprecise": 7131,
      "Ġdeposit": 7132,
      "Ġchamber": 7133,
      "cis": 7134,
      "gage": 7135,
      "oration": 7136,
      "ara": 7137,
      "Ġnab": 7138,
      "Ġetern": 7139,
      "Ġforty": 7140,
      "keep": 7141,
      "Ġfraud": 7142,
      "Ġjeh": 7143,
      "Ġspare": 7144,
      "Ġadequ": 7145,
      "Ġsheet": 7146,
      "well": 7147,
      "Ġcrimes": 7148,
      "Ġrefres": 7149,
      "Ġphotog": 7150,
      "Ġphotograph": 7151,
      "Ġaccessible": 7152,
      "Ġiran": 7153,
      "Ġtroubled": 7154,
      "Ġescaped": 7155,
      "Ġstruggling": 7156,
      "Ġbands": 7157,
      "Ġignore": 7158,
      "Ġrandom": 7159,
      "fy": 7160,
      "Ġwow": 7161,
      "Ġcin": 7162,
      "orr": 7163,
      "Ġdign": 7164,
      "Ġjar": 7165,
      "Ġjail": 7166,
      "irts": 7167,
      "Ġdeeper": 7168,
      "Ġvib": 7169,
      "Ġjehosh": 7170,
      "Ġdeserve": 7171,
      "Ġcrack": 7172,
      "Ġopenly": 7173,
      "Ġrevol": 7174,
      "Ġinitially": 7175,
      "Ġpermit": 7176,
      "Ġaccomplished": 7177,
      "Ġroute": 7178,
      "Ġmechanism": 7179,
      "Ġdisagree": 7180,
      "gen": 7181,
      "Ġwake": 7182,
      "Ġhub": 7183,
      "Ġfors": 7184,
      "Ġhaw": 7185,
      "roid": 7186,
      "Ġstability": 7187,
      "Ġsear": 7188,
      "Ġusa": 7189,
      "Ġtrick": 7190,
      "Ġbrill": 7191,
      "Ġherd": 7192,
      "Ġflag": 7193,
      "Ġcoup": 7194,
      "Ġtransition": 7195,
      "Ġsurre": 7196,
      "Ġprominent": 7197,
      "Ġera": 7198,
      "Ġbrook": 7199,
      "Ġsummit": 7200,
      "Ġneighbour": 7201,
      "Ġsavings": 7202,
      "Ġjehoshaphat": 7203,
      "burg": 7204,
      "fol": 7205,
      "met": 7206,
      "inn": 7207,
      "Ġsch": 7208,
      "aneous": 7209,
      "Ġnai": 7210,
      "ilst": 7211,
      "eline": 7212,
      "Ġclock": 7213,
      "Ġbelt": 7214,
      "Ġwanting": 7215,
      "Ġcomplet": 7216,
      "Ġwinds": 7217,
      "Ġpraises": 7218,
      "Ġphotography": 7219,
      "Ġanticip": 7220,
      "Ġpacked": 7221,
      "Ġcolleagues": 7222,
      "Ġnaan": 7223,
      "Ġseparated": 7224,
      "Ġsignificantly": 7225,
      "Ġdegrees": 7226,
      "Ġoverseas": 7227,
      "Ġslowly": 7228,
      "Ġstretched": 7229,
      "Ġinstrument": 7230,
      "Ġbottle": 7231,
      "Ġsoph": 7232,
      "Ġwaves": 7233,
      "Ġcord": 7234,
      "Ġcometh": 7235,
      "Ġvig": 7236,
      "Ġcock": 7237,
      "Ġunus": 7238,
      "Ġearned": 7239,
      "Ġmineral": 7240,
      "Ġretire": 7241,
      "Ġdram": 7242,
      "Ġoppress": 7243,
      "Ġjerobo": 7244,
      "Ġadminister": 7245,
      "cribe": 7246,
      "Ġmaintained": 7247,
      "Ġcontributed": 7248,
      "Ġfruitage": 7249,
      "Ġinstructed": 7250,
      "Ġembass": 7251,
      "Ġsupreme": 7252,
      "Ġheritage": 7253,
      "Ġjeroboam": 7254,
      "zed": 7255,
      "Ġtorn": 7256,
      "Ġpier": 7257,
      "Ġhebron": 7258,
      "Ġrh": 7259,
      "Ġrural": 7260,
      "Ġlovers": 7261,
      "Ġinvitation": 7262,
      "Ġcai": 7263,
      "Ġpublicly": 7264,
      "Ġmodest": 7265,
      "Ġlegally": 7266,
      "Ġprevention": 7267,
      "chem": 7268,
      "Ġreveals": 7269,
      "Ġsatisfy": 7270,
      "Ġwillingly": 7271,
      "Ġopinions": 7272,
      "Ġscarlet": 7273,
      "Ġenthus": 7274,
      "Ġextraordinary": 7275,
      "bl": 7276,
      "yan": 7277,
      "Ġay": 7278,
      "Ġborrow": 7279,
      "ario": 7280,
      "Ġyoke": 7281,
      "Ġnarr": 7282,
      "sters": 7283,
      "Ġexter": 7284,
      "Ġoutlook": 7285,
      "udes": 7286,
      "Ġuna": 7287,
      "Ġpersonnel": 7288,
      "Ġexposure": 7289,
      "Ġending": 7290,
      "Ġreduction": 7291,
      "Ġsilence": 7292,
      "Ġcalend": 7293,
      "Ġruled": 7294,
      "Ġurge": 7295,
      "Ġcompetent": 7296,
      "Ġsprings": 7297,
      "Ġimplemented": 7298,
      "Ġarranged": 7299,
      "Ġindependence": 7300,
      "Ġsuspended": 7301,
      "Ġterrified": 7302,
      "Ġwonders": 7303,
      "Ġnutrition": 7304,
      "mp": 7305,
      "Ġtu": 7306,
      "heth": 7307,
      "Ġsorrow": 7308,
      "Ġmile": 7309,
      "Ġhaught": 7310,
      "acing": 7311,
      "Ġshaped": 7312,
      "Ġcongr": 7313,
      "Ġkick": 7314,
      "Ġsauce": 7315,
      "Ġabide": 7316,
      "Ġlee": 7317,
      "Ġmanual": 7318,
      "Ġprote": 7319,
      "Ġpartial": 7320,
      "Ġevol": 7321,
      "angel": 7322,
      "Ġthinks": 7323,
      "Ġcheer": 7324,
      "Ġyellow": 7325,
      "Ġconfig": 7326,
      "Ġconsumption": 7327,
      "Ġstrengthening": 7328,
      "Ġprinting": 7329,
      "Ġadministrator": 7330,
      "Ġlawyers": 7331,
      "Ġcomponent": 7332,
      "aiah": 7333,
      "nis": 7334,
      "inals": 7335,
      "nding": 7336,
      "Ġfer": 7337,
      "Ġdried": 7338,
      "itarian": 7339,
      "Ġgear": 7340,
      "icho": 7341,
      "Ġprol": 7342,
      "Ġlol": 7343,
      "Ġupload": 7344,
      "Ġamor": 7345,
      "pled": 7346,
      "Ġque": 7347,
      "Ġlaug": 7348,
      "wards": 7349,
      "Ġdirectors": 7350,
      "Ġsentenced": 7351,
      "Ġfilms": 7352,
      "Ġadditionally": 7353,
      "Ġpainting": 7354,
      "Ġfocusing": 7355,
      "Ġrepresents": 7356,
      "Ġdamas": 7357,
      "Ġcompliance": 7358,
      "Ġpurchasing": 7359,
      "Ġcontributions": 7360,
      "Ġstyles": 7361,
      "Ġachieved": 7362,
      "Ġreferring": 7363,
      "Ġelectricity": 7364,
      "Ġmaker": 7365,
      "Ġsplit": 7366,
      "Ġchieftain": 7367,
      "Ġezekiel": 7368,
      "ole": 7369,
      "ville": 7370,
      "Ġpig": 7371,
      "Ġtooth": 7372,
      "Ġthin": 7373,
      "Ġgi": 7374,
      "Ġwills": 7375,
      "aks": 7376,
      "Ġpoly": 7377,
      "Ġlets": 7378,
      "Ġflu": 7379,
      "Ġflash": 7380,
      "Ġhumili": 7381,
      "Ġdrama": 7382,
      "Ġformation": 7383,
      "Ġmarked": 7384,
      "Ġproductive": 7385,
      "Ġdesigner": 7386,
      "Ġnaturally": 7387,
      "Ġobsc": 7388,
      "Ġamazon": 7389,
      "Ġparticipation": 7390,
      "Ġstraw": 7391,
      "Ġverse": 7392,
      "Ġplanted": 7393,
      "Ġobligations": 7394,
      "Ġenterprises": 7395,
      "Ġapplies": 7396,
      "Ġqur": 7397,
      "Ġincreasingly": 7398,
      "Ġcrucial": 7399,
      "Ġinterpretation": 7400,
      "Ġnetworks": 7401,
      "Ġnarrow": 7402,
      "orous": 7403,
      "ayed": 7404,
      "tha": 7405,
      "Ġneb": 7406,
      "Ġcha": 7407,
      "Ġspaces": 7408,
      "Ġaged": 7409,
      "Ġblasp": 7410,
      "Ġboast": 7411,
      "Ġgenerate": 7412,
      "Ġdistant": 7413,
      "Ġjericho": 7414,
      "Ġharder": 7415,
      "Ġmessiah": 7416,
      "Ġcrew": 7417,
      "Ġannivers": 7418,
      "Ġincreases": 7419,
      "Ġdifficulty": 7420,
      "Ġdifficulties": 7421,
      "Ġbraz": 7422,
      "Ġexecuted": 7423,
      "Ġassistant": 7424,
      "Ġsatisfying": 7425,
      "Ġarrival": 7426,
      "Ġdeceit": 7427,
      "Ġcycle": 7428,
      "Ġterrorist": 7429,
      "Ġrepentance": 7430,
      "Ġcomponents": 7431,
      "Ġgalilee": 7432,
      "Ġmall": 7433,
      "Ġyard": 7434,
      "Ġjim": 7435,
      "Ġbob": 7436,
      "Ġtwe": 7437,
      "Ġconsol": 7438,
      "Ġprescribed": 7439,
      "Ġinvis": 7440,
      "Ġordinary": 7441,
      "Ġheadquar": 7442,
      "Ġconfusion": 7443,
      "Ġsignal": 7444,
      "Ġreducing": 7445,
      "Ġdisciple": 7446,
      "Ġbatt": 7447,
      "Ġchurches": 7448,
      "Ġrequirement": 7449,
      "Ġcaptives": 7450,
      "Ġfestiv": 7451,
      "Ġguidelines": 7452,
      "Ġexpertise": 7453,
      "Ġwondered": 7454,
      "Ġshelter": 7455,
      "Ġpedest": 7456,
      "Ġdiamond": 7457,
      "Ġdamascus": 7458,
      "gal": 7459,
      "wa": 7460,
      "Ġsizes": 7461,
      "Ġwilt": 7462,
      "Ġbills": 7463,
      "Ġfet": 7464,
      "Ġghost": 7465,
      "Ġshift": 7466,
      "Ġatl": 7467,
      "Ġlikes": 7468,
      "Ġjez": 7469,
      "Ġwholes": 7470,
      "Ġlepro": 7471,
      "Ġcommend": 7472,
      "Ġshower": 7473,
      "Ġpropag": 7474,
      "Ġengaging": 7475,
      "Ġsinging": 7476,
      "Ġbreaks": 7477,
      "Ġshops": 7478,
      "Ġdemands": 7479,
      "Ġengagement": 7480,
      "Ġvolunteers": 7481,
      "Ġcomparison": 7482,
      "Ġprovince": 7483,
      "Ġleprosy": 7484,
      "hand": 7485,
      "Ġtheat": 7486,
      "Ġsore": 7487,
      "Ġmun": 7488,
      "Ġthri": 7489,
      "ashing": 7490,
      "Ġez": 7491,
      "Ġwept": 7492,
      "keys": 7493,
      "Ġconvey": 7494,
      "Ġsmith": 7495,
      "Ġwomb": 7496,
      "Ġdiscre": 7497,
      "Ġcares": 7498,
      "Ġesther": 7499,
      "Ġresulted": 7500,
      "Ġcolumb": 7501,
      "Ġlowly": 7502,
      "Ġrepresented": 7503,
      "Ġsafeguard": 7504,
      "Ġinvestigate": 7505,
      "Ġfeeding": 7506,
      "Ġdisappoint": 7507,
      "Ġgallery": 7508,
      "Ġsynagogue": 7509,
      "sa": 7510,
      "atch": 7511,
      "Ġhal": 7512,
      "Ġrear": 7513,
      "illa": 7514,
      "Ġstunning": 7515,
      "Ġshi": 7516,
      "Ġloaves": 7517,
      "ouses": 7518,
      "Ġagg": 7519,
      "Ġmock": 7520,
      "Ġscope": 7521,
      "Ġmarg": 7522,
      "Ġinstag": 7523,
      "Ġinsult": 7524,
      "Ġposting": 7525,
      "Ġgotten": 7526,
      "Ġsends": 7527,
      "Ġbattery": 7528,
      "Ġassociates": 7529,
      "Ġselfish": 7530,
      "Ġattacked": 7531,
      "Ġdamaged": 7532,
      "Ġsteel": 7533,
      "Ġsurvival": 7534,
      "Ġcourageous": 7535,
      "Ġdistributed": 7536,
      "Ġmotivated": 7537,
      "Ġjuice": 7538,
      "Ġwrapped": 7539,
      "Ġgratitude": 7540,
      "Ġheadquarters": 7541,
      "bly": 7542,
      "Ġsed": 7543,
      "Ġboss": 7544,
      "Ġbears": 7545,
      "Ġsheikh": 7546,
      "Ġpoison": 7547,
      "Ġhook": 7548,
      "Ġrelie": 7549,
      "cycl": 7550,
      "Ġheading": 7551,
      "Ġpromoting": 7552,
      "amped": 7553,
      "Ġethics": 7554,
      "Ġhopes": 7555,
      "Ġensuring": 7556,
      "Ġhyd": 7557,
      "Ġacquired": 7558,
      "Ġpossessions": 7559,
      "Ġdisappointed": 7560,
      "Ġvenge": 7561,
      "Ġeggs": 7562,
      "Ġscenes": 7563,
      "Ġbacter": 7564,
      "Ġcriticism": 7565,
      "Ġselah": 7566,
      "charge": 7567,
      "Ġcedar": 7568,
      "case": 7569,
      "rants": 7570,
      "Ġsanta": 7571,
      "Ġwipe": 7572,
      "eries": 7573,
      "Ġbin": 7574,
      "Ġpink": 7575,
      "Ġdread": 7576,
      "icit": 7577,
      "Ġheed": 7578,
      "Ġstim": 7579,
      "Ġasp": 7580,
      "Ġabd": 7581,
      "Ġabst": 7582,
      "Ġabel": 7583,
      "Ġtrig": 7584,
      "orted": 7585,
      "umin": 7586,
      "Ġblaz": 7587,
      "Ġdecade": 7588,
      "Ġorganize": 7589,
      "Ġmode": 7590,
      "Ġdesignated": 7591,
      "Ġtyre": 7592,
      "Ġattendant": 7593,
      "Ġprisoners": 7594,
      "Ġmicah": 7595,
      "Ġorgans": 7596,
      "Ġvolunteer": 7597,
      "Ġcherubs": 7598,
      "Ġephesians": 7599,
      "Ġcoalition": 7600,
      "fare": 7601,
      "hire": 7602,
      "iate": 7603,
      "ki": 7604,
      "Ġsis": 7605,
      "eronomy": 7606,
      "Ġfiction": 7607,
      "Ġseh": 7608,
      "Ġalert": 7609,
      "umc": 7610,
      "Ġscan": 7611,
      "Ġboards": 7612,
      "Ġphones": 7613,
      "ighth": 7614,
      "Ġhomeown": 7615,
      "Ġrefers": 7616,
      "Ġcontinu": 7617,
      "Ġdawn": 7618,
      "Ġtrave": 7619,
      "Ġaccordingly": 7620,
      "Ġhardly": 7621,
      "Ġbegun": 7622,
      "Ġdiverse": 7623,
      "Ġtremb": 7624,
      "Ġholder": 7625,
      "Ġuncirc": 7626,
      "Ġtouches": 7627,
      "Ġbelonging": 7628,
      "Ġreminders": 7629,
      "Ġcamels": 7630,
      "Ġvillages": 7631,
      "Ġprimarily": 7632,
      "Ġempire": 7633,
      "Ġadvertise": 7634,
      "Ġsuspension": 7635,
      "Ġreproach": 7636,
      "Ġdoctr": 7637,
      "Ġdeuteronomy": 7638,
      "Ġrebellion": 7639,
      "Ġwithdraw": 7640,
      "Ġblasphem": 7641,
      "Ġuncircumc": 7642,
      "Ġtank": 7643,
      "Ġfitting": 7644,
      "Ġhip": 7645,
      "Ġwelf": 7646,
      "Ġkur": 7647,
      "owned": 7648,
      "Ġphase": 7649,
      "Ġexpense": 7650,
      "Ġapprove": 7651,
      "Ġcenters": 7652,
      "Ġfirearm": 7653,
      "Ġlighting": 7654,
      "Ġtribun": 7655,
      "Ġrecording": 7656,
      "Ġfederation": 7657,
      "Ġcombat": 7658,
      "Ġcrying": 7659,
      "Ġbeaten": 7660,
      "Ġpatterns": 7661,
      "Ġscheme": 7662,
      "Ġdatabase": 7663,
      "Ġvulner": 7664,
      "Ġbrazil": 7665,
      "Ġinstagram": 7666,
      "Ġwelfare": 7667,
      "ena": 7668,
      "llium": 7669,
      "ett": 7670,
      "Ġdeed": 7671,
      "Ġcontaining": 7672,
      "Ġscott": 7673,
      "Ġdecree": 7674,
      "Ġjudas": 7675,
      "Ġsmote": 7676,
      "Ġdiscrim": 7677,
      "Ġyea": 7678,
      "Ġdefiled": 7679,
      "Ġobservers": 7680,
      "Ġestablishing": 7681,
      "Ġlatter": 7682,
      "Ġcommerce": 7683,
      "Ġfilling": 7684,
      "Ġmultiply": 7685,
      "Ġcondemn": 7686,
      "Ġcrafts": 7687,
      "Ġfrancis": 7688,
      "Ġwrongdoers": 7689,
      "Ġmutual": 7690,
      "mo": 7691,
      "pie": 7692,
      "wr": 7693,
      "Ġsow": 7694,
      "Ġsher": 7695,
      "Ġske": 7696,
      "Ġmiz": 7697,
      "Ġmourn": 7698,
      "Ġdent": 7699,
      "Ġinex": 7700,
      "aly": 7701,
      "urch": 7702,
      "hops": 7703,
      "Ġexclud": 7704,
      "Ġenables": 7705,
      "Ġdisrupt": 7706,
      "Ġresent": 7707,
      "Ġsinful": 7708,
      "Ġobama": 7709,
      "Ġsubd": 7710,
      "Ġhighway": 7711,
      "Ġchest": 7712,
      "Ġdistingu": 7713,
      "Ġcurren": 7714,
      "Ġhardware": 7715,
      "Ġdivisions": 7716,
      "Ġbarn": 7717,
      "Ġabram": 7718,
      "Ġagenda": 7719,
      "Ġviolation": 7720,
      "Ġamounts": 7721,
      "Ġwalks": 7722,
      "Ġobjectives": 7723,
      "Ġautomatically": 7724,
      "Ġitalian": 7725,
      "Ġthoroughly": 7726,
      "Ġprohibited": 7727,
      "Ġmystery": 7728,
      "Ġspokesman": 7729,
      "Ġassyria": 7730,
      "Ġanniversary": 7731,
      "away": 7732,
      "ipt": 7733,
      "mates": 7734,
      "nant": 7735,
      "ris": 7736,
      "Ġfame": 7737,
      "Ġinput": 7738,
      "see": 7739,
      "Ġstom": 7740,
      "Ġallies": 7741,
      "Ġwheels": 7742,
      "Ġads": 7743,
      "agers": 7744,
      "Ġboil": 7745,
      "Ġconfess": 7746,
      "Ġhealthcare": 7747,
      "Ġextract": 7748,
      "Ġafflicted": 7749,
      "Ġphilip": 7750,
      "Ġassignments": 7751,
      "Ġfirms": 7752,
      "Ġsouls": 7753,
      "Ġsweep": 7754,
      "Ġcelebration": 7755,
      "Ġentrusted": 7756,
      "Ġpalestinians": 7757,
      "Ġprophesy": 7758,
      "Ġcollaboration": 7759,
      "Ġdevastated": 7760,
      "Ġhunger": 7761,
      "Ġpad": 7762,
      "Ġpak": 7763,
      "lla": 7764,
      "isy": 7765,
      "ayer": 7766,
      "Ġstored": 7767,
      "Ġthereby": 7768,
      "Ġamhar": 7769,
      "Ġagents": 7770,
      "Ġcomply": 7771,
      "Ġimpart": 7772,
      "Ġconserv": 7773,
      "Ġawards": 7774,
      "Ġza": 7775,
      "Ġformal": 7776,
      "Ġequival": 7777,
      "Ġfeatured": 7778,
      "Ġrichard": 7779,
      "Ġsurvived": 7780,
      "Ġfishing": 7781,
      "Ġjapanese": 7782,
      "Ġclinic": 7783,
      "Ġprostitution": 7784,
      "Ġsemi": 7785,
      "Ġmanufacturer": 7786,
      "Ġupset": 7787,
      "Ġremarkable": 7788,
      "Ġjephth": 7789,
      "Ġinvisible": 7790,
      "Ġvengeance": 7791,
      "fa": 7792,
      "hi": 7793,
      "Ġsir": 7794,
      "Ġwol": 7795,
      "itudes": 7796,
      "Ġlions": 7797,
      "lets": 7798,
      "verted": 7799,
      "Ġshan": 7800,
      "Ġshim": 7801,
      "Ġserpent": 7802,
      "Ġtimely": 7803,
      "agan": 7804,
      "apes": 7805,
      "Ġcarol": 7806,
      "Ġinches": 7807,
      "Ġhardship": 7808,
      "Ġadmitted": 7809,
      "Ġacceptance": 7810,
      "Ġsample": 7811,
      "Ġstriking": 7812,
      "Ġnecessarily": 7813,
      "Ġpotentially": 7814,
      "Ġelsewhere": 7815,
      "Ġthreatened": 7816,
      "Ġpaths": 7817,
      "Ġattempts": 7818,
      "Ġjewel": 7819,
      "Ġrepeat": 7820,
      "Ġhistoric": 7821,
      "Ġmagazines": 7822,
      "Ġownership": 7823,
      "Ġzero": 7824,
      "Ġpersecution": 7825,
      "Ġquantity": 7826,
      "Ġimpressive": 7827,
      "Ġthomas": 7828,
      "Ġdisgrace": 7829,
      "Ġjephthah": 7830,
      "Ġinch": 7831,
      "Ġlun": 7832,
      "irable": 7833,
      "Ġfright": 7834,
      "ila": 7835,
      "Ġalle": 7836,
      "eland": 7837,
      "Ġcontest": 7838,
      "Ġprey": 7839,
      "Ġentrep": 7840,
      "Ġzo": 7841,
      "Ġvisible": 7842,
      "life": 7843,
      "Ġlocust": 7844,
      "Ġcreates": 7845,
      "Ġestimate": 7846,
      "Ġpursuing": 7847,
      "Ġcrossing": 7848,
      "Ġlacking": 7849,
      "Ġtouching": 7850,
      "Ġboundaries": 7851,
      "Ġinfluenced": 7852,
      "Ġmiracles": 7853,
      "Ġultimate": 7854,
      "Ġconclude": 7855,
      "Ġswitch": 7856,
      "Ġcircumcised": 7857,
      "Ġstumbling": 7858,
      "Ġzechariah": 7859,
      "Ġaffliction": 7860,
      "Ġphilosophy": 7861,
      "Ġentreprene": 7862,
      "Ġward": 7863,
      "Ġcited": 7864,
      "Ġeb": 7865,
      "Ġspark": 7866,
      "Ġdisorder": 7867,
      "berg": 7868,
      "Ġobe": 7869,
      "Ġguides": 7870,
      "Ġkingdoms": 7871,
      "Ġraw": 7872,
      "Ġpracticing": 7873,
      "Ġmidian": 7874,
      "Ġirrig": 7875,
      "Ġspreading": 7876,
      "Ġtroubles": 7877,
      "Ġconversations": 7878,
      "Ġglorified": 7879,
      "Ġincredibly": 7880,
      "Ġindicates": 7881,
      "Ġarchitecture": 7882,
      "Ġgentle": 7883,
      "Ġsiege": 7884,
      "Ġpho": 7885,
      "Ġdir": 7886,
      "Ġrehab": 7887,
      "Ġrebel": 7888,
      "oters": 7889,
      "Ġwhilst": 7890,
      "Ġjos": 7891,
      "igen": 7892,
      "Ġseated": 7893,
      "Ġshore": 7894,
      "udi": 7895,
      "Ġunl": 7896,
      "Ġnov": 7897,
      "Ġreserve": 7898,
      "Ġbonds": 7899,
      "Ġkeen": 7900,
      "Ġhole": 7901,
      "Ġsecrets": 7902,
      "Ġputin": 7903,
      "Ġsubsequ": 7904,
      "Ġoppon": 7905,
      "Ġdistinct": 7906,
      "Ġtreatments": 7907,
      "Ġstrikes": 7908,
      "Ġwishes": 7909,
      "Ġdeliber": 7910,
      "Ġtablets": 7911,
      "Ġarrows": 7912,
      "Ġmissionary": 7913,
      "Ġrecalls": 7914,
      "Ġvoluntary": 7915,
      "Ġinclined": 7916,
      "Ġremoval": 7917,
      "Ġutterly": 7918,
      "Ġdwelt": 7919,
      "Ġstomach": 7920,
      "iors": 7921,
      "papers": 7922,
      "rics": 7923,
      "zing": 7924,
      "Ġari": 7925,
      "Ġcain": 7926,
      "Ġlame": 7927,
      "Ġheating": 7928,
      "Ġloans": 7929,
      "Ġflowing": 7930,
      "Ġsecular": 7931,
      "Ġcharity": 7932,
      "Ġangeles": 7933,
      "Ġportug": 7934,
      "Ġconventions": 7935,
      "Ġstatistics": 7936,
      "Ġlayer": 7937,
      "Ġsurviv": 7938,
      "Ġcooperate": 7939,
      "Ġarrangements": 7940,
      "Ġadvocate": 7941,
      "Ġgreetings": 7942,
      "Ġcasual": 7943,
      "Ġhospitals": 7944,
      "Ġdowntown": 7945,
      "Ġintellectual": 7946,
      "list": 7947,
      "ml": 7948,
      "heast": 7949,
      "Ġcure": 7950,
      "Ġhates": 7951,
      "Ġbell": 7952,
      "Ġdeem": 7953,
      "Ġnebu": 7954,
      "osis": 7955,
      "Ġafar": 7956,
      "Ġsomehow": 7957,
      "Ġimpression": 7958,
      "Ġevangel": 7959,
      "Ġzim": 7960,
      "Ġwarrant": 7961,
      "Ġauthors": 7962,
      "Ġcoloss": 7963,
      "Ġaccepting": 7964,
      "Ġjoyfully": 7965,
      "Ġindustries": 7966,
      "Ġconducting": 7967,
      "Ġfeaturing": 7968,
      "Ġcommonly": 7969,
      "Ġhosting": 7970,
      "Ġinnovation": 7971,
      "Ġbethle": 7972,
      "Ġcontainer": 7973,
      "Ġdisobedience": 7974,
      "Ġhatred": 7975,
      "Ġpronounce": 7976,
      "Ġrecruit": 7977,
      "Ġamorites": 7978,
      "Ġpakistan": 7979,
      "cs": 7980,
      "my": 7981,
      "Ġwail": 7982,
      "Ġmoth": 7983,
      "Ġpace": 7984,
      "ller": 7985,
      "Ġeighth": 7986,
      "icy": 7987,
      "Ġliability": 7988,
      "Ġupro": 7989,
      "Ġpepper": 7990,
      "Ġadorn": 7991,
      "Ġnoise": 7992,
      "Ġearthqu": 7993,
      "Ġdepri": 7994,
      "Ġapolog": 7995,
      "Ġtruths": 7996,
      "Ġdiscussions": 7997,
      "Ġgarlic": 7998,
      "Ġencourages": 7999,
      "Ġbrands": 8000,
      "Ġcampaigns": 8001,
      "Ġrebelled": 8002,
      "Ġillustrations": 8003,
      "Ġanalyst": 8004,
      "Ġcrop": 8005,
      "Ġmortgage": 8006,
      "Ġcategories": 8007,
      "Ġsaddam": 8008,
      "Ġporch": 8009,
      "Ġencounter": 8010,
      "Ġcalendar": 8011,
      "Ġdiscreet": 8012,
      "view": 8013,
      "Ġphen": 8014,
      "Ġht": 8015,
      "oral": 8016,
      "Ġgiant": 8017,
      "lyn": 8018,
      "Ġleban": 8019,
      "Ġenabled": 8020,
      "Ġencycl": 8021,
      "Ġdisabled": 8022,
      "Ġung": 8023,
      "Ġsheba": 8024,
      "Ġhoped": 8025,
      "Ġnewslet": 8026,
      "Ġfuneral": 8027,
      "Ġimproving": 8028,
      "Ġbuyers": 8029,
      "ocratic": 8030,
      "Ġcorrectly": 8031,
      "Ġdelighted": 8032,
      "Ġpsyllium": 8033,
      "Ġstreams": 8034,
      "Ġpregnancy": 8035,
      "Ġmultipl": 8036,
      "Ġproceedings": 8037,
      "Ġdiplomatic": 8038,
      "Ġnursing": 8039,
      "abetes": 8040,
      "Ġelectrical": 8041,
      "Ġunusual": 8042,
      "Ġequivalent": 8043,
      "Ġencyclop": 8044,
      "Ġaids": 8045,
      "era": 8046,
      "Ġfits": 8047,
      "Ġstable": 8048,
      "Ġripped": 8049,
      "Ġshu": 8050,
      "Ġshots": 8051,
      "Ġplate": 8052,
      "Ġknock": 8053,
      "iph": 8054,
      "Ġperf": 8055,
      "Ġindones": 8056,
      "Ġcarved": 8057,
      "Ġpoles": 8058,
      "Ġparable": 8059,
      "Ġconflic": 8060,
      "Ġeffectiveness": 8061,
      "Ġhonored": 8062,
      "Ġportfol": 8063,
      "Ġabsor": 8064,
      "Ġabsence": 8065,
      "Ġsafely": 8066,
      "Ġassembled": 8067,
      "Ġelev": 8068,
      "Ġsavior": 8069,
      "Ġpreferred": 8070,
      "Ġinterpre": 8071,
      "Ġmasters": 8072,
      "Ġreplacement": 8073,
      "Ġrendering": 8074,
      "Ġargue": 8075,
      "Ġoverwhelmed": 8076,
      "Ġrebellious": 8077,
      "Ġchronicles": 8078,
      "Ġhunting": 8079,
      "stein": 8080,
      "Ġcompletion": 8081,
      "Ġtribunal": 8082,
      "Ġbethlehem": 8083,
      "Ġtresp": 8084,
      "reth": 8085,
      "Ġfired": 8086,
      "Ġpy": 8087,
      "Ġgap": 8088,
      "Ġreception": 8089,
      "Ġspin": 8090,
      "Ġrepurch": 8091,
      "Ġmont": 8092,
      "Ġformula": 8093,
      "Ġapproaching": 8094,
      "Ġcreativity": 8095,
      "Ġfactory": 8096,
      "Ġcontrols": 8097,
      "Ġexpectation": 8098,
      "Ġdeadly": 8099,
      "Ġlargely": 8100,
      "Ġoils": 8101,
      "Ġconviction": 8102,
      "Ġsummoned": 8103,
      "apped": 8104,
      "Ġpatiently": 8105,
      "Ġobeyed": 8106,
      "Ġlimitations": 8107,
      "Ġtemperatures": 8108,
      "Ġdragon": 8109,
      "Ġaccommodation": 8110,
      "Ġduration": 8111,
      "Ġthessalon": 8112,
      "Ġsyrians": 8113,
      "Ġrecreation": 8114,
      "Ġpardon": 8115,
      "Ġtie": 8116,
      "Ġtons": 8117,
      "Ġmit": 8118,
      "Ġiniqu": 8119,
      "Ġlon": 8120,
      "Ġlan": 8121,
      "Ġgide": 8122,
      "ethe": 8123,
      "Ġseasons": 8124,
      "Ġexalt": 8125,
      "Ġthereafter": 8126,
      "Ġtaunt": 8127,
      "soft": 8128,
      "Ġblank": 8129,
      "Ġimposed": 8130,
      "Ġguards": 8131,
      "Ġincur": 8132,
      "Ġadvised": 8133,
      "Ġspeakers": 8134,
      "Ġlegit": 8135,
      "Ġpetition": 8136,
      "Ġgrows": 8137,
      "Ġmusical": 8138,
      "Ġmeasuring": 8139,
      "Ġutc": 8140,
      "Ġuniversal": 8141,
      "Ġsuggests": 8142,
      "Ġaddressed": 8143,
      "Ġcommissioner": 8144,
      "Ġdefinition": 8145,
      "Ġcombine": 8146,
      "Ġfortun": 8147,
      "Ġpitched": 8148,
      "Ġshouting": 8149,
      "Ġlaser": 8150,
      "Ġswimming": 8151,
      "Ġniger": 8152,
      "Ġbrilliant": 8153,
      "fire": 8154,
      "Ġti": 8155,
      "Ġcens": 8156,
      "Ġpension": 8157,
      "ingly": 8158,
      "Ġdangers": 8159,
      "Ġgle": 8160,
      "Ġhears": 8161,
      "Ġriding": 8162,
      "Ġdew": 8163,
      "Ġabi": 8164,
      "Ġabner": 8165,
      "Ġpled": 8166,
      "Ġintrig": 8167,
      "Ġcontempt": 8168,
      "Ġthrowing": 8169,
      "Ġflame": 8170,
      "Ġaddiction": 8171,
      "Ġhereafter": 8172,
      "Ġmeditation": 8173,
      "Ġsurve": 8174,
      "Ġreceipt": 8175,
      "Ġesteem": 8176,
      "Ġthyself": 8177,
      "Ġspecialist": 8178,
      "Ġconvicted": 8179,
      "Ġgeor": 8180,
      "Ġcaptive": 8181,
      "Ġkingship": 8182,
      "Ġauditor": 8183,
      "Ġeritreans": 8184,
      "Ġpanama": 8185,
      "ographic": 8186,
      "Ġintegrated": 8187,
      "Ġguns": 8188,
      "Ġoccupied": 8189,
      "Ġresistance": 8190,
      "Ġcanaanites": 8191,
      "Ġprostitute": 8192,
      "Ġvineyards": 8193,
      "Ġtigray": 8194,
      "Ġmonitoring": 8195,
      "Ġweighing": 8196,
      "Ġsectors": 8197,
      "Ġembassy": 8198,
      "Ġgideon": 8199,
      "cons": 8200,
      "Ġpod": 8201,
      "Ġnun": 8202,
      "Ġheir": 8203,
      "Ġwhis": 8204,
      "Ġjab": 8205,
      "Ġstages": 8206,
      "Ġka": 8207,
      "rie": 8208,
      "Ġvice": 8209,
      "Ġplunder": 8210,
      "Ġdisability": 8211,
      "ounded": 8212,
      "Ġoffense": 8213,
      "Ġworkplace": 8214,
      "Ġshechem": 8215,
      "cloth": 8216,
      "Ġscot": 8217,
      "Ġdonations": 8218,
      "Ġdonkeys": 8219,
      "azar": 8220,
      "Ġviewing": 8221,
      "holders": 8222,
      "Ġoccurs": 8223,
      "Ġfilter": 8224,
      "Ġlaban": 8225,
      "Ġparticipating": 8226,
      "Ġgrantor": 8227,
      "Ġtitus": 8228,
      "Ġdelivering": 8229,
      "Ġmachines": 8230,
      "Ġvegetables": 8231,
      "Ġreconcil": 8232,
      "Ġrapidly": 8233,
      "Ġgym": 8234,
      "oves": 8235,
      "Ġbunch": 8236,
      "Ġtomb": 8237,
      "aned": 8238,
      "Ġnest": 8239,
      "Ġreho": 8240,
      "aman": 8241,
      "Ġsocket": 8242,
      "Ġspa": 8243,
      "Ġabimelech": 8244,
      "Ġoutl": 8245,
      "Ġoutput": 8246,
      "Ġarth": 8247,
      "Ġenhan": 8248,
      "Ġblast": 8249,
      "Ġreprod": 8250,
      "Ġmarks": 8251,
      "Ġmini": 8252,
      "Ġlocally": 8253,
      "Ġextension": 8254,
      "Ġdefile": 8255,
      "Ġviewpoint": 8256,
      "Ġcamps": 8257,
      "Ġburial": 8258,
      "Ġcomplicated": 8259,
      "Ġmanagers": 8260,
      "Ġeleazar": 8261,
      "Ġreflected": 8262,
      "Ġframework": 8263,
      "Ġmicrosoft": 8264,
      "Ġinspection": 8265,
      "Ġeligible": 8266,
      "pers": 8267,
      "rers": 8268,
      "Ġwet": 8269,
      "ersed": 8270,
      "Ġalter": 8271,
      "plate": 8272,
      "Ġovernight": 8273,
      "Ġremnant": 8274,
      "Ġflower": 8275,
      "Ġmining": 8276,
      "Ġpreserved": 8277,
      "Ġcountless": 8278,
      "Ġpasses": 8279,
      "Ġdefine": 8280,
      "Ġdiabetes": 8281,
      "Ġhonour": 8282,
      "Ġsamson": 8283,
      "Ġtablet": 8284,
      "Ġexercises": 8285,
      "Ġruins": 8286,
      "Ġcharacteristics": 8287,
      "Ġmike": 8288,
      "Ġworshipped": 8289,
      "Ġproposals": 8290,
      "Ġrulership": 8291,
      "Ġsacrificing": 8292,
      "Ġdismissed": 8293,
      "Ġlebanon": 8294,
      "rum": 8295,
      "sc": 8296,
      "erals": 8297,
      "Ġpap": 8298,
      "Ġtoile": 8299,
      "Ġdoth": 8300,
      "Ġlately": 8301,
      "arit": 8302,
      "ala": 8303,
      "Ġstations": 8304,
      "adium": 8305,
      "Ġrib": 8306,
      "Ġsew": 8307,
      "Ġproven": 8308,
      "Ġchad": 8309,
      "osity": 8310,
      "Ġenqu": 8311,
      "Ġenorm": 8312,
      "Ġunse": 8313,
      "Ġhelper": 8314,
      "Ġmartha": 8315,
      "Ġattach": 8316,
      "Ġvisions": 8317,
      "Ġcaes": 8318,
      "Ġnewspapers": 8319,
      "Ġimmune": 8320,
      "Ġgrab": 8321,
      "Ġdiscussing": 8322,
      "Ġsnack": 8323,
      "Ġcaptivity": 8324,
      "Ġlowest": 8325,
      "Ġpunished": 8326,
      "Ġcomplaints": 8327,
      "Ġuniversities": 8328,
      "Ġfleshly": 8329,
      "Ġlevi": 8330,
      "Ġdisputes": 8331,
      "Ġdropped": 8332,
      "Ġtracks": 8333,
      "Ġengineers": 8334,
      "mael": 8335,
      "Ġcriminals": 8336,
      "Ġsettlement": 8337,
      "Ġgraduate": 8338,
      "Ġbonus": 8339,
      "atoes": 8340,
      "Ġtremend": 8341,
      "Ġfacilitate": 8342,
      "Ġportfolio": 8343,
      "bus": 8344,
      "ker": 8345,
      "Ġts": 8346,
      "Ġsits": 8347,
      "Ġoly": 8348,
      "Ġcad": 8349,
      "att": 8350,
      "Ġnile": 8351,
      "Ġliken": 8352,
      "Ġmax": 8353,
      "Ġintens": 8354,
      "Ġreserved": 8355,
      "assing": 8356,
      "Ġexpans": 8357,
      "Ġworldly": 8358,
      "Ġdecent": 8359,
      "Ġsmell": 8360,
      "Ġwarming": 8361,
      "Ġfaithfully": 8362,
      "Ġeden": 8363,
      "Ġenjoyable": 8364,
      "Ġbegat": 8365,
      "Ġprophecies": 8366,
      "Ġfearing": 8367,
      "Ġgreed": 8368,
      "Ġtries": 8369,
      "Ġforgot": 8370,
      "Ġoperator": 8371,
      "Ġaccessories": 8372,
      "Ġpercentage": 8373,
      "Ġembarr": 8374,
      "Ġheavily": 8375,
      "Ġweapon": 8376,
      "Ġwounded": 8377,
      "Ġthreshing": 8378,
      "Ġfestivals": 8379,
      "aam": 8380,
      "ders": 8381,
      "water": 8382,
      "Ġtheocratic": 8383,
      "oul": 8384,
      "Ġthunder": 8385,
      "uts": 8386,
      "Ġstem": 8387,
      "Ġchi": 8388,
      "Ġspacious": 8389,
      "Ġjehoi": 8390,
      "Ġdishes": 8391,
      "actions": 8392,
      "izer": 8393,
      "Ġsayings": 8394,
      "assed": 8395,
      "Ġjoining": 8396,
      "Ġisraelite": 8397,
      "Ġattain": 8398,
      "ceptive": 8399,
      "Ġmeditating": 8400,
      "Ġcreep": 8401,
      "Ġcats": 8402,
      "Ġdealings": 8403,
      "Ġsoldier": 8404,
      "Ġpublish": 8405,
      "Ġpsalmist": 8406,
      "Ġverily": 8407,
      "Ġrewards": 8408,
      "Ġuncleanness": 8409,
      "Ġdisciplinary": 8410,
      "Ġaustralian": 8411,
      "Ġblend": 8412,
      "Ġzealous": 8413,
      "Ġplatforms": 8414,
      "Ġnavy": 8415,
      "Ġlamps": 8416,
      "Ġinteractive": 8417,
      "Ġcontemporary": 8418,
      "Ġcolonel": 8419,
      "Ġnurse": 8420,
      "Ġislamic": 8421,
      "Ġalleged": 8422,
      "eed": 8423,
      "person": 8424,
      "Ġtub": 8425,
      "Ġtutor": 8426,
      "Ġsaints": 8427,
      "Ġandrew": 8428,
      "omed": 8429,
      "ird": 8430,
      "Ġsequ": 8431,
      "Ġshif": 8432,
      "Ġshake": 8433,
      "Ġchains": 8434,
      "Ġgolf": 8435,
      "olen": 8436,
      "Ġleaf": 8437,
      "Ġtab": 8438,
      "Ġgrasp": 8439,
      "aping": 8440,
      "Ġrepa": 8441,
      "Ġchris": 8442,
      "Ġenduring": 8443,
      "Ġfindings": 8444,
      "Ġwarfare": 8445,
      "Ġpolitic": 8446,
      "atively": 8447,
      "Ġethical": 8448,
      "Ġenjoyment": 8449,
      "Ġgrapes": 8450,
      "Ġdeclaring": 8451,
      "Ġbarg": 8452,
      "Ġcleanse": 8453,
      "Ġslew": 8454,
      "onym": 8455,
      "Ġpursued": 8456,
      "Ġglobe": 8457,
      "Ġdefeat": 8458,
      "Ġclosing": 8459,
      "Ġattempted": 8460,
      "Ġladies": 8461,
      "Ġsettlements": 8462,
      "Ġhorsemen": 8463,
      "Ġadvocacy": 8464,
      "Ġvirtually": 8465,
      "Ġinquire": 8466,
      "Ġphilippians": 8467,
      "comed": 8468,
      "Ġevidently": 8469,
      "Ġagriculture": 8470,
      "Ġdiversity": 8471,
      "Ġcabinet": 8472,
      "Ġdialogue": 8473,
      "Ġchampions": 8474,
      "Ġforbidden": 8475,
      "Ġbrowser": 8476,
      "Ġchicago": 8477,
      "can": 8478,
      "elling": 8479,
      "ife": 8480,
      "itated": 8481,
      "Ġgon": 8482,
      "Ġgem": 8483,
      "owered": 8484,
      "Ġjav": 8485,
      "rav": 8486,
      "Ġadj": 8487,
      "Ġacid": 8488,
      "Ġshem": 8489,
      "Ġfond": 8490,
      "Ġgray": 8491,
      "Ġperpet": 8492,
      "Ġscream": 8493,
      "ckets": 8494,
      "Ġpersist": 8495,
      "Ġinstant": 8496,
      "Ġexperiment": 8497,
      "Ġconfron": 8498,
      "Ġtraum": 8499,
      "Ġcommands": 8500,
      "Ġbreach": 8501,
      "Ġtreacher": 8502,
      "Ġcuts": 8503,
      "Ġpotter": 8504,
      "Ġconnections": 8505,
      "Ġwelcomed": 8506,
      "Ġacquis": 8507,
      "Ġmirror": 8508,
      "Ġrecipes": 8509,
      "Ġvoices": 8510,
      "Ġhesitate": 8511,
      "Ġtorture": 8512,
      "Ġlouis": 8513,
      "Ġpropaganda": 8514,
      "Ġuncircumcised": 8515,
      "Ġirrigation": 8516,
      "oll": 8517,
      "Ġbail": 8518,
      "onia": 8519,
      "Ġjam": 8520,
      "irm": 8521,
      "child": 8522,
      "Ġours": 8523,
      "iform": 8524,
      "igned": 8525,
      "Ġbooth": 8526,
      "Ġholly": 8527,
      "Ġworlds": 8528,
      "Ġnamely": 8529,
      "Ġmeets": 8530,
      "Ġexperiencing": 8531,
      "Ġoppose": 8532,
      "Ġoppression": 8533,
      "Ġtempor": 8534,
      "Ġbury": 8535,
      "Ġequally": 8536,
      "Ġemails": 8537,
      "Ġarray": 8538,
      "anna": 8539,
      "zzar": 8540,
      "Ġdisbelieve": 8541,
      "Ġkorean": 8542,
      "Ġcancell": 8543,
      "Ġdimension": 8544,
      "Ġchemicals": 8545,
      "Ġphilippines": 8546,
      "Ġgraphic": 8547,
      "Ġdiscernment": 8548,
      "top": 8549,
      "uan": 8550,
      "Ġwides": 8551,
      "Ġbake": 8552,
      "Ġfert": 8553,
      "Ġpic": 8554,
      "Ġpity": 8555,
      "Ġhorm": 8556,
      "Ġweigh": 8557,
      "Ġhamm": 8558,
      "adne": 8559,
      "Ġkar": 8560,
      "Ġalliance": 8561,
      "chadne": 8562,
      "Ġexult": 8563,
      "Ġdisse": 8564,
      "Ġbloss": 8565,
      "Ġkeys": 8566,
      "Ġemper": 8567,
      "Ġlords": 8568,
      "Ġdiffer": 8569,
      "Ġchecking": 8570,
      "Ġethnic": 8571,
      "brance": 8572,
      "Ġexplaining": 8573,
      "Ġfacult": 8574,
      "Ġtrips": 8575,
      "Ġaltars": 8576,
      "rooms": 8577,
      "Ġthreats": 8578,
      "Ġkidn": 8579,
      "Ġrenewed": 8580,
      "Ġshekel": 8581,
      "Ġimprisoned": 8582,
      "Ġagricultural": 8583,
      "Ġimmigration": 8584,
      "Ġancest": 8585,
      "Ġammonites": 8586,
      "Ġstubborn": 8587,
      "Ġhaughty": 8588,
      "Ġnebuchadne": 8589,
      "Ġolymp": 8590,
      "Ġnebuchadnezzar": 8591,
      "cers": 8592,
      "ool": 8593,
      "tail": 8594,
      "vin": 8595,
      "Ġtourn": 8596,
      "Ġcable": 8597,
      "Ġfisc": 8598,
      "Ġhiding": 8599,
      "Ġspots": 8600,
      "Ġbrid": 8601,
      "izz": 8602,
      "Ġpertain": 8603,
      "ensions": 8604,
      "Ġdonation": 8605,
      "Ġdrank": 8606,
      "Ġwitnessing": 8607,
      "Ġpresenting": 8608,
      "Ġburst": 8609,
      "Ġtestify": 8610,
      "Ġsecretly": 8611,
      "Ġbalaam": 8612,
      "Ġpanels": 8613,
      "Ġbankrupt": 8614,
      "Ġfortune": 8615,
      "ieties": 8616,
      "Ġoverseers": 8617,
      "Ġdemonstrated": 8618,
      "Ġacademy": 8619,
      "Ġwritings": 8620,
      "Ġchannels": 8621,
      "Ġungod": 8622,
      "Ġaer": 8623,
      "Ġsized": 8624,
      "Ġhug": 8625,
      "omi": 8626,
      "Ġgab": 8627,
      "storm": 8628,
      "Ġconsec": 8629,
      "Ġsaudi": 8630,
      "Ġleb": 8631,
      "Ġlege": 8632,
      "umber": 8633,
      "Ġwrites": 8634,
      "Ġsubur": 8635,
      "Ġrealistic": 8636,
      "Ġparks": 8637,
      "Ġconsiderable": 8638,
      "Ġbaking": 8639,
      "Ġthankful": 8640,
      "Ġobserv": 8641,
      "Ġbuyer": 8642,
      "Ġtongues": 8643,
      "Ġdisappear": 8644,
      "Ġmotivation": 8645,
      "Ġrenewal": 8646,
      "Ġlegislative": 8647,
      "Ġhospitality": 8648,
      "Ġlicensed": 8649,
      "Ġpornography": 8650,
      "Ġrendered": 8651,
      "Ġlandscape": 8652,
      "gg": 8653,
      "mes": 8654,
      "rates": 8655,
      "tical": 8656,
      "Ġborders": 8657,
      "Ġfury": 8658,
      "aning": 8659,
      "anted": 8660,
      "Ġvows": 8661,
      "Ġlect": 8662,
      "Ġtram": 8663,
      "Ġuncertain": 8664,
      "ending": 8665,
      "pered": 8666,
      "Ġexplo": 8667,
      "Ġhearken": 8668,
      "Ġairlines": 8669,
      "Ġterr": 8670,
      "Ġmrs": 8671,
      "Ġnonethe": 8672,
      "Ġpublishing": 8673,
      "Ġdomain": 8674,
      "Ġmattress": 8675,
      "Ġbullock": 8676,
      "Ġcelebrated": 8677,
      "Ġexercising": 8678,
      "Ġcorners": 8679,
      "Ġmirac": 8680,
      "Ġteenagers": 8681,
      "Ġinitiatives": 8682,
      "Ġaston": 8683,
      "Ġhighlights": 8684,
      "Ġfingers": 8685,
      "Ġoverwhelming": 8686,
      "Ġpowder": 8687,
      "Ġsodom": 8688,
      "Ġconspir": 8689,
      "Ġinterface": 8690,
      "Ġretirement": 8691,
      "Ġcurrency": 8692,
      "Ġgeorg": 8693,
      "Ġnonetheless": 8694,
      "pread": 8695,
      "Ġpp": 8696,
      "Ġpip": 8697,
      "Ġlt": 8698,
      "omfort": 8699,
      "lete": 8700,
      "Ġjw": 8701,
      "Ġuz": 8702,
      "Ġrush": 8703,
      "Ġseas": 8704,
      "Ġprostr": 8705,
      "Ġsov": 8706,
      "Ġloose": 8707,
      "Ġcompos": 8708,
      "Ġinvention": 8709,
      "Ġeliz": 8710,
      "Ġtransactions": 8711,
      "Ġdeaths": 8712,
      "Ġpostp": 8713,
      "Ġofficially": 8714,
      "Ġgarage": 8715,
      "Ġnether": 8716,
      "Ġirish": 8717,
      "Ġobserving": 8718,
      "Ġperiods": 8719,
      "Ġexceed": 8720,
      "Ġsprout": 8721,
      "Ġcookie": 8722,
      "Ġchapters": 8723,
      "Ġpioneering": 8724,
      "Ġwidth": 8725,
      "Ġrebekah": 8726,
      "iciary": 8727,
      "Ġtrumpet": 8728,
      "Ġbedrooms": 8729,
      "Ġsealed": 8730,
      "Ġalike": 8731,
      "Ġcleansing": 8732,
      "Ġprotein": 8733,
      "Ġwidespread": 8734,
      "west": 8735,
      "Ġtire": 8736,
      "Ġtony": 8737,
      "Ġfis": 8738,
      "Ġhiv": 8739,
      "arming": 8740,
      "Ġgm": 8741,
      "Ġbere": 8742,
      "Ġjaz": 8743,
      "Ġhallow": 8744,
      "Ġstolen": 8745,
      "stream": 8746,
      "Ġkg": 8747,
      "Ġtheirs": 8748,
      "Ġenoch": 8749,
      "assie": 8750,
      "Ġactively": 8751,
      "Ġrepairs": 8752,
      "Ġlazar": 8753,
      "Ġtransaction": 8754,
      "Ġlists": 8755,
      "Ġadmon": 8756,
      "Ġhumanitarian": 8757,
      "Ġeccl": 8758,
      "Ġvari": 8759,
      "Ġtribute": 8760,
      "Ġsooner": 8761,
      "Ġcompliment": 8762,
      "Ġimplementing": 8763,
      "Ġfruitful": 8764,
      "Ġeleg": 8765,
      "Ġstocks": 8766,
      "Ġtowers": 8767,
      "Ġoccupational": 8768,
      "Ġconfidential": 8769,
      "Ġprosecutor": 8770,
      "Ġadversaries": 8771,
      "Ġfiery": 8772,
      "Ġacknowledged": 8773,
      "Ġunrighteousness": 8774,
      "rolog": 8775,
      "Ġsplendor": 8776,
      "Ġvulnerable": 8777,
      "Ġther": 8778,
      "Ġsink": 8779,
      "Ġicon": 8780,
      "Ġhd": 8781,
      "Ġgaining": 8782,
      "Ġstadium": 8783,
      "Ġframes": 8784,
      "Ġsau": 8785,
      "umes": 8786,
      "Ġcole": 8787,
      "Ġuniform": 8788,
      "abeth": 8789,
      "Ġovers": 8790,
      "Ġroots": 8791,
      "Ġminerals": 8792,
      "Ġedit": 8793,
      "Ġmodesty": 8794,
      "Ġchristianity": 8795,
      "Ġpresidential": 8796,
      "Ġcircle": 8797,
      "Ġimprovements": 8798,
      "Ġmiche": 8799,
      "Ġfunctional": 8800,
      "Ġprivileges": 8801,
      "Ġoccupation": 8802,
      "Ġsubstance": 8803,
      "Ġinfection": 8804,
      "Ġannouncement": 8805,
      "Ġdiscouraged": 8806,
      "Ġphrase": 8807,
      "Ġadequate": 8808,
      "Ġcongrat": 8809,
      "Ġencyclopedia": 8810,
      "cal": 8811,
      "non": 8812,
      "ye": 8813,
      "Ġaqu": 8814,
      "Ġwand": 8815,
      "Ġtoxic": 8816,
      "Ġdough": 8817,
      "Ġged": 8818,
      "asters": 8819,
      "Ġsum": 8820,
      "Ġalas": 8821,
      "fere": 8822,
      "Ġmans": 8823,
      "Ġtract": 8824,
      "Ġactor": 8825,
      "Ġpocket": 8826,
      "Ġindigen": 8827,
      "Ġrightly": 8828,
      "Ġadvise": 8829,
      "Ġapproaches": 8830,
      "Ġconfront": 8831,
      "Ġtrap": 8832,
      "Ġprocessed": 8833,
      "Ġwaited": 8834,
      "Ġtrustworthy": 8835,
      "Ġcollecting": 8836,
      "Ġportions": 8837,
      "Ġcomforted": 8838,
      "Ġversions": 8839,
      "Ġbelonged": 8840,
      "Ġqualify": 8841,
      "Ġapartments": 8842,
      "Ġclubs": 8843,
      "Ġawarded": 8844,
      "Ġcitizenship": 8845,
      "Ġrejoiced": 8846,
      "Ġremembrance": 8847,
      "Ġemphasis": 8848,
      "Ġsupplication": 8849,
      "Ġiniquity": 8850,
      "Ġlazarus": 8851,
      "kan": 8852,
      "lor": 8853,
      "rating": 8854,
      "Ġted": 8855,
      "Ġwip": 8856,
      "erior": 8857,
      "Ġbom": 8858,
      "Ġbil": 8859,
      "onies": 8860,
      "Ġinse": 8861,
      "Ġlom": 8862,
      "Ġyemen": 8863,
      "Ġgum": 8864,
      "Ġgross": 8865,
      "Ġreu": 8866,
      "Ġreed": 8867,
      "oty": 8868,
      "uration": 8869,
      "illy": 8870,
      "Ġorth": 8871,
      "Ġwast": 8872,
      "Ġko": 8873,
      "Ġchast": 8874,
      "Ġpricing": 8875,
      "Ġweren": 8876,
      "Ġscour": 8877,
      "Ġhoist": 8878,
      "Ġcarries": 8879,
      "Ġmathem": 8880,
      "Ġmedication": 8881,
      "Ġdiscovery": 8882,
      "Ġdevelopers": 8883,
      "Ġharp": 8884,
      "Ġconcert": 8885,
      "Ġmuscle": 8886,
      "Ġmothers": 8887,
      "Ġtermination": 8888,
      "Ġexpecting": 8889,
      "Ġprotecting": 8890,
      "Ġclaiming": 8891,
      "Ġdancing": 8892,
      "Ġholiness": 8893,
      "Ġrewarded": 8894,
      "Ġcontracts": 8895,
      "Ġseparation": 8896,
      "Ġbike": 8897,
      "Ġgriev": 8898,
      "Ġohio": 8899,
      "Ġappealing": 8900,
      "Ġdisbelieved": 8901,
      "Ġhomeless": 8902,
      "Ġsackcloth": 8903,
      "Ġcups": 8904,
      "Ġanointing": 8905,
      "piece": 8906,
      "bar": 8907,
      "car": 8908,
      "friend": 8909,
      "iour": 8910,
      "lers": 8911,
      "ona": 8912,
      "Ġdv": 8913,
      "asm": 8914,
      "Ġug": 8915,
      "Ġloft": 8916,
      "ifi": 8917,
      "arest": 8918,
      "Ġlapt": 8919,
      "Ġhandled": 8920,
      "Ġbuff": 8921,
      "Ġguit": 8922,
      "Ġzen": 8923,
      "Ġendures": 8924,
      "Ġassure": 8925,
      "Ġfounder": 8926,
      "Ġcorrection": 8927,
      "Ġcared": 8928,
      "Ġminded": 8929,
      "Ġwax": 8930,
      "Ġstops": 8931,
      "Ġquestioned": 8932,
      "Ġrepresenting": 8933,
      "Ġqualifications": 8934,
      "Ġvirus": 8935,
      "Ġepid": 8936,
[...]
