{
  "version": "1.0",
  "truncation": null,
  "padding": null,
  "added_tokens": [
    {
      "id": 0,
      "content": "[UNK]",
      "single_word": false,
      "lstrip": false,
      "rstrip": false,
      "normalized": false,
      "special": true
    },
    {
      "id": 1,
      "content": "[SOS]",
      "single_word": false,
      "lstrip": false,
      "rstrip": false,
      "normalized": false,
      "special": true
    },
    {
      "id": 2,
      "content": "[EOS]",
      "single_word": false,
      "lstrip": false,
      "rstrip": false,
      "normalized": false,
      "special": true
    },
    {
      "id": 3,
      "content": "[PAD]",
      "single_word": false,
      "lstrip": false,
      "rstrip": false,
      "normalized": false,
      "special": true
    }
  ],
  "normalizer": null,
  "pre_tokenizer": {
    "type": "ByteLevel",
    "add_prefix_space": true,
    "trim_offsets": true,
    "use_regex": true
  },
  "post_processor": {
    "type": "ByteLevel",
    "add_prefix_space": true,
    "trim_offsets": true,
    "use_regex": true
  },
  "decoder": {
    "type": "ByteLevel",
    "add_prefix_space": true,
    "trim_offsets": true,
    "use_regex": true
  },
  "model": {
    "type": "BPE",
    "dropout": null,
    "unk_token": "[UNK]",
    "continuing_subword_prefix": null,
    "end_of_word_suffix": null,
    "fuse_unk": false,
    "byte_fallback": false,
    "vocab": {
      "[UNK]": 0,
      "[SOS]": 1,
      "[EOS]": 2,
      "[PAD]": 3,
      "!": 4,
      "\"": 5,
      "#": 6,
      "$": 7,
      "%": 8,
      "&": 9,
      "'": 10,
      "(": 11,
      ")": 12,
      "*": 13,
      "+": 14,
      ",": 15,
      "-": 16,
      ".": 17,
      "/": 18,
      "0": 19,
      "1": 20,
      "2": 21,
      "3": 22,
      "4": 23,
      "5": 24,
      "6": 25,
      "7": 26,
      "8": 27,
      "9": 28,
      ":": 29,
      ";": 30,
      "<": 31,
      "=": 32,
      ">": 33,
      "?": 34,
      "@": 35,
      "A": 36,
      "B": 37,
      "C": 38,
      "D": 39,
      "E": 40,
      "F": 41,
      "G": 42,
      "H": 43,
      "I": 44,
      "J": 45,
      "K": 46,
      "L": 47,
      "M": 48,
      "N": 49,
      "O": 50,
      "P": 51,
      "Q": 52,
      "R": 53,
      "S": 54,
      "T": 55,
      "U": 56,
      "V": 57,
      "W": 58,
      "X": 59,
      "Y": 60,
      "Z": 61,
      "[": 62,
      "\\": 63,
      "]": 64,
      "^": 65,
      "_": 66,
      "`": 67,
      "a": 68,
      "b": 69,
      "c": 70,
      "d": 71,
      "e": 72,
      "f": 73,
      "g": 74,
      "h": 75,
      "i": 76,
      "j": 77,
      "k": 78,
      "l": 79,
      "m": 80,
      "n": 81,
      "o": 82,
      "p": 83,
      "q": 84,
      "r": 85,
      "s": 86,
      "t": 87,
      "u": 88,
      "v": 89,
      "w": 90,
      "x": 91,
      "y": 92,
      "z": 93,
      "{": 94,
      "|": 95,
      "}": 96,
      "~": 97,
      "¡": 98,
      "¢": 99,
      "£": 100,
      "¤": 101,
      "¥": 102,
      "¦": 103,
      "§": 104,
      "¨": 105,
      "©": 106,
      "ª": 107,
      "«": 108,
      "¬": 109,
      "®": 110,
      "¯": 111,
      "°": 112,
      "±": 113,
      "²": 114,
      "³": 115,
      "´": 116,
      "µ": 117,
      "¶": 118,
      "·": 119,
      "¸": 120,
      "¹": 121,
      "º": 122,
      "»": 123,
      "¼": 124,
      "½": 125,
      "¾": 126,
      "¿": 127,
      "À": 128,
      "Á": 129,
      "Â": 130,
      "Ã": 131,
      "Ä": 132,
      "Å": 133,
      "Æ": 134,
      "Ç": 135,
      "È": 136,
      "É": 137,
      "Ê": 138,
      "Ë": 139,
      "Ì": 140,
      "Í": 141,
      "Î": 142,
      "Ï": 143,
      "Ð": 144,
      "Ñ": 145,
      "Ò": 146,
      "Ó": 147,
      "Ô": 148,
      "Õ": 149,
      "Ö": 150,
      "×": 151,
      "Ø": 152,
      "Ù": 153,
      "Ú": 154,
      "Û": 155,
      "Ü": 156,
      "Ý": 157,
      "Þ": 158,
      "ß": 159,
      "à": 160,
      "á": 161,
      "â": 162,
      "ã": 163,
      "ä": 164,
      "å": 165,
      "æ": 166,
      "ç": 167,
      "è": 168,
      "é": 169,
      "ê": 170,
      "ë": 171,
      "ì": 172,
      "í": 173,
      "î": 174,
      "ï": 175,
      "ð": 176,
      "ñ": 177,
      "ò": 178,
      "ó": 179,
      "ô": 180,
      "õ": 181,
      "ö": 182,
      "÷": 183,
      "ø": 184,
      "ù": 185,
      "ú": 186,
      "û": 187,
      "ü": 188,
      "ý": 189,
      "þ": 190,
      "ÿ": 191,
      "Ā": 192,
      "ā": 193,
      "Ă": 194,
      "ă": 195,
      "Ą": 196,
      "ą": 197,
      "Ć": 198,
      "ć": 199,
      "Ĉ": 200,
      "ĉ": 201,
      "Ċ": 202,
      "ċ": 203,
      "Č": 204,
      "č": 205,
      "Ď": 206,
      "ď": 207,
      "Đ": 208,
      "đ": 209,
      "Ē": 210,
      "ē": 211,
      "Ĕ": 212,
      "ĕ": 213,
      "Ė": 214,
      "ė": 215,
      "Ę": 216,
      "ę": 217,
      "Ě": 218,
      "ě": 219,
      "Ĝ": 220,
      "ĝ": 221,
      "Ğ": 222,
      "ğ": 223,
      "Ġ": 224,
      "ġ": 225,
      "Ģ": 226,
      "ģ": 227,
      "Ĥ": 228,
      "ĥ": 229,
      "Ħ": 230,
      "ħ": 231,
      "Ĩ": 232,
      "ĩ": 233,
      "Ī": 234,
      "ī": 235,
      "Ĭ": 236,
      "ĭ": 237,
      "Į": 238,
      "į": 239,
      "İ": 240,
      "ı": 241,
      "Ĳ": 242,
      "ĳ": 243,
      "Ĵ": 244,
      "ĵ": 245,
      "Ķ": 246,
      "ķ": 247,
      "ĸ": 248,
      "Ĺ": 249,
      "ĺ": 250,
      "Ļ": 251,
      "ļ": 252,
      "Ľ": 253,
      "ľ": 254,
      "Ŀ": 255,
      "ŀ": 256,
      "Ł": 257,
      "ł": 258,
      "Ń": 259,
      "in": 260,
      "Ġs": 261,
      "er": 262,
      "on": 263,
      "re": 264,
      "Ġc": 265,
      "Ġp": 266,
      "en": 267,
      "ed": 268,
      "Ġa": 269,
      "ing": 270,
      "Ġt": 271,
      "Ġm": 272,
      "an": 273,
      "at": 274,
      "le": 275,
      "or": 276,
      "ar": 277,
      "Ġf": 278,
      "Ġw": 279,
      "Ġb": 280,
      "Ġd": 281,
      "al": 282,
      "st": 283,
      "it": 284,
      "Ġg": 285,
      "ou": 286,
      "Ġl": 287,
      "Ġh": 288,
      "Ġe": 289,
      "ion": 290,
      "Ġre": 291,
      "ic": 292,
      "ent": 293,
      "om": 294,
      "el": 295,
      "is": 296,
      "ro": 297,
      "ay": 298,
      "Ġn": 299,
      "th": 300,
      "il": 301,
      "ce": 302,
      "id": 303,
      "ss": 304,
      "Ġj": 305,
      "Ġu": 306,
      "ct": 307,
      "ve": 308,
      "ly": 309,
      "se": 310,
      "Ġst": 311,
      "ra": 312,
      "ri": 313,
      "Ġin": 314,
      "od": 315,
      "et": 316,
      "ol": 317,
      "ation": 318,
      "Ġth": 319,
      "am": 320,
      "gh": 321,
      "ow": 322,
      "ver": 323,
      "im": 324,
      "ke": 325,
      "op": 326,
      "Ġde": 327,
      "ad": 328,
      "ch": 329,
      "one": 330,
      "ul": 331,
      "Ġcon": 332,
      "ge": 333,
      "Ġcom": 334,
      "Ġch": 335,
      "Ġpro": 336,
      "ur": 337,
      "Ġli": 338,
      "Ġk": 339,
      "Ġse": 340,
      "ght": 341,
      "Ġje": 342,
      "ah": 343,
      "Ġsh": 344,
      "Ġne": 345,
      "and": 346,
      "Ġo": 347,
      "ir": 348,
      "ate": 349,
      "us": 350,
      "ho": 351,
      "oun": 352,
      "ity": 353,
      "Ġle": 354,
      "Ġal": 355,
      "Ġsa": 356,
      "Ġex": 357,
      "ment": 358,
      "Ġwor": 359,
      "ble": 360,
      "Ġlo": 361,
      "ear": 362,
      "ut": 363,
      "ff": 364,
      "as": 365,
      "Ġgo": 366,
      "Ġy": 367,
      "ant": 368,
      "pp": 369,
      "ld": 370,
      "Ġv": 371,
      "all": 372,
      "Ġbe": 373,
      "Ġsp": 374,
      "ive": 375,
      "Ġun": 376,
      "Ġsu": 377,
      "ru": 378,
      "em": 379,
      "Ġma": 380,
      "Ġone": 381,
      "Ġjeho": 382,
      "ter": 383,
      "la": 384,
      "vah": 385,
      "Ġjehovah": 386,
      "ist": 387,
      "Ġan": 388,
      "qu": 389,
      "ig": 390,
      "end": 391,
      "ck": 392,
      "ine": 393,
      "Ġgod": 394,
      "ot": 395,
      "ice": 396,
      "ort": 397,
      "ther": 398,
      "Ġman": 399,
      "ord": 400,
      "ure": 401,
      "Ġpe": 402,
      "est": 403,
      "ect": 404,
      "ven": 405,
      "ci": 406,
      "ud": 407,
      "ath": 408,
      "un": 409,
      "ould": 410,
      "ie": 411,
      "um": 412,
      "ok": 413,
      "ell": 414,
      "ard": 415,
      "Ġar": 416,
      "ong": 417,
      "lo": 418,
      "Ġpre": 419,
      "ime": 420,
      "Ġfa": 421,
      "ill": 422,
      "Ġper": 423,
      "pt": 424,
      "art": 425,
      "Ġta": 426,
      "ide": 427,
      "ess": 428,
      "Ġad": 429,
      "ome": 430,
      "ople": 431,
      "Ġpeople": 432,
      "Ġr": 433,
      "ame": 434,
      "Ġpa": 435,
      "Ġsaid": 436,
      "Ġen": 437,
      "Ġca": 438,
      "our": 439,
      "ous": 440,
      "ry": 441,
      "ind": 442,
      "ally": 443,
      "ea": 444,
      "Ġtime": 445,
      "Ġac": 446,
      "ire": 447,
      "ite": 448,
      "Ġdis": 449,
      "sp": 450,
      "if": 451,
      "old": 452,
      "iv": 453,
      "ound": 454,
      "Ġla": 455,
      "ith": 456,
      "ight": 457,
      "Ġim": 458,
      "Ġme": 459,
      "Ġday": 460,
      "ain": 461,
      "Ġser": 462,
      "Ġkn": 463,
      "Ġis": 464,
      "Ġwork": 465,
      "Ġpo": 466,
      "ence": 467,
      "Ġsay": 468,
      "ust": 469,
      "ple": 470,
      "reat": 471,
      "ance": 472,
      "Ġmay": 473,
      "Ġcont": 474,
      "age": 475,
      "ore": 476,
      "Ġyear": 477,
      "ber": 478,
      "Ġexp": 479,
      "sh": 480,
      "Ġwould": 481,
      "ee": 482,
      "ish": 483,
      "Ġpr": 484,
      "Ġapp": 485,
      "orm": 486,
      "Ġknow": 487,
      "Ġba": 488,
      "Ġmo": 489,
      "ue": 490,
      "so": 491,
      "Ġoff": 492,
      "ild": 493,
      "ree": 494,
      "ip": 495,
      "Ġever": 496,
      "iz": 497,
      "Ġlike": 498,
      "ign": 499,
      "Ġam": 500,
      "Ġmake": 501,
      "Ġcomm": 502,
      "Ġnew": 503,
      "Ġalso": 504,
      "Ġqu": 505,
      "ep": 506,
      "Ġco": 507,
      "able": 508,
      "Ġhe": 509,
      "king": 510,
      "Ġri": 511,
      "Ġjo": 512,
      "ount": 513,
      "Ġhel": 514,
      "Ġking": 515,
      "Ġson": 516,
      "Ġcomp": 517,
      "ated": 518,
      "ian": 519,
      "ction": 520,
      "fe": 521,
      "out": 522,
      "ful": 523,
      "ary": 524,
      "Ġop": 525,
      "ab": 526,
      "Ġpl": 527,
      "ness": 528,
      "int": 529,
      "ved": 530,
      "ible": 531,
      "Ġbr": 532,
      "ather": 533,
      "low": 534,
      "ise": 535,
      "Ġsee": 536,
      "Ġro": 537,
      "ely": 538,
      "are": 539,
      "ph": 540,
      "Ġbo": 541,
      "Ġhear": 542,
      "Ġrep": 543,
      "Ġacc": 544,
      "ade": 545,
      "urn": 546,
      "Ġhelp": 547,
      "Ġget": 548,
      "Ġpart": 549,
      "Ġthing": 550,
      "Ġinc": 551,
      "Ġserv": 552,
      "ult": 553,
      "Ġshall": 554,
      "tt": 555,
      "Ġevery": 556,
      "Ġway": 557,
      "Ġres": 558,
      "Ġlife": 559,
      "du": 560,
      "ast": 561,
      "Ġgood": 562,
      "Ġfir": 563,
      "Ġab": 564,
      "Ġneed": 565,
      "Ġtw": 566,
      "Ġcome": 567,
      "way": 568,
      "ouse": 569,
      "Ġto": 570,
      "to": 571,
      "thing": 572,
      "Ġreg": 573,
      "ick": 574,
      "Ġus": 575,
      "Ġdi": 576,
      "Ġra": 577,
      "Ġind": 578,
      "Ġke": 579,
      "Ġear": 580,
      "Ġright": 581,
      "ition": 582,
      "sus": 583,
      "der": 584,
      "Ġpla": 585,
      "Ġtra": 586,
      "itt": 587,
      "Ġeven": 588,
      "ater": 589,
      "Ġtru": 590,
      "Ġmar": 591,
      "Ġmany": 592,
      "Ġtake": 593,
      "ub": 594,
      "rael": 595,
      "Ġjesus": 596,
      "Ġisrael": 597,
      "Ġimp": 598,
      "es": 599,
      "Ġthou": 600,
      "ily": 601,
      "Ġrem": 602,
      "Ġhouse": 603,
      "Ġinter": 604,
      "Ġlook": 605,
      "Ġha": 606,
      "vel": 607,
      "Ġmade": 608,
      "ress": 609,
      "Ġgreat": 610,
      "Ġwh": 611,
      "Ġbec": 612,
      "Ġfirst": 613,
      "Ġda": 614,
      "Ġem": 615,
      "ft": 616,
      "ren": 617,
      "Ġhand": 618,
      "Ġrec": 619,
      "Ġdes": 620,
      "son": 621,
      "Ġso": 622,
      "ory": 623,
      "Ġlord": 624,
      "Ġfor": 625,
      "ia": 626,
      "Ġcons": 627,
      "Ġbro": 628,
      "cess": 629,
      "Ġlet": 630,
      "per": 631,
      "Ġfo": 632,
      "ial": 633,
      "Ġass": 634,
      "ical": 635,
      "Ġact": 636,
      "vid": 637,
      "igh": 638,
      "Ġdec": 639,
      "ink": 640,
      "ning": 641,
      "Ġfe": 642,
      "Ġchild": 643,
      "ag": 644,
      "Ġte": 645,
      "Ġtwo": 646,
      "Ġsc": 647,
      "lic": 648,
      "Ġlove": 649,
      "form": 650,
      "Ġpri": 651,
      "ach": 652,
      "Ġph": 653,
      "ere": 654,
      "Ġsin": 655,
      "ase": 656,
      "Ġgive": 657,
      "rist": 658,
      "Ġgr": 659,
      "Ġwith": 660,
      "Ġplace": 661,
      "ving": 662,
      "Ġor": 663,
      "Ġbu": 664,
      "Ġatt": 665,
      "Ġrel": 666,
      "Ġwell": 667,
      "ual": 668,
      "Ġas": 669,
      "og": 670,
      "red": 671,
      "po": 672,
      "Ġwant": 673,
      "Ġcity": 674,
      "Ġread": 675,
      "Ġword": 676,
      "ran": 677,
      "Ġcould": 678,
      "Ġsec": 679,
      "Ġcl": 680,
      "Ġup": 681,
      "ced": 682,
      "Ġwr": 683,
      "Ġland": 684,
      "Ġchrist": 685,
      "Ġoffer": 686,
      "ail": 687,
      "Ġperson": 688,
      "ile": 689,
      "gan": 690,
      "Ġbel": 691,
      "Ġag": 692,
      "Ġru": 693,
      "Ġmin": 694,
      "ond": 695,
      "Ġcall": 696,
      "Ġunto": 697,
      "row": 698,
      "Ġadd": 699,
      "Ġent": 700,
      "Ġworld": 701,
      "Ġob": 702,
      "less": 703,
      "Ġho": 704,
      "Ġbible": 705,
      "Ġart": 706,
      "Ġpres": 707,
      "Ġfam": 708,
      "Ġmen": 709,
      "ert": 710,
      "Ġback": 711,
      "cy": 712,
      "Ġmu": 713,
      "Ġshow": 714,
      "led": 715,
      "Ġput": 716,
      "ious": 717,
      "Ġgu": 718,
      "Ġcar": 719,
      "Ġcol": 720,
      "cial": 721,
      "Ġfol": 722,
      "ember": 723,
      "Ġuse": 724,
      "Ġinst": 725,
      "Ġgen": 726,
      "Ġz": 727,
      "Ġfather": 728,
      "Ġhigh": 729,
      "Ġend": 730,
      "Ġcame": 731,
      "rib": 732,
      "Ġsome": 733,
      "Ġmon": 734,
      "ang": 735,
      "ever": 736,
      "ap": 737,
      "vent": 738,
      "Ġstud": 739,
      "ough": 740,
      "Ġjud": 741,
      "ower": 742,
      "Ġfollow": 743,
      "Ġservice": 744,
      "Ġset": 745,
      "Ġlong": 746,
      "act": 747,
      "ner": 748,
      "ank": 749,
      "Ġano": 750,
      "te": 751,
      "Ġsupp": 752,
      "ship": 753,
      "ict": 754,
      "ied": 755,
      "Ġwe": 756,
      "Ġkeep": 757,
      "ffer": 758,
      "rea": 759,
      "ility": 760,
      "Ġfind": 761,
      "Ġfamily": 762,
      "ject": 763,
      "ave": 764,
      "Ġsy": 765,
      "Ġsm": 766,
      "Ġlaw": 767,
      "Ġname": 768,
      "lud": 769,
      "ating": 770,
      "ision": 771,
      "Ġdisc": 772,
      "order": 773,
      "Ġbrother": 774,
      "Ġspir": 775,
      "Ġmean": 776,
      "Ġmuch": 777,
      "Ġresp": 778,
      "Ġspirit": 779,
      "oman": 780,
      "Ġple": 781,
      "Ġmust": 782,
      "Ġsub": 783,
      "Ġmat": 784,
      "Ġnation": 785,
      "Ġearth": 786,
      "ident": 787,
      "ens": 788,
      "icle": 789,
      "Ġbus": 790,
      "Ġwar": 791,
      "Ġstate": 792,
      "Ġheart": 793,
      "Ġhome": 794,
      "Ġbecome": 795,
      "ace": 796,
      "Ġcount": 797,
      "iss": 798,
      "Ġprodu": 799,
      "Ġfore": 800,
      "Ġfound": 801,
      "Ġref": 802,
      "ac": 803,
      "Ġhapp": 804,
      "ange": 805,
      "Ġfin": 806,
      "Ġprov": 807,
      "iness": 808,
      "Ġret": 809,
      "read": 810,
      "Ġwent": 811,
      "Ġful": 812,
      "ib": 813,
      "ger": 814,
      "erm": 815,
      "Ġno": 816,
      "Ġcor": 817,
      "Ġany": 818,
      "ty": 819,
      "ited": 820,
      "Ġspe": 821,
      "Ġpol": 822,
      "Ġsw": 823,
      "Ġhum": 824,
      "Ġaway": 825,
      "Ġclo": 826,
      "Ġinclud": 827,
      "Ġwho": 828,
      "ason": 829,
      "lish": 830,
      "ution": 831,
      "iew": 832,
      "lect": 833,
      "ting": 834,
      "Ġfaith": 835,
      "Ġcle": 836,
      "Ġmight": 837,
      "Ġeff": 838,
      "ider": 839,
      "Ġstart": 840,
      "Ġanother": 841,
      "Ġunder": 842,
      "cept": 843,
      "Ġfeel": 844,
      "Ġpub": 845,
      "Ġamong": 846,
      "Ġcour": 847,
      "ought": 848,
      "gy": 849,
      "ister": 850,
      "ative": 851,
      "xt": 852,
      "ient": 853,
      "Ġdo": 854,
      "Ġother": 855,
      "Ġbring": 856,
      "Ġwee": 857,
      "Ġlear": 858,
      "Ġsim": 859,
      "Ġbelie": 860,
      "Ġsch": 861,
      "Ġgra": 862,
      "Ġwoman": 863,
      "Ġlast": 864,
      "ased": 865,
      "Ġlead": 866,
      "Ġform": 867,
      "Ġrequ": 868,
      "Ġhea": 869,
      "Ġgover": 870,
      "Ġmed": 871,
      "ract": 872,
      "Ġdep": 873,
      "Ġthink": 874,
      "ience": 875,
      "orn": 876,
      "Ġorder": 877,
      "Ġinform": 878,
      "ale": 879,
      "iven": 880,
      "ute": 881,
      "Ġtran": 882,
      "Ġupon": 883,
      "Ġcho": 884,
      "Ġexam": 885,
      "Ġaccord": 886,
      "ward": 887,
      "ram": 888,
      "ality": 889,
      "Ġarticle": 890,
      "ught": 891,
      "Ġel": 892,
      "dom": 893,
      "Ġold": 894,
      "Ġcontin": 895,
      "Ġblo": 896,
      "rent": 897,
      "Ġfri": 898,
      "Ġstill": 899,
      "Ġstand": 900,
      "Ġhow": 901,
      "Ġsur": 902,
      "ense": 903,
      "Ġask": 904,
      "vers": 905,
      "Ġbest": 906,
      "Ġmeet": 907,
      "Ġbook": 908,
      "pe": 909,
      "Ġgovern": 910,
      "Ġau": 911,
      "Ġpower": 912,
      "Ġed": 913,
      "Ġweek": 914,
      "Ġdavid": 915,
      "Ġlist": 916,
      "Ġpur": 917,
      "ash": 918,
      "Ġwater": 919,
      "jo": 920,
      "Ġheal": 921,
      "iel": 922,
      "Ġdet": 923,
      "Ġsaying": 924,
      "Ġgener": 925,
      "Ġconsider": 926,
      "Ġhowever": 927,
      "Ġtod": 928,
      "Ġconf": 929,
      "any": 930,
      "Ġposs": 931,
      "Ġexper": 932,
      "Ġwithout": 933,
      "Ġmonth": 934,
      "Ġturn": 935,
      "Ġthree": 936,
      "ody": 937,
      "Ġnever": 938,
      "Ġcare": 939,
      "Ġtoday": 940,
      "Ġout": 941,
      "Ġorgan": 942,
      "Ġfriend": 943,
      "own": 944,
      "ually": 945,
      "Ġfun": 946,
      "Ġothers": 947,
      "ined": 948,
      "Ġconc": 949,
      "Ġnum": 950,
      "Ġav": 951,
      "Ġbusiness": 952,
      "Ġchar": 953,
      "use": 954,
      "Ġint": 955,
      "Ġdiffer": 956,
      "Ġappro": 957,
      "Ġrece": 958,
      "Ġjer": 959,
      "Ġstr": 960,
      "Ġdire": 961,
      "Ġfree": 962,
      "arch": 963,
      "Ġspea": 964,
      "ope": 965,
      "Ġcountry": 966,
      "Ġused": 967,
      "Ġhead": 968,
      "alk": 969,
      "Ġben": 970,
      "Ġprom": 971,
      "Ġreally": 972,
      "Ġgoing": 973,
      "Ġtea": 974,
      "ular": 975,
      "Ġrest": 976,
      "Ġplan": 977,
      "Ġdef": 978,
      "ken": 979,
      "ized": 980,
      "Ġmark": 981,
      "Ġaround": 982,
      "ier": 983,
      "ern": 984,
      "Ġnot": 985,
      "Ġsure": 986,
      "velop": 987,
      "Ġopen": 988,
      "Ġinformation": 989,
      "Ġcent": 990,
      "ses": 991,
      "Ġdist": 992,
      "Ġquest": 993,
      "Ġyoun": 994,
      "Ġsat": 995,
      "Ġdevelop": 996,
      "az": 997,
      "Ġbet": 998,
      "amp": 999,
      "Ġiss": 1000,
      "stand": 1001,
      "sed": 1002,
      "Ġtook": 1003,
      "day": 1004,
      "Ġdel": 1005,
      "Ġgovernment": 1006,
      "unity": 1007,
      "Ġpar": 1008,
      "Ġgiven": 1009,
      "Ġloc": 1010,
      "Ġquestion": 1011,
      "Ġins": 1012,
      "Ġheaven": 1013,
      "ised": 1014,
      "Ġsent": 1015,
      "Ġthank": 1016,
      "ye": 1017,
      "Ġover": 1018,
      "Ġadv": 1019,
      "Ġcla": 1020,
      "Ġeth": 1021,
      "Ġsince": 1022,
      "ef": 1023,
      "ried": 1024,
      "Ġreturn": 1025,
      "Ġarm": 1026,
      "Ġsign": 1027,
      "Ġdeath": 1028,
      "Ġlearn": 1029,
      "gether": 1030,
      "Ġcomple": 1031,
      "Ġplease": 1032,
      "Ġteach": 1033,
      "outh": 1034,
      "Ġcreat": 1035,
      "Ġthere": 1036,
      "Ġmember": 1037,
      "Ġsupport": 1038,
      "Ġplay": 1039,
      "Ġbeh": 1040,
      "ron": 1041,
      "Ġest": 1042,
      "Ġtrans": 1043,
      "Ġval": 1044,
      "Ġprof": 1045,
      "Ġpublic": 1046,
      "Ġimport": 1047,
      "wer": 1048,
      "atch": 1049,
      "Ġreal": 1050,
      "iting": 1051,
      "itness": 1052,
      "Ġsol": 1053,
      "ertain": 1054,
      "Ġservant": 1055,
      "Ġhealth": 1056,
      "Ġmoses": 1057,
      "Ġtogether": 1058,
      "Ġaccording": 1059,
      "Ġsk": 1060,
      "Ġext": 1061,
      "Ġvis": 1062,
      "Ġkind": 1063,
      "ife": 1064,
      "Ġoffering": 1065,
      "Ġcompany": 1066,
      "Ġinv": 1067,
      "Ġnumber": 1068,
      "Ġpray": 1069,
      "ool": 1070,
      "stem": 1071,
      "Ġah": 1072,
      "ew": 1073,
      "Ġhuman": 1074,
      "Ġfar": 1075,
      "ix": 1076,
      "iah": 1077,
      "ize": 1078,
      "Ġexample": 1079,
      "Ġeye": 1080,
      "Ġemp": 1081,
      "Ġtry": 1082,
      "Ġreason": 1083,
      "ention": 1084,
      "ways": 1085,
      "Ġcalled": 1086,
      "Ġauth": 1087,
      "Ġcommand": 1088,
      "Ġthy": 1089,
      "Ġlot": 1090,
      "ittle": 1091,
      "Ġface": 1092,
      "Ġalways": 1093,
      "Ġsystem": 1094,
      "Ġtrue": 1095,
      "Ġsomething": 1096,
      "Ġpriest": 1097,
      "Ġchristian": 1098,
      "Ġlittle": 1099,
      "Ġpay": 1100,
      "Ġcur": 1101,
      "Ġreport": 1102,
      "Ġprog": 1103,
      "ired": 1104,
      "Ġdone": 1105,
      "Ġchange": 1106,
      "Ġyoung": 1107,
      "min": 1108,
      "ional": 1109,
      "ration": 1110,
      "Ġwitness": 1111,
      "loy": 1112,
      "Ġtell": 1113,
      "swer": 1114,
      "Ġer": 1115,
      "Ġcong": 1116,
      "Ġbetter": 1117,
      "mo": 1118,
      "Ġbuild": 1119,
      "Ġlive": 1120,
      "Ġpost": 1121,
      "pl": 1122,
      "Ġbody": 1123,
      "Ġnext": 1124,
      "rol": 1125,
      "Ġanswer": 1126,
      "reg": 1127,
      "Ġye": 1128,
      "Ġgl": 1129,
      "ake": 1130,
      "oney": 1131,
      "cc": 1132,
      "Ġarea": 1133,
      "blem": 1134,
      "Ġfact": 1135,
      "Ġfood": 1136,
      "Ġgave": 1137,
      "by": 1138,
      "Ġyet": 1139,
      "Ġinf": 1140,
      "ield": 1141,
      "Ġdev": 1142,
      "Ġauthor": 1143,
      "ged": 1144,
      "Ġinterest": 1145,
      "Ġwife": 1146,
      "Ġexperience": 1147,
      "Ġaff": 1148,
      "ead": 1149,
      "Ġpresent": 1150,
      "Ġhar": 1151,
      "cri": 1152,
      "Ġeas": 1153,
      "Ġprovide": 1154,
      "Ġschool": 1155,
      "Ġeng": 1156,
      "ature": 1157,
      "Ġproblem": 1158,
      "Ġethi": 1159,
      "Ġpat": 1160,
      "Ġpoint": 1161,
      "ster": 1162,
      "oup": 1163,
      "ret": 1164,
      "eous": 1165,
      "Ġwhe": 1166,
      "Ġhard": 1167,
      "Ġkingdom": 1168,
      "Ġholy": 1169,
      "Ġunderstand": 1170,
      "Ġfire": 1171,
      "ization": 1172,
      "Ġdirect": 1173,
      "Ġaf": 1174,
      "Ġbrought": 1175,
      "ying": 1176,
      "Ġpass": 1177,
      "ric": 1178,
      "Ġethiop": 1179,
      "Ġfull": 1180,
      "ughter": 1181,
      "Ġdifferent": 1182,
      "Ġgrow": 1183,
      "Ġproduct": 1184,
      "ack": 1185,
      "Ġoffic": 1186,
      "Ġresult": 1187,
      "Ġmod": 1188,
      "Ġhope": 1189,
      "ling": 1190,
      "Ġdesign": 1191,
      "Ġweb": 1192,
      "ted": 1193,
      "Ġenjo": 1194,
      "Ġbecame": 1195,
      "Ġfl": 1196,
      "Ġpeace": 1197,
      "Ġside": 1198,
      "Ġnight": 1199,
      "Ġview": 1200,
      "ific": 1201,
      "Ġbl": 1202,
      "ital": 1203,
      "Ġtem": 1204,
      "Ġtold": 1205,
      "Ġcre": 1206,
      "Ġmess": 1207,
      "ety": 1208,
      "over": 1209,
      "Ġthough": 1210,
      "Ġevent": 1211,
      "Ġimportant": 1212,
      "Ġmaking": 1213,
      "Ġspeak": 1214,
      "Ġproph": 1215,
      "Ġinde": 1216,
      "Ġcase": 1217,
      "vest": 1218,
      "pr": 1219,
      "Ġintern": 1220,
      "Ġnews": 1221,
      "ining": 1222,
      "Ġeat": 1223,
      "Ġable": 1224,
      "Ġdr": 1225,
      "Ġcan": 1226,
      "Ġemploy": 1227,
      "iving": 1228,
      "Ġremain": 1229,
      "Ġaccount": 1230,
      "Ġallow": 1231,
      "Ġissue": 1232,
      "Ġpaul": 1233,
      "ission": 1234,
      "Ġmoney": 1235,
      "Ġsaw": 1236,
      "ury": 1237,
      "illed": 1238,
      "Ġfour": 1239,
      "ivity": 1240,
      "asure": 1241,
      "Ġwithin": 1242,
      "olog": 1243,
      "io": 1244,
      "fore": 1245,
      "ood": 1246,
      "Ġcertain": 1247,
      "Ġrespon": 1248,
      "up": 1249,
      "Ġshare": 1250,
      "Ġcongreg": 1251,
      "ass": 1252,
      "Ġlar": 1253,
      "Ġstudent": 1254,
      "Ġmarket": 1255,
      "Ġleft": 1256,
      "ected": 1257,
      "Ġdest": 1258,
      "Ġjob": 1259,
      "Ġgre": 1260,
      "Ġcust": 1261,
      "Ġgot": 1262,
      "ciple": 1263,
      "cl": 1264,
      "Ġnear": 1265,
      "Ġenter": 1266,
      "Ġgroup": 1267,
      "Ġprot": 1268,
      "gin": 1269,
      "man": 1270,
      "Ġcongregation": 1271,
      "gth": 1272,
      "Ġbir": 1273,
      "Ġhour": 1274,
      "Ġmeeting": 1275,
      "ued": 1276,
      "Ġev": 1277,
      "Ġalong": 1278,
      "get": 1279,
      "Ġdra": 1280,
      "Ġrev": 1281,
      "Ġenjoy": 1282,
      "Ġheard": 1283,
      "mon": 1284,
      "line": 1285,
      "Ġleg": 1286,
      "illion": 1287,
      "Ġcoun": 1288,
      "oura": 1289,
      "uc": 1290,
      "Ġeffect": 1291,
      "Ġmount": 1292,
      "ium": 1293,
      "Ġrighteous": 1294,
      "be": 1295,
      "Ġtop": 1296,
      "Ġcause": 1297,
      "ately": 1298,
      "Ġprovid": 1299,
      "Ġproper": 1300,
      "Ġsecond": 1301,
      "tle": 1302,
      "Ġlight": 1303,
      "Ġthought": 1304,
      "Ġfollowing": 1305,
      "Ġsit": 1306,
      "res": 1307,
      "Ġindeed": 1308,
      "Ġliving": 1309,
      "Ġmor": 1310,
      "side": 1311,
      "Ġty": 1312,
      "Ġcustom": 1313,
      "port": 1314,
      "Ġjoh": 1315,
      "Ġpract": 1316,
      "Ġbenef": 1317,
      "Ġaw": 1318,
      "Ġsuc": 1319,
      "ich": 1320,
      "Ġimm": 1321,
      "ither": 1322,
      "Ġseem": 1323,
      "Ġbar": 1324,
      "ulation": 1325,
      "Ġmind": 1326,
      "Ġcover": 1327,
      "ork": 1328,
      "os": 1329,
      "Ġpet": 1330,
      "ency": 1331,
      "Ġbegan": 1332,
      "Ġdri": 1333,
      "Ġtruth": 1334,
      "her": 1335,
      "Ġfre": 1336,
      "Ġcourse": 1337,
      "Ġrun": 1338,
      "ivid": 1339,
      "alem": 1340,
      "ator": 1341,
      "Ġfoot": 1342,
      "dition": 1343,
      "Ġide": 1344,
      "Ġstudy": 1345,
      "Ġcamp": 1346,
      "Ġna": 1347,
      "Ġjohn": 1348,
      "Ġgame": 1349,
      "Ġjerus": 1350,
      "ey": 1351,
      "Ġjerusalem": 1352,
      "Ġavail": 1353,
      "Ġprogram": 1354,
      "Ġmer": 1355,
      "ource": 1356,
      "ser": 1357,
      "Ġtest": 1358,
      "Ġegy": 1359,
      "Ġoffice": 1360,
      "Ġegypt": 1361,
      "Ġclear": 1362,
      "Ġthee": 1363,
      "Ġparent": 1364,
      "Ġsmall": 1365,
      "Ġnor": 1366,
      "Ġon": 1367,
      "Ġprep": 1368,
      "Ġenc": 1369,
      "Ġbless": 1370,
      "Ġtech": 1371,
      "iver": 1372,
      "Ġche": 1373,
      "Ġprocess": 1374,
      "Ġann": 1375,
      "Ġdecision": 1376,
      "Ġproject": 1377,
      "Ġworking": 1378,
      "Ġbig": 1379,
      "Ġcontrol": 1380,
      "Ġfle": 1381,
      "Ġcontinue": 1382,
      "Ġang": 1383,
      "Ġdaughter": 1384,
      "ational": 1385,
      "eric": 1386,
      "con": 1387,
      "alt": 1388,
      "Ġmatter": 1389,
      "ffic": 1390,
      "ently": 1391,
      "Ġlooking": 1392,
      "Ġspecial": 1393,
      "Ġwhether": 1394,
      "ross": 1395,
      "gest": 1396,
      "land": 1397,
      "Ġconst": 1398,
      "Ġren": 1399,
      "Ġmid": 1400,
      "Ġpartic": 1401,
      "Ġwatch": 1402,
      "ection": 1403,
      "Ġorganization": 1404,
      "Ġtherefore": 1405,
      "bo": 1406,
      "und": 1407,
      "inted": 1408,
      "Ġrele": 1409,
      "Ġpast": 1410,
      "Ġwa": 1411,
      "Ġair": 1412,
      "Ġtow": 1413,
      "Ġfav": 1414,
      "cing": 1415,
      "oke": 1416,
      "sition": 1417,
      "Ġusing": 1418,
      "ark": 1419,
      "Ġprin": 1420,
      "me": 1421,
      "Ġincluding": 1422,
      "bor": 1423,
      "Ġameric": 1424,
      "Ġbad": 1425,
      "Ġlater": 1426,
      "Ġfear": 1427,
      "ural": 1428,
      "air": 1429,
      "Ġteam": 1430,
      "Ġinvest": 1431,
      "Ġthr": 1432,
      "Ġmother": 1433,
      "sc": 1434,
      "Ġsing": 1435,
      "Ġve": 1436,
      "Ġexc": 1437,
      "Ġtri": 1438,
      "Ġhold": 1439,
      "Ġstru": 1440,
      "Ġstay": 1441,
      "Ġwhole": 1442,
      "rit": 1443,
      "Ġavailable": 1444,
      "ened": 1445,
      "alf": 1446,
      "ically": 1447,
      "Ġvo": 1448,
      "Ġfield": 1449,
      "Ġbased": 1450,
      "de": 1451,
      "elf": 1452,
      "Ġtreat": 1453,
      "Ġnothing": 1454,
      "Ġsend": 1455,
      "Ġaccept": 1456,
      "Ġleader": 1457,
      "Ġsla": 1458,
      "Ġterm": 1459,
      "icked": 1460,
      "Ġburn": 1461,
      "Ġbelieve": 1462,
      "cle": 1463,
      "Ġflo": 1464,
      "ift": 1465,
      "Ġter": 1466,
      "Ġfut": 1467,
      "Ġsomeone": 1468,
      "ften": 1469,
      "Ġfall": 1470,
      "Ġocc": 1471,
      "Ġclean": 1472,
      "used": 1473,
      "ended": 1474,
      "Ġtechn": 1475,
      "Ġrelation": 1476,
      "Ġarmy": 1477,
      "ief": 1478,
      "Ġlu": 1479,
      "ring": 1480,
      "Ġtoward": 1481,
      "onder": 1482,
      "Ġbas": 1483,
      "Ġremember": 1484,
      "Ġjudah": 1485,
      "ison": 1486,
      "ified": 1487,
      "ys": 1488,
      "Ġregard": 1489,
      "Ġactivity": 1490,
      "urity": 1491,
      "Ġsun": 1492,
      "Ġstren": 1493,
      "Ġoften": 1494,
      "Ġknown": 1495,
      "ablish": 1496,
      "Ġincre": 1497,
      "Ġtaken": 1498,
      "Ġstrength": 1499,
      "Ġvar": 1500,
      "ose": 1501,
      "ribe": 1502,
      "ites": 1503,
      "Ġvisit": 1504,
      "Ġestablish": 1505,
      "Ġprofess": 1506,
      "Ġstop": 1507,
      "ilt": 1508,
      "ipp": 1509,
      "ush": 1510,
      "istry": 1511,
      "Ġanyone": 1512,
      "Ġserve": 1513,
      "Ġsil": 1514,
      "Ġseen": 1515,
      "Ġstrong": 1516,
      "Ġperform": 1517,
      "Ġpage": 1518,
      "ived": 1519,
      "Ġsite": 1520,
      "Ġquality": 1521,
      "Ġpossible": 1522,
      "Ġwin": 1523,
      "ured": 1524,
      "aut": 1525,
      "ination": 1526,
      "ism": 1527,
      "ledge": 1528,
      "site": 1529,
      "Ġfell": 1530,
      "Ġdead": 1531,
      "Ġgold": 1532,
      "Ġblood": 1533,
      "ote": 1534,
      "Ġcoming": 1535,
      "Ġbenefit": 1536,
      "Ġmr": 1537,
      "Ġsuccess": 1538,
      "Ġlang": 1539,
      "Ġuni": 1540,
      "Ġauthority": 1541,
      "Ġthir": 1542,
      "Ġlevel": 1543,
      "Ġbeaut": 1544,
      "fort": 1545,
      "Ġpriv": 1546,
      "Ġfuture": 1547,
      "Ġfive": 1548,
      "ob": 1549,
      "Ġperf": 1550,
      "Ġwonder": 1551,
      "Ġhist": 1552,
      "fully": 1553,
      "Ġroom": 1554,
      "Ġlangu": 1555,
      "Ġrese": 1556,
      "Ġstory": 1557,
      "Ġasked": 1558,
      "Ġeverything": 1559,
      "Ġmove": 1560,
      "Ġparty": 1561,
      "Ġcost": 1562,
      "ira": 1563,
      "Ġcal": 1564,
      "Ġlanguage": 1565,
      "Ġsacri": 1566,
      "Ġsacrif": 1567,
      "Ġsever": 1568,
      "Ġsoon": 1569,
      "Ġyes": 1570,
      "Ġwalk": 1571,
      "Ġstep": 1572,
      "Ġmet": 1573,
      "Ġadmin": 1574,
      "Ġmil": 1575,
      "Ġvi": 1576,
      "Ġagree": 1577,
      "Ġhappy": 1578,
      "Ġequ": 1579,
      "Ġalth": 1580,
      "Ġcap": 1581,
      "Ġsecurity": 1582,
      "ham": 1583,
      "Ġmillion": 1584,
      "Ġalthough": 1585,
      "Ġidea": 1586,
      "ror": 1587,
      "amation": 1588,
      "Ġdeal": 1589,
      "ready": 1590,
      "Ġclose": 1591,
      "uation": 1592,
      "Ġalready": 1593,
      "Ġindivid": 1594,
      "Ġthanks": 1595,
      "omm": 1596,
      "Ġaddition": 1597,
      "Ġgeneral": 1598,
      "Ġclass": 1599,
      "Ġprophet": 1600,
      "Ġspiritual": 1601,
      "Ġcommunity": 1602,
      "clamation": 1603,
      "ned": 1604,
      "Ġreach": 1605,
      "Ġforce": 1606,
      "Ġofficial": 1607,
      "Ġlisten": 1608,
      "itten": 1609,
      "Ġcourt": 1610,
      "Ġproclamation": 1611,
      "Ġrequire": 1612,
      "ruction": 1613,
      "ior": 1614,
      "Ġbegin": 1615,
      "sal": 1616,
      "Ġcheck": 1617,
      "Ġsocial": 1618,
      "Ġspeci": 1619,
      "cil": 1620,
      "Ġele": 1621,
      "ify": 1622,
      "Ġanything": 1623,
      "emy": 1624,
      "tern": 1625,
      "Ġfavor": 1626,
      "ak": 1627,
      "Ġwind": 1628,
      "Ġline": 1629,
      "Ġsea": 1630,
      "gg": 1631,
      "Ġministry": 1632,
      "Ġdesc": 1633,
      "oud": 1634,
      "Ġbaby": 1635,
      "Ġforg": 1636,
      "Ġpress": 1637,
      "ream": 1638,
      "Ġreceive": 1639,
      "eral": 1640,
      "ising": 1641,
      "Ġrather": 1642,
      "Ġresearch": 1643,
      "wh": 1644,
      "Ġmus": 1645,
      "Ġwicked": 1646,
      "ably": 1647,
      "Ġpho": 1648,
      "Ġdat": 1649,
      "Ġshort": 1650,
      "Ġcut": 1651,
      "Ġsam": 1652,
      "Ġsound": 1653,
      "oci": 1654,
      "Ġpersonal": 1655,
      "Ġeduc": 1656,
      "Ġdevelopment": 1657,
      "ology": 1658,
      "Ġoper": 1659,
      "ourage": 1660,
      "mer": 1661,
      "Ġeld": 1662,
      "iron": 1663,
      "Ġindividual": 1664,
      "Ġeveryone": 1665,
      "Ġmountain": 1666,
      "ibility": 1667,
      "Ġjew": 1668,
      "Ġknowledge": 1669,
      "Ġmaj": 1670,
      "Ġbrea": 1671,
      "eal": 1672,
      "Ġassoci": 1673,
      "illing": 1674,
      "Ġprayer": 1675,
      "Ġsug": 1676,
      "Ġboard": 1677,
      "Ġnational": 1678,
      "ication": 1679,
      "Ġseven": 1680,
      "Ġtalk": 1681,
      "Ġtravel": 1682,
      "Ġwritten": 1683,
      "oh": 1684,
      "Ġlocal": 1685,
      "yal": 1686,
      "Ġwebsite": 1687,
      "Ġprice": 1688,
      "Ġopt": 1689,
      "Ġwrong": 1690,
      "Ġstarted": 1691,
      "Ġopport": 1692,
      "Ġdepart": 1693,
      "ies": 1694,
      "pose": 1695,
      "cially": 1696,
      "Ġpop": 1697,
      "Ġrespons": 1698,
      "Ġpra": 1699,
      "Ġwild": 1700,
      "ending": 1701,
      "ared": 1702,
      "Ġisraelite": 1703,
      "Ġquick": 1704,
      "ront": 1705,
      "ided": 1706,
      "Ġlarge": 1707,
      "Ġtree": 1708,
      "Ġelder": 1709,
      "br": 1710,
      "Ġcarry": 1711,
      "Ġopportunity": 1712,
      "elt": 1713,
      "Ġgift": 1714,
      "Ġesp": 1715,
      "Ġstri": 1716,
      "Ġexpla": 1717,
      "Ġkept": 1718,
      "ourn": 1719,
      "Ġage": 1720,
      "Ġfine": 1721,
      "Ġtim": 1722,
      "Ġfru": 1723,
      "Ġgather": 1724,
      "Ġtaking": 1725,
      "Ġcondition": 1726,
      "Ġcontact": 1727,
      "Ġcustomer": 1728,
      "Ġperfect": 1729,
      "Ġrecord": 1730,
      "Ġpresident": 1731,
      "Ġphil": 1732,
      "Ġlim": 1733,
      "rew": 1734,
      "Ġhot": 1735,
      "Ġsan": 1736,
      "irc": 1737,
      "Ġgetting": 1738,
      "duct": 1739,
      "Ġtrust": 1740,
      "Ġdeliver": 1741,
      "ption": 1742,
      "Ġmeasure": 1743,
      "Ġexpress": 1744,
      "Ġill": 1745,
      "Ġtype": 1746,
      "Ġleave": 1747,
      "Ġfoc": 1748,
      "Ġap": 1749,
      "urch": 1750,
      "Ġsum": 1751,
      "Ġself": 1752,
      "Ġenough": 1753,
      "Ġaccess": 1754,
      "Ġgiving": 1755,
      "raph": 1756,
      "Ġgar": 1757,
      "Ġminister": 1758,
      "Ġjoy": 1759,
      "Ġpolit": 1760,
      "Ġcurrent": 1761,
      "Ġten": 1762,
      "Ġbla": 1763,
      "spect": 1764,
      "Ġcommitt": 1765,
      "Ġvoice": 1766,
      "Ġphoto": 1767,
      "atic": 1768,
      "Ġelect": 1769,
      "oth": 1770,
      "Ġground": 1771,
      "ouch": 1772,
      "ished": 1773,
      "Ġdw": 1774,
      "Ġunited": 1775,
      "Ġaction": 1776,
      "Ġbit": 1777,
      "Ġvalue": 1778,
      "Ġangel": 1779,
      "of": 1780,
      "Ġappo": 1781,
      "Ġphar": 1782,
      "Ġvide": 1783,
      "Ġthous": 1784,
      "Ġpreach": 1785,
      "Ġsacrifice": 1786,
      "Ġoil": 1787,
      "Ġsuffer": 1788,
      "Ġenemy": 1789,
      "Ġeasy": 1790,
      "Ġmater": 1791,
      "Ġleast": 1792,
      "band": 1793,
      "Ġfail": 1794,
      "Ġthousand": 1795,
      "Ġinvol": 1796,
      "Ġfil": 1797,
      "Ġdeep": 1798,
      "Ġbat": 1799,
      "Ġdeterm": 1800,
      "Ġnecess": 1801,
      "Ġapplic": 1802,
      "ec": 1803,
      "Ġearly": 1804,
      "Ġapo": 1805,
      "Ġforeign": 1806,
      "Ġtr": 1807,
      "Ġthus": 1808,
      "Ġenv": 1809,
      "Ġsci": 1810,
      "Ġtent": 1811,
      "Ġvideo": 1812,
      "Ġscri": 1813,
      "bel": 1814,
      "Ġdecla": 1815,
      "Ġrespect": 1816,
      "Ġadminist": 1817,
      "Ġfed": 1818,
      "fer": 1819,
      "Ġsister": 1820,
      "Ġsix": 1821,
      "Ġport": 1822,
      "conom": 1823,
      "Ġespe": 1824,
      "Ġespecially": 1825,
      "Ġscript": 1826,
      "Ġdiv": 1827,
      "ock": 1828,
      "Ġimpro": 1829,
      "Ġmorning": 1830,
      "inking": 1831,
      "Ġago": 1832,
      "ze": 1833,
      "Ġsituation": 1834,
      "resent": 1835,
      "iful": 1836,
      "Ġremo": 1837,
      "Ġsouth": 1838,
      "Ġdisciple": 1839,
      "Ġcra": 1840,
      "Ġdata": 1841,
      "Ġfight": 1842,
      "Ġindust": 1843,
      "Ġeconom": 1844,
      "allen": 1845,
      "elling": 1846,
      "Ġeffort": 1847,
      "Ġmessage": 1848,
      "Ġproperty": 1849,
      "Ġcop": 1850,
      "Ġinstead": 1851,
      "Ġamerican": 1852,
      "Ġsuper": 1853,
      "Ġrelig": 1854,
      "Ġlik": 1855,
      "Ġhus": 1856,
      "ates": 1857,
      "Ġrequest": 1858,
      "Ġsal": 1859,
      "Ġspecif": 1860,
      "Ġdied": 1861,
      "Ġnon": 1862,
      "ton": 1863,
      "Ġrepresent": 1864,
      "ding": 1865,
      "li": 1866,
      "Ġsaul": 1867,
      "ral": 1868,
      "ument": 1869,
      "Ġdetail": 1870,
      "Ġdrink": 1871,
      "tar": 1872,
      "Ġconcern": 1873,
      "Ġmanage": 1874,
      "Ġviol": 1875,
      "uge": 1876,
      "Ġbed": 1877,
      "stle": 1878,
      "Ġcolle": 1879,
      "Ġsearch": 1880,
      "Ġhusband": 1881,
      "Ġmag": 1882,
      "Ġcomfort": 1883,
      "den": 1884,
      "Ġtre": 1885,
      "Ġchallen": 1886,
      "Ġhor": 1887,
      "ctor": 1888,
      "que": 1889,
      "Ġdesire": 1890,
      "Ġonline": 1891,
      "Ġmom": 1892,
      "Ġdie": 1893,
      "Ġher": 1894,
      "Ġconduct": 1895,
      "Ġmaterial": 1896,
      "vation": 1897,
      "Ġbuilding": 1898,
      "Ġdraw": 1899,
      "Ġthird": 1900,
      "Ġgoal": 1901,
      "iece": 1902,
      "Ġisa": 1903,
      "Ġcommun": 1904,
      "Ġstone": 1905,
      "Ġchurch": 1906,
      "Ġgir": 1907,
      "Ġminute": 1908,
      "Ġpurpose": 1909,
      "Ġpractice": 1910,
      "ively": 1911,
      "Ġsecret": 1912,
      "Ġsou": 1913,
      "Ġdue": 1914,
      "Ġworker": 1915,
      "cent": 1916,
      "imal": 1917,
      "uter": 1918,
      "Ġwhose": 1919,
      "Ġdou": 1920,
      "Ġbra": 1921,
      "ability": 1922,
      "Ġnorth": 1923,
      "Ġbeautiful": 1924,
      "icy": 1925,
      "Ġbreak": 1926,
      "Ġwhere": 1927,
      "Ġexcept": 1928,
      "Ġbuy": 1929,
      "itch": 1930,
      "Ġcomment": 1931,
      "Ġsource": 1932,
      "Ġmedium": 1933,
      "amed": 1934,
      "Ġfront": 1935,
      "Ġrefer": 1936,
      "Ġwea": 1937,
      "ilar": 1938,
      "Ġdoor": 1939,
      "Ġpot": 1940,
      "Ġmult": 1941,
      "Ġmaint": 1942,
      "Ġethiopian": 1943,
      "Ġcirc": 1944,
      "itution": 1945,
      "Ġdiffic": 1946,
      "Ġclaim": 1947,
      "Ġdifficult": 1948,
      "Ġmention": 1949,
      "Ġjudge": 1950,
      "gment": 1951,
      "Ġsl": 1952,
      "Ġnet": 1953,
      "Ġjose": 1954,
      "Ġens": 1955,
      "Ġdestro": 1956,
      "eth": 1957,
      "Ġeast": 1958,
      "Ġimage": 1959,
      "Ġseveral": 1960,
      "Ġtraining": 1961,
      "Ġwanted": 1962,
      "Ġpas": 1963,
      "Ġethiopia": 1964,
      "Ġeu": 1965,
      "Ġobser": 1966,
      "Ġce": 1967,
      "iter": 1968,
      "Ġphys": 1969,
      "Ġreceived": 1970,
      "Ġprofessional": 1971,
      "Ġcult": 1972,
      "itive": 1973,
      "Ġchief": 1974,
      "val": 1975,
      "Ġworth": 1976,
      "Ġprovided": 1977,
      "Ġsn": 1978,
      "Ġhath": 1979,
      "ssion": 1980,
      "Ġregion": 1981,
      "Ġhon": 1982,
      "Ġtable": 1983,
      "itor": 1984,
      "Ġposition": 1985,
      "ode": 1986,
      "Ġrule": 1987,
      "Ġsex": 1988,
      "ergy": 1989,
      "Ġhalf": 1990,
      "Ġsave": 1991,
      "Ġinternational": 1992,
      "Ġmajor": 1993,
      "Ġdesp": 1994,
      "ging": 1995,
      "Ġinsp": 1996,
      "bt": 1997,
      "ley": 1998,
      "Ġabra": 1999,
      "Ġcompet": 2000,
      "Ġapproach": 2001,
      "Ġkid": 2002,
      "ager": 2003,
      "uel": 2004,
      "Ġsle": 2005,
      "Ġjoseph": 2006,
      "gr": 2007,
      "Ġfaithful": 2008,
      "most": 2009,
      "Ġabraham": 2010,
      "work": 2011,
      "Ġshe": 2012,
      "Ġwis": 2013,
      "Ġwall": 2014,
      "Ġevid": 2015,
      "Ġcapt": 2016,
      "Ġreading": 2017,
      "iod": 2018,
      "vious": 2019,
      "Ġbear": 2020,
      "ored": 2021,
      "Ġappear": 2022,
      "ude": 2023,
      "mit": 2024,
      "Ġjac": 2025,
      "Ġcreate": 2026,
      "Ġdan": 2027,
      "Ġnat": 2028,
      "Ġident": 2029,
      "Ġhistory": 2030,
      "room": 2031,
      "right": 2032,
      "Ġrelationship": 2033,
      "omet": 2034,
      "Ġneeded": 2035,
      "Ġsimilar": 2036,
      "Ġpun": 2037,
      "Ġpeter": 2038,
      "aron": 2039,
      "Ġconn": 2040,
      "Ġbre": 2041,
      "Ġcouncil": 2042,
      "Ġactually": 2043,
      "Ġver": 2044,
      "Ġsatan": 2045,
      "alking": 2046,
      "cer": 2047,
      "Ġtouch": 2048,
      "Ġdate": 2049,
      "Ġjacob": 2050,
      "Ġcou": 2051,
      "Ġsubject": 2052,
      "Ġmain": 2053,
      "Ġorig": 2054,
      "Ġstandard": 2055,
      "Ġbirth": 2056,
      "Ġapostle": 2057,
      "Ġgirl": 2058,
      "Ġperiod": 2059,
      "Ġsold": 2060,
      "omp": 2061,
      "Ġexist": 2062,
      "Ġseason": 2063,
      "Ġtown": 2064,
      "Ġlow": 2065,
      "versity": 2066,
      "ential": 2067,
      "Ġloyal": 2068,
      "Ġfruit": 2069,
      "Ġsong": 2070,
      "Ġlic": 2071,
      "Ġjourn": 2072,
      "Ġneg": 2073,
      "Ġexpect": 2074,
      "Ġattack": 2075,
      "Ġwriting": 2076,
      "Ġinclude": 2077,
      "edi": 2078,
      "Ġnote": 2079,
      "Ġorigin": 2080,
      "uty": 2081,
      "asing": 2082,
      "Ġdestroy": 2083,
      "Ġfeeling": 2084,
      "Ġfinan": 2085,
      "Ġmiss": 2086,
      "Ġroad": 2087,
      "oid": 2088,
      "Ġkey": 2089,
      "Ġamaz": 2090,
      "Ġcontent": 2091,
      "Ġwro": 2092,
      "Ġaltar": 2093,
      "Ġrich": 2094,
      "Ġpolicy": 2095,
      "Ġlate": 2096,
      "Ġjust": 2097,
      "Ġur": 2098,
      "Ġcri": 2099,
      "urance": 2100,
      "Ġturned": 2101,
      "Ġnecessary": 2102,
      "ull": 2103,
      "riage": 2104,
      "Ġworship": 2105,
      "Ġcentury": 2106,
      "Ġmilit": 2107,
      "Ġassign": 2108,
      "Ġanimal": 2109,
      "Ġbread": 2110,
      "Ġelse": 2111,
      "Ġpiece": 2112,
      "ceed": 2113,
      "Ġexec": 2114,
      "Ġant": 2115,
      "Ġblog": 2116,
      "Ġbehind": 2117,
      "Ġdam": 2118,
      "Ġpraise": 2119,
      "Ġenviron": 2120,
      "Ġmot": 2121,
      "Ġforward": 2122,
      "hab": 2123,
      "Ġpromise": 2124,
      "aps": 2125,
      "Ġenvironment": 2126,
      "Ġtribe": 2127,
      "Ġwash": 2128,
      "Ġwrote": 2129,
      "Ġreview": 2130,
      "rop": 2131,
      "Ġoppo": 2132,
      "Ġappre": 2133,
      "Ġuser": 2134,
      "por": 2135,
      "Ġattention": 2136,
      "Ġbow": 2137,
      "itude": 2138,
      "Ġsale": 2139,
      "Ġheld": 2140,
      "come": 2141,
      "Ġcouple": 2142,
      "Ġcommon": 2143,
      "Ġvol": 2144,
      "Ġcertainly": 2145,
      "Ġbal": 2146,
      "Ġsword": 2147,
      "ien": 2148,
      "iday": 2149,
      "Ġaud": 2150,
      "Ġentire": 2151,
      "Ġsimp": 2152,
      "Ġpict": 2153,
      "Ġheb": 2154,
      "Ġemail": 2155,
      "Ġassist": 2156,
      "Ġdown": 2157,
      "Ġindustry": 2158,
      "Ġwest": 2159,
      "Ġteaching": 2160,
      "aring": 2161,
      "Ġut": 2162,
      "Ġlikely": 2163,
      "uring": 2164,
      "Ġcomplete": 2165,
      "Ġfeature": 2166,
      "Ġgate": 2167,
      "Ġaaron": 2168,
      "Ġchang": 2169,
      "Ġregular": 2170,
      "Ġready": 2171,
      "Ġlonger": 2172,
      "Ġflesh": 2173,
      "ogn": 2174,
      "Ġcreated": 2175,
      "Ġthrough": 2176,
      "Ġwhite": 2177,
      "haps": 2178,
      "Ġred": 2179,
      "Ġinher": 2180,
      "Ġsuggest": 2181,
      "Ġappreci": 2182,
      "Ġge": 2183,
      "Ġperhaps": 2184,
      "Ġfig": 2185,
      "Ġfocus": 2186,
      "ained": 2187,
      "Ġoutside": 2188,
      "Ġshalt": 2189,
      "une": 2190,
      "Ġlink": 2191,
      "isk": 2192,
      "Ġlev": 2193,
      "Ġdon": 2194,
      "Ġthroughout": 2195,
      "Ġpatient": 2196,
      "Ġclient": 2197,
      "Ġpain": 2198,
      "Ġcred": 2199,
      "Ġeducation": 2200,
      "Ġglo": 2201,
      "isf": 2202,
      "Ġspoke": 2203,
      "Ġconsum": 2204,
      "Ġdisclo": 2205,
      "Ġpublish": 2206,
      "Ġtax": 2207,
      "Ġmouth": 2208,
      "Ġbank": 2209,
      "Ġstat": 2210,
      "Ġmem": 2211,
      "eep": 2212,
      "Ġpurch": 2213,
      "Ġrecogn": 2214,
      "Ġmaster": 2215,
      "Ġchoice": 2216,
      "Ġparticular": 2217,
      "cious": 2218,
      "Ġhappen": 2219,
      "Ġinj": 2220,
      "Ġforever": 2221,
      "Ġcrit": 2222,
      "Ġglory": 2223,
      "Ġsimply": 2224,
      "Ġhol": 2225,
      "Ġfellow": 2226,
      "Ġfelt": 2227,
      "Ġmarriage": 2228,
      "Ġpicture": 2229,
      "Ġow": 2230,
      "Ġden": 2231,
      "Ġcorre": 2232,
      "Ġchoose": 2233,
      "Ġimmedi": 2234,
      "ware": 2235,
      "Ġavoid": 2236,
      "yle": 2237,
      "ott": 2238,
      "Ġoption": 2239,
      "Ġaddress": 2240,
      "Ġcomputer": 2241,
      "Ġfirm": 2242,
      "Ġtrying": 2243,
      "Ġsilver": 2244,
      "Ġaut": 2245,
      "Ġagreement": 2246,
      "Ġbeth": 2247,
      "Ġdoc": 2248,
      "str": 2249,
      "ease": 2250,
      "Ġstore": 2251,
      "Ġcharge": 2252,
      "Ġsimple": 2253,
      "Ġwisdom": 2254,
      "Ġcrow": 2255,
      "Ġborn": 2256,
      "Ġmilitary": 2257,
      "Ġincrease": 2258,
      "Ġimple": 2259,
      "Ġsingle": 2260,
      "Ġimplement": 2261,
      "ik": 2262,
      "sting": 2263,
      "Ġsatisf": 2264,
      "Ġfederal": 2265,
      "Ġcard": 2266,
      "Ġrecomm": 2267,
      "Ġapplication": 2268,
      "aff": 2269,
      "Ġarri": 2270,
      "Ġsaf": 2271,
      "venant": 2272,
      "Ġamount": 2273,
      "Ġdom": 2274,
      "Ġacross": 2275,
      "Ġcovenant": 2276,
      "su": 2277,
      "itting": 2278,
      "bb": 2279,
      "app": 2280,
      "Ġmis": 2281,
      "Ġcommission": 2282,
      "Ġmanagement": 2283,
      "Ġbuilt": 2284,
      "ony": 2285,
      "Ġloved": 2286,
      "Ġstatement": 2287,
      "Ġlie": 2288,
      "Ġspace": 2289,
      "Ġserious": 2290,
      "Ġfr": 2291,
      "Ġstra": 2292,
      "Ġeph": 2293,
      "Ġcontrib": 2294,
      "Ġram": 2295,
      "Ġletter": 2296,
      "Ġsurely": 2297,
      "Ġshop": 2298,
      "Ġblack": 2299,
      "Ġknew": 2300,
      "Ġmatt": 2301,
      "Ġemployee": 2302,
      "Ġprotect": 2303,
      "cr": 2304,
      "ai": 2305,
      "Ġwhate": 2306,
      "Ġran": 2307,
      "Ġira": 2308,
      "Ġbelong": 2309,
      "Ġwhatever": 2310,
      "Ġsense": 2311,
      "Ġjudgment": 2312,
      "Ġpolitical": 2313,
      "Ġscripture": 2314,
      "ping": 2315,
      "Ġneither": 2316,
      "Ġslave": 2317,
      "Ġmusic": 2318,
      "Ġdru": 2319,
      "Ġlea": 2320,
      "Ġcontinued": 2321,
      "Ġchallenge": 2322,
      "hold": 2323,
      "pri": 2324,
      "let": 2325,
      "Ġdocument": 2326,
      "Ġwrite": 2327,
      "reet": 2328,
      "Ġwise": 2329,
      "Ġcolor": 2330,
      "Ġneigh": 2331,
      "Ġdecided": 2332,
      "imate": 2333,
      "Ġredu": 2334,
      "Ġthinking": 2335,
      "Ġtechnology": 2336,
      "Ġvict": 2337,
      "Ġgeneration": 2338,
      "Ġcommanded": 2339,
      "Ġiraq": 2340,
      "Ġwine": 2341,
      "oming": 2342,
      "Ġsho": 2343,
      "Ġprob": 2344,
      "Ġseek": 2345,
      "Ġled": 2346,
      "wise": 2347,
      "iety": 2348,
      "Ġcenter": 2349,
      "Ġreb": 2350,
      "Ġevil": 2351,
      "Ġreve": 2352,
      "Ġreturned": 2353,
      "Ġreveal": 2354,
      "ming": 2355,
      "Ġit": 2356,
      "Ġenergy": 2357,
      "Ġdark": 2358,
      "Ġquite": 2359,
      "ape": 2360,
      "Ġx": 2361,
      "Ġapply": 2362,
      "Ġrelated": 2363,
      "Ġstar": 2364,
      "Ġhund": 2365,
      "Ġuniversity": 2366,
      "Ġfund": 2367,
      "Ġplant": 2368,
      "Ġalmost": 2369,
      "Ġcollect": 2370,
      "ensive": 2371,
      "Ġhundred": 2372,
      "vere": 2373,
      "Ġerit": 2374,
      "Ġunderstanding": 2375,
      "Ġtemple": 2376,
      "Ġfinancial": 2377,
      "Ġwide": 2378,
      "Ġparticip": 2379,
      "Ġensure": 2380,
      "Ġrejo": 2381,
      "Ġpolice": 2382,
      "Ġprinciple": 2383,
      "Ġrul": 2384,
      "Ġhelped": 2385,
      "Ġseems": 2386,
      "Ġlay": 2387,
      "Ġboy": 2388,
      "Ġsomet": 2389,
      "thod": 2390,
      "Ġeuro": 2391,
      "Ġinherit": 2392,
      "Ġsometime": 2393,
      "Ġwish": 2394,
      "Ġpoor": 2395,
      "Ġju": 2396,
      "mber": 2397,
      "ua": 2398,
      "igation": 2399,
      "Ġspeaking": 2400,
      "Ġteacher": 2401,
      "lon": 2402,
      "Ġeither": 2403,
      "Ġvir": 2404,
      "Ġfinally": 2405,
      "Ġprovision": 2406,
      "iction": 2407,
      "Ġimprove": 2408,
      "Ġskill": 2409,
      "dle": 2410,
      "Ġgrant": 2411,
      "Ġfulf": 2412,
      "Ġcomplet": 2413,
      "Ġriver": 2414,
      "Ġnatural": 2415,
      "Ġregister": 2416,
      "Ġpan": 2417,
      "Ġuncle": 2418,
      "Ġlearned": 2419,
      "Ġlegal": 2420,
      "Ġmedical": 2421,
      "no": 2422,
      "uary": 2423,
      "Ġclick": 2424,
      "Ġformer": 2425,
      "Ġrate": 2426,
      "av": 2427,
      "Ġalone": 2428,
      "Ġpack": 2429,
      "Ġprison": 2430,
      "Ġflow": 2431,
      "Ġdemo": 2432,
      "Ġspread": 2433,
      "Ġmoment": 2434,
      "Ġdream": 2435,
      "par": 2436,
      "Ġruss": 2437,
      "Ġach": 2438,
      "bal": 2439,
      "lied": 2440,
      "ental": 2441,
      "Ġlost": 2442,
      "Ġmoved": 2443,
      "Ġsovere": 2444,
      "Ġinfl": 2445,
      "Ġsovereign": 2446,
      "Ġsolution": 2447,
      "sy": 2448,
      "istic": 2449,
      "Ġability": 2450,
      "Ġdiscu": 2451,
      "Ġfunction": 2452,
      "Ġrighteousness": 2453,
      "Ġrisk": 2454,
      "Ġregulation": 2455,
      "acter": 2456,
      "Ġvarious": 2457,
      "Ġevidence": 2458,
      "Ġkilled": 2459,
      "aged": 2460,
      "action": 2461,
      "Ġtot": 2462,
      "Ġappropri": 2463,
      "ane": 2464,
      "sec": 2465,
      "ruct": 2466,
      "Ġadded": 2467,
      "Ġraised": 2468,
      "Ġobject": 2469,
      "Ġsleep": 2470,
      "ina": 2471,
      "Ġfal": 2472,
      "Ġrock": 2473,
      "Ġquickly": 2474,
      "Ġstaff": 2475,
      "Ġforth": 2476,
      "Ġprivate": 2477,
      "Ġdrive": 2478,
      "Ġlicense": 2479,
      "Ġsort": 2480,
      "Ġdemon": 2481,
      "Ġencourage": 2482,
      "Ġthe": 2483,
      "Ġcook": 2484,
      "Ġtruly": 2485,
      "ery": 2486,
      "Ġrole": 2487,
      "Ġbattle": 2488,
      "Ġpsal": 2489,
      "Ġnamed": 2490,
      "antly": 2491,
      "Ġguard": 2492,
      "Ġcam": 2493,
      "Ġdem": 2494,
      "version": 2495,
      "Ġjustice": 2496,
      "ival": 2497,
      "Ġcontain": 2498,
      "Ġgarment": 2499,
      "Ġmale": 2500,
      "Ġremind": 2501,
      "Ġblessing": 2502,
      "Ġsoft": 2503,
      "Ġresponsibility": 2504,
      "Ġapart": 2505,
      "Ġsoul": 2506,
      "Ġrequired": 2507,
      "erous": 2508,
      "idence": 2509,
      "Ġprevent": 2510,
      "Ġbapt": 2511,
      "Ġcharacter": 2512,
      "Ġassem": 2513,
      "Ġpsalm": 2514,
      "Ġabs": 2515,
      "Ġir": 2516,
      "Ġprior": 2517,
      "Ġafric": 2518,
      "ification": 2519,
      "Ġgreater": 2520,
      "Ġanswered": 2521,
      "Ġjosh": 2522,
      "Ġhair": 2523,
      "Ġdevice": 2524,
      "Ġwilling": 2525,
      "Ġanal": 2526,
      "load": 2527,
      "Ġess": 2528,
      "Ġemb": 2529,
      "mp": 2530,
      "Ġat": 2531,
      "Ġcat": 2532,
      "Ġfast": 2533,
      "Ġsus": 2534,
      "Ġhur": 2535,
      "Ġinit": 2536,
      "oken": 2537,
      "Ġdisclosed": 2538,
      "enger": 2539,
      "Ġfile": 2540,
      "Ġpercent": 2541,
      "Ġpossess": 2542,
      "med": 2543,
      "Ġbabylon": 2544,
      "Ġgone": 2545,
      "omb": 2546,
      "Ġestablished": 2547,
      "itate": 2548,
      "Ġsheep": 2549,
      "Ġtele": 2550,
      "Ġmaintain": 2551,
      "Ġcele": 2552,
      "Ġreward": 2553,
      "Ġinhab": 2554,
      "Ġresur": 2555,
      "Ġcross": 2556,
      "do": 2557,
      "sa": 2558,
      "itation": 2559,
      "Ġfully": 2560,
      "Ġdece": 2561,
      "Ġagency": 2562,
      "Ġbud": 2563,
      "Ġtool": 2564,
      "Ġsometimes": 2565,
      "Ġhun": 2566,
      "Ġevening": 2567,
      "Ġrespond": 2568,
      "Ġlearning": 2569,
      "Ġet": 2570,
      "Ġwhoever": 2571,
      "sing": 2572,
      "Ġeurope": 2573,
      "ped": 2574,
      "Ġpen": 2575,
      "Ġitem": 2576,
      "Ġconsidered": 2577,
      "bly": 2578,
      "Ġwed": 2579,
      "erc": 2580,
      "the": 2581,
      "Ġhonor": 2582,
      "Ġsad": 2583,
      "ression": 2584,
      "Ġresurre": 2585,
      "Ġtar": 2586,
      "Ġfort": 2587,
      "unch": 2588,
      "prise": 2589,
      "book": 2590,
      "erness": 2591,
      "Ġpunish": 2592,
      "Ġstreet": 2593,
      "Ġmethod": 2594,
      "Ġpassed": 2595,
      "erning": 2596,
      "Ġphone": 2597,
      "Ġwid": 2598,
      "Ġdaily": 2599,
      "Ġfinal": 2600,
      "illa": 2601,
      "Ġstrate": 2602,
      "Ġtext": 2603,
      "Ġinside": 2604,
      "Ġwood": 2605,
      "Ġsafety": 2606,
      "Ġsanct": 2607,
      "Ġcr": 2608,
      "Ġimag": 2609,
      "Ġaccomp": 2610,
      "Ġtrou": 2611,
      "Ġimmediately": 2612,
      "Ġpaper": 2613,
      "Ġdefin": 2614,
      "Ġprobably": 2615,
      "Ġrecently": 2616,
      "Ġcircum": 2617,
      "for": 2618,
      "Ġexpert": 2619,
      "Ġpartner": 2620,
      "les": 2621,
      "Ġdog": 2622,
      "Ġanger": 2623,
      "Ġgrand": 2624,
      "Ġwait": 2625,
      "rict": 2626,
      "lace": 2627,
      "Ġregarding": 2628,
      "where": 2629,
      "Ġburnt": 2630,
      "Ġneighbor": 2631,
      "Ġappropriate": 2632,
      "Ġsize": 2633,
      "Ġresponse": 2634,
      "empt": 2635,
      "Ġtransl": 2636,
      "Ġskin": 2637,
      "Ġhy": 2638,
      "Ġresource": 2639,
      "Ġmarch": 2640,
      "Ġinsurance": 2641,
      "ann": 2642,
      "Ġattend": 2643,
      "Ġmercy": 2644,
      "sel": 2645,
      "co": 2646,
      "play": 2647,
      "Ġadministration": 2648,
      "lier": 2649,
      "Ġserving": 2650,
      "Ġconv": 2651,
      "Ġcontract": 2652,
      "acle": 2653,
      "Ġexplain": 2654,
      "Ġduty": 2655,
      "amb": 2656,
      "Ġcomb": 2657,
      "Ġfeed": 2658,
      "Ġsepar": 2659,
      "Ġeconomic": 2660,
      "Ġcub": 2661,
      "uted": 2662,
      "Ġprett": 2663,
      "Ġexerc": 2664,
      "Ġprevious": 2665,
      "Ġguide": 2666,
      "Ġproduce": 2667,
      "Ġspend": 2668,
      "Ġnotice": 2669,
      "Ġwear": 2670,
      "Ġless": 2671,
      "Ġstanding": 2672,
      "erve": 2673,
      "Ġwilderness": 2674,
      "Ġseeing": 2675,
      "ij": 2676,
      "sday": 2677,
      "Ġtried": 2678,
      "Ġaware": 2679,
      "father": 2680,
      "Ġeffective": 2681,
      "Ġpretty": 2682,
      "Ġpayment": 2683,
      "Ġinstall": 2684,
      "uff": 2685,
      "Ġresol": 2686,
      "otion": 2687,
      "Ġillust": 2688,
      "Ġcry": 2689,
      "Ġsafe": 2690,
      "ene": 2691,
      "Ġban": 2692,
      "Ġkill": 2693,
      "Ġselect": 2694,
      "Ġdisease": 2695,
      "Ġbey": 2696,
      "Ġconcerning": 2697,
      "eared": 2698,
      "Ġusually": 2699,
      "Ġadvice": 2700,
      "Ġgard": 2701,
      "Ġspee": 2702,
      "Ġdirection": 2703,
      "Ġowner": 2704,
      "Ġinheritance": 2705,
      "Ġspeech": 2706,
      "ili": 2707,
      "Ġchance": 2708,
      "Ġextra": 2709,
      "Ġinvolved": 2710,
      "Ġpreaching": 2711,
      "Ġcommer": 2712,
      "Ġsqu": 2713,
      "Ġwel": 2714,
      "Ġtransp": 2715,
      "Ġcompletely": 2716,
      "Ġloving": 2717,
      "Ġresident": 2718,
      "Ġoffered": 2719,
      "Ġjoshua": 2720,
      "Ġthrow": 2721,
      "Ġnone": 2722,
      "pped": 2723,
      "Ġbeginning": 2724,
      "Ġknowing": 2725,
      "Ġdiscover": 2726,
      "hood": 2727,
      "oc": 2728,
      "ender": 2729,
      "Ġrange": 2730,
      "Ġhotel": 2731,
      "ume": 2732,
      "ne": 2733,
      "ension": 2734,
      "Ġprepared": 2735,
      "Ġluke": 2736,
      "Ġded": 2737,
      "Ġlocation": 2738,
      "tain": 2739,
      "Ġmine": 2740,
      "Ġwonderful": 2741,
      "Ġunclean": 2742,
      "Ġsusp": 2743,
      "iding": 2744,
      "Ġengine": 2745,
      "Ġtreatment": 2746,
      "pon": 2747,
      "orrow": 2748,
      "Ġdig": 2749,
      "Ġrain": 2750,
      "Ġappointed": 2751,
      "Ġgain": 2752,
      "ump": 2753,
      "Ġlack": 2754,
      "Ġash": 2755,
      "Ġsummer": 2756,
      "Ġgarden": 2757,
      "eer": 2758,
      "leg": 2759,
      "Ġexperien": 2760,
      "acy": 2761,
      "Ġbut": 2762,
      "sted": 2763,
      "Ġwindow": 2764,
      "atter": 2765,
      "vert": 2766,
      "ug": 2767,
      "Ġnice": 2768,
      "Ġcopy": 2769,
      "Ġfish": 2770,
      "Ġanointed": 2771,
      "Ġofficer": 2772,
      "Ġcloud": 2773,
      "Ġlived": 2774,
      "ester": 2775,
      "Ġaccordance": 2776,
      "Ġmentioned": 2777,
      "Ġhigher": 2778,
      "Ġamazing": 2779,
      "uri": 2780,
      "range": 2781,
      "Ġmodel": 2782,
      "Ġgreen": 2783,
      "Ġversion": 2784,
      "Ġmass": 2785,
      "Ġcloth": 2786,
      "Ġoccur": 2787,
      "Ġperformance": 2788,
      "Ġhorse": 2789,
      "Ġcrowd": 2790,
      "Ġcode": 2791,
      "Ġreported": 2792,
      "sen": 2793,
      "umb": 2794,
      "Ġbelieved": 2795,
      "Ġassociation": 2796,
      "ray": 2797,
      "Ġspoken": 2798,
      "Ġze": 2799,
      "Ġphysical": 2800,
      "Ġfalse": 2801,
      "Ġbi": 2802,
      "Ġid": 2803,
      "Ġhappened": 2804,
      "Ġbeyond": 2805,
      "Ġesc": 2806,
      "erved": 2807,
      "Ġcru": 2808,
      "itted": 2809,
      "Ġcommandment": 2810,
      "Ġjan": 2811,
      "Ġcast": 2812,
      "Ġupd": 2813,
      "ule": 2814,
      "Ġtrade": 2815,
      "Ġdisplay": 2816,
      "izing": 2817,
      "ressed": 2818,
      "gust": 2819,
      "Ġforefather": 2820,
      "Ġhast": 2821,
      "Ġerror": 2822,
      "Ġfilm": 2823,
      "Ġworked": 2824,
      "Ġmeaning": 2825,
      "Ġbound": 2826,
      "usion": 2827,
      "Ġtrip": 2828,
      "Ġachie": 2829,
      "Ġlooked": 2830,
      "Ġgrain": 2831,
      "Ġcampa": 2832,
      "osed": 2833,
      "Ġprepare": 2834,
      "Ġcampaign": 2835,
      "Ġcy": 2836,
      "Ġhi": 2837,
      "ask": 2838,
      "Ġark": 2839,
      "vention": 2840,
      "Ġrequirement": 2841,
      "Ġinflu": 2842,
      "Ġrise": 2843,
      "Ġscience": 2844,
      "Ġswe": 2845,
      "Ġdepartment": 2846,
      "Ġgri": 2847,
      "onest": 2848,
      "Ġarch": 2849,
      "Ġww": 2850,
      "Ġdang": 2851,
      "Ġblessed": 2852,
      "Ġrelease": 2853,
      "Ġmist": 2854,
      "Ġship": 2855,
      "Ġund": 2856,
      "Ġrad": 2857,
      "Ġprovides": 2858,
      "Ġpm": 2859,
      "Ġsud": 2860,
      "Ġreflect": 2861,
      "icing": 2862,
      "Ġrecommend": 2863,
      "Ġfilled": 2864,
      "Ġbrit": 2865,
      "Ġlevite": 2866,
      "Ġciv": 2867,
      "Ġdeg": 2868,
      "Ġclearly": 2869,
      "Ġcommittee": 2870,
      "Ġpossession": 2871,
      "kind": 2872,
      "stance": 2873,
      "Ġmaybe": 2874,
      "Ġhosp": 2875,
      "Ġsurv": 2876,
      "Ġborder": 2877,
      "Ġrefuge": 2878,
      "ially": 2879,
      "Ġgal": 2880,
      "Ġrecent": 2881,
      "Ġopened": 2882,
      "rodu": 2883,
      "Ġround": 2884,
      "icated": 2885,
      "Ġsick": 2886,
      "Ġstood": 2887,
      "thern": 2888,
      "Ġbrand": 2889,
      "Ġweight": 2890,
      "Ġmatth": 2891,
      "Ġahead": 2892,
      "Ġdespite": 2893,
      "Ġroman": 2894,
      "Ġdeclares": 2895,
      "Ġpos": 2896,
      "ga": 2897,
      "Ġexch": 2898,
      "Ġexact": 2899,
      "Ġmessenger": 2900,
      "ament": 2901,
      "Ġsight": 2902,
      "Ġsetting": 2903,
      "Ġstyle": 2904,
      "ordin": 2905,
      "Ġspecific": 2906,
      "amin": 2907,
      "Ġseed": 2908,
      "Ġdifference": 2909,
      "Ġinno": 2910,
      "Ġbehold": 2911,
      "Ġtrack": 2912,
      "Ġhousehold": 2913,
      "Ġkindness": 2914,
      "ers": 2915,
      "Ġmatthew": 2916,
      "Ġfat": 2917,
      "Ġbur": 2918,
      "Ġacqu": 2919,
      "Ġexpected": 2920,
      "Ġmiddle": 2921,
      "iced": 2922,
      "Ġsection": 2923,
      "Ġreligion": 2924,
      "Ġglobal": 2925,
      "Ġtit": 2926,
      "Ġpark": 2927,
      "ttp": 2928,
      "Ġwww": 2929,
      "omon": 2930,
      "Ġstrugg": 2931,
      "Ġnetwork": 2932,
      "Ġgathered": 2933,
      "Ġpath": 2934,
      "Ġsept": 2935,
      "Ġoh": 2936,
      "Ġcup": 2937,
      "Ġhttp": 2938,
      "Ġcorrect": 2939,
      "Ġtrib": 2940,
      "aren": 2941,
      "Ġsolomon": 2942,
      "Ġnorm": 2943,
      "Ġmob": 2944,
      "Ġexcell": 2945,
      "Ġtrial": 2946,
      "Ġadditional": 2947,
      "Ġchap": 2948,
      "lar": 2949,
      "round": 2950,
      "Ġsoci": 2951,
      "go": 2952,
      "Ġhall": 2953,
      "Ġsession": 2954,
      "Ġalive": 2955,
      "oted": 2956,
      "Ġfollowed": 2957,
      "Ġextre": 2958,
      "Ġcounsel": 2959,
      "Ġassembly": 2960,
      "Ġmi": 2961,
      "Ġsupply": 2962,
      "view": 2963,
      "Ġloss": 2964,
      "Ġvision": 2965,
      "Ġguy": 2966,
      "Ġmile": 2967,
      "anch": 2968,
      "Ġregional": 2969,
      "Ġdirector": 2970,
      "Ġsell": 2971,
      "Ġvalley": 2972,
      "Ġdescrib": 2973,
      "Ġinternet": 2974,
      "asion": 2975,
      "oting": 2976,
      "Ġinstitution": 2977,
      "Ġannoun": 2978,
      "Ġchanged": 2979,
      "Ġste": 2980,
      "Ġunion": 2981,
      "Ġmal": 2982,
      "Ġsurround": 2983,
      "cient": 2984,
      "Ġarg": 2985,
      "Ġfest": 2986,
      "Ġtip": 2987,
      "verage": 2988,
      "Ġharm": 2989,
      "Ġmodern": 2990,
      "Ġoriginal": 2991,
      "Ġinte": 2992,
      "Ġunless": 2993,
      "eme": 2994,
      "Ġjoin": 2995,
      "Ġfreed": 2996,
      "light": 2997,
      "Ġdetermined": 2998,
      "aper": 2999,
      "Ġbath": 3000,
      "Ġtro": 3001,
      "Ġreligious": 3002,
      "born": 3003,
      "just": 3004,
      "lest": 3005,
      "Ġsignific": 3006,
      "Ġseries": 3007,
      "Ġcorru": 3008,
      "Ġprince": 3009,
      "Ġcapital": 3010,
      "Ġappoint": 3011,
      "Ġdoubt": 3012,
      "ma": 3013,
      "ics": 3014,
      "Ġspring": 3015,
      "Ġinhabit": 3016,
      "enty": 3017,
      "Ġthreat": 3018,
      "Ġshep": 3019,
      "Ġjune": 3020,
      "Ġara": 3021,
      "Ġfair": 3022,
      "raid": 3023,
      "Ġfac": 3024,
      "Ġresc": 3025,
      "Ġinterested": 3026,
      "Ġfavorite": 3027,
      "Ġlesson": 3028,
      "Ġfla": 3029,
      "Ġmail": 3030,
      "Ġmankind": 3031,
      "Ġcivil": 3032,
      "Ġserved": 3033,
      "Ġhelping": 3034,
      "Ġrunning": 3035,
      "aoh": 3036,
      "vant": 3037,
      "Ġmic": 3038,
      "Ġcaused": 3039,
      "Ġhit": 3040,
      "Ġpharaoh": 3041,
      "Ġbox": 3042,
      "cratic": 3043,
      "key": 3044,
      "Ġafraid": 3045,
      "Ġreleased": 3046,
      "Ġveh": 3047,
      "ada": 3048,
      "Ġcommit": 3049,
      "Ġpromised": 3050,
      "Ġjord": 3051,
      "Ġbranch": 3052,
      "Ġconsult": 3053,
      "Ġdistrict": 3054,
      "Ġaward": 3055,
      "Ġtom": 3056,
      "Ġep": 3057,
      "Ġattempt": 3058,
      "Ġcubit": 3059,
      "Ġfit": 3060,
      "Ġspent": 3061,
      "Ġhost": 3062,
      "Ġwalking": 3063,
      "Ġmov": 3064,
      "Ġscient": 3065,
      "Ġsoldier": 3066,
      "Ġdisp": 3067,
      "Ġsuccessful": 3068,
      "Ġpurchase": 3069,
      "mb": 3070,
      "Ġtur": 3071,
      "Ġbelief": 3072,
      "Ġpopular": 3073,
      "Ġdwell": 3074,
      "Ġcelebr": 3075,
      "Ġpick": 3076,
      "Ġplayer": 3077,
      "Ġcurrently": 3078,
      "Ġdemand": 3079,
      "Ġjordan": 3080,
      "Ġallowed": 3081,
      "Ġetc": 3082,
      "lict": 3083,
      "Ġpowerful": 3084,
      "Ġdrug": 3085,
      "Ġpositive": 3086,
      "Ġmission": 3087,
      "Ġobey": 3088,
      "Ġexperienced": 3089,
      "Ġmanager": 3090,
      "Ġfloor": 3091,
      "Ġfem": 3092,
      "Ġmach": 3093,
      "ste": 3094,
      "Ġpropo": 3095,
      "Ġstruck": 3096,
      "Ġhate": 3097,
      "Ġyork": 3098,
      "Ġissued": 3099,
      "Ġpion": 3100,
      "Ġflock": 3101,
      "uck": 3102,
      "Ġbri": 3103,
      "Ġtradition": 3104,
      "Ġincludes": 3105,
      "Ġpioneer": 3106,
      "Ġpill": 3107,
      "Ġculture": 3108,
      "Ġmanner": 3109,
      "Ġearlier": 3110,
      "vy": 3111,
      "Ġadam": 3112,
      "Ġsuffering": 3113,
      "zz": 3114,
      "Ġdesigned": 3115,
      "Ġunique": 3116,
      "Ġraise": 3117,
      "Ġexercise": 3118,
      "Ġseeking": 3119,
      "Ġhearing": 3120,
      "Ġremove": 3121,
      "Ġcollege": 3122,
      "Ġunc": 3123,
      "Ġsched": 3124,
      "Ġeasily": 3125,
      "ban": 3126,
      "reen": 3127,
      "Ġreject": 3128,
      "Ġproced": 3129,
      "Ġsha": 3130,
      "cipl": 3131,
      "Ġcredit": 3132,
      "itely": 3133,
      "iring": 3134,
      "Ġyouth": 3135,
      "Ġtaught": 3136,
      "Ġcarried": 3137,
      "Ġleading": 3138,
      "Ġpressure": 3139,
      "Ġcommitted": 3140,
      "Ġbudget": 3141,
      "Ġdry": 3142,
      "arter": 3143,
      "Ġprogress": 3144,
      "uf": 3145,
      "Ġancient": 3146,
      "Ġtrouble": 3147,
      "Ġinhabitant": 3148,
      "Ġfan": 3149,
      "Ġlift": 3150,
      "Ġdoctor": 3151,
      "Ġcommercial": 3152,
      "iation": 3153,
      "Ġpal": 3154,
      "Ġnature": 3155,
      "Ġbird": 3156,
      "rean": 3157,
      "Ġamerica": 3158,
      "Ġelection": 3159,
      "mitted": 3160,
      "Ġsamuel": 3161,
      "Ġdownload": 3162,
      "utive": 3163,
      "Ġtransfer": 3164,
      "Ġdegree": 3165,
      "Ġanx": 3166,
      "Ġcareer": 3167,
      "Ġjourney": 3168,
      "Ġaust": 3169,
      "Ġrom": 3170,
      "Ġmighty": 3171,
      "ames": 3172,
      "Ġrejoice": 3173,
      "Ġexchange": 3174,
      "Ġgerm": 3175,
      "Ġhonest": 3176,
      "Ġmarried": 3177,
      "Ġstruct": 3178,
      "Ġsexual": 3179,
      "Ġvehicle": 3180,
      "Ġmovie": 3181,
      "Ġguid": 3182,
      "Ġprotection": 3183,
      "Ġintrodu": 3184,
      "Ġseptember": 3185,
      "Ġprocedure": 3186,
      "Ġdiscipl": 3187,
      "Ġmarketing": 3188,
      "Ġaid": 3189,
      "sequ": 3190,
      "Ġvilla": 3191,
      "Ġcompla": 3192,
      "Ġshowed": 3193,
      "Ġplanning": 3194,
      "Ġbasis": 3195,
      "Ġstrengthen": 3196,
      "Ġstrategy": 3197,
      "Ġshepher": 3198,
      "oper": 3199,
      "Ġsand": 3200,
      "Ġfif": 3201,
      "Ġfee": 3202,
      "Ġappeal": 3203,
      "Ġgrowth": 3204,
      "Ġfreedom": 3205,
      "Ġmore": 3206,
      "orter": 3207,
      "Ġexplo": 3208,
      "Ġconsist": 3209,
      "Ġbrow": 3210,
      "inth": 3211,
      "Ġmix": 3212,
      "Ġjon": 3213,
      "Ġshown": 3214,
      "Ġeffic": 3215,
      "Ġadult": 3216,
      "Ġmeal": 3217,
      "Ġoccasion": 3218,
      "Ġrepresentative": 3219,
      "Ġcommunication": 3220,
      "Ġeight": 3221,
      "Ġisland": 3222,
      "ler": 3223,
      "Ġbase": 3224,
      "Ġamb": 3225,
      "aster": 3226,
      "Ġdiscus": 3227,
      "Ġemployment": 3228,
      "Ġreached": 3229,
      "belie": 3230,
      "Ġbull": 3231,
      "Ġseat": 3232,
      "Ġspot": 3233,
      "Ġunit": 3234,
      "Ġpaid": 3235,
      "Ġaddis": 3236,
      "Ġchosen": 3237,
      "Ġoct": 3238,
      "Ġobl": 3239,
      "Ġopposition": 3240,
      "Ġstraight": 3241,
      "Ġtal": 3242,
      "Ġmy": 3243,
      "Ġhab": 3244,
      "bern": 3245,
      "Ġhighly": 3246,
      "Ġchapter": 3247,
      "Ġtong": 3248,
      "Ġfill": 3249,
      "Ġdefense": 3250,
      "Ġenglish": 3251,
      "Ġterror": 3252,
      "iled": 3253,
      "emiah": 3254,
      "laim": 3255,
      "Ġholiday": 3256,
      "Ġsen": 3257,
      "Ġsar": 3258,
      "Ġgrowing": 3259,
      "Ġequip": 3260,
      "Ġsociety": 3261,
      "mission": 3262,
      "anced": 3263,
      "Ġbeside": 3264,
      "iot": 3265,
      "oph": 3266,
      "Ġforget": 3267,
      "Ġinteresting": 3268,
      "Ġfly": 3269,
      "Ġcovered": 3270,
      "Ġadministr": 3271,
      "na": 3272,
      "Ġites": 3273,
      "Ġcand": 3274,
      "Ġmur": 3275,
      "ves": 3276,
      "Ġtotal": 3277,
      "Ġlaid": 3278,
      "Ġclub": 3279,
      "Ġweekend": 3280,
      "Ġvine": 3281,
      "Ġimpact": 3282,
      "ny": 3283,
      "shipp": 3284,
      "Ġrose": 3285,
      "Ġdepend": 3286,
      "Ġthrone": 3287,
      "Ġresurrection": 3288,
      "ering": 3289,
      "Ġbill": 3290,
      "Ġhuge": 3291,
      "Ġjames": 3292,
      "Ġemer": 3293,
      "Ġguest": 3294,
      "Ġbeliever": 3295,
      "Ġhealthy": 3296,
      "Ġglor": 3297,
      "retch": 3298,
      "Ġcit": 3299,
      "Ġapr": 3300,
      "athan": 3301,
      "Ġtabern": 3302,
      "Ġmedic": 3303,
      "Ġweak": 3304,
      "Ġtabernacle": 3305,
      "Ġcourage": 3306,
      "Ġmoving": 3307,
      "aging": 3308,
      "cription": 3309,
      "body": 3310,
      "ously": 3311,
      "Ġdefinitely": 3312,
      "Ġslow": 3313,
      "Ġcert": 3314,
      "Ġotherwise": 3315,
      "Ġaffect": 3316,
      "Ġtongue": 3317,
      "inion": 3318,
      "Ġcell": 3319,
      "itute": 3320,
      "Ġdeed": 3321,
      "Ġconvers": 3322,
      "Ġqual": 3323,
      "Ġpunishment": 3324,
      "ball": 3325,
      "Ġtask": 3326,
      "Ġstock": 3327,
      "Ġprefer": 3328,
      "Ġsalvation": 3329,
      "Ġruler": 3330,
      "cra": 3331,
      "icate": 3332,
      "Ġband": 3333,
      "face": 3334,
      "gn": 3335,
      "Ġprim": 3336,
      "Ġexplained": 3337,
      "Ġmulti": 3338,
      "iam": 3339,
      "Ġputting": 3340,
      "Ġoperation": 3341,
      "Ġdwelling": 3342,
      "ufact": 3343,
      "Ġlower": 3344,
      "Ġfoundation": 3345,
      "Ġwaiting": 3346,
      "inting": 3347,
      "Ġcreation": 3348,
      "Ġmich": 3349,
      "Ġsecure": 3350,
      "Ġincluded": 3351,
      "Ġplaying": 3352,
      "Ġrent": 3353,
      "Ġreign": 3354,
      "Ġkeeping": 3355,
      "Ġfinding": 3356,
      "Ġrecall": 3357,
      "Ġcircumstance": 3358,
      "Ġfestival": 3359,
      "Ġfran": 3360,
      "Ġdish": 3361,
      "Ġregist": 3362,
      "Ġtrain": 3363,
      "Ġvariety": 3364,
      "Ġjanuary": 3365,
      "Ġexcellent": 3366,
      "Ġmanufact": 3367,
      "Ġproviding": 3368,
      "Ġpotential": 3369,
      "Ġapril": 3370,
      "au": 3371,
      "gra": 3372,
      "Ġattitude": 3373,
      "Ġgradu": 3374,
      "Ġconfer": 3375,
      "Ġcentral": 3376,
      "ama": 3377,
      "Ġbroad": 3378,
      "Ġdecide": 3379,
      "Ġsoftware": 3380,
      "Ġliter": 3381,
      "Ġpursu": 3382,
      "antage": 3383,
      "under": 3384,
      "Ġconfidence": 3385,
      "Ġlimited": 3386,
      "Ġhebrew": 3387,
      "Ġtransport": 3388,
      "Ġcold": 3389,
      "Ġwashing": 3390,
      "Ġimagine": 3391,
      "mas": 3392,
      "Ġeating": 3393,
      "Ġpresence": 3394,
      "Ġstarting": 3395,
      "Ġblind": 3396,
      "Ġsens": 3397,
      "Ġstated": 3398,
      "Ġinstance": 3399,
      "Ġjournal": 3400,
      "Ġshepherd": 3401,
      "Ġsport": 3402,
      "Ġpresented": 3403,
      "Ġblue": 3404,
      "Ġdaniel": 3405,
      "Ġbeg": 3406,
      "ublic": 3407,
      "Ġi": 3408,
      "Ġmatch": 3409,
      "Ġenterprise": 3410,
      "ground": 3411,
      "Ġcrime": 3412,
      "Ġstuff": 3413,
      "Ġcontra": 3414,
      "Ġscreen": 3415,
      "Ġviolence": 3416,
      "Ġbringing": 3417,
      "Ġdistrib": 3418,
      "Ġfix": 3419,
      "Ġdol": 3420,
      "verb": 3421,
      "Ġcooper": 3422,
      "Ġmidst": 3423,
      "itable": 3424,
      "esis": 3425,
      "Ġteen": 3426,
      "Ġadvantage": 3427,
      "Ġterrit": 3428,
      "af": 3429,
      "Ġaverage": 3430,
      "Ġmary": 3431,
      "Ġhell": 3432,
      "Ġexh": 3433,
      "Ġisaiah": 3434,
      "Ġexecutive": 3435,
      "Ġmoreover": 3436,
      "Ġtalking": 3437,
      "Ġuk": 3438,
      "Ġsyn": 3439,
      "more": 3440,
      "Ġprecious": 3441,
      "Ġrepublic": 3442,
      "Ġnoah": 3443,
      "Ġbasic": 3444,
      "Ġdeb": 3445,
      "Ġstrike": 3446,
      "Ġconcerned": 3447,
      "Ġstation": 3448,
      "Ġproverb": 3449,
      "Ġautom": 3450,
      "Ġaspect": 3451,
      "Ġeasier": 3452,
      "atory": 3453,
      "Ġbecoming": 3454,
      "Ġwarm": 3455,
      "Ġdirectly": 3456,
      "Ġfulfill": 3457,
      "Ġham": 3458,
      "Ġther": 3459,
      "Ġannual": 3460,
      "Ġpublished": 3461,
      "Ġsweet": 3462,
      "epend": 3463,
      "iveness": 3464,
      "Ġq": 3465,
      "etic": 3466,
      "Ġdestruction": 3467,
      "Ġinspired": 3468,
      "Ġtarget": 3469,
      "Ġinstruction": 3470,
      "Ġfigure": 3471,
      "Ġequipment": 3472,
      "using": 3473,
      "Ġrace": 3474,
      "Ġspeed": 3475,
      "Ġaccepted": 3476,
      "Ġtor": 3477,
      "Ġwast": 3478,
      "Ġglad": 3479,
      "Ġfresh": 3480,
      "Ġencoura": 3481,
      "Ġbroken": 3482,
      "Ġolder": 3483,
      "Ġengage": 3484,
      "set": 3485,
      "izen": 3486,
      "Ġasking": 3487,
      "tery": 3488,
      "Ġresponsible": 3489,
      "xim": 3490,
      "alth": 3491,
      "Ġsharing": 3492,
      "Ġok": 3493,
      "Ġindepend": 3494,
      "Ġdestroyed": 3495,
      "Ġregistered": 3496,
      "icial": 3497,
      "Ġyester": 3498,
      "Ġwealth": 3499,
      "Ġfacility": 3500,
      "Ġyesterday": 3501,
      "Ġbul": 3502,
      "Ġconstruction": 3503,
      "Ġvolun": 3504,
      "iet": 3505,
      "Ġdamage": 3506,
      "Ġsust": 3507,
      "Ġrelative": 3508,
      "Ġdemocratic": 3509,
      "Ġbag": 3510,
      "Ġadvance": 3511,
      "Ġwelcome": 3512,
      "arent": 3513,
      "Ġstress": 3514,
      "Ġcool": 3515,
      "Ġhospital": 3516,
      "Ġdisapp": 3517,
      "Ġchristmas": 3518,
      "Ġheavenly": 3519,
      "ked": 3520,
      "Ġchem": 3521,
      "Ġproc": 3522,
      "elled": 3523,
      "Ġfactor": 3524,
      "Ġmemor": 3525,
      "Ġeritrean": 3526,
      "Ġaccomplish": 3527,
      "ker": 3528,
      "Ġtour": 3529,
      "Ġrol": 3530,
      "Ġentered": 3531,
      "Ġfriday": 3532,
      "Ġfemale": 3533,
      "graph": 3534,
      "Ġfram": 3535,
      "vey": 3536,
      "Ġdebt": 3537,
      "Ġaugust": 3538,
      "Ġhistor": 3539,
      "Ġstage": 3540,
      "iment": 3541,
      "Ġgoat": 3542,
      "Ġterritory": 3543,
      "Ġtear": 3544,
      "Ġphilist": 3545,
      "era": 3546,
      "Ġmeat": 3547,
      "plf": 3548,
      "Ġnearly": 3549,
      "Ġconversation": 3550,
      "Ġhill": 3551,
      "Ġrob": 3552,
      "Ġregistration": 3553,
      "aur": 3554,
      "ex": 3555,
      "ograph": 3556,
      "Ġshowing": 3557,
      "Ġproduction": 3558,
      "Ġfacebook": 3559,
      "Ġlimit": 3560,
      "Ġdiscussion": 3561,
      "Ġcitizen": 3562,
      "Ġlamb": 3563,
      "andon": 3564,
      "Ġcreating": 3565,
      "Ġintegr": 3566,
      "lasting": 3567,
      "Ġeverlasting": 3568,
      "Ġafrica": 3569,
      "Ġlif": 3570,
      "asc": 3571,
      "Ġarrange": 3572,
      "Ġdescend": 3573,
      "Ġmobile": 3574,
      "Ġtroop": 3575,
      "aw": 3576,
      "Ġcompass": 3577,
      "icket": 3578,
      "theless": 3579,
      "Ġpillar": 3580,
      "resh": 3581,
      "Ġcreature": 3582,
      "Ġlen": 3583,
      "ria": 3584,
      "Ġbehalf": 3585,
      "Ġadop": 3586,
      "Ġoverse": 3587,
      "Ġjuly": 3588,
      "Ġgun": 3589,
      "Ġnewsp": 3590,
      "Ġaccident": 3591,
      "Ġtemper": 3592,
      "Ġrevealed": 3593,
      "Ġexactly": 3594,
      "Ġconference": 3595,
      "ober": 3596,
      "Ġtv": 3597,
      "Ġbillion": 3598,
      "Ġrelevant": 3599,
      "oon": 3600,
      "Ġprime": 3601,
      "Ġphilistine": 3602,
      "Ġsitting": 3603,
      "spring": 3604,
      "Ġabandon": 3605,
      "Ġeventually": 3606,
      "Ġenjoyed": 3607,
      "Ġprivile": 3608,
      "Ġelectric": 3609,
      "Ġconnection": 3610,
      "Ġcrimin": 3611,
      "Ġupdate": 3612,
      "Ġoctober": 3613,
      "olution": 3614,
      "Ġbeast": 3615,
      "Ġcollection": 3616,
      "Ġassigned": 3617,
      "Ġinjury": 3618,
      "Ġhop": 3619,
      "Ġrid": 3620,
      "Ġrout": 3621,
      "Ġinstru": 3622,
      "Ġpractical": 3623,
      "Ġnewspaper": 3624,
      "Ġaim": 3625,
      "Ġtalent": 3626,
      "back": 3627,
      "Ġtend": 3628,
      "Ġthine": 3629,
      "Ġload": 3630,
      "Ġwriter": 3631,
      "Ġbehav": 3632,
      "Ġwo": 3633,
      "Ġbone": 3634,
      "Ġul": 3635,
      "Ġlose": 3636,
      "ibly": 3637,
      "Ġdevil": 3638,
      "Ġinvestment": 3639,
      "Ġabsol": 3640,
      "Ġbought": 3641,
      "olate": 3642,
      "Ġbaptized": 3643,
      "Ġpure": 3644,
      "Ġmel": 3645,
      "Ġlad": 3646,
      "Ġsaved": 3647,
      "Ġprem": 3648,
      "Ġadvert": 3649,
      "Ġimper": 3650,
      "Ġlocated": 3651,
      "Ġsecretary": 3652,
      "ta": 3653,
      "Ġvac": 3654,
      "Ġoffspring": 3655,
      "Ġwarning": 3656,
      "Ġblock": 3657,
      "Ġshame": 3658,
      "Ġworshipp": 3659,
      "Ġinterview": 3660,
      "Ġconfir": 3661,
      "Ġrepair": 3662,
      "Ġjeremiah": 3663,
      "Ġforgive": 3664,
      "Ġwedding": 3665,
      "irt": 3666,
      "cket": 3667,
      "Ġhorn": 3668,
      "Ġcond": 3669,
      "Ġheat": 3670,
      "Ġrepe": 3671,
      "Ġfinished": 3672,
      "Ġemployer": 3673,
      "Ġrussian": 3674,
      "Ġinfluence": 3675,
      "nes": 3676,
      "Ġol": 3677,
      "arant": 3678,
      "Ġhid": 3679,
      "Ġlabor": 3680,
      "Ġarrived": 3681,
      "Ġdigital": 3682,
      "Ġunf": 3683,
      "Ġbecomes": 3684,
      "Ġplat": 3685,
      "Ġfool": 3686,
      "ague": 3687,
      "Ġdelight": 3688,
      "Ġparad": 3689,
      "Ġdarkness": 3690,
      "Ġcriminal": 3691,
      "Ġchair": 3692,
      "Ġsubmit": 3693,
      "utor": 3694,
      "ffee": 3695,
      "Ġreader": 3696,
      "Ġcancer": 3697,
      "Ġtopic": 3698,
      "Ġring": 3699,
      "Ġisaac": 3700,
      "ba": 3701,
      "Ġcompleted": 3702,
      "Ġweapon": 3703,
      "reed": 3704,
      "Ġdy": 3705,
      "Ġrecover": 3706,
      "Ġremoved": 3707,
      "bled": 3708,
      "Ġign": 3709,
      "Ġgas": 3710,
      "Ġlin": 3711,
      "Ġlatest": 3712,
      "Ġwill": 3713,
      "Ġnur": 3714,
      "Ġbeat": 3715,
      "Ġassignment": 3716,
      "wor": 3717,
      "Ġshot": 3718,
      "Ġbrings": 3719,
      "Ġgree": 3720,
      "Ġcalling": 3721,
      "Ġentertain": 3722,
      "Ġdriver": 3723,
      "Ġrender": 3724,
      "Ġobserve": 3725,
      "force": 3726,
      "Ġstructure": 3727,
      "Ġappeared": 3728,
      "Ġnove": 3729,
      "Ġportion": 3730,
      "zek": 3731,
      "bbath": 3732,
      "Ġachieve": 3733,
      "bour": 3734,
      "Ġsector": 3735,
      "Ġpalest": 3736,
      "Ġfollower": 3737,
      "Ġterri": 3738,
      "Ġoccup": 3739,
      "Ġtimoth": 3740,
      "Ġdivision": 3741,
      "Ġworry": 3742,
      "Ġpleasure": 3743,
      "Ġsunday": 3744,
      "Ġsac": 3745,
      "Ġsabbath": 3746,
      "Ġopinion": 3747,
      "Ġallows": 3748,
      "arm": 3749,
      "Ġenable": 3750,
      "Ġdistance": 3751,
      "een": 3752,
      "Ġcher": 3753,
      "Ġaffair": 3754,
      "inian": 3755,
      "Ġadjust": 3756,
      "Ġessential": 3757,
      "aurant": 3758,
      "Ġnovember": 3759,
      "Ġmeant": 3760,
      "Ġthereof": 3761,
      "Ġvictim": 3762,
      "Ġstretch": 3763,
      "Ġconvention": 3764,
      "Ġconsequ": 3765,
      "Ġplus": 3766,
      "Ġfeb": 3767,
      "Ġsmart": 3768,
      "Ġdistress": 3769,
      "Ġexpressed": 3770,
      "Ġphotograph": 3771,
      "Ġdecember": 3772,
      "Ġmedicine": 3773,
      "Ġil": 3774,
      "oured": 3775,
      "Ġexpl": 3776,
      "Ġcorinth": 3777,
      "Ġrestaurant": 3778,
      "Ġwinter": 3779,
      "ih": 3780,
      "sk": 3781,
      "icious": 3782,
      "atest": 3783,
      "Ġdecade": 3784,
      "Ġaside": 3785,
      "Ġfinish": 3786,
      "Ġdetermine": 3787,
      "Ġvillage": 3788,
      "Ġfra": 3789,
      "Ġplaced": 3790,
      "Ġfrequ": 3791,
      "Ġleadership": 3792,
      "Ġreci": 3793,
      "rant": 3794,
      "rance": 3795,
      "Ġlog": 3796,
      "Ġluck": 3797,
      "Ġsudden": 3798,
      "Ġaustral": 3799,
      "cast": 3800,
      "arily": 3801,
      "Ġtaste": 3802,
      "Ġsatur": 3803,
      "Ġmistake": 3804,
      "gu": 3805,
      "Ġaccur": 3806,
      "Ġobtain": 3807,
      "Ġcolla": 3808,
      "Ġgreatest": 3809,
      "Ġstick": 3810,
      "ellig": 3811,
      "Ġrepent": 3812,
      "Ġdirective": 3813,
      "Ġabund": 3814,
      "Ġpublication": 3815,
      "Ġextrem": 3816,
      "zy": 3817,
      "Ġpsy": 3818,
      "oring": 3819,
      "Ġrevel": 3820,
      "Ġvia": 3821,
      "ecy": 3822,
      "Ġapproval": 3823,
      "Ġprophecy": 3824,
      "Ġelement": 3825,
      "Ġappreciate": 3826,
      "Ġsake": 3827,
      "Ġcaught": 3828,
      "Ġinvestig": 3829,
      "Ġmemory": 3830,
      "ana": 3831,
      "Ġperman": 3832,
      "Ġbenj": 3833,
      "Ġillustration": 3834,
      "Ġanti": 3835,
      "Ġtimothy": 3836,
      "Ġton": 3837,
      "Ġpool": 3838,
      "Ġgenesis": 3839,
      "Ġconfident": 3840,
      "Ġgrew": 3841,
      "Ġexpression": 3842,
      "Ġmachine": 3843,
      "Ġlion": 3844,
      "olic": 3845,
      "Ġshout": 3846,
      "Ġwatching": 3847,
      "Ġsacred": 3848,
      "Ġgla": 3849,
      "Ġspl": 3850,
      "Ġguarant": 3851,
      "Ġrescue": 3852,
      "som": 3853,
      "Ġsor": 3854,
      "Ġath": 3855,
      "Ġprove": 3856,
      "Ġsevent": 3857,
      "Ġappointment": 3858,
      "rison": 3859,
      "rog": 3860,
      "Ġattract": 3861,
      "Ġanaly": 3862,
      "Ġdust": 3863,
      "Ġbush": 3864,
      "Ġfriendly": 3865,
      "Ġbreath": 3866,
      "ered": 3867,
      "Ġarre": 3868,
      "Ġincome": 3869,
      "Ġactive": 3870,
      "Ġpalestinian": 3871,
      "lection": 3872,
      "Ġentrance": 3873,
      "Ġstruggle": 3874,
      "ino": 3875,
      "Ġbond": 3876,
      "Ġbright": 3877,
      "ician": 3878,
      "Ġaltern": 3879,
      "Ġendure": 3880,
      "azine": 3881,
      "Ġproclaim": 3882,
      "Ġrealize": 3883,
      "ijah": 3884,
      "Ġlength": 3885,
      "orge": 3886,
      "Ġkitch": 3887,
      "Ġcoast": 3888,
      "Ġintellig": 3889,
      "Ġprofit": 3890,
      "Ġpopulation": 3891,
      "Ġtitle": 3892,
      "Ġsignificant": 3893,
      "iable": 3894,
      "now": 3895,
      "Ġwing": 3896,
      "stic": 3897,
      "Ġtrump": 3898,
      "Ġstopped": 3899,
      "Ġsquare": 3900,
      "Ġundes": 3901,
      "Ġresist": 3902,
      "Ġweather": 3903,
      "Ġmagazine": 3904,
      "Ġparticularly": 3905,
      "Ġeritrea": 3906,
      "Ġbenjamin": 3907,
      "oss": 3908,
      "ons": 3909,
      "Ġbeauty": 3910,
      "Ġmotiv": 3911,
      "Ġnormal": 3912,
      "Ġwashington": 3913,
      "Ġkitchen": 3914,
      "ssed": 3915,
      "standing": 3916,
      "Ġincreasing": 3917,
      "Ġdescendant": 3918,
      "Ġber": 3919,
      "Ġdrop": 3920,
      "Ġkore": 3921,
      "pper": 3922,
      "Ġremains": 3923,
      "Ġegyptian": 3924,
      "Ġdemonstr": 3925,
      "Ġparadise": 3926,
      "df": 3927,
      "Ġguidance": 3928,
      "Ġpush": 3929,
      "Ġinsight": 3930,
      "Ġplayed": 3931,
      "Ġsky": 3932,
      "Ġcanada": 3933,
      "Ġinvestigation": 3934,
      "Ġsugar": 3935,
      "Ġreduce": 3936,
      "Ġprivilege": 3937,
      "bed": 3938,
      "iant": 3939,
      "Ġnumerous": 3940,
      "Ġcontribution": 3941,
      "Ġrevelation": 3942,
      "Ġdisbelie": 3943,
      "Ġobed": 3944,
      "Ġflood": 3945,
      "Ġhurt": 3946,
      "Ġfurn": 3947,
      "Ġcorner": 3948,
      "Ġticket": 3949,
      "Ġafford": 3950,
      "Ġleaving": 3951,
      "Ġidol": 3952,
      "cul": 3953,
      "rench": 3954,
      "Ġimplementation": 3955,
      "Ġstream": 3956,
      "Ġcounty": 3957,
      "Ġsaturday": 3958,
      "Ġchron": 3959,
      "onday": 3960,
      "Ġopening": 3961,
      "Ġdescribed": 3962,
      "Ġspake": 3963,
      "Ġexamine": 3964,
      "Ġtreasure": 3965,
      "Ġaudience": 3966,
      "Ġiraqi": 3967,
      "Ġchina": 3968,
      "Ġearn": 3969,
      "Ġtranslation": 3970,
      "wide": 3971,
      "Ġmonday": 3972,
      "Ġdin": 3973,
      "Ġconce": 3974,
      "Ġtempt": 3975,
      "Ġschedule": 3976,
      "Ġcompassion": 3977,
      "Ġcatch": 3978,
      "Ġsettle": 3979,
      "Ġremained": 3980,
      "Ġeuropean": 3981,
      "Ġarab": 3982,
      "Ġhang": 3983,
      "Ġcoffee": 3984,
      "Ġdelivered": 3985,
      "Ġdollar": 3986,
      "Ġnar": 3987,
      "Ġpersonality": 3988,
      "Ġcreator": 3989,
      "Ġeconomy": 3990,
      "Ġtomorrow": 3991,
      "Ġmental": 3992,
      "Ġhappens": 3993,
      "Ġpurs": 3994,
      "ashion": 3995,
      "Ġdeveloped": 3996,
      "Ġcreative": 3997,
      "Ġseemed": 3998,
      "Ġdeparted": 3999,
      "Ġbrain": 4000,
      "Ġconvin": 4001,
      "Ġapproved": 4002,
      "ceeding": 4003,
      "porary": 4004,
      "Ġnut": 4005,
      "Ġzeal": 4006,
      "Ġeval": 4007,
      "Ġconnect": 4008,
      "Ġgreatly": 4009,
      "Ġheavy": 4010,
      "Ġconstitution": 4011,
      "Ġrebu": 4012,
      "Ġfirstborn": 4013,
      "Ġdouble": 4014,
      "Ġult": 4015,
      "ique": 4016,
      "kel": 4017,
      "Ġfashion": 4018,
      "Ġlibr": 4019,
      "Ġchariot": 4020,
      "Ġcopper": 4021,
      "gue": 4022,
      "Ġcorpor": 4023,
      "ception": 4024,
      "Ġsurpr": 4025,
      "Ġconclud": 4026,
      "Ġparag": 4027,
      "Ġbirthday": 4028,
      "Ġundeserved": 4029,
      "Ġimitate": 4030,
      "ael": 4031,
      "Ġdro": 4032,
      "iling": 4033,
      "idate": 4034,
      "Ġand": 4035,
      "acity": 4036,
      "Ġclothing": 4037,
      "Ġreasonable": 4038,
      "Ġdanger": 4039,
      "pro": 4040,
      "sion": 4041,
      "Ġing": 4042,
      "Ġvow": 4043,
      "Ġpregn": 4044,
      "Ġlaunch": 4045,
      "uesday": 4046,
      "Ġsuggestion": 4047,
      "aan": 4048,
      "Ġsalt": 4049,
      "Ġdress": 4050,
      "imin": 4051,
      "Ġsurface": 4052,
      "roll": 4053,
      "Ġconsumer": 4054,
      "Ġscene": 4055,
      "ondon": 4056,
      "Ġanxiety": 4057,
      "yard": 4058,
      "Ġiron": 4059,
      "Ġasset": 4060,
      "Ġobvious": 4061,
      "Ġverse": 4062,
      "Ġobligation": 4063,
      "Ġplatform": 4064,
      "vision": 4065,
      "Ġtuesday": 4066,
      "Ġlondon": 4067,
      "east": 4068,
      "Ġdiscipline": 4069,
      "Ġbehavior": 4070,
      "Ġfebru": 4071,
      "Ġip": 4072,
      "Ġgaz": 4073,
      "Ġvote": 4074,
      "phone": 4075,
      "Ġentry": 4076,
      "Ġuseful": 4077,
      "Ġcomplex": 4078,
      "Ġleaf": 4079,
      "Ġsustain": 4080,
      "Ġfebruary": 4081,
      "Ġhence": 4082,
      "Ġshut": 4083,
      "estic": 4084,
      "Ġproduced": 4085,
      "Ġbritish": 4086,
      "Ġdivid": 4087,
      "Ġlau": 4088,
      "Ġzion": 4089,
      "Ġrequires": 4090,
      "Ġcarefully": 4091,
      "Ġrenew": 4092,
      "Ġparagraph": 4093,
      "Ġprovider": 4094,
      "Ġregularly": 4095,
      "Ġnine": 4096,
      "Ġseparate": 4097,
      "Ġescape": 4098,
      "ont": 4099,
      "enced": 4100,
      "Ġast": 4101,
      "ogue": 4102,
      "Ġafter": 4103,
      "Ġflight": 4104,
      "Ġmovement": 4105,
      "Ġcomfortable": 4106,
      "Ġboundary": 4107,
      "Ġstran": 4108,
      "Ġquarter": 4109,
      "Ġrepro": 4110,
      "Ġbirr": 4111,
      "Ġholding": 4112,
      "aph": 4113,
      "Ġball": 4114,
      "Ġalb": 4115,
      "Ġclimate": 4116,
      "Ġdip": 4117,
      "Ġreality": 4118,
      "Ġacad": 4119,
      "Ġslaughter": 4120,
      "Ġsnow": 4121,
      "Ġfant": 4122,
      "Ġsmoke": 4123,
      "ological": 4124,
      "Ġwalked": 4125,
      "Ġcorruption": 4126,
      "cience": 4127,
      "Ġtraffic": 4128,
      "Ġimmor": 4129,
      "Ġgranted": 4130,
      "Ġiniti": 4131,
      "Ġcondem": 4132,
      "ault": 4133,
      "oved": 4134,
      "Ġcash": 4135,
      "Ġfuel": 4136,
      "Ġprint": 4137,
      "Ġconflict": 4138,
      "Ġcritic": 4139,
      "Ġmort": 4140,
      "Ġcompan": 4141,
      "Ġgreek": 4142,
      "Ġjap": 4143,
      "soever": 4144,
      "Ġbeloved": 4145,
      "Ġcontinu": 4146,
      "Ġflee": 4147,
      "Ġdu": 4148,
      "Ġstake": 4149,
      "Ġnevertheless": 4150,
      "itter": 4151,
      "isl": 4152,
      "Ġpleased": 4153,
      "Ġpointed": 4154,
      "ternal": 4155,
      "Ġmajority": 4156,
      "Ġbreast": 4157,
      "Ġmurder": 4158,
      "Ġcompanion": 4159,
      "Ġpil": 4160,
      "Ġproved": 4161,
      "Ġven": 4162,
      "Ġreplied": 4163,
      "Ġartist": 4164,
      "Ġbackground": 4165,
      "Ġzer": 4166,
      "vely": 4167,
      "Ġack": 4168,
      "Ġphra": 4169,
      "Ġminim": 4170,
      "Ġattorn": 4171,
      "Ġbusy": 4172,
      "Ġfighting": 4173,
      "Ġcertific": 4174,
      "Ġblow": 4175,
      "usive": 4176,
      "Ġinterp": 4177,
      "Ġtowards": 4178,
      "Ġdelivery": 4179,
      "Ġassistance": 4180,
      "Ġcorinthian": 4181,
      "Ġattorney": 4182,
      "Ġopp": 4183,
      "Ġcapacity": 4184,
      "place": 4185,
      "utely": 4186,
      "Ġruin": 4187,
      "Ġpromote": 4188,
      "Ġposted": 4189,
      "Ġpattern": 4190,
      "here": 4191,
      "lusion": 4192,
      "rial": 4193,
      "Ġoverall": 4194,
      "Ġlegisl": 4195,
      "uable": 4196,
      "Ġconven": 4197,
      "Ġtransform": 4198,
      "Ġmilk": 4199,
      "Ġidentify": 4200,
      "Ġwave": 4201,
      "Ġdefe": 4202,
      "Ġgrown": 4203,
      "Ġcanaan": 4204,
      "Ġchanging": 4205,
      "Ġacknow": 4206,
      "Ġcertificate": 4207,
      "Ġsatisfied": 4208,
      "Ġtower": 4209,
      "Ġrela": 4210,
      "Ġseal": 4211,
      "Ġclin": 4212,
      "Ġhappiness": 4213,
      "liance": 4214,
      "Ġcritical": 4215,
      "Ġransom": 4216,
      "rate": 4217,
      "idge": 4218,
      "Ġpride": 4219,
      "Ġtyp": 4220,
      "Ġdedicated": 4221,
      "Ġadministrative": 4222,
      "Ġlibrary": 4223,
      "mar": 4224,
      "Ġpul": 4225,
      "Ġdear": 4226,
      "Ġextremely": 4227,
      "sely": 4228,
      "Ġforum": 4229,
      "Ġflour": 4230,
      "Ġcanc": 4231,
      "Ġdriving": 4232,
      "Ġtestim": 4233,
      "Ġhabit": 4234,
      "Ġwage": 4235,
      "Ġmap": 4236,
      "Ġdisaster": 4237,
      "Ġproud": 4238,
      "Ġorg": 4239,
      "Ġfriendship": 4240,
      "Ġremaining": 4241,
      "Ġfourth": 4242,
      "Ġtechnical": 4243,
      "Ġnegot": 4244,
      "ateg": 4245,
      "Ġamm": 4246,
      "Ġassociated": 4247,
      "Ġapartment": 4248,
      "Ġsorry": 4249,
      "Ġmate": 4250,
      "Ġdad": 4251,
      "aba": 4252,
      "Ġinvited": 4253,
      "Ġnegative": 4254,
      "Ġafrican": 4255,
      "Ġhung": 4256,
      "Ġprost": 4257,
      "Ġgoog": 4258,
      "Ġbeach": 4259,
      "oked": 4260,
      "Ġconscience": 4261,
      "Ġmultiple": 4262,
      "atively": 4263,
      "Ġjah": 4264,
      "Ġworse": 4265,
      "Ġregul": 4266,
      "Ġvirgin": 4267,
      "Ġsurrounding": 4268,
      "Ġboat": 4269,
      "Ġwidow": 4270,
      "eh": 4271,
      "ari": 4272,
      "Ġinner": 4273,
      "Ġreply": 4274,
      "Ġpatri": 4275,
      "Ġsucceed": 4276,
      "Ġpriority": 4277,
      "Ġannounced": 4278,
      "Ġabsolutely": 4279,
      "ev": 4280,
      "Ġgrave": 4281,
      "Ġbedroom": 4282,
      "Ġbott": 4283,
      "ssel": 4284,
      "Ġjun": 4285,
      "Ġpersec": 4286,
      "Ġscale": 4287,
      "Ġconstantly": 4288,
      "ipped": 4289,
      "Ġfailed": 4290,
      "like": 4291,
      "coming": 4292,
      "gency": 4293,
      "Ġjack": 4294,
      "Ġthur": 4295,
      "Ġenh": 4296,
      "Ġedge": 4297,
      "Ġassociate": 4298,
      "Ġreference": 4299,
      "xic": 4300,
      "Ġfled": 4301,
      "chel": 4302,
      "Ġgreet": 4303,
      "Ġpour": 4304,
      "Ġni": 4305,
      "Ġfaced": 4306,
      "Ġjoined": 4307,
      "Ġdesert": 4308,
      "Ġburied": 4309,
      "Ġended": 4310,
      "Ġincreased": 4311,
      "Ġconsequence": 4312,
      "Ġthursday": 4313,
      "fast": 4314,
      "Ġmad": 4315,
      "Ġfur": 4316,
      "otional": 4317,
      "Ġreplace": 4318,
      "Ġhelpful": 4319,
      "Ġshared": 4320,
      "ysis": 4321,
      "Ġfab": 4322,
      "Ġagreed": 4323,
      "osing": 4324,
      "Ġrecipe": 4325,
      "Ġgoogle": 4326,
      "Ġlip": 4327,
      "Ġunre": 4328,
      "Ġperish": 4329,
      "Ġgovernor": 4330,
      "Ġconducted": 4331,
      "Ġshekel": 4332,
      "Ġcateg": 4333,
      "alted": 4334,
      "urer": 4335,
      "Ġspending": 4336,
      "Ġimprison": 4337,
      "Ġhandle": 4338,
      "Ġradio": 4339,
      "Ġilleg": 4340,
      "Ġglass": 4341,
      "jud": 4342,
      "yer": 4343,
      "Ġpred": 4344,
      "Ġwhen": 4345,
      "Ġagent": 4346,
      "aped": 4347,
      "Ġordered": 4348,
      "Ġappearance": 4349,
      "Ġbowl": 4350,
      "Ġale": 4351,
      "oking": 4352,
      "Ġposse": 4353,
      "Ġorganized": 4354,
      "Ġburning": 4355,
      "inger": 4356,
      "Ġliber": 4357,
      "Ġapparent": 4358,
      "Ġadvoc": 4359,
      "Ġdealing": 4360,
      "spective": 4361,
      "Ġtribulation": 4362,
      "Ġinstrument": 4363,
      "Ġwhenever": 4364,
      "time": 4365,
      "Ġcoach": 4366,
      "Ġcalam": 4367,
      "Ġlistening": 4368,
      "Ġelectron": 4369,
      "Ġbethel": 4370,
      "Ġcake": 4371,
      "Ġdelay": 4372,
      "Ġairport": 4373,
      "Ġmetal": 4374,
      "Ġvirt": 4375,
      "Ġproposal": 4376,
      "Ġefficient": 4377,
      "Ġmemorial": 4378,
      "Ġlaugh": 4379,
      "Ġaz": 4380,
      "Ġunity": 4381,
      "Ġemotion": 4382,
      "Ġpersonally": 4383,
      "Ġnorthern": 4384,
      "Ġwestern": 4385,
      "Ġpanel": 4386,
      "Ġrefugee": 4387,
      "Ġcandidate": 4388,
      "Ġrelax": 4389,
      "Ġital": 4390,
      "iny": 4391,
      "Ġmira": 4392,
      "Ġlamp": 4393,
      "thy": 4394,
      "ifying": 4395,
      "Ġformed": 4396,
      "Ġdeclare": 4397,
      "Ġcraft": 4398,
      "rupt": 4399,
      "Ġexpand": 4400,
      "rend": 4401,
      "Ġestate": 4402,
      "Ġvisitor": 4403,
      "Ġpackage": 4404,
      "Ġanalysis": 4405,
      "Ġarrangement": 4406,
      "Ġbottom": 4407,
      "wood": 4408,
      "uting": 4409,
      "Ġexpense": 4410,
      "Ġprepar": 4411,
      "Ġpasture": 4412,
      "Ġseventh": 4413,
      "adow": 4414,
      "emic": 4415,
      "Ġvolunte": 4416,
      "ancy": 4417,
      "Ġhide": 4418,
      "char": 4419,
      "Ġsaving": 4420,
      "Ġquiet": 4421,
      "Ġroot": 4422,
      "Ġplain": 4423,
      "Ġcloser": 4424,
      "Ġyounger": 4425,
      "Ġsarah": 4426,
      "Ġloan": 4427,
      "Ġimportance": 4428,
      "Ġspeaker": 4429,
      "Ġstatus": 4430,
      "Ġprimary": 4431,
      "Ġtemperature": 4432,
      "coh": 4433,
      "Ġpu": 4434,
      "ening": 4435,
      "arian": 4436,
      "Ġshar": 4437,
      "Ġguess": 4438,
      "Ġcurse": 4439,
      "Ġwheel": 4440,
      "Ġdism": 4441,
      "Ġababa": 4442,
      "Ġintended": 4443,
      "Ġtransg": 4444,
      "Ġrealized": 4445,
      "verse": 4446,
      "ateful": 4447,
      "Ġlisted": 4448,
      "Ġharvest": 4449,
      "Ġscientist": 4450,
      "Ġtestimony": 4451,
      "ek": 4452,
      "Ġpope": 4453,
      "Ġempt": 4454,
      "Ġintention": 4455,
      "Ġcultiv": 4456,
      "Ġsanctuary": 4457,
      "Ġcalamity": 4458,
      "iff": 4459,
      "ney": 4460,
      "Ġshould": 4461,
      "Ġdeputy": 4462,
      "Ġrecorded": 4463,
      "Ġbelongs": 4464,
      "Ġpermanent": 4465,
      "nel": 4466,
      "Ġhighest": 4467,
      "Ġfollows": 4468,
      "Ġfinance": 4469,
      "Ġdeveloping": 4470,
      "Ġsigned": 4471,
      "Ġfailure": 4472,
      "Ġgermany": 4473,
      "Ġpreparation": 4474,
      "Ġreven": 4475,
      "Ġscatter": 4476,
      "Ġideal": 4477,
      "Ġcarrying": 4478,
      "Ġbesides": 4479,
      "Ġwound": 4480,
      "stood": 4481,
      "Ġvan": 4482,
      "Ġvital": 4483,
      "Ġpassion": 4484,
      "Ġfocused": 4485,
      "Ġsouthern": 4486,
      "Ġexisting": 4487,
      "ador": 4488,
      "Ġalcoh": 4489,
      "Ġreceiving": 4490,
      "Ġstayed": 4491,
      "Ġcompetition": 4492,
      "Ġbutter": 4493,
      "Ġcomplaint": 4494,
      "Ġgro": 4495,
      "Ġja": 4496,
      "Ġfacing": 4497,
      "pos": 4498,
      "Ġworldwide": 4499,
      "Ġforest": 4500,
      "Ġclosed": 4501,
      "Ġrecognize": 4502,
      "Ġstranger": 4503,
      "sman": 4504,
      "Ġspan": 4505,
      "Ġexpensive": 4506,
      "Ġlikewise": 4507,
      "Ġcompared": 4508,
      "Ġaccurate": 4509,
      "erate": 4510,
      "Ġbuying": 4511,
      "Ġhighlight": 4512,
      "Ġvaluable": 4513,
      "Ġtelling": 4514,
      "Ġtraditional": 4515,
      "eline": 4516,
      "Ġplenty": 4517,
      "Ġcontinues": 4518,
      "Ġfallen": 4519,
      "Ġvineyard": 4520,
      "Ġgad": 4521,
      "rier": 4522,
      "Ġexalted": 4523,
      "Ġdivided": 4524,
      "Ġsi": 4525,
      "Ġpin": 4526,
      "Ġhu": 4527,
      "Ġindia": 4528,
      "Ġmerci": 4529,
      "Ġcamera": 4530,
      "Ġou": 4531,
      "Ġtol": 4532,
      "Ġeve": 4533,
      "Ġimperf": 4534,
      "zen": 4535,
      "Ġoath": 4536,
      "Ġweigh": 4537,
      "Ġlawyer": 4538,
      "Ġforeigner": 4539,
      "Ġenvironmental": 4540,
      "Ġepr": 4541,
      "Ġken": 4542,
      "Ġturning": 4543,
      "annel": 4544,
      "Ġmicro": 4545,
      "gic": 4546,
      "isee": 4547,
      "Ġprosec": 4548,
      "Ġarise": 4549,
      "Ġchose": 4550,
      "Ġequal": 4551,
      "Ġrecognized": 4552,
      "Ġtelevision": 4553,
      "eration": 4554,
      "Ġmah": 4555,
      "rian": 4556,
      "Ġinqu": 4557,
      "olar": 4558,
      "Ġselection": 4559,
      "Ġsav": 4560,
      "pping": 4561,
      "Ġdiet": 4562,
      "Ġsupported": 4563,
      "Ġveget": 4564,
      "Ġsending": 4565,
      "Ġdeclared": 4566,
      "Ġbalance": 4567,
      "Ġrussia": 4568,
      "Ġsenior": 4569,
      "Ġsuddenly": 4570,
      "Ġlying": 4571,
      "amic": 4572,
      "Ġspiritually": 4573,
      "versary": 4574,
      "otten": 4575,
      "Ġdiscovered": 4576,
      "we": 4577,
      "chan": 4578,
      "Ġki": 4579,
      "Ġrefused": 4580,
      "Ġhumble": 4581,
      "Ġgenerally": 4582,
      "Ġappears": 4583,
      "Ġdomestic": 4584,
      "Ġshopping": 4585,
      "Ġguarantee": 4586,
      "Ġhom": 4587,
      "Ġdispute": 4588,
      "Ġloud": 4589,
      "Ġchain": 4590,
      "Ġinfo": 4591,
      "Ġinternal": 4592,
      "Ġtreated": 4593,
      "Ġbitter": 4594,
      "fter": 4595,
      "word": 4596,
      "Ġlovely": 4597,
      "Ġspr": 4598,
      "astic": 4599,
      "fficient": 4600,
      "Ġdeeply": 4601,
      "Ġexplains": 4602,
      "Ġtrend": 4603,
      "Ġbure": 4604,
      "Ġneck": 4605,
      "Ġaccused": 4606,
      "point": 4607,
      "Ġdepending": 4608,
      "Ġdrinking": 4609,
      "Ġprofessor": 4610,
      "Ġtraveling": 4611,
      "Ġclothes": 4612,
      "Ġafterward": 4613,
      "iration": 4614,
      "Ġride": 4615,
      "Ġphi": 4616,
      "Ġgrateful": 4617,
      "Ġattach": 4618,
      "Ġvolume": 4619,
      "Ġappreciation": 4620,
      "Ġpreviously": 4621,
      "Ġlady": 4622,
      "Ġaustralia": 4623,
      "Ġpsych": 4624,
      "Ġintelligence": 4625,
      "Ġdinner": 4626,
      "lom": 4627,
      "road": 4628,
      "ilty": 4629,
      "Ġharmon": 4630,
      "zer": 4631,
      "Ġshape": 4632,
      "Ġrat": 4633,
      "Ġrod": 4634,
      "Ġtwenty": 4635,
      "tyard": 4636,
      "Ġcourtyard": 4637,
      "Ġlasting": 4638,
      "Ġadvis": 4639,
      "Ġfarmer": 4640,
      "Ġcounter": 4641,
      "ipping": 4642,
      "Ġvictory": 4643,
      "bon": 4644,
      "reh": 4645,
      "Ġnah": 4646,
      "Ġlock": 4647,
      "icted": 4648,
      "Ġoutcome": 4649,
      "Ġpharisee": 4650,
      "lined": 4651,
      "Ġstorm": 4652,
      "Ġbare": 4653,
      "Ġretail": 4654,
      "Ġlargest": 4655,
      "Ġdivor": 4656,
      "Ġwoe": 4657,
      "Ġinterpret": 4658,
      "Ġassess": 4659,
      "Ġstudying": 4660,
      "Ġprophes": 4661,
      "Ġforgiveness": 4662,
      "enance": 4663,
      "emed": 4664,
      "Ġmoon": 4665,
      "Ġhanded": 4666,
      "Ġpatience": 4667,
      "Ġexpectation": 4668,
      "kin": 4669,
      "Ġfrench": 4670,
      "Ġcrush": 4671,
      "Ġcollabor": 4672,
      "Ġox": 4673,
      "Ġtob": 4674,
      "Ġtherein": 4675,
      "Ġpers": 4676,
      "Ġguilt": 4677,
      "ost": 4678,
      "Ġchannel": 4679,
      "Ġspo": 4680,
      "emen": 4681,
      "iega": 4682,
      "Ġdestination": 4683,
      "Ġnoriega": 4684,
      "Ġjewish": 4685,
      "Ġchemical": 4686,
      "Ġcategory": 4687,
      "Ġhoney": 4688,
      "Ġtheme": 4689,
      "urb": 4690,
      "Ġfarm": 4691,
      "Ġcattle": 4692,
      "Ġindependent": 4693,
      "Ġom": 4694,
      "Ġpit": 4695,
      "Ġexile": 4696,
      "Ġmechan": 4697,
      "Ġroyal": 4698,
      "Ġemotional": 4699,
      "Ġunderstood": 4700,
      "Ġsuffered": 4701,
      "Ġwhereas": 4702,
      "Ġmerciful": 4703,
      "inary": 4704,
      "Ġgall": 4705,
      "Ġstor": 4706,
      "Ġproof": 4707,
      "Ġadul": 4708,
      "Ġlake": 4709,
      "Ġquote": 4710,
      "owned": 4711,
      "uch": 4712,
      "Ġcd": 4713,
      "Ġmill": 4714,
      "lete": 4715,
      "Ġalm": 4716,
      "Ġhumility": 4717,
      "Ġpassing": 4718,
      "Ġtechnique": 4719,
      "Ġphilipp": 4720,
      "Ġmagn": 4721,
      "Ġparticipate": 4722,
      "Ġdiplom": 4723,
      "pal": 4724,
      "Ġselling": 4725,
      "onent": 4726,
      "lear": 4727,
      "Ġbomb": 4728,
      "Ġchea": 4729,
      "Ġprejud": 4730,
      "Ġsett": 4731,
      "Ġscholar": 4732,
      "Ġdepth": 4733,
      "Ġaffected": 4734,
      "Ġgil": 4735,
      "Ġprec": 4736,
      "Ġmoab": 4737,
      "Ġjoint": 4738,
      "Ġsurvey": 4739,
      "Ġeditor": 4740,
      "Ġflower": 4741,
      "Ġselected": 4742,
      "Ġencouraged": 4743,
      "Ġalternative": 4744,
      "lant": 4745,
      "Ġice": 4746,
      "Ġmanif": 4747,
      "Ġheight": 4748,
      "Ġlux": 4749,
      "Ġdonkey": 4750,
      "Ġtotally": 4751,
      "Ġwednes": 4752,
      "Ġemergency": 4753,
      "Ġshoulder": 4754,
      "erv": 4755,
      "stock": 4756,
      "Ġrare": 4757,
      "Ġconclusion": 4758,
      "Ġcharged": 4759,
      "Ġhidden": 4760,
      "ket": 4761,
      "Ġexcl": 4762,
      "Ġunable": 4763,
      "Ġadvent": 4764,
      "Ġqueen": 4765,
      "Ġcompr": 4766,
      "Ġflex": 4767,
      "door": 4768,
      "Ġrejected": 4769,
      "Ġwednesday": 4770,
      "unately": 4771,
      "esome": 4772,
      "Ġbrief": 4773,
      "Ġframe": 4774,
      "Ġdram": 4775,
      "Ġsaith": 4776,
      "esty": 4777,
      "Ġscar": 4778,
      "Ġsolid": 4779,
      "cript": 4780,
      "Ġstatute": 4781,
      "Ġpenal": 4782,
      "Ġlinen": 4783,
      "Ġalbum": 4784,
      "Ġempty": 4785,
      "Ġod": 4786,
      "Ġconcept": 4787,
      "ipe": 4788,
      "Ġguilty": 4789,
      "Ġcoll": 4790,
      "Ġpossibly": 4791,
      "Ġvessel": 4792,
      "Ġreminder": 4793,
      "Ġsel": 4794,
      "Ġcath": 4795,
      "ica": 4796,
      "Ġkm": 4797,
      "Ġincred": 4798,
      "Ġisraeli": 4799,
      "Ġforced": 4800,
      "Ġsinned": 4801,
      "Ġconsidering": 4802,
      "Ġvisited": 4803,
      "with": 4804,
      "Ġpitch": 4805,
      "Ġamend": 4806,
      "Ġasc": 4807,
      "Ġsurprise": 4808,
      "Ġcentre": 4809,
      "Ġlarger": 4810,
      "Ġencouragement": 4811,
      "Ġcontains": 4812,
      "ordinary": 4813,
      "Ġbrown": 4814,
      "Ġspouse": 4815,
      "Ġapple": 4816,
      "Ġcomponent": 4817,
      "Ġincident": 4818,
      "Ġscore": 4819,
      "Ġmonitor": 4820,
      "Ġgolden": 4821,
      "Ġstrive": 4822,
      "Ġloyalty": 4823,
      "Ġobjective": 4824,
      "Ġpursue": 4825,
      "iency": 4826,
      "iture": 4827,
      "Ġfamine": 4828,
      "Ġsubst": 4829,
      "Ġrefuse": 4830,
      "Ġelijah": 4831,
      "Ġoutdoor": 4832,
      "Ġadvanced": 4833,
      "Ġjonathan": 4834,
      "Ġwaste": 4835,
      "Ġwra": 4836,
      "Ġinstruct": 4837,
      "apy": 4838,
      "Ġbiggest": 4839,
      "Ġexcited": 4840,
      "Ġexciting": 4841,
      "Ġseriously": 4842,
      "Ġcris": 4843,
      "Ġmanifest": 4844,
      "Ġbot": 4845,
      "Ġrelief": 4846,
      "Ġgenu": 4847,
      "Ġsmo": 4848,
      "Ġsentence": 4849,
      "Ġcleaning": 4850,
      "Ġresearcher": 4851,
      "Ġdifficulty": 4852,
      "Ġworshipper": 4853,
      "Ġrepeated": 4854,
      "Ġkorea": 4855,
      "Ġneb": 4856,
      "Ġcompreh": 4857,
      "Ġroof": 4858,
      "phas": 4859,
      "lication": 4860,
      "Ġpaying": 4861,
      "Ġawesome": 4862,
      "Ġfulfilled": 4863,
      "Ġinitial": 4864,
      "struct": 4865,
      "Ġdescription": 4866,
      "Ġconsideration": 4867,
      "Ġcareful": 4868,
      "Ġcaptured": 4869,
      "Ġcelebrate": 4870,
      "Ġolive": 4871,
      "Ġeprdf": 4872,
      "Ġpic": 4873,
      "Ġpound": 4874,
      "Ġgib": 4875,
      "Ġlat": 4876,
      "bert": 4877,
      "Ġforb": 4878,
      "Ġestablishment": 4879,
      "Ġwickedness": 4880,
      "Ġfought": 4881,
      "Ġbon": 4882,
      "Ġhere": 4883,
      "Ġrely": 4884,
      "omed": 4885,
      "Ġzone": 4886,
      "Ġdetest": 4887,
      "Ġonto": 4888,
      "aker": 4889,
      "Ġpublisher": 4890,
      "Ġbutton": 4891,
      "Ġtig": 4892,
      "rior": 4893,
      "Ġchee": 4894,
      "Ġbeer": 4895,
      "Ġbroke": 4896,
      "Ġpossibility": 4897,
      "Ġplanet": 4898,
      "Ġpassover": 4899,
      "Ġdangerous": 4900,
      "Ġmaxim": 4901,
      "ung": 4902,
      "Ġcompens": 4903,
      "Ġaccomm": 4904,
      "Ġtrained": 4905,
      "Ġwrath": 4906,
      "Ġsymb": 4907,
      "Ġwarrior": 4908,
      "Ġprotest": 4909,
      "Ġmotor": 4910,
      "exp": 4911,
      "Ġinitiative": 4912,
      "Ġaccommod": 4913,
      "house": 4914,
      "raim": 4915,
      "Ġall": 4916,
      "Ġroll": 4917,
      "Ġecc": 4918,
      "omy": 4919,
      "Ġminor": 4920,
      "Ġedition": 4921,
      "Ġdrag": 4922,
      "Ġtenth": 4923,
      "Ġwherever": 4924,
      "Ġexistence": 4925,
      "Ġscientific": 4926,
      "Ġdisappo": 4927,
      "ded": 4928,
      "Ġsought": 4929,
      "ervation": 4930,
      "Ġish": 4931,
      "ilead": 4932,
      "Ġforet": 4933,
      "whel": 4934,
      "Ġhappening": 4935,
      "Ġvolunteer": 4936,
      "put": 4937,
      "stly": 4938,
      "Ġhaz": 4939,
      "Ġsubs": 4940,
      "Ġgrade": 4941,
      "Ġextended": 4942,
      "board": 4943,
      "Ġwinning": 4944,
      "Ġfrance": 4945,
      "cal": 4946,
      "sm": 4947,
      "some": 4948,
      "eta": 4949,
      "Ġprospect": 4950,
      "iry": 4951,
      "Ġenforce": 4952,
      "Ġsevere": 4953,
      "Ġmichael": 4954,
      "uit": 4955,
      "inated": 4956,
      "Ġcab": 4957,
      "Ġindic": 4958,
      "Ġimposs": 4959,
      "Ġoverwhel": 4960,
      "Ġfifth": 4961,
      "Ġprejudice": 4962,
      "ox": 4963,
      "Ġdiag": 4964,
      "Ġadding": 4965,
      "Ġpoll": 4966,
      "Ġmoral": 4967,
      "Ġcalif": 4968,
      "Ġmultip": 4969,
      "Ġephraim": 4970,
      "Ġfoolish": 4971,
      "Ġmath": 4972,
      "inese": 4973,
      "Ġmostly": 4974,
      "Ġtwice": 4975,
      "Ġinvite": 4976,
      "Ġflor": 4977,
      "Ġinnocent": 4978,
      "Ġnuc": 4979,
      "Ġvast": 4980,
      "Ġincor": 4981,
      "Ġtwitter": 4982,
      "Ġagg": 4983,
      "Ġangry": 4984,
      "Ġdrawing": 4985,
      "Ġdiscussed": 4986,
      "Ġnative": 4987,
      "Ġshel": 4988,
      "Ġdiscern": 4989,
      "Ġawa": 4990,
      "Ġviolent": 4991,
      "Ġresolution": 4992,
      "Ġtee": 4993,
      "Ġble": 4994,
      "Ġsmile": 4995,
      "sure": 4996,
      "Ġpoured": 4997,
      "Ġtine": 4998,
      "orough": 4999,
      "Ġchinese": 5000,
      "Ġunfort": 5001,
      "Ġbasket": 5002,
      "gging": 5003,
      "Ġsuperv": 5004,
      "Ġrecommended": 5005,
      "Ġoverseer": 5006,
      "isation": 5007,
      "Ġgosp": 5008,
      "Ġpair": 5009,
      "Ġextent": 5010,
      "Ġburned": 5011,
      "Ġmissing": 5012,
      "Ġrebell": 5013,
      "iliar": 5014,
      "Ġgospel": 5015,
      "lim": 5016,
      "aria": 5017,
      "Ġfinger": 5018,
      "Ġhat": 5019,
      "Ġada": 5020,
      "Ġserver": 5021,
      "Ġboast": 5022,
      "Ġtoy": 5023,
      "Ġruth": 5024,
      "Ġaffection": 5025,
      "Ġworthy": 5026,
      "Ġtouched": 5027,
      "urious": 5028,
      "Ġpenalty": 5029,
      "pse": 5030,
      "Ġactual": 5031,
      "Ġentertainment": 5032,
      "Ġly": 5033,
      "Ġthread": 5034,
      "Ġsinner": 5035,
      "Ġvalid": 5036,
      "Ġcalm": 5037,
      "Ġarchit": 5038,
      "Ġimpossible": 5039,
      "ov": 5040,
      "Ġinch": 5041,
      "Ġexposed": 5042,
      "Ġplot": 5043,
      "Ġplague": 5044,
      "Ġdraft": 5045,
      "Ġwrongdo": 5046,
      "Ġcommitment": 5047,
      "Ġliterature": 5048,
      "Ġcaliforn": 5049,
      "Ġcer": 5050,
      "ounce": 5051,
      "unt": 5052,
      "Ġabroad": 5053,
      "Ġacted": 5054,
      "Ġprompt": 5055,
      "Ġimprovement": 5056,
      "Ġrental": 5057,
      "Ġvacation": 5058,
      "Ġarrested": 5059,
      "vor": 5060,
      "ida": 5061,
      "Ġsau": 5062,
      "Ġorom": 5063,
      "Ġpeaceful": 5064,
      "Ġtemporary": 5065,
      "Ġcaptive": 5066,
      "Ġteenager": 5067,
      "Ġintegrity": 5068,
      "Ġpregnant": 5069,
      "edy": 5070,
      "Ġlunch": 5071,
      "Ġcham": 5072,
      "ounter": 5073,
      "Ġcompar": 5074,
      "Ġproperly": 5075,
      "Ġencounter": 5076,
      "Ġregardless": 5077,
      "Ġresurrect": 5078,
      "Ġargument": 5079,
      "Ġconvinced": 5080,
      "Ġbureau": 5081,
      "nal": 5082,
      "Ġgilead": 5083,
      "Ġsem": 5084,
      "Ġbathroom": 5085,
      "Ġpatriarch": 5086,
      "Ġeager": 5087,
      "Ġdecor": 5088,
      "Ġelimin": 5089,
      "Ġinvestor": 5090,
      "Ġdrawn": 5091,
      "Ġadopt": 5092,
      "Ġstorage": 5093,
      "Ġnuclear": 5094,
      "Ġcried": 5095,
      "Ġec": 5096,
      "izes": 5097,
      "Ġsym": 5098,
      "Ġdefend": 5099,
      "Ġparticipant": 5100,
      "aser": 5101,
      "asant": 5102,
      "Ġmanass": 5103,
      "Ġapplied": 5104,
      "Ġquant": 5105,
      "Ġanywhere": 5106,
      "Ġlivestock": 5107,
      "Ġperformed": 5108,
      "Ġsatisfaction": 5109,
      "mark": 5110,
      "pre": 5111,
      "Ġaoh": 5112,
      "Ġprop": 5113,
      "Ġsufficient": 5114,
      "Ġremark": 5115,
      "Ġovercome": 5116,
      "Ġreferred": 5117,
      "Ġmultitude": 5118,
      "Ġabandoned": 5119,
      "Ġfantastic": 5120,
      "Ġsmooth": 5121,
      "Ġarchitect": 5122,
      "Ġhan": 5123,
      "Ġnaz": 5124,
      "Ġstir": 5125,
      "Ġconqu": 5126,
      "Ġfault": 5127,
      "Ġresidence": 5128,
      "Ġrap": 5129,
      "Ġmarry": 5130,
      "Ġclim": 5131,
      "Ġsubmitted": 5132,
      "gery": 5133,
      "Ġblame": 5134,
      "Ġoperating": 5135,
      "Ġrecommendation": 5136,
      "Ġcontrast": 5137,
      "Ġcalifornia": 5138,
      "Ġgent": 5139,
      "ones": 5140,
      "ube": 5141,
      "ressive": 5142,
      "Ġclosely": 5143,
      "Ġarmed": 5144,
      "Ġawake": 5145,
      "Ġfavour": 5146,
      "Ġdivine": 5147,
      "Ġbritain": 5148,
      "Ġminimum": 5149,
      "hib": 5150,
      "Ġshield": 5151,
      "estyle": 5152,
      "Ġmineral": 5153,
      "Ġentit": 5154,
      "Ġfamous": 5155,
      "Ġhypo": 5156,
      "Ġburden": 5157,
      "inal": 5158,
      "Ġtough": 5159,
      "Ġmut": 5160,
      "onement": 5161,
      "ula": 5162,
      "anda": 5163,
      "ellow": 5164,
      "Ġtag": 5165,
      "Ġrow": 5166,
      "Ġdesk": 5167,
      "Ġprogramme": 5168,
      "Ġeducational": 5169,
      "Ġwherein": 5170,
      "Ġeastern": 5171,
      "Ġterrif": 5172,
      "Ġfurther": 5173,
      "iber": 5174,
      "Ġtight": 5175,
      "ulate": 5176,
      "laced": 5177,
      "Ġperspective": 5178,
      "Ġadmit": 5179,
      "Ġcompare": 5180,
      "Ġindian": 5181,
      "Ġgraph": 5182,
      "Ġsupporting": 5183,
      "Ġdriven": 5184,
      "Ġwinner": 5185,
      "Ġjournalist": 5186,
      "Ġelectronic": 5187,
      "abled": 5188,
      "Ġsecured": 5189,
      "Ġwarned": 5190,
      "Ġsurgery": 5191,
      "Ġpresentation": 5192,
      "Ġutter": 5193,
      "Ġambass": 5194,
      "Ġammad": 5195,
      "lin": 5196,
      "Ġought": 5197,
      "Ġsod": 5198,
      "Ġdining": 5199,
      "olf": 5200,
      "Ġdeleg": 5201,
      "Ġrush": 5202,
      "Ġestim": 5203,
      "Ġsovereignty": 5204,
      "Ġambassador": 5205,
      "dy": 5206,
      "Ġshed": 5207,
      "Ġspa": 5208,
      "Ġmac": 5209,
      "Ġassured": 5210,
      "Ġprize": 5211,
      "Ġpreserve": 5212,
      "Ġgrass": 5213,
      "Ġprayed": 5214,
      "iverse": 5215,
      "Ġwearing": 5216,
      "Ġii": 5217,
      "Ġhoping": 5218,
      "Ġsharp": 5219,
      "ius": 5220,
      "icip": 5221,
      "Ġdepos": 5222,
      "Ġdispo": 5223,
      "Ġlabour": 5224,
      "Ġtruck": 5225,
      "Ġcolour": 5226,
      "Ġswear": 5227,
      "Ġlifted": 5228,
      "Ġexplore": 5229,
      "Ġmanasseh": 5230,
      "Ġtplf": 5231,
      "Ġbid": 5232,
      "ille": 5233,
      "Ġstead": 5234,
      "Ġshadow": 5235,
      "Ġuniverse": 5236,
      "Ġron": 5237,
      "Ġabuse": 5238,
      "Ġrefresh": 5239,
      "Ġchoc": 5240,
      "Ġreminded": 5241,
      "Ġresolve": 5242,
      "Ġlifestyle": 5243,
      "Ġingred": 5244,
      "Ġmart": 5245,
      "Ġsole": 5246,
      "Ġzar": 5247,
      "Ġsimon": 5248,
      "Ġgrace": 5249,
      "Ġprofile": 5250,
      "Ġextend": 5251,
      "Ġinfra": 5252,
      "Ġallowing": 5253,
      "Ġtesting": 5254,
      "Ġmaintenance": 5255,
      "Ġidentity": 5256,
      "Ġatonement": 5257,
      "Ġconfirm": 5258,
      "Ġharmony": 5259,
      "Ġingredient": 5260,
      "Ġfold": 5261,
      "Ġrein": 5262,
      "Ġreform": 5263,
      "ander": 5264,
      "Ġleague": 5265,
      "Ġplastic": 5266,
      "Ġacting": 5267,
      "Ġdiscount": 5268,
      "Ġillness": 5269,
      "Ġtablet": 5270,
      "ura": 5271,
      "za": 5272,
      "ato": 5273,
      "elve": 5274,
      "Ġnd": 5275,
      "Ġshock": 5276,
      "loc": 5277,
      "sper": 5278,
      "Ġregime": 5279,
      "Ġemphas": 5280,
      "Ġmuse": 5281,
      "Ġguided": 5282,
      "Ġvisual": 5283,
      "Ġdetailed": 5284,
      "Ġjapan": 5285,
      "Ġfurthermore": 5286,
      "bur": 5287,
      "hear": 5288,
      "Ġcas": 5289,
      "Ġeplf": 5290,
      "Ġchat": 5291,
      "Ġsuit": 5292,
      "Ġcoordin": 5293,
      "Ġupright": 5294,
      "Ġnearby": 5295,
      "Ġidentified": 5296,
      "Ġessay": 5297,
      "Ġcircumc": 5298,
      "Ġmixed": 5299,
      "Ġsurprised": 5300,
      "Ġillegal": 5301,
      "ris": 5302,
      "Ġcow": 5303,
      "ulated": 5304,
      "vened": 5305,
      "Ġbride": 5306,
      "Ġengaged": 5307,
      "Ġdesigner": 5308,
      "boam": 5309,
      "Ġobserved": 5310,
      "oo": 5311,
      "Ġdump": 5312,
      "Ġnic": 5313,
      "Ġcausing": 5314,
      "eafter": 5315,
      "Ġmeles": 5316,
      "Ġexport": 5317,
      "Ġstudio": 5318,
      "Ġprovin": 5319,
      "Ġswim": 5320,
      "Ġeaten": 5321,
      "Ġflying": 5322,
      "Ġchocolate": 5323,
      "Ġaro": 5324,
      "Ġinvent": 5325,
      "Ġthorough": 5326,
      "Ġpermission": 5327,
      "Ġreporter": 5328,
      "Ġfootball": 5329,
      "Ġdescribe": 5330,
      "Ġpursuant": 5331,
      "Ġalcohol": 5332,
      "Ġreact": 5333,
      "Ġrede": 5334,
      "verty": 5335,
      "Ġcommander": 5336,
      "Ġspeaks": 5337,
      "Ġprotected": 5338,
      "Ġnaked": 5339,
      "Ġsilent": 5340,
      "Ġbearing": 5341,
      "Ġsurvive": 5342,
      "Ġdismiss": 5343,
      "Ġchamber": 5344,
      "Ġlit": 5345,
      "uration": 5346,
      "Ġshew": 5347,
      "ateral": 5348,
      "Ġchoosing": 5349,
      "Ġevolution": 5350,
      "Ġcrash": 5351,
      "Ġtheory": 5352,
      "Ġassessment": 5353,
      "Ġadapt": 5354,
      "giving": 5355,
      "rel": 5356,
      "Ġcoal": 5357,
      "Ġpolitics": 5358,
      "Ġepis": 5359,
      "Ġfrequently": 5360,
      "Ġcore": 5361,
      "Ġthess": 5362,
      "Ġmanaged": 5363,
      "Ġpoverty": 5364,
      "Ġreput": 5365,
      "Ġsyria": 5366,
      "Ġhealing": 5367,
      "Ġplane": 5368,
      "Ġchallenging": 5369,
      "Ġshoe": 5370,
      "Ġannounce": 5371,
      "craft": 5372,
      "Ġadvertising": 5373,
      "Ġcorporate": 5374,
      "Ġapparently": 5375,
      "equ": 5376,
      "Ġmild": 5377,
      "aded": 5378,
      "Ġoce": 5379,
      "Ġlabel": 5380,
      "Ġfolk": 5381,
      "Ġpraying": 5382,
      "Ġconnected": 5383,
      "Ġcreditor": 5384,
      "Ġadventure": 5385,
      "Ġteeth": 5386,
      "wn": 5387,
      "Ġic": 5388,
      "Ġegg": 5389,
      "Ġspect": 5390,
      "Ġjoab": 5391,
      "Ġwithd": 5392,
      "Ġengland": 5393,
      "Ġbreaking": 5394,
      "Ġgathering": 5395,
      "Ġdenied": 5396,
      "Ġrevenue": 5397,
      "Ġspoil": 5398,
      "Ġocean": 5399,
      "har": 5400,
      "Ġate": 5401,
      "ading": 5402,
      "Ġexcess": 5403,
      "Ġunexp": 5404,
      "lock": 5405,
      "Ġincense": 5406,
      "Ġtrail": 5407,
      "Ġnovel": 5408,
      "Ġvisiting": 5409,
      "Ġdevast": 5410,
      "Ġthrown": 5411,
      "Ġcorrupt": 5412,
      "Ġroutine": 5413,
      "rary": 5414,
      "Ġped": 5415,
      "Ġpater": 5416,
      "stration": 5417,
      "ustice": 5418,
      "Ġstring": 5419,
      "Ġcoverage": 5420,
      "while": 5421,
      "Ġbuyer": 5422,
      "Ġsimilarly": 5423,
      "Ġinjustice": 5424,
      "Ġfixed": 5425,
      "nk": 5426,
      "Ġdance": 5427,
      "Ġprohib": 5428,
      "Ġcontem": 5429,
      "Ġcongress": 5430,
      "Ġspecified": 5431,
      "Ġcontribute": 5432,
      "Ġmanufacturer": 5433,
      "Ġacademic": 5434,
      "pet": 5435,
      "Ġpull": 5436,
      "Ġmour": 5437,
      "Ġrd": 5438,
      "Ġrank": 5439,
      "Ġrachel": 5440,
      "Ġreliable": 5441,
      "Ġearthly": 5442,
      "Ġplanned": 5443,
      "Ġacceptable": 5444,
      "Ġsuperior": 5445,
      "Ġbaptism": 5446,
      "Ġenhance": 5447,
      "Ġhous": 5448,
      "Ġchie": 5449,
      "ftain": 5450,
      "Ġassum": 5451,
      "agon": 5452,
      "Ġfamiliar": 5453,
      "Ġanyway": 5454,
      "Ġgeorge": 5455,
      "Ġinstallation": 5456,
      "Ġmyster": 5457,
      "Ġsettlement": 5458,
      "Ġepisode": 5459,
      "Ġchieftain": 5460,
      "fall": 5461,
      "atically": 5462,
      "Ġlon": 5463,
      "Ġshirt": 5464,
      "Ġamen": 5465,
      "Ġreside": 5466,
      "Ġbetray": 5467,
      "Ġauthorized": 5468,
      "Ġcapable": 5469,
      "Ġsalary": 5470,
      "Ġdonation": 5471,
      "Ġattendant": 5472,
      "ography": 5473,
      "Ġdetestable": 5474,
      "Ġpaternal": 5475,
      "Ġdim": 5476,
      "Ġdrew": 5477,
      "Ġpermit": 5478,
      "Ġdisob": 5479,
      "Ġisl": 5480,
      "Ġpron": 5481,
      "Ġagric": 5482,
      "Ġinfant": 5483,
      "Ġsample": 5484,
      "Ġhero": 5485,
      "Ġcircuit": 5486,
      "Ġfirmly": 5487,
      "Ġbelonging": 5488,
      "Ġpalm": 5489,
      "Ġunfortunately": 5490,
      "Ġdisobed": 5491,
      "Ġchick": 5492,
      "look": 5493,
      "tting": 5494,
      "Ġoccurred": 5495,
      "ha": 5496,
      "night": 5497,
      "Ġdating": 5498,
      "Ġger": 5499,
      "aming": 5500,
      "Ġtwelve": 5501,
      "Ġinteract": 5502,
      "Ġdelicious": 5503,
      "Ġcovering": 5504,
      "Ġbreakfast": 5505,
      "Ġclaimed": 5506,
      "Ġmiracle": 5507,
      "Ġagricult": 5508,
      "Ġmir": 5509,
      "ali": 5510,
      "oma": 5511,
      "Ġspy": 5512,
      "Ġimmig": 5513,
      "Ġclassic": 5514,
      "Ġtrem": 5515,
      "Ġurban": 5516,
      "Ġprisoner": 5517,
      "Ġdemocra": 5518,
      "Ġimprisonment": 5519,
      "Ġbottle": 5520,
      "Ġgenuine": 5521,
      "Ġmuseum": 5522,
      "uk": 5523,
      "Ġreaction": 5524,
      "Ġsupposed": 5525,
      "Ġspecifically": 5526,
      "Ġcollected": 5527,
      "Ġcooperation": 5528,
      "tained": 5529,
      "Ġsow": 5530,
      "Ġbore": 5531,
      "Ġrebel": 5532,
      "ruit": 5533,
      "shop": 5534,
      "Ġcoat": 5535,
      "Ġdeserve": 5536,
      "Ġactiv": 5537,
      "Ġinstitute": 5538,
      "Ġfreely": 5539,
      "Ġthirty": 5540,
      "Ġinvolves": 5541,
      "Ġruling": 5542,
      "Ġexhib": 5543,
      "Ġhistorical": 5544,
      "Ġdemocracy": 5545,
      "crib": 5546,
      "pent": 5547,
      "inent": 5548,
      "Ġuns": 5549,
      "Ġtail": 5550,
      "agogue": 5551,
      "Ġattending": 5552,
      "Ġcolon": 5553,
      "Ġrestore": 5554,
      "Ġtalked": 5555,
      "Ġindustrial": 5556,
      "Ġslight": 5557,
      "Ġcultural": 5558,
      "Ġutil": 5559,
      "Ġreduced": 5560,
      "Ġsadd": 5561,
      "Ġpartnership": 5562,
      "Ġcombination": 5563,
      "Ġcherub": 5564,
      "Ġobedient": 5565,
      "lies": 5566,
      "Ġwire": 5567,
      "Ġdil": 5568,
      "Ġhire": 5569,
      "Ġkiss": 5570,
      "Ġunlike": 5571,
      "Ġsmaller": 5572,
      "Ġherd": 5573,
      "Ġcaptain": 5574,
      "Ġgerman": 5575,
      "Ġcrisis": 5576,
      "head": 5577,
      "Ġft": 5578,
      "Ġder": 5579,
      "Ġyield": 5580,
      "Ġrecon": 5581,
      "Ġtex": 5582,
      "Ġaftern": 5583,
      "Ġtraveled": 5584,
      "Ġsearching": 5585,
      "Ġpainful": 5586,
      "Ġfeedback": 5587,
      "Ġexplan": 5588,
      "Ġconceal": 5589,
      "Ġafternoon": 5590,
      "comm": 5591,
      "Ġfier": 5592,
      "Ġexceeding": 5593,
      "Ġlover": 5594,
      "Ġmaker": 5595,
      "Ġexamination": 5596,
      "Ġnoted": 5597,
      "Ġsleeping": 5598,
      "Ġcabin": 5599,
      "ca": 5600,
      "rat": 5601,
      "edia": 5602,
      "Ġtank": 5603,
      "Ġdar": 5604,
      "Ġsteal": 5605,
      "Ġspain": 5606,
      "Ġunw": 5607,
      "Ġadm": 5608,
      "Ġscroll": 5609,
      "Ġpurchased": 5610,
      "Ġintroduced": 5611,
      "Ġqualified": 5612,
      "Ġcerem": 5613,
      "fit": 5614,
      "Ġezek": 5615,
      "Ġstup": 5616,
      "Ġthick": 5617,
      "Ġyard": 5618,
      "Ġdiss": 5619,
      "Ġmexic": 5620,
      "Ġnoticed": 5621,
      "Ġpreached": 5622,
      "Ġshooting": 5623,
      "Ġchairman": 5624,
      "Ġdivorce": 5625,
      "Ġcheap": 5626,
      "Ġsymbol": 5627,
      "ext": 5628,
      "Ġbind": 5629,
      "Ġnathan": 5630,
      "eter": 5631,
      "Ġliqu": 5632,
      "Ġperce": 5633,
      "ensil": 5634,
      "Ġcorn": 5635,
      "Ġmonthly": 5636,
      "Ġpromotion": 5637,
      "Ġwheat": 5638,
      "Ġforgotten": 5639,
      "Ġinvolve": 5640,
      "Ġmagic": 5641,
      "Ġextreme": 5642,
      "Ġconsultation": 5643,
      "Ġsynagogue": 5644,
      "Ġaffordable": 5645,
      "Ġevalu": 5646,
      "Ġnom": 5647,
      "Ġshine": 5648,
      "Ġlest": 5649,
      "Ġobst": 5650,
      "Ġswitch": 5651,
      "Ġholder": 5652,
      "Ġbasically": 5653,
      "Ġrejoicing": 5654,
      "Ġembra": 5655,
      "Ġresponded": 5656,
      "Ġacquire": 5657,
      "Ġwilliam": 5658,
      "Ġimmorality": 5659,
      "Ġdefeated": 5660,
      "care": 5661,
      "Ġthrew": 5662,
      "uled": 5663,
      "Ġabsal": 5664,
      "Ġmenu": 5665,
      "Ġadminister": 5666,
      "Ġsheet": 5667,
      "Ġutensil": 5668,
      "Ġwidely": 5669,
      "Ġtemptation": 5670,
      "Ġconvenient": 5671,
      "Ġimperfect": 5672,
      "Ġinfrastruct": 5673,
      "Ġprovince": 5674,
      "Ġstupid": 5675,
      "Ġabsalom": 5676,
      "ns": 5677,
      "uish": 5678,
      "Ġunle": 5679,
      "Ġtrading": 5680,
      "Ġscen": 5681,
      "Ġhumili": 5682,
      "Ġcream": 5683,
      "Ġconstant": 5684,
      "Ġscriptural": 5685,
      "Ġneighborhood": 5686,
      "Ġweakness": 5687,
      "Ġtherapy": 5688,
      "Ġrecovery": 5689,
      "Ġabundance": 5690,
      "Ġacknowledge": 5691,
      "Ġscattered": 5692,
      "Ġrapid": 5693,
      "Ġthresh": 5694,
      "Ġworst": 5695,
      "Ġeverywhere": 5696,
      "Ġasia": 5697,
      "Ġjudicial": 5698,
      "Ġsmoking": 5699,
      "Ġlistened": 5700,
      "Ġtransaction": 5701,
      "Ġprivacy": 5702,
      "Ġapplicable": 5703,
      "Ġrequested": 5704,
      "Ġwherefore": 5705,
      "Ġsettled": 5706,
      "Ġcatholic": 5707,
      "ias": 5708,
      "zed": 5709,
      "eness": 5710,
      "Ġlod": 5711,
      "Ġesa": 5712,
      "Ġstrange": 5713,
      "Ġkim": 5714,
      "Ġcave": 5715,
      "Ġhole": 5716,
      "Ġjudged": 5717,
      "Ġnobody": 5718,
      "Ġscheme": 5719,
      "Ġreigned": 5720,
      "Ġforbid": 5721,
      "Ġentitled": 5722,
      "Ġdumpster": 5723,
      "Ġtill": 5724,
      "Ġfiam": 5725,
      "Ġfacil": 5726,
      "Ġpole": 5727,
      "Ġcontext": 5728,
      "Ġfurniture": 5729,
      "ins": 5730,
      "Ġtie": 5731,
      "Ġfeast": 5732,
      "ald": 5733,
      "Ġstumb": 5734,
      "Ġkilling": 5735,
      "Ġseized": 5736,
      "isted": 5737,
      "Ġdisorder": 5738,
      "Ġregret": 5739,
      "Ġhaile": 5740,
      "Ġobtained": 5741,
      "Ġflat": 5742,
      "Ġflash": 5743,
      "Ġoperator": 5744,
      "Ġgrief": 5745,
      "Ġmissionary": 5746,
      "Ġfulfillment": 5747,
      "Ġconcluded": 5748,
      "Ġinfrastructure": 5749,
      "Ġcrop": 5750,
      "Ġtun": 5751,
      "Ġtired": 5752,
      "Ġhind": 5753,
      "istan": 5754,
      "unning": 5755,
      "umn": 5756,
      "Ġpleasing": 5757,
      "Ġeffectively": 5758,
      "Ġtreaty": 5759,
      "Ġoptim": 5760,
      "Ġshoot": 5761,
      "Ġturkey": 5762,
      "Ġencouraging": 5763,
      "Ġforetold": 5764,
      "Ġowned": 5765,
      "lement": 5766,
      "itating": 5767,
      "Ġsaint": 5768,
      "Ġspons": 5769,
      "Ġhezek": 5770,
      "Ġsolve": 5771,
      "Ġahab": 5772,
      "Ġalongside": 5773,
      "Ġthanksgiving": 5774,
      "Ġphilos": 5775,
      "Ġinspiration": 5776,
      "Ġfaithfulness": 5777,
      "Ġsuggested": 5778,
      "Ġmassive": 5779,
      "Ġhousing": 5780,
      "Ġfiameta": 5781,
      "Ġhezekiah": 5782,
      "bi": 5783,
      "oing": 5784,
      "Ġbay": 5785,
      "Ġbru": 5786,
      "Ġupper": 5787,
      "Ġindicate": 5788,
      "Ġwhat": 5789,
      "teen": 5790,
      "Ġparli": 5791,
      "Ġestimate": 5792,
      "Ġenjoying": 5793,
      "Ġslain": 5794,
      "Ġforgiving": 5795,
      "Ġunexpected": 5796,
      "clo": 5797,
      "iate": 5798,
      "iast": 5799,
      "vail": 5800,
      "Ġcease": 5801,
      "edar": 5802,
      "Ġaven": 5803,
      "orch": 5804,
      "Ġfro": 5805,
      "Ġproceed": 5806,
      "Ġloaf": 5807,
      "Ġpainting": 5808,
      "Ġresort": 5809,
      "Ġengineering": 5810,
      "Ġparliament": 5811,
      "Ġgained": 5812,
      "Ġhem": 5813,
      "Ġchamp": 5814,
      "Ġdesolate": 5815,
      "Ġafflict": 5816,
      "Ġharsh": 5817,
      "Ġcontainer": 5818,
      "Ġawareness": 5819,
      "Ġinnov": 5820,
      "Ġglorious": 5821,
      "Ġcompensation": 5822,
      "aiah": 5823,
      "gent": 5824,
      "inct": 5825,
      "Ġgender": 5826,
      "Ġdisgust": 5827,
      "Ġparking": 5828,
      "Ġsuccessfully": 5829,
      "Ġopposite": 5830,
      "Ġouter": 5831,
      "ole": 5832,
      "inate": 5833,
      "erion": 5834,
      "amm": 5835,
      "Ġsuitable": 5836,
      "Ġammon": 5837,
      "Ġgoverning": 5838,
      "Ġconstruct": 5839,
      "Ġstronger": 5840,
      "Ġmissed": 5841,
      "Ġcriterion": 5842,
      "Ġimmediate": 5843,
      "Ġlayer": 5844,
      "Ġfortified": 5845,
      "Ġarose": 5846,
      "Ġbold": 5847,
      "Ġelish": 5848,
      "cked": 5849,
      "Ġscribe": 5850,
      "Ġzi": 5851,
      "Ġspecie": 5852,
      "Ġcutting": 5853,
      "Ġtrick": 5854,
      "Ġurged": 5855,
      "Ġhungry": 5856,
      "Ġamendment": 5857,
      "ps": 5858,
      "Ġmere": 5859,
      "Ġrome": 5860,
      "Ġorange": 5861,
      "Ġenth": 5862,
      "Ġdirected": 5863,
      "Ġjoyful": 5864,
      "Ġefficiency": 5865,
      "Ġterrorist": 5866,
      "Ġobviously": 5867,
      "Ġalmight": 5868,
      "Ġluxury": 5869,
      "inn": 5870,
      "Ġcoup": 5871,
      "Ġtender": 5872,
      "Ġsignal": 5873,
      "Ġproposed": 5874,
      "Ġpulled": 5875,
      "Ġestimated": 5876,
      "Ġexplanation": 5877,
      "Ġalmighty": 5878,
      "ax": 5879,
      "Ġmc": 5880,
      "sty": 5881,
      "Ġgodly": 5882,
      "Ġviewed": 5883,
      "Ġmountainous": 5884,
      "Ġbattery": 5885,
      "Ġcapture": 5886,
      "Ġalex": 5887,
      "icide": 5888,
      "entially": 5889,
      "Ġcoin": 5890,
      "oga": 5891,
      "Ġclergy": 5892,
      "Ġdevoted": 5893,
      "Ġreaching": 5894,
      "Ġmuslim": 5895,
      "Ġlinked": 5896,
      "Ġdeny": 5897,
      "Ġcrown": 5898,
      "Ġdistribution": 5899,
      "Ġdebate": 5900,
      "Ġridic": 5901,
      "Ġdemonstrate": 5902,
      "da": 5903,
      "ford": 5904,
      "lech": 5905,
      "Ġchal": 5906,
      "Ġbridge": 5907,
      "kened": 5908,
      "Ġextensive": 5909,
      "Ġauto": 5910,
      "Ġtransportation": 5911,
      "Ġmaximum": 5912,
      "Ġire": 5913,
      "asy": 5914,
      "umble": 5915,
      "Ġarrow": 5916,
      "Ġstrengthened": 5917,
      "Ġfilter": 5918,
      "Ġprosecutor": 5919,
      "Ġdeposit": 5920,
      "kn": 5921,
      "Ġsid": 5922,
      "Ġtou": 5923,
      "Ġgay": 5924,
      "Ġattended": 5925,
      "Ġmembership": 5926,
      "Ġprinci": 5927,
      "Ġapproached": 5928,
      "Ġceleb": 5929,
      "Ġdependent": 5930,
      "Ġreputation": 5931,
      "rep": 5932,
      "amental": 5933,
      "Ġlosing": 5934,
      "Ġunright": 5935,
      "Ġdisability": 5936,
      "Ġdesired": 5937,
      "Ġpleasant": 5938,
      "Ġworthless": 5939,
      "Ġurge": 5940,
      "Ġcooking": 5941,
      "Ġgreeting": 5942,
      "Ġadvocate": 5943,
      "Ġgraphic": 5944,
      "Ġesau": 5945,
      "Ġunrighteous": 5946,
      "mate": 5947,
      "och": 5948,
      "Ġite": 5949,
      "Ġcro": 5950,
      "Ġment": 5951,
      "Ġfeared": 5952,
      "ston": 5953,
      "keep": 5954,
      "ulous": 5955,
      "Ġconsp": 5956,
      "Ġalert": 5957,
      "Ġremote": 5958,
      "Ġanymore": 5959,
      "Ġinformed": 5960,
      "Ġdeveloper": 5961,
      "Ġempower": 5962,
      "Ġentering": 5963,
      "Ġrevolution": 5964,
      "Ġsummon": 5965,
      "Ġarrive": 5966,
      "Ġapplying": 5967,
      "Ġstrategic": 5968,
      "Ġengineer": 5969,
      "ya": 5970,
      "Ġai": 5971,
      "Ġtort": 5972,
      "Ġga": 5973,
      "elle": 5974,
      "Ġcontrary": 5975,
      "Ġzemen": 5976,
      "Ġhealed": 5977,
      "Ġanxious": 5978,
      "Ġroute": 5979,
      "Ġenforcement": 5980,
      "iest": 5981,
      "Ġpow": 5982,
      "Ġpuri": 5983,
      "Ġnail": 5984,
      "allow": 5985,
      "Ġgoodness": 5986,
      "licted": 5987,
      "Ġweekly": 5988,
      "Ġshortly": 5989,
      "Ġcommunion": 5990,
      "Ġcontinuing": 5991,
      "Ġfabric": 5992,
      "he": 5993,
      "rine": 5994,
      "Ġwre": 5995,
      "adian": 5996,
      "Ġraising": 5997,
      "Ġattrib": 5998,
      "Ġstudied": 5999
    },
    "merges": [
      "i n",
      "Ġ s",
      "e r",
      "o n",
      "r e",
      "Ġ c",
      "Ġ p",
      "e n",
      "e d",
      "Ġ a",
      "in g",
      "Ġ t",
      "Ġ m",
      "a n",
      "a t",
      "l e",
      "o r",
      "a r",
      "Ġ f",
      "Ġ w",
      "Ġ b",
      "Ġ d",
      "a l",
      "s t",
      "i t",
      "Ġ g",
      "o u",
      "Ġ l",
      "Ġ h",
      "Ġ e",
      "i on",
      "Ġ re",
      "i c",
      "en t",
      "o m",
      "e l",
      "i s",
      "r o",
      "a y",
      "Ġ n",
      "t h",
      "i l",
      "c e",
      "i d",
      "s s",
      "Ġ j",
      "Ġ u",
      "c t",
      "v e",
      "l y",
      "s e",
      "Ġs t",
      "r a",
      "r i",
      "Ġ in",
      "o d",
      "e t",
      "o l",
      "at ion",
      "Ġt h",
      "a m",
      "g h",
      "o w",
      "v er",
      "i m",
      "k e",
      "o p",
      "Ġd e",
      "a d",
      "c h",
      "on e",
      "u l",
      "Ġc on",
      "g e",
      "Ġc om",
      "Ġc h",
      "Ġp ro",
      "u r",
      "Ġl i",
      "Ġ k",
      "Ġs e",
      "gh t",
      "Ġj e",
      "a h",
      "Ġs h",
      "Ġn e",
      "an d",
      "Ġ o",
      "i r",
      "at e",
      "u s",
      "h o",
      "ou n",
      "it y",
      "Ġ le",
      "Ġa l",
      "Ġs a",
      "Ġe x",
      "m ent",
      "Ġw or",
      "b le",
      "Ġl o",
      "e ar",
      "u t",
      "f f",
      "a s",
      "Ġg o",
      "Ġ y",
      "an t",
      "p p",
      "l d",
      "Ġ v",
      "al l",
      "Ġb e",
      "Ġs p",
      "i ve",
      "Ġu n",
      "Ġs u",
      "r u",
      "e m",
      "Ġm a",
      "Ġ one",
      "Ġje ho",
      "t er",
      "l a",
      "v ah",
      "Ġjeho vah",
      "i st",
      "Ġa n",
      "q u",
      "i g",
      "en d",
      "c k",
      "in e",
      "Ġg od",
      "o t",
      "ic e",
      "or t",
      "th er",
      "Ġm an",
      "or d",
      "u re",
      "Ġp e",
      "e st",
      "e ct",
      "v en",
      "c i",
      "u d",
      "at h",
      "u n",
      "ou ld",
      "i e",
      "u m",
      "o k",
      "el l",
      "ar d",
      "Ġa r",
      "on g",
      "l o",
      "Ġp re",
      "im e",
      "Ġf a",
      "il l",
      "Ġp er",
      "p t",
      "ar t",
      "Ġt a",
      "id e",
      "e ss",
      "Ġa d",
      "om e",
      "op le",
      "Ġpe ople",
      "Ġ r",
      "am e",
      "Ġp a",
      "Ġsa id",
      "Ġ en",
      "Ġc a",
      "ou r",
      "ou s",
      "r y",
      "in d",
      "al ly",
      "e a",
      "Ġt ime",
      "Ġa c",
      "i re",
      "it e",
      "Ġd is",
      "s p",
      "i f",
      "ol d",
      "i v",
      "oun d",
      "Ġl a",
      "it h",
      "i ght",
      "Ġ im",
      "Ġm e",
      "Ġd ay",
      "a in",
      "Ġs er",
      "Ġk n",
      "Ġ is",
      "Ġwor k",
      "Ġp o",
      "en ce",
      "Ġs ay",
      "u st",
      "p le",
      "re at",
      "an ce",
      "Ġm ay",
      "Ġcon t",
      "a ge",
      "o re",
      "Ġy ear",
      "b er",
      "Ġex p",
      "s h",
      "Ġw ould",
      "e e",
      "is h",
      "Ġp r",
      "Ġa pp",
      "or m",
      "Ġkn ow",
      "Ġb a",
      "Ġm o",
      "u e",
      "s o",
      "Ġo ff",
      "il d",
      "re e",
      "i p",
      "Ġe ver",
      "i z",
      "Ġli ke",
      "ig n",
      "Ġa m",
      "Ġma ke",
      "Ġcom m",
      "Ġne w",
      "Ġal so",
      "Ġ qu",
      "e p",
      "Ġc o",
      "a ble",
      "Ġh e",
      "k ing",
      "Ġ ri",
      "Ġj o",
      "oun t",
      "Ġh el",
      "Ġk ing",
      "Ġs on",
      "Ġcom p",
      "at ed",
      "i an",
      "ct ion",
      "f e",
      "ou t",
      "f ul",
      "ar y",
      "Ġ op",
      "a b",
      "Ġp l",
      "n ess",
      "in t",
      "v ed",
      "i ble",
      "Ġb r",
      "ath er",
      "l ow",
      "is e",
      "Ġse e",
      "Ġ ro",
      "el y",
      "a re",
      "p h",
      "Ġb o",
      "Ġh ear",
      "Ġre p",
      "Ġac c",
      "ad e",
      "ur n",
      "Ġhel p",
      "Ġg et",
      "Ġp art",
      "Ġth ing",
      "Ġin c",
      "Ġser v",
      "ul t",
      "Ġsh all",
      "t t",
      "Ġever y",
      "Ġw ay",
      "Ġre s",
      "Ġli fe",
      "d u",
      "a st",
      "Ġgo od",
      "Ġf ir",
      "Ġa b",
      "Ġne ed",
      "Ġt w",
      "Ġcom e",
      "w ay",
      "ou se",
      "Ġt o",
      "t o",
      "th ing",
      "Ġre g",
      "ic k",
      "Ġu s",
      "Ġd i",
      "Ġ ra",
      "Ġin d",
      "Ġ ke",
      "Ġe ar",
      "Ġri ght",
      "it ion",
      "s us",
      "d er",
      "Ġp la",
      "Ġt ra",
      "it t",
      "Ġe ven",
      "at er",
      "Ġt ru",
      "Ġm ar",
      "Ġman y",
      "Ġta ke",
      "u b",
      "ra el",
      "Ġje sus",
      "Ġis rael",
      "Ġim p",
      "e s",
      "Ġth ou",
      "il y",
      "Ġre m",
      "Ġh ouse",
      "Ġin ter",
      "Ġlo ok",
      "Ġh a",
      "v el",
      "Ġm ade",
      "re ss",
      "Ġg reat",
      "Ġw h",
      "Ġbe c",
      "Ġfir st",
      "Ġd a",
      "Ġe m",
      "f t",
      "re n",
      "Ġh and",
      "Ġre c",
      "Ġde s",
      "s on",
      "Ġs o",
      "or y",
      "Ġl ord",
      "Ġf or",
      "i a",
      "Ġcon s",
      "Ġb ro",
      "ce ss",
      "Ġle t",
      "p er",
      "Ġf o",
      "i al",
      "Ġa ss",
      "ic al",
      "Ġa ct",
      "v id",
      "i gh",
      "Ġde c",
      "in k",
      "n ing",
      "Ġf e",
      "Ġch ild",
      "a g",
      "Ġt e",
      "Ġtw o",
      "Ġs c",
      "l ic",
      "Ġlo ve",
      "f orm",
      "Ġp ri",
      "a ch",
      "Ġp h",
      "er e",
      "Ġs in",
      "a se",
      "Ġg ive",
      "ri st",
      "Ġg r",
      "Ġw ith",
      "Ġpla ce",
      "v ing",
      "Ġ or",
      "Ġb u",
      "Ġa tt",
      "Ġre l",
      "Ġw ell",
      "u al",
      "Ġa s",
      "o g",
      "re d",
      "p o",
      "Ġw ant",
      "Ġc ity",
      "Ġre ad",
      "Ġwor d",
      "r an",
      "Ġc ould",
      "Ġse c",
      "Ġc l",
      "Ġu p",
      "c ed",
      "Ġw r",
      "Ġl and",
      "Ġch rist",
      "Ġoff er",
      "a il",
      "Ġper son",
      "i le",
      "g an",
      "Ġb el",
      "Ġa g",
      "Ġ ru",
      "Ġm in",
      "on d",
      "Ġc all",
      "Ġun to",
      "ro w",
      "Ġad d",
      "Ġ ent",
      "Ġwor ld",
      "Ġo b",
      "le ss",
      "Ġh o",
      "Ġb ible",
      "Ġar t",
      "Ġpre s",
      "Ġf am",
      "Ġm en",
      "er t",
      "Ġba ck",
      "c y",
      "Ġm u",
      "Ġsh ow",
      "l ed",
      "Ġp ut",
      "i ous",
      "Ġg u",
      "Ġc ar",
      "Ġc ol",
      "ci al",
      "Ġf ol",
      "em ber",
      "Ġu se",
      "Ġin st",
      "Ġg en",
      "Ġ z",
      "Ġf ather",
      "Ġh igh",
      "Ġ end",
      "Ġc ame",
      "ri b",
      "Ġs ome",
      "Ġm on",
      "an g",
      "e ver",
      "a p",
      "v ent",
      "Ġst ud",
      "ou gh",
      "Ġj ud",
      "ow er",
      "Ġfol low",
      "Ġserv ice",
      "Ġs et",
      "Ġl ong",
      "a ct",
      "n er",
      "an k",
      "Ġan o",
      "t e",
      "Ġsu pp",
      "sh ip",
      "ic t",
      "i ed",
      "Ġw e",
      "Ġke ep",
      "ff er",
      "re a",
      "il ity",
      "Ġf ind",
      "Ġfam ily",
      "j ect",
      "a ve",
      "Ġs y",
      "Ġs m",
      "Ġla w",
      "Ġn ame",
      "l ud",
      "at ing",
      "is ion",
      "Ġdis c",
      "ord er",
      "Ġbro ther",
      "Ġsp ir",
      "Ġme an",
      "Ġmu ch",
      "Ġre sp",
      "Ġspir it",
      "om an",
      "Ġp le",
      "Ġm ust",
      "Ġsu b",
      "Ġm at",
      "Ġn ation",
      "Ġear th",
      "id ent",
      "en s",
      "ic le",
      "Ġb us",
      "Ġw ar",
      "Ġst ate",
      "Ġhear t",
      "Ġh ome",
      "Ġbec ome",
      "a ce",
      "Ġc ount",
      "is s",
      "Ġpro du",
      "Ġf ore",
      "Ġf ound",
      "Ġre f",
      "a c",
      "Ġha pp",
      "an ge",
      "Ġf in",
      "Ġpro v",
      "ine ss",
      "Ġre t",
      "re ad",
      "Ġw ent",
      "Ġf ul",
      "i b",
      "g er",
      "er m",
      "Ġn o",
      "Ġc or",
      "Ġan y",
      "t y",
      "it ed",
      "Ġsp e",
      "Ġp ol",
      "Ġs w",
      "Ġh um",
      "Ġa way",
      "Ġc lo",
      "Ġinc lud",
      "Ġw ho",
      "as on",
      "l ish",
      "ut ion",
      "ie w",
      "le ct",
      "t ing",
      "Ġfa ith",
      "Ġc le",
      "Ġm ight",
      "Ġe ff",
      "id er",
      "Ġst art",
      "Ġano ther",
      "Ġun der",
      "ce pt",
      "Ġfe el",
      "Ġp ub",
      "Ġam ong",
      "Ġc our",
      "ou ght",
      "g y",
      "ist er",
      "at ive",
      "x t",
      "i ent",
      "Ġd o",
      "Ġo ther",
      "Ġbr ing",
      "Ġw ee",
      "Ġle ar",
      "Ġs im",
      "Ġbel ie",
      "Ġs ch",
      "Ġg ra",
      "Ġw oman",
      "Ġla st",
      "as ed",
      "Ġle ad",
      "Ġf orm",
      "Ġre qu",
      "Ġh ea",
      "Ġgo ver",
      "Ġm ed",
      "ra ct",
      "Ġde p",
      "Ġth ink",
      "i ence",
      "or n",
      "Ġ order",
      "Ġin form",
      "a le",
      "i ven",
      "ut e",
      "Ġt ran",
      "Ġup on",
      "Ġch o",
      "Ġex am",
      "Ġacc ord",
      "w ard",
      "ra m",
      "al ity",
      "Ġart icle",
      "u ght",
      "Ġe l",
      "d om",
      "Ġ old",
      "Ġcont in",
      "Ġb lo",
      "ren t",
      "Ġf ri",
      "Ġst ill",
      "Ġst and",
      "Ġh ow",
      "Ġs ur",
      "en se",
      "Ġas k",
      "ver s",
      "Ġbe st",
      "Ġme et",
      "Ġbo ok",
      "p e",
      "Ġgover n",
      "Ġa u",
      "Ġp ower",
      "Ġ ed",
      "Ġwee k",
      "Ġda vid",
      "Ġli st",
      "Ġp ur",
      "as h",
      "Ġw ater",
      "j o",
      "Ġhe al",
      "i el",
      "Ġd et",
      "Ġsay ing",
      "Ġgen er",
      "Ġcons ider",
      "Ġhow ever",
      "Ġt od",
      "Ġcon f",
      "an y",
      "Ġpo ss",
      "Ġexp er",
      "Ġwith out",
      "Ġmon th",
      "Ġt urn",
      "Ġth ree",
      "od y",
      "Ġne ver",
      "Ġca re",
      "Ġtod ay",
      "Ġ out",
      "Ġor gan",
      "Ġfri end",
      "ow n",
      "u ally",
      "Ġf un",
      "Ġother s",
      "in ed",
      "Ġcon c",
      "Ġn um",
      "Ġa v",
      "Ġbus iness",
      "Ġch ar",
      "u se",
      "Ġin t",
      "Ġdi ffer",
      "Ġapp ro",
      "Ġre ce",
      "Ġj er",
      "Ġst r",
      "Ġd ire",
      "Ġf ree",
      "ar ch",
      "Ġsp ea",
      "op e",
      "Ġcount ry",
      "Ġus ed",
      "Ġhe ad",
      "al k",
      "Ġb en",
      "Ġpr om",
      "Ġre ally",
      "Ġgo ing",
      "Ġt ea",
      "ul ar",
      "Ġre st",
      "Ġpl an",
      "Ġde f",
      "k en",
      "iz ed",
      "Ġmar k",
      "Ġar ound",
      "i er",
      "er n",
      "Ġn ot",
      "Ġsu re",
      "vel op",
      "Ġop en",
      "Ġinform ation",
      "Ġc ent",
      "se s",
      "Ġd ist",
      "Ġqu est",
      "Ġy oun",
      "Ġs at",
      "Ġde velop",
      "a z",
      "Ġb et",
      "am p",
      "Ġis s",
      "st and",
      "s ed",
      "Ġto ok",
      "d ay",
      "Ġd el",
      "Ġgovern ment",
      "un ity",
      "Ġp ar",
      "Ġg iven",
      "Ġlo c",
      "Ġquest ion",
      "Ġin s",
      "Ġhea ven",
      "is ed",
      "Ġs ent",
      "Ġth ank",
      "y e",
      "Ġo ver",
      "Ġad v",
      "Ġc la",
      "Ġe th",
      "Ġsin ce",
      "e f",
      "ri ed",
      "Ġret urn",
      "Ġar m",
      "Ġs ign",
      "Ġde ath",
      "Ġlear n",
      "ge ther",
      "Ġcom ple",
      "Ġple ase",
      "Ġtea ch",
      "ou th",
      "Ġc reat",
      "Ġth ere",
      "Ġm ember",
      "Ġsupp ort",
      "Ġpl ay",
      "Ġbe h",
      "r on",
      "Ġe st",
      "Ġtran s",
      "Ġv al",
      "Ġpro f",
      "Ġpub lic",
      "Ġimp ort",
      "w er",
      "at ch",
      "Ġre al",
      "it ing",
      "it ness",
      "Ġs ol",
      "ert ain",
      "Ġserv ant",
      "Ġheal th",
      "Ġmo ses",
      "Ġto gether",
      "Ġaccord ing",
      "Ġs k",
      "Ġex t",
      "Ġv is",
      "Ġk ind",
      "if e",
      "Ġoffer ing",
      "Ġcomp any",
      "Ġin v",
      "Ġnum ber",
      "Ġpr ay",
      "o ol",
      "st em",
      "Ġa h",
      "e w",
      "Ġhum an",
      "Ġf ar",
      "i x",
      "i ah",
      "iz e",
      "Ġexam ple",
      "Ġe ye",
      "Ġem p",
      "Ġt ry",
      "Ġre ason",
      "ent ion",
      "way s",
      "Ġcall ed",
      "Ġau th",
      "Ġcomm and",
      "Ġth y",
      "Ġlo t",
      "itt le",
      "Ġfa ce",
      "Ġal ways",
      "Ġsy stem",
      "Ġtru e",
      "Ġsome thing",
      "Ġpri est",
      "Ġchrist ian",
      "Ġl ittle",
      "Ġp ay",
      "Ġc ur",
      "Ġrep ort",
      "Ġpro g",
      "ire d",
      "Ġd one",
      "Ġch ange",
      "Ġyoun g",
      "m in",
      "ion al",
      "r ation",
      "Ġw itness",
      "lo y",
      "Ġt ell",
      "s wer",
      "Ġ er",
      "Ġcon g",
      "Ġbet ter",
      "m o",
      "Ġbu ild",
      "Ġli ve",
      "Ġpo st",
      "p l",
      "Ġb ody",
      "Ġne xt",
      "ro l",
      "Ġan swer",
      "re g",
      "Ġy e",
      "Ġg l",
      "a ke",
      "one y",
      "c c",
      "Ġa rea",
      "ble m",
      "Ġfa ct",
      "Ġfo od",
      "Ġg ave",
      "b y",
      "Ġy et",
      "Ġin f",
      "iel d",
      "Ġde v",
      "Ġauth or",
      "g ed",
      "Ġinter est",
      "Ġw ife",
      "Ġexper ience",
      "Ġa ff",
      "e ad",
      "Ġpres ent",
      "Ġh ar",
      "c ri",
      "Ġe as",
      "Ġprov ide",
      "Ġsch ool",
      "Ġen g",
      "at ure",
      "Ġpro blem",
      "Ġeth i",
      "Ġp at",
      "Ġpo int",
      "st er",
      "ou p",
      "re t",
      "e ous",
      "Ġwh e",
      "Ġh ard",
      "Ġking dom",
      "Ġho ly",
      "Ġunder stand",
      "Ġf ire",
      "iz ation",
      "Ġdire ct",
      "Ġa f",
      "Ġbr ought",
      "y ing",
      "Ġpa ss",
      "r ic",
      "Ġethi op",
      "Ġful l",
      "ught er",
      "Ġdiffer ent",
      "Ġg row",
      "Ġprodu ct",
      "a ck",
      "Ġoff ic",
      "Ġres ult",
      "Ġm od",
      "Ġh ope",
      "l ing",
      "Ġdes ign",
      "Ġwe b",
      "t ed",
      "Ġen jo",
      "Ġbec ame",
      "Ġf l",
      "Ġpe ace",
      "Ġs ide",
      "Ġn ight",
      "Ġv iew",
      "if ic",
      "Ġb l",
      "it al",
      "Ġt em",
      "Ġt old",
      "Ġc re",
      "Ġm ess",
      "et y",
      "o ver",
      "Ġthou gh",
      "Ġe vent",
      "Ġimport ant",
      "Ġma king",
      "Ġspea k",
      "Ġpro ph",
      "Ġind e",
      "Ġca se",
      "ve st",
      "p r",
      "Ġinter n",
      "Ġnew s",
      "in ing",
      "Ġe at",
      "Ġa ble",
      "Ġd r",
      "Ġc an",
      "Ġemp loy",
      "iv ing",
      "Ġrem ain",
      "Ġacc ount",
      "Ġal low",
      "Ġiss ue",
      "Ġpa ul",
      "iss ion",
      "Ġm oney",
      "Ġsa w",
      "ur y",
      "ill ed",
      "Ġf our",
      "iv ity",
      "as ure",
      "Ġwith in",
      "ol og",
      "i o",
      "f ore",
      "o od",
      "Ġc ertain",
      "Ġresp on",
      "u p",
      "Ġsh are",
      "Ġcong reg",
      "a ss",
      "Ġl ar",
      "Ġstud ent",
      "Ġmark et",
      "Ġle ft",
      "ect ed",
      "Ġde st",
      "Ġjo b",
      "Ġg re",
      "Ġc ust",
      "Ġgo t",
      "ci ple",
      "c l",
      "Ġne ar",
      "Ġent er",
      "Ġgr oup",
      "Ġpro t",
      "g in",
      "m an",
      "Ġcongreg ation",
      "g th",
      "Ġb ir",
      "Ġh our",
      "Ġmeet ing",
      "u ed",
      "Ġe v",
      "Ġal ong",
      "g et",
      "Ġd ra",
      "Ġre v",
      "Ġenjo y",
      "Ġhear d",
      "m on",
      "l ine",
      "Ġle g",
      "ill ion",
      "Ġc oun",
      "ou ra",
      "u c",
      "Ġeff ect",
      "Ġm ount",
      "i um",
      "Ġright eous",
      "b e",
      "Ġt op",
      "Ġca use",
      "at ely",
      "Ġpro vid",
      "Ġpro per",
      "Ġsec ond",
      "t le",
      "Ġli ght",
      "Ġthou ght",
      "Ġfollow ing",
      "Ġs it",
      "re s",
      "Ġinde ed",
      "Ġli ving",
      "Ġm or",
      "s ide",
      "Ġt y",
      "Ġcust om",
      "p ort",
      "Ġjo h",
      "Ġp ract",
      "Ġben ef",
      "Ġa w",
      "Ġsu c",
      "ic h",
      "Ġim m",
      "ith er",
      "Ġse em",
      "Ġb ar",
      "ul ation",
      "Ġm ind",
      "Ġco ver",
      "or k",
      "o s",
      "Ġp et",
      "en cy",
      "Ġbe gan",
      "Ġd ri",
      "Ġtru th",
      "h er",
      "Ġf re",
      "Ġcour se",
      "Ġru n",
      "iv id",
      "ale m",
      "at or",
      "Ġfo ot",
      "d ition",
      "Ġ ide",
      "Ġstud y",
      "Ġc amp",
      "Ġn a",
      "Ġjoh n",
      "Ġg ame",
      "Ġjer us",
      "e y",
      "Ġjerus alem",
      "Ġav ail",
      "Ġprog ram",
      "Ġm er",
      "our ce",
      "s er",
      "Ġt est",
      "Ġe gy",
      "Ġoff ice",
      "Ġegy pt",
      "Ġcle ar",
      "Ġth ee",
      "Ġpa rent",
      "Ġsm all",
      "Ġn or",
      "Ġ on",
      "Ġpre p",
      "Ġen c",
      "Ġb less",
      "Ġte ch",
      "i ver",
      "Ġch e",
      "Ġpro cess",
      "Ġan n",
      "Ġdec ision",
      "Ġpro ject",
      "Ġwork ing",
      "Ġb ig",
      "Ġcont rol",
      "Ġf le",
      "Ġcontin ue",
      "Ġan g",
      "Ġda ughter",
      "ation al",
      "er ic",
      "c on",
      "al t",
      "Ġmat ter",
      "ff ic",
      "ent ly",
      "Ġlook ing",
      "Ġspe cial",
      "Ġwhe ther",
      "ro ss",
      "ge st",
      "l and",
      "Ġcon st",
      "Ġre n",
      "Ġm id",
      "Ġpart ic",
      "Ġw atch",
      "ect ion",
      "Ġorgan ization",
      "Ġthere fore",
      "b o",
      "un d",
      "int ed",
      "Ġre le",
      "Ġpa st",
      "Ġw a",
      "Ġa ir",
      "Ġt ow",
      "Ġfa v",
      "c ing",
      "o ke",
      "s ition",
      "Ġus ing",
      "ar k",
      "Ġpr in",
      "m e",
      "Ġinclud ing",
      "b or",
      "Ġam eric",
      "Ġb ad",
      "Ġl ater",
      "Ġf ear",
      "ur al",
      "a ir",
      "Ġte am",
      "Ġin vest",
      "Ġth r",
      "Ġmo ther",
      "s c",
      "Ġs ing",
      "Ġ ve",
      "Ġex c",
      "Ġt ri",
      "Ġh old",
      "Ġst ru",
      "Ġst ay",
      "Ġwho le",
      "r it",
      "Ġavail able",
      "en ed",
      "al f",
      "ic ally",
      "Ġv o",
      "Ġf ield",
      "Ġb ased",
      "d e",
      "el f",
      "Ġt reat",
      "Ġno thing",
      "Ġs end",
      "Ġac cept",
      "Ġlead er",
      "Ġs la",
      "Ġt erm",
      "ick ed",
      "Ġb urn",
      "Ġbelie ve",
      "c le",
      "Ġf lo",
      "if t",
      "Ġt er",
      "Ġf ut",
      "Ġsome one",
      "ft en",
      "Ġf all",
      "Ġo cc",
      "Ġcle an",
      "us ed",
      "end ed",
      "Ġtech n",
      "Ġrel ation",
      "Ġarm y",
      "ie f",
      "Ġl u",
      "r ing",
      "Ġtow ard",
      "on der",
      "Ġb as",
      "Ġrem ember",
      "Ġjud ah",
      "is on",
      "if ied",
      "y s",
      "Ġreg ard",
      "Ġact ivity",
      "ur ity",
      "Ġsu n",
      "Ġst ren",
      "Ġo ften",
      "Ġknow n",
      "ab lish",
      "Ġinc re",
      "Ġta ken",
      "Ġstren gth",
      "Ġv ar",
      "o se",
      "rib e",
      "ite s",
      "Ġvis it",
      "Ġest ablish",
      "Ġprof ess",
      "Ġst op",
      "il t",
      "i pp",
      "us h",
      "ist ry",
      "Ġany one",
      "Ġser ve",
      "Ġs il",
      "Ġse en",
      "Ġstr ong",
      "Ġper form",
      "Ġpa ge",
      "iv ed",
      "Ġs ite",
      "Ġqu ality",
      "Ġposs ible",
      "Ġw in",
      "ure d",
      "a ut",
      "in ation",
      "is m",
      "led ge",
      "s ite",
      "Ġf ell",
      "Ġde ad",
      "Ġg old",
      "Ġblo od",
      "ot e",
      "Ġcom ing",
      "Ġbenef it",
      "Ġm r",
      "Ġsuc cess",
      "Ġl ang",
      "Ġun i",
      "Ġauthor ity",
      "Ġth ir",
      "Ġle vel",
      "Ġbe aut",
      "f ort",
      "Ġpri v",
      "Ġfut ure",
      "Ġf ive",
      "o b",
      "Ġper f",
      "Ġw onder",
      "Ġh ist",
      "ful ly",
      "Ġro om",
      "Ġlang u",
      "Ġre se",
      "Ġst ory",
      "Ġask ed",
      "Ġevery thing",
      "Ġmo ve",
      "Ġpart y",
      "Ġco st",
      "i ra",
      "Ġc al",
      "Ġlangu age",
      "Ġsa cri",
      "Ġsacri f",
      "Ġse ver",
      "Ġso on",
      "Ġy es",
      "Ġw alk",
      "Ġst ep",
      "Ġm et",
      "Ġad min",
      "Ġm il",
      "Ġv i",
      "Ġag ree",
      "Ġhapp y",
      "Ġe qu",
      "Ġal th",
      "Ġca p",
      "Ġsec urity",
      "h am",
      "Ġm illion",
      "Ġalth ough",
      "Ġide a",
      "r or",
      "am ation",
      "Ġde al",
      "read y",
      "Ġclo se",
      "u ation",
      "Ġal ready",
      "Ġind ivid",
      "Ġthank s",
      "om m",
      "Ġadd ition",
      "Ġgener al",
      "Ġcla ss",
      "Ġproph et",
      "Ġspirit ual",
      "Ġcomm unity",
      "cl amation",
      "n ed",
      "Ġre ach",
      "Ġfor ce",
      "Ġoffic ial",
      "Ġlist en",
      "itt en",
      "Ġcour t",
      "Ġpro clamation",
      "Ġrequ ire",
      "ru ction",
      "i or",
      "Ġbe gin",
      "s al",
      "Ġche ck",
      "Ġso cial",
      "Ġspe ci",
      "c il",
      "Ġe le",
      "if y",
      "Ġany thing",
      "em y",
      "ter n",
      "Ġfav or",
      "a k",
      "Ġw ind",
      "Ġl ine",
      "Ġse a",
      "g g",
      "Ġmin istry",
      "Ġdes c",
      "ou d",
      "Ġba by",
      "Ġfor g",
      "Ġpre ss",
      "re am",
      "Ġrece ive",
      "er al",
      "is ing",
      "Ġr ather",
      "Ġrese arch",
      "w h",
      "Ġm us",
      "Ġw icked",
      "ab ly",
      "Ġp ho",
      "Ġd at",
      "Ġsh ort",
      "Ġc ut",
      "Ġs am",
      "Ġs ound",
      "o ci",
      "Ġperson al",
      "Ġed uc",
      "Ġdevelop ment",
      "olog y",
      "Ġop er",
      "oura ge",
      "m er",
      "Ġe ld",
      "ir on",
      "Ġindivid ual",
      "Ġevery one",
      "Ġmount ain",
      "ib ility",
      "Ġje w",
      "Ġknow ledge",
      "Ġma j",
      "Ġb rea",
      "e al",
      "Ġass oci",
      "ill ing",
      "Ġpray er",
      "Ġsu g",
      "Ġbo ard",
      "Ġnation al",
      "ic ation",
      "Ġse ven",
      "Ġt alk",
      "Ġtra vel",
      "Ġwr itten",
      "o h",
      "Ġloc al",
      "y al",
      "Ġweb site",
      "Ġpr ice",
      "Ġop t",
      "Ġwr ong",
      "Ġstart ed",
      "Ġop port",
      "Ġdep art",
      "ie s",
      "po se",
      "ci ally",
      "Ġp op",
      "Ġrespon s",
      "Ġp ra",
      "Ġw ild",
      "end ing",
      "are d",
      "Ġisrael ite",
      "Ġqu ick",
      "ron t",
      "id ed",
      "Ġlar ge",
      "Ġt ree",
      "Ġeld er",
      "b r",
      "Ġcar ry",
      "Ġopport unity",
      "el t",
      "Ġg ift",
      "Ġe sp",
      "Ġst ri",
      "Ġexp la",
      "Ġke pt",
      "our n",
      "Ġa ge",
      "Ġf ine",
      "Ġt im",
      "Ġf ru",
      "Ġg ather",
      "Ġta king",
      "Ġcon dition",
      "Ġcont act",
      "Ġcustom er",
      "Ġperf ect",
      "Ġrec ord",
      "Ġpres ident",
      "Ġph il",
      "Ġl im",
      "re w",
      "Ġh ot",
      "Ġs an",
      "ir c",
      "Ġget ting",
      "du ct",
      "Ġtru st",
      "Ġdel iver",
      "pt ion",
      "Ġme asure",
      "Ġexp ress",
      "Ġ ill",
      "Ġty pe",
      "Ġle ave",
      "Ġfo c",
      "Ġa p",
      "ur ch",
      "Ġsu m",
      "Ġs elf",
      "Ġen ough",
      "Ġac cess",
      "Ġg iving",
      "ra ph",
      "Ġg ar",
      "Ġmin ister",
      "Ġjo y",
      "Ġpol it",
      "Ġcur rent",
      "Ġt en",
      "Ġb la",
      "sp ect",
      "Ġcomm itt",
      "Ġvo ice",
      "Ġpho to",
      "at ic",
      "Ġe lect",
      "o th",
      "Ġgr ound",
      "ou ch",
      "ish ed",
      "Ġd w",
      "Ġun ited",
      "Ġa ction",
      "Ġb it",
      "Ġval ue",
      "Ġang el",
      "o f",
      "Ġapp o",
      "Ġph ar",
      "Ġv ide",
      "Ġth ous",
      "Ġpre ach",
      "Ġsacrif ice",
      "Ġo il",
      "Ġsu ffer",
      "Ġen emy",
      "Ġeas y",
      "Ġm ater",
      "Ġle ast",
      "b and",
      "Ġfa il",
      "Ġthous and",
      "Ġinv ol",
      "Ġf il",
      "Ġde ep",
      "Ġb at",
      "Ġdet erm",
      "Ġne cess",
      "Ġapp lic",
      "e c",
      "Ġear ly",
      "Ġa po",
      "Ġfore ign",
      "Ġt r",
      "Ġth us",
      "Ġen v",
      "Ġs ci",
      "Ġt ent",
      "Ġvide o",
      "Ġsc ri",
      "b el",
      "Ġdec la",
      "Ġresp ect",
      "Ġadmin ist",
      "Ġf ed",
      "f er",
      "Ġs ister",
      "Ġs ix",
      "Ġp ort",
      "con om",
      "Ġesp e",
      "Ġespe cially",
      "Ġscri pt",
      "Ġd iv",
      "o ck",
      "Ġimp ro",
      "Ġmor ning",
      "in king",
      "Ġag o",
      "z e",
      "Ġsit uation",
      "res ent",
      "if ul",
      "Ġrem o",
      "Ġs outh",
      "Ġdis ciple",
      "Ġc ra",
      "Ġdat a",
      "Ġf ight",
      "Ġind ust",
      "Ġe conom",
      "all en",
      "ell ing",
      "Ġeff ort",
      "Ġmess age",
      "Ġproper ty",
      "Ġc op",
      "Ġinst ead",
      "Ġameric an",
      "Ġsu per",
      "Ġrel ig",
      "Ġli k",
      "Ġh us",
      "ate s",
      "Ġrequ est",
      "Ġs al",
      "Ġspeci f",
      "Ġdi ed",
      "Ġn on",
      "t on",
      "Ġrep resent",
      "d ing",
      "l i",
      "Ġsa ul",
      "r al",
      "u ment",
      "Ġdet ail",
      "Ġdr ink",
      "t ar",
      "Ġconc ern",
      "Ġman age",
      "Ġvi ol",
      "u ge",
      "Ġb ed",
      "st le",
      "Ġcol le",
      "Ġse arch",
      "Ġhus band",
      "Ġma g",
      "Ġcom fort",
      "d en",
      "Ġt re",
      "Ġch allen",
      "Ġh or",
      "ct or",
      "qu e",
      "Ġdes ire",
      "Ġon line",
      "Ġm om",
      "Ġd ie",
      "Ġh er",
      "Ġcon duct",
      "Ġmater ial",
      "v ation",
      "Ġbuild ing",
      "Ġdra w",
      "Ġthir d",
      "Ġgo al",
      "ie ce",
      "Ġis a",
      "Ġcomm un",
      "Ġst one",
      "Ġch urch",
      "Ġg ir",
      "Ġmin ute",
      "Ġpur pose",
      "Ġpract ice",
      "iv ely",
      "Ġsec ret",
      "Ġs ou",
      "Ġd ue",
      "Ġwork er",
      "c ent",
      "im al",
      "ut er",
      "Ġwho se",
      "Ġd ou",
      "Ġb ra",
      "ab ility",
      "Ġnor th",
      "Ġbeaut iful",
      "ic y",
      "Ġbrea k",
      "Ġwh ere",
      "Ġex cept",
      "Ġbu y",
      "it ch",
      "Ġcom ment",
      "Ġs ource",
      "Ġmed ium",
      "am ed",
      "Ġf ront",
      "Ġref er",
      "Ġw ea",
      "il ar",
      "Ġdo or",
      "Ġp ot",
      "Ġm ult",
      "Ġma int",
      "Ġethiop ian",
      "Ġc irc",
      "it ution",
      "Ġdi ffic",
      "Ġcla im",
      "Ġdiffic ult",
      "Ġm ention",
      "Ġjud ge",
      "g ment",
      "Ġs l",
      "Ġn et",
      "Ġjo se",
      "Ġen s",
      "Ġdest ro",
      "e th",
      "Ġe ast",
      "Ġim age",
      "Ġsever al",
      "Ġtra ining",
      "Ġwant ed",
      "Ġp as",
      "Ġethiop ia",
      "Ġe u",
      "Ġob ser",
      "Ġc e",
      "it er",
      "Ġph ys",
      "Ġrece ived",
      "Ġprofess ional",
      "Ġc ult",
      "it ive",
      "Ġch ief",
      "v al",
      "Ġwor th",
      "Ġprovid ed",
      "Ġs n",
      "Ġh ath",
      "ss ion",
      "Ġreg ion",
      "Ġh on",
      "Ġta ble",
      "it or",
      "Ġpo sition",
      "od e",
      "Ġru le",
      "Ġse x",
      "er gy",
      "Ġh alf",
      "Ġsa ve",
      "Ġintern ational",
      "Ġmaj or",
      "Ġde sp",
      "g ing",
      "Ġin sp",
      "b t",
      "le y",
      "Ġab ra",
      "Ġcomp et",
      "Ġappro ach",
      "Ġk id",
      "ag er",
      "u el",
      "Ġs le",
      "Ġjose ph",
      "g r",
      "Ġfaith ful",
      "mo st",
      "Ġabra ham",
      "w ork",
      "Ġsh e",
      "Ġw is",
      "Ġw all",
      "Ġe vid",
      "Ġca pt",
      "Ġread ing",
      "i od",
      "v ious",
      "Ġb ear",
      "ore d",
      "Ġapp ear",
      "ud e",
      "m it",
      "Ġj ac",
      "Ġcre ate",
      "Ġd an",
      "Ġn at",
      "Ġ ident",
      "Ġhist ory",
      "ro om",
      "ri ght",
      "Ġrelation ship",
      "om et",
      "Ġneed ed",
      "Ġsim ilar",
      "Ġp un",
      "Ġpet er",
      "ar on",
      "Ġcon n",
      "Ġb re",
      "Ġcoun cil",
      "Ġact ually",
      "Ġ ver",
      "Ġsat an",
      "al king",
      "c er",
      "Ġt ouch",
      "Ġd ate",
      "Ġjac ob",
      "Ġc ou",
      "Ġsub ject",
      "Ġma in",
      "Ġor ig",
      "Ġstand ard",
      "Ġbir th",
      "Ġapo stle",
      "Ġgir l",
      "Ġper iod",
      "Ġs old",
      "om p",
      "Ġex ist",
      "Ġse ason",
      "Ġt own",
      "Ġl ow",
      "vers ity",
      "ent ial",
      "Ġlo yal",
      "Ġfru it",
      "Ġs ong",
      "Ġl ic",
      "Ġj ourn",
      "Ġne g",
      "Ġexp ect",
      "Ġatt ack",
      "Ġwr iting",
      "Ġinclud e",
      "ed i",
      "Ġnot e",
      "Ġorig in",
      "ut y",
      "as ing",
      "Ġdestro y",
      "Ġfeel ing",
      "Ġfin an",
      "Ġm iss",
      "Ġro ad",
      "o id",
      "Ġke y",
      "Ġam az",
      "Ġcont ent",
      "Ġw ro",
      "Ġal tar",
      "Ġr ich",
      "Ġpol icy",
      "Ġl ate",
      "Ġj ust",
      "Ġu r",
      "Ġc ri",
      "ur ance",
      "Ġturn ed",
      "Ġnecess ary",
      "ul l",
      "ri age",
      "Ġwor ship",
      "Ġcent ury",
      "Ġmil it",
      "Ġass ign",
      "Ġan imal",
      "Ġb read",
      "Ġel se",
      "Ġp iece",
      "ce ed",
      "Ġex ec",
      "Ġan t",
      "Ġblo g",
      "Ġbeh ind",
      "Ġd am",
      "Ġpra ise",
      "Ġenv iron",
      "Ġm ot",
      "Ġfor ward",
      "h ab",
      "Ġprom ise",
      "ap s",
      "Ġenviron ment",
      "Ġt ribe",
      "Ġw ash",
      "Ġwro te",
      "Ġrev iew",
      "ro p",
      "Ġop po",
      "Ġapp re",
      "Ġus er",
      "p or",
      "Ġatt ention",
      "Ġb ow",
      "it ude",
      "Ġsa le",
      "Ġhel d",
      "c ome",
      "Ġcou ple",
      "Ġcomm on",
      "Ġv ol",
      "Ġcertain ly",
      "Ġb al",
      "Ġsw ord",
      "i en",
      "id ay",
      "Ġa ud",
      "Ġent ire",
      "Ġsim p",
      "Ġp ict",
      "Ġhe b",
      "Ġem ail",
      "Ġass ist",
      "Ġd own",
      "Ġindust ry",
      "Ġw est",
      "Ġteach ing",
      "ar ing",
      "Ġu t",
      "Ġlik ely",
      "ur ing",
      "Ġcomple te",
      "Ġfe ature",
      "Ġg ate",
      "Ġa aron",
      "Ġch ang",
      "Ġreg ular",
      "Ġread y",
      "Ġlong er",
      "Ġfle sh",
      "og n",
      "Ġcreat ed",
      "Ġthr ough",
      "Ġwh ite",
      "h aps",
      "Ġre d",
      "Ġin her",
      "Ġsug gest",
      "Ġappre ci",
      "Ġg e",
      "Ġper haps",
      "Ġf ig",
      "Ġfoc us",
      "ain ed",
      "Ġout side",
      "Ġsh alt",
      "un e",
      "Ġl ink",
      "is k",
      "Ġle v",
      "Ġd on",
      "Ġthrough out",
      "Ġpat ient",
      "Ġcl ient",
      "Ġpa in",
      "Ġc red",
      "Ġeduc ation",
      "Ġg lo",
      "is f",
      "Ġsp oke",
      "Ġcons um",
      "Ġdisc lo",
      "Ġpub lish",
      "Ġta x",
      "Ġm outh",
      "Ġb ank",
      "Ġst at",
      "Ġm em",
      "ee p",
      "Ġpur ch",
      "Ġrec ogn",
      "Ġma ster",
      "Ġcho ice",
      "Ġpartic ular",
      "ci ous",
      "Ġhapp en",
      "Ġin j",
      "Ġfore ver",
      "Ġc rit",
      "Ġgl ory",
      "Ġsimp ly",
      "Ġh ol",
      "Ġfell ow",
      "Ġf elt",
      "Ġmar riage",
      "Ġpict ure",
      "Ġ ow",
      "Ġd en",
      "Ġcor re",
      "Ġcho ose",
      "Ġimm edi",
      "w are",
      "Ġav oid",
      "y le",
      "ot t",
      "Ġopt ion",
      "Ġadd ress",
      "Ġcomp uter",
      "Ġfir m",
      "Ġtry ing",
      "Ġsil ver",
      "Ġa ut",
      "Ġagree ment",
      "Ġbe th",
      "Ġdo c",
      "st r",
      "ea se",
      "Ġst ore",
      "Ġchar ge",
      "Ġsim ple",
      "Ġwis dom",
      "Ġc row",
      "Ġb orn",
      "Ġmilit ary",
      "Ġincre ase",
      "Ġim ple",
      "Ġsing le",
      "Ġimple ment",
      "i k",
      "st ing",
      "Ġsat isf",
      "Ġfed eral",
      "Ġc ard",
      "Ġrec omm",
      "Ġapplic ation",
      "a ff",
      "Ġar ri",
      "Ġsa f",
      "ven ant",
      "Ġam ount",
      "Ġd om",
      "Ġac ross",
      "Ġco venant",
      "s u",
      "itt ing",
      "b b",
      "a pp",
      "Ġm is",
      "Ġcomm ission",
      "Ġmanage ment",
      "Ġbu ilt",
      "on y",
      "Ġlo ved",
      "Ġstate ment",
      "Ġli e",
      "Ġsp ace",
      "Ġser ious",
      "Ġf r",
      "Ġst ra",
      "Ġe ph",
      "Ġcont rib",
      "Ġra m",
      "Ġlet ter",
      "Ġsure ly",
      "Ġsh op",
      "Ġbla ck",
      "Ġkn ew",
      "Ġmat t",
      "Ġemploy ee",
      "Ġprot ect",
      "c r",
      "a i",
      "Ġwh ate",
      "Ġr an",
      "Ġ ira",
      "Ġbel ong",
      "Ġwhate ver",
      "Ġs ense",
      "Ġjud gment",
      "Ġpolit ical",
      "Ġscript ure",
      "p ing",
      "Ġne ither",
      "Ġsla ve",
      "Ġmus ic",
      "Ġd ru",
      "Ġle a",
      "Ġcontin ued",
      "Ġchallen ge",
      "h old",
      "p ri",
      "le t",
      "Ġdoc ument",
      "Ġwr ite",
      "re et",
      "Ġw ise",
      "Ġcol or",
      "Ġne igh",
      "Ġdec ided",
      "im ate",
      "Ġre du",
      "Ġth inking",
      "Ġtechn ology",
      "Ġv ict",
      "Ġgener ation",
      "Ġcommand ed",
      "Ġira q",
      "Ġw ine",
      "om ing",
      "Ġsh o",
      "Ġpro b",
      "Ġsee k",
      "Ġl ed",
      "w ise",
      "i ety",
      "Ġcent er",
      "Ġre b",
      "Ġev il",
      "Ġre ve",
      "Ġreturn ed",
      "Ġreve al",
      "m ing",
      "Ġ it",
      "Ġen ergy",
      "Ġd ark",
      "Ġqu ite",
      "ap e",
      "Ġ x",
      "Ġapp ly",
      "Ġrel ated",
      "Ġst ar",
      "Ġh und",
      "Ġuni versity",
      "Ġfun d",
      "Ġpl ant",
      "Ġal most",
      "Ġcol lect",
      "ens ive",
      "Ġhund red",
      "ver e",
      "Ġer it",
      "Ġunderstand ing",
      "Ġtem ple",
      "Ġfinan cial",
      "Ġw ide",
      "Ġpartic ip",
      "Ġens ure",
      "Ġre jo",
      "Ġpol ice",
      "Ġprin ciple",
      "Ġr ul",
      "Ġhelp ed",
      "Ġseem s",
      "Ġl ay",
      "Ġbo y",
      "Ġs omet",
      "th od",
      "Ġeu ro",
      "Ġinher it",
      "Ġsomet ime",
      "Ġw ish",
      "Ġpo or",
      "Ġj u",
      "m ber",
      "u a",
      "ig ation",
      "Ġspea king",
      "Ġteach er",
      "l on",
      "Ġe ither",
      "Ġv ir",
      "Ġfin ally",
      "Ġprov ision",
      "ict ion",
      "Ġimpro ve",
      "Ġsk ill",
      "d le",
      "Ġgr ant",
      "Ġful f",
      "Ġcomple t",
      "Ġri ver",
      "Ġnat ural",
      "Ġreg ister",
      "Ġp an",
      "Ġun cle",
      "Ġlearn ed",
      "Ġleg al",
      "Ġmed ical",
      "n o",
      "u ary",
      "Ġcl ick",
      "Ġform er",
      "Ġr ate",
      "a v",
      "Ġal one",
      "Ġpa ck",
      "Ġpr ison",
      "Ġf low",
      "Ġde mo",
      "Ġsp read",
      "Ġmom ent",
      "Ġd ream",
      "p ar",
      "Ġru ss",
      "Ġa ch",
      "b al",
      "l ied",
      "ent al",
      "Ġlo st",
      "Ġmo ved",
      "Ġso vere",
      "Ġinf l",
      "Ġsovere ign",
      "Ġsol ution",
      "s y",
      "ist ic",
      "Ġab ility",
      "Ġdisc u",
      "Ġfun ction",
      "Ġrighteous ness",
      "Ġr isk",
      "Ġreg ulation",
      "act er",
      "Ġvar ious",
      "Ġevid ence",
      "Ġk illed",
      "ag ed",
      "a ction",
      "Ġt ot",
      "Ġappro pri",
      "an e",
      "se c",
      "ru ct",
      "Ġadd ed",
      "Ġra ised",
      "Ġob ject",
      "Ġsle ep",
      "in a",
      "Ġf al",
      "Ġro ck",
      "Ġquick ly",
      "Ġst aff",
      "Ġfor th",
      "Ġpriv ate",
      "Ġdri ve",
      "Ġlic ense",
      "Ġs ort",
      "Ġde mon",
      "Ġenc ourage",
      "Ġth e",
      "Ġco ok",
      "Ġtru ly",
      "er y",
      "Ġro le",
      "Ġbat tle",
      "Ġp sal",
      "Ġn amed",
      "ant ly",
      "Ġgu ard",
      "Ġc am",
      "Ġde m",
      "vers ion",
      "Ġjust ice",
      "iv al",
      "Ġcont ain",
      "Ġgar ment",
      "Ġma le",
      "Ġrem ind",
      "Ġbless ing",
      "Ġso ft",
      "Ġrespons ibility",
      "Ġap art",
      "Ġsou l",
      "Ġrequ ired",
      "er ous",
      "id ence",
      "Ġpre vent",
      "Ġba pt",
      "Ġchar acter",
      "Ġass em",
      "Ġpsal m",
      "Ġab s",
      "Ġ ir",
      "Ġpri or",
      "Ġaf ric",
      "ific ation",
      "Ġgreat er",
      "Ġanswer ed",
      "Ġjo sh",
      "Ġha ir",
      "Ġdev ice",
      "Ġw illing",
      "Ġan al",
      "lo ad",
      "Ġe ss",
      "Ġem b",
      "m p",
      "Ġa t",
      "Ġc at",
      "Ġfa st",
      "Ġs us",
      "Ġh ur",
      "Ġin it",
      "ok en",
      "Ġdisclo sed",
      "en ger",
      "Ġf ile",
      "Ġper cent",
      "Ġposs ess",
      "m ed",
      "Ġbaby lon",
      "Ġg one",
      "om b",
      "Ġestablish ed",
      "it ate",
      "Ġsh eep",
      "Ġte le",
      "Ġmaint ain",
      "Ġce le",
      "Ġre ward",
      "Ġin hab",
      "Ġres ur",
      "Ġc ross",
      "d o",
      "s a",
      "it ation",
      "Ġful ly",
      "Ġde ce",
      "Ġag ency",
      "Ġb ud",
      "Ġto ol",
      "Ġsometime s",
      "Ġh un",
      "Ġeven ing",
      "Ġresp ond",
      "Ġlear ning",
      "Ġe t",
      "Ġwho ever",
      "s ing",
      "Ġeuro pe",
      "p ed",
      "Ġp en",
      "Ġit em",
      "Ġconsider ed",
      "b ly",
      "Ġw ed",
      "er c",
      "th e",
      "Ġhon or",
      "Ġs ad",
      "ress ion",
      "Ġresur re",
      "Ġt ar",
      "Ġf ort",
      "un ch",
      "pr ise",
      "bo ok",
      "er ness",
      "Ġpun ish",
      "Ġst reet",
      "Ġme thod",
      "Ġpass ed",
      "er ning",
      "Ġph one",
      "Ġw id",
      "Ġda ily",
      "Ġfin al",
      "il la",
      "Ġstr ate",
      "Ġte xt",
      "Ġins ide",
      "Ġw ood",
      "Ġsaf ety",
      "Ġsan ct",
      "Ġc r",
      "Ġim ag",
      "Ġacc omp",
      "Ġtr ou",
      "Ġimmedi ately",
      "Ġpa per",
      "Ġdef in",
      "Ġprob ably",
      "Ġrec ently",
      "Ġcirc um",
      "f or",
      "Ġexp ert",
      "Ġpart ner",
      "le s",
      "Ġd og",
      "Ġan ger",
      "Ġgr and",
      "Ġwa it",
      "r ict",
      "la ce",
      "Ġregard ing",
      "wh ere",
      "Ġburn t",
      "Ġneigh bor",
      "Ġappropri ate",
      "Ġs ize",
      "Ġrespon se",
      "em pt",
      "Ġtrans l",
      "Ġsk in",
      "Ġh y",
      "Ġres ource",
      "Ġmar ch",
      "Ġins urance",
      "an n",
      "Ġatt end",
      "Ġmer cy",
      "s el",
      "c o",
      "pl ay",
      "Ġadminist ration",
      "l ier",
      "Ġserv ing",
      "Ġcon v",
      "Ġcont ract",
      "ac le",
      "Ġexpla in",
      "Ġd uty",
      "am b",
      "Ġcom b",
      "Ġfe ed",
      "Ġse par",
      "Ġeconom ic",
      "Ġc ub",
      "ut ed",
      "Ġpre tt",
      "Ġex erc",
      "Ġpre vious",
      "Ġgu ide",
      "Ġprodu ce",
      "Ġsp end",
      "Ġnot ice",
      "Ġw ear",
      "Ġle ss",
      "Ġstand ing",
      "er ve",
      "Ġwild erness",
      "Ġsee ing",
      "i j",
      "s day",
      "Ġt ried",
      "Ġaw are",
      "f ather",
      "Ġeffect ive",
      "Ġprett y",
      "Ġpay ment",
      "Ġinst all",
      "u ff",
      "Ġres ol",
      "ot ion",
      "Ġill ust",
      "Ġc ry",
      "Ġsa fe",
      "en e",
      "Ġb an",
      "Ġk ill",
      "Ġse lect",
      "Ġdis ease",
      "Ġbe y",
      "Ġconc erning",
      "ea red",
      "Ġus ually",
      "Ġadv ice",
      "Ġg ard",
      "Ġsp ee",
      "Ġdire ction",
      "Ġow ner",
      "Ġinherit ance",
      "Ġspee ch",
      "il i",
      "Ġch ance",
      "Ġext ra",
      "Ġinvol ved",
      "Ġpreach ing",
      "Ġcomm er",
      "Ġs qu",
      "Ġw el",
      "Ġtran sp",
      "Ġcomplet ely",
      "Ġlo ving",
      "Ġres ident",
      "Ġoffer ed",
      "Ġjosh ua",
      "Ġth row",
      "Ġn one",
      "pp ed",
      "Ġbegin ning",
      "Ġknow ing",
      "Ġdisc over",
      "ho od",
      "o c",
      "end er",
      "Ġr ange",
      "Ġhot el",
      "um e",
      "n e",
      "ens ion",
      "Ġprep ared",
      "Ġlu ke",
      "Ġd ed",
      "Ġloc ation",
      "t ain",
      "Ġm ine",
      "Ġwonder ful",
      "Ġuncle an",
      "Ġsus p",
      "id ing",
      "Ġeng ine",
      "Ġtreat ment",
      "p on",
      "or row",
      "Ġd ig",
      "Ġra in",
      "Ġappo inted",
      "Ġg ain",
      "um p",
      "Ġla ck",
      "Ġa sh",
      "Ġsum mer",
      "Ġgard en",
      "e er",
      "le g",
      "Ġexper ien",
      "a cy",
      "Ġb ut",
      "st ed",
      "Ġwind ow",
      "at ter",
      "ver t",
      "u g",
      "Ġn ice",
      "Ġcop y",
      "Ġf ish",
      "Ġano inted",
      "Ġoffic er",
      "Ġcl oud",
      "Ġli ved",
      "est er",
      "Ġaccord ance",
      "Ġmention ed",
      "Ġhigh er",
      "Ġamaz ing",
      "u ri",
      "ran ge",
      "Ġmod el",
      "Ġgre en",
      "Ġ version",
      "Ġma ss",
      "Ġclo th",
      "Ġocc ur",
      "Ġperform ance",
      "Ġhor se",
      "Ġcrow d",
      "Ġc ode",
      "Ġreport ed",
      "s en",
      "um b",
      "Ġbelie ved",
      "Ġassoci ation",
      "r ay",
      "Ġsp oken",
      "Ġz e",
      "Ġphys ical",
      "Ġfal se",
      "Ġb i",
      "Ġ id",
      "Ġhapp ened",
      "Ġbey ond",
      "Ġe sc",
      "er ved",
      "Ġc ru",
      "itt ed",
      "Ġcommand ment",
      "Ġj an",
      "Ġca st",
      "Ġup d",
      "u le",
      "Ġtra de",
      "Ġdis play",
      "iz ing",
      "ress ed",
      "g ust",
      "Ġfore father",
      "Ġh ast",
      "Ġer ror",
      "Ġfil m",
      "Ġwork ed",
      "Ġmean ing",
      "Ġb ound",
      "us ion",
      "Ġtri p",
      "Ġach ie",
      "Ġlook ed",
      "Ġgra in",
      "Ġcamp a",
      "o sed",
      "Ġprep are",
      "Ġcampa ign",
      "Ġc y",
      "Ġh i",
      "as k",
      "Ġar k",
      "vent ion",
      "Ġrequire ment",
      "Ġinfl u",
      "Ġr ise",
      "Ġsci ence",
      "Ġsw e",
      "Ġdepart ment",
      "Ġg ri",
      "one st",
      "Ġar ch",
      "Ġw w",
      "Ġd ang",
      "Ġbless ed",
      "Ġrele ase",
      "Ġm ist",
      "Ġsh ip",
      "Ġun d",
      "Ġra d",
      "Ġprovide s",
      "Ġp m",
      "Ġsu d",
      "Ġref lect",
      "ic ing",
      "Ġrecomm end",
      "Ġf illed",
      "Ġbr it",
      "Ġlev ite",
      "Ġc iv",
      "Ġde g",
      "Ġclear ly",
      "Ġcommitt ee",
      "Ġpossess ion",
      "k ind",
      "st ance",
      "Ġmay be",
      "Ġho sp",
      "Ġsur v",
      "Ġb order",
      "Ġref uge",
      "i ally",
      "Ġg al",
      "Ġrec ent",
      "Ġopen ed",
      "ro du",
      "Ġr ound",
      "ic ated",
      "Ġs ick",
      "Ġst ood",
      "ther n",
      "Ġbr and",
      "Ġwe ight",
      "Ġmat th",
      "Ġah ead",
      "Ġdesp ite",
      "Ġr oman",
      "Ġdecla res",
      "Ġpo s",
      "g a",
      "Ġex ch",
      "Ġex act",
      "Ġmess enger",
      "am ent",
      "Ġs ight",
      "Ġset ting",
      "Ġst yle",
      "ord in",
      "Ġspecif ic",
      "am in",
      "Ġse ed",
      "Ġdiffer ence",
      "Ġin no",
      "Ġbeh old",
      "Ġtra ck",
      "Ġhouse hold",
      "Ġkind ness",
      "er s",
      "Ġmatth ew",
      "Ġf at",
      "Ġb ur",
      "Ġac qu",
      "Ġexp ected",
      "Ġmid dle",
      "ic ed",
      "Ġse ction",
      "Ġrelig ion",
      "Ġglo bal",
      "Ġt it",
      "Ġpar k",
      "tt p",
      "Ġww w",
      "om on",
      "Ġstru gg",
      "Ġnet work",
      "Ġgather ed",
      "Ġp ath",
      "Ġse pt",
      "Ġo h",
      "Ġc up",
      "Ġh ttp",
      "Ġcorre ct",
      "Ġt rib",
      "are n",
      "Ġsol omon",
      "Ġn orm",
      "Ġmo b",
      "Ġexc ell",
      "Ġtri al",
      "Ġaddition al",
      "Ġch ap",
      "l ar",
      "r ound",
      "Ġso ci",
      "g o",
      "Ġh all",
      "Ġse ssion",
      "Ġal ive",
      "ot ed",
      "Ġfollow ed",
      "Ġext re",
      "Ġcoun sel",
      "Ġassem bly",
      "Ġm i",
      "Ġsupp ly",
      "v iew",
      "Ġlo ss",
      "Ġv ision",
      "Ġgu y",
      "Ġm ile",
      "an ch",
      "Ġreg ional",
      "Ġdirect or",
      "Ġs ell",
      "Ġval ley",
      "Ġdesc rib",
      "Ġintern et",
      "as ion",
      "ot ing",
      "Ġinst itution",
      "Ġann oun",
      "Ġchang ed",
      "Ġst e",
      "Ġun ion",
      "Ġm al",
      "Ġsur round",
      "ci ent",
      "Ġar g",
      "Ġf est",
      "Ġt ip",
      "ver age",
      "Ġhar m",
      "Ġmod ern",
      "Ġorigin al",
      "Ġin te",
      "Ġun less",
      "em e",
      "Ġjo in",
      "Ġfre ed",
      "l ight",
      "Ġdeterm ined",
      "a per",
      "Ġb ath",
      "Ġt ro",
      "Ġrelig ious",
      "b orn",
      "j ust",
      "le st",
      "Ġsign ific",
      "Ġser ies",
      "Ġcor ru",
      "Ġprin ce",
      "Ġcap ital",
      "Ġappo int",
      "Ġdou bt",
      "m a",
      "ic s",
      "Ġsp ring",
      "Ġinhab it",
      "ent y",
      "Ġth reat",
      "Ġsh ep",
      "Ġj une",
      "Ġa ra",
      "Ġfa ir",
      "ra id",
      "Ġfa c",
      "Ġres c",
      "Ġinterest ed",
      "Ġfavor ite",
      "Ġless on",
      "Ġf la",
      "Ġma il",
      "Ġman kind",
      "Ġciv il",
      "Ġser ved",
      "Ġhelp ing",
      "Ġrun ning",
      "a oh",
      "v ant",
      "Ġm ic",
      "Ġca used",
      "Ġh it",
      "Ġphar aoh",
      "Ġbo x",
      "cr atic",
      "ke y",
      "Ġaf raid",
      "Ġrele ased",
      "Ġve h",
      "ad a",
      "Ġcomm it",
      "Ġprom ised",
      "Ġj ord",
      "Ġbr anch",
      "Ġcons ult",
      "Ġdist rict",
      "Ġa ward",
      "Ġt om",
      "Ġe p",
      "Ġatt empt",
      "Ġcub it",
      "Ġf it",
      "Ġsp ent",
      "Ġho st",
      "Ġw alking",
      "Ġmo v",
      "Ġsci ent",
      "Ġsold ier",
      "Ġdis p",
      "Ġsuccess ful",
      "Ġpurch ase",
      "m b",
      "Ġt ur",
      "Ġbelie f",
      "Ġpop ular",
      "Ġdw ell",
      "Ġcele br",
      "Ġp ick",
      "Ġplay er",
      "Ġcurrent ly",
      "Ġdem and",
      "Ġjord an",
      "Ġallow ed",
      "Ġet c",
      "lic t",
      "Ġpower ful",
      "Ġdru g",
      "Ġpos itive",
      "Ġm ission",
      "Ġob ey",
      "Ġexperien ced",
      "Ġman ager",
      "Ġflo or",
      "Ġf em",
      "Ġma ch",
      "st e",
      "Ġpro po",
      "Ġstru ck",
      "Ġh ate",
      "Ġy ork",
      "Ġiss ued",
      "Ġp ion",
      "Ġflo ck",
      "u ck",
      "Ġb ri",
      "Ġtra dition",
      "Ġinclud es",
      "Ġpion eer",
      "Ġp ill",
      "Ġcult ure",
      "Ġman ner",
      "Ġear lier",
      "v y",
      "Ġad am",
      "Ġsuffer ing",
      "z z",
      "Ġdesign ed",
      "Ġuni que",
      "Ġra ise",
      "Ġexerc ise",
      "Ġsee king",
      "Ġhear ing",
      "Ġremo ve",
      "Ġcolle ge",
      "Ġun c",
      "Ġsch ed",
      "Ġeas ily",
      "b an",
      "re en",
      "Ġre ject",
      "Ġpro ced",
      "Ġsh a",
      "ci pl",
      "Ġcred it",
      "it ely",
      "ir ing",
      "Ġy outh",
      "Ġta ught",
      "Ġcar ried",
      "Ġlead ing",
      "Ġpress ure",
      "Ġcommitt ed",
      "Ġbud get",
      "Ġd ry",
      "ar ter",
      "Ġprog ress",
      "u f",
      "Ġan cient",
      "Ġtrou ble",
      "Ġinhabit ant",
      "Ġf an",
      "Ġli ft",
      "Ġdo ctor",
      "Ġcommer cial",
      "i ation",
      "Ġp al",
      "Ġn ature",
      "Ġbir d",
      "re an",
      "Ġameric a",
      "Ġele ction",
      "m itted",
      "Ġsam uel",
      "Ġdown load",
      "ut ive",
      "Ġtrans fer",
      "Ġdeg ree",
      "Ġan x",
      "Ġcare er",
      "Ġjourn ey",
      "Ġa ust",
      "Ġr om",
      "Ġmight y",
      "ame s",
      "Ġrejo ice",
      "Ġexch ange",
      "Ġg erm",
      "Ġh onest",
      "Ġmar ried",
      "Ġstru ct",
      "Ġsex ual",
      "Ġveh icle",
      "Ġmov ie",
      "Ġgu id",
      "Ġprot ection",
      "Ġint rodu",
      "Ġsept ember",
      "Ġproced ure",
      "Ġdis cipl",
      "Ġmarket ing",
      "Ġa id",
      "se qu",
      "Ġv illa",
      "Ġcomp la",
      "Ġshow ed",
      "Ġplan ning",
      "Ġbas is",
      "Ġstrength en",
      "Ġstrate gy",
      "Ġshep her",
      "op er",
      "Ġs and",
      "Ġf if",
      "Ġf ee",
      "Ġapp eal",
      "Ġgrow th",
      "Ġfreed om",
      "Ġm ore",
      "or ter",
      "Ġexp lo",
      "Ġcons ist",
      "Ġbro w",
      "in th",
      "Ġm ix",
      "Ġj on",
      "Ġshow n",
      "Ġeff ic",
      "Ġad ult",
      "Ġme al",
      "Ġocc asion",
      "Ġrepresent ative",
      "Ġcommun ication",
      "Ġe ight",
      "Ġis land",
      "l er",
      "Ġba se",
      "Ġam b",
      "ast er",
      "Ġdisc us",
      "Ġemploy ment",
      "Ġreach ed",
      "bel ie",
      "Ġb ull",
      "Ġse at",
      "Ġsp ot",
      "Ġun it",
      "Ġpa id",
      "Ġadd is",
      "Ġcho sen",
      "Ġo ct",
      "Ġob l",
      "Ġoppo sition",
      "Ġstra ight",
      "Ġt al",
      "Ġm y",
      "Ġh ab",
      "ber n",
      "Ġhigh ly",
      "Ġchap ter",
      "Ġt ong",
      "Ġf ill",
      "Ġdef ense",
      "Ġeng lish",
      "Ġter ror",
      "il ed",
      "em iah",
      "la im",
      "Ġhol iday",
      "Ġs en",
      "Ġs ar",
      "Ġgrow ing",
      "Ġequ ip",
      "Ġsoci ety",
      "m ission",
      "an ced",
      "Ġbe side",
      "i ot",
      "op h",
      "Ġfor get",
      "Ġinterest ing",
      "Ġf ly",
      "Ġcover ed",
      "Ġadminist r",
      "n a",
      "Ġ ites",
      "Ġc and",
      "Ġm ur",
      "ve s",
      "Ġtot al",
      "Ġla id",
      "Ġcl ub",
      "Ġweek end",
      "Ġv ine",
      "Ġimp act",
      "n y",
      "sh ipp",
      "Ġro se",
      "Ġdep end",
      "Ġthr one",
      "Ġresurre ction",
      "er ing",
      "Ġb ill",
      "Ġh uge",
      "Ġj ames",
      "Ġem er",
      "Ġgu est",
      "Ġbelie ver",
      "Ġhealth y",
      "Ġgl or",
      "ret ch",
      "Ġc it",
      "Ġa pr",
      "ath an",
      "Ġta bern",
      "Ġmed ic",
      "Ġwea k",
      "Ġtabern acle",
      "Ġc ourage",
      "Ġmo ving",
      "ag ing",
      "cri ption",
      "b ody",
      "ous ly",
      "Ġdefin itely",
      "Ġs low",
      "Ġc ert",
      "Ġother wise",
      "Ġaff ect",
      "Ġtong ue",
      "in ion",
      "Ġc ell",
      "it ute",
      "Ġde ed",
      "Ġcon vers",
      "Ġqu al",
      "Ġpunish ment",
      "b all",
      "Ġt ask",
      "Ġst ock",
      "Ġpre fer",
      "Ġsal vation",
      "Ġrul er",
      "c ra",
      "ic ate",
      "Ġb and",
      "f ace",
      "g n",
      "Ġpri m",
      "Ġexpla ined",
      "Ġmult i",
      "i am",
      "Ġput ting",
      "Ġoper ation",
      "Ġdw elling",
      "uf act",
      "Ġl ower",
      "Ġfound ation",
      "Ġwa iting",
      "int ing",
      "Ġcre ation",
      "Ġm ich",
      "Ġsec ure",
      "Ġinclud ed",
      "Ġplay ing",
      "Ġren t",
      "Ġre ign",
      "Ġkeep ing",
      "Ġfind ing",
      "Ġrec all",
      "Ġcircum stance",
      "Ġfest ival",
      "Ġf ran",
      "Ġdis h",
      "Ġreg ist",
      "Ġtra in",
      "Ġvar iety",
      "Ġjan uary",
      "Ġexcell ent",
      "Ġman ufact",
      "Ġprovid ing",
      "Ġpot ential",
      "Ġapr il",
      "a u",
      "g ra",
      "Ġatt itude",
      "Ġgra du",
      "Ġconf er",
      "Ġcent ral",
      "am a",
      "Ġbro ad",
      "Ġdec ide",
      "Ġsoft ware",
      "Ġl iter",
      "Ġpur su",
      "ant age",
      "un der",
      "Ġconf idence",
      "Ġlim ited",
      "Ġheb rew",
      "Ġtransp ort",
      "Ġc old",
      "Ġwash ing",
      "Ġimag ine",
      "m as",
      "Ġe ating",
      "Ġpres ence",
      "Ġstart ing",
      "Ġbl ind",
      "Ġs ens",
      "Ġst ated",
      "Ġinst ance",
      "Ġjourn al",
      "Ġshepher d",
      "Ġsp ort",
      "Ġpresent ed",
      "Ġbl ue",
      "Ġdan iel",
      "Ġbe g",
      "ub lic",
      "Ġ i",
      "Ġmat ch",
      "Ġenter prise",
      "gr ound",
      "Ġcri me",
      "Ġst uff",
      "Ġcont ra",
      "Ġsc reen",
      "Ġviol ence",
      "Ġbring ing",
      "Ġdist rib",
      "Ġf ix",
      "Ġd ol",
      "ver b",
      "Ġco oper",
      "Ġmid st",
      "it able",
      "es is",
      "Ġte en",
      "Ġadv antage",
      "Ġter rit",
      "a f",
      "Ġa verage",
      "Ġm ary",
      "Ġh ell",
      "Ġex h",
      "Ġisa iah",
      "Ġexec utive",
      "Ġmore over",
      "Ġt alking",
      "Ġu k",
      "Ġsy n",
      "m ore",
      "Ġpre cious",
      "Ġrep ublic",
      "Ġno ah",
      "Ġbas ic",
      "Ġde b",
      "Ġstri ke",
      "Ġconcern ed",
      "Ġst ation",
      "Ġpro verb",
      "Ġaut om",
      "Ġa spect",
      "Ġeas ier",
      "at ory",
      "Ġbec oming",
      "Ġwar m",
      "Ġdirect ly",
      "Ġfulf ill",
      "Ġh am",
      "Ġth er",
      "Ġann ual",
      "Ġpublish ed",
      "Ġswe et",
      "ep end",
      "iven ess",
      "Ġ q",
      "et ic",
      "Ġdest ruction",
      "Ġinsp ired",
      "Ġtar get",
      "Ġinst ruction",
      "Ġfig ure",
      "Ġequip ment",
      "us ing",
      "Ġra ce",
      "Ġspe ed",
      "Ġaccept ed",
      "Ġt or",
      "Ġw ast",
      "Ġgl ad",
      "Ġfre sh",
      "Ġenc oura",
      "Ġbro ken",
      "Ġold er",
      "Ġeng age",
      "se t",
      "iz en",
      "Ġas king",
      "ter y",
      "Ġrespons ible",
      "x im",
      "al th",
      "Ġsh aring",
      "Ġo k",
      "Ġind epend",
      "Ġdestroy ed",
      "Ġregister ed",
      "ic ial",
      "Ġy ester",
      "Ġwe alth",
      "Ġfac ility",
      "Ġyester day",
      "Ġb ul",
      "Ġconst ruction",
      "Ġvol un",
      "i et",
      "Ġdam age",
      "Ġsu st",
      "Ġrel ative",
      "Ġdemo cratic",
      "Ġba g",
      "Ġadv ance",
      "Ġwel come",
      "aren t",
      "Ġst ress",
      "Ġco ol",
      "Ġhosp ital",
      "Ġdis app",
      "Ġchrist mas",
      "Ġheaven ly",
      "k ed",
      "Ġch em",
      "Ġpro c",
      "ell ed",
      "Ġfact or",
      "Ġmem or",
      "Ġerit rean",
      "Ġaccomp lish",
      "k er",
      "Ġt our",
      "Ġro l",
      "Ġenter ed",
      "Ġfr iday",
      "Ġfem ale",
      "g raph",
      "Ġf ram",
      "ve y",
      "Ġde bt",
      "Ġau gust",
      "Ġhist or",
      "Ġst age",
      "im ent",
      "Ġgo at",
      "Ġterrit ory",
      "Ġt ear",
      "Ġphil ist",
      "er a",
      "Ġme at",
      "pl f",
      "Ġnear ly",
      "Ġconvers ation",
      "Ġh ill",
      "Ġro b",
      "Ġregist ration",
      "a ur",
      "e x",
      "og raph",
      "Ġshow ing",
      "Ġprodu ction",
      "Ġface book",
      "Ġlim it",
      "Ġdiscu ssion",
      "Ġcit izen",
      "Ġl amb",
      "and on",
      "Ġcreat ing",
      "Ġinte gr",
      "la sting",
      "Ġever lasting",
      "Ġafric a",
      "Ġli f",
      "as c",
      "Ġar range",
      "Ġdesc end",
      "Ġmob ile",
      "Ġtro op",
      "a w",
      "Ġcomp ass",
      "ick et",
      "the less",
      "Ġpill ar",
      "re sh",
      "Ġcreat ure",
      "Ġl en",
      "ri a",
      "Ġbeh alf",
      "Ġad op",
      "Ġover se",
      "Ġju ly",
      "Ġg un",
      "Ġnew sp",
      "Ġacc ident",
      "Ġtem per",
      "Ġreveal ed",
      "Ġexact ly",
      "Ġconfer ence",
      "o ber",
      "Ġt v",
      "Ġb illion",
      "Ġrele vant",
      "o on",
      "Ġpri me",
      "Ġphilist ine",
      "Ġs itting",
      "sp ring",
      "Ġab andon",
      "Ġevent ually",
      "Ġenjoy ed",
      "Ġpriv ile",
      "Ġelect ric",
      "Ġconn ection",
      "Ġcri min",
      "Ġupd ate",
      "Ġoct ober",
      "ol ution",
      "Ġbe ast",
      "Ġcolle ction",
      "Ġassign ed",
      "Ġinj ury",
      "Ġh op",
      "Ġr id",
      "Ġr out",
      "Ġinst ru",
      "Ġpract ical",
      "Ġnewsp aper",
      "Ġa im",
      "Ġtal ent",
      "b ack",
      "Ġt end",
      "Ġth ine",
      "Ġlo ad",
      "Ġwr iter",
      "Ġbeh av",
      "Ġw o",
      "Ġb one",
      "Ġu l",
      "Ġlo se",
      "ib ly",
      "Ġdev il",
      "Ġinvest ment",
      "Ġabs ol",
      "Ġb ought",
      "ol ate",
      "Ġbapt ized",
      "Ġp ure",
      "Ġm el",
      "Ġl ad",
      "Ġsa ved",
      "Ġpre m",
      "Ġad vert",
      "Ġimp er",
      "Ġloc ated",
      "Ġsecret ary",
      "t a",
      "Ġv ac",
      "Ġoff spring",
      "Ġwar ning",
      "Ġblo ck",
      "Ġsh ame",
      "Ġwor shipp",
      "Ġinter view",
      "Ġconf ir",
      "Ġrep air",
      "Ġjer emiah",
      "Ġforg ive",
      "Ġwed ding",
      "ir t",
      "ck et",
      "Ġh orn",
      "Ġcon d",
      "Ġhe at",
      "Ġrep e",
      "Ġfin ished",
      "Ġemploy er",
      "Ġruss ian",
      "Ġinflu ence",
      "n es",
      "Ġ ol",
      "ar ant",
      "Ġh id",
      "Ġla bor",
      "Ġarri ved",
      "Ġdig ital",
      "Ġun f",
      "Ġbecome s",
      "Ġpl at",
      "Ġfo ol",
      "ag ue",
      "Ġdel ight",
      "Ġpar ad",
      "Ġdark ness",
      "Ġcrimin al",
      "Ġch air",
      "Ġsub mit",
      "ut or",
      "ff ee",
      "Ġread er",
      "Ġcan cer",
      "Ġtop ic",
      "Ġr ing",
      "Ġisa ac",
      "b a",
      "Ġcomple ted",
      "Ġwea pon",
      "re ed",
      "Ġd y",
      "Ġrec over",
      "Ġremo ved",
      "b led",
      "Ġ ign",
      "Ġg as",
      "Ġl in",
      "Ġlate st",
      "Ġw ill",
      "Ġn ur",
      "Ġbe at",
      "Ġassign ment",
      "w or",
      "Ġsh ot",
      "Ġbring s",
      "Ġg ree",
      "Ġcall ing",
      "Ġent ertain",
      "Ġdri ver",
      "Ġren der",
      "Ġobser ve",
      "for ce",
      "Ġstruct ure",
      "Ġapp eared",
      "Ġno ve",
      "Ġport ion",
      "ze k",
      "bb ath",
      "Ġachie ve",
      "b our",
      "Ġse ctor",
      "Ġpa lest",
      "Ġfollow er",
      "Ġter ri",
      "Ġocc up",
      "Ġtim oth",
      "Ġdiv ision",
      "Ġwor ry",
      "Ġple asure",
      "Ġsun day",
      "Ġsa c",
      "Ġsa bbath",
      "Ġop inion",
      "Ġallow s",
      "ar m",
      "Ġen able",
      "Ġdist ance",
      "e en",
      "Ġch er",
      "Ġaff air",
      "in ian",
      "Ġad just",
      "Ġess ential",
      "aur ant",
      "Ġnove mber",
      "Ġme ant",
      "Ġthere of",
      "Ġvict im",
      "Ġst retch",
      "Ġcon vention",
      "Ġcon sequ",
      "Ġpl us",
      "Ġfe b",
      "Ġsm art",
      "Ġdist ress",
      "Ġexpress ed",
      "Ġphoto graph",
      "Ġdece mber",
      "Ġmedic ine",
      "Ġ il",
      "ou red",
      "Ġexp l",
      "Ġcor inth",
      "Ġrest aurant",
      "Ġwin ter",
      "i h",
      "s k",
      "ic ious",
      "ate st",
      "Ġdec ade",
      "Ġas ide",
      "Ġfin ish",
      "Ġdeterm ine",
      "Ġvilla ge",
      "Ġf ra",
      "Ġpla ced",
      "Ġfre qu",
      "Ġleader ship",
      "Ġre ci",
      "r ant",
      "r ance",
      "Ġlo g",
      "Ġlu ck",
      "Ġsud den",
      "Ġaust ral",
      "c ast",
      "ar ily",
      "Ġta ste",
      "Ġsat ur",
      "Ġmist ake",
      "g u",
      "Ġacc ur",
      "Ġob tain",
      "Ġcol la",
      "Ġgre atest",
      "Ġst ick",
      "ell ig",
      "Ġrep ent",
      "Ġdirect ive",
      "Ġab und",
      "Ġpublic ation",
      "Ġextre m",
      "z y",
      "Ġp sy",
      "or ing",
      "Ġre vel",
      "Ġv ia",
      "e cy",
      "Ġappro val",
      "Ġproph ecy",
      "Ġele ment",
      "Ġappreci ate",
      "Ġsa ke",
      "Ġca ught",
      "Ġinvest ig",
      "Ġmem ory",
      "an a",
      "Ġper man",
      "Ġben j",
      "Ġillust ration",
      "Ġant i",
      "Ġtimoth y",
      "Ġt on",
      "Ġpo ol",
      "Ġgen esis",
      "Ġconf ident",
      "Ġgre w",
      "Ġexpress ion",
      "Ġmach ine",
      "Ġl ion",
      "ol ic",
      "Ġsh out",
      "Ġwatch ing",
      "Ġsac red",
      "Ġg la",
      "Ġsp l",
      "Ġgu arant",
      "Ġresc ue",
      "s om",
      "Ġs or",
      "Ġa th",
      "Ġpro ve",
      "Ġse vent",
      "Ġappoint ment",
      "r ison",
      "ro g",
      "Ġatt ract",
      "Ġanal y",
      "Ġd ust",
      "Ġbus h",
      "Ġfriend ly",
      "Ġbre ath",
      "er ed",
      "Ġar re",
      "Ġinc ome",
      "Ġact ive",
      "Ġpalest inian",
      "le ction",
      "Ġent rance",
      "Ġstrugg le",
      "in o",
      "Ġb ond",
      "Ġb right",
      "ic ian",
      "Ġal tern",
      "Ġend ure",
      "az ine",
      "Ġproc laim",
      "Ġreal ize",
      "ij ah",
      "Ġlen gth",
      "or ge",
      "Ġk itch",
      "Ġco ast",
      "Ġint ellig",
      "Ġprof it",
      "Ġpop ulation",
      "Ġtit le",
      "Ġsignific ant",
      "i able",
      "n ow",
      "Ġw ing",
      "st ic",
      "Ġtru mp",
      "Ġstop ped",
      "Ġsqu are",
      "Ġund es",
      "Ġres ist",
      "Ġwe ather",
      "Ġmag azine",
      "Ġparticular ly",
      "Ġerit rea",
      "Ġbenj amin",
      "o ss",
      "on s",
      "Ġbeaut y",
      "Ġmot iv",
      "Ġnorm al",
      "Ġwashing ton",
      "Ġkitch en",
      "ss ed",
      "stand ing",
      "Ġincre asing",
      "Ġdescend ant",
      "Ġb er",
      "Ġd rop",
      "Ġk ore",
      "pp er",
      "Ġremain s",
      "Ġegypt ian",
      "Ġdemon str",
      "Ġparad ise",
      "d f",
      "Ġguid ance",
      "Ġp ush",
      "Ġins ight",
      "Ġplay ed",
      "Ġsk y",
      "Ġcan ada",
      "Ġinvest igation",
      "Ġsug ar",
      "Ġredu ce",
      "Ġprivile ge",
      "b ed",
      "i ant",
      "Ġnum erous",
      "Ġcontrib ution",
      "Ġrevel ation",
      "Ġdis belie",
      "Ġob ed",
      "Ġflo od",
      "Ġhur t",
      "Ġf urn",
      "Ġcor ner",
      "Ġt icket",
      "Ġaff ord",
      "Ġlea ving",
      "Ġid ol",
      "c ul",
      "ren ch",
      "Ġimplement ation",
      "Ġst ream",
      "Ġcount y",
      "Ġsatur day",
      "Ġch ron",
      "ond ay",
      "Ġopen ing",
      "Ġdescrib ed",
      "Ġsp ake",
      "Ġexam ine",
      "Ġtre asure",
      "Ġaud ience",
      "Ġiraq i",
      "Ġch ina",
      "Ġear n",
      "Ġtransl ation",
      "w ide",
      "Ġm onday",
      "Ġd in",
      "Ġcon ce",
      "Ġtem pt",
      "Ġsched ule",
      "Ġcompass ion",
      "Ġc atch",
      "Ġset tle",
      "Ġremain ed",
      "Ġeurope an",
      "Ġara b",
      "Ġh ang",
      "Ġco ffee",
      "Ġdeliver ed",
      "Ġdol lar",
      "Ġn ar",
      "Ġperson ality",
      "Ġcreat or",
      "Ġeconom y",
      "Ġtom orrow",
      "Ġm ental",
      "Ġhapp ens",
      "Ġpur s",
      "ash ion",
      "Ġdevelop ed",
      "Ġcreat ive",
      "Ġseem ed",
      "Ġdepart ed",
      "Ġbra in",
      "Ġconv in",
      "Ġappro ved",
      "ceed ing",
      "por ary",
      "Ġn ut",
      "Ġz eal",
      "Ġev al",
      "Ġconn ect",
      "Ġgreat ly",
      "Ġhea vy",
      "Ġconst itution",
      "Ġreb u",
      "Ġfirst born",
      "Ġdou ble",
      "Ġul t",
      "i que",
      "k el",
      "Ġf ashion",
      "Ġli br",
      "Ġchar iot",
      "Ġcop per",
      "g ue",
      "Ġcor por",
      "cept ion",
      "Ġsur pr",
      "Ġconc lud",
      "Ġpar ag",
      "Ġbirth day",
      "Ġundes erved",
      "Ġim itate",
      "a el",
      "Ġd ro",
      "il ing",
      "id ate",
      "Ġan d",
      "ac ity",
      "Ġclo thing",
      "Ġreason able",
      "Ġdang er",
      "p ro",
      "s ion",
      "Ġ ing",
      "Ġv ow",
      "Ġpre gn",
      "Ġla unch",
      "ue sday",
      "Ġsuggest ion",
      "a an",
      "Ġs alt",
      "Ġd ress",
      "im in",
      "Ġsur face",
      "rol l",
      "Ġconsum er",
      "Ġsc ene",
      "ond on",
      "Ġanx iety",
      "y ard",
      "Ġ iron",
      "Ġass et",
      "Ġob vious",
      "Ġver se",
      "Ġobl igation",
      "Ġplat form",
      "v ision",
      "Ġt uesday",
      "Ġl ondon",
      "ea st",
      "Ġdiscipl ine",
      "Ġbehav ior",
      "Ġfeb ru",
      "Ġ ip",
      "Ġg az",
      "Ġv ote",
      "ph one",
      "Ġent ry",
      "Ġuse ful",
      "Ġcomple x",
      "Ġlea f",
      "Ġsust ain",
      "Ġfebru ary",
      "Ġh ence",
      "Ġsh ut",
      "est ic",
      "Ġprodu ced",
      "Ġbrit ish",
      "Ġd ivid",
      "Ġla u",
      "Ġz ion",
      "Ġrequire s",
      "Ġcare fully",
      "Ġren ew",
      "Ġparag raph",
      "Ġprovid er",
      "Ġregular ly",
      "Ġn ine",
      "Ġsepar ate",
      "Ġesc ape",
      "on t",
      "en ced",
      "Ġa st",
      "og ue",
      "Ġaf ter",
      "Ġfl ight",
      "Ġmove ment",
      "Ġcomfort able",
      "Ġbound ary",
      "Ġst ran",
      "Ġqu arter",
      "Ġrep ro",
      "Ġbir r",
      "Ġhold ing",
      "a ph",
      "Ġb all",
      "Ġal b",
      "Ġcl imate",
      "Ġd ip",
      "Ġre ality",
      "Ġac ad",
      "Ġsla ughter",
      "Ġsn ow",
      "Ġf ant",
      "Ġsm oke",
      "olog ical",
      "Ġwalk ed",
      "Ġcorru ption",
      "ci ence",
      "Ġtra ffic",
      "Ġimm or",
      "Ġgrant ed",
      "Ġinit i",
      "Ġcond em",
      "a ult",
      "o ved",
      "Ġc ash",
      "Ġf uel",
      "Ġpr int",
      "Ġconf lict",
      "Ġcrit ic",
      "Ġm ort",
      "Ġcomp an",
      "Ġgree k",
      "Ġj ap",
      "so ever",
      "Ġbel oved",
      "Ġcontin u",
      "Ġfle e",
      "Ġd u",
      "Ġst ake",
      "Ġnever theless",
      "it ter",
      "is l",
      "Ġple ased",
      "Ġpoint ed",
      "tern al",
      "Ġmajor ity",
      "Ġbre ast",
      "Ġmur der",
      "Ġcompan ion",
      "Ġp il",
      "Ġpro ved",
      "Ġv en",
      "Ġrep lied",
      "Ġart ist",
      "Ġback ground",
      "Ġz er",
      "v ely",
      "Ġa ck",
      "Ġph ra",
      "Ġmin im",
      "Ġatt orn",
      "Ġbus y",
      "Ġfight ing",
      "Ġcert ific",
      "Ġb low",
      "us ive",
      "Ġinter p",
      "Ġtoward s",
      "Ġdeliver y",
      "Ġassist ance",
      "Ġcorinth ian",
      "Ġattorn ey",
      "Ġop p",
      "Ġcap acity",
      "p lace",
      "ut ely",
      "Ġru in",
      "Ġprom ote",
      "Ġpost ed",
      "Ġpat tern",
      "h ere",
      "l usion",
      "ri al",
      "Ġover all",
      "Ġleg isl",
      "u able",
      "Ġcon ven",
      "Ġtrans form",
      "Ġmil k",
      "Ġident ify",
      "Ġw ave",
      "Ġde fe",
      "Ġgrow n",
      "Ġcan aan",
      "Ġchang ing",
      "Ġack now",
      "Ġcertific ate",
      "Ġsatisf ied",
      "Ġt ower",
      "Ġre la",
      "Ġse al",
      "Ġcl in",
      "Ġhapp iness",
      "li ance",
      "Ġcrit ical",
      "Ġran som",
      "r ate",
      "id ge",
      "Ġpr ide",
      "Ġty p",
      "Ġded icated",
      "Ġadministr ative",
      "Ġlibr ary",
      "m ar",
      "Ġp ul",
      "Ġde ar",
      "Ġextrem ely",
      "s ely",
      "Ġfor um",
      "Ġfl our",
      "Ġcan c",
      "Ġdri ving",
      "Ġtest im",
      "Ġhab it",
      "Ġw age",
      "Ġma p",
      "Ġdis aster",
      "Ġpr oud",
      "Ġor g",
      "Ġfriend ship",
      "Ġremain ing",
      "Ġfour th",
      "Ġtechn ical",
      "Ġneg ot",
      "ate g",
      "Ġam m",
      "Ġassoci ated",
      "Ġapart ment",
      "Ġsor ry",
      "Ġm ate",
      "Ġd ad",
      "ab a",
      "Ġinv ited",
      "Ġneg ative",
      "Ġafric an",
      "Ġhun g",
      "Ġpro st",
      "Ġgo og",
      "Ġbe ach",
      "ok ed",
      "Ġcons cience",
      "Ġmulti ple",
      "at ively",
      "Ġj ah",
      "Ġwor se",
      "Ġreg ul",
      "Ġvir gin",
      "Ġsurround ing",
      "Ġbo at",
      "Ġwid ow",
      "e h",
      "ar i",
      "Ġin ner",
      "Ġrep ly",
      "Ġpat ri",
      "Ġsuc ceed",
      "Ġprior ity",
      "Ġannoun ced",
      "Ġabsol utely",
      "e v",
      "Ġgra ve",
      "Ġbed room",
      "Ġb ott",
      "ss el",
      "Ġj un",
      "Ġper sec",
      "Ġsc ale",
      "Ġconst antly",
      "ipp ed",
      "Ġfail ed",
      "li ke",
      "c oming",
      "g ency",
      "Ġj ack",
      "Ġth ur",
      "Ġen h",
      "Ġed ge",
      "Ġassoci ate",
      "Ġrefer ence",
      "x ic",
      "Ġf led",
      "ch el",
      "Ġgre et",
      "Ġp our",
      "Ġn i",
      "Ġfa ced",
      "Ġjo ined",
      "Ġdes ert",
      "Ġbu ried",
      "Ġend ed",
      "Ġincre ased",
      "Ġconsequ ence",
      "Ġthur sday",
      "f ast",
      "Ġm ad",
      "Ġf ur",
      "ot ional",
      "Ġrep lace",
      "Ġhelp ful",
      "Ġshare d",
      "ys is",
      "Ġfa b",
      "Ġag reed",
      "os ing",
      "Ġreci pe",
      "Ġgoog le",
      "Ġli p",
      "Ġun re",
      "Ġper ish",
      "Ġgovern or",
      "Ġconduct ed",
      "Ġshe kel",
      "Ġc ateg",
      "al ted",
      "ur er",
      "Ġsp ending",
      "Ġimp rison",
      "Ġhand le",
      "Ġrad io",
      "Ġil leg",
      "Ġgla ss",
      "j ud",
      "y er",
      "Ġpre d",
      "Ġwh en",
      "Ġag ent",
      "ap ed",
      "Ġorder ed",
      "Ġappear ance",
      "Ġbow l",
      "Ġa le",
      "ok ing",
      "Ġposs e",
      "Ġorgan ized",
      "Ġburn ing",
      "ing er",
      "Ġli ber",
      "Ġapp arent",
      "Ġadv oc",
      "Ġdeal ing",
      "spect ive",
      "Ġtrib ulation",
      "Ġinstru ment",
      "Ġwhen ever",
      "t ime",
      "Ġco ach",
      "Ġcal am",
      "Ġlisten ing",
      "Ġelect ron",
      "Ġbeth el",
      "Ġca ke",
      "Ġdel ay",
      "Ġair port",
      "Ġmet al",
      "Ġvir t",
      "Ġpropo sal",
      "Ġeffic ient",
      "Ġmemor ial",
      "Ġlau gh",
      "Ġa z",
      "Ġun ity",
      "Ġem otion",
      "Ġperson ally",
      "Ġnor thern",
      "Ġwest ern",
      "Ġpan el",
      "Ġrefuge e",
      "Ġcand idate",
      "Ġrela x",
      "Ġ ital",
      "in y",
      "Ġm ira",
      "Ġl amp",
      "th y",
      "if ying",
      "Ġform ed",
      "Ġdecla re",
      "Ġcra ft",
      "ru pt",
      "Ġexp and",
      "ren d",
      "Ġest ate",
      "Ġvisit or",
      "Ġpack age",
      "Ġanal ysis",
      "Ġarrange ment",
      "Ġbott om",
[...]
